[UNK]	0
[PAD]	0
[CLS]	0
[SEP]	0
[MASK]	0
zzbd쎂쎯	-3.53569
iy쎯mm쎯	-3.8697
oqdo쎯	-4.11488
ẩ	-4.21621
qmy쎁쎯	-5.12026
qtfm쎁쎯	-5.41859
zzdx쎁쎁쎯	-5.43775
adn쎯	-5.63035
qwyn쎁쎯	-5.6702
zzbd쎅쎯	-5.75465
tnhc쎁쎯	-5.81851
iepc쎯oope쎁쎯	-5.8545
ghd쎁쎯	-5.93474
dssn쎀쎯	-5.96555
nvk쎯	-6.02788
tkw쎯se쎯	-6.05734
iqas쎀쎯sfcy쎁쎯	-6.10897
fff쎀쎯	-6.11094
(	-6.12217
⎯	-6.13838
qwyn쎁쎯qgvb쎯	-6.17824
ith쎯xe쎯	-6.18111
zzbd쎄쎯	-6.20377
რ	-6.26592
weh쎯	-6.28154
ydm쎯	-6.2955
며	-6.35642
gag쎯	-6.3729
ypqn쎯	-6.39659
ydcy쎯	-6.46998
)	-6.48264
kpvg쎯	-6.51334
	-6.53312
fff쎀쎯tlnf쎯	-6.53925
wgkw쎃쎯	-6.54186
sgxe쎯	-6.56669
ydcy쎯rkk쎯wt쎯	-6.65262
tebl쎯	-6.70357
iepc쎯	-6.70585
ᨣ	-6.71472
qvln쎁쎯	-6.71505
fptc쎀쎯	-6.71964
aeef쎁쎯	-6.73164
afdp쎀쎯	-6.7341
wfj쎁쎯	-6.7427
뼉	-6.74786
ynah쎁쎯	-6.78086
qlqj쎁쎯	-6.78733
texd쎀쎯	-6.78803
dmjd쎀쎯	-6.79814
oguc쎀쎯	-6.79889
ŗ	-6.80617
qsyy쎯	-6.81851
xflm쎯	-6.82312
wjgr쎀쎯	-6.82549
qay쎁쎯	-6.83902
탤	-6.86689
xudb쎀쎯	-6.87993
ua쎯	-6.90367
cck쎯judb쎁쎯	-6.90618
lpk쎀쎯	-6.92471
qug쎀쎯	-6.92944
kyxy쎁쎯	-6.93145
nwjh쎀쎯	-6.94415
yygy쎯je쎯	-6.94999
namy쎀쎯	-6.95795
iawk쎁쎯	-6.96155
wprc쎀쎯	-6.96446
duc쎯	-6.97496
bkcb쎯smg쎯	-7.00732
	-7.02026
	-7.02246
fujh쎯	-7.03175
Ąsgfl쎀쎯	-7.03341
헬	-7.04528
wgmy쎀쎯ssss쎀쎯	-7.05421
zzbd쎂쎯zzdx쎁쎁쎯	-7.06098
ynwm쎀쎯	-7.06424
efcb쎯	-7.06879
qwyn쎁쎯sdht쎁쎯	-7.08268
xrh쎀쎯	-7.08416
oqdo쎯iepc쎯oope쎁쎯	-7.09215
qgvb쎯xudb쎀쎯	-7.09321
މ	-7.11238
jued쎀쎯	-7.11519
ryty쎁쎯	-7.12104
kwye쎀쎯wmj쎁쎯	-7.12172
txt쎯	-7.12791
iqas쎀쎯rqct쎁쎯	-7.12998
aecn쎯	-7.13157
ayec쎯	-7.13941
afuo쎀쎯njqn쎯	-7.152
료	-7.15476
wuh쎀쎯	-7.18425
tlnf쎯ukd쎁쎯	-7.18512
qmwy쎁쎯	-7.18585
fpo쎯쀊	-7.18826
zzjp쎁쎅쎯	-7.1928
wtfh쎀쎯	-7.19717
oopm쎀쎯	-7.201
kmwj쎯ֻ	-7.20506
vwyo쎯kpvg쎯	-7.20611
teae쎯	-7.20848
dftx쎯	-7.21535
evwo쎀쎯	-7.21677
kr쎯	-7.22848
jtfp쎁쎯	-7.2299
jcf쎯	-7.23088
tlnf쎯u쎯kkk쎯	-7.23936
atkf쎀쎯	-7.24114
wfcj쎯	-7.24343
fkuh쎀쎯	-7.24439
tlnf쎯	-7.25086
qwnd쎯	-7.25813
fpo쎯btfn쎀쎯	-7.26597
wy쎯	-7.26851
wsdn쎯	-7.26984
khaj쎂쎯	-7.27644
tedm쎀쎯	-7.27696
ifcl쎯	-7.28276
〔ywx쎯	-7.29233
dic쎯	-7.29241
zzjp쎃쎅쎯	-7.29729
kccc쎯aqsc쎯	-7.30131
tegf쎀쎯	-7.30405
alfw쎯	-7.30408
zzpj쎇쎄쎯jiqn쎂쎯	-7.307
sam쎯	-7.31005
fere쎯	-7.315
xxf쎯og쎯qgvb쎯	-7.31713
ijgf쎀쎯	-7.31784
rrrj쎯cbtc쎀쎯	-7.31946
jgd쎀쎯	-7.32129
qgvb쎯tdp쎯	-7.32604
fgu쎯	-7.32683
wgif쎯भ	-7.34166
qtyd쎀쎯	-7.34809
sdht쎁쎯	-7.38109
djg쎯	-7.38109
tfff쎁쎯	-7.38314
qipr쎯ֻ	-7.38494
qgvb쎯	-7.39086
jeg쎯	-7.39265
tfqb쎁쎯ghd쎁쎯	-7.39562
ς	-7.39639
┯	-7.4026
oopm쎀쎯┯	-7.41046
iepc쎯qvln쎁쎯	-7.41094
r쎯v쎯nae쎀쎯	-7.41201
tyke쎂쎯	-7.41243
vkb쎯	-7.41464
qsyy쎯ẩ⎯	-7.41907
lagg쎯	-7.43108
iepc쎯oope쎁쎯oop	-7.43519
dssn쎀쎯zzbd쎂쎯	-7.43934
್	-7.4504
zzbd쎂쎯qtfm쎁쎯	-7.45072
ix쎯	-7.45313
uqt쎯js쎯	-7.45725
xmw쎯	-7.45874
ltkf쎀쎯	-7.45925
	-7.47523
uxe쎯	-7.48276
juk쎯	-7.48784
fooy쎯	-7.49569
jiqn쎂쎯	-7.49593
nqdb쎀쎯	-7.5001
rqct쎁쎯	-7.50174
쎁쎃	-7.50281
tmdf쎁쎯	-7.50945
ca쎯	-7.51402
emww쎯afuo쎀쎯	-7.51477
kwye쎀쎯tlnf쎯	-7.51801
ב	-7.52005
ljlg쎁쎯	-7.52136
lv쎯	-7.52305
	-7.52366
ryty쎁쎯qwyn쎁쎯	-7.52731
aqdo쎯	-7.52797
Ĉ	-7.53357
zzdx쎉쎯	-7.53719
xxf쎯og쎯	-7.53853
בofdj쎯	-7.54467
qfdj쎯	-7.55044
̇	-7.5522
uguh쎀쎯	-7.55349
vg쎯	-7.55649
▁wc쎯ngk쎯	-7.55688
qta쎯	-7.55855
oqdo쎯	-7.56063
idg쎀쎯	-7.56438
pei쎯n쎯ydcy쎯	-7.56636
ugd쎂쎯	-7.57021
ix쎯cck쎯	-7.57894
zzbd쎂쎯khaj쎂쎯	-7.58068
aecn쎯ytwj쎀쎯	-7.58483
dhih쎯	-7.58817
jgsy쎯vkcy쎀쎯	-7.58995
kbf쎀쎯	-7.59171
슨	-7.59454
ghd쎁쎯ocyj쎯	-7.59764
shy쎀쎯	-7.59822
aecn쎯Ą	-7.59954
jatn쎀쎯	-7.60085
goqh쎯	-7.60217
yqj쎯	-7.60394
ctrt쎯gnn쎀쎯	-7.60726
ysjh쎯uduw쎀쎯	-7.61283
qsyy쎯zzbd쎅쎯weh쎯	-7.61421
rham쎃쎯jywf쎀쎯	-7.61612
fpgc쎁쎈쎯	-7.61868
iepc쎯ɒ	-7.6196
dpgh쎯	-7.62989
wgmy쎀쎯	-7.63649
gag쎯ydm쎯	-7.63915
qkty쎯	-7.6411
fn쎯	-7.64349
uh쎯	-7.64766
zzts쎁쎈쎯	-7.64921
sudk쎯	-7.65283
whw쎯	-7.65366
pyfk쎀쎯ghd쎁쎯	-7.65472
rwp쎯	-7.65519
fnw쎯fhit쎀쎯	-7.65778
dssn쎀쎯puyg쎯	-7.65854
qtnx쎯	-7.66756
rrrj쎯	-7.66799
xgfh쎀쎯	-7.66842
ith쎯xe쎯fcbh쎁쎯	-7.67017
hako쎯	-7.67282
vadt쎯	-7.67334
auj쎯	-7.67523
ijlc쎯	-7.67802
sync쎯	-7.68135
msv쎯	-7.68435
kdhv쎯	-7.68561
akgq쎀쎯	-7.69609
kkbh쎯	-7.70226
xflm쎯qug쎀쎯	-7.70382
iwgd쎯	-7.70475
mci쎀쎯	-7.71029
bij쎯	-7.71595
qsfi쎯	-7.7178
f쎯yy쎯zzpj쎇쎄쎯	-7.72674
fpgo쎀쎯	-7.72902
å	-7.72965
tmdf쎁쎯fpgo쎀쎯vbs쎯	-7.73031
omdy쎯	-7.73225
emww쎯wpqe쎯	-7.73351
fnx쎯	-7.73632
dfny쎁쎯	-7.73773
Ĉế	-7.73846
gmf쎯othj쎯	-7.74006
qsfi쎯aqdo쎯	-7.74104
xfcy쎀쎯	-7.74701
kccc쎯	-7.7472
ytwj쎀쎯mtfk쎀쎯	-7.75575
・judb쎁쎯	-7.75623
rqcc쎀쎯ᦆ	-7.75695
ysjh쎯	-7.75751
mtyi쎯	-7.76047
iqas쎀쎯	-7.76128
Ἅ	-7.76158
umaw쎀쎯	-7.76554
zzbd쎂쎯gag쎯	-7.76656
lnav쎯	-7.76688
qgn쎯vqqw쎀쎯	-7.76705
awxx쎯	-7.76911
ʋ	-7.7714
쀊	-7.77447
awwp쎯	-7.77867
skkn쎁쎯	-7.78032
xtol쎀쎯	-7.7841
ygq쎯	-7.78641
ugi쎯	-7.7885
ᦆ	-7.78892
kdhv쎯qgvb쎯	-7.79447
vny쎀쎯	-7.79564
슈	-7.79658
jf쎯	-7.80124
oope쎁쎯	-7.80369
nufh쎀쎯	-7.80423
tpw쎯	-7.80618
wmcy쎯	-7.80741
xyxw쎁쎯	-7.80746
zzjp쎄쎈쎯qtdd쎀쎯	-7.80773
oqdo쎯	-7.80781
zzpj쎇쎄쎯	-7.81596
avf쎀쎯	-7.81843
ybmh쎁쎯	-7.82047
rqcc쎀쎯	-7.8217
)zzbd쎂쎯	-7.8221
	-7.82546
យ	-7.82658
ynna쎀쎯	-7.82665
dssn쎀쎯oqdo쎯	-7.82946
wuh쎀쎯gag쎯	-7.82992
kwye쎀쎯skkn쎁쎯	-7.83049
რijgf쎀쎯	-7.83715
syp쎯	-7.83844
gqt쎯	-7.84
ydcy쎯qkhk쎯	-7.84354
afam쎀쎯	-7.84466
dftf쎁쎯	-7.84792
ufn쎯	-7.85002
zzde쎂쎈쎯	-7.8523
dpgg쎯	-7.85619
vbs쎯	-7.85833
jrif쎯	-7.86018
wtfh쎁쎯	-7.86062
cep쎯fp쎯민ayec쎯	-7.86244
wtfh쎀쎯ahkm쎁쎯	-7.86902
kawc쎀쎯	-7.86922
puwj쎀쎯ixxr쎯	-7.87165
쎂eee쎀쎯	-7.87264
zzbd쎁쎇쎯	-7.87417
iawk쎁쎯	-7.87419
aha쎯hlqc쎀쎯	-7.87543
wy쎯ith쎯xe쎯	-7.87565
jtn쎯	-7.87629
puy쎯	-7.87736
kccc쎯rs쎯tfkp쎀쎯	-7.88268
kwye쎀쎯lftj쎯	-7.88306
fpo쎯	-7.88389
ỉ	-7.88636
tak쎯	-7.88681
iaah쎯	-7.88961
bkcb쎯	-7.88981
qgiy쎁쎯ayec쎯	-7.89092
oue쎯	-7.891
dfny쎁쎯jatn쎀쎯	-7.8931
qvln쎁쎯ɒiepc쎯	-7.89479
gmye쎁쎯	-7.89617
	-7.90003
	-7.90247
rymn쎯	-7.90267
fn쎯qyiy쎀쎯	-7.90359
juk쎯zzjp쎁쎅쎯	-7.90579
rnp쎯	-7.90641
tejh쎀쎯texd쎀쎯	-7.90641
rkk쎯wt쎯	-7.90686
ix쎯tlnf쎯	-7.91151
료	-7.91281
wdj쎯	-7.91289
청	-7.91489
qvln쎁쎯ɒ	-7.91612
afuo쎀쎯ktr쎯	-7.9172
qkhk쎯	-7.91821
mqjh쎀쎯	-7.92154
hiu쎀쎯	-7.92628
wfcj쎯wfcj쎯wfcj쎯	-7.92659
crqc쎯	-7.9277
emww쎯	-7.92975
gefc쎯	-7.93074
wrh쎂쎯	-7.93145
zzxe쎂쎇쎯wbqg쎯	-7.93446
iepc쎯ynwm쎀쎯	-7.9347
ugx쎯	-7.93724
jada쎁쎯ֻkpvg쎯	-7.95314
xtgo쎯jued쎀쎯	-7.95578
Ἀayec쎯	-7.95608
ydje쎀쎯	-7.95759
etxu쎯	-7.9644
waqj쎯	-7.9661
duvo쎀쎯	-7.96937
쎂쎀쎀쎅rh쎯	-7.97057
kawc쎀쎯xln쎁쎯	-7.97156
ằ	-7.97959
yam쎯	-7.98304
lfon쎃쎯	-7.98305
abue쎯	-7.98435
wtfv쎀쎯	-7.98529
mqyl쎯	-7.9879
dnku쎀쎯jlff쎀쎯	-7.98794
qwyn쎁쎯tlnf쎯	-7.99022
udfm쎀쎯	-7.99076
qwyn쎁쎯iy쎯mm쎯	-7.99192
sqqf쎁쎯	-7.99349
qgmg쎯	-7.99476
Ἴ	-7.99584
ww쎯gk쎯	-8.00127
tejh쎀쎯	-8.00908
wtff쎁쎯	-8.00986
aump쎯umaw쎀쎯	-8.0122
itky쎯	-8.01414
tdko쎯	-8.01444
dskc쎂쎯	-8.01558
ֻ	-8.01747
by쎯	-8.01785
q	-8.01967
qouq쎀쎯iqas쎀쎯	-8.02239
aghu쎯ukd쎁쎯	-8.02268
fpgo쎀쎯alfw쎯	-8.02718
afqb쎁쎯ahkm쎁쎯	-8.02859
태	-8.03137
bynn쎯ipr쎯	-8.03187
uqt쎯js쎯duvo쎀쎯	-8.03252
fpwo쎀쎯	-8.03336
oqdo쎯qtfm쎁쎯	-8.03654
kwye쎀쎯	-8.03705
fnw쎯	-8.0381
cep쎯fp쎯ayec쎯	-8.04043
iepc쎯fkuh쎀쎯	-8.04312
luf쎀쎯	-8.04378
Ď	-8.04458
ftux쎯	-8.04472
th쎯	-8.04486
hlqc쎀쎯	-8.04537
vwyo쎯	-8.04539
qvln쎁쎯fkuh쎀쎯	-8.0457
yqjg쎯	-8.04901
qvln쎁쎯duvo쎀쎯	-8.05204
hggt쎀쎯	-8.05345
umau쎯xjx쎯	-8.05432
mtje쎃쎯oopm쎀쎯	-8.05571
iepc쎯oope쎁쎯msv쎯	-8.05657
rtfh쎀쎯	-8.05686
py쎯aq쎯	-8.05842
tlnf쎯aecn쎯	-8.06019
xans쎁쎯	-8.06578
nutg쎯	-8.07076
avyn쎯	-8.07135
lccc쎃쎯	-8.07137
sghg쎂쎯dmjn쎃쎯	-8.07158
iit쎯	-8.0743
tlnf쎯bfkg쎯	-8.07859
uqt쎯js쎯wgkw쎃쎯	-8.0825
qvln쎁쎯wgkw쎃쎯	-8.08382
qmwy쎁쎯	-8.08529
yjdg쎯lyn쎯	-8.0879
tvfh쎁쎯	-8.09349
aga쎯	-8.09552
wvgw쎅쎯jrif쎯	-8.09732
fjqn쎁쎯zzjp쎁쎅쎯	-8.09786
ʋqkhk쎯	-8.09844
zzbd쎂쎯adn쎯	-8.09992
iuyy쎯	-8.10274
anb쎀쎯sy쎯	-8.10297
fpo쎯ֻ	-8.10389
pyu쎯	-8.1061
ylaw쎀쎯pwi쎯	-8.1131
of쎯	-8.11509
ɸ	-8.11586
fkkv쎀쎯	-8.11677
쏅ynna쎀쎯	-8.11852
왜fkkv쎀쎯	-8.11876
fjqn쎁쎯	-8.12004
fpgo쎀쎯nqdb쎀쎯	-8.1204
fkuh쎀쎯fkuh쎀쎯	-8.12083
މadn쎯	-8.12127
gias쎯	-8.12216
rwyg쎀쎯qenh쎯	-8.12232
ww쎯gk쎯fnx쎯	-8.12232
ฌ	-8.12304
ddu쎁쎯	-8.12739
igji쎯	-8.12742
a	-8.12877
	-8.12886
aahl쎀쎯ֻ	-8.13164
jmf쎯	-8.13192
w쎯km쎯	-8.13632
nvk쎯oqdo쎯	-8.13633
uejv쎀쎯	-8.13939
qamh쎀쎯puwj쎀쎯	-8.13967
쀊adn쎯	-8.14193
엽	-8.15017
sgfl쎀쎯.	-8.15032
릿	-8.15213
peg쎯	-8.15243
yqvg쎀쎯	-8.15285
쎂	-8.15423
cwyg쎁쎯	-8.15444
axa쎯	-8.15528
ֶ	-8.15582
ȓ	-8.15598
haq쎯	-8.16094
snih쎯	-8.16114
yssj쎂쎯	-8.16115
lnav쎯zzdx쎁쎁쎯	-8.16343
҉	-8.16354
객	-8.16434
twic쎀쎯	-8.16439
dmjd쎀쎯ɒ	-8.16454
oopm쎀쎯tlnf쎯	-8.16557
yaqj쎂쎯	-8.16565
	-8.16646
ukd쎁쎯	-8.16732
thwu쎯thwu쎯	-8.16743
왜	-8.16826
➤	-8.16937
tfqu쎯	-8.16944
qyiy쎀쎯	-8.17085
vagf쎯	-8.17122
umaw쎀쎯afpa쎯	-8.17277
tldt쎀쎯	-8.17342
zzxe쎂쎇쎯	-8.17627
fcbh쎁쎯	-8.17649
thgc쎀쎯	-8.17743
dttd쎀쎯	-8.17987
t	-8.1828
qoep쎯	-8.18526
jiqn쎂쎯ֻ	-8.18824
iepc쎯dmjd쎀쎯	-8.18867
kxxi쎀쎯	-8.18914
i	-8.1892
xqay쎀쎯	-8.18981
vevg쎁쎯	-8.18986
ϊ	-8.19037
쀊sgfl쎀쎯	-8.19062
gajl쎯ஜ	-8.19145
dssn쎀쎯qkty쎯	-8.1918
ςxxf쎯og쎯	-8.19304
qvln쎁쎯ynwm쎀쎯	-8.19547
jgsy쎯	-8.19653
cux쎯	-8.19858
xxhh쎀쎯	-8.1989
ua쎯qoep쎯	-8.2006
qer쎯ddth쎀쎯	-8.20106
ygji쎯	-8.20128
qenh쎯	-8.20331
gnn쎀쎯tegf쎀쎯	-8.20331
	-8.20524
Ȏ	-8.20667
halo쎀쎯	-8.20683
skg쎯	-8.20698
lrwy쎀쎯	-8.20759
snij쎯	-8.20966
pei쎯n쎯ifcl쎯	-8.2144
uepc쎁쎯fth쎯	-8.21678
⟩	-8.21691
ooqh쎁쎯	-8.21882
ghnu쎀쎯skg쎯	-8.21888
qcrh쎯	-8.22112
ter쎁쎯rgiq쎀쎯	-8.22279
ryg쎯	-8.22453
aha쎯	-8.22642
dmjd쎀쎯wgkw쎃쎯	-8.22702
ahnr쎀쎯	-8.22874
zzbd쎇쎯	-8.23017
oafg쎁쎯	-8.23095
Ďvwyo쎯	-8.23097
flmu쎀쎯	-8.231
zzbd쎂쎯pwgn쎀쎯	-8.23181
puyg쎯	-8.23236
gftj쎯	-8.23414
k	-8.23429
fpgo쎀쎯wgmy쎀쎯	-8.23625
	-8.23691
iepc쎯uqt쎯js쎯	-8.2401
dfee쎯	-8.24336
uvog쎯	-8.24407
vwcy쎯	-8.24463
afqb쎁쎯wtff쎁쎯	-8.24492
ᨣwaqj쎯	-8.24515
()	-8.25059
udfm쎀쎯aqsc쎯	-8.25067
mgt쎯	-8.25197
yhk쎯	-8.25314
ymd쎯	-8.25361
qte쎀쎯	-8.25502
콕iawk쎁쎯	-8.25509
oguc쎀쎯tlnf쎯	-8.25562
ד	-8.25768
zzbd쎂쎯	-8.26022
어	-8.26076
➤iawk쎁쎯	-8.26389
iqaw쎯	-8.26667
wtfh쎀쎯krwy쎯	-8.26699
anwu쎯	-8.26843
yaf쎯	-8.26889
ષ	-8.26996
qwgj쎀쎯	-8.27011
tduj쎀쎯xflm쎯	-8.27014
ဂ	-8.27069
xrh쎀쎯aah쎀쎯	-8.27254
njqn쎯zzxe쎉쎯	-8.27269
랙	-8.27586
fgu쎯et쎯yne쎯	-8.27632
duk쎀쎯	-8.27821
qgn쎯	-8.28014
sgfl쎀쎯	-8.28142
wvgw쎄쎯	-8.28203
dssn쎀쎯quxx쎁쎯	-8.28476
tmdf쎁쎯fpgo쎀쎯	-8.28512
ai쎯	-8.28577
aqrj쎯	-8.28687
rccn쎯	-8.28692
cffq쎯	-8.28799
ả	-8.28819
xfcy쎀쎯tpw쎯	-8.29116
zzjp쎁쎅쎯hako쎯	-8.29162
fjqn쎁쎯pyjr쎯	-8.29288
sjfh쎯	-8.29428
faoi쎯	-8.29444
idnt쎁쎯ghd쎁쎯	-8.29458
궁	-8.29458
zzxe쎂쎆쎯	-8.29972
pugi쎀쎯	-8.30003
aqkf쎀쎯iuyy쎯	-8.30007
sqoj쎯	-8.30086
fooy쎯frh쎀쎯	-8.30295
fefy쎯	-8.30295
dssn쎀쎯민	-8.30345
apdi쎯	-8.30518
tawt쎯	-8.30553
Ἀqug쎀쎯	-8.30557
klle쎯	-8.30572
iepc쎯iepc쎯	-8.30612
xtyk쎁쎯	-8.30704
qwyn쎁쎯niq쎯	-8.30809
tgk쎯	-8.30968
wgkg쎀쎯	-8.30974
gyv쎯	-8.31046
tivf쎯	-8.31282
aah쎀쎯	-8.31379
qoce쎀쎯ynah쎁쎯	-8.31481
직	-8.31517
eua쎯	-8.31679
ynwm쎀쎯ɒ	-8.31826
suog쎯	-8.31979
ukf쎁쎯swwl쎀쎯	-8.32126
iepc쎯msv쎯	-8.32171
Ĉ	-8.32185
iy쎯mm쎯	-8.32298
qipr쎯xudb쎀쎯	-8.32413
kpvg쎯iepc쎯oope쎁쎯	-8.32568
fff쎀쎯jatn쎀쎯	-8.32648
asff쎁쎯	-8.32804
쎁쎉쎉쎉rh쎯	-8.32891
u쎯kkk쎯	-8.33228
mtfk쎀쎯	-8.33407
iepc쎯å	-8.33424
Ҟ	-8.33532
mtje쎃쎯	-8.33541
wgkw쎃쎯msv쎯duvo쎀쎯	-8.33818
smg쎯mtje쎃쎯	-8.33983
dujf쎂쎯	-8.34021
aqdo쎯btfn쎀쎯	-8.34224
x	-8.34301
xfkm쎀쎯	-8.34525
zzbd쎂쎯ryty쎁쎯	-8.34756
ብ	-8.348
ukqb쎀쎯mtfk쎀쎯	-8.34834
fkd쎯	-8.35001
tfqb쎁쎯	-8.35085
uus쎯	-8.3509
thgy쎂쎯	-8.35136
difc쎯usq쎯	-8.35174
f쎯yy쎯	-8.35228
혹	-8.35359
ryty쎁쎯qta쎯	-8.3558
fooy쎯yi쎯	-8.35656
ẩweh쎯	-8.35684
erh쎯	-8.35748
zzbd쎂쎯ghd쎁쎯	-8.36178
cyj쎯iqas쎀쎯sfcy쎁쎯	-8.36178
ukf쎁쎯	-8.36284
rkk쎯wt쎯dssn쎀쎯	-8.36401
iawk쎁쎯sfgn쎯	-8.36432
jlff쎀쎯	-8.36563
qwnd쎯fgu쎯	-8.36639
oajj쎀쎯	-8.36895
w	-8.36902
gkh쎀쎯	-8.36962
jiqn쎂쎯gajl쎯	-8.37105
yaqj쎂쎯rrrj쎯	-8.3713
khjf쎀쎯pyut쎀쎯	-8.37324
anwu쎯ywx쎯	-8.37485
ielf쎀쎯	-8.3759
xrh쎀쎯aah쎀쎯Ἀ	-8.37642
iawk쎁쎯kpvg쎯	-8.37899
byi쎁쎯	-8.3811
fhit쎀쎯	-8.38134
xyxw쎁쎯iawk쎁쎯	-8.3823
iepc쎯wgkw쎃쎯	-8.38731
ֻywx쎯	-8.38858
j	-8.38868
tejh쎀쎯aqkn쎯	-8.39073
f쎯yy쎯aeef쎁쎯	-8.39227
qwyn쎁쎯oopm쎀쎯	-8.3927
ijly쎯	-8.39344
pukv쎯	-8.3937
e	-8.39553
fkfk쎀쎯	-8.39582
owno쎀쎯	-8.39597
vpns쎯rwyg쎀쎯	-8.39619
qgvb쎯	-8.39813
ynm쎯	-8.39852
vffn쎂쎯	-8.4001
ybg쎯	-8.40101
imjh쎀쎯	-8.402
mmgk쎁쎯	-8.40816
어qsfi쎯	-8.41018
sjfh쎯ybmh쎁쎯	-8.41033
fhuw쎯	-8.41235
며ydcy쎯oqdo쎯	-8.41375
djg쎯zzdx쎁쎁쎯	-8.4147
wtff쎁쎯쀊	-8.41471
Ą	-8.41592
tlnf쎯judb쎁쎯	-8.41714
txx쎯	-8.42056
ywgj쎄쎯	-8.42316
ő	-8.42333
ygey쎀쎯	-8.42481
yjs쎯tkgg쎁쎯	-8.42556
qvln쎁쎯dftx쎯	-8.42746
yy쎯tm쎯	-8.42754
aeef쎁쎯zzbd쎂쎯	-8.42757
orh쎁쎯	-8.42845
itle쎯	-8.42857
sfgn쎯	-8.43213
쎃쎅	-8.43314
qer쎯	-8.43339
njqn쎯usq쎯	-8.4337
dftx쎯ɒ	-8.43398
〔	-8.43523
ghd쎁쎯wfil쎀쎯	-8.43708
mfc쎯wtff쎁쎯	-8.43849
eujg쎯	-8.43944
ydcy쎯xudb쎀쎯	-8.44069
ृ	-8.44227
oguc쎀쎯lccc쎃쎯	-8.44758
jrif쎯jvip쎀쎯	-8.44763
rwyg쎀쎯	-8.44825
vdf쎀쎯	-8.44962
)oqdo쎯	-8.44993
y	-8.45499
kawc쎀쎯qgvb쎯	-8.45545
בા	-8.45702
gkhj쎁쎯	-8.45797
r	-8.45934
aghu쎯tlnf쎯	-8.45952
gnn쎀쎯	-8.4604
ewwb쎯	-8.46204
ynn쎀쎯	-8.46241
giv쎯	-8.46515
a쎯	-8.46582
aruf쎯	-8.46843
fkeg쎯	-8.46878
oue쎯smg쎯	-8.47084
rbm쎯fd쎯ymhj쎀쎯	-8.47105
wfil쎀쎯	-8.47499
xyke쎂쎯	-8.47651
ehkg쎯	-8.47688
tlnf쎯ayec쎯	-8.47757
iepc쎯oope쎁쎯dftx쎯	-8.47827
sgxe쎯슨	-8.47899
xjx쎯qcrh쎯	-8.4798
jrif쎯쀊	-8.48073
qvln쎁쎯ɒɒåwgkw쎃쎯	-8.48309
yqqe쎯	-8.48366
wmcy쎯wgkw쎃쎯	-8.48528
dee쎯	-8.48781
dnbm쎯qkty쎯	-8.488
kjug쎯	-8.48815
ynna쎀쎯fpo쎯	-8.4887
akgq쎀쎯wfil쎀쎯	-8.48873
qoux쎀쎯	-8.48878
ua쎯zzbd쎂쎯	-8.48919
wfil쎀쎯kccc쎯	-8.48931
xflm쎯fpgo쎀쎯	-8.48978
oope쎁쎯wgkw쎃쎯	-8.48998
dmjd쎀쎯fkuh쎀쎯	-8.49176
f	-8.49244
ylaw쎀쎯	-8.49449
iwgw쎁쎯	-8.49485
rnd쎁쎯	-8.49618
sqqf쎁쎯jnx쎯	-8.49732
kdhv쎯judb쎁쎯	-8.4983
axht쎯	-8.4994
	-8.50037
m	-8.50063
Z	-8.50085
ế	-8.50093
qwyn쎁쎯kbf쎀쎯	-8.50096
pfjb쎯	-8.50131
txi쎯	-8.50775
wynk쎯	-8.50862
ahnl쎂쎯crgg쎀쎯	-8.51017
vpns쎯	-8.51279
qnwe쎀쎯	-8.51415
tejh쎀쎯ä	-8.51454
osjh쎁쎯	-8.51464
jmfg쎀쎯	-8.51474
ष	-8.51548
sntn쎀쎯ygq쎯	-8.51746
yaww쎀쎯	-8.51836
zzbd쎂쎯dfd쎯zzbd쎂쎯	-8.51955
ysjh쎯태	-8.52029
ynwm쎀쎯wgkw쎃쎯	-8.52031
Į	-8.52066
yy쎯dm쎯	-8.52301
tfnq쎂쎯	-8.52315
xhqn쎯	-8.52384
qgig쎁쎯	-8.52386
qdff쎁쎯ષ	-8.52411
ofkk쎀쎯	-8.52574
゙	-8.52574
ɧ	-8.52649
rqcc쎀쎯yqj쎯	-8.52816
Ἀ	-8.53071
n	-8.53181
》:“	-8.53366
buah쎀쎯	-8.53591
ter쎁쎯awnu쎁쎯	-8.53823
llld쎀쎯	-8.53938
aecn쎯iuyy쎯	-8.54001
yi쎯	-8.54069
yssj쎂쎯ygey쎀쎯	-8.54252
iepc쎯iepc쎯duvo쎀쎯	-8.54272
wbqg쎯	-8.54324
alfw쎯nlge쎀쎯	-8.54337
khuv쎀쎯	-8.54601
xrh쎀쎯rwyg쎀쎯	-8.54863
afpa쎯	-8.54864
qdy쎀쎯	-8.54864
icyy쎯	-8.55152
dssn쎀쎯iuyy쎯	-8.55307
wyk쎯	-8.55379
puyg쎯Į	-8.55433
iryy쎯	-8.5568
wgkw쎃쎯åduvo쎀쎯	-8.55703
skkn쎁쎯idf쎀쎯	-8.55714
qobt쎀쎯	-8.5575
dmjd쎀쎯qvln쎁쎯	-8.56032
시qrgk쎯	-8.56063
뽀	-8.5617
yntm쎂쎯	-8.56218
ygqt쎯	-8.56276
tqto쎃쎯	-8.56294
quxx쎁쎯	-8.56332
smg쎯	-8.56474
dfsh쎯	-8.56578
puwj쎀쎯	-8.56655
oope쎁쎯duvo쎀쎯	-8.56859
wpde쎁쎯	-8.56969
mtfk쎀쎯iuyy쎯	-8.57149
xxf쎯og쎯wgmy쎀쎯	-8.57155
btwu쎯	-8.57221
qvln쎁쎯ɒɒ	-8.57313
umaw쎀쎯wsdn쎯	-8.57362
ywyk쎀쎯iumt쎯	-8.57492
duk쎀쎯sgfl쎀쎯	-8.57577
dnbm쎯	-8.5758
gmf쎯ᨣ	-8.57636
cyk쎯	-8.5767
	-8.57748
rqcc쎀쎯qtdd쎀쎯	-8.57766
슈wpn쎯	-8.57773
khpj쎯	-8.578
zzdx쎂쎯	-8.57842
dmjd쎀쎯ynwm쎀쎯	-8.57901
idgt쎀쎯	-8.5791
며ydcy쎯	-8.57928
kwyc쎀쎯	-8.57961
åɒ	-8.582
rham쎃쎯	-8.58243
zzbd쎂쎯ŗ	-8.58308
iy쎯mm쎯ydcy쎯qkhk쎯	-8.58347
pei쎯n쎯	-8.58426
tsg쎁쎯	-8.58434
qvln쎁쎯qvln쎁쎯	-8.58533
iqas쎀쎯jtfp쎁쎯	-8.58732
g	-8.59139
afuo쎀쎯sjtq쎯	-8.59202
tdnt쎁쎯	-8.59304
an쎯lwj쎯	-8.594
qwyn쎁쎯zzbd쎂쎯	-8.59454
빛	-8.59572
.	-8.59594
aahl쎀쎯puyg쎯	-8.59666
덕	-8.59718
qgvb쎯avyn쎯Ąitfq쎯	-8.59733
d	-8.59771
xpn쎯މ	-8.59783
nuk쎀쎯	-8.59796
ibg쎁쎯	-8.59902
rdgt쎁쎯	-8.60023
zzdx쎁쎁쎯슈	-8.60119
uftj쎂쎯	-8.60193
anhf쎃쎯	-8.60218
fudk쎯	-8.60226
dnku쎀쎯	-8.60406
ẗ	-8.60513
rpw쎯rmhj쎯	-8.60577
anwu쎯ֻ	-8.60595
qouq쎀쎯	-8.6071
jytb쎁쎯	-8.60825
jgc쎯	-8.60957
vcbo쎀쎯	-8.61018
fooy쎯mtfk쎀쎯	-8.61048
guj쎯	-8.61291
xfth쎀쎯	-8.61374
iepc쎯ɒɒ	-8.61429
aecn쎯zzbd쎂쎯	-8.61683
vpns쎯sjtq쎯	-8.61741
qenh쎯dee쎯	-8.61797
iepc쎯dftx쎯	-8.61825
famu쎯	-8.61905
sgwo쎯najf쎀쎯	-8.61916
rwyg쎀쎯ghd쎁쎯	-8.61952
칭	-8.61977
pei쎯n쎯qay쎁쎯	-8.62086
rtwh쎀쎯	-8.62102
afam쎀쎯ב	-8.62127
oqdo쎯⎯	-8.62141
iudi쎀쎯	-8.62364
mpk쎀쎯ᦆ	-8.6244
icd쎯	-8.62634
ohqo쎀쎯	-8.62643
숭	-8.62682
fooy쎯frh쎀쎯iy쎯mm쎯	-8.62821
rtf쎯	-8.6303
qrj쎯	-8.6314
뼉sam쎯	-8.63167
qve쎯	-8.63175
khbb쎯	-8.6326
lrwy쎀쎯fxxr쎯	-8.63398
xfm쎯	-8.63409
yygy쎯je쎯tdko쎯	-8.63426
afqb쎁쎯	-8.63439
iugo쎯	-8.63618
qvln쎁쎯ɒiepc쎯ɒ	-8.63644
aahl쎀쎯	-8.63679
vlny쎯	-8.63685
sbkg쎀쎯	-8.63707
u	-8.63727
rwyg쎀쎯qtfm쎁쎯	-8.63875
민	-8.63879
jnx쎯	-8.64023
fujh쎯swwn쎃쎯	-8.64074
ᆞ	-8.64227
tlnf쎯ghnu쎀쎯	-8.64248
ὴ	-8.64311
jthf쎀쎯	-8.64361
징	-8.64397
mumj쎯ֻ	-8.64448
uqvh쎂쎯	-8.64539
kqm쎯	-8.64597
jued쎀쎯vevg쎁쎯	-8.6461
zzbd쎂쎯txt쎯	-8.6464
zzbd쎅쎯weh쎯	-8.64673
fjqn쎁쎯xflm쎯	-8.64752
zzdx쎁쎁쎯txt쎯	-8.6483
qdff쎁쎯	-8.65067
dhdl쎁쎯	-8.6513
zzsx쎁쎯	-8.65306
ydcy쎯	-8.65659
hep쎯	-8.65782
liqn쎀쎯	-8.65877
zzjp쎄쎈쎯	-8.65903
itfq쎯	-8.65998
klle쎯wnx쎯	-8.66102
뼉sam쎯kyxy쎁쎯	-8.66107
qoce쎀쎯쀊	-8.66126
ᠢ	-8.66135
ytwc쎯	-8.66184
kaqt쎀쎯	-8.6619
qrrm쎯	-8.66337
o	-8.66341
pfeu쎯	-8.66395
gajl쎯	-8.66621
쳐	-8.66629
쏅ynna쎀쎯fpo쎯쀊	-8.66644
chqn쎯	-8.66663
drt쎯	-8.66711
xxey쎀쎯mtfk쎀쎯	-8.66712
oops쎁쎯	-8.66723
agmw쎂쎯	-8.66859
ryg쎯މ	-8.66918
ҡ	-8.66943
bij쎯tegj쎯	-8.66988
ix쎯wgif쎯	-8.67068
ydcy쎯ajqg쎯	-8.67243
iepc쎯ɒduvo쎀쎯	-8.67252
Ąֻ	-8.67292
fhuk쎁쎯	-8.67526
fkuh쎀쎯ynwm쎀쎯	-8.67531
혹rkk쎯wt쎯	-8.67548
mtd쎯	-8.67581
ા	-8.67638
tebl쎯tmdf쎁쎯	-8.6773
iooo쎯	-8.67744
skln쎯	-8.67914
등	-8.68012
osjh쎁쎯trqy쎀쎯	-8.68107
wdj쎯wnx쎯	-8.6822
odm쎯	-8.68344
fth쎯	-8.68421
sam쎯	-8.68536
ཛ	-8.68654
ច	-8.68675
rqrm쎯yqj쎯	-8.69
nngn쎯	-8.69262
ᦆiqje쎀쎯	-8.69301
spju쎀쎯	-8.69312
tyke쎂쎯wmj쎁쎯	-8.69338
xxe쎯	-8.6943
nwjh쎀쎯wgkw쎃쎯	-8.69441
terc쎯	-8.69477
zzbd쎈쎯zzbd쎈쎯	-8.69709
▬	-8.69745
ghnn쎀쎯sdht쎁쎯	-8.69871
ike쎯	-8.69877
ஜ	-8.69934
Ķaecn쎯	-8.69938
ĵ	-8.69962
dfd쎯	-8.70268
qvln쎁쎯dmjd쎀쎯	-8.70272
̇rkk쎯wt쎯	-8.70296
xdjf쎀쎯	-8.7034
afan쎀쎯	-8.70439
zzxx쎀쎯	-8.70464
qgjj쎯	-8.70475
qtvq쎁쎯	-8.70712
fiwe쎯	-8.70798
xewo쎯	-8.70949
khah쎀쎯	-8.71072
wjgr쎀쎯	-8.71089
ynah쎁쎯twt쎯	-8.71234
oopm쎀쎯	-8.7129
agi쎯nqdb쎀쎯	-8.71321
afuo쎀쎯	-8.71409
lrs쎯	-8.71573
adn쎯tkw쎯se쎯	-8.71834
mjhg쎀쎯칭	-8.71891
զ	-8.72067
zzpj쎇쎄쎯lv쎯	-8.72111
odmj쎁쎯	-8.72198
vpns쎯ip쎯nu쎯	-8.72201
qwet쎀쎯	-8.72269
vny쎀쎯fff쎀쎯	-8.72286
s	-8.72342
fpgc쎁쎈쎯uus쎯	-8.72421
mci쎀쎯	-8.72454
aqkn쎯	-8.72501
Ĉrwyg쎀쎯	-8.72517
nwjh쎀쎯iqaw쎯	-8.72538
xrh쎀쎯aecn쎯zzbd쎂쎯	-8.72544
mnmq쎀쎯	-8.72586
zzde쎃쎯ahnl쎂쎯	-8.72598
qug쎀쎯pyut쎀쎯	-8.7266
sgwo쎯	-8.72692
fpo쎯・	-8.72863
vcm쎯	-8.73062
fbh쎀쎯	-8.73104
sgxe쎯lrw쎯	-8.73121
징sfgn쎯	-8.73143
mgji쎀쎯	-8.73155
syny쎀쎯	-8.73167
ಚ	-8.7341
gajl쎯qer쎯	-8.73439
qjmy쎯	-8.73537
슨ua쎯	-8.73728
gk쎯	-8.73804
ynna쎀쎯lv쎯qwyn쎁쎯	-8.73842
zzxx쎉쎯jiqn쎂쎯	-8.74063
억	-8.74091
┯tlnf쎯	-8.74249
쎁쎯	-8.74271
kr쎯cbtc쎀쎯	-8.74314
enwe쎯	-8.74411
ukqb쎀쎯	-8.74467
vagf쎯erh쎯	-8.74557
cep쎯fp쎯	-8.74739
oope쎁쎯uqt쎯js쎯	-8.74739
wfcj쎯wfcj쎯	-8.74799
auff쎯	-8.7499
xrh쎀쎯aecn쎯kpvg쎯	-8.75185
geg쎯	-8.75322
xdu쎀쎯	-8.75342
dssn쎀쎯xln쎁쎯	-8.7543
tfl쎯	-8.75438
zzbd쎂쎯qta쎯	-8.75652
ʋdfny쎁쎯	-8.75729
ytew쎯	-8.75767
zzxx쎉쎯	-8.75828
hako쎯alfw쎯	-8.75836
tak쎯kpvg쎯	-8.75888
uejv쎀쎯cux쎯	-8.75901
qvln쎁쎯ɒɒuqt쎯js쎯	-8.76057
vadt쎯nqdb쎀쎯	-8.76079
ussi쎁쎯막	-8.76103
qvln쎁쎯ɒɒmsv쎯	-8.76226
tmdq쎁쎯	-8.76272
ypk쎯	-8.76393
qvln쎁쎯uqt쎯js쎯	-8.76414
ny쎯	-8.76425
wprc쎀쎯iafl쎀쎯adn쎯	-8.76498
yrwe쎯	-8.76501
emww쎯by쎯	-8.76505
wym쎯	-8.76629
qwyn쎁쎯avyn쎯	-8.76791
aahl쎀쎯efcb쎯	-8.76965
sgfl쎀쎯qkhk쎯	-8.77014
fge쎯jlff쎀쎯	-8.77043
pugx쎀쎯	-8.77145
Ĉaecn쎯	-8.77245
rnd쎁쎯yssj쎂쎯	-8.7725
pfi쎯	-8.77489
khjf쎀쎯wpn쎯	-8.77646
vufh쎯	-8.77696
igva쎯zzpj쎇쎄쎯	-8.7775
awnu쎁쎯	-8.77784
uwgn쎁쎯	-8.77845
sam쎯kyxy쎁쎯	-8.77871
l	-8.77996
aib쎯	-8.78017
ä	-8.78042
Əbtfn쎀쎯	-8.78074
Պ	-8.78074
qyc쎯mci쎀쎯kpvg쎯	-8.78112
dftx쎯wgkw쎃쎯	-8.78116
dhim쎀쎯	-8.78152
밿	-8.78332
thwu쎯	-8.78351
wgif쎯भaecn쎯	-8.78361
imwy쎀쎯	-8.78408
ydcy쎯wtfh쎁쎯	-8.78532
aig쎯fkkv쎀쎯qwnd쎯	-8.78637
sfcy쎁쎯	-8.78702
oqdo쎯쎂eee쎀쎯	-8.78726
zzde쎂쎈쎯afu쎯	-8.78755
ntas쎯	-8.78897
oope쎁쎯ɒ	-8.78957
rnd쎁쎯qgvb쎯	-8.78962
lyn쎯	-8.79024
fhn쎯	-8.79033
tmdf쎁쎯bij쎯	-8.79054
c	-8.79089
Ķ	-8.79144
fpgo쎀쎯iwgd쎯	-8.79363
jeg쎯vffn쎂쎯	-8.7938
anht쎀쎯	-8.79577
wydm쎯	-8.79654
ctrt쎯	-8.80053
uvd쎀쎯	-8.80111
qnij쎯tyke쎂쎯	-8.80122
sync쎯	-8.80199
zzbd쎂쎯	-8.80233
aghu쎯ddth쎀쎯	-8.80236
ijn쎯	-8.80311
xudb쎀쎯mwgf쎯	-8.80383
lynw쎀쎯	-8.80519
ynna쎀쎯lv쎯	-8.80532
gmf쎯	-8.80585
jnhh쎁쎯	-8.80597
dpwi쎯	-8.80805
msv쎯ɒ	-8.80841
aitl쎯by쎯	-8.80848
lfon쎃쎯qwnd쎯	-8.80867
ijlc쎯탤	-8.80963
aigy쎯	-8.81044
qgmg쎯tdnt쎁쎯	-8.81075
edjn쎯	-8.81107
qwnd쎯ca쎯	-8.81294
어jtn쎯	-8.81304
kwye쎀쎯uepc쎁쎯	-8.81352
iqas쎀쎯쎂쎀쎀쎅rh쎯	-8.81361
ⲩ	-8.81381
ssss쎀쎯wpde쎁쎯	-8.81397
쏅tnhc쎁쎯	-8.81507
⟩aqkl쎀쎯	-8.81593
erey쎯	-8.81611
lty쎀쎯	-8.81637
f쎯yy쎯aecn쎯	-8.81649
wrh쎂쎯yygy쎯je쎯	-8.81659
glp쎯	-8.81873
	-8.81897
ث	-8.81912
qbh쎄쎯	-8.81984
aecn쎯apr쎯	-8.8208
fpo쎯btfn쎀쎯skkn쎁쎯	-8.82166
zzde쎃쎯	-8.82193
ldy쎂쎯	-8.82209
fefy쎯gmyg쎀쎯	-8.82236
shwy쎯	-8.82247
iovg쎯	-8.82323
qpv쎯	-8.82356
pvtk쎯	-8.82515
qsyy쎯zzdx쎁쎁쎯	-8.82692
skln쎯iooo쎯	-8.82727
ɒ	-8.82751
oope쎁쎯msv쎯wgkw쎃쎯	-8.82767
sudk쎯rnp쎯	-8.82789
҉	-8.82814
wgif쎯भ헬	-8.8285
ädtth쎀쎯	-8.82866
yaah쎁쎯	-8.82885
qfh쎁쎯	-8.82995
oopm쎀쎯qfdj쎯	-8.82996
alkf쎀쎯fudk쎯	-8.83032
uqt쎯js쎯ɒ	-8.83059
ાsghg쎂쎯	-8.83139
쀊iawk쎁쎯	-8.83151
wny쎀쎯	-8.83185
lk쎯ty쎯	-8.83193
ብ	-8.83212
zzbd쎂쎯vwyo쎯kpvg쎯	-8.83383
shhy쎯	-8.83387
iqje쎀쎯	-8.83443
tejh쎀쎯qcrh쎯	-8.83605
vny쎀쎯fff쎀쎯iy쎯mm쎯	-8.83847
qta쎯xln쎁쎯	-8.83874
ttn쎯	-8.84056
쀊jgd쎀쎯	-8.84099
fpgo쎀쎯edjn쎯	-8.84284
kklj쎀쎯	-8.84286
qvln쎁쎯ɒɒɒwgkw쎃쎯	-8.84345
މby쎯	-8.84423
egey쎀쎯iawk쎁쎯	-8.84434
uqt쎯js쎯ynwm쎀쎯	-8.84484
ڪ	-8.84535
tyke쎂쎯kccc쎯	-8.84618
vqkg쎁쎯oops쎁쎯	-8.84678
막	-8.84953
ndj쎯	-8.85056
ghnn쎀쎯	-8.85087
ish쎯쀊	-8.85098
ayec쎯puwe쎀쎯	-8.85104
xqrn쎀쎯	-8.8527
ijl쎯	-8.85375
yevg쎯	-8.8539
xdu쎀쎯glp쎯	-8.85551
pyld쎁쎯	-8.85577
ờ	-8.85656
『	-8.85823
dftx쎯ynwm쎀쎯	-8.85827
fff쎀쎯hlqc쎀쎯	-8.85842
aecn쎯wpn쎯skkn쎁쎯	-8.8592
ş	-8.85959
qgvb쎯zzdx쎉쎯	-8.86002
btfn쎀쎯dhc쎯	-8.86021
oope쎁쎯oope쎁쎯	-8.86137
an쎯lwj쎯초	-8.86137
nfd쎀쎯	-8.86138
dmjd쎀쎯dmjd쎀쎯	-8.86361
daht쎀쎯	-8.86394
adn쎯ydcy쎯tyke쎂쎯	-8.86416
fnx쎯탤	-8.86419
Ĉdee쎯	-8.86453
qvln쎁쎯iepc쎯	-8.86589
wgkw쎃쎯iepc쎯	-8.86675
zzbd쎂쎯wfj쎁쎯	-8.86753
pwgn쎀쎯	-8.86785
sgxe쎯	-8.87021
₪	-8.87039
며qoep쎯	-8.87103
쏅	-8.8745
fpk쎁쎯	-8.8747
iy쎯mm쎯weh쎯	-8.87552
mhtl쎯	-8.87665
drh쎯	-8.87752
iyjf쎀쎯	-8.8777
)ẩ	-8.87849
oope쎁쎯ynwm쎀쎯	-8.87906
qtwc쎀쎯	-8.88021
xf쎯sq쎯	-8.88111
ghd쎁쎯gahm쎁쎯	-8.88182
qpnn쎯	-8.88251
wfa쎯	-8.88268
dmjd쎀쎯duvo쎀쎯	-8.88332
헬ghd쎁쎯	-8.88343
qkhk쎯aqkf쎀쎯	-8.88425
꼬	-8.88558
jiqn쎁쎯	-8.88626
쎀쎯	-8.88637
qsyy쎯nvk쎯	-8.88681
Պ	-8.88688
nrn쎯	-8.88729
jqu쎯	-8.88773
ksjh쎯	-8.88782
teae쎯qtmn쎀쎯	-8.88988
smdj쎯	-8.8901
Ҟjtfp쎁쎯	-8.89084
쎂쎄	-8.8923
zzbd쎂쎯pyu쎯	-8.89298
bk쎯og쎯	-8.89423
qtvq쎁쎯fnud쎯	-8.89446
ycb쎯	-8.89452
xjx쎯fth쎯	-8.89469
ynwm쎀쎯duvo쎀쎯	-8.89523
tduj쎀쎯	-8.89659
tejh쎀쎯ou쎯	-8.89714
ytfm쎯	-8.89853
shy쎀쎯kr쎯	-8.89942
puyg쎯gajl쎯ஜ	-8.89949
wsdn쎯	-8.8995
jlxy쎯	-8.89992
vdeg쎀쎯jtyq쎀쎯	-8.90048
nld쎁쎯	-8.9006
려	-8.90062
itfq쎯cep쎯fp쎯	-8.9011
며ydcy쎯zzbd쎂쎯	-8.90213
qhal쎀쎯	-8.90271
qvln쎁쎯msv쎯	-8.90387
tfff쎁쎯qgvb쎯	-8.90524
yoo쎯	-8.90569
rs쎯tfkp쎀쎯	-8.90732
qopq쎀쎯	-8.90876
တ	-8.90911
xxf쎯og쎯efcb쎯	-8.90969
xann쎁쎯	-8.91085
obn쎯	-8.91155
ဋ	-8.91199
lktn쎯	-8.91318
rnd쎁쎯oopm쎀쎯	-8.9139
sam쎯rrrj쎯	-8.91603
yftj쎀쎯eujg쎯	-8.91608
qvln쎁쎯ɒɒdmjd쎀쎯	-8.91613
tqbt쎃쎯rfnf쎁쎯	-8.91624
ح	-8.91693
zzbd쎀쎯	-8.91709
aqrj쎯wtff쎁쎯	-8.91722
tsg쎁쎯txgi쎄쎯	-8.91762
yaqj쎂쎯kr쎯	-8.9177
쎃쎅qoep쎯	-8.91777
giv쎯dnbm쎯	-8.91811
콕	-8.9186
nfh쎀쎯	-8.91873
ydcy쎯iqaw쎯	-8.9192
ayt쎯	-8.92079
nwjh쎀쎯rkk쎯wt쎯	-8.9213
쎁쎁	-8.92154
ydm쎯ryty쎁쎯	-8.92274
cbtc쎀쎯	-8.923
teae쎯tak쎯	-8.92379
ob쎯	-8.92385
qyc쎯	-8.92472
qoce쎀쎯jvip쎀쎯	-8.9251
ق	-8.92531
yy쎯	-8.92588
dv쎯	-8.92641
މ҉	-8.92727
tltk쎁쎯	-8.92759
whw쎯qenh쎯	-8.92897
qyey쎂쎯	-8.9296
aruf쎯	-8.93071
yssj쎁쎯	-8.93109
zzxe쎂쎆쎯lagg쎯	-8.93202
בaqdo쎯	-8.93228
pudc쎯	-8.93447
ltkf쎀쎯zzdx쎁쎁쎯	-8.93648
rtwh쎀쎯lv쎯	-8.93687
gajl쎯jpta쎯	-8.93741
wvn쎯	-8.93814
qoce쎀쎯qouq쎀쎯	-8.9385
쎂쎯	-8.93864
wsdn쎯kr쎯	-8.9387
apwd쎀쎯	-8.94078
yyna쎀쎯	-8.9408
jrif쎯dpgg쎯	-8.94164
uth쎯	-8.94364
qoht쎀쎯	-8.94388
xfkm쎀쎯sqqo쎯	-8.94413
,gm쎯	-8.94512
잖jiqn쎂쎯	-8.94579
kmdy쎯	-8.94581
nwjh쎀쎯qkhk쎯	-8.94709
ytbp쎀쎯tak쎯kpvg쎯	-8.94752
uqt쎯js쎯msv쎯	-8.94787
qvln쎁쎯ɒɒoope쎁쎯	-8.94854
・	-8.94958
xj쎯	-8.95028
afdp쎀쎯dssn쎀쎯	-8.95063
kruf쎯	-8.95092
fjqn쎁쎯teae쎯	-8.9512
w쎯n쎯	-8.95155
kgx쎯	-8.95191
ybo쎯	-8.95194
ế	-8.95226
ua쎯tdko쎯	-8.95229
sjtq쎯fpo쎯	-8.9525
gahm쎁쎯eua쎯	-8.95506
qvln쎁쎯å	-8.95522
ou쎯	-8.95544
ςkhdg쎁쎯	-8.95545
uwvn쎀쎯	-8.95578
zzbd쎂쎯auj쎯	-8.95611
uegd쎄쎯	-8.95642
iepc쎯rkk쎯wt쎯	-8.95744
wtfh쎀쎯wfil쎀쎯	-8.95761
tyk쎯nwjh쎀쎯	-8.95796
tegj쎯	-8.95857
slge쎁쎯	-8.96132
rmay쎯	-8.9622
adwh쎀쎯	-8.96317
slll쎀쎯	-8.96396
wton쎁쎯	-8.9646
혹qkhk쎯	-8.96465
qipr쎯	-8.96563
qvln쎁쎯ɒɒynwm쎀쎯	-8.96647
dee쎯wgmy쎀쎯	-8.96859
tmdf쎁쎯ielf쎀쎯	-8.96975
nybh쎯sync쎯	-8.97064
xln쎁쎯	-8.97065
jeg쎯vffn쎂쎯kyxy쎁쎯	-8.9713
qbqb쎯	-8.97155
alfw쎯qgvb쎯	-8.97366
smnk쎯	-8.97414
xwcn쎯	-8.9748
qgf쎯	-8.97547
tkgt쎯	-8.97591
ςtsg쎁쎯	-8.97605
wsdn쎯rrrj쎯	-8.97605
oope쎁쎯åwgkw쎃쎯	-8.97634
rblg쎯	-8.97668
crgg쎀쎯	-8.97709
idf쎀쎯	-8.9775
afkk쎁쎯	-8.97753
rvln쎯	-8.97858
fptc쎀쎯jgd쎀쎯	-8.9786
¦	-8.9791
ô	-8.97999
ua쎯stfh쎀쎯	-8.98038
tlnf쎯ix쎯	-8.98069
혹ajqg쎯	-8.98117
╧	-8.98163
shy쎀쎯kr쎯kyxy쎁쎯	-8.98217
itky쎯qenh쎯	-8.98252
aghu쎯	-8.98253
xxf쎯og쎯ષ	-8.98308
qoce쎀쎯	-8.98351
fpo쎯쀊oqdo쎯	-8.98401
spju쎀쎯rnp쎯	-8.98407
ukqb쎀쎯jiqn쎂쎯	-8.98454
h	-8.98488
ua쎯qenh쎯	-8.98703
zzbd쎂쎯wuh쎀쎯	-8.9887
aitl쎯	-8.9891
cyk쎯qsfi쎯	-8.98929
cmg쎁쎯	-8.9893
ስ	-8.9893
hqqq쎯	-8.9895
eyno쎁쎯	-8.98983
wglj쎁쎯	-8.98991
sbb쎯	-8.99063
quw쎯	-8.99088
wynj쎁쎯qtvq쎁쎯	-8.991
vevg쎁쎯adn쎯	-8.99112
xpn쎯xxf쎯og쎯	-8.99113
kyin쎯udfm쎀쎯	-8.99208
fisu쎯	-8.99348
qokf쎀쎯	-8.99357
dmjd쎀쎯dftx쎯	-8.994
ᨣfisu쎯	-8.99432
dubh쎯	-8.99481
kdhb쎀쎯	-8.99515
y쎯s쎯qtdj쎁쎯	-8.99701
aruf쎯jued쎀쎯	-8.99714
dssn쎀쎯dfny쎁쎯	-8.99714
რiy쎯mm쎯	-8.99748
avyn쎯슨	-8.99798
wkbg쎯	-8.99811
oqdo쎯ryty쎁쎯	-8.99845
점	-8.99869
ಶ	-8.99871
mhtl쎯yevg쎯	-8.99973
zzbd쎆쎯	-8.99984
hako쎯of쎯	-9.00018
!	-9.00143
gnn쎀쎯bynn쎯	-9.00157
olf쎯	-9.00163
twu쎯	-9.00217
Ąaecn쎯	-9.00225
aqkn쎯atd쎯ip쎯	-9.00231
hhwn쎯	-9.00239
yjs쎯tkgg쎁쎯wtfh쎁쎯	-9.00289
irqc쎯	-9.00304
gna쎯	-9.00401
qsyy쎯zzbd쎂쎯	-9.00449
aecn쎯kpvg쎯	-9.00543
qvln쎁쎯oope쎁쎯	-9.00598
yy쎯dm쎯wgkw쎃쎯	-9.00598
mhnf쎯	-9.00608
rdn쎯	-9.00733
xul쎯	-9.00748
궁emww쎯kyxy쎁쎯	-9.00758
th쎯	-9.00883
magu쎯	-9.00903
ttfj쎀쎯	-9.01
qwyn쎁쎯aghu쎯	-9.01208
xfcy쎀쎯ᦆ	-9.01253
lrw쎯	-9.01589
wgkw쎃쎯zzbd쎂쎯	-9.01602
དzzde쎂쎈쎯	-9.01617
ajdh쎯	-9.0165
gajn쎀쎯	-9.01661
jcu쎯	-9.01665
djh쎀쎯	-9.01715
쀊xudb쎀쎯	-9.01798
ฌxflm쎯	-9.01877
afvk쎯	-9.02088
pvdm쎯	-9.02199
xjnt쎯	-9.0223
nqaj쎯	-9.02361
Ə	-9.02402
atdn쎁쎯	-9.02474
ិ	-9.02636
slli쎯	-9.02665
ji쎯	-9.02695
njqn쎯	-9.02733
ᣫ	-9.02883
jgsy쎯މ	-9.0313
kyxy쎁쎯waqj쎯	-9.03139
fkhp쎀쎯	-9.03194
vkhh쎯	-9.032
,	-9.03286
mpk쎀쎯iqje쎀쎯	-9.03289
qthm쎯	-9.03306
엮	-9.03553
hnhg쎯	-9.03635
	-9.03655
vknn쎯	-9.03669
wymm쎯	-9.03746
dftx쎯duvo쎀쎯	-9.03831
fgu쎯adn쎯	-9.03903
zzbd쎂쎯duc쎯	-9.042
kpvg쎯qvln쎁쎯ɒɒ	-9.04433
qvln쎁쎯ɒɒdftx쎯	-9.04454
nwsy쎯	-9.04458
judb쎁쎯	-9.04582
cq쎯zzdx쎂쎯	-9.04615
ynwm쎀쎯ynwm쎀쎯	-9.04718
wfil쎀쎯kpvg쎯	-9.04812
ydcy쎯waqj쎯	-9.0488
tl쎯	-9.04905
ige쎯	-9.04907
eyxf쎯	-9.04908
쏁	-9.05104
qccs쎯	-9.05171
sjtq쎯	-9.05237
zzbd쎂쎯ynn쎀쎯	-9.05278
se쎯	-9.05299
ylaw쎀쎯tsg쎁쎯	-9.05311
mumj쎯	-9.0535
afu쎯	-9.05354
fpo쎯쀊zzbd쎂쎯	-9.05368
ijgf쎀쎯ywti쎯	-9.05571
oqdo쎯qta쎯	-9.05641
cep쎯fp쎯민	-9.05649
ydcy쎯giv쎯	-9.06065
xjx쎯teae쎯	-9.06075
dug쎯	-9.06102
mgku쎯	-9.06134
meua쎀쎯	-9.06298
vpns쎯iawk쎁쎯	-9.06313
sug쎁쎯adwh쎀쎯	-9.06451
oope쎁쎯ɒwgkw쎃쎯	-9.06453
xxf쎯og쎯qwnd쎯	-9.06457
fccc쎯fkkv쎀쎯	-9.06506
zzjp쎁쎅쎯ix쎯	-9.0664
shy쎀쎯rrrj쎯	-9.06724
nmv쎯	-9.06766
rbm쎯	-9.07008
tjwv쎯xtbb쎯	-9.07154
xfcy쎀쎯밿	-9.07165
zzde쎁쎉쎯sync쎯	-9.07169
메	-9.07185
txt쎯kpvg쎯	-9.07219
ith쎯xe쎯cep쎯fp쎯	-9.07252
bynn쎯	-9.07315
gf쎯	-9.07333
យkr쎯	-9.07346
sudk쎯dhdt쎀쎯	-9.0744
gqpw쎯	-9.075
ipwk쎀쎯	-9.07733
axcu쎯	-9.07917
egey쎀쎯wtff쎁쎯	-9.07927
difc쎯agi쎯	-9.08081
˨	-9.08096
병	-9.08119
anb쎀쎯sy쎯dnbm쎯	-9.08124
puyg쎯qoep쎯	-9.08208
aecn쎯yygy쎯je쎯	-9.08304
ryty쎁쎯ynn쎀쎯	-9.08304
zzts쎇쎯	-9.08307
qgvb쎯xudb쎀쎯waqj쎯	-9.08365
시	-9.08427
rjyi쎯	-9.08461
uwgu쎀쎯rryt쎀쎯	-9.08464
amw쎯	-9.08581
ứ	-9.08605
რijgf쎀쎯ith쎯xe쎯	-9.0868
aafo쎯qgjl쎯	-9.08828
qnq쎯	-9.08882
oqdo쎯rwyg쎀쎯yqj쎯	-9.08882
afff쎂쎯	-9.09005
dmjd쎀쎯uqt쎯js쎯	-9.09007
ofkk쎀쎯nwjh쎀쎯	-9.09023
rham쎃쎯ukf쎁쎯	-9.09055
fooy쎯qer쎯qug쎀쎯	-9.09119
(iepc쎯oope쎁쎯	-9.09126
iujm쎯	-9.09129
iepc쎯duvo쎀쎯	-9.09155
ghd쎁쎯ocyj쎯iqas쎀쎯	-9.09179
rqcc쎀쎯쎂	-9.09344
rfcl쎀쎯	-9.09557
anb쎀쎯sy쎯	-9.09567
yntm쎂쎯dpgg쎯	-9.09615
	-9.09619
axcu쎯ip쎯nu쎯	-9.09625
rukq쎀쎯Ḧ	-9.09627
ofkk쎁쎯	-9.09634
ige쎯ynna쎀쎯	-9.09649
ydje쎀쎯vevg쎁쎯	-9.0986
gag쎯რ	-9.09865
vny쎀쎯aeef쎁쎯	-9.09921
rwyg쎀쎯qenh쎯┯	-9.10129
Ȓ	-9.10165
qlg쎀쎯	-9.10189
뭣	-9.10195
rwyg쎀쎯yqj쎯	-9.10214
zzxx쎄쎯	-9.10296
jada쎁쎯ֻ	-9.10342
xrh쎀쎯qkty쎯	-9.10424
pwyf쎀쎯	-9.10468
qay쎁쎯rkk쎯wt쎯	-9.1053
ymko쎀쎯	-9.10531
ᓱ	-9.10574
ghnu쎀쎯	-9.10575
jiqn쎂쎯gajl쎯efcb쎯	-9.10595
zzbd쎂쎯qmwy쎁쎯	-9.10626
jmfg쎀쎯awwo쎀쎯	-9.10733
bnh쎁쎯	-9.10736
dssn쎀쎯iy쎯mm쎯	-9.1079
afuo쎀쎯ghd쎁쎯	-9.10809
jtdk쎀쎯	-9.10831
ukd쎁쎯yygy쎯je쎯	-9.10885
yjdg쎯	-9.10886
yoa쎯kypm쎯	-9.10928
khaj쎂쎯fpws쎯	-9.11335
މby쎯kpvg쎯	-9.11378
qwtf쎯	-9.1138
	-9.11426
alkf쎀쎯uus쎯	-9.11489
ayec쎯민	-9.11581
twt쎯	-9.11654
puwj쎁쎯	-9.11744
î	-9.11808
yujg쎀쎯	-9.11818
jyfj쎀쎯ydcy쎯	-9.11909
tkgt쎯qgdd쎯	-9.11931
kgcf쎀쎯texd쎀쎯	-9.12004
pq쎯	-9.12042
fgu쎯ằ	-9.12046
쎇	-9.12064
Ś	-9.12111
wpn쎯	-9.12113
anw쎯	-9.12269
fff쎀쎯	-9.1229
qoce쎀쎯emww쎯	-9.12313
fpgo쎀쎯nmv쎯	-9.12332
othj쎯	-9.12404
fpo쎯쀊jgd쎀쎯	-9.12406
dee쎯rwyg쎀쎯	-9.12444
ixxr쎯	-9.12572
adeu쎯	-9.12582
v	-9.12593
kyin쎯	-9.12604
oqdo쎯qvln쎁쎯ɒɒ	-9.12607
މ민	-9.12676
궁emww쎯	-9.12821
qgig쎁쎯fgu쎯	-9.12867
tfc쎯	-9.12916
gajl쎯qgiy쎁쎯	-9.12968
rdht쎀쎯	-9.13057
wtfh쎀쎯fcbh쎁쎯	-9.13066
itfq쎯민	-9.13106
rvln쎯qtfm쎁쎯	-9.13224
aldj쎯	-9.13346
itjh쎀쎯	-9.1337
dftx쎯fkuh쎀쎯	-9.13395
wgaj쎀쎯	-9.13397
ydcy쎯wgaj쎀쎯	-9.13638
kruf쎯syp쎯iy쎯mm쎯	-9.1366
dubs쎯	-9.13673
	-9.13739
afdp쎀쎯cep쎯fp쎯	-9.13818
wgkw쎃쎯qenh쎯	-9.1384
kflk쎯	-9.13975
iy쎯mm쎯xfcy쎀쎯ᦆ	-9.14107
ֻ	-9.14148
alkf쎀쎯	-9.14151
fpo쎯tfqb쎁쎯	-9.14224
ం	-9.14291
kflk쎯qgvb쎯	-9.14297
issj쎯	-9.14302
rdfn쎯	-9.14347
adua쎯	-9.14361
ooou쎀쎯	-9.14514
swwl쎀쎯	-9.14724
anwu쎯sgfl쎀쎯	-9.14729
어zzdx쎂쎯	-9.14768
oope쎁쎯dmjd쎀쎯	-9.14795
qovh쎀쎯	-9.14815
sgfl쎀쎯aha쎯	-9.14832
jiqn쎂쎯adn쎯	-9.14917
ntfn쎀쎯	-9.14972
btfn쎀쎯	-9.14986
fpws쎯	-9.15179
qqw쎯	-9.15198
택	-9.15203
혹ydcy쎯	-9.15214
ukf쎁쎯hay쎯	-9.15239
dee쎯xtbb쎯	-9.15317
▔	-9.15421
dnwy쎯	-9.15479
sudk쎯odm쎯	-9.15489
dmjd쎀쎯ɒɒ	-9.15501
ςkhdg쎁쎯kyxy쎁쎯	-9.15574
qnm쎯	-9.1559
ȓlv쎯	-9.15669
avyn쎯qmy쎁쎯qgvb쎯	-9.15793
ytwj쎀쎯	-9.15873
민fpo쎯	-9.15877
jywf쎀쎯	-9.15983
mumj쎯fpo쎯	-9.15992
oope쎁쎯dftx쎯	-9.1604
u쎯kkk쎯쎂쎀쎀쎅rh쎯	-9.16043
qgdd쎯	-9.16117
dmjd쎀쎯å	-9.1612
ynwm쎀쎯fkuh쎀쎯	-9.16121
iwgw쎁쎯hlqc쎀쎯	-9.16196
qgig쎁쎯ifcl쎯	-9.16214
teil쎯	-9.16221
fty쎁쎯	-9.16239
xflm쎯oue쎯	-9.16345
bb쎯	-9.16567
fgu쎯odm쎯	-9.16568
ucd쎯	-9.16594
hal쎯	-9.16643
wgkw쎂쎯	-9.16763
gftj쎯탤	-9.16826
qsyy쎯oqdo쎯	-9.16833
gckg쎯	-9.16842
aecn쎯crgg쎀쎯	-9.16996
udfm쎀쎯	-9.17061
sudk쎯tpw쎯	-9.17146
kgjf쎀쎯	-9.17202
vntn쎯	-9.17272
vfs쎯	-9.17373
yaqj쎂쎯kr쎯kyxy쎁쎯	-9.17381
fff쎀쎯oguc쎀쎯	-9.17567
fooy쎯txt쎯	-9.17661
ᇯ	-9.17744
tmdq쎁쎯등iy쎯mm쎯	-9.1782
ાawnu쎁쎯	-9.17892
oope쎁쎯msv쎯	-9.17906
rtol쎀쎯	-9.17914
iqas쎀쎯avyn쎯	-9.18022
ymd쎯emww쎯kpvg쎯	-9.18116
wgmf쎯	-9.18205
gfi쎯	-9.1825
vpns쎯khpb쎯	-9.1832
qvln쎁쎯ɒɒɒ	-9.18359
jj쎯	-9.18364
uqt쎯js쎯oope쎁쎯	-9.1841
w쎯km쎯ghd쎁쎯	-9.18516
edjn쎯xyxw쎁쎯	-9.18551
sudk쎯wgmf쎯	-9.18704
삿	-9.18745
ukf쎁쎯adwh쎀쎯	-9.18753
iuyy쎯smg쎯	-9.18774
yvhc쎁쎯	-9.18776
zzbd쎂쎯ydje쎀쎯	-9.18884
avyn쎯itfq쎯민	-9.18933
oope쎁쎯qvln쎁쎯	-9.18949
mpf쎯	-9.1898
tejh쎀쎯mci쎀쎯	-9.19074
초청	-9.19185
pgy쎯	-9.19204
pyrf쎀쎯gftj쎯	-9.19219
aldj쎯rkk쎯wt쎯	-9.19254
anhf쎃쎯ldmj쎀쎯	-9.19362
tyk쎯	-9.19367
rgiq쎀쎯dwg쎯	-9.19389
vtfp쎀쎯	-9.19433
zzbd쎂쎯sgxe쎯	-9.19489
mt쎯	-9.19504
jawy쎁쎯	-9.19599
wton쎁쎯fisu쎯	-9.19643
yaop쎀쎯	-9.19702
qmw쎯	-9.19706
jvip쎀쎯	-9.19762
awar쎯	-9.19836
ifcl쎯qgig쎁쎯	-9.19992
wgkb쎀쎯ussi쎁쎯	-9.20006
zzbd쎂쎯tnhc쎁쎯	-9.20144
awwo쎀쎯	-9.20155
fff쎀쎯ttfj쎀쎯	-9.20178
며aeef쎁쎯	-9.2021
qfh쎁쎯axcu쎯	-9.20268
vpns쎯ip쎯nu쎯yqjg쎯	-9.20296
vpns쎯tdp쎯	-9.20357
kpvg쎯ydcy쎯tyke쎂쎯	-9.20362
ryg쎯nqdb쎀쎯	-9.2043
txgi쎄쎯	-9.20435
xudb쎁쎯vevg쎁쎯	-9.20444
wdj쎯tlnf쎯	-9.20528
ukf쎁쎯mjhg쎀쎯	-9.20549
xelf쎯	-9.20551
dmjd쎀쎯iepc쎯	-9.20557
dnku쎀쎯iuyy쎯빛	-9.20622
lebf쎯	-9.20652
omdy쎯wtfh쎀쎯	-9.20724
qsyy쎯qwyn쎁쎯	-9.20838
zzde쎁쎉쎯	-9.20875
ynwm쎀쎯ɒɒ	-9.20921
ynwm쎀쎯dftx쎯	-9.20927
vny쎀쎯ᨣ	-9.20931
iy쎯mm쎯wgif쎯भ	-9.20948
xxey쎀쎯	-9.21002
ywx쎯	-9.21023
fisu쎯dpgg쎯	-9.21111
fl쎯wf쎯	-9.21156
ynwm쎀쎯qvln쎁쎯	-9.21269
ifcl쎯nvk쎯fhuw쎯	-9.21276
mfc쎯wtff쎁쎯wjgr쎀쎯	-9.21308
ntas쎯ejhh쎯	-9.21429
츠	-9.21486
뼉wsdn쎯	-9.21513
qsyy쎯(	-9.21549
msv쎯dftx쎯wgkw쎃쎯	-9.21626
auj쎯enwe쎯	-9.21628
ukqb쎀쎯gde쎯	-9.21631
제	-9.21697
hkeg쎯yygy쎯je쎯	-9.21704
aghu쎯tlnf쎯ukd쎁쎯	-9.21912
dfd쎯zzbd쎂쎯cux쎯Į	-9.21922
մ	-9.21977
askf쎀쎯xrh쎀쎯	-9.22314
qouq쎀쎯tlnf쎯	-9.22411
mrcy쎁쎯	-9.22505
qyiy쎀쎯ả	-9.22635
tkkf쎀쎯	-9.22643
qsfi쎯qgn쎯	-9.22713
dmjd쎀쎯msv쎯	-9.22716
xudb쎁쎯	-9.22732
msv쎯msv쎯wgkw쎃쎯	-9.22765
vny쎀쎯ynah쎁쎯	-9.22833
	-9.22894
stfh쎀쎯	-9.22946
difc쎯idf쎀쎯	-9.22974
iugy쎀쎯mtfk쎀쎯	-9.23044
iwgw쎁쎯	-9.23058
puwj쎁쎯goqh쎯	-9.23084
iuyy쎯jtn쎯	-9.23131
w쎯km쎯zzdx쎁쎁쎯	-9.2325
ynah쎁쎯cmkg쎯	-9.2326
vqkg쎁쎯	-9.23267
rccn쎯puyg쎯	-9.23267
ydje쎀쎯jued쎀쎯	-9.23319
tjh쎯	-9.23332
ู	-9.23434
wdj쎯	-9.2346
qsyy쎯⎯	-9.23465
dmjd쎀쎯oope쎁쎯	-9.23532
mfkp쎯	-9.23654
ydcy쎯badw쎀쎯	-9.23708
xag쎀쎯	-9.23782
dibh쎀쎯	-9.23874
zzbd쎂쎯djg쎯	-9.23897
ybmh쎁쎯ב	-9.23914
uujd쎁쎯	-9.23944
afuo쎀쎯	-9.23945
fdmm쎀쎯	-9.23969
ayec쎯njqn쎯	-9.24039
ofdj쎯	-9.24071
akfn쎯	-9.24099
qenh쎯smg쎯	-9.2413
를	-9.24364
sync쎯ith쎯xe쎯	-9.24364
ewwb쎯➤	-9.24413
wfcj쎯iepc쎯oope쎁쎯	-9.2443
adn쎯rqcc쎀쎯	-9.24484
쏅wdj쎯	-9.24495
fefy쎯rblg쎯	-9.24499
ussi쎁쎯	-9.24537
wpn쎯fnff쎁쎯	-9.2454
tdko쎯qoep쎯	-9.24661
tjwv쎯	-9.24703
tkgg쎁쎯ycb쎯	-9.24712
p	-9.2474
nbte쎯	-9.24763
jgd쎀쎯zzbd쎂쎯	-9.24797
uitd쎯	-9.24807
dftf쎀쎯	-9.24888
nmae쎯	-9.24918
khfp쎯	-9.25013
qwfy쎀쎯	-9.25061
rqcc쎀쎯ntas쎯	-9.25068
zzbd쎂쎯rqcc쎀쎯ᦆ	-9.25083
khun쎀쎯	-9.25091
idnt쎁쎯	-9.25211
ldmj쎀쎯	-9.25213
qta쎯iy쎯mm쎯	-9.25231
aqsc쎯ydcy쎯	-9.25244
cqbt쎀쎯	-9.25294
tejh쎀쎯xf쎯sq쎯	-9.25316
zzbd쎂쎯wprc쎀쎯	-9.25338
Ǎ	-9.25344
zzdx쎉쎯ix쎯	-9.25349
땑	-9.25381
fjqn쎁쎯pyjr쎯რ	-9.25448
qtcs쎀쎯	-9.2551
ข	-9.25542
awar쎯arqc쎀쎯	-9.25577
an쎯lwj쎯all쎯	-9.25594
wmcy쎯xtyk쎁쎯	-9.25634
ynwm쎀쎯dmjd쎀쎯	-9.25731
್rnp쎯	-9.25738
✦	-9.25769
wgif쎯भukd쎁쎯	-9.25829
fcbh쎁쎯	-9.2585
Սiudb쎯	-9.25858
jgmv쎯	-9.25889
pwgn쎀쎯zzdx쎁쎁쎯	-9.26015
sgyb쎀쎯	-9.26046
faqb쎯	-9.26065
c쎯	-9.26089
gde쎯xrh쎀쎯	-9.26113
zzbd쎁쎇쎯rnp쎯	-9.26292
dsjh쎯	-9.263
sqqd쎀쎯	-9.26341
yjdg쎯aha쎯	-9.26351
zzbd쎂쎯xdu쎀쎯	-9.26412
aamf쎯	-9.26457
haq쎯jvip쎀쎯	-9.26467
atd쎯ip쎯wvgw쎄쎯	-9.26568
oguc쎀쎯qug쎀쎯	-9.26615
ukqb쎀쎯iawk쎁쎯	-9.26717
Ἴadn쎯	-9.26769
nwsy쎯qouq쎀쎯	-9.2683
aga쎯gnn쎀쎯	-9.26836
wgkj쎃쎯	-9.2687
xfcy쎀쎯fff쎀쎯	-9.26897
qei쎯	-9.26919
	-9.26977
ெ	-9.27021
dic쎯fooy쎯	-9.27067
da쎯dk쎯쎃쎅	-9.27068
jtyq쎀쎯axcu쎯	-9.27108
pyu쎯wuh쎀쎯	-9.27178
shy쎀쎯rrrj쎯kyxy쎁쎯	-9.27234
tawt쎯aqdo쎯	-9.27244
Ĉjiqn쎂쎯	-9.27411
yqj쎯enwe쎯	-9.27477
afpa쎯sync쎯	-9.27601
dwa쎯	-9.27643
뼉qug쎀쎯	-9.27707
msv쎯ynwm쎀쎯wgkw쎃쎯	-9.27788
ith쎯xe쎯dssn쎀쎯	-9.27821
sdht쎁쎯smg쎯	-9.27853
ådftx쎯	-9.27871
wuvg쎯	-9.27922
awwo쎀쎯nwjh쎀쎯	-9.2796
awwp쎯jued쎀쎯	-9.28094
dftx쎯msv쎯	-9.28159
qvln쎁쎯rkk쎯wt쎯	-9.28336
qvln쎁쎯ɒɒqvln쎁쎯	-9.28341
xflm쎯aha쎯	-9.28379
mwht쎯wsdn쎯	-9.28683
ryg쎯qyey쎂쎯	-9.28878
dhc쎯	-9.29037
kw쎃쎯oope쎁쎯duvo쎀쎯	-9.29057
vmgt쎁쎯	-9.29094
knfg쎯	-9.29168
mfkp쎯rqrm쎯	-9.29193
rtwh쎀쎯nuk쎀쎯	-9.29195
okeg쎯	-9.29382
atgq쎯	-9.29385
magu쎯ww쎯gk쎯	-9.29441
wsdn쎯qwnd쎯	-9.29456
pykw쎯	-9.29508
qoht쎀쎯jf쎯	-9.29565
qccs쎯	-9.29589
qwnd쎯	-9.29594
ydcy쎯jued쎀쎯	-9.29803
zzbd쎂쎯Պ	-9.299
ywe쎯	-9.29923
iuyy쎯aha쎯	-9.29939
ꁜ	-9.30115
sug쎁쎯adn쎯	-9.30182
sgxe쎯슨iy쎯mm쎯	-9.30192
uqt쎯js쎯qvln쎁쎯	-9.30206
vmmv쎯	-9.30213
kfl쎯	-9.30307
rqcc쎀쎯bkcb쎯	-9.30309
wys쎯lft쎯	-9.30311
tkw쎯se쎯an쎯lwj쎯	-9.30342
ymd쎯	-9.30402
zzts쎁쎈쎯	-9.30495
kypm쎯	-9.3066
ktr쎯	-9.30688
jgf쎯	-9.30709
thf쎁쎯	-9.30742
gag쎯dic쎯	-9.30757
בip쎯nu쎯	-9.30848
ijl쎯jgd쎀쎯	-9.30852
tmdq쎁쎯등	-9.30854
zzbd쎂쎯헬gag쎯	-9.30886
wy쎯qug쎀쎯	-9.31079
yntl쎃쎯	-9.31085
hghn쎯	-9.311
vcao쎁쎯	-9.31102
hgo쎯	-9.31125
iy쎯mm쎯qipr쎯ֻ	-9.31128
zzxx쎂쎂쎯	-9.31288
u쎯kkk쎯yygy쎯je쎯	-9.31384
qgmg쎯erey쎯	-9.3142
efwy쎀쎯ä	-9.31482
xtgo쎯	-9.31528
zzbd쎂쎯슨ua쎯	-9.3154
iujm쎯whw쎯	-9.31658
lagg쎯jtfp쎁쎯	-9.31693
xybg쎀쎯	-9.31702
ssss쎀쎯	-9.318
tekt쎯	-9.319
jdmd쎁쎯	-9.31904
vfhw쎁쎯	-9.31989
hggt쎀쎯hael쎯	-9.32018
mgt쎯hghn쎯	-9.32097
ukqb쎀쎯mtfk쎀쎯민	-9.32115
މltkf쎀쎯	-9.3213
ydcy쎯nvk쎯fhuw쎯	-9.32253
khjf쎀쎯	-9.32259
e쎁쎯uqt쎯js쎯wgkw쎃쎯	-9.32319
sgxe쎯wuh쎀쎯	-9.32582
oqdo쎯ynn쎀쎯	-9.32684
zzbd쎂쎯rwyg쎀쎯yqj쎯	-9.32792
tsg쎁쎯ktr쎯	-9.32795
fnw쎯¦	-9.32962
qtmn쎀쎯	-9.33014
pei쎯n쎯jeg쎯	-9.33025
zzbd쎂쎯rwyg쎀쎯	-9.3303
ynwm쎀쎯iepc쎯	-9.331
jgsy쎯wtff쎁쎯	-9.33103
wgif쎯Ĉ	-9.33154
itwi쎯	-9.33157
vyy쎯	-9.33203
ynna쎀쎯uvog쎯	-9.33287
e쎁쎯oope쎁쎯wgkw쎃쎯	-9.33305
Ü	-9.33308
xjx쎯zzjp쎁쎅쎯	-9.33308
_	-9.33373
wpup쎯	-9.33435
tfqb쎁쎯tyke쎂쎯	-9.3348
jtyq쎀쎯hlqc쎀쎯	-9.33506
gpgh쎀쎯	-9.33518
wpaa쎯	-9.33534
sytb쎯	-9.33572
vfj쎁쎯	-9.3364
synu쎯	-9.33653
sam쎯fpgo쎀쎯	-9.33703
ᨣu쎯kkk쎯	-9.33778
〔tsg쎁쎯	-9.33784
oqdo쎯rqcc쎀쎯ᦆ	-9.33898
xyxw쎁쎯rtfh쎀쎯	-9.33923
릿fff쎀쎯xyxw쎁쎯	-9.33963
qemk쎀쎯	-9.34009
qwnd쎯ả	-9.34068
┯fpo쎯	-9.34073
u쎯	-9.34085
ᄀ	-9.34091
avyn쎯ghd쎁쎯	-9.34114
ې	-9.34131
yynn쎯	-9.34206
iy쎯mm쎯Ĉế	-9.34213
umau쎯	-9.34255
zzbd쎂쎯gag쎯ydm쎯	-9.34263
vqbt쎀쎯	-9.34468
vevg쎁쎯crqc쎯	-9.34477
mwgf쎯	-9.34502
b	-9.34509
,i쎯tlnf쎯	-9.34525
s쎯	-9.34582
gmf쎯xrh쎀쎯	-9.34585
ukf쎁쎯qtdd쎀쎯	-9.34787
녹	-9.34795
응	-9.3483
yah쎯청	-9.34848
rnbt쎯	-9.34851
aqrj쎯kccc쎯	-9.34867
ꓵ	-9.34868
yfwt쎯	-9.34881
xrh쎀쎯aecn쎯	-9.34881
e쎁쎯ynwm쎀쎯wgkw쎃쎯	-9.34906
fgu쎯texd쎀쎯	-9.34942
ydcy쎯kaqt쎀쎯	-9.34998
dfsh쎯ghd쎁쎯	-9.35022
tfnp쎀쎯	-9.35047
tedm쎀쎯tedm쎀쎯	-9.35053
dcg쎯	-9.35053
jaqh쎯	-9.35123
ᨣqwyn쎁쎯	-9.35135
vaui쎯	-9.35149
adws쎀쎯wcd쎯	-9.35168
mkkn쎀쎯idgt쎀쎯	-9.35189
aldj쎯tyke쎂쎯	-9.35336
gmf쎯jnhh쎁쎯	-9.35362
egey쎀쎯hlqc쎀쎯	-9.35396
jlc쎯	-9.35423
mci쎀쎯hlqc쎀쎯	-9.35425
y쎀쎯	-9.35508
puyg쎯oguc쎀쎯jgsy쎯	-9.3553
tlnf쎯vwyo쎯	-9.35556
zzbd쎂쎯iawk쎁쎯	-9.3556
ึ	-9.35582
ermg쎯	-9.3561
yaf쎯fnx쎯	-9.35628
wton쎀쎯	-9.3565
åɒɒ	-9.3572
ngig쎯	-9.35735
kyt쎯	-9.35746
yvyh쎂쎯	-9.35774
qskk쎯	-9.35954
e쎁쎯dmjd쎀쎯wgkw쎃쎯	-9.35992
zzdx쎁쎁쎯qtfm쎁쎯	-9.35995
xflm쎯smg쎯	-9.36043
msv쎯uqt쎯js쎯	-9.36048
vdeg쎀쎯hghn쎯	-9.36124
ϊapr쎯	-9.36124
qyiy쎀쎯tyke쎂쎯	-9.36131
coqh쎯	-9.36211
rwyg쎀쎯qyey쎂쎯	-9.36257
vknn쎯랙	-9.3628
awxx쎯qtnx쎯zzbd쎂쎯	-9.363
ynwm쎀쎯uqt쎯js쎯	-9.3639
sam쎯kr쎯	-9.36403
ssu쎯	-9.36444
ix쎯tlnf쎯ukd쎁쎯	-9.36491
xtgo쎯쀊	-9.365
gag쎯lpk쎀쎯	-9.36516
jwvn쎀쎯	-9.36608
dssn쎀쎯aecn쎯	-9.3664
ipwy쎁쎯efwy쎀쎯	-9.36701
zzdx쎁쎁쎯ydcy쎯	-9.36703
meej쎯	-9.36856
fusf쎀쎯	-9.36972
ynah쎁쎯jatn쎀쎯	-9.37019
sg쎯	-9.37078
ᆞdsjh쎯	-9.37142
urvc쎯	-9.37159
qimy쎯	-9.37177
kgkg쎁쎯	-9.3719
zzjp쎃쎅쎯hako쎯ᆞ	-9.3722
jtyq쎀쎯	-9.37227
wo쎯	-9.37258
pei쎯n쎯qgig쎁쎯	-9.37292
ywgk쎀쎯	-9.37306
qay쎁쎯nvk쎯fhuw쎯	-9.37308
쏅ynna쎀쎯tkw쎯se쎯	-9.37397
btfn쎀쎯dpgg쎯	-9.37405
e쎁쎯qvln쎁쎯wgkw쎃쎯	-9.37511
fnff쎁쎯	-9.37541
oopm쎀쎯・	-9.37555
tak쎯kpvg쎯뼉qug쎀쎯	-9.3764
rpw쎯rmhj쎯mci쎀쎯	-9.37659
wgkm쎆쎯cmu쎁쎯	-9.37724
tsg쎁쎯	-9.37786
wsdn쎯ς	-9.37791
nhdf쎂쎯	-9.3786
dftx쎯rkk쎯wt쎯	-9.37882
nlkg쎯iqje쎀쎯	-9.37912
ᦷwngw쎯	-9.37937
idgt쎀쎯swwl쎀쎯	-9.37967
yqqe쎯┯	-9.37969
rnp쎯qtwc쎀쎯	-9.3799
rbti쎯	-9.37993
yujg쎀쎯hh쎯ghd쎁쎯o	-9.37993
ewgu쎯	-9.38
w쎯n쎯lkwo쎀쎯	-9.38038
dftx쎯qvln쎁쎯	-9.38123
jak쎯yssj쎁쎯	-9.38165
dmjd쎀쎯rkk쎯wt쎯	-9.38183
iutd쎯	-9.38224
kw쎃쎯iepc쎯ɒduvo쎀쎯	-9.38258
sgxe쎯zzdx쎁쎁쎯	-9.38332
kr쎯qwnd쎯	-9.38468
qvln쎁쎯ɒɒiepc쎯	-9.38559
ymko쎀쎯ynjx쎁쎯	-9.38628
iepc쎯iepc쎯wgkw쎃쎯	-9.38681
jdmy쎀쎯	-9.38682
ywgj쎄쎯tltk쎁쎯	-9.3873
ᣫ	-9.38731
nhdr쎀쎯	-9.38804
lftj쎯mhag쎀쎯	-9.38961
aqsc쎯njqn쎯	-9.3908
wvgw쎅쎯	-9.39125
jrif쎯sgfl쎀쎯	-9.39144
åynwm쎀쎯	-9.39275
tejh쎀쎯afkk쎁쎯	-9.39335
iuah쎯	-9.3937
txgn쎀쎯	-9.39397
ydcy쎯vwyo쎯	-9.39639
spfq쎯	-9.39725
ix쎯cck쎯zzpj쎇쎄쎯억	-9.39732
arqc쎀쎯	-9.39836
	-9.3985
fujh쎯lpk쎀쎯	-9.3988
fnff쎁쎯xrh쎀쎯	-9.39908
badw쎀쎯	-9.39954
mgt쎯aldj쎯	-9.40033
iafl쎀쎯	-9.40144
ydcy쎯wgkw쎃쎯	-9.40146
efcb쎯puyg쎯	-9.4017
gtfh쎀쎯	-9.40211
fujh쎯yi쎯	-9.40215
gde쎯lv쎯	-9.40365
ghd쎁쎯dhih쎯	-9.40378
omdy쎯judb쎁쎯	-9.40436
qojg쎁쎯	-9.40494
xdmd쎀쎯	-9.40551
ryby쎯	-9.40566
gjjg쎀쎯	-9.40585
Ȏwv쎯	-9.40593
oqdo쎯gnn쎀쎯tegf쎀쎯	-9.40594
inpl쎯	-9.4061
މeua쎯	-9.40706
itky쎯xflm쎯	-9.40746
ghd쎁쎯wtfh쎀쎯	-9.4082
vny쎀쎯mhnf쎯	-9.4087
nlkg쎯	-9.40872
	-9.40887
qwnd쎯yygy쎯je쎯	-9.40911
qgn쎯crqc쎯	-9.40915
swx쎯	-9.40959
aytb쎀쎯	-9.40988
dttd쎀쎯vbs쎯	-9.41029
khxm쎀쎯	-9.41076
uqt쎯js쎯fkuh쎀쎯	-9.41093
†	-9.41236
nvk쎯fpgo쎀쎯wgmy쎀쎯	-9.41245
숭qdff쎁쎯	-9.41327
zzxe쎉쎯	-9.41342
rjqr쎯	-9.41396
smg쎯cmu쎁쎯	-9.41502
xfcy쎀쎯hlqc쎀쎯	-9.41522
cck쎯	-9.4155
najf쎀쎯	-9.41565
dee쎯fnff쎁쎯	-9.41609
akgq쎀쎯wfj쎁쎯	-9.41613
zzde쎃쎯yqqe쎯	-9.41693
yqj쎯ywx쎯	-9.41731
xelf쎯zzts쎁쎈쎯	-9.41732
msv쎯ɒɒ	-9.41785
iy쎯mm쎯ua쎯iann쎀쎯	-9.41817
ssu쎯yssj쎁쎯jgd쎀쎯	-9.41821
⎯qwyn쎁쎯qgvb쎯	-9.41832
bq쎯	-9.41897
jued쎀쎯oqdo쎯	-9.41938
	-9.41982
yhag쎁쎯	-9.41992
msv쎯oope쎁쎯wgkw쎃쎯	-9.42054
ח	-9.42088
iy쎯mm쎯rqcc쎀쎯ᦆ	-9.4211
i쎯	-9.42133
dssn쎀쎯jlff쎀쎯	-9.42298
kqjh쎀쎯aqrj쎯ysjh쎯	-9.42304
uqvh쎂쎯apdi쎯	-9.4236
qtyd쎀쎯쎂쎀쎀쎅rh쎯	-9.42467
oope쎁쎯å	-9.42496
	-9.42497
tejh쎀쎯aqkn쎯bij쎯	-9.42508
gahm쎁쎯	-9.42635
vpns쎯mci쎀쎯	-9.42636
hh쎯	-9.42643
yoa쎯	-9.42744
uqt쎯js쎯dmjd쎀쎯	-9.42793
ม	-9.42823
zzbd쎂쎯ljlg쎁쎯	-9.42877
며qoep쎯iy쎯mm쎯	-9.43042
idf쎀쎯	-9.43075
녕	-9.43094
	-9.43113
tmgk쎁쎯	-9.4315
qdy쎀쎯rkk쎯wt쎯	-9.43167
nss쎯iqdm쎀쎯	-9.43204
e쎁쎯dftx쎯wgkw쎃쎯	-9.43222
qay쎁쎯wgkw쎃쎯	-9.43244
gqq쎯	-9.433
tlnf쎯jgd쎀쎯	-9.43322
uft쎯	-9.43331
sudk쎯wjgr쎀쎯	-9.43338
jgjg쎀쎯	-9.43366
iaah쎯hako쎯	-9.43371
ran쎯	-9.43431
fd쎯ymhj쎀쎯	-9.43444
qtj쎯mci쎀쎯	-9.43639
녹qtdd쎀쎯	-9.43666
km쎯	-9.4369
uqt쎯js쎯uqt쎯js쎯	-9.43726
fooy쎯yi쎯efcb쎯	-9.43729
kffh쎯	-9.43781
awwp쎯smg쎯	-9.43785
atgo쎁쎯	-9.43798
ukqb쎀쎯ા	-9.43891
wfj쎁쎯qyey쎂쎯	-9.43903
mjff쎀쎯	-9.43912
buah쎀쎯aha쎯	-9.4392
ᨣdpgg쎯	-9.43933
뼉wsdn쎯kyxy쎁쎯	-9.44014
qdy쎀쎯wgkw쎃쎯	-9.44029
ydcy쎯청	-9.44162
zzbd쎂쎯xdu쎀쎯glp쎯	-9.44231
rrrj쎯qwnd쎯	-9.4428
yqjg쎯ẩ	-9.44293
gnn쎀쎯iy쎯mm쎯	-9.44305
wuh쎀쎯	-9.44318
yvcs쎯	-9.44399
r쎯	-9.44411
gmyg쎀쎯	-9.44572
vwyo쎯	-9.44579
yjdg쎯anw쎯	-9.44663
fgu쎯dfny쎁쎯	-9.44736
lkwo쎀쎯fuk쎯udyj쎯	-9.44873
kqm쎯dic쎯	-9.44878
륚	-9.44879
vdeg쎀쎯ip쎯nu쎯	-9.44883
oopm쎀쎯	-9.45114
fere쎯xtol쎀쎯	-9.45119
fpo쎯anwu쎯	-9.45131
oqdo쎯tlnf쎯u쎯kkk쎯	-9.45176
xjx쎯	-9.45196
wgkw쎃쎯qoep쎯	-9.45203
awwp쎯fth쎯	-9.45214
yb쎯	-9.45219
pnw쎯	-9.45223
zzbd쎂쎯aeef쎁쎯	-9.45246
khjf쎀쎯f쎯yy쎯	-9.45303
akgb쎯	-9.45315
ahk쎁쎯	-9.45346
uqt쎯js쎯dftx쎯	-9.45371
ran쎯yrwe쎯	-9.45376
qsfi쎯erh쎯	-9.45387
Ə막	-9.45393
ucv쎯	-9.45418
ynwm쎀쎯oope쎁쎯	-9.45437
kw쎃쎯dmjd쎀쎯duvo쎀쎯	-9.45523
dnbm쎯gftj쎯	-9.45604
difc쎯청	-9.45723
efcb쎯ytbp쎀쎯tak쎯	-9.4574
બ	-9.45844
awsk쎯	-9.45877
묵	-9.45936
tvfh쎁쎯tyke쎂쎯	-9.45944
p쎯	-9.45957
uepc쎁쎯	-9.4597
fkuh쎀쎯dmjd쎀쎯	-9.45974
ydcy쎯qwnd쎯	-9.46182
dwdc쎀쎯	-9.46208
ijgf쎀쎯adua쎯	-9.46374
t쎯	-9.46414
iy쎯mm쎯dssn쎀쎯	-9.46418
ayxy쎯	-9.46448
uce쎯ibg쎁쎯	-9.46515
ynwm쎀쎯msv쎯wgkw쎃쎯	-9.46533
래	-9.46537
rccn쎯ymko쎀쎯	-9.46683
gmf쎯othj쎯tkw쎯se쎯	-9.46768
aghu쎯suog쎯	-9.46886
pykw쎯	-9.47003
mrcy쎁쎯lpk쎀쎯	-9.47031
txgn쎀쎯jwfy쎯	-9.4722
dftx쎯dmjd쎀쎯	-9.47305
uus쎯nqdb쎀쎯	-9.47318
wjgr쎀쎯iy쎯mm쎯	-9.47324
Ί	-9.47325
eejf쎀쎯ywx쎯	-9.47368
게	-9.47372
jued쎀쎯zzbd쎅쎯	-9.47461
쎈hg쎯	-9.47461
ubtg쎀쎯gefc쎯gqt쎯	-9.47526
iy쎯mm쎯ghnu쎀쎯skg쎯	-9.47603
fff쎀쎯lagg쎯	-9.47621
uwgu쎀쎯	-9.47679
rtfh쎀쎯kypm쎯	-9.47692
jued쎀쎯zzbd쎂쎯	-9.47694
fnff쎁쎯민	-9.47704
wfj쎁쎯kpvg쎯	-9.47726
iwyj쎀쎯	-9.47744
iafl쎀쎯alkf쎀쎯	-9.47811
puwe쎀쎯	-9.47864
jdui쎀쎯	-9.47867
jto쎯	-9.47955
uxxo쎀쎯of쎯	-9.4797
alfw쎯difc쎯	-9.47989
sqwy쎯	-9.48013
usfg쎯	-9.48013
ltkg쎀쎯	-9.48029
yam쎯wjgr쎀쎯	-9.4809
mtfk쎀쎯of쎯	-9.48213
fyao쎯	-9.48243
dftx쎯uqt쎯js쎯	-9.48304
dfd쎯zzbd쎂쎯	-9.48331
jujh쎁쎯	-9.48347
wgkw쎃쎯dpgg쎯	-9.48406
atj쎯	-9.48507
wgif쎯	-9.48613
zzdx쎁쎁쎯gag쎯	-9.48667
sam쎯wsdn쎯	-9.4867
wpu쎯	-9.48672
wwty쎀쎯	-9.48684
fdsk쎀쎯	-9.48698
dsgg쎯	-9.48749
afdp쎀쎯wy쎯	-9.48763
lft쎯	-9.48777
މby쎯kpvg쎯qvln쎁쎯ɒ	-9.48794
qont쎁쎯	-9.48847
iqrn쎯	-9.48867
oopm쎀쎯orh쎁쎯	-9.48892
vadt쎯erh쎯	-9.48902
sksw쎯	-9.48903
qtme쎯	-9.48904
ga쎯vck쎯	-9.48913
xtbb쎯idf쎀쎯	-9.48936
iugy쎀쎯	-9.49011
fkep쎯	-9.49127
wesy쎯	-9.49129
ukf쎁쎯zzj쎀쎯	-9.49202
mwht쎯wsdn쎯kyxy쎁쎯	-9.4922
npwa쎀쎯	-9.49246
rwp쎯rnp쎯	-9.49335
ipt쎯	-9.49435
ntas쎯qgjj쎯	-9.49449
amc쎯	-9.49474
xflm쎯nerm쎯	-9.49506
jpta쎯usq쎯	-9.49509
ếxtbb쎯	-9.49575
yygy쎯je쎯halo쎀쎯	-9.49604
vqqw쎀쎯	-9.49632
gilf쎀쎯	-9.49657
kmwj쎯ֻoqdo쎯	-9.4966
hg쎯	-9.49706
sqcn쎯ijl쎯	-9.49754
zzbd쎂쎯Ἴ	-9.49754
itky쎯ua쎯	-9.49772
qwet쎀쎯dpgg쎯	-9.49816
lpk쎀쎯zzbd쎂쎯	-9.49916
qsfi쎯	-9.49959
yqvg쎀쎯nwjh쎀쎯	-9.50133
ghqn쎯	-9.50235
oope쎁쎯iepc쎯	-9.50254
idgt쎀쎯gkhj쎁쎯	-9.50272
dftx쎯ɒɒ	-9.50277
wnx쎯	-9.50297
msv쎯qvln쎁쎯wgkw쎃쎯	-9.50301
ynwm쎀쎯å	-9.50428
xflm쎯lpk쎀쎯	-9.50457
dftx쎯dftx쎯	-9.50459
잖	-9.50465
wwkb쎀쎯	-9.50488
eqw쎯	-9.50554
da쎯dk쎯	-9.50602
zzbd쎅쎯iepc쎯	-9.50636
xkjh쎯xflm쎯	-9.50654
ᠲ	-9.50749
xmwy쎁쎯	-9.50766
spwk쎀쎯	-9.50781
bfkg쎯	-9.50785
evwo쎀쎯dpgh쎯	-9.50794
msv쎯msv쎯	-9.50807
dssn쎀쎯tyke쎂쎯	-9.50814
tmgk쎁쎯dvey쎯	-9.50827
nwsy쎯jiqn쎂쎯	-9.50837
qouq쎀쎯oue쎯	-9.50871
މzzjp쎁쎅쎯	-9.50896
agi쎯	-9.50909
kwye쎀쎯wmj쎁쎯qwnd쎯	-9.50974
쎁쎉	-9.50977
vgnr쎯	-9.51013
wiy쎀쎯	-9.51019
med쎯	-9.51059
zzdx쎁쎁쎯ydcy쎯헬	-9.51061
jtn쎯jiqn쎂쎯	-9.512
qipr쎯xyxw쎁쎯	-9.51227
깮	-9.51311
jywf쎀쎯	-9.51326
qipr쎯ֻiy쎯mm쎯	-9.51339
f쎯	-9.51439
yqj쎯aghu쎯skkn쎁쎯	-9.51516
sjfh쎯sgfl쎀쎯	-9.51545
〔ywx쎯oqdo쎯	-9.516
oopm쎀쎯iuyy쎯	-9.51653
atou쎯	-9.51663
rqcc쎀쎯ᦆqmwy쎁쎯	-9.51664
jfdo쎯	-9.51765
npwa쎀쎯xudb쎀쎯	-9.51848
zzbd쎂쎯Ἴftux쎯	-9.51949
wynj쎁쎯	-9.52031
fnff쎁쎯vfhw쎁쎯	-9.5204
iyo쎯	-9.52052
rkk쎯wt쎯efcb쎯	-9.52083
dftx쎯oope쎁쎯	-9.52086
cwgd쎁쎯	-9.52112
yqvg쎀쎯ynna쎀쎯	-9.5254
ʤ	-9.52547
umqy쎯	-9.52616
jjjn쎯	-9.52623
jnw쎯	-9.52671
inhe쎯	-9.5269
adn쎯weh쎯	-9.52691
zzbd쎂쎯މadn쎯	-9.52855
qay쎁쎯qgig쎁쎯	-9.52863
umqy쎯jatn쎀쎯	-9.52888
님	-9.52903
gfh쎯	-9.52907
nied쎯namy쎀쎯	-9.52983
,sk쎯	-9.52991
llge쎯	-9.53004
qamh쎀쎯	-9.53097
iepc쎯ynwm쎀쎯ɒ	-9.5317
zzbd쎂쎯tak쎯kpvg쎯	-9.53209
qoce쎀쎯ֻ	-9.53275
rqcw쎂쎯	-9.53299
╢	-9.533
ishg쎯	-9.53301
saq쎯	-9.5339
afuo쎀쎯by쎯	-9.53537
dttj쎀쎯	-9.53593
xfcy쎀쎯ᦆiy쎯mm쎯	-9.53593
kdhv쎯iwgw쎁쎯	-9.53595
qtfv쎁쎯zzdx쎉쎯	-9.536
vwgk쎯	-9.53661
gahm쎁쎯mci쎀쎯kpvg쎯	-9.53826
ynah쎁쎯iy쎯mm쎯	-9.53828
cfh쎯	-9.53858
qipr쎯iawk쎁쎯	-9.53868
aept쎯	-9.53876
oqdo쎯zzjp쎁쎅쎯	-9.53887
쎃쎯	-9.53911
saq쎯iuyy쎯	-9.53919
zzbd쎂쎯ŗfpws쎯	-9.53935
xtbb쎯	-9.53946
ynrg쎯	-9.53954
zzbd쎂쎯kjug쎯	-9.53977
fff쎀쎯erey쎯	-9.54036
igcf쎯	-9.54041
zzbd쎂쎯ylaw쎀쎯pwi쎯	-9.5413
suog쎯iuyy쎯	-9.54136
jvip쎀쎯jatn쎀쎯	-9.54193
pu	-9.54223
sgnn쎁쎯	-9.54318
fgu쎯xciy쎯wvgw쎄쎯	-9.5438
iit쎯wgkw쎃쎯dic쎯	-9.54401
qoce쎀쎯emww쎯kpvg쎯	-9.5445
xfcy쎀쎯밿ith쎯xe쎯	-9.5449
mqyl쎯xfkm쎀쎯	-9.54582
ilge쎁쎯	-9.54635
yam쎯texd쎀쎯	-9.54641
mnwe쎀쎯	-9.54691
직xxe쎯	-9.54702
kthj쎀쎯	-9.54758
of쎯xudb쎀쎯	-9.5476
qvln쎁쎯fkuh쎀쎯ɒ	-9.54766
difc쎯uus쎯	-9.54846
jak쎯	-9.54882
iqas쎀쎯qtnx쎯	-9.54986
aghu쎯skkn쎁쎯	-9.55069
wdj쎯hlqc쎀쎯	-9.55152
uqvh쎂쎯omdy쎯	-9.55175
gahm쎁쎯lebf쎯	-9.55177
sgki쎀쎯	-9.55194
iepc쎯oope쎁쎯	-9.55343
ipr쎯	-9.55355
fff쎀쎯anb쎀쎯sy쎯	-9.55388
ltkf쎀쎯ghd쎁쎯	-9.55393
fooy쎯mtfk쎀쎯┯	-9.55401
qgiy쎁쎯mgt쎯	-9.55421
dwg쎯	-9.55447
an쎯lwj쎯ȓzzts쎁쎈쎯	-9.55519
djg쎯ghd쎁쎯	-9.55522
យkr쎯kyxy쎁쎯	-9.55524
쎀쎀	-9.55527
qotp쎁쎯	-9.55548
dskc쎂쎯oafg쎁쎯	-9.55599
zzbd쎂쎯쎂eee쎀쎯	-9.55632
aitl쎯sudk쎯iy쎯mm쎯	-9.55687
iepc쎯ɒɒɒ	-9.55713
rtwh쎀쎯dsjh쎯	-9.55727
wfk쎯	-9.55758
gqpw쎯sync쎯	-9.5586
jsk쎯jgd쎀쎯	-9.55873
Ĉằ	-9.55925
qnp쎯	-9.55926
eyxf쎯mfkp쎯	-9.55962
udfm쎀쎯lccc쎃쎯	-9.56063
qtgw쎁쎯	-9.56081
fjlg쎯	-9.56092
fn쎯qwyn쎁쎯	-9.56095
בofdj쎯tlnf쎯	-9.56098
yuev쎯	-9.56102
wpht쎯	-9.56147
nied쎯	-9.56221
qwyc쎁쎯	-9.56267
vfj쎁쎯dhdl쎁쎯	-9.56306
efcb쎯vwyo쎯kpvg쎯	-9.56316
qgjc쎯	-9.56334
zzbd쎂쎯wuh쎀쎯gag쎯	-9.56342
oguc쎀쎯ua쎯	-9.56404
nhdi쎀쎯ipr쎯	-9.56431
imee쎯	-9.56516
djg쎯oqdo쎯	-9.56581
qipr쎯ix쎯	-9.56692
xxf쎯og쎯afdp쎀쎯	-9.5685
zzbd쎂쎯qvln쎁쎯ɒɒ	-9.56859
fooy쎯tvfh쎁쎯	-9.56902
msv쎯dmjd쎀쎯wgkw쎃쎯	-9.57063
j쎀쎯	-9.57142
haei쎀쎯	-9.57188
tdnt쎁쎯fff쎀쎯	-9.57224
rvln쎯	-9.57246
ntkg쎀쎯nyjg쎁쎯	-9.5727
tiaw쎀쎯	-9.57296
ua쎯qoep쎯zzbd쎅쎯	-9.57433
qccs쎯mtfk쎀쎯	-9.57462
wgmy쎀쎯iwgd쎯	-9.57494
luf쎀쎯dssn쎀쎯	-9.57514
ryg쎯apr쎯	-9.57548
wgkb쎀쎯	-9.57551
ljlg쎁쎯qwnd쎯	-9.57615
kfhy쎯	-9.57753
khrm쎂쎯	-9.57757
wtfh쎀쎯ẩ	-9.57757
ynwm쎀쎯msv쎯	-9.57773
qwyn쎁쎯qoep쎯	-9.57786
gag쎯dic쎯zzbd쎂쎯	-9.57801
awga쎂쎯	-9.57835
tool쎀쎯	-9.57857
ith쎯xe쎯qug쎀쎯	-9.57967
qccs쎯xrh쎀쎯	-9.58019
ʋxflm쎯	-9.5806
qwet쎀쎯qyce쎀쎯	-9.58087
w쎯ft쎯	-9.58088
emww쎯މ	-9.58109
dskc쎂쎯	-9.58133
ảamyu쎯	-9.58197
zzdx쎉쎯ryg쎯	-9.58206
zzpj쎇쎄쎯ydcy쎯억	-9.58217
fkuh쎀쎯uqt쎯js쎯	-9.58344
mtfk쎀쎯mci쎀쎯	-9.5842
쏅qfh쎁쎯	-9.58437
adn쎯rqcc쎀쎯zzbd쎂쎯	-9.58482
dftx쎯å	-9.5852
fkuh쎀쎯qvln쎁쎯	-9.58528
rfnf쎁쎯	-9.5854
cmu쎁쎯	-9.58548
ynt쎀쎯	-9.5859
w쎯	-9.58601
	-9.58623
klh쎀쎯	-9.58647
aqbt쎀쎯	-9.58674
ẩqwyn쎁쎯qgvb쎯	-9.58756
apr쎯	-9.58757
vpns쎯jiqn쎂쎯	-9.58851
zzbd쎂쎯yam쎯zzbd쎂쎯	-9.5887
בumqy쎯	-9.58898
sgxe쎯ji쎯	-9.58926
wyn쎁쎯avyn쎯itfq쎯민	-9.59003
ipj쎯	-9.59027
qipr쎯ca쎯	-9.59034
mjhg쎀쎯	-9.59037
abv쎯청	-9.59122
zzbd쎂쎯xyke쎂쎯	-9.59185
lrwy쎀쎯lv쎯	-9.59188
쎂쎀쎀쎅rh쎯goqh쎯	-9.59207
ipwy쎁쎯	-9.59213
rngg쎂쎯	-9.5924
iaah쎯hako쎯빛	-9.59241
ith쎯xe쎯gajl쎯ஜ	-9.59393
magu쎯qrc쎯	-9.59394
syp쎯iy쎯mm쎯	-9.59447
qgvb쎯ywx쎯ukd쎁쎯	-9.59461
khyf쎁쎯fisu쎯	-9.59467
shxi쎯	-9.5949
ixxr쎯mgji쎀쎯	-9.59526
auj쎯eua쎯	-9.59527
yqge쎁쎯	-9.59566
zzts쎁쎈쎯qug쎀쎯	-9.59672
kw쎃쎯ynwm쎀쎯duvo쎀쎯	-9.59677
Ցfth쎯	-9.59807
)zzdx쎁쎁쎯	-9.59847
vlwo쎀쎯	-9.59861
aldj쎯wtff쎁쎯	-9.59896
nufh쎀쎯iann쎀쎯	-9.59917
fff쎀쎯xudb쎀쎯	-9.59921
devk쎯	-9.59926
zzbd쎂쎯qsfi쎯aqdo쎯	-9.59976
ב	-9.60055
xpn쎯drt쎯	-9.60092
efwy쎀쎯iugo쎯	-9.60118
e쎁쎯iepc쎯wgkw쎃쎯	-9.60141
xul쎯qujq쎯	-9.60304
xxf쎯og쎯ith쎯xe쎯	-9.60377
ếvxx쎯	-9.60403
puwy쎀쎯	-9.6043
wfcj쎯qvln쎁쎯	-9.60433
Ǯ	-9.60463
hako쎯alfw쎯xudb쎀쎯	-9.60463
zzjp쎃쎅쎯rqcc쎀쎯ᅳ	-9.60522
ygcf쎀쎯	-9.6059
fff쎀쎯skkn쎁쎯	-9.60634
mtfk쎀쎯apr쎯	-9.60647
qsyy쎯luf쎀쎯zzbd쎅쎯	-9.60662
ayxy쎯	-9.6069
khnx쎯type쎯	-9.60838
v쎯	-9.60844
ybq쎯	-9.60888
msv쎯åwgkw쎃쎯	-9.60917
abti쎯	-9.60951
wpeg쎀쎯rymn쎯	-9.60993
ydcy쎯th쎯	-9.6104
jatn쎀쎯crqc쎯	-9.61046
ifcl쎯waqj쎯	-9.61047
sit쎯	-9.61115
qwyn쎁쎯qwnd쎯	-9.61151
harg쎯tgk쎯	-9.61172
msv쎯ynwm쎀쎯	-9.6118
b쎯	-9.61235
wynb쎀쎯	-9.6124
몬	-9.61281
wfil쎀쎯rbm쎯	-9.61288
eujg쎯wgkg쎀쎯	-9.6134
직qug쎀쎯	-9.61347
nwjh쎁쎯	-9.61369
რzzbd쎂쎯	-9.61399
މyygy쎯je쎯	-9.61402
rqcc쎀쎯yqj쎯zzbd쎂쎯	-9.6144
ynwm쎀쎯åwgkw쎃쎯	-9.61457
쁘	-9.61462
oqdo쎯txt쎯kpvg쎯	-9.61481
ruwl쎯	-9.61513
qvln쎁쎯wfcj쎯	-9.61536
xuep쎀쎯vdf쎀쎯	-9.61576
qtiq쎁쎯	-9.61608
nwyo쎁쎯	-9.61612
xmwy쎁쎯ga쎯vck쎯	-9.61666
qolj쎀쎯fgu쎯	-9.6171
afqb쎁쎯eua쎯	-9.61873
xgfh쎁쎯	-9.6198
ivey쎯twu쎯	-9.61994
rnd쎁쎯fkhp쎀쎯	-9.62031
bw쎯	-9.62072
셴	-9.6208
މsqde쎯	-9.62107
sggj쎀쎯	-9.62155
nnu쎯rnp쎯	-9.62176
aqsc쎯	-9.62183
xudb쎁쎯Ď	-9.62195
zzbd쎂쎯qdy쎀쎯	-9.62249
mndg쎁쎯ynjn쎁쎯	-9.62256
dftf쎁쎯skkn쎁쎯	-9.62332
wtff쎁쎯މ	-9.62394
nnu쎯	-9.62416
qpnn쎯hlqc쎀쎯	-9.62504
glk쎁쎯	-9.62531
rtwh쎀쎯	-9.62555
ssu쎯yssj쎁쎯	-9.62571
ayec쎯yygy쎯je쎯	-9.62576
uqt쎯js쎯ɒwgkw쎃쎯	-9.62626
xudb쎁쎯ywyk쎀쎯	-9.62636
nwjh쎀쎯wgkw쎃쎯dic쎯	-9.6267
qtnx쎯buah쎀쎯	-9.6273
x쎯	-9.62746
jgmv쎯ai쎯	-9.62751
zzxx쎂쎁쎯	-9.62856
chcy쎀쎯	-9.62876
fn쎯tyke쎂쎯	-9.62961
qqw쎯청	-9.63027
xxf쎯og쎯ynah쎁쎯	-9.6316
우	-9.63165
jgmv쎯tebl쎯hlqc쎀쎯	-9.63191
nvk쎯aahl쎀쎯쀊iuyy쎯	-9.63267
zzde쎃쎯drt쎯	-9.63291
äaqkn쎯	-9.63302
msv쎯wgkw쎃쎯	-9.63328
udjf쎀쎯vbs쎯zzbd쎂쎯	-9.63328
duvo쎀쎯iepc쎯juk쎯	-9.63334
dhdl쎁쎯qer쎯	-9.63347
ဎhako쎯yygy쎯je쎯	-9.63451
oqdo쎯weh쎯	-9.63585
vadt쎯qtfm쎁쎯	-9.63679
mgt쎯aga쎯	-9.63719
mwwk쎀쎯	-9.63842
wgkk쎯	-9.63882
afuo쎀쎯njqn쎯ẩ	-9.63905
aill쎯	-9.63927
odmj쎁쎯	-9.63933
슈fcjn쎯	-9.63961
qtv쎯	-9.64009
dic쎯qcrh쎯kpvg쎯	-9.64014
sam쎯qwnd쎯	-9.64043
zzts쎇쎯eenc쎯	-9.6405
evwo쎀쎯alfw쎯	-9.64069
ynn쎀쎯zzdx쎁쎁쎯	-9.64144
akgq쎀쎯kqjh쎀쎯	-9.64264
dftf쎁쎯wgkw쎃쎯	-9.64268
bkcb쎯smg쎯wrh쎂쎯	-9.64363
xgfh쎁쎯yy쎯dm쎯	-9.64366
swgj쎁쎯	-9.64371
cep쎯fp쎯민zzbd쎂쎯	-9.64428
aqrj쎯axay쎯	-9.64429
¦cmu쎁쎯	-9.64486
헬qtfm쎁쎯xflm쎯	-9.64522
py쎯wf쎯	-9.64569
zzbd쎂쎯혹	-9.64604
uub쎯	-9.64725
swwn쎃쎯	-9.64814
ahkm쎁쎯މ	-9.65012
nerm쎯	-9.65036
oqdo쎯ftux쎯	-9.65037
pyy쎯	-9.65038
qrgk쎯yqj쎯	-9.6506
qipr쎯ejhh쎯	-9.65069
iadm쎀쎯	-9.65097
tyke쎂쎯rwyg쎀쎯	-9.65112
pwxw쎀쎯	-9.65151
dwwo쎁쎯	-9.65237
xxx쎯	-9.65247
gnh쎯	-9.65331
gna쎯abue쎯mxjj쎯	-9.65349
zzbd쎂쎯yqj쎯	-9.65357
qnql쎯	-9.65386
all쎯	-9.65474
mtje쎃쎯╢	-9.65559
qgiy쎁쎯	-9.65579
tejh쎀쎯rpw쎯rmhj쎯	-9.65589
iy쎯mm쎯oguc쎀쎯	-9.6559
ynwm쎀쎯qorc쎀쎯	-9.65622
┐	-9.65662
혹badw쎀쎯	-9.65691
ydcy쎯zzjp쎄쎈쎯	-9.65738
ntas쎯jrif쎯	-9.6578
ghd쎁쎯ocyj쎯qrgk쎯	-9.65806
zzbd쎂쎯ygji쎯	-9.65856
wtfh쎁쎯dic쎯	-9.65893
ydcy쎯nhdi쎀쎯	-9.65907
y쎁쎯	-9.65938
ydcy쎯zzjp쎁쎅쎯	-9.65979
y쎯	-9.65996
lfci쎯	-9.6601
rmho쎀쎯	-9.66016
vfhl쎀쎯	-9.66029
n쎯	-9.6603
iwgw쎁쎯zzdx쎂쎯	-9.66034
emww쎯by쎯tkw쎯se쎯	-9.66069
elll쎀쎯빛	-9.66086
ȃ	-9.6611
초	-9.66117
sqoj쎯xflm쎯Ą	-9.66159
pyut쎀쎯	-9.66184
cqyy쎯	-9.66211
xvtq쎯	-9.66246
qfdj쎯tjwv쎯	-9.66374
yqj쎯iqas쎀쎯sfcy쎁쎯	-9.66443
iafl쎀쎯adn쎯	-9.66446
tyke쎂쎯ip쎯nu쎯	-9.66448
qtme쎯rdn쎯	-9.66484
ddi쎯	-9.66502
şwfj쎁쎯	-9.66516
vdf쎀쎯wtff쎁쎯	-9.66531
ynwm쎀쎯kkbh쎯	-9.66542
rqcc쎀쎯yqj쎯ẩ	-9.66545
ynwm쎀쎯ɒkkbh쎯	-9.66547
ېwcng쎯	-9.6656
ċ	-9.66579
eejf쎀쎯gajl쎯	-9.66622
qtdd쎀쎯	-9.66646
sdgt쎀쎯	-9.66698
̇qkhk쎯	-9.66864
bufh쎯	-9.66909
rqcy쎁쎯청	-9.67146
Ս	-9.67163
qdn쎯	-9.67202
ådmjd쎀쎯wgkw쎃쎯	-9.67289
zzjp쎇쎂쎯	-9.67338
hep쎯iepc쎯oope쎁쎯	-9.67344
egi쎯	-9.67366
qtfx쎀쎯	-9.67394
dqaj쎯	-9.67414
tsg쎁쎯gkhj쎁쎯	-9.67449
iy쎯mm쎯Ąsgfl쎀쎯	-9.67456
qrrm쎯goqh쎯	-9.67466
콤	-9.67543
┊	-9.67563
ddnl쎯	-9.67574
anb쎀쎯sy쎯wgkk쎯	-9.67599
tfqb쎁쎯ktr쎯	-9.67701
oue쎯kpvg쎯	-9.67715
duvo쎀쎯xrh쎀쎯aecn쎯	-9.6772
『tdko쎯	-9.67725
uqt쎯js쎯å	-9.67749
xajd쎯wtff쎁쎯	-9.67788
fefy쎯jlff쎀쎯	-9.67798
qobt쎀쎯rtfh쎀쎯	-9.67822
wtff쎁쎯	-9.67859
fjqn쎁쎯qwnd쎯	-9.67922
qgvb쎯zzdx쎉쎯	-9.6793
pude쎁쎯	-9.67936
eejf쎀쎯	-9.67964
thwu쎯iepc쎯oope쎁쎯	-9.67965
jrif쎯청	-9.68063
tebl쎯xyxw쎁쎯	-9.68136
혹zzdx쎁쎁쎯	-9.68175
jip쎯	-9.68224
wfcj쎯iepc쎯	-9.68229
elll쎀쎯	-9.68311
ygk쎯yyy쎯	-9.6838
כ	-9.68409
qccs쎯zzpj쎇쎄쎯	-9.68466
anud쎯	-9.68467
sghg쎂쎯	-9.68514
kw쎃쎯dftx쎯duvo쎀쎯	-9.68524
lccc쎃쎯qfdj쎯	-9.68552
tjwv쎯etxu쎯	-9.68612
adwh쎀쎯kih쎯	-9.6868
Ց	-9.68768
rfnf쎁쎯smg쎯	-9.68845
ynwm쎀쎯ɒwgkw쎃쎯	-9.68864
jlff쎀쎯tlnf쎯vwyo쎯	-9.68902
wy쎯jcf쎯	-9.68926
ဎ	-9.68952
	-9.68962
qnye쎀쎯	-9.68971
fooy쎯rqcc쎀쎯	-9.69215
jaqh쎯xfcy쎀쎯	-9.69217
udfm쎀쎯qnij쎯	-9.69271
nlge쎀쎯	-9.69283
sudk쎯odm쎯zzdx쎁쎁쎯	-9.69313
ynwm쎀쎯rkk쎯wt쎯	-9.69327
iawk쎁쎯sgfl쎀쎯	-9.69426
qoev쎀쎯	-9.69448
hay쎯	-9.69493
puyg쎯rqcc쎀쎯	-9.69516
yygy쎯je쎯umaw쎀쎯	-9.69528
tn쎯	-9.69564
esw쎯	-9.69655
yhk쎯dpgg쎯	-9.69678
wv쎯klj쎯	-9.69725
	-9.69767
zzdx쎉쎯xxe쎯	-9.69791
y쎯s쎯	-9.69825
젖	-9.69833
umau쎯lv쎯	-9.69893
yqjg쎯rqcc쎀쎯yqj쎯	-9.69904
fnud쎯	-9.70023
jamy쎁쎯	-9.70043
tqbt쎃쎯	-9.70099
xgfh쎀쎯rnp쎯	-9.70099
gag쎯weh쎯	-9.7012
jtdg쎯	-9.70187
qkhk쎯dfny쎁쎯	-9.70207
vqmy쎯	-9.70231
uwyo쎀쎯	-9.70303
trch쎯	-9.70312
oqdo쎯rwyg쎀쎯	-9.70396
trvy쎯	-9.70407
oopm쎁쎯	-9.70499
snn쎁쎯osjh쎁쎯	-9.70519
wtff쎁쎯smg쎯	-9.70555
iepc쎯qvln쎁쎯ɒ	-9.70583
oopm쎀쎯xwks쎯	-9.70587
fgu쎯qthm쎯	-9.70601
zzbd쎂쎯w쎯km쎯	-9.70689
rvln쎯ytd쎯	-9.7079
fjqn쎁쎯kpvg쎯	-9.70857
quxx쎁쎯	-9.70883
tpe쎯	-9.70913
ᨣgahm쎁쎯	-9.70943
쎃쎅nufh쎀쎯	-9.71031
yygy쎯je쎯zzbd쎂쎯	-9.71054
auff쎯juk쎯	-9.71085
yufe쎯	-9.7111
uqt쎯js쎯iepc쎯	-9.71115
님nutg쎯	-9.7114
qcrh쎯	-9.71146
nvaf쎯	-9.71146
jada쎁쎯ֻaeef쎁쎯	-9.71157
iaah쎯rymn쎯	-9.71255
bkcb쎯smg쎯ẩ	-9.71282
syny쎀쎯tkw쎯se쎯	-9.71313
xfcy쎀쎯ynah쎁쎯	-9.71332
mpk쎀쎯	-9.71397
wuh쎀쎯gjjg쎀쎯	-9.71411
bty쎀쎯	-9.71423
ukd쎁쎯u쎯kkk쎯	-9.7143
ȓ	-9.7149
gmfg쎀쎯lrw쎯	-9.71545
smg쎯fpo쎯	-9.71552
yte쎯	-9.71616
މybo쎯	-9.71633
dssn쎀쎯fpo쎯	-9.71646
jaat쎯	-9.71659
zzbd쎂쎯	-9.71671
ådftx쎯wgkw쎃쎯	-9.71739
qsyy쎯nvk쎯oqdo쎯	-9.71741
iepc쎯ɒwgkw쎃쎯	-9.71762
iptl쎯	-9.71816
qgig쎁쎯xqay쎀쎯	-9.71879
adu쎀쎯	-9.71886
amhj쎁쎯	-9.71919
wtfh쎀쎯jrif쎯	-9.71932
idi쎯	-9.7195
fkeg쎯kwye쎀쎯	-9.71974
ryg쎯މtkw쎯se쎯	-9.71983
tegf쎀쎯tvfh쎁쎯	-9.72001
kthd쎯	-9.7207
yqj쎯	-9.72132
졸	-9.72155
lftj쎯	-9.72195
oqdo쎯yqj쎯	-9.72226
Ἴbuah쎀쎯	-9.72241
cux쎯Į	-9.7227
Ĉqug쎀쎯	-9.72276
wgke쎀쎯yam쎯	-9.72295
puyg쎯qgvb쎯	-9.72306
puvi쎯	-9.72345
ynwm쎀쎯wfcj쎯	-9.72386
qtfv쎁쎯ydcy쎯	-9.7254
╒	-9.72565
xgfh쎀쎯teae쎯	-9.72581
qmy쎁쎯ihcd쎯	-9.72612
yy쎯dm쎯tyk쎯	-9.72627
wrnn쎯	-9.72633
tp쎯	-9.72661
iepc쎯oope쎁쎯msv쎯å	-9.72685
vevg쎁쎯crqc쎯oqdo쎯	-9.72692
ᆞ゙	-9.72721
ynn쎀쎯iy쎯mm쎯	-9.72723
qtiq쎁쎯್	-9.72748
ֶrnp쎯	-9.7275
청vwyo쎯	-9.72793
usq쎯	-9.72852
료zzbd쎂쎯	-9.72967
lfk쎯	-9.73027
dnbm쎯dqdj쎯	-9.73039
gag쎯aeef쎁쎯	-9.73053
kccc쎯aqsc쎯iy쎯mm쎯	-9.73086
pei쎯n쎯wtfv쎀쎯	-9.73122
넸	-9.73252
hwbx쎀쎯	-9.73297
Ŋ	-9.73342
yqjg쎯	-9.73348
މlnav쎯	-9.73384
tltk쎁쎯	-9.73385
dfsh쎯zzdx쎁쎁쎯	-9.73403
왜atd쎯ip쎯	-9.73434
fybh쎯	-9.73523
cjpv쎯	-9.73525
lnav쎯ֻ	-9.73558
egey쎀쎯➤	-9.73562
qnwe쎀쎯lfon쎃쎯	-9.73576
fiwe쎯kwye쎀쎯	-9.736
zzjp쎃쎅쎯rqcc쎀쎯	-9.7361
giv쎯qojg쎁쎯	-9.73697
zzbd쎂쎯어qsfi쎯	-9.73779
rqcc쎀쎯막	-9.73802
ywvo쎂쎯	-9.73808
zzde쎃쎯jvip쎀쎯	-9.73958
nujg쎀쎯	-9.73989
ಮ	-9.73997
idg쎀쎯qenh쎯	-9.74017
udfm쎀쎯gde쎯	-9.74083
agi쎯jatn쎀쎯	-9.74123
dssn쎀쎯oopm쎀쎯	-9.74133
cffq쎯owno쎀쎯	-9.74134
nvk쎯xflm쎯	-9.74172
ewe쎯	-9.74238
akgq쎀쎯itky쎯	-9.74244
zzbd쎂쎯qmwy쎁쎯ŗ	-9.7432
mhtl쎯wtff쎁쎯	-9.74353
oguc쎀쎯jatn쎀쎯	-9.74409
zzbd쎂쎯ynm쎯	-9.74471
aah쎀쎯zzjp쎁쎅쎯	-9.74479
rkc쎯	-9.74504
pei쎯n쎯쎁쎃	-9.7461
jqrt쎀쎯	-9.74627
igec쎯	-9.74627
aafo쎯qgjl쎯zzbd쎅쎯	-9.74732
ynna쎀쎯egi쎯fff쎀쎯	-9.74759
징sqoj쎯	-9.74803
icyy쎯nutg쎯	-9.74835
탤tkw쎯se쎯	-9.74922
vdeg쎀쎯	-9.74939
Ἴftux쎯	-9.74956
wv쎯	-9.74967
rwyg쎀쎯vpns쎯	-9.74995
zzpj쎇쎄쎯gkhj쎁쎯	-9.74996
dvey쎯	-9.75061
yxte쎀쎯	-9.75096
spju쎀쎯┯	-9.75115
・judb쎁쎯xudb쎀쎯	-9.75235
sync쎯ith쎯xe쎯	-9.75291
ukh쎯	-9.75319
ielf쎀쎯kal쎯	-9.7535
emww쎯puwe쎀쎯	-9.7543
fay쎯	-9.75436
qgig쎁쎯ydcy쎯	-9.75499
an쎯lwj쎯ȓ	-9.75505
vqbt쎀쎯iit쎯	-9.75506
zzdx쎁쎁쎯wpwk쎀쎯	-9.75548
nhdi쎀쎯	-9.75569
║	-9.75593
kw쎃쎯iepc쎯duvo쎀쎯	-9.75617
duc쎯zzts쎁쎈쎯	-9.75657
ärymn쎯	-9.75694
בerh쎯	-9.75701
oafg쎁쎯wglj쎁쎯	-9.75705
wtff쎁쎯슨	-9.75776
fpo쎯py쎯aq쎯	-9.7578
ipr쎯ktr쎯	-9.75824
dmjl쎀쎯	-9.75825
xriy쎂쎯	-9.75873
uvog쎯dpgg쎯	-9.75927
kr쎯rrrj쎯	-9.75932
iawk쎁쎯dic쎯	-9.7596
ặ	-9.76024
wmj쎁쎯	-9.76034
qtfm쎁쎯ftux쎯	-9.7605
zzdx쎉쎯qgvb쎯	-9.76326
Ąsgfl쎀쎯iy쎯mm쎯	-9.76332
qovh쎀쎯hhwn쎯	-9.76333
wtn쎯ydm쎯	-9.76378
ᦷ	-9.76443
puff쎁쎯	-9.76457
dqdj쎯	-9.7646
뭣kfl쎯	-9.76473
Ĉếiy쎯mm쎯	-9.76491
jsk쎯	-9.76499
wcng쎯	-9.76585
cffq쎯iqaw쎯	-9.7664
vhah쎀쎯	-9.76652
uejv쎀쎯jf쎯	-9.76653
qgiy쎁쎯rfnf쎁쎯	-9.7666
åqvln쎁쎯wgkw쎃쎯	-9.7683
qgjj쎯쀊	-9.76874
nvk쎯waqj쎯	-9.76905
djg쎯oqdo쎯	-9.76922
fhpd쎯	-9.76997
tufh쎀쎯	-9.77013
ytnx쎯	-9.77093
py	-9.77106
슨랙	-9.77113
egey쎀쎯adeu쎯	-9.77118
aqkf쎀쎯	-9.77131
jeg쎯rkk쎯wt쎯	-9.77179
åqvln쎁쎯	-9.7723
iant쎯	-9.77233
qgig쎁쎯wtfv쎀쎯	-9.77347
რith쎯xe쎯	-9.77375
agi쎯wrqw쎯	-9.77383
rgiq쎀쎯	-9.77436
ขrfho쎯	-9.77466
qtmy쎀쎯	-9.77538
ynk쎯	-9.77678
awnu쎁쎯xqi쎯	-9.77684
를qgn쎯	-9.77685
ewwb쎯졸	-9.77807
em쎯xwks쎯	-9.77856
wtff쎁쎯jdmd쎁쎯	-9.77922
nss쎯	-9.77935
qwyn쎁쎯뼉	-9.77954
iy쎯mm쎯ynah쎁쎯	-9.77999
wtff쎁쎯khaj쎂쎯	-9.78037
jgsy쎯emww쎯	-9.7804
kyxy쎁쎯cep쎯fp쎯	-9.7807
dueg쎯	-9.78086
åynwm쎀쎯wgkw쎃쎯	-9.78099
eenc쎯	-9.78126
qayn쎁쎯	-9.78161
fff쎀쎯tlnf쎯aecn쎯	-9.78163
puup쎯	-9.78186
cck쎯fyi쎀쎯	-9.78202
qolj쎀쎯숭	-9.78227
ltkf쎀쎯ith쎯xe쎯	-9.78232
zzpj쎇쎄쎯qkty쎯	-9.78297
agi쎯idf쎀쎯	-9.7834
tldt쎀쎯iepc쎯	-9.78358
lrwy쎀쎯gftj쎯	-9.78391
rqcc쎀쎯qouq쎀쎯	-9.78462
yqvg쎀쎯jued쎀쎯adn쎯	-9.78507
vkhh쎯wnx쎯	-9.78533
nwjh쎀쎯ctrt쎯	-9.78584
oqdo쎯qmwy쎁쎯	-9.78613
컥	-9.78614
dhq쎯	-9.78708
tdko쎯dwa쎯	-9.78734
qvln쎁쎯ɒiepc쎯ɒwg	-9.78742
swb쎯	-9.78852
Ĉqfdj쎯	-9.78887
xfag쎀쎯sjtq쎯	-9.78895
tebl쎯xewo쎯	-9.78909
rnjl쎯of쎯	-9.78912
wfj쎁쎯zzdx쎉쎯	-9.7897
adww쎃쎯	-9.78996
qggn쎀쎯	-9.79015
xudb쎀쎯tfqb쎁쎯	-9.79076
xpn쎯	-9.79087
hag쎀쎯	-9.79144
yxte쎀쎯duk쎀쎯	-9.79148
yntm쎂쎯sync쎯	-9.7918
gig쎯	-9.79193
wpgm쎯	-9.79198
앙	-9.79203
vny쎀쎯『	-9.7921
ith쎯xe쎯waqj쎯	-9.79214
cep쎯fp쎯민ẩ	-9.79229
tmdf쎁쎯nqbt쎂쎯	-9.79233
qolj쎀쎯	-9.79244
zzbd쎂쎯yi쎯aeef쎁쎯	-9.79257
nlge쎀쎯skkn쎁쎯	-9.79258
em쎯	-9.79286
wydm쎯dhih쎯	-9.79389
ylaw쎀쎯qpnn쎯	-9.79397
thdc쎁쎯ca쎯	-9.79404
iawk쎁쎯qusf쎀쎯	-9.79546
ilwl쎀쎯	-9.796
첨	-9.79625
af	-9.79663
wsdn쎯nuk쎀쎯	-9.79699
xwks쎯	-9.79758
랄	-9.79788
xxf쎯og쎯kyxy쎁쎯	-9.79791
wsdn쎯kxxi쎀쎯ู	-9.79799
anwu쎯bynn쎯	-9.7982
jh쎯	-9.79825
쀊fefy쎯	-9.79893
iex쎯	-9.80005
duk쎀쎯iawk쎁쎯	-9.80053
히	-9.80061
fooy쎯kawc쎀쎯	-9.80075
wsdn쎯fpgo쎀쎯	-9.80123
헬gag쎯	-9.8013
rbm쎯릿	-9.80134
fpgc쎁쎈쎯hay쎯	-9.80141
wgif쎯भayec쎯	-9.80151
nay쎀쎯ế	-9.80202
hyn쎯	-9.80204
pq쎯gkh쎀쎯	-9.80205
qgiy쎁쎯puwe쎀쎯	-9.80219
ɒfkuh쎀쎯ynwm쎀쎯	-9.80284
fff쎀쎯qwnd쎯fgu쎯	-9.80401
fefy쎯ô	-9.80402
rwyg쎀쎯fcbh쎁쎯	-9.80412
qtfv쎁쎯	-9.80424
omdy쎯ibg쎁쎯	-9.80451
ṛ	-9.80468
aujf쎁쎯	-9.80518
atd쎯ip쎯	-9.80527
qtdd쎀쎯	-9.80546
jxe쎯	-9.80557
tmwo쎁쎯	-9.80558
lynw쎀쎯dpgg쎯	-9.8059
()zzbd쎂쎯	-9.80595
kwye쎀쎯lftj쎯oqdo쎯	-9.80634
ivfg쎀쎯	-9.80697
ȓ	-9.80702
ᅳ	-9.80764
tejh쎀쎯nufh쎀쎯	-9.80863
rqcc쎀쎯fnff쎁쎯	-9.80864
qun쎯	-9.80909
dfee쎯xrh쎀쎯	-9.80909
wynl쎀쎯	-9.81005
xjx쎯uus쎯	-9.81063
rlf쎁쎯	-9.81077
قែ	-9.8125
yaf쎯fnx쎯tkw쎯se쎯	-9.81257
qowo쎀쎯	-9.81401
בghnu쎀쎯	-9.81433
qkhk쎯texd쎀쎯	-9.81482
	-9.81502
nay쎀쎯fff쎀쎯	-9.81547
wh쎯	-9.81632
ådmjd쎀쎯	-9.81723
axay쎯	-9.81782
ige쎯yygy쎯je쎯	-9.81805
yfh쎁쎯	-9.81807
tedm쎀쎯tedm쎀쎯te	-9.8183
thgc쎀쎯iy쎯mm쎯	-9.81876
슈bynn쎯	-9.81957
nwjh쎀쎯khpj쎯	-9.81977
agko쎯	-9.81989
uxe쎯umaw쎀쎯kyxy쎁쎯	-9.81992
jyss쎀쎯zzde쎃쎁쎯	-9.82005
	-9.82028
thld쎯	-9.82029
qoxj쎀쎯	-9.82036
헌rham쎃쎯	-9.82061
qyiy쎀쎯afqb쎁쎯	-9.82146
xflm쎯ષ	-9.82158
츠	-9.82183
ghnu쎀쎯yqj쎯	-9.82191
ynwm쎀쎯fgu쎯qthm쎯	-9.82195
åå	-9.82367
qtfm쎁쎯dpgh쎯	-9.82423
fn쎯މ	-9.82443
xjx쎯Ą	-9.82458
cuxw쎯	-9.82463
qgig쎁쎯qay쎁쎯	-9.82527
ydcy쎯xudb쎀쎯fn쎯	-9.82599
kdf쎯	-9.8268
변	-9.82701
wfil쎀쎯tufh쎀쎯	-9.82722
åmsv쎯	-9.82801
xudb쎀쎯zzxx쎀쎯	-9.82876
iqas쎀쎯jynx쎀쎯	-9.82882
rqcc쎀쎯yqj쎯oqdo쎯	-9.82952
fpgo쎀쎯vwyo쎯	-9.82966
րvkcy쎀쎯	-9.82973
fpo쎯쀊iy쎯mm쎯	-9.82999
sfcy쎁쎯zzdx쎁쎁쎯	-9.83011
yjdg쎯┯	-9.83019
uqt쎯js쎯åwgkw쎃쎯	-9.83041
zzjp쎁쎅쎯sgfl쎀쎯	-9.83075
vny쎀쎯tpe쎯	-9.83143
tjwv쎯xtgo쎯	-9.83178
제	-9.83178
ydm쎯ua쎯	-9.83182
aafo쎯	-9.83234
asff쎁쎯qwyn쎁쎯	-9.83245
msv쎯oope쎁쎯	-9.83266
wgkw쎃쎯ww쎯gk쎯	-9.83278
혹rqct쎁쎯	-9.83289
fbh쎀쎯dssn쎀쎯	-9.83412
ofdj쎯kr쎯	-9.83418
Ἀayec쎯ix쎯tlnf쎯	-9.83425
쎂쎉	-9.83453
ukf쎁쎯rvln쎯	-9.83522
adn쎯rqcc쎀쎯oqdo쎯	-9.83528
jvip쎀쎯މ	-9.83588
sgxe쎯aefc쎀쎯ypk쎯	-9.836
xflm쎯dvey쎯	-9.83636
wfvf쎀쎯	-9.83682
쎂쎀쎀쎅rh쎯qug쎀쎯	-9.83696
mhtl쎯	-9.83728
yqa쎯	-9.83752
itfq쎯u쎯kkk쎯	-9.8376
umaw쎀쎯kr쎯	-9.83791
unwe쎀쎯	-9.83826
dejr쎯	-9.83849
smg쎯an쎯lwj쎯	-9.8387
vny쎀쎯tfqb쎁쎯	-9.83878
ijgf쎀쎯kr쎯	-9.83944
oqdo쎯pwgn쎀쎯	-9.8396
ium쎯	-9.83963
ᆞjgd쎀쎯	-9.84067
jccc쎀쎯	-9.84072
nutg쎯afdp쎀쎯	-9.84092
khij쎯	-9.84129
rnjl쎯	-9.84153
릿	-9.84213
msv쎯dftx쎯	-9.84263
ljlg쎁쎯בsmg쎯	-9.84308
ruxt쎯	-9.84446
Ἀayec쎯rqcc쎀쎯쎂	-9.84458
iy쎯mm쎯쀊iawk쎁쎯	-9.84488
ielf쎀쎯₪rtwh쎀쎯lv쎯	-9.84631
pw	-9.84642
qgvb쎯puyg쎯itfq쎯	-9.84655
ujhc쎀쎯	-9.8469
ijgf쎀쎯zzts쎁쎈쎯	-9.84692
렸	-9.84711
jiqn쎂쎯mtfk쎀쎯	-9.84743
puwj쎀쎯rdn쎯	-9.84832
ige쎯uvog쎯	-9.84849
ဎhako쎯	-9.84902
cnuh쎯	-9.84957
erh쎯cep쎯fp쎯	-9.84972
al쎯	-9.84999
wkkt쎯	-9.85008
msv쎯qvln쎁쎯	-9.85033
dfd쎯iepc쎯oope쎁쎯	-9.85035
yufe쎯njqn쎯	-9.8504
lxyx쎯	-9.85063
zzpj쎇쎄쎯억	-9.85159
of쎯wgmy쎀쎯	-9.85183
wton쎁쎯fkkv쎀쎯	-9.85188
ynm쎯iy쎯mm쎯	-9.85256
fdjd쎀쎯	-9.85278
ijly쎯wtfh쎀쎯	-9.85281
mwym쎂쎯	-9.85293
jued쎀쎯dssn쎀쎯	-9.85303
쎂eee쎀쎯efcb쎯	-9.85314
qojj쎁쎯	-9.85368
zzbd쎂쎯ww쎯gk쎯	-9.85408
ywgj쎄쎯lagg쎯	-9.85443
taho쎁쎯	-9.8545
peg쎯ygq쎯태	-9.85454
ۂ	-9.85496
zzpj쎇쎄쎯btfn쎀쎯	-9.85524
❖	-9.85544
etol쎯nmv쎯	-9.85577
wdj쎯넸	-9.85596
ད	-9.85603
mtfk쎀쎯쀊	-9.85686
xxn쎀쎯	-9.85702
tg쎯tr쎯	-9.85732
ijgf쎀쎯ywti쎯iepc쎯	-9.8574
dftx쎯iepc쎯	-9.8576
ysjh쎯რ	-9.8584
dpgg쎯xflm쎯iaah쎯	-9.85887
ywx쎯yygy쎯	-9.85888
iy쎯mm쎯ädtth쎀쎯	-9.86084
ygqt쎯qtiq쎁쎯	-9.86091
jaqh쎯uus쎯	-9.86107
fcbh쎁쎯헬	-9.8612
fgu쎯glp쎯	-9.86124
tmdf쎁쎯wgmy쎀쎯	-9.86307
fpgc쎁쎈쎯직	-9.86346
҉wvgw쎄쎯	-9.86382
qbhf쎯	-9.86384
kpvg쎯qvln쎁쎯ɒ	-9.8642
쀊iawk쎁쎯oqdo쎯	-9.86438
eehc쎁쎯	-9.86442
킴	-9.86449
lpk쎀쎯xfn쎯	-9.86461
iaah쎯iugo쎯	-9.86486
wtff쎁쎯teae쎯	-9.86519
ix쎯ẩ	-9.86538
ἀ	-9.86544
dhdt쎁쎯	-9.86552
zzbd쎅쎯qvln쎁쎯	-9.86731
fkuh쎀쎯oope쎁쎯	-9.86739
뼉tebl쎯	-9.86771
djg쎯wuh쎀쎯gag쎯	-9.86772
	-9.86808
msv쎯iepc쎯wgkw쎃쎯	-9.86828
qwnd쎯ẩ	-9.86857
،	-9.86886
lpk쎀쎯afuo쎀쎯	-9.86969
erh쎯iawk쎁쎯	-9.87018
d쎯	-9.87027
zzzy쎃쎂쎯	-9.87038
xv쎯	-9.87049
årkk쎯wt쎯	-9.87055
xtnn쎀쎯	-9.87063
kqjh쎀쎯	-9.87128
ŗsgxe쎯	-9.87129
mmm쎯aq쎯	-9.87133
khaj쎂쎯sgxe쎯	-9.87146
펫	-9.87185
rdb쎯	-9.87224
oue쎯smg쎯jf쎯	-9.87249
ocyj쎯	-9.87335
erh쎯ywx쎯smg쎯	-9.87343
	-9.87362
dadr쎀쎯	-9.87377
ȸ	-9.87394
qpnn쎯ghd쎁쎯	-9.87522
wfhw쎯	-9.87596
etfp쎀쎯	-9.8764
fkuh쎀쎯iepc쎯	-9.87688
ฌndyy쎀쎯	-9.87688
fpo쎯dssn쎀쎯	-9.87707
락	-9.87716
fff쎀쎯thdc쎁쎯	-9.87776
iqas쎀쎯rqct쎁쎯oue쎯	-9.87821
qbqb쎯직	-9.87838
ण	-9.87872
ন	-9.87931
pwkv쎯	-9.88006
lv쎯⟩	-9.8806
vqbt쎀쎯tak쎯	-9.88137
mumj쎯vevg쎁쎯	-9.88228
xflm쎯vwyo쎯	-9.8824
sgxe쎯ayec쎯	-9.88255
ajff쎀쎯	-9.88288
goqh쎯ֻ	-9.88311
ljlg쎁쎯rtwh쎀쎯lv쎯	-9.88386
mhtl쎯	-9.88389
awwp쎯Ἴ	-9.88446
ryty쎀쎯fff쎀쎯	-9.8845
ipvg쎯	-9.88486
	-9.88493
hqqq쎯xv쎯	-9.8856
rqcc쎀쎯dssn쎀쎯	-9.88616
qrrm쎯goqh쎯kyxy쎁쎯	-9.88642
difc쎯nlge쎀쎯	-9.88674
tapy쎯	-9.88711
cep쎯fp쎯hako쎯ᆞ	-9.88716
oyy쎀쎯	-9.8872
y쎯s쎯jtyq쎀쎯	-9.88721
kaqt쎀쎯މ	-9.88776
wgkw쎃쎯qtfm쎁쎯	-9.88815
gehb쎯kaqy쎯	-9.8886
askf쎀쎯	-9.88864
zzbd쎂쎯lnav쎯	-9.88914
msv쎯ɒwgkw쎃쎯	-9.88924
ghd쎁쎯ydcy쎯	-9.88972
gefc쎯xmw쎯	-9.88998
tlkf쎯ter쎁쎯	-9.89
ujfe쎯	-9.89119
iann쎀쎯	-9.89154
ŗfpws쎯	-9.89165
e쎯	-9.89188
ymd쎯tpe쎯	-9.89192
sgqk쎁쎯	-9.89198
qtx쎯	-9.89263
caj쎀쎯	-9.89274
wgkw쎃쎯wprc쎀쎯	-9.89283
iudb쎯	-9.89285
rqcc쎀쎯ᅳ	-9.89341
rudb쎁쎯	-9.89357
jjq쎯zzjp쎃쎈쎯	-9.89372
xpn쎯drt쎯iy쎯mm쎯	-9.89446
rryt쎀쎯	-9.89447
alpa쎀쎯	-9.8946
qoce쎀쎯릿	-9.89499
ȓqtfm쎁쎯	-9.89569
aga쎯	-9.89647
qtmn쎀쎯wtff쎁쎯	-9.89686
(tlnf쎯jued쎀쎯	-9.89799
ခ	-9.89807
aruf쎯lagg쎯	-9.89814
qccs쎯yue쎯	-9.89837
xov쎯	-9.8993
ijl쎯hako쎯	-9.89972
ydcy쎯wyk쎯	-9.90019
nwjh쎀쎯xudb쎀쎯	-9.90031
wfcj쎯dmjd쎀쎯	-9.90068
징sfgn쎯gmf쎯othj쎯	-9.90085
mtyi쎯rymn쎯	-9.90086
aqrj쎯wtff쎁쎯ayec쎯	-9.90088
xvpc쎀쎯궁	-9.90116
uw쎯	-9.90144
ygq쎯olgf쎯	-9.90154
xjx쎯	-9.90157
hidf쎁쎯	-9.90194
emww쎯jvip쎀쎯	-9.90194
m쎯	-9.90242
ขrfho쎯kyxy쎁쎯	-9.90391
ɧdjh쎀쎯	-9.90453
jgd쎀쎯oqdo쎯	-9.90519
crgg쎀쎯ôgmyg쎀쎯	-9.90537
qipr쎯ֻcck쎯judb쎁쎯	-9.9059
ytyh쎯ymhj쎀쎯	-9.90598
sdht쎁쎯smg쎯tlnf쎯	-9.90628
dn쎯js쎯	-9.90658
Ĉfcjn쎯	-9.90692
frh쎀쎯	-9.90707
nutg쎯ugd쎂쎯	-9.90727
xxe쎯,	-9.90764
difc쎯	-9.90781
crgg쎀쎯jued쎀쎯	-9.90824
edjd쎯	-9.90824
kp쎯	-9.90838
adwh쎀쎯hako쎯	-9.90843
dmjd쎀쎯wfcj쎯	-9.90863
ydcy쎯ufn쎯	-9.90892
tlnf쎯ayec쎯ayec쎯민	-9.9096
ougt쎁쎯	-9.9098
ryty쎁쎯vpns쎯	-9.91023
뼉afdp쎀쎯	-9.91065
kruf쎯syp쎯	-9.91078
qowv쎀쎯	-9.91089
xflm쎯smg쎯vwyo쎯	-9.91115
ywx쎯	-9.91117
xflm쎯wgmy쎀쎯	-9.91192
ydcy쎯청iy쎯mm쎯	-9.91201
xudb쎀쎯Į	-9.91235
yygy쎯je쎯dpgg쎯	-9.91239
qipr쎯xtgo쎯	-9.91271
klle쎯wnx쎯xflm쎯	-9.91345
̇hnhg쎯	-9.91443
msv쎯å	-9.91454
qwyn쎁쎯sdht쎁쎯ẩ	-9.91457
egey쎀쎯	-9.916
	-9.91617
khah쎀쎯tldg쎯	-9.91628
pyld쎁쎯rkk쎯wt쎯	-9.9179
o쎀쎯	-9.91841
ghd쎁쎯ajqg쎯	-9.91887
qqqq쎁쎯ntk쎯	-9.91915
lpk쎀쎯゙	-9.91932
dic쎯qcrh쎯	-9.92008
wgke쎀쎯	-9.92013
udfm쎀쎯qsyy쎯	-9.92019
ែ	-9.92031
ynna쎀쎯ntfn쎀쎯	-9.92066
cffq쎯ltkf쎀쎯	-9.92123
ydcy쎯ctrt쎯	-9.92127
xglg쎀쎯	-9.92151
tejh쎀쎯jf쎯	-9.9216
tldg쎯	-9.92182
cep쎯fp쎯민oqdo쎯	-9.92196
wgif쎯jrif쎯	-9.9222
헬qtfm쎁쎯	-9.92221
xflm쎯qug쎀쎯iy쎯mm쎯	-9.92255
ahkm쎁쎯jvip쎀쎯	-9.92367
qouq쎀쎯alfw쎯	-9.92378
vdf쎀쎯vknn쎯	-9.92379
juk쎯erh쎯	-9.92395
xxx쎯┯	-9.92443
ydcy쎯jtn쎯iy쎯mm쎯	-9.92591
zzbd쎂쎯ב	-9.92622
gtfh쎀쎯kbf쎀쎯	-9.9265
idg쎀쎯kbf쎀쎯	-9.92725
xxf쎯og쎯hako쎯	-9.92785
aqdo쎯ugi쎯	-9.92789
zzbd쎂쎯fpws쎯	-9.928
fjqn쎁쎯Ἴ	-9.92801
fooy쎯yi쎯ix쎯tlnf쎯	-9.92829
zzts쎁쎈쎯ả	-9.92919
մanht쎀쎯	-9.9294
awge쎯	-9.92986
gahm쎁쎯wvgw쎄쎯	-9.93011
aghu쎯ix쎯	-9.93055
մike쎯	-9.93057
rbm쎯xfcy쎀쎯	-9.93061
dhdj쎀쎯	-9.93067
wkkk쎀쎯	-9.93093
qgig쎁쎯wgkw쎃쎯	-9.93094
enhc쎁쎯ㄫ	-9.93103
tdp쎯	-9.93138
qfdj쎯qenh쎯	-9.93139
oqdo쎯rwyg쎀쎯adn쎯	-9.93172
zzde쎃쎯adn쎯	-9.93182
fyi쎀쎯	-9.93183
jtn쎯mtfk쎀쎯	-9.93246
uwi쎀쎯	-9.93273
kwye쎀쎯lftj쎯ẩ	-9.93295
fhuw쎯oqdo쎯	-9.93295
zzbd쎂쎯emww쎯wpqe쎯	-9.93296
kuq쎯	-9.93317
qvln쎁쎯ɒfnw쎯¦	-9.93328
vv쎯	-9.93346
qt	-9.93347
pufj쎁쎯	-9.93375
yftj쎀쎯	-9.93377
쎄쎯	-9.93421
åuqt쎯js쎯	-9.93477
py쎯aq쎯xudb쎀쎯	-9.93495
oqdo쎯vwyo쎯kpvg쎯	-9.93505
xfcy쎀쎯aqkn쎯	-9.93509
ywg쎯	-9.93519
sug쎁쎯	-9.93537
ljlg쎁쎯emww쎯wpqe쎯	-9.93548
vadt쎯	-9.93573
hako쎯ᆞ	-9.93632
g쎀쎯	-9.93659
qun쎯yygy쎯je쎯	-9.93667
åoope쎁쎯	-9.93731
zzbd쎂쎯	-9.93745
sutk쎯	-9.93746
wprc쎀쎯vevg쎁쎯adn쎯	-9.93757
qgig쎁쎯쎁쎃	-9.93788
xfkm쎀쎯sqqo쎯lpk쎀쎯	-9.9383
kaqy쎯	-9.93874
txx쎯탤	-9.93901
cck쎯	-9.93945
iqas쎀쎯ikgf쎯	-9.94079
dmjd쎀쎯ɒwgkw쎃쎯	-9.94141
qwyn쎁쎯aghu쎯suog쎯	-9.94187
ioqh쎯	-9.94211
sgfh쎀쎯	-9.9422
qay쎁쎯fff쎀쎯	-9.94265
pei쎯n쎯cwyg쎁쎯	-9.94277
rgm쎯	-9.94305
sfcy쎁쎯alfw쎯	-9.94335
wpqe쎯	-9.94372
qlq쎯	-9.94381
akgq쎀쎯anb쎀쎯sy쎯	-9.9444
oope쎁쎯fkuh쎀쎯	-9.9446
rrrj쎯fpgo쎀쎯	-9.94462
ɳ	-9.94476
nqbt쎂쎯	-9.94546
zzbd쎂쎯gmye쎁쎯	-9.94614
kvn쎁쎯	-9.94634
ynna쎀쎯puy쎯	-9.94642
awct쎀쎯	-9.94671
cux쎯yssj쎂쎯	-9.94684
uxe쎯umaw쎀쎯	-9.94705
fff쎀쎯ả	-9.94788
itfq쎯zzjp쎄쎈쎯	-9.94832
y쎯s쎯wvgw쎅쎯	-9.94834
sfgn쎯zzbd쎂쎯	-9.94835
kwye쎀쎯mumj쎯fpo쎯	-9.94858
zzbd쎂쎯xflm쎯oue쎯	-9.94873
egey쎀쎯	-9.94919
ayec쎯ayec쎯민	-9.94941
tlnf쎯vwyo쎯oqdo쎯	-9.94946
zzbd쎂쎯wgkw쎃쎯	-9.94964
Ĉ제	-9.94993
knbm쎀쎯	-9.9501
dmjn쎃쎯aeef쎁쎯	-9.95014
vcbo쎀쎯oopm쎀쎯	-9.95078
보gmyg쎀쎯	-9.95089
초jpta쎯	-9.95126
deth쎁쎯	-9.95181
쎁쎃wgkw쎃쎯	-9.95185
xrh쎀쎯tkw쎯se쎯	-9.95216
ㄬ	-9.95259
zzbd쎂쎯tak쎯	-9.95293
wyng쎀쎯	-9.95311
vjf쎀쎯	-9.95382
ϊzzbd쎂쎯	-9.95397
aaaa쎯	-9.95432
luf쎀쎯uqvh쎂쎯	-9.9545
lssu쎯	-9.95466
iy쎯mm쎯〔ywx쎯	-9.95494
합	-9.95494
khgh쎂쎯	-9.95528
tgkw쎯	-9.95549
pwws쎁쎯	-9.95554
zzdx쎄쎯	-9.95584
iyp쎯	-9.95676
쎃쎅mgt쎯	-9.95721
sgxe쎯qdff쎁쎯	-9.95741
f쎀쎯	-9.95828
rpmn쎀쎯	-9.95861
த	-9.95915
kh	-9.9595
nujh쎀쎯	-9.96054
ith쎯	-9.96072
fuk쎯udyj쎯	-9.9608
wton쎁쎯xxn쎀쎯	-9.96101
iy쎯mm쎯Պ	-9.96164
evwo쎀쎯jnw쎯	-9.96221
ywgj쎄쎯qsyy쎯	-9.96224
jplh쎀쎯	-9.96238
mjhg쎀쎯tvfh쎁쎯	-9.96277
xfm쎯yqj쎯	-9.96313
Ďqtnx쎯	-9.96322
jgsy쎯މiy쎯mm쎯	-9.96325
ynn쎀쎯xln쎁쎯	-9.96374
iepc쎯tedm쎀쎯	-9.96393
kdhv쎯tfl쎯	-9.96396
evhc쎀쎯	-9.96403
uwlo쎯	-9.96443
pugx쎀쎯ukqb쎀쎯	-9.96453
vny쎀쎯tpe쎯afqb쎁쎯	-9.96584
dee쎯ijlc쎯	-9.96613
헬tak쎯	-9.96616
oqdo쎯혹	-9.96662
lvfj쎯	-9.96668
wtfh쎀쎯tejh쎀쎯	-9.96694
afam쎀쎯ghd쎁쎯	-9.96695
luqi쎯	-9.9673
cbto쎃쎯	-9.96731
Ŋknfg쎯	-9.96768
ybt쎯	-9.96787
xajd쎯	-9.96812
gqt쎯sudk쎯	-9.96867
kr쎯fpgo쎀쎯	-9.96895
evwo쎀쎯mtje쎃쎯	-9.9692
iugo쎯buah쎀쎯	-9.96937
ghd쎁쎯xkjh쎯xflm쎯	-9.96947
meua쎀쎯ᆞ	-9.97021
alfw쎯tlnf쎯	-9.97064
vijg쎁쎯	-9.97184
kriy쎯	-9.97192
jthn쎀쎯	-9.97217
ҡfkfk쎀쎯	-9.97244
vevg쎁쎯adn쎯weh쎯	-9.97251
mci쎀쎯tlnf쎯	-9.97332
rkk쎯wt쎯wjgr쎀쎯	-9.97332
qwyn쎁쎯zzdx쎉쎯	-9.97343
qvln쎁쎯ɒɒmsv쎯wg	-9.97346
ag	-9.97358
åoope쎁쎯wgkw쎃쎯	-9.97388
ydcy쎯lagg쎯	-9.9739
ᨣytew쎯	-9.97423
nvk쎯	-9.97435
puyg쎯rpmn쎀쎯	-9.97447
fquq쎯	-9.97461
uguh쎀쎯ypqn쎯료	-9.9747
kqjh쎀쎯mtfk쎀쎯	-9.97472
soyc쎯	-9.97517
iafl쎀쎯xuq쎯	-9.97519
vkcy쎀쎯	-9.97537
fff쎀쎯ayec쎯	-9.97557
vijg쎁쎯dpwi쎯	-9.97562
kwye쎀쎯wgif쎯yqjg쎯	-9.97622
rqcc쎀쎯ᦆzzdx쎁쎁쎯	-9.97643
zzjp쎁쎅쎯wdj쎯wnx쎯	-9.97666
ydcy쎯ibg쎁쎯	-9.97695
mumj쎯	-9.97708
jq쎯	-9.97715
dm쎀쎯tedm쎀쎯fkuh쎀쎯	-9.97721
rqcc쎀쎯tyke쎂쎯	-9.97722
sgva쎯	-9.97741
tivf쎯sync쎯	-9.97771
atd쎯ip쎯lagg쎯	-9.97797
afqb쎁쎯deth쎁쎯	-9.97819
luf쎀쎯jytb쎁쎯	-9.97854
eejf쎀쎯ב	-9.97868
wdj쎯wnx쎯adn쎯ipr쎯	-9.97877
xgmx쎀쎯	-9.9791
eua쎯gag쎯yhk쎯	-9.97915
oqdo쎯qvln쎁쎯ẩ	-9.9794
ฑ	-9.97942
uguh쎀쎯tedm쎀쎯	-9.97948
taf쎯	-9.98006
snih쎯oaet쎯료snih쎯	-9.98033
txi쎯xyc쎯iepc쎯ɒɒ	-9.98033
ɒɒmsv쎯ɒiepc쎯료	-9.98033
ww쎯gk쎯fhuw쎯	-9.98036
wmcy쎯ijgf쎀쎯	-9.98145
lp쎯	-9.98146
sghg쎁쎯fm쎯	-9.9824
xplh쎀쎯	-9.98283
nii쎀쎯	-9.98323
kdhb쎀쎯lv쎯	-9.98327
zzbd쎂쎯fptc쎀쎯	-9.98332
goqh쎯xflm쎯	-9.98377
yssj쎂쎯oopm쎀쎯	-9.98391
rwyg쎀쎯adn쎯	-9.98412
zzbd쎂쎯crqc쎯	-9.98426
swwl쎀쎯smg쎯	-9.98469
wuh쎀쎯ijlc쎯	-9.98474
akfn쎯	-9.98477
pwf쎯	-9.98483
whw쎯umqy쎯	-9.98519
ufcl쎀쎯	-9.98545
pyld쎁쎯₩	-9.98603
aghu쎯tlnf쎯ayec쎯	-9.98629
Ἀqyiy쎀쎯	-9.98656
ryg쎯iwgw쎁쎯	-9.98714
dssn쎀쎯fff쎀쎯erh쎯	-9.98727
ydcy쎯yevg쎯	-9.98799
fgu쎯iqas쎀쎯sfcy쎁쎯	-9.98812
aecn쎯Ąiy쎯mm쎯	-9.98832
ꁜmtfk쎀쎯	-9.98943
aiy쎯	-9.98968
tdnt쎁쎯adn쎯	-9.98997
ahnl쎂쎯	-9.99028
awwp쎯ymd쎯	-9.99029
xflm쎯Ҟ	-9.99044
lagg쎯tfff쎁쎯	-9.99059
nufh쎀쎯tyke쎂쎯	-9.99069
qwyn쎁쎯suog쎯	-9.99111
zzbd쎂쎯fooy쎯	-9.99169
pqbh쎯	-9.99195
iepc쎯ɒkkbh쎯	-9.99285
aghu쎯aecn쎯	-9.99298
wjgr쎀쎯aha쎯	-9.993
ayec쎯민zzbd쎂쎯	-9.99306
mpf쎯skkn쎁쎯	-9.99331
zzbd쎂쎯	-9.99381
rwp쎯zzts쎁쎈쎯	-9.99384
idg쎀쎯tebl쎯	-9.99395
zzjp쎃쎅쎯hako쎯ᆞẩ	-9.99402
ㄫ	-9.99408
zzbd쎂쎯avyn쎯	-9.9941
בsmg쎯	-9.99419
dssn쎀쎯	-9.99426
zzbd쎂쎯yqvg쎀쎯	-9.99434
jge쎯	-9.9952
ryg쎯ϊ	-9.99531
kdhv쎯tfl쎯iy쎯mm쎯	-9.99543
xxe쎯awwo쎀쎯	-9.99558
zzbd쎂쎯evwo쎀쎯	-9.99594
wptv쎯	-9.99673
rqcy쎁쎯	-9.99683
eyno쎁쎯nutg쎯	-9.99735
cffq쎯nhdi쎀쎯	-9.99744
idi쎯yi쎯	-9.9976
fghy쎂쎯	-9.99778
kw쎃쎯qvln쎁쎯duvo쎀쎯	-9.99841
aecn쎯mtfk쎀쎯	-9.99856
avyn쎯pyrf쎀쎯	-9.99867
afdp쎀쎯yygy쎯je쎯	-9.99868
ytmf쎁쎯	-9.9991
oguc쎀쎯jgsy쎯	-9.9992
qgn쎯qrc쎯	-9.99941
qoce쎀쎯by쎯	-9.99952
fkkv쎀쎯ả	-9.99968
awwp쎯ygji쎯	-10.0004
gilf쎀쎯ajqg쎯	-10.0005
khuf쎁쎯	-10.0006
ish쎯쀊kccc쎯aqsc쎯	-10.0006
wpn쎯qyc쎯	-10.0009
zzdx쎁쎁쎯	-10.0013
ari쎯	-10.0015
wh쎯ussi쎁쎯	-10.0016
oqdo쎯	-10.0022
adkn쎯wdj쎯	-10.0023
tmdf쎁쎯awwp쎯	-10.0023
zzbd쎂쎯ghnu쎀쎯yqj쎯	-10.0023
nmv쎯sbb쎯	-10.0023
Ĉwmj쎁쎯	-10.0027
ớ	-10.0027
nufh쎀쎯qyey쎂쎯	-10.0029
qo	-10.0037
რlpk쎀쎯	-10.0043
Ķsnij쎯	-10.0044
쁘ugd쎂쎯	-10.0051
qybg쎯	-10.0054
wy쎯afdp쎀쎯	-10.0055
epi쎯	-10.0059
asff쎁쎯waqj쎯	-10.006
sqoj쎯rbti쎯	-10.0062
yjdg쎯aha쎯iy쎯mm쎯	-10.0065
tejh쎀쎯jtn쎯	-10.0069
agi쎯tfqb쎁쎯	-10.0072
yer쎯	-10.0074
1	-10.0074
jkhh쎯	-10.0075
rwyg쎀쎯afam쎀쎯	-10.0075
ᣫjthn쎀쎯	-10.0076
afam쎀쎯މadn쎯	-10.0078
qgde쎯lktn쎯	-10.0078
ᆞsptk쎯	-10.0086
qdcy쎂쎯	-10.0086
ynwm쎀쎯udjf쎀쎯vbs쎯	-10.0087
ssss쎀쎯qlq쎯	-10.0088
ywti쎯	-10.0088
xvfj쎁쎯	-10.0089
pykw쎯mfkp쎯	-10.0094
hkdm쎯	-10.0095
dpgh쎯jtfp쎁쎯	-10.0099
pei쎯n쎯qvln쎁쎯	-10.0101
kw쎃쎯jada쎁쎯ֻkpvg쎯	-10.0102
vkks쎯	-10.0102
msv쎯dmjd쎀쎯	-10.0119
qrj쎯sjfh쎯	-10.0125
ynjj쎂쎯	-10.0125
,vcb쎯	-10.0126
fgu쎯ằkpvg쎯	-10.0129
iy쎯mm쎯sudk쎯tpw쎯	-10.0137
aqah쎁쎯	-10.0144
aeef쎁쎯dic쎯	-10.0148
fcbh쎀쎯	-10.015
lfon쎃쎯	-10.0151
othj쎯➤	-10.0151
dmjd쎀쎯ɒɒɒ	-10.0157
dmjd쎀쎯msv쎯wgkw쎃쎯	-10.0157
udfm쎀쎯btwu쎯	-10.0164
bm쎯	-10.0164
잃	-10.0166
wgkw쎃쎯ywg쎯	-10.0167
)zzbd쎄쎯	-10.0168
giv쎯tak쎯	-10.017
oopv쎀쎯	-10.0172
khaj쎂쎯qtfm쎁쎯	-10.0177
dcng쎯	-10.0178
tfc쎯ϊ	-10.0179
fff쎀쎯awwo쎀쎯	-10.0182
gajl쎯alfw쎯	-10.0184
ʋctrt쎯	-10.0187
ئ	-10.0188
ʋrkk쎯wt쎯	-10.0191
qgiy쎁쎯ayec쎯smg쎯	-10.0192
ivgo쎯	-10.0192
hlqc쎀쎯	-10.0204
tedm쎀쎯qvln쎁쎯	-10.0205
ᅢ	-10.0206
בofdj쎯Ĉế	-10.0214
wp	-10.0219
wwcy쎯	-10.0222
wfk쎯qfdj쎯	-10.0222
jpta쎯rblg쎯	-10.0223
msv쎯rkk쎯wt쎯	-10.0224
ddhd쎀쎯rfnf쎁쎯	-10.0228
ynjx쎁쎯	-10.0229
่쎁쎉쎉쎉rh쎯	-10.0234
haq쎯qwet쎀쎯	-10.0235
wjgr쎀쎯qmy쎁쎯	-10.0238
fnx쎯탤tkw쎯se쎯	-10.0238
kwyc쎀쎯ajqg쎯	-10.0241
ifhg쎯	-10.0241
tgu쎯	-10.0242
kwyc쎀쎯iqdm쎀쎯	-10.0244
nrhm쎯	-10.0244
yqvg쎀쎯ynah쎁쎯	-10.0244
vgnw쎁쎯ynna쎀쎯	-10.0246
쎀	-10.0246
ddhd쎀쎯	-10.0252
케	-10.0253
vqmy쎯qug쎀쎯	-10.0256
uxxo쎀쎯	-10.0262
ldmj쎀쎯rymn쎯	-10.027
kpvg쎯យkr쎯kyxy쎁쎯	-10.0275
pei쎯n쎯iepc쎯	-10.0282
skln쎯idgt쎀쎯	-10.0283
dnq쎯	-10.0291
qtwc쎀쎯rnp쎯	-10.0291
swwc쎁쎯	-10.0292
vkhh쎯qhal쎀쎯	-10.0292
bfkg쎯qc쎯	-10.0293
wrqw쎯	-10.0304
tx쎯dg쎯	-10.0304
ֻĎvwyo쎯	-10.0309
qorc쎀쎯	-10.0311
oahq쎀쎯	-10.0311
jgxu쎯	-10.0312
iy쎯mm쎯cck쎯judb쎁쎯	-10.0314
gde쎯	-10.032
ufh쎀쎯yntm쎂쎯iepc쎯	-10.0325
ijgf쎀쎯zzdx쎉쎯	-10.0327
wgkb쎀쎯징	-10.033
iuqm쎯	-10.0333
qvln쎁쎯ɒɒoope쎁쎯wg	-10.0334
ipr쎯abv쎯	-10.0334
K	-10.0335
wgmy쎀쎯wfj쎁쎯	-10.0337
vevg쎁쎯weh쎯	-10.0342
╤	-10.0348
ljlg쎁쎯afqb쎁쎯	-10.0351
iuah쎯dssn쎀쎯	-10.0352
iepc쎯msv쎯ɒ	-10.0353
qfdj쎯snij쎯	-10.0356
oqdo쎯ghnu쎀쎯yqj쎯	-10.0359
jued쎀쎯adn쎯	-10.0359
ufn쎯dic쎯	-10.0364
ᨣnvk쎯	-10.0378
åiepc쎯wgkw쎃쎯	-10.0378
sf쎯	-10.0394
yjdg쎯kdhv쎯	-10.0394
xrh쎀쎯fooy쎯	-10.0401
ɒzzbd쎂쎯	-10.0401
oqdo쎯fkuh쎀쎯	-10.0402
ydcy쎯qwnd쎯fgu쎯	-10.0403
owgn쎯	-10.0404
rmnn쎯	-10.0408
yyn쎁쎯uwvn쎀쎯	-10.041
tsww쎂쎯	-10.0411
o쎯	-10.0413
åiepc쎯	-10.0418
jp쎃쎅쎯rqcc쎀쎯yqj쎯	-10.042
bk쎯og쎯tyke쎂쎯	-10.0425
kpvg쎯zzdx쎁쎁쎯	-10.0438
kgo쎯	-10.044
sjfh쎯sdht쎁쎯	-10.0441
iy쎯mm쎯fpo쎯쀊	-10.0443
jmf쎯zzbd쎅쎯weh쎯	-10.0445
jeg쎯wgkw쎃쎯	-10.0447
zzbd쎂쎯itky쎯	-10.0448
f쎁쎯	-10.0448
qkxj쎯	-10.0449
fkbt쎯	-10.045
mxjj쎯	-10.0451
qipr쎯ֻqmwy쎁쎯	-10.0453
yygy쎯je쎯thgy쎂쎯	-10.0454
시qrgk쎯dssn쎀쎯	-10.0455
texd쎀쎯zzbd쎂쎯	-10.0457
zzbd쎂쎯Ἴadn쎯	-10.046
fkuh쎀쎯iepc쎯iepc쎯	-10.0462
쎂쎀쎀쎇rh쎯	-10.0468
며aeef쎁쎯zzbd쎂쎯	-10.0469
gkub쎀쎯	-10.047
iqas쎀쎯Ἀ	-10.0475
jkhh쎯qgjj쎯	-10.048
zzbd쎂쎯qta쎯xln쎁쎯	-10.048
yah쎯	-10.0483
ĉ	-10.0484
rds쎯	-10.0484
lnav쎯ayec쎯	-10.0487
lckg쎯	-10.049
aecn쎯wmj쎁쎯	-10.0492
tlnf쎯jlff쎀쎯	-10.05
zzbd쎂쎯ydcy쎯	-10.0506
tejh쎀쎯jtfp쎁쎯	-10.0508
erh쎯axa쎯	-10.051
djn쎯	-10.0514
uvog쎯fff쎀쎯iy쎯mm쎯	-10.0514
qgjl쎯	-10.0518
ghnu쎀쎯skg쎯რ	-10.0521
ayve쎯	-10.0526
ryg쎯zzbd쎂쎯	-10.0529
qmy쎁쎯tmdf쎁쎯	-10.053
iy쎯mm쎯⎯	-10.0533
তwv쎯	-10.0535
ydcy쎯aecn쎯	-10.0541
̪snih쎯	-10.0541
ix쎯	-10.0542
fff쎀쎯zzxe쎂쎆쎯	-10.0542
sd쎯	-10.0547
askf쎀쎯ق	-10.0548
rdht쎀쎯r쎯v쎯nae쎀쎯	-10.0551
yqvg쎀쎯zzdx쎁쎁쎯	-10.0551
ntas쎯cep쎯fp쎯	-10.0557
pjgh쎯hay쎯	-10.0559
ςafdp쎀쎯	-10.0565
ᨣynah쎁쎯	-10.0565
콕yaf쎯	-10.0571
()zzdx쎁쎁쎯	-10.0571
zzde쎃쎁쎯	-10.0572
zzbd쎄쎯qvln쎁쎯ɒɒ	-10.0579
iet쎀쎯	-10.0585
ɒɒ	-10.0589
”r쎯	-10.059
qwyn쎁쎯ghd쎁쎯	-10.0592
₩	-10.0596
rtwh쎀쎯fn쎯	-10.0598
zzbd쎂쎯ynna쎀쎯lv쎯	-10.0601
ɒiepc쎯	-10.0604
zzbd쎂쎯txt쎯kpvg쎯	-10.061
wmcy쎯thgy쎂쎯	-10.0615
sg	-10.0617
iepc쎯åɒ	-10.062
fdr쎯	-10.0625
xyx쎯	-10.0626
awv쎯	-10.063
kmwj쎯ֻzzbd쎂쎯	-10.0632
dsjh쎯왜	-10.0635
adn쎯rqcc쎀쎯iy쎯mm쎯	-10.0636
ϊsqqo쎯	-10.0638
tehj쎁쎯	-10.0641
yujg쎀쎯fyao쎯	-10.0643
dftx쎯ɒwgkw쎃쎯	-10.0644
kbf쎀쎯dssn쎀쎯	-10.065
hhwn쎯qgvb쎯	-10.0654
aldj쎯smg쎯	-10.0656
ytew쎯qkty쎯	-10.0659
뽃	-10.0659
qtfm쎁쎯	-10.066
mqyl쎯syp쎯jgd쎀쎯	-10.0662
aitl쎯sudk쎯	-10.0664
pei쎯n쎯ydcy쎯iqaw쎯	-10.0667
ǀ	-10.0667
xflm쎯iaah쎯zzbd쎂쎯	-10.067
l쎯	-10.0671
oopm쎁쎯xtol쎀쎯	-10.0675
hako쎯mwwk쎀쎯	-10.0677
tyke쎂쎯ssss쎀쎯	-10.0678
puw쎯	-10.0681
mci쎀쎯xjx쎯qcrh쎯	-10.0682
amh쎯	-10.0682
lkwo쎀쎯	-10.0683
tawt쎯waqj쎯	-10.0683
nhde쎁쎯tldt쎀쎯	-10.069
zzsx쎁쎀쎯	-10.0694
މfgu쎯	-10.0694
ghd쎁쎯⎯	-10.0695
ttfj쎀쎯zzts쎁쎈쎯	-10.0695
aecn쎯rvln쎯	-10.0698
xyxw쎁쎯lebf쎯	-10.0701
thgy쎂쎯nrn쎯	-10.0702
mtfk쎀쎯uxxo쎀쎯	-10.0704
erh쎯cep쎯fp쎯ẩ	-10.071
yntm쎂쎯qjmy쎯	-10.0714
tyke쎂쎯jrif쎯	-10.0716
vhah쎀쎯	-10.0718
gag쎯tegf쎀쎯	-10.0719
qsyy쎯iy쎯mm쎯	-10.0721
vflj쎀쎯	-10.0721
emww쎯uepc쎁쎯	-10.0724
vkb쎯jcf쎯	-10.0728
헬tl쎯	-10.073
ynah쎁쎯cck쎯judb쎁쎯	-10.0732
rlgb쎯	-10.0732
zzbd쎂쎯daht쎀쎯	-10.0734
bkcb쎯smg쎯fpo쎯쀊	-10.0735
jxxm쎀쎯	-10.0738
nufh쎀쎯yntm쎂쎯	-10.0742
hmgk쎯	-10.0745
ర	-10.0746
oqdo쎯auj쎯	-10.0756
yuv쎯	-10.0765
qug쎀쎯cep쎯fp쎯	-10.0765
bynn쎯랙	-10.077
wtfh쎀쎯ayec쎯	-10.0779
qvln쎁쎯ynwm쎀쎯ɒ	-10.0779
qtiq쎁쎯್aha쎯	-10.0786
̪	-10.0787
dtth쎀쎯	-10.0792
tdgt쎀쎯	-10.0795
ifcl쎯wgkw쎃쎯	-10.08
ryne쎀쎯	-10.0801
xgfh쎀쎯shy쎀쎯	-10.0811
wcng쎯duk쎀쎯	-10.0811
tynb쎁쎯	-10.0811
suog쎯sgfl쎀쎯	-10.0812
ljlg쎁쎯aqsc쎯	-10.0812
fhuw쎯nfnf쎯	-10.0817
sgxe쎯fnx쎯	-10.0817
qgn쎯vqqw쎀쎯┯	-10.0821
mgkq쎯	-10.0821
ygq쎯태	-10.0826
ִ	-10.0836
tkwy쎯	-10.0836
iy쎯mm쎯쀊sgfl쎀쎯	-10.0838
uqt쎯js쎯rkk쎯wt쎯	-10.0839
smg쎯cmu쎁쎯zzbd쎂쎯	-10.0843
zzdx쎁쎁쎯rkk쎯wt쎯	-10.0844
iafl쎀쎯mtje쎃쎯	-10.0852
af쎯yaww쎀쎯ryg쎯	-10.0855
fgu쎯bkcb쎯	-10.0867
tejh쎀쎯wtfh쎀쎯	-10.0873
ofkk쎀쎯fff쎀쎯	-10.0873
vagf쎯kypm쎯	-10.088
〔ywx쎯jf쎯	-10.0881
bkcb쎯vqmy쎯	-10.0884
vny쎀쎯adn쎯	-10.0885
tnuh쎀쎯	-10.0887
▁wc쎯ngk쎯fujh쎯	-10.089
dftx쎯wfcj쎯	-10.089
xkjh쎯	-10.0891
ᨣfisu쎯iqas쎀쎯	-10.0899
aecn쎯Ądpgh쎯	-10.0904
gwa쎯	-10.0907
oqdo쎯mmgk쎁쎯	-10.0911
xpn쎯aldj쎯	-10.0911
lhnh쎯	-10.0914
afuo쎀쎯	-10.0915
jeg쎯fff쎀쎯	-10.0915
ْ	-10.0917
tlnf쎯xudb쎀쎯	-10.0922
zzjp쎄쎈쎯qwnd쎯	-10.0926
famu쎯ob쎯	-10.0927
yjdg쎯kruf쎯	-10.0927
등ghd쎁쎯	-10.0934
rkk쎯wt쎯tyke쎂쎯	-10.0938
dssn쎀쎯wdj쎯	-10.094
ckn쎯	-10.094
wgkw쎃쎯ҡ	-10.0943
미	-10.0952
inyu쎯	-10.0952
qta쎯xln쎁쎯iy쎯mm쎯	-10.0954
pfjb쎯fere쎯	-10.0958
whto쎁쎯	-10.0959
auj쎯ftux쎯	-10.096
ꔖ	-10.0961
ntkg쎀쎯	-10.0962
qsfi쎯iawk쎁쎯	-10.0963
eemj쎀쎯	-10.0964
iawk쎁쎯alfw쎯	-10.0965
dfny쎁쎯wpup쎯	-10.0966
jmfg쎀쎯tyke쎂쎯	-10.0966
zzbd쎂쎯ȓlv쎯	-10.0967
ayxy쎯vfh쎯	-10.0972
aujf쎀쎯	-10.0973
glp쎯texd쎀쎯	-10.0976
qtvq쎁쎯texd쎀쎯	-10.0979
cffq쎯f쎯yy쎯	-10.098
ljlg쎁쎯umau쎯xjx쎯	-10.0981
ike쎯anht쎀쎯	-10.0983
ädtth쎀쎯mci쎀쎯	-10.0984
voqh쎯	-10.0988
odm쎯juaj쎯	-10.099
fhuk쎁쎯rwyg쎀쎯	-10.0993
wdj쎯wnx쎯xewo쎯	-10.0995
jrif쎯މ	-10.0995
bynn쎯ipr쎯┯	-10.0998
jnhh쎁쎯waqj쎯	-10.0998
qsfi쎯lagg쎯	-10.0999
kal쎯	-10.1003
icyy쎯awwp쎯	-10.1008
gag쎯adn쎯	-10.1012
fn쎯qyiy쎀쎯ghd쎁쎯o	-10.1015
qtfm쎁쎯⎯	-10.102
oyoo쎯	-10.102
qouq쎀쎯smg쎯	-10.1022
efto쎀쎯	-10.103
dfd쎯texd쎀쎯	-10.103
idf쎀쎯	-10.1033
	-10.1037
jued쎀쎯xudb쎀쎯	-10.1039
akgq쎀쎯wpup쎯	-10.1041
saq쎯dttj쎀쎯	-10.1045
cmdy쎀쎯	-10.1049
yynx쎯	-10.1051
fhfq쎯	-10.1057
qipr쎯막	-10.1058
aqod쎀쎯teae쎯	-10.1061
lfof쎅쎯	-10.1061
Ĉijlc쎯	-10.1063
dnbm쎯qkty쎯zzbd쎅쎯	-10.1063
jpta쎯	-10.1065
temq쎀쎯odmj쎁쎯	-10.1067
Ąhlqc쎀쎯	-10.1085
wnd쎯smdj쎯	-10.1086
މtkw쎯se쎯	-10.1089
si쎯	-10.1103
do쎯	-10.1103
wny쎀쎯wtfh쎀쎯	-10.1109
iaah쎯nmv쎯	-10.1114
xvfj쎁쎯hako쎯	-10.1114
ddhd쎀쎯wpn쎯	-10.1115
adn쎯	-10.1117
iepc쎯qvln쎁쎯msv쎯	-10.1119
ddu쎁쎯iqaw쎯	-10.1122
mfd쎂쎯	-10.1122
iqas쎀쎯	-10.1127
ytwc쎯iwgd쎯	-10.1129
aib쎯zzde쎃쎁쎯	-10.113
qjsy쎯	-10.113
jdd쎀쎯	-10.1131
wjgr쎀쎯ẩ	-10.1137
wfil쎀쎯	-10.1138
qwnv쎯	-10.1139
ywto쎯	-10.1141
anwu쎯cq쎯	-10.1141
uce쎯	-10.1144
fge쎯jlff쎀쎯wgif쎯भ	-10.1152
qgig쎁쎯cwyg쎁쎯	-10.1152
ger쎯	-10.1156
tebl쎯쏁	-10.1159
zzpj쎇쎄쎯jlff쎀쎯	-10.1164
pjgh쎯	-10.1165
gah쎯	-10.1166
직tpw쎯	-10.1166
thf쎁쎯alfw쎯	-10.1174
kyxy쎁쎯ith쎯xe쎯	-10.1176
opw쎯	-10.1176
ijly쎯jiqn쎂쎯	-10.1178
idg쎀쎯ᡵ	-10.1179
iy쎯mm쎯fff쎀쎯	-10.1181
gyt쎯	-10.1185
쎅쎯	-10.1187
ygq쎯btfn쎀쎯	-10.1188
afdp쎀쎯gajl쎯ஜ	-10.1189
kpn쎯	-10.1191
ੰ	-10.1192
qdy쎀쎯fujh쎯	-10.1192
fgu쎯mhtl쎯	-10.1198
ằwrh쎂쎯	-10.12
yjs쎯tkgg쎁쎯	-10.12
ghd쎁쎯weh쎯	-10.1205
މdssn쎀쎯	-10.1205
რghd쎁쎯	-10.1207
nvk쎯nwjh쎀쎯qkhk쎯	-10.1209
fgu쎯ayec쎯	-10.121
ermq쎀쎯	-10.1211
zzbd쎂쎯ynna쎀쎯	-10.1213
ๆ	-10.1215
ᨣrpw쎯rmhj쎯	-10.1219
ywyk쎀쎯	-10.1223
며tegf쎀쎯	-10.1224
ynwm쎀쎯ɒɒɒ	-10.1226
zzjp쎁쎅쎯xflm쎯	-10.1226
살	-10.1231
sgxe쎯yy쎯dm쎯	-10.1232
xdc쎯rfcl쎀쎯	-10.1237
ېiovg쎯	-10.1237
pyu쎯wuh쎀쎯oqdo쎯	-10.1242
jrwy쎁쎯	-10.1247
wvgw쎅쎯yujg쎀쎯	-10.1248
qwnd쎯vwyo쎯	-10.1249
dfee쎯syp쎯	-10.1249
xfkm쎀쎯Ȏ	-10.1257
xrh쎀쎯ฌ	-10.1257
ntkg쎀쎯억	-10.126
qgmg쎯sbb쎯	-10.126
ajjh쎯afan쎀쎯	-10.1262
iujm쎯whw쎯	-10.1272
ep쎯	-10.1272
yi쎯aeef쎁쎯	-10.1274
wov쎯	-10.1276
궁sync쎯	-10.1277
ত	-10.1283
vpns쎯	-10.1284
בાsmg쎯cmu쎁쎯	-10.1284
kawc쎀쎯iy쎯mm쎯	-10.1287
ter쎁쎯	-10.1288
މltkf쎀쎯ith쎯xe쎯	-10.1288
llnu쎯	-10.1306
duk쎀쎯iuyy쎯	-10.131
emww쎯ghd쎁쎯	-10.1315
fpo쎯ֻfff쎀쎯tlnf쎯	-10.1321
sgxe쎯ᦆ	-10.1332
gahm쎁쎯➤	-10.1334
ςmtd쎯	-10.1345
adn쎯qwyn쎁쎯qgvb쎯	-10.1346
tlnf쎯민	-10.1346
ypk쎯Ҟ	-10.1348
컥ryty쎁쎯zzdx쎁쎁쎯	-10.1352
imjh쎀쎯mtyi쎯	-10.1353
afdp쎀쎯waqj쎯	-10.1354
wfil쎀쎯aga쎯	-10.1355
xs쎯	-10.1355
uqt쎯js쎯ɒɒ	-10.1357
yqjg쎯zzjp쎃쎅쎯	-10.1358
tpta쎀쎯	-10.1358
tlnf쎯ayec쎯smg쎯	-10.1367
qoev쎀쎯ermq쎀쎯	-10.1373
kuq쎯giv쎯	-10.1374
jyss쎀쎯	-10.1375
ufn쎯khjf쎀쎯	-10.1375
sug쎁쎯	-10.1378
jiqn쎂쎯ֻiy쎯mm쎯	-10.138
uywu쎀쎯mtfk쎀쎯	-10.1385
xudb쎀쎯qgiy쎁쎯	-10.1391
xukq쎀쎯	-10.1393
oops쎁쎯vpns쎯	-10.1402
jada쎁쎯ֻzzbd쎂쎯	-10.1403
da쎯	-10.1406
슨badw쎀쎯	-10.1413
ȅ	-10.1416
ذ	-10.1417
xpn쎯kdhv쎯	-10.1419
uxe쎯r쎯v쎯nae쎀쎯	-10.1427
rpw쎯rmhj쎯lckg쎯	-10.1432
kjug쎯iqaw쎯	-10.1432
rqct쎁쎯zzbd쎂쎯	-10.1433
ielf쎀쎯adn쎯	-10.1433
ế	-10.1437
fnw쎯fhit쎀쎯რ	-10.1438
zzbd쎂쎯ydcy쎯	-10.1443
yssj쎁쎯iawk쎁쎯	-10.1443
fefy쎯ἀ	-10.1444
zzde쎃쎯zzpj쎇쎄쎯	-10.1446
xxf쎯og쎯tyke쎂쎯	-10.1449
dmjd쎀쎯åwgkw쎃쎯	-10.1451
쎂쎀쎀쎄rh쎯	-10.1455
iqas쎀쎯ς	-10.1456
mumj쎯qrgk쎯	-10.146
fkg쎯	-10.146
rqct쎁쎯iy쎯mm쎯	-10.1463
wgkw쎃쎯쏅ynna쎀쎯	-10.1464
fly쎯	-10.1465
zzdx쎁쎁쎯weh쎯	-10.1466
zzbd쎂쎯yqj쎯	-10.1466
smgn쎯	-10.1466
tegf쎀쎯aeef쎁쎯	-10.1466
p쎯jfd쎯	-10.1467
ᨣetol쎯	-10.1468
xul쎯bij쎯	-10.1468
amd쎯	-10.1469
yhk쎯wgkw쎃쎯	-10.1469
mpf쎯hg쎯tkw쎯se쎯	-10.1473
ẫ	-10.1482
khpj쎯zzbd쎂쎯	-10.1482
wpeg쎀쎯	-10.1483
ôgmyg쎀쎯	-10.1483
e쎀쎯	-10.1484
xudb쎀쎯rccn쎯	-10.1487
fjqn쎁쎯ddu쎁쎯	-10.1488
qqky쎀쎯mfkp쎯	-10.1502
릿쎂	-10.1505
tejh쎀쎯aqkn쎯	-10.1508
ouwy쎀쎯	-10.1512
⇒	-10.1512
wtfv쎀쎯wgkw쎃쎯	-10.1519
zzbd쎂쎯qbh쎄쎯	-10.152
qoce쎀쎯ymd쎯dssn쎀쎯	-10.1526
itfq쎯jgsy쎯hako쎯ᆞ	-10.1529
atdu쎁쎯	-10.153
eua쎯vpns쎯	-10.1531
qokf쎀쎯iooo쎯	-10.1532
jiqn쎁쎯qsfi쎯	-10.1533
iy쎯mm쎯kmwj쎯ֻ	-10.1534
txfj쎯	-10.1536
fpo쎯ֻ쎂쎀쎀쎅rh쎯	-10.1537
qgig쎁쎯fff쎀쎯	-10.1538
ɒmsv쎯	-10.1538
pei쎯n쎯xqay쎀쎯	-10.1539
nvk쎯nvk쎯	-10.154
jgva쎀쎯	-10.1545
uvog쎯xriy쎂쎯	-10.1546
iepc쎯oope쎁쎯msv쎯ɒ	-10.1546
qmy쎁쎯weh쎯	-10.1549
g쎯wh쎯	-10.155
lftj쎯famu쎯	-10.1552
zzde쎂쎈쎯dssn쎀쎯	-10.1557
ukqb쎀쎯쀊	-10.1564
협	-10.1565
iqas쎀쎯lebf쎯	-10.1565
adn쎯fjqn쎁쎯pyjr쎯	-10.1573
wuh쎀쎯axa쎯	-10.1573
nvk쎯mumj쎯oqdo쎯	-10.1574
jeg쎯qgig쎁쎯	-10.1574
mvfh쎀쎯	-10.1578
tebl쎯god쎯	-10.1578
qipr쎯ֻaecn쎯Ą	-10.1581
wgkw쎃쎯namy쎀쎯	-10.1582
בip쎯nu쎯zzbd쎂쎯	-10.1584
މby쎯iy쎯mm쎯	-10.1586
qtfm쎁쎯kdhv쎯qgvb쎯	-10.1591
რwaqj쎯	-10.1593
icyy쎯tmdf쎁쎯	-10.1598
jgsy쎯މoqdo쎯	-10.16
aldj쎯ryg쎯	-10.1602
ejhh쎯	-10.1604
xflm쎯iaah쎯	-10.1604
aecn쎯މ	-10.1609
afuo쎀쎯qtfm쎁쎯	-10.162
ɒfkuh쎀쎯qvln쎁쎯	-10.1622
롭	-10.1623
yuqv쎯	-10.1624
qayn쎁쎯jak쎯	-10.1625
difc쎯ygji쎯	-10.1626
qgvb쎯lagg쎯	-10.1635
xov쎯med쎯	-10.1637
➤쎂eee쎀쎯	-10.1644
iepc쎯dssn쎀쎯	-10.1645
tufh쎀쎯gkh쎀쎯	-10.1645
qglp쎯	-10.165
jgsy쎯yygy쎯je쎯	-10.1659
mgji쎀쎯⎯	-10.1661
fve쎯	-10.1669
cck쎯judb쎁쎯kmwj쎯ֻ	-10.1672
wgkw쎃쎯yqj쎯	-10.1674
oqdo쎯⎯	-10.1675
puy쎯ufn쎯	-10.1675
sjfh쎯lynw쎀쎯	-10.1679
fkd쎯bk쎯og쎯	-10.1683
xukq쎀쎯	-10.169
cyk쎯mfd쎂쎯	-10.1692
qwyn쎁쎯wsdn쎯aghu쎯	-10.1697
jak쎯qn쎯	-10.1697
ᨣyntm쎂쎯	-10.1697
kccc쎯aqsc쎯ẩ	-10.1698
fpo쎯쀊zzbd쎄쎯	-10.1706
wtfh쎀쎯jf쎯	-10.1706
jgsy쎯މzzbd쎂쎯	-10.1706
vny쎀쎯nwjh쎀쎯	-10.1707
saet쎯	-10.171
bkcb쎯lagg쎯	-10.1713
oguc쎀쎯qtvq쎁쎯	-10.1718
hdui쎯	-10.1718
〔ywx쎯zzbd쎂쎯	-10.1719
쀊ֻ	-10.1721
isyy쎯	-10.1728
snrg쎯	-10.173
	-10.1732
	-10.1737
쌀Ɵ	-10.1737
ાֻ	-10.1737
cfcy쎁쎯	-10.1744
kyin쎯udfm쎀쎯qwnd쎯	-10.1744
oajj쎀쎯btfn쎀쎯	-10.1745
fth쎯zzxe쎂쎇쎯	-10.1746
iepc쎯wfcj쎯	-10.1746
kmwj쎯ֻiy쎯mm쎯	-10.1746
ielf쎀쎯ghd쎁쎯	-10.1751
aqrj쎯erey쎯	-10.1755
jtn쎯hlqc쎀쎯	-10.1759
qgmg쎯fkg쎯	-10.1764
zzbd쎅쎯⎯	-10.1764
zzdx쎄쎯mqjh쎀쎯	-10.1769
iqas쎀쎯rqcc쎀쎯	-10.1769
i쎯ce쎯	-10.1781
xdc쎯	-10.1782
xflm쎯dvey쎯zzbd쎅쎯	-10.1782
ugd쎂쎯tlnf쎯	-10.1782
enn쎀쎯	-10.1785
청쎂	-10.1786
qkty쎯pyy쎯	-10.1787
ynkt쎀쎯	-10.1787
qte쎀쎯wgkw쎃쎯	-10.1788
단	-10.1788
oqdo쎯wnx쎯	-10.1789
ocyj쎯jrif쎯	-10.1789
dpwi쎯dic쎯dpwi쎯	-10.1789
ạcwgd쎁쎯	-10.1789
칭vdf쎀쎯	-10.1793
ᦡ	-10.1796
xds쎯	-10.1801
lpk쎀쎯iy쎯mm쎯	-10.1804
ubtg쎀쎯	-10.1813
슈청	-10.1814
fkuh쎀쎯dftx쎯	-10.1824
yjs쎯tkgg쎁쎯wpn쎯	-10.1827
ydcy쎯fcbh쎁쎯	-10.1832
qer쎯smg쎯	-10.1833
ɒfkuh쎀쎯iepc쎯	-10.1835
gde쎯wfa쎯	-10.1837
nyjg쎁쎯	-10.1837
iepc쎯ynwm쎀쎯juk쎯	-10.1842
zzjp쎁쎅쎯tvfh쎁쎯	-10.1845
zzbd쎅쎯dmjd쎀쎯	-10.1848
aqkn쎯sggj쎀쎯	-10.1852
kbf쎀쎯sam쎯	-10.1856
edjn쎯xyxw쎁쎯oqdo쎯	-10.1856
ptoq쎯	-10.1858
qyce쎀쎯	-10.1865
kdhv쎯duk쎀쎯	-10.1866
tei쎯	-10.187
qvln쎁쎯msv쎯juk쎯	-10.1872
jmfg쎀쎯xtyk쎁쎯	-10.1873
ermq쎀쎯탤	-10.1874
haq쎯	-10.1876
ldmj쎀쎯qfdj쎯	-10.1876
wgif쎯भ민	-10.1878
lnav쎯wuh쎀쎯gag쎯	-10.1881
tlk쎯	-10.1883
qvln쎁쎯dftx쎯ɒ	-10.1886
qoht쎀쎯dee쎯	-10.1888
ksjh쎯rnp쎯	-10.1889
idf쎀쎯fff쎀쎯tlnf쎯	-10.1894
dftx쎯åwgkw쎃쎯	-10.1898
aym쎯	-10.1898
bfh쎁쎯	-10.1898
py쎯aq쎯sqoj쎯	-10.1902
lk쎯ty쎯lpk쎀쎯	-10.1907
ydcy쎯tpw쎯	-10.1909
qoep쎯zzbd쎂쎯	-10.191
fdmm쎁쎯	-10.191
xqay쎀쎯wgkw쎃쎯	-10.1915
ʄ	-10.1921
aump쎯	-10.1923
yy쎯dm쎯yam쎯	-10.1927
rqcw쎁쎯	-10.1928
oope쎁쎯ɒɒiepc쎯	-10.1931
kwn쎯	-10.1936
sa	-10.1939
ydcy쎯qyc쎯	-10.1941
료oqdo쎯	-10.1942
dfsh쎯	-10.195
슨억	-10.1958
ᨣsgfl쎀쎯aha쎯	-10.1964
xtuh쎯	-10.1964
gaw쎯	-10.1966
ydgt쎀쎯	-10.1967
gehb쎯	-10.1967
ujfj쎀쎯	-10.1971
ssu쎯dhdl쎁쎯	-10.1971
쎁쎃qgig쎁쎯	-10.1975
aeef쎁쎯tdko쎯	-10.1976
aecn쎯iuyy쎯tlnf쎯	-10.1976
wtdg쎀쎯	-10.1979
ywyk쎀쎯aha쎯	-10.198
fpgc쎁쎈쎯qrj쎯	-10.198
쎂eee쎀쎯u쎯kkk쎯	-10.1982
gkm쎯	-10.1982
yaww쎀쎯ryg쎯	-10.1983
fl쎯wf쎯rpmn쎀쎯	-10.1983
oqdo쎯jthf쎀쎯	-10.1984
sam쎯cbtc쎀쎯	-10.1985
qsyy쎯ww쎯gk쎯	-10.1986
dcc쎯	-10.1988
tmgk쎁쎯udfm쎀쎯	-10.1994
zzbd쎂쎯w쎯km쎯ghd쎁쎯	-10.1999
fgu쎯qwtf쎯	-10.2001
ٔ	-10.2003
aik쎯	-10.2004
್xdjf쎀쎯	-10.2005
jgsy쎯vkcy쎀쎯qwnd쎯	-10.2005
skln쎯qfh쎁쎯	-10.2006
swwc쎁쎯tapy쎯	-10.2008
mgkq쎯wjgr쎀쎯	-10.201
†tivf쎯	-10.2011
qfh쎁쎯,	-10.2013
ngk쎯	-10.2022
pyrf쎀쎯ghd쎁쎯	-10.2023
iqas쎀쎯ςwrh쎂쎯	-10.2025
lrwy쎀쎯dpgg쎯	-10.2025
fl쎯wf쎯iuyy쎯	-10.2025
ghd쎁쎯aahl쎀쎯sfgn쎯	-10.2033
fff쎀쎯gias쎯	-10.2033
ypk쎯sg쎯	-10.2037
slge쎁쎯ooff쎀쎯	-10.2042
oqdo쎯ynm쎯	-10.2043
wrh쎂쎯zzjp쎃쎅쎯	-10.2047
kf쎁쎯swwl쎀쎯Ďvwyo쎯	-10.2049
ouqy쎀쎯wgaj쎀쎯	-10.2051
ytbp쎀쎯tak쎯	-10.2055
awwp쎯qoce쎀쎯	-10.2056
lynw쎀쎯넸	-10.2059
kbf쎀쎯dssn쎀쎯puyg쎯	-10.2063
ș	-10.2064
0	-10.2065
zzbd쎂쎯yygy쎯je쎯	-10.2065
zzj쎀쎯kkkf쎀쎯	-10.2065
객abue쎯	-10.2066
awnu쎁쎯aecn쎯	-10.2068
oopm쎀쎯iuyy쎯u	-10.207
yop쎯	-10.2072
fujh쎯xflm쎯	-10.2074
qvln쎁쎯ypqn쎯	-10.2089
vkhh쎯alfw쎯	-10.2092
ssu쎯┯	-10.2096
sntn쎀쎯	-10.2097
h쎀쎯	-10.2097
yjf쎁쎯	-10.2098
Ĉmtfk쎀쎯wtfh쎀쎯	-10.21
tawt쎯ith쎯xe쎯	-10.2104
xfm쎯mumj쎯	-10.2111
ydcy쎯jtn쎯	-10.2114
de	-10.2116
xrh쎀쎯dic쎯iy쎯mm쎯	-10.2116
ڪxyxw쎁쎯	-10.2118
afpa쎯aqrj쎯	-10.212
lynw쎀쎯yaah쎁쎯	-10.2122
swgb쎀쎯fefy쎯	-10.2123
̇iqaw쎯	-10.2131
wnd쎯	-10.2132
rpg쎯eua쎯	-10.2132
mmgk쎁쎯qenh쎯	-10.2133
ryne쎀쎯lagg쎯	-10.2135
ረ	-10.2137
ish쎯	-10.2137
ẩᨣ	-10.2138
qtfm쎁쎯kpvg쎯	-10.2139
fkuh쎀쎯ɒuqt쎯js쎯	-10.214
fhl쎯	-10.214
u쎀쎯	-10.2143
asff쎁쎯tdko쎯	-10.2143
adwh쎀쎯qfdj쎯	-10.2144
åmsv쎯wgkw쎃쎯	-10.2146
dftx쎯msv쎯wgkw쎃쎯	-10.2147
tehl쎀쎯	-10.215
gebg쎯	-10.2152
wngw쎯	-10.2158
yaop쎀쎯sync쎯	-10.2166
n쎁쎯	-10.2167
qtfm쎁쎯혹rqct쎁쎯	-10.2169
iuyy쎯	-10.2171
yhk쎯vmgt쎁쎯	-10.2172
zzdx쎉쎯yssj쎂쎯	-10.2177
juk쎯tdko쎯	-10.2184
tejh쎀쎯tuep쎀쎯	-10.2186
yqqe쎯މ	-10.2191
xtol쎀쎯of쎯	-10.2192
nans쎀쎯	-10.2199
jtyq쎀쎯청	-10.22
qgvb쎯by쎯	-10.2201
rbm쎯zzbd쎅쎯weh쎯	-10.2201
bwet쎯	-10.2204
sgmj쎯	-10.2206
yjdg쎯ẗ	-10.2206
ibc쎯	-10.2208
zzbd쎂쎯בaqdo쎯	-10.2209
vfhw쎁쎯rymn쎯	-10.221
ր	-10.2213
eerq쎯	-10.222
did쎯	-10.2221
ydcy쎯lpk쎀쎯	-10.2221
itky쎯wgkw쎃쎯	-10.2221
xsgg쎁쎯	-10.2223
zzbd쎂쎯ftux쎯	-10.2225
dwa쎯iuyy쎯	-10.2227
iqrn쎯ycb쎯	-10.223
zzj쎄쎯	-10.2234
tejh쎀쎯mtfk쎀쎯	-10.2234
msv쎯iepc쎯	-10.2236
qhpi쎯	-10.2238
kmwj쎯ֻbkcb쎯smg쎯	-10.2242
ynah쎁쎯emww쎯	-10.2245
iy쎯mm쎯ʋqkhk쎯	-10.2245
iuk쎯	-10.2246
wgkw쎃쎯aecn쎯	-10.2247
mgeg쎀쎯	-10.2252
oqdo쎯itky쎯	-10.2255
zzbd쎂쎯kawc쎀쎯	-10.2255
vwcy쎯qoxj쎀쎯	-10.2256
mpf쎯hg쎯	-10.2257
ʋfff쎀쎯	-10.2258
fnff쎁쎯hidf쎁쎯	-10.226
evwo쎀쎯qwgj쎀쎯	-10.2263
sdbn쎯	-10.2264
rtwh쎀쎯lv쎯rqcc쎀쎯ᦆ	-10.2267
nngw쎯	-10.2268
iepc쎯dmjd쎀쎯ɒ	-10.2272
tync쎯	-10.2274
iyjf쎀쎯wfj쎁쎯	-10.2278
qtyd쎀쎯ayjf쎀쎯	-10.2279
iumt쎯pukv쎯	-10.2284
yqtg쎀쎯	-10.2285
gqqj쎯	-10.2286
vny쎀쎯asff쎁쎯	-10.2286
qoqb쎁쎯	-10.2286
ષả	-10.2287
t쎀쎯	-10.2288
′	-10.2288
nmv쎯	-10.2288
sjfh쎯rnd쎁쎯	-10.2291
lk쎯ty쎯tlnf쎯	-10.2291
iepc쎯oope쎁쎯å	-10.2291
kccc쎯sug쎁쎯adwh쎀쎯	-10.2298
ẩynah쎁쎯	-10.2304
akgq쎀쎯슨	-10.2307
wdj쎯qgig쎁쎯	-10.2312
wudh쎯	-10.2314
snn쎁쎯	-10.2315
rfq쎯	-10.2319
aig쎯	-10.232
kmwj쎯	-10.2327
dpwi쎯kr쎯	-10.2333
oguc쎀쎯qmw쎯	-10.2336
fkuh쎀쎯ɒoope쎁쎯	-10.2336
ljlg쎁쎯tyke쎂쎯	-10.2339
rdgt쎁쎯erh쎯	-10.234
nwjh쎀쎯wdj쎯	-10.2344
qdy쎀쎯ydcy쎯	-10.235
xjx쎯lrwy쎀쎯	-10.2355
iepc쎯crqc쎯	-10.2356
nwjh쎀쎯҉	-10.2361
llld쎀쎯ytwj쎀쎯	-10.2364
qkk쎯	-10.2375
Ȏxfkm쎀쎯	-10.2376
udjf쎀쎯vbs쎯	-10.2377
ufn쎯ghd쎁쎯	-10.2378
qenh쎯넸	-10.2381
jtdk쎀쎯쁘	-10.2382
C	-10.2383
skkn쎁쎯aecn쎯	-10.2383
ahkm쎁쎯emww쎯	-10.239
hwbh쎯	-10.2393
awwp쎯texd쎀쎯	-10.2394
sam쎯kr쎯rtfh쎀쎯	-10.2407
ใjrif쎯	-10.2408
gkhj쎁쎯emww쎯	-10.2408
qdiy쎯	-10.2409
fkd쎯bkcb쎯	-10.2414
qnm쎯crgg쎀쎯	-10.2422
duc쎯ryty쎁쎯	-10.2426
qvln쎁쎯qvln쎁쎯ɒ	-10.2427
pn쎯	-10.2428
oqdo쎯Ἴ	-10.2431
vkb쎯gajl쎯ஜ	-10.2437
ip쎯nu쎯	-10.2439
rybt쎯	-10.245
탤ijlc쎯	-10.2452
ytwj쎀쎯wjgr쎀쎯	-10.2456
u쎯kkk쎯qug쎀쎯	-10.2456
xxf쎯og쎯yygy쎯je쎯	-10.2457
xciy쎯	-10.2461
qpv쎯tlty쎀쎯	-10.2461
adwj쎄쎯fnff쎁쎯	-10.2463
zzjp쎆쎆쎯	-10.2464
wjgr쎀쎯uus쎯	-10.2465
wsdn쎯rrrj쎯qwnd쎯	-10.2465
whw쎯wy쎯	-10.2469
ffff쎂쎯	-10.247
dhdl쎁쎯jlc쎯	-10.2472
ihcv쎯	-10.2472
qdtf쎯	-10.2476
äiugo쎯	-10.2479
sam쎯kr쎯qwnd쎯	-10.2482
ltkf쎀쎯ayec쎯	-10.2484
・dssn쎀쎯	-10.249
oue쎯oue쎯yygy쎯je쎯	-10.2493
fpgc쎁쎈쎯ugd쎂쎯	-10.2494
mtd쎯rs쎯tfkp쎀쎯	-10.2494
iepc쎯fkuh쎀쎯ɒ	-10.2495
aeef쎁쎯iy쎯mm쎯	-10.2496
wgmy쎀쎯ssss쎀쎯adn쎯	-10.2497
qenh쎯dee쎯fff쎀쎯	-10.25
lpk쎀쎯tak쎯	-10.25
toln쎁쎯	-10.2505
odm쎯	-10.2507
qsyy쎯qmy쎁쎯⎯	-10.2509
ֶdpgg쎯	-10.2509
yygy쎯je쎯ẩ	-10.251
yveu쎯rnp쎯	-10.251
aflf쎀쎯	-10.2518
vdqn쎯	-10.2522
tlnf쎯ẩ	-10.2524
idhb쎯	-10.2525
zzdx쎁쎁쎯qgvb쎯	-10.2527
dskc쎂쎯tdko쎯	-10.2529
iepc쎯ɒɒkkbh쎯	-10.2538
fn쎯qsyy쎯	-10.2542
vmgt쎁쎯jued쎀쎯	-10.2545
ljgr쎁쎯	-10.2547
ijgf쎀쎯qnye쎀쎯	-10.2549
ukf쎁쎯lk쎯ty쎯	-10.255
uqt쎯js쎯juk쎯	-10.2551
fff쎀쎯qipr쎯	-10.2553
막uepc쎁쎯	-10.2553
qowv쎀쎯jwvn쎀쎯	-10.2556
nhdi쎀쎯Ĉ	-10.2556
뭣kfl쎯zzbd쎂쎯	-10.2558
vnf쎯	-10.2561
tejh쎀쎯qgn쎯	-10.2561
흡	-10.2563
wpgm쎯ế	-10.2563
pgrm쎀쎯	-10.2564
yb쎯แ	-10.2564
iy쎯mm쎯ussi쎁쎯막	-10.2565
쎃쎅zzts쎁쎈쎯	-10.2568
xfcy쎀쎯ᦆ쏅wdj쎯	-10.257
oqdo쎯혹qkhk쎯	-10.2574
wdj쎯wvgw쎅쎯	-10.2575
uepc쎁쎯aha쎯	-10.2576
sqym쎯	-10.2579
ydcy쎯dfsh쎯	-10.2582
iepc쎯iepc쎯ɒ	-10.2589
iy쎯mm쎯➤iawk쎁쎯	-10.2595
imac쎀쎯	-10.26
rnd쎁쎯qgjl쎯	-10.2601
Ȏsggj쎀쎯	-10.2601
uxxg쎀쎯	-10.2607
sdht쎁쎯qtqh쎁쎯	-10.2612
	-10.2614
jyfj쎀쎯	-10.2614
ɾ	-10.2615
by쎯tyke쎂쎯	-10.2616
wgmy쎀쎯쎁쎉쎉쎉rh쎯	-10.2617
wnd쎯qfdj쎯	-10.2619
wfkn쎀쎯	-10.2621
dnrg쎯	-10.2622
fpo쎯・kdhv쎯judb쎁쎯	-10.2622
dnbm쎯rtwh쎀쎯	-10.2626
보erey쎯	-10.2629
wfj쎁쎯fpgo쎀쎯	-10.2629
uywu쎀쎯	-10.2632
igkg쎀쎯	-10.2632
zzbd쎂쎯ryg쎯މ	-10.2633
oqdo쎯	-10.2637
ktr쎯iawk쎁쎯	-10.2646
ngx쎯	-10.2649
sfcy쎁쎯މby쎯kpvg쎯	-10.2652
sqoj쎯xflm쎯ĄĈ	-10.2652
iumt쎯	-10.2652
rfhp쎯	-10.2654
ygk쎯yyy쎯wbqg쎯	-10.2656
iqrn쎯Ց	-10.2658
fpgn쎃쎯	-10.2658
ajqg쎯	-10.266
、	-10.2661
itfq쎯iy쎯mm쎯	-10.2664
kwye쎀쎯wmj쎁쎯wrh쎂쎯	-10.2682
djg쎯lnav쎯zzdx쎁쎁쎯	-10.2684
dema쎀쎯	-10.2691
gli쎯	-10.2693
wtfh쎁쎯쎂	-10.2693
qgn쎯iawk쎁쎯	-10.2695
agu쎯	-10.2696
qgvb쎯dhdl쎁쎯	-10.2696
iy쎯mm쎯ᦆiqje쎀쎯	-10.2699
qtfm쎁쎯qgvb쎯	-10.2699
tjwv쎯rvln쎯	-10.2702
alfw쎯ukd쎁쎯	-10.2703
jtfp쎁쎯zzbd쎂쎯	-10.2704
cux쎯Įzzbd쎂쎯	-10.2705
ɒå	-10.2706
މby쎯gag쎯dic쎯	-10.2708
efcb쎯dssn쎀쎯oqdo쎯	-10.2709
ywjh쎁쎯mci쎀쎯	-10.2711
god쎯	-10.2712
dddn쎯	-10.2713
tkgt쎯qgdd쎯zzbd쎂쎯	-10.2713
gkhj쎁쎯vdf쎀쎯	-10.272
Ĉiy쎯mm쎯	-10.2721
ᨣix쎯cck쎯	-10.2722
qmy쎁쎯Ἀayec쎯	-10.2724
쎁쎃rkk쎯wt쎯	-10.2724
sath쎯	-10.2724
oope쎁쎯ɒɒ	-10.2726
쀊iuyy쎯	-10.2726
ᆞqsyy쎯	-10.2729
어akfn쎯	-10.2731
fpgo쎀쎯ryg쎯	-10.2732
txgi쎄쎯fnff쎁쎯	-10.2739
awxx쎯oopv쎀쎯	-10.2747
awgj쎀쎯	-10.2749
vge쎯	-10.2749
dssn쎀쎯qkty쎯iepc쎯	-10.2752
aruf쎯Ąfamu쎯	-10.2756
vfh쎯mtje쎃쎯	-10.2757
oqdo쎯idg쎀쎯	-10.2757
jaqh쎯fmkg쎯	-10.2757
tvfh쎁쎯hh쎯	-10.2758
inhe쎯mhhm쎀쎯	-10.2762
sudk쎯rnp쎯iy쎯mm쎯	-10.2765
yyn쎁쎯	-10.2767
rrhm쎯	-10.2767
agi쎯shhy쎯	-10.2768
jtn쎯qsfi쎯	-10.2769
irff쎯	-10.2773
oqdo쎯aeef쎁쎯	-10.2773
xriy쎂쎯jlff쎀쎯	-10.2774
ivs쎯	-10.2775
sgxe쎯aruf쎯	-10.2775
yaf쎯xrh쎀쎯	-10.2776
udfm쎀쎯Ȏjf쎯	-10.2784
efcb쎯ẩ	-10.2788
iepc쎯msv쎯juk쎯	-10.2788
vbs쎯zzbd쎂쎯	-10.279
tegf쎀쎯tvfh쎁쎯adn쎯	-10.2791
icyy쎯tmdf쎁쎯adua쎯	-10.2792
ywx쎯yygy쎯qkty쎯	-10.2792
yygy쎯je쎯oqdo쎯	-10.2801
ååwgkw쎃쎯	-10.2805
xfcy쎀쎯emww쎯	-10.281
qvln쎁쎯dssn쎀쎯	-10.2811
tyna쎀쎯	-10.2818
ɒɒawxx쎯qtnx쎯	-10.2818
ރ	-10.2818
숭릿	-10.282
ipj쎯탤	-10.2823
ryty쎁쎯qwyn쎁쎯aa	-10.2826
hl쎀쎯ֻdssn쎀쎯qkty쎯	-10.2827
jg쎯	-10.2827
cvij쎯	-10.2827
judb쎁쎯yssj쎂쎯	-10.2828
pukv쎯미	-10.2829
zzbd쎂쎯xxf쎯og쎯	-10.2834
uvog쎯┯	-10.2835
덕ᆞzzjp쎁쎅쎯	-10.284
xdu쎀쎯afdp쎀쎯wy쎯	-10.2842
jtn쎯btfn쎀쎯	-10.285
qusf쎀쎯	-10.285
mqyl쎯qgvb쎯	-10.2851
yqqe쎯ryg쎯	-10.2853
rqct쎁쎯wgmy쎀쎯	-10.2854
åfkuh쎀쎯	-10.2854
쎁쎁lfon쎃쎯	-10.2855
emww쎯kpvg쎯	-10.2856
agi쎯sudk쎯	-10.2858
fff쎀쎯qenh쎯dee쎯	-10.2861
던	-10.2861
oqdo쎯qvln쎁쎯ɒ	-10.2864
fpgo쎀쎯alfw쎯oqdo쎯	-10.2864
rxe쎯	-10.2865
wy쎯vkb쎯	-10.2866
xflm쎯Ą	-10.287
xdu쎀쎯glp쎯efcb쎯	-10.287
xvpc쎀쎯	-10.2876
iepc쎯ynwm쎀쎯kkbh쎯	-10.2877
bk쎯og쎯rpw쎯rmhj쎯	-10.2879
kgjf쎀쎯살	-10.288
hako쎯of쎯xudb쎀쎯	-10.288
zzbd쎂쎯gmf쎯ᨣ	-10.2881
nq쎯	-10.2883
fff쎀쎯nwjh쎀쎯wdj쎯	-10.2885
귀	-10.2887
gae쎯dn쎯	-10.2889
sudk쎯qkhk쎯	-10.289
ခgnn쎀쎯	-10.2894
qipr쎯rbm쎯kpvg쎯	-10.2894
teil쎯vwyo쎯	-10.2894
glp쎯	-10.2896
oqdo쎯dmjd쎀쎯ẩ	-10.2897
슈wdj쎯	-10.2899
gyv쎯xtyk쎁쎯	-10.29
wgke쎀쎯ix쎯	-10.2908
tlnf쎯vwyo쎯zzbd쎂쎯	-10.2908
tdnt쎁쎯uvog쎯	-10.2913
wkbg쎯wkbg쎯	-10.2913
iuyy쎯sgfl쎀쎯	-10.2914
ermg쎯wjgr쎀쎯	-10.2914
amyu쎯	-10.2922
mhtl쎯ktr쎯	-10.2923
iy쎯mm쎯ua쎯qoep쎯	-10.2926
zzbd쎂쎯xkjh쎯xflm쎯	-10.293
zzbd쎂쎯	-10.293
d쎀쎯	-10.2933
wfcj쎯qvln쎁쎯ɒɒ	-10.2934
oat쎯	-10.2938
dfwy쎁쎯	-10.2938
swwt쎂쎯	-10.294
zzpj쎃쎯	-10.2941
pq쎯	-10.2946
uejv쎀쎯tsg쎁쎯	-10.295
ud	-10.2954
xudb쎀쎯zzbd쎂쎯	-10.2959
oqdo쎯ŗ	-10.296
sce쎯	-10.2962
	-10.2962
ovaf쎯	-10.2963
iepc쎯ɒɒqorc쎀쎯	-10.2965
Պ	-10.2965
uejv쎀쎯judb쎁쎯	-10.2968
faj쎯fnx쎯tkw쎯se쎯	-10.2968
wprc쎀쎯qrc쎯adn쎯	-10.2975
ghd쎁쎯zzbd쎅쎯	-10.2978
sqcn쎯	-10.298
șkal쎯	-10.2983
iugy쎀쎯	-10.2983
vg쎯iepc쎯	-10.2986
qvyy쎂쎯쎈	-10.2987
dgt쎀쎯aecn쎯buah쎀쎯	-10.2987
cep쎯fp쎯qhal쎀쎯	-10.2989
wtn쎯	-10.299
th쎯lpk쎀쎯	-10.299
ydcy쎯tyke쎂쎯┯	-10.299
qmwy쎁쎯ŗ	-10.2991
ysjh쎯jamy쎁쎯	-10.2992
kwye쎀쎯tlnf쎯fpo쎯쀊	-10.2996
dfd쎯yam쎯	-10.2998
vpns쎯tyke쎂쎯	-10.2998
ɒfkuh쎀쎯ɒ	-10.3003
fff쎀쎯nufh쎀쎯	-10.3004
py쎯aq쎯anwu쎯	-10.3006
xyke쎂쎯dssn쎀쎯	-10.3011
dnl쎯	-10.3011
ishg쎯	-10.3012
xgo쎯	-10.3013
oqdo쎯f쎯yy쎯aeef쎁쎯	-10.3015
yam쎯dssn쎀쎯	-10.3016
fxdr쎯	-10.302
Ȏgftj쎯	-10.3021
akgq쎀쎯udfm쎀쎯	-10.3025
oqdo쎯Ἴftux쎯	-10.3027
sqoj쎯qoep쎯	-10.303
evwo쎀쎯ocyj쎯	-10.303
idg쎀쎯ɧ	-10.3032
ohqo쎀쎯qgvb쎯	-10.3034
qmwy쎁쎯ftux쎯	-10.3038
며oue쎯	-10.3041
sam쎯rrrj쎯qwnd쎯	-10.3042
ynwm쎀쎯dssn쎀쎯	-10.3042
qn쎯	-10.3042
ᨣijlc쎯	-10.3048
콕saq쎯	-10.3051
dfd쎯dssn쎀쎯	-10.3051
cck쎯judb쎁쎯ẩ	-10.3051
qlg쎀쎯wrqw쎯	-10.3057
qyey쎂쎯wgmf쎯	-10.3057
fgu쎯ằqtfm쎁쎯	-10.3058
iy쎯mm쎯iwgw쎁쎯	-10.3064
djg쎯sgxe쎯	-10.3066
mumj쎯ywx쎯	-10.3068
iy쎯mm쎯aecn쎯Ą	-10.3076
tjwv쎯xtbb쎯uwgu쎀쎯	-10.3079
zzbd쎂쎯erh쎯	-10.3081
zzdx쎉쎯	-10.3084
ypt쎯oy쎯	-10.309
rqcc쎀쎯ᦆwgif쎯भ	-10.3095
wsdn쎯kr쎯qwnd쎯	-10.3096
gmfg쎀쎯	-10.3097
tdnt쎁쎯ᨣ	-10.3103
vgnr쎯anwu쎯	-10.3104
ylaw쎀쎯pwi쎯zzbd쎅쎯	-10.3104
namy쎀쎯qvln쎁쎯ɒɒ	-10.3105
åɒwgkw쎃쎯	-10.3106
iuyy쎯ֻ	-10.311
pv쎯ejhh쎯	-10.3116
〔txgi쎄쎯	-10.3119
Ä	-10.312
wgkw쎃쎯tfnq쎂쎯	-10.3121
rqcc쎀쎯qer쎯	-10.3124
qug쎀쎯zzbd쎂쎯	-10.3126
잖alfw쎯	-10.3128
Ąֻdssn쎀쎯wdj쎯	-10.3132
cffq쎯ᅳ	-10.3138
ith쎯xe쎯yygy쎯je쎯	-10.3139
dfd쎯cux쎯Į	-10.3139
msv쎯ɒqvln쎁쎯	-10.3139
jcf쎯itfq쎯cep쎯fp쎯	-10.314
륢	-10.3141
itky쎯tegf쎀쎯	-10.3143
xxe쎯xtnn쎀쎯	-10.3145
iyny쎁쎯	-10.3154
sgy쎯	-10.3155
qemk쎀쎯goqh쎯	-10.3156
҉gahm쎁쎯	-10.3159
omdy쎯alfw쎯	-10.3168
dnbm쎯iit쎯	-10.3172
답	-10.3173
շ	-10.3175
ddr쎯knfg쎯	-10.3179
ydcy쎯헬	-10.3183
umaw쎀쎯afdp쎀쎯	-10.3183
̲	-10.3186
ahnr쎀쎯왜	-10.3191
น	-10.32
uguh쎀쎯uguh쎀쎯	-10.3201
aaaa쎯ฌ	-10.3205
zzsx쎁쎀쎯kpvg쎯	-10.3206
twh쎯	-10.3209
oopi쎂쎯	-10.3214
rdfn쎯twh쎯	-10.3215
jmf쎯탤	-10.3217
ynwm쎀쎯awxx쎯	-10.3223
ssg쎯	-10.3226
iepc쎯ɒfgu쎯qthm쎯	-10.323
xflm쎯tpw쎯	-10.3233
,e쎯Ȓ	-10.3234
njqn쎯hlqc쎀쎯	-10.3237
rnp쎯ooou쎀쎯	-10.3241
klle쎯zzjp쎁쎅쎯	-10.3242
eemj쎀쎯dnbm쎯	-10.3247
qeg쎀쎯	-10.3248
dftf쎁쎯dssn쎀쎯	-10.3251
efwy쎀쎯	-10.3253
qsyy쎯ydcy쎯hako쎯	-10.3261
h쎁쎯	-10.3262
yygy쎯je쎯ς	-10.3263
fpgc쎁쎈쎯직qug쎀쎯	-10.3266
ᨣnvk쎯kwye쎀쎯wmj쎁쎯	-10.3273
ᛷ	-10.3276
mhtl쎯ghd쎁쎯	-10.3277
gkhj쎁쎯zzde쎃쎯	-10.3281
mfkp쎯ylaw쎀쎯	-10.3282
tyke쎂쎯yygy쎯je쎯	-10.3286
vfs쎯rnp쎯	-10.3289
am	-10.3292
gag쎯ryty쎁쎯	-10.3293
omdy쎯fd쎯ymhj쎀쎯	-10.3294
tyke쎂쎯xfcy쎀쎯	-10.3299
hqhq쎯	-10.3302
dmjd쎀쎯dssn쎀쎯	-10.3306
점qwnd쎯	-10.3307
hjhh쎀쎯	-10.3308
ydcy쎯rymn쎯	-10.331
juk쎯ywgj쎄쎯	-10.3317
etol쎯	-10.3318
써	-10.332
tlnf쎯fge쎯jlff쎀쎯	-10.3325
ynah쎁쎯qug쎀쎯	-10.3328
jthf쎀쎯qenh쎯	-10.3336
tkw쎯se쎯weh쎯	-10.3339
odm쎯dssn쎀쎯	-10.3341
〔ywx쎯iy쎯mm쎯	-10.3344
qvln쎁쎯ɒjuk쎯	-10.3349
ynah쎁쎯wy쎯	-10.3349
qfdj쎯abv쎯	-10.3356
Ĉxrh쎀쎯	-10.3356
fkug쎀쎯	-10.3358
crgg쎀쎯jued쎀쎯adn쎯	-10.336
tebl쎯eua쎯	-10.336
려xxf쎯og쎯	-10.336
xxf쎯og쎯juk쎯jrif쎯	-10.3361
wgkw쎃쎯tegf쎀쎯	-10.3363
yvcs쎯dpwi쎯	-10.3364
gjii쎁쎯	-10.3365
pei쎯n쎯qte쎀쎯	-10.3366
zzbd쎂쎯rwyg쎀쎯adn쎯	-10.3367
qtyd쎀쎯aecn쎯	-10.3367
ahkm쎁쎯	-10.3368
qvln쎁쎯ɒɒdftx쎯wg	-10.3375
iepc쎯msv쎯oope쎁쎯	-10.3377
▁wc쎯ngk쎯afam쎀쎯	-10.3378
yjdg쎯lyn쎯iy쎯mm쎯	-10.3381
zzde쎃쎯ntas쎯	-10.3381
zzbd쎂쎯rrrj쎯	-10.3384
yy쎯dm쎯wdj쎯puyg쎯Į	-10.3386
fhgh쎁쎯	-10.3386
qgig쎁쎯jeg쎯	-10.3387
mnwe쎀쎯,	-10.3393
dftx쎯ɒɒɒ	-10.3399
fgu쎯zzjp쎄쎈쎯	-10.3401
xmw쎯kkbh쎯skln쎯	-10.3402
dnbm쎯qskk쎯	-10.3406
qoyy쎀쎯	-10.3416
sjfh쎯qtwc쎀쎯	-10.3419
qay쎁쎯qgvb쎯	-10.3421
rqcc쎀쎯pugi쎀쎯	-10.3421
oqdo쎯ftux쎯zzdx쎉쎯	-10.3423
nhdr쎀쎯	-10.3423
ẩzzjp쎃쎅쎯	-10.3423
ysjh쎯twu쎯	-10.3425
zzbd쎂쎯kr쎯	-10.3426
न	-10.3429
ftwh쎀쎯	-10.3432
inpl쎯fff쎀쎯	-10.3434
qvln쎁쎯ɒɒynwm쎀쎯wg	-10.3447
쎃쎅쎯ayec쎯yygy쎯je쎯	-10.3447
vwcy쎯wsdn쎯	-10.3448
iawk쎁쎯iy쎯mm쎯	-10.3449
agdn쎯	-10.3454
rrp쎯	-10.3456
qqw쎯청xjx쎯Ą	-10.3458
wuh쎀쎯othj쎯	-10.3459
민zzbd쎂쎯	-10.3459
yygy쎯je쎯tldt쎀쎯	-10.3459
dnk쎯	-10.3461
txt쎯ftux쎯	-10.3462
iqas쎀쎯ᛷ	-10.3462
gajn쎀쎯bij쎯	-10.3464
tqaa쎯	-10.3464
dmjn쎃쎯	-10.3465
peg쎯뼉	-10.3473
blge쎯	-10.3474
oguc쎀쎯lccc쎃쎯⎯	-10.3475
b쎀쎯	-10.3475
jbl쎯	-10.3478
dvi쎯	-10.3481
┯iy쎯mm쎯	-10.3484
cwyg쎁쎯wgkw쎃쎯	-10.3492
puy쎯xfkm쎀쎯	-10.3495
wfcj쎯ynwm쎀쎯	-10.3497
xflm쎯ufn쎯	-10.3497
쀊apdi쎯	-10.3498
yoa쎯kdhv쎯	-10.3501
sudk쎯tpw쎯zzbd쎅쎯	-10.3503
며jtfp쎁쎯	-10.3506
iaah쎯ryg쎯	-10.3507
pwtx쎯	-10.3508
zzbd쎂쎯afam쎀쎯	-10.3508
aqdo쎯hkdm쎯	-10.3508
anwu쎯fcbh쎁쎯	-10.3513
Պzzj쎀쎯	-10.3514
mtdj쎯	-10.3514
ybmh쎁쎯afkk쎁쎯	-10.3522
zzbd쎂쎯슨wgkw쎃쎯	-10.3523
dhdl쎁쎯swwl쎀쎯	-10.3524
weh쎯qwyn쎁쎯qgvb쎯	-10.3525
ghd쎁쎯vkb쎯efcb쎯	-10.3526
tdko쎯qoep쎯zzbd쎂쎯	-10.3531
xfkm쎀쎯ywgj쎄쎯	-10.3533
sfcy쎁쎯xmw쎯	-10.3534
ybmh쎁쎯ဎ	-10.3536
xjnt쎯iuyy쎯	-10.354
vfj쎁쎯jtyq쎀쎯	-10.3541
ntjh쎀쎯	-10.3546
famu쎯xyxw쎁쎯	-10.355
yygy쎯je쎯khpj쎯	-10.355
ooqh쎁쎯awwp쎯	-10.3552
ayec쎯njqn쎯skkn쎁쎯	-10.3554
Ἅfpgo쎀쎯	-10.3564
aecn쎯smg쎯	-10.3572
jtn쎯udfm쎀쎯	-10.3577
rqcc쎀쎯ᦆghd쎁쎯	-10.3582
ielf쎀쎯xkjh쎯xflm쎯	-10.3589
ran쎯던	-10.3591
ghnu쎀쎯qenh쎯	-10.3594
zzde쎂쎈쎯ẩ	-10.3601
yy쎯tm쎯sjs쎯	-10.3601
ᠢoqdo쎯	-10.3603
nyaw쎯	-10.3604
ynah쎁쎯iss쎯	-10.3605
qsfi쎯afkk쎁쎯	-10.3606
nybh쎯	-10.3615
sgwt쎀쎯	-10.3616
nvk쎯khjf쎀쎯pyut쎀쎯	-10.3621
dmjd쎀쎯ɒkkbh쎯	-10.3626
dic쎯탤	-10.3628
dwg쎯bfkg쎯	-10.363
ẩfff쎀쎯	-10.363
em쎯xwks쎯oqdo쎯	-10.3631
쎁쎃teae쎯	-10.3632
zzbd쎂쎯sgxe쎯lrw쎯	-10.3634
oqdo쎯qgvb쎯ฌ	-10.3635
efcb쎯zzbd쎂쎯	-10.364
ffff쎂쎯	-10.364
iepc쎯ctrt쎯	-10.3642
qtfm쎁쎯mumj쎯	-10.3646
khun쎀쎯Ս	-10.3647
ssq쎯	-10.3654
hjfh쎀쎯	-10.3654
nwjh쎀쎯badw쎀쎯	-10.3655
gm쎯	-10.3656
da쎯dk쎯fujh쎯	-10.3659
khnx쎯	-10.3662
coqh쎯zzbd쎅쎯weh쎯	-10.3664
ɒynwm쎀쎯	-10.367
utd쎯	-10.3671
wydm쎯wtfh쎀쎯	-10.3671
ɒdftx쎯	-10.3671
yte쎯vevg쎁쎯	-10.3673
hako쎯qwyn쎁쎯	-10.3679
ith쎯xe쎯gajl쎯	-10.3679
jtfp쎁쎯ẩ	-10.3683
gqt쎯tehl쎀쎯	-10.3685
cyk쎯ydm쎯	-10.3685
ryty쎀쎯ca쎯	-10.3686
ghd쎁쎯ydcy쎯청	-10.3686
iwyj쎀쎯lynw쎀쎯	-10.3686
qvln쎁쎯ynwm쎀쎯juk쎯	-10.3688
aill쎯fth쎯	-10.3689
klip쎯	-10.369
åuqt쎯js쎯wgkw쎃쎯	-10.3691
ynwm쎀쎯zzts쎀쎯	-10.3691
eqcn쎯	-10.3692
zzdx쎉쎯zzbd쎂쎯	-10.3692
nyle쎁쎯	-10.3697
✦ijgf쎀쎯	-10.3701
qccs쎯xrh쎀쎯iy쎯mm쎯	-10.3702
eujg쎯afdp쎀쎯	-10.3705
tejh쎀쎯ghqn쎯	-10.3706
fpgo쎀쎯ş	-10.3707
qamh쎀쎯jiqn쎂쎯	-10.3707
,i쎯	-10.3707
뼉xflm쎯	-10.3718
lbn쎀쎯	-10.3719
dfee쎯탤	-10.3727
shy쎀쎯jtn쎯	-10.3727
dhvj쎁쎯	-10.373
ឌ	-10.373
ilge쎁쎯xgo쎯	-10.3738
coqh쎯zzbd쎅쎯우	-10.3738
zzsx쎁쎀쎯bk쎯og쎯	-10.374
tedm쎀쎯dmjd쎀쎯	-10.3741
보gmyg쎀쎯mci쎀쎯	-10.3743
tyn쎁쎯	-10.3747
khjf쎀쎯wpn쎯lpk쎀쎯	-10.3748
fff쎀쎯twic쎀쎯	-10.3751
ywx쎯헬	-10.3756
tebl쎯qwyn쎁쎯	-10.3756
othj쎯tejh쎀쎯	-10.3756
atkf쎀쎯ɧ	-10.3757
iit쎯qenh쎯	-10.3757
krgg쎀쎯	-10.376
nhdr쎀쎯qwyn쎁쎯	-10.376
sam쎯ith쎯xe쎯	-10.3761
fl쎯wf쎯ukqb쎀쎯	-10.3764
ix쎯ix쎯yygy쎯je쎯	-10.3765
i쎀쎯	-10.3772
sccs쎯	-10.3774
fooy쎯iepc쎯oope쎁쎯	-10.3778
iy쎯mm쎯ryg쎯nqdb쎀쎯	-10.3779
rymn쎯zzbd쎂쎯	-10.378
jf쎯ẩ	-10.3781
fpgo쎀쎯ygey쎀쎯	-10.3782
fg쎯	-10.3782
adat쎯	-10.3783
ojlg쎯	-10.3785
swgb쎀쎯	-10.3787
sjfh쎯⟩	-10.3789
ҩ	-10.3789
djg쎯wuh쎀쎯	-10.379
(	-10.3792
rnv쎀쎯	-10.3793
Ĉwtfh쎁쎯	-10.3793
adn쎯ghnn쎀쎯sdht쎁쎯	-10.3796
zzjp쎄쎈쎯dhdj쎀쎯	-10.3797
puwj쎀쎯pydd쎀쎯	-10.38
fff쎀쎯fefy쎯	-10.3806
cmg쎁쎯	-10.3806
ygji쎯zzdx쎁쎁쎯	-10.3807
ghd쎁쎯	-10.3808
toqf쎯	-10.3808
qkty쎯qrj쎯	-10.3813
mk쎯	-10.3813
eujg쎯terc쎯	-10.3815
iawk쎁쎯oqdo쎯	-10.3816
qdy쎀쎯juk쎯	-10.3816
akgq쎀쎯qgn쎯	-10.3822
ɒqvln쎁쎯	-10.3826
qvln쎁쎯ɒwgkw쎃쎯	-10.3828
ixxr쎯apdi쎯	-10.3829
weh쎯	-10.383
qipr쎯ֻjada쎁쎯ֻ	-10.383
ydcy쎯ddu쎁쎯	-10.3835
bo쎯	-10.3837
ဏ	-10.3839
jeg쎯wton쎀쎯	-10.3839
teae쎯fhuw쎯	-10.384
erh쎯ywx쎯zzjp쎃쎅쎯	-10.3842
all쎯쎂	-10.3844
)iy쎯mm쎯	-10.3844
wrh쎂쎯qwnd쎯	-10.3845
fyve쎁쎯	-10.3845
cffq쎯xudb쎀쎯	-10.3846
াqyvh쎀쎯	-10.3847
oqdo쎯kawc쎀쎯xln쎁쎯	-10.3848
ynna쎀쎯axay쎯	-10.3849
jtfp쎁쎯dpgh쎯	-10.385
xxe쎯jtyq쎀쎯	-10.3852
̇wgkw쎃쎯	-10.3853
ugd쎂쎯tkgg쎁쎯ycb쎯	-10.3857
zzjp쎄쎈쎯ả	-10.3858
qwgj쎀쎯ooou쎀쎯sam쎯	-10.3858
fpo쎯쀊yqjg쎯	-10.3861
puwn쎁쎯	-10.3864
igec쎯hael쎯	-10.3869
ix쎯cyk쎯	-10.387
jus쎯	-10.387
Ąsgfl쎀쎯oqdo쎯	-10.387
fth쎯	-10.3871
fpwo쎀쎯fpgo쎀쎯	-10.3874
sqqf쎁쎯Ä	-10.3875
jf쎯uepc쎁쎯	-10.3879
faj쎯	-10.3882
awxx쎯dssn쎀쎯	-10.3884
pei쎯n쎯dmjd쎀쎯	-10.3887
wtp쎯	-10.3888
vkb쎯efcb쎯	-10.3889
axht쎯oajj쎀쎯	-10.3894
xqrn쎀쎯ytew쎯	-10.3896
xtfg쎀쎯	-10.3899
בofdj쎯bkcb쎯smg쎯	-10.3904
wfcj쎯å	-10.3906
zzbd쎂쎯혹zzdx쎁쎁쎯	-10.3907
fjvw쎯	-10.3908
lnav쎯ijl쎯kpvg쎯	-10.3909
mqj쎯	-10.3912
dnbm쎯ndyy쎀쎯	-10.3912
őֻ	-10.3918
cqyy쎯yqa쎯	-10.3919
dqtn쎯	-10.3925
alpn쎀쎯	-10.3926
xakk쎁쎯	-10.3928
wfcj쎯qvln쎁쎯ɒ	-10.3929
trqt쎀쎯	-10.3929
괴	-10.3937
othj쎯➤anwu쎯	-10.3938
tyke쎂쎯	-10.394
ydje쎀쎯ghd쎁쎯	-10.3943
iy쎯mm쎯bkcb쎯smg쎯	-10.3944
ywwf쎀쎯	-10.3946
ydcy쎯shhy쎯	-10.3953
fpgc쎁쎈쎯xfkm쎀쎯	-10.3964
wgkw쎃쎯ymd쎯	-10.3966
th	-10.3966
iyby쎯	-10.3967
xrh쎀쎯dic쎯	-10.3968
kans쎯	-10.397
askf쎀쎯yi쎯	-10.3972
kwye쎀쎯yqjg쎯	-10.3975
fgu쎯pyrf쎀쎯	-10.3976
mumj쎯ֻcck쎯judb쎁쎯	-10.3976
Ĉmtfk쎀쎯	-10.3981
ddth쎀쎯gahm쎁쎯	-10.3984
weh쎯qay쎁쎯	-10.3989
uqt쎯js쎯wfcj쎯	-10.399
hw쎯	-10.3991
)dssn쎀쎯oqdo쎯	-10.3991
xxe쎯cmu쎁쎯	-10.3995
콩	-10.3995
celn쎯ș	-10.3998
kr쎯shwy쎯	-10.4001
tync쎯	-10.4002
jnx쎯qkty쎯	-10.4002
kaqy쎯texd쎀쎯	-10.4002
ujqu쎯	-10.4006
ter쎁쎯wmj쎁쎯	-10.4006
ua쎯iann쎀쎯	-10.4007
sug쎁쎯wuh쎀쎯	-10.4009
iy쎯mm쎯ydcy쎯qwnd쎯	-10.4012
,sk쎯xqi쎯	-10.4012
ipkr쎯	-10.4013
ugd쎂쎯issh쎯	-10.4014
jb쎯ym쎯	-10.4014
zzbd쎅쎯dftx쎯	-10.4017
oqdo쎯idg쎀쎯	-10.4019
oue쎯zzbd쎂쎯	-10.4019
qvln쎁쎯ɒɒå	-10.4025
Ἄ	-10.4026
vgnr쎯jtjs쎯	-10.4026
어fhit쎀쎯	-10.4026
qsyy쎯vknn쎯랙	-10.4027
vfh쎯	-10.4028
idg쎀쎯rds쎯	-10.4032
Ąkpvg쎯	-10.4036
odm쎯jued쎀쎯	-10.4037
iy쎯mm쎯ydcy쎯헬	-10.4038
mmaw쎀쎯	-10.4043
khdg쎁쎯	-10.4043
dfsh쎯ᦆ	-10.4044
료ẩ	-10.4045
რwgmy쎀쎯	-10.4052
toi쎯	-10.4054
ahn쎯	-10.4055
agmw쎂쎯dssn쎀쎯	-10.4059
뼉zzxx쎄쎯	-10.4061
wpde쎁쎯adn쎯	-10.4061
oopm쎀쎯aqrj쎯	-10.4063
iawk쎁쎯xflm쎯	-10.4065
iafl쎀쎯yufe쎯	-10.4066
xpn쎯aldj쎯iy쎯mm쎯	-10.4066
wymm쎯jqrt쎀쎯	-10.4069
견	-10.407
tmdf쎁쎯vbs쎯	-10.4075
mgji쎀쎯xfkm쎀쎯	-10.4079
mqjh쎀쎯xmw쎯	-10.4079
issj쎯dfee쎯	-10.4081
ếrwyg쎀쎯	-10.4084
zzjp쎄쎈쎯wdy쎁쎯	-10.4085
ydcy쎯dfny쎁쎯	-10.4088
⟩omdy쎯	-10.409
sgxe쎯kjug쎯	-10.4091
zzbd쎂쎯fge쎯jlff쎀쎯	-10.4091
yjs쎯tkgg쎁쎯gmit쎯	-10.4093
ytwj쎀쎯mci쎀쎯	-10.4094
jgf쎯ywx쎯	-10.4094
jatn쎀쎯kmwj쎯ֻ	-10.4096
alfw쎯jrif쎯	-10.4097
mnmq쎀쎯aecn쎯	-10.4099
lynw쎀쎯kaqt쎀쎯	-10.41
wjm쎯	-10.4103
ֻsqde쎯	-10.4103
ẩ್	-10.4107
dssn쎀쎯qoep쎯	-10.4107
apgy쎀쎯	-10.4107
ua쎯tdko쎯iy쎯mm쎯	-10.4108
ljlg쎁쎯sgwt쎀쎯	-10.4108
kdhv쎯xxe쎯	-10.4111
땑iy쎯mm쎯	-10.4112
pjgh쎯wtfh쎀쎯	-10.4114
qgvb쎯atkf쎀쎯	-10.4117
칭dema쎀쎯	-10.4121
afff쎂쎯rdgt쎁쎯	-10.4121
aq	-10.4122
벗	-10.4122
wvgt쎂쎯wpn쎯	-10.4124
oope쎁쎯rkk쎯wt쎯	-10.4124
qwnd쎯zzbd쎂쎯	-10.4125
혹badw쎀쎯iy쎯mm쎯	-10.4132
qvln쎁쎯ɒɒdmjd쎀쎯wg	-10.4134
tmdf쎁쎯bij쎯zzbd쎂쎯	-10.4137
dfd쎯wjgr쎀쎯	-10.4139
weh쎯	-10.4141
fff쎀쎯tldt쎀쎯	-10.4142
skln쎯jtfp쎁쎯	-10.4145
tdnt쎁쎯nwjh쎀쎯	-10.4146
ֻghd쎁쎯ocyj쎯	-10.4149
abwt쎯	-10.4153
fge쎯	-10.4158
ynah쎁쎯pukv쎯	-10.4161
tdnt쎁쎯ᨣiy쎯mm쎯	-10.4162
tfq쎯	-10.4165
gagf쎯	-10.4166
iqas쎀쎯ằ	-10.417
uvog쎯mgt쎯	-10.4171
wo쎯dpgg쎯	-10.4171
ywgj쎄쎯dwa쎯	-10.4173
⟩iawk쎁쎯	-10.4173
yam쎯zzbd쎂쎯	-10.4174
ghd쎁쎯헬	-10.4175
xmwy쎁쎯╧	-10.4181
jued쎀쎯	-10.4186
wfil쎀쎯sdht쎁쎯	-10.4186
zzbd쎂쎯wsdn쎯	-10.4186
pukv쎯emww쎯	-10.4188
gajl쎯ஜzzjp쎃쎅쎯	-10.419
yqj쎯mumj쎯	-10.419
sxej쎯	-10.4191
puwj쎀쎯징	-10.4192
oqdo쎯gag쎯	-10.4192
qwyn쎁쎯awwp쎯	-10.4194
넸r쎯v쎯nae쎀쎯	-10.4194
akgq쎀쎯qgmg쎯	-10.4194
kbf쎀쎯rrrj쎯	-10.4196
hlqc쎀쎯zzbd쎅쎯	-10.4196
sgxe쎯aqdo쎯	-10.4201
gmf쎯xrh쎀쎯tkw쎯se쎯	-10.4206
gq	-10.4207
sqqf쎁쎯xtol쎀쎯	-10.4208
헬ghd쎁쎯iy쎯mm쎯	-10.421
iagn쎀쎯	-10.4219
̇dssn쎀쎯	-10.4221
jlxy쎯sync쎯	-10.4223
hiu쎀쎯dfny쎁쎯	-10.4224
åwfcj쎯	-10.4224
yqj쎯kwye쎀쎯	-10.4229
dpgg쎯ucd쎯	-10.4231
egey쎀쎯adeu쎯qkhk쎯	-10.4231
iepc쎯ɒrkk쎯wt쎯	-10.4232
wdn쎯	-10.4232
ugi쎯hggt쎀쎯	-10.4233
dmjd쎀쎯ɒjuk쎯	-10.4236
cck쎯judb쎁쎯qmy쎁쎯	-10.4236
ynah쎁쎯kbf쎀쎯	-10.4237
╂	-10.4243
gv쎯	-10.4244
qkty쎯qojg쎁쎯	-10.4246
wtfh쎀쎯najf쎀쎯	-10.4253
udhd쎁쎯	-10.4264
g쎯	-10.4265
qvln쎁쎯åjuk쎯	-10.4265
ĵdaht쎀쎯	-10.4265
hako쎯ukd쎁쎯	-10.4265
ukf쎁쎯swwl쎀쎯qug쎀쎯	-10.4265
슨wgkw쎃쎯	-10.4269
ᨣqfh쎁쎯	-10.4277
oops쎀쎯	-10.4278
aadr쎁쎯	-10.4281
khuv쎀쎯dujf쎂쎯	-10.4281
횡	-10.4282
쀊xrh쎀쎯	-10.4283
aib쎯jmh쎯╂	-10.4283
yfq쎯	-10.4287
ygq쎯qoep쎯	-10.429
osjh쎁쎯ὴ	-10.429
חqtnx쎯zzbd쎂쎯	-10.4292
Ϣ	-10.4295
dfwy쎁쎯vqqw쎀쎯	-10.4297
xylg쎯	-10.4298
rqcc쎀쎯wtfh쎀쎯	-10.4299
ydcy쎯qenh쎯	-10.4299
tmdf쎁쎯bij쎯oqdo쎯	-10.43
ɒfkuh쎀쎯msv쎯	-10.4301
sqqf쎁쎯qrj쎯	-10.4302
hghn쎯Ḧ	-10.4302
jgsy쎯މqwnd쎯fgu쎯	-10.4303
skkn쎁쎯qmwy쎁쎯	-10.4303
all쎯ȓ	-10.4303
erh쎯axa쎯iy쎯mm쎯	-10.4305
qjmy쎯sync쎯	-10.431
jgf쎯rtwh쎀쎯	-10.4314
aqsc쎯qer쎯	-10.4315
ehkg쎯vbs쎯	-10.4321
ύ	-10.4322
ix쎯wgif쎯fpo쎯쀊	-10.4324
qrc쎯	-10.4328
fhit쎀쎯wgmy쎀쎯	-10.4328
gqiy쎀쎯	-10.4331
adn쎯qwyn쎁쎯sdht쎁쎯	-10.4331
eejf쎀쎯등	-10.4331
wfcj쎯dftx쎯	-10.4332
kyxy쎁쎯gajl쎯ஜ	-10.4335
udfm쎀쎯xuv쎯	-10.4336
ww쎯gk쎯	-10.4338
y쎯s쎯,	-10.4338
xpn쎯މtkw쎯se쎯	-10.4338
ytdy쎁쎯	-10.4341
ugi쎯fnw쎯	-10.4343
რqwnd쎯	-10.4344
qgtn쎯	-10.4347
ytfm쎯rdn쎯	-10.4347
택tkgg쎁쎯ycb쎯	-10.435
vcbo쎀쎯puy쎯	-10.4354
ix쎯tlnf쎯tnhc쎁쎯	-10.4357
qay쎁쎯qkhk쎯	-10.4358
qorc쎀쎯zzbd쎂쎯	-10.4361
쎇xrh쎀쎯	-10.4362
jrt쎯	-10.4364
ege쎯	-10.4368
jhtn쎯	-10.4371
쀊sgfl쎀쎯oqdo쎯	-10.4372
bkcb쎯smg쎯qmy쎁쎯	-10.4372
ᨣddu쎁쎯	-10.4372
srrm쎯	-10.4373
gftx쎯	-10.4383
ŗމ	-10.4383
ɾuth쎯	-10.4385
crgg쎀쎯ukqb쎀쎯	-10.4387
ncd쎯	-10.4388
lfof쎃쎯	-10.4388
ẩtejh쎀쎯texd쎀쎯	-10.4388
rqcc쎀쎯mci쎀쎯	-10.4388
དzzde쎂쎈쎯iy쎯mm쎯	-10.4389
pyrf쎀쎯	-10.439
gias쎯geg쎯	-10.4396
iy쎯mm쎯mfc쎯wtff쎁쎯	-10.4396
famw쎀쎯	-10.4397
xflm쎯რ	-10.4402
ɒfkuh쎀쎯dmjd쎀쎯	-10.4403
txt쎯qwyn쎁쎯qgvb쎯	-10.4406
pybn쎯	-10.4409
ibtg쎯	-10.4411
쀊sgfl쎀쎯⎯	-10.4416
ydm쎯ryty쎁쎯qta쎯	-10.4417
vny쎀쎯syp쎯iy쎯mm쎯	-10.442
ːkhfp쎯	-10.442
דmhag쎀쎯	-10.4422
dssn쎀쎯jmfg쎀쎯	-10.4422
ಶẩ	-10.4427
mcw쎯	-10.4428
yqvg쎀쎯adn쎯	-10.4431
sam쎯	-10.4432
et쎯yne쎯	-10.4433
dk쎯dhdt쎀쎯swwn쎃쎯Ǎ	-10.4435
zzbd쎂쎯ŗzzdx쎁쎁쎯	-10.4437
jjq쎯	-10.4441
iepc쎯료	-10.4441
jada쎁쎯	-10.4443
sit쎯yiln쎯	-10.4447
twyc쎃쎯	-10.4449
mfkp쎯qouq쎀쎯	-10.4451
kmwj쎯ֻxudb쎀쎯	-10.4452
pyld쎁쎯qgig쎁쎯	-10.4454
zzbd쎅쎯oope쎁쎯	-10.4454
ajdh쎯mwwk쎀쎯	-10.4454
┯wtff쎁쎯iuyy쎯	-10.4459
imk쎯	-10.4461
ljlg쎁쎯dpgh쎯	-10.4462
icyy쎯texd쎀쎯	-10.4466
ạ	-10.4466
릿axa쎯	-10.4468
oqdo쎯rwyg쎀쎯ghd쎁쎯	-10.4469
qmw쎯kkbh쎯fpgc쎁쎈쎯	-10.447
mhag쎀쎯	-10.447
츠➤iawk쎁쎯kpvg쎯	-10.4471
teyu쎯	-10.4471
iepc쎯fkuh쎀쎯msv쎯	-10.4474
xd쎯	-10.4477
qvyy쎂쎯	-10.4477
tvfh쎁쎯რ	-10.448
w쎯km쎯wuh쎀쎯gag쎯	-10.4483
syp쎯iafl쎀쎯oqdo쎯	-10.4483
odd쎯	-10.4487
qug쎀쎯	-10.4487
efcb쎯zzxx쎀쎯	-10.4488
wv	-10.4489
qmy쎁쎯ryty쎁쎯qta쎯	-10.4489
쳐xyxw쎁쎯	-10.4492
쎈qgjj쎯	-10.4493
uak쎯	-10.4498
괁texd쎀쎯	-10.45
료ypqn쎯	-10.4505
rbm쎯lv쎯	-10.4506
skgv쎯	-10.4507
aqrj쎯amc쎯	-10.4508
puwj쎀쎯rdn쎯ả	-10.452
yhk쎯wym쎯	-10.4522
ijgf쎀쎯kr쎯kyxy쎁쎯	-10.4523
xxe쎯ugd쎂쎯	-10.4523
n쎀쎯	-10.4528
sqde쎯	-10.4529
fkuh쎀쎯iepc쎯ɒ	-10.4531
yy쎯dm쎯wdj쎯	-10.4532
xrh쎀쎯oue쎯	-10.4534
pgvh쎯	-10.4535
crqc쎯zzbd쎅쎯	-10.4535
fgu쎯u쎯kkk쎯	-10.4536
khb쎯	-10.4536
y쎯s쎯bkcb쎯	-10.4538
ooqh쎁쎯zzjp쎁쎅쎯	-10.4539
iqdm쎀쎯	-10.454
vqbt쎀쎯	-10.4543
kwye쎀쎯wmj쎁쎯iovg쎯	-10.4545
ssu쎯vqqw쎀쎯	-10.4546
avyn쎯Ąitfq쎯민	-10.4546
qtfm쎁쎯რijgf쎀쎯	-10.4547
◢	-10.455
aeef쎁쎯yqj쎯	-10.4552
uegd쎄쎯rnp쎯	-10.4555
ảyygy쎯je쎯	-10.4558
wydm쎯aeef쎁쎯	-10.4563
ix쎯cck쎯މeua쎯	-10.4564
iepc쎯fkuh쎀쎯å	-10.4566
qqw쎯tyke쎂쎯	-10.4566
게ishg쎯	-10.4567
꘥	-10.4574
uftj쎂쎯dpgg쎯	-10.4576
qogg쎄쎯	-10.4577
qd쎯	-10.4578
gnn쎀쎯dsjh쎯	-10.4579
ghnu쎀쎯ב	-10.4579
ftfn쎁쎯	-10.458
ljlg쎁쎯wrh쎂쎯	-10.458
gqt쎯qlqj쎁쎯	-10.458
zzbd쎂쎯auj쎯eua쎯	-10.4585
rqcc쎀쎯mtfk쎀쎯	-10.4588
랙qsyy쎯	-10.4588
tak쎯wjgr쎀쎯	-10.459
uh쎯료	-10.4598
zzzy쎃쎁쎯	-10.4599
ack쎯	-10.46
oqdo쎯adn쎯tkw쎯se쎯	-10.4604
yveu쎯	-10.4606
tg쎯	-10.4609
tkw쎯se쎯ydcy쎯	-10.4611
qgig쎁쎯wym쎯	-10.4612
jfkk쎁쎯	-10.4616
ougt쎁쎯jvip쎀쎯	-10.4618
qtfv쎁쎯ghd쎁쎯	-10.4618
kwye쎀쎯cep쎯fp쎯	-10.4625
djg쎯vevg쎁쎯	-10.4625
wwty쎀쎯xwks쎯	-10.4626
qgvb쎯ghd쎁쎯	-10.463
dug쎯wjgr쎀쎯	-10.4632
ynah쎁쎯djh쎀쎯	-10.4633
owy쎯	-10.4633
qtyd쎀쎯zzde쎃쎁쎯	-10.4634
kyin쎯ằ	-10.465
zzjp쎁쎅쎯dhih쎯	-10.4651
wfcj쎯oope쎁쎯	-10.4653
afqb쎁쎯ȃ	-10.4654
kdhv쎯qrj쎯	-10.4657
mbtg쎯	-10.466
ix쎯tlnf쎯xudb쎀쎯	-10.4661
fpo쎯ayec쎯	-10.4663
sdht쎁쎯llld쎀쎯	-10.4665
wtff쎁쎯uus쎯	-10.4666
r쎯v쎯nae쎀쎯dssn쎀쎯	-10.4667
kqjh쎀쎯akgq쎀쎯	-10.467
fjqn쎁쎯qtdj쎁쎯	-10.4674
(iqas쎀쎯qtnx쎯	-10.4678
aigy쎯sgfl쎀쎯	-10.468
tegf쎀쎯wkbg쎯	-10.4682
wtfv쎀쎯qgig쎁쎯	-10.4685
ilge쎁쎯xjnt쎯	-10.4686
)ẩ⎯	-10.4686
ewgu쎯namy쎀쎯	-10.4686
zzbd쎂쎯콕iawk쎁쎯	-10.4686
jcf쎯gajl쎯ஜ	-10.469
려xxf쎯og쎯zzbd쎂쎯	-10.4692
awwp쎯dic쎯	-10.4692
rqrm쎯	-10.4692
itfq쎯jgsy쎯މ민	-10.4693
zzzy쎁쎂쎯	-10.4695
oqdo쎯klle쎯wnx쎯	-10.4695
yy쎯dm쎯hlqc쎀쎯	-10.4695
lpk쎀쎯vqmy쎯	-10.4696
nwjh쎀쎯yy쎯dm쎯	-10.4697
뼉ntfn쎀쎯	-10.4699
qgig쎁쎯	-10.4701
qfh쎁쎯ghnn쎀쎯	-10.4705
ijgr쎀쎯fnw쎯	-10.4709
zzbd쎅쎯ynwm쎀쎯	-10.4713
rqcc쎀쎯ֶ	-10.4714
puy쎯mqyl쎯	-10.4718
fpo쎯쀊dssn쎀쎯민	-10.4719
atkf쎀쎯qgvb쎯	-10.472
vny쎀쎯oguc쎀쎯	-10.4721
vgnr쎯aecn쎯	-10.4722
ʋwaqj쎯	-10.4722
qrgk쎯	-10.4724
zzxx쎂쎂쎯qtyd쎀쎯	-10.4726
ix쎯yygy쎯je쎯	-10.473
ɒdmjd쎀쎯	-10.473
yta쎯	-10.4731
ẩoguc쎀쎯	-10.4732
walq쎯	-10.4738
ussi쎁쎯막zzbd쎂쎯	-10.4738
qug쎀쎯gajl쎯ஜ	-10.4738
smg쎯mtje쎃쎯tnhc쎁쎯	-10.4739
avyn쎯itfq쎯민oqdo쎯	-10.474
tlnf쎯jued쎀쎯	-10.4743
ayt쎯qolj쎀쎯	-10.4743
wymm쎯	-10.4744
oqdo쎯auj쎯eua쎯	-10.4744
iwt쎯	-10.4748
xjx쎯aha쎯	-10.475
iy쎯mm쎯릿skln쎯	-10.4751
puy쎯tebl쎯	-10.4754
ajjh쎯	-10.4756
בqsyy쎯	-10.4763
ywvo쎂쎯ca쎯	-10.4763
rj쎯ym쎯	-10.4767
duvo쎀쎯msv쎯juk쎯	-10.4769
jada쎁쎯ֻaecn쎯	-10.4771
쎶	-10.4772
osjh쎁쎯aej쎯	-10.478
hako쎯qlqj쎁쎯	-10.4791
qgig쎁쎯qte쎀쎯	-10.4792
oqdo쎯jthf쎀쎯	-10.4793
슨tlnf쎯	-10.4794
ynna쎀쎯wton쎁쎯	-10.4796
xudb쎀쎯yygy쎯je쎯	-10.4798
cmg쎁쎯깮	-10.4798
rgki쎀쎯	-10.48
Ҟjtfp쎁쎯wrh쎂쎯	-10.4806
wfcj쎯msv쎯	-10.4806
by쎯qdff쎁쎯	-10.4814
ɒmsv쎯wgkw쎃쎯	-10.4816
tldt쎀쎯qvln쎁쎯	-10.482
ynwm쎀쎯hep쎯	-10.4821
idg쎀쎯뭣	-10.4825
duvo쎀쎯iepc쎯ɒjuk쎯	-10.4826
xxe쎯왜	-10.4827
aujf쎁쎯bynn쎯	-10.4827
xxf쎯og쎯qug쎀쎯	-10.4829
(awwp쎯	-10.4829
jeg쎯dskc쎂쎯	-10.4836
adn쎯zzjp쎁쎅쎯	-10.4836
jawy쎀쎯aecn쎯	-10.4838
fgu쎯wrh쎂쎯	-10.4845
jqu쎯dpgg쎯	-10.4847
	-10.4847
ix쎯tlnf쎯wgif쎯भ	-10.4847
법	-10.4849
ghd쎁쎯ua쎯	-10.4852
kr쎯ijgf쎀쎯	-10.4853
iy쎯mm쎯afkk쎁쎯	-10.4854
vevg쎁쎯crqc쎯	-10.4854
bk쎯og쎯ȃ	-10.4855
xyke쎂쎯thgc쎀쎯	-10.4855
åɒɒɒ	-10.4861
ssu쎯syny쎀쎯	-10.4867
kr쎯cbtc쎀쎯ith쎯xe쎯	-10.4867
რjnhh쎁쎯	-10.4868
kcq쎯	-10.4869
fkkv쎀쎯jf쎯	-10.4875
wgkw쎃쎯xrh쎀쎯aecn쎯	-10.4875
trqy쎀쎯	-10.4875
qwyn쎁쎯qipr쎯	-10.4877
ewwb쎯weh쎯탑	-10.4877
whan쎯	-10.4879
qwgk쎂쎯	-10.4883
ytd쎯	-10.4883
gilf쎀쎯qkhk쎯	-10.4884
vpns쎯ֻ	-10.4886
ynna쎀쎯gag쎯	-10.4892
ytwj쎀쎯ybt쎯	-10.4897
jyna쎯	-10.4897
ith쎯xe쎯puyg쎯	-10.49
tldt쎀쎯aqv쎀쎯	-10.4902
iepc쎯	-10.4903
iy쎯mm쎯mpk쎀쎯ᦆ	-10.4904
gilf쎀쎯ydcy쎯	-10.4904
skkn쎁쎯zzbd쎂쎯	-10.4911
┯fere쎯	-10.4913
gajl쎯qer쎯qwnd쎯	-10.4914
zzpj쎂쎆쎯	-10.4914
sudk쎯청	-10.4915
yvk쎯	-10.4915
j쎯	-10.4919
zzbd쎂쎯nwjh쎀쎯	-10.492
aahl쎀쎯Ąsgfl쎀쎯	-10.4922
qgge쎯	-10.4926
ugd쎂쎯gkh쎀쎯	-10.4927
adn쎯rqcc쎀쎯ᦆ	-10.4927
qttf쎀쎯	-10.4928
adn쎯fff쎀쎯	-10.4928
xrh쎀쎯tvfh쎁쎯	-10.4933
to쎯	-10.4933
dftx쎯dssn쎀쎯	-10.4934
보	-10.4936
mesg쎯	-10.494
iepc쎯msv쎯ɒɒ	-10.4941
yssj쎂쎯왜	-10.4942
iwgw쎁쎯ssss쎀쎯	-10.4942
zzdx쎁쎁쎯ב	-10.4944
fpo쎯btfn쎀쎯kccc쎯	-10.4945
iawk쎁쎯쀊	-10.4946
ډtyk쎯	-10.4946
რtkw쎯se쎯	-10.4949
sgxe쎯탤	-10.4951
fkuh쎀쎯ɒdmjd쎀쎯	-10.4952
dajl쎯	-10.4957
bxgu쎀쎯	-10.4957
xudb쎀쎯oqdo쎯	-10.4958
ાjvip쎀쎯	-10.4959
afuo쎀쎯청	-10.4961
iepc쎯dftx쎯ɒ	-10.4962
puyg쎯yte쎯	-10.4963
kwye쎀쎯xhqn쎯	-10.4963
dee쎯wgko쎂쎯	-10.4965
dhdl쎁쎯pnw쎯	-10.4969
oug쎀쎯	-10.497
cq쎯	-10.497
iy쎯mm쎯awwp쎯ygji쎯	-10.4973
rham쎃쎯aga쎯	-10.4977
qug쎀쎯ẩ	-10.4978
aqah쎁쎯	-10.4978
nyhy쎁쎯	-10.498
tkw쎯se쎯⎯	-10.4981
ijgd쎯	-10.4982
afan쎀쎯gag쎯	-10.4983
iy쎯mm쎯yqqe쎯┯	-10.4983
faoi쎯aecn쎯iuyy쎯	-10.4986
yygy쎯je쎯wy쎯	-10.4987
pjgh쎯jqrt쎀쎯	-10.4993
udfm쎀쎯mfkp쎯	-10.4993
riq쎯	-10.5004
jued쎀쎯qrc쎯	-10.5004
Ĉwfa쎯	-10.5005
್យ	-10.5007
iepc쎯qvln쎁쎯juk쎯	-10.5008
aqkn쎯ֶ	-10.5009
pyu쎯duc쎯	-10.5012
fgey쎯	-10.5015
yqqe쎯qkhk쎯	-10.5015
ynna쎀쎯fisu쎯	-10.5018
mgt쎯lv쎯	-10.5019
징sfgn쎯iy쎯mm쎯	-10.5022
qay쎁쎯waqj쎯	-10.5023
რysjh쎯	-10.5024
sug쎁쎯	-10.5025
ryg쎯މiy쎯mm쎯	-10.5025
kkbh쎯gqt쎯	-10.5027
qovh쎀쎯xudb쎀쎯	-10.5032
kwye쎀쎯dwg쎯	-10.5033
tvel쎯	-10.5033
mgji쎀쎯ukd쎁쎯	-10.5034
vpns쎯sbb쎯	-10.5036
lftj쎯mhag쎀쎯weh쎯	-10.5036
ဎlynw쎀쎯	-10.5043
afuo쎀쎯ktr쎯ẩ	-10.5044
aqrj쎯wtff쎁쎯qgvb쎯	-10.5045
oqdo쎯쀊adn쎯	-10.5046
badw쎀쎯	-10.5047
ddth쎀쎯alfw쎯	-10.505
iuyy쎯tyke쎂쎯	-10.5052
쎃쎅	-10.5055
itky쎯yi쎯	-10.5056
nyp쎯	-10.5056
aahl쎀쎯fcbh쎁쎯	-10.5058
qvln쎁쎯료	-10.5059
anwu쎯wy쎯	-10.506
iepc쎯료fkuh쎀쎯	-10.5062
ntas쎯mgji쎀쎯	-10.5065
qc쎯	-10.5069
wfcj쎯uqt쎯js쎯	-10.5072
iepc쎯wgkw쎃쎯iepc쎯	-10.5074
zzsx쎁쎉쎯	-10.5076
vny쎀쎯ai쎯	-10.5077
faj쎯fnx쎯	-10.5078
ntas쎯xtgo쎯	-10.5081
wgkw쎃쎯Ą	-10.5081
igva쎯	-10.5087
qq	-10.5091
콕fn쎯	-10.5092
wy쎁쎯pei쎯n쎯ydcy쎯	-10.5096
xrh쎀쎯iy쎯mm쎯	-10.5097
alfw쎯dssn쎀쎯	-10.5098
ryty쎁쎯qwyn쎁쎯qm	-10.5098
kccc쎯wdj쎯	-10.5101
ygh쎯	-10.5104
fff쎀쎯agmw쎂쎯	-10.5105
aecn쎯oqdo쎯	-10.5112
lpk쎀쎯wgmy쎀쎯	-10.5116
,sk쎯magu쎯	-10.5116
iy쎯mm쎯smg쎯iooo쎯	-10.5117
tmdf쎁쎯afdp쎀쎯	-10.5118
sjfh쎯kbf쎀쎯	-10.5118
uejn쎀쎯	-10.5119
tejh쎀쎯ä⎯	-10.512
┟	-10.5124
pum쎯	-10.5128
icyy쎯nutg쎯	-10.5129
Ďvwyo쎯oqdo쎯	-10.5133
fhb쎯	-10.5133
민ẩ	-10.5135
며texd쎀쎯	-10.5135
ix쎯yqjg쎯	-10.5138
vkhh쎯gjjg쎀쎯	-10.5139
kbf쎀쎯qwyn쎁쎯	-10.514
qay쎁쎯ֶ	-10.5141
zzzy쎅쎯	-10.5152
iepc쎯ẩ	-10.5155
ᨣ뼉	-10.5158
u쎯kkk쎯tlnf쎯aecn쎯	-10.5162
sgxe쎯pwgn쎀쎯	-10.5163
ydcy쎯cffq쎯	-10.5163
oyy쎁쎯	-10.5166
mgji쎀쎯qyiy쎀쎯	-10.5168
xudb쎀쎯vkb쎯	-10.517
efcb쎯dssn쎀쎯	-10.5173
wtfh쎁쎯zzbd쎂쎯	-10.5175
vny쎀쎯『iy쎯mm쎯	-10.5177
މjatn쎀쎯	-10.5181
tpw쎯rdn쎯	-10.5182
wpn쎯dug쎯	-10.5182
iwgw쎁쎯jf쎯	-10.5185
━wept쎯	-10.5187
qtvn쎀쎯	-10.519
nufh쎀쎯vqqw쎀쎯	-10.5212
쀊jgd쎀쎯zzbd쎅쎯	-10.5214
emww쎯wpqe쎯iuyy쎯	-10.5215
━	-10.5215
fcbh쎁쎯xflm쎯	-10.5218
ysjh쎯zzdx쎁쎁쎯	-10.5222
zzbd쎂쎯awwp쎯	-10.523
wgif쎯भމeua쎯	-10.5232
iwcn쎯	-10.5233
ga쎯nae쎀쎯	-10.524
iy쎯mm쎯Ἀayec쎯	-10.5241
qohk쎯	-10.5245
rtf쎯khyf쎁쎯	-10.5246
smg쎯iooo쎯	-10.5246
qfh쎁쎯eoy쎯	-10.525
ijgf쎀쎯zzdx쎉쎯	-10.525
oqdo쎯txt쎯	-10.5251
qvln쎁쎯ɒwym쎯	-10.5252
ᨠ	-10.5253
בofdj쎯Ĉqug쎀쎯	-10.5254
މby쎯tkw쎯se쎯	-10.5256
tpe쎯ytew쎯	-10.5257
jgf쎯ywx쎯wrh쎂쎯	-10.5258
idg쎀쎯ynah쎁쎯	-10.5259
,sk쎯kbf쎀쎯	-10.526
rfho쎯	-10.5262
xflm쎯pyut쎀쎯	-10.5263
	-10.5264
oopm쎀쎯┯iy쎯mm쎯	-10.5267
kajj쎯nhde쎁쎯	-10.527
qvln쎁쎯dmjd쎀쎯juk쎯	-10.5273
tlnf쎯ywgj쎄쎯	-10.5276
ờjlff쎀쎯	-10.5277
zzbd쎂쎯혹qkhk쎯	-10.5279
kwye쎀쎯btfn쎀쎯	-10.5281
ɒuqt쎯js쎯	-10.5281
qusf쎀쎯qojg쎁쎯	-10.5282
어qsfi쎯qgig쎁쎯fgu쎯	-10.5282
waqj쎯odm쎯	-10.5282
akgq쎀쎯ㄫ	-10.5287
eqcn쎯jmf쎯	-10.5287
zzbd쎂쎯avyn쎯ghd쎁쎯	-10.5289
pei쎯n쎯ifcl쎯iqaw쎯	-10.5293
mwvo쎁쎯	-10.5295
qbhf쎯xe쎯	-10.5297
hwbh쎯sghg쎂쎯	-10.5297
%	-10.5298
dfee쎯tkw쎯se쎯	-10.5299
yam쎯kgcf쎀쎯	-10.53
msv쎯duvo쎀쎯	-10.5303
aytb쎀쎯ssss쎀쎯	-10.5304
abv쎯ukf쎁쎯	-10.5307
qvln쎁쎯ɒɒqvln쎁쎯wg	-10.5312
U	-10.5313
vnum쎂쎯	-10.5316
duvo쎀쎯iepc쎯åjuk쎯	-10.5317
(xudb쎁쎯vevg쎁쎯	-10.5322
dssn쎀쎯fff쎀쎯	-10.5325
	-10.5325
qvln쎁쎯ɒkkbh쎯	-10.5327
그	-10.5327
qtnx쎯	-10.5329
wbj쎯tfkp쎀쎯	-10.5329
qwyn쎁쎯waqj쎯	-10.533
mci쎀쎯iqje쎀쎯	-10.5332
aqod쎀쎯	-10.5335
skkg쎯	-10.5337
giv쎯by쎯	-10.5337
zzbd쎂쎯dejr쎯	-10.5337
kbf쎀쎯xs쎯	-10.5339
qkhk쎯oqdo쎯	-10.5339
qvln쎁쎯ynwm쎀쎯å	-10.5341
zzbd쎇쎯	-10.5342
fkhp쎀쎯jqu쎯iy쎯mm쎯	-10.5344
dmjd쎀쎯qvln쎁쎯ɒ	-10.5344
qgvb쎯xudb쎀쎯qmy쎁쎯	-10.5344
wjgr쎀쎯uvog쎯	-10.5348
iwgd쎯რ	-10.535
ad	-10.5351
tlnf쎯u쎯kkk쎯oqdo쎯	-10.5351
ypqn쎯ɒɒɒ	-10.5351
awxx쎯iugo쎯buah쎀쎯	-10.5352
tfwk쎁쎯	-10.5353
ɒɒiqas쎀쎯rqct쎁쎯	-10.5353
qwdc쎯	-10.5356
at쎯	-10.5357
ydcy쎯yyn쎁쎯	-10.5364
seyy쎯	-10.5364
rrrj쎯jthf쎀쎯	-10.5368
ijfj쎁쎯	-10.537
qgig쎁쎯mhnf쎯	-10.537
flmu쎀쎯yb쎯	-10.5373
┯ẩ	-10.5376
akgq쎀쎯➤iy쎯mm쎯	-10.5379
afuo쎀쎯	-10.5379
xrh쎀쎯fkd쎯	-10.5384
anb쎀쎯sy쎯゙	-10.5391
ὐ	-10.5393
rwyg쎀쎯ϊ	-10.5395
yop쎯lagg쎯	-10.5395
oqdo쎯혹zzdx쎁쎁쎯	-10.5399
iy쎯mm쎯gnn쎀쎯bynn쎯	-10.54
ು	-10.5401
iepc쎯ynwm쎀쎯ɒɒ	-10.5401
ydcy쎯tdko쎯	-10.5402
lfon쎃쎯	-10.5405
zzbd쎂쎯klle쎯wnx쎯	-10.5407
f쎯yy쎯aeef쎁쎯yqj쎯	-10.5409
בofdj쎯skkn쎁쎯	-10.541
)qmy쎁쎯	-10.541
dskc쎂쎯wgkw쎃쎯	-10.5413
py쎯aq쎯yygy쎯je쎯	-10.5419
aecn쎯sgyb쎀쎯	-10.5421
pybn쎯ô	-10.5421
징ukqb쎀쎯	-10.5426
wy	-10.5426
ต	-10.5428
Ąaecn쎯iy쎯mm쎯	-10.5431
쀊iawk쎁쎯zzbd쎂쎯	-10.5431
חqtnx쎯	-10.5436
lpk쎀쎯qwnd쎯	-10.5436
fnx쎯	-10.5437
ydcy쎯wfj쎁쎯	-10.5438
nwjh쎀쎯adn쎯	-10.5438
fct쎯	-10.5444
dic쎯lccc쎃쎯	-10.5445
w쎯n쎯mqyl쎯	-10.5445
anwu쎯ayec쎯	-10.5445
sfgn쎯zzdx쎉쎯	-10.5447
qvln쎁쎯iepc쎯juk쎯	-10.545
utbd쎯	-10.5452
qfdj쎯ɧ	-10.5454
ypqn쎯ypqn쎯	-10.5454
⧢	-10.5454
umqy쎯ẗ	-10.5455
akkw쎁쎯hay쎯	-10.5456
sjfh쎯ő	-10.5458
qipr쎯ֻ┯	-10.5458
xyxw쎁쎯택	-10.546
oopm쎀쎯┯・judb쎁쎯	-10.5463
wfil쎀쎯kccc쎯oqdo쎯	-10.5465
vny쎀쎯syp쎯	-10.547
qfh쎁쎯lv쎯	-10.5471
nwjh쎀쎯iqaw쎯	-10.5475
jrif쎯ĵ	-10.5476
qvln쎁쎯ctrt쎯	-10.5477
nvk쎯jiqn쎂쎯ֻ	-10.5477
wgmy쎃쎯	-10.5478
잡	-10.5485
fjqn쎁쎯teae쎯ayec쎯	-10.5486
msv쎯wfcj쎯	-10.5487
mfd쎂쎯ằ	-10.5488
fyjf쎁쎯	-10.5488
qtdj쎁쎯	-10.5489
edjn쎯xxn쎀쎯	-10.5491
qvln쎁쎯료	-10.5491
iuyy쎯qkhk쎯	-10.5493
qkhk쎯zzbd쎂쎯	-10.5494
eejf쎀쎯Ą	-10.5497
ugki쎁쎯	-10.5501
qtgo쎁쎯	-10.5501
fff쎀쎯mci쎀쎯	-10.5501
qudk쎁쎯	-10.5501
zzde쎁쎉쎯nutg쎯	-10.5503
mci쎀쎯zzbd쎂쎯	-10.5504
쎄	-10.5505
sam쎯jtfp쎁쎯	-10.5508
xudb쎀쎯쎂쎀쎀쎅rh쎯	-10.551
iy쎯mm쎯jued쎀쎯	-10.5512
rwyg쎀쎯rvln쎯	-10.5513
yfy쎀쎯	-10.5516
kr쎯jthf쎀쎯	-10.552
oqdo쎯쎂eee쎀쎯efcb쎯	-10.5521
yntm쎂쎯최	-10.5521
ขooqh쎁쎯	-10.5522
xdjf쎀쎯cbto쎃쎯	-10.5527
qvln쎁쎯oope쎁쎯juk쎯	-10.5531
dhdl쎁쎯tebl쎯	-10.5532
iepc쎯qvln쎁쎯ɒɒ	-10.5538
wdj쎯yhk쎯	-10.5538
dic쎯wsdn쎯rtfh쎀쎯	-10.5539
cccs쎃쎯	-10.5542
iy쎯mm쎯슨ua쎯zzbd쎂쎯	-10.5542
슈iy쎯mm쎯zzdx쎁쎁쎯	-10.5542
č	-10.5547
dtr쎯	-10.5547
udb쎀쎯qgiy쎁쎯ayec쎯	-10.5551
ntas쎯crqc쎯	-10.5553
xxf쎯og쎯tvfh쎁쎯	-10.5554
ussi쎁쎯막iy쎯mm쎯	-10.5556
adwd쎀쎯	-10.5558
pyfk쎀쎯	-10.5566
zzbd쎂쎯aecn쎯kpvg쎯	-10.5566
xjnt쎯뼉	-10.557
iuyy쎯xjx쎯	-10.557
rs쎯tfkp쎀쎯lv쎯	-10.5572
ncrh쎯	-10.5574
ŷ	-10.5576
rkm쎯rkm쎯	-10.5582
rqcc쎀쎯ᦆiwgw쎁쎯	-10.5583
qwyn쎁쎯kr쎯	-10.5586
ifcl쎯iqaw쎯	-10.5588
mbh쎂쎯	-10.5588
fefy쎯qgvb쎯	-10.5589
މyssj쎂쎯	-10.559
ᐤ	-10.5591
esf쎯	-10.5592
apdi쎯dpgh쎯	-10.5593
nhw쎯	-10.5596
sjfh쎯qyc쎯	-10.5602
wvgw쎄쎯f쎯yy쎯	-10.5603
qn	-10.5604
duvo쎀쎯namy쎀쎯	-10.5604
mqjh쎀쎯uepc쎁쎯	-10.5605
qoce쎀쎯쀊iy쎯mm쎯	-10.5607
zzbd쎂쎯시qrgk쎯	-10.5609
ᠢiy쎯mm쎯	-10.5609
ugd쎂쎯tejh쎀쎯	-10.561
ʤuxxo쎀쎯	-10.5614
ssu쎯cmg쎁쎯	-10.5615
ɒoope쎁쎯	-10.5615
ރxtnn쎀쎯	-10.5618
l쎀쎯	-10.5623
qvln쎁쎯qvln쎁쎯juk쎯	-10.5625
xflm쎯	-10.5625
ypqn쎯ypqn쎯ypqn쎯	-10.5625
iy쎯mm쎯tlnf쎯aecn쎯	-10.5634
vpns쎯ua쎯	-10.5635
ᨣnvk쎯tlnf쎯u쎯kkk쎯	-10.5636
oqdo쎯iepc쎯ẩ	-10.5637
jyim쎀쎯	-10.5638
qsyy쎯	-10.5644
td	-10.5645
fnu쎀쎯	-10.5648
ywgu쎯anw쎯	-10.5656
mgt쎯qrj쎯	-10.5663
iy쎯mm쎯	-10.567
iaah쎯hako쎯vcao쎁쎯	-10.567
qvln쎁쎯duvo쎀쎯yqj쎯	-10.5671
ᨣbuah쎀쎯aha쎯	-10.5672
Ĉtejh쎀쎯	-10.5673
kwyc쎀쎯rkk쎯wt쎯	-10.5674
!dujf쎂쎯	-10.5676
iepc쎯ɒwfcj쎯	-10.5678
kr쎯jtfp쎁쎯	-10.568
rnbt쎯dmjn쎃쎯	-10.5681
qmy쎁쎯Ĉế	-10.5681
type쎯	-10.5682
qenh쎯ꔖ	-10.5685
wpgm쎯	-10.5685
uduw쎀쎯	-10.5687
fgu쎯an쎯lwj쎯	-10.5693
zzxx쎀쎯efcb쎯	-10.5693
aw쎯	-10.5693
qrj쎯lagg쎯	-10.5697
inpl쎯fff쎀쎯iy쎯mm쎯	-10.57
┯nkuo쎀쎯sgfl쎀쎯	-10.5702
bgfn쎯	-10.5705
왜ngig쎯	-10.5705
며qwyn쎁쎯	-10.5707
mtfk쎀쎯zzxx쎄쎯	-10.5708
zzdx쎉쎯qwnd쎯	-10.5709
ẩxgfh쎀쎯	-10.5711
yfh쎀쎯	-10.5712
mci쎀쎯oqdo쎯	-10.5719
zzbd쎂쎯aeef쎁쎯dic쎯	-10.572
yqqe쎯fnx쎯	-10.5721
pwsu쎁쎯anud쎯	-10.5723
zzbd쎂쎯ytbp쎀쎯tak쎯	-10.5725
iy	-10.5726
wgmy쎀쎯ssss쎀쎯å	-10.5728
ẩrrrj쎯cbtc쎀쎯	-10.5729
jtn쎯	-10.5731
eef쎀쎯	-10.5732
qtnx쎯wgkw쎃쎯	-10.5734
ɒfkuh쎀쎯å	-10.5739
kbg쎀쎯	-10.5739
gdwh쎯	-10.574
qcrh쎯kpvg쎯	-10.5742
qenh쎯dee쎯쀊	-10.5747
afuo쎀쎯ktr쎯iy쎯mm쎯	-10.5748
iudi쎀쎯vbs쎯	-10.5748
wgmy쎀쎯რ	-10.5753
iawk쎁쎯hlqc쎀쎯	-10.5761
khpj쎯oqdo쎯	-10.5764
kfpb쎯	-10.5766
fff쎀쎯tkkf쎀쎯	-10.5767
어qsfi쎯fff쎀쎯tlnf쎯	-10.5769
yqj쎯qwyn쎁쎯avyn쎯	-10.5769
wfj쎁쎯vevg쎁쎯	-10.5769
vpns쎯tdp쎯რ	-10.577
2	-10.577
evwo쎀쎯wdj쎯	-10.5773
ajdh쎯qgvb쎯	-10.5775
gh쎯	-10.578
fgu쎯texd쎀쎯hlqc쎀쎯	-10.578
qtme쎯ijl쎯	-10.578
ix쎯wgif쎯މeua쎯	-10.5783
ghd쎁쎯tkw쎯se쎯	-10.5784
ʋqgvb쎯	-10.5784
މ҉iy쎯mm쎯	-10.5786
nlll쎯	-10.5787
gm	-10.5791
є	-10.5792
dwgg쎯	-10.5796
extb쎯	-10.5797
vadt쎯zzdx쎁쎁쎯	-10.5803
vpm쎯	-10.5803
vfj쎁쎯zzxe쎉쎯	-10.5804
smg쎯	-10.5804
wuh쎀쎯fgu쎯adn쎯	-10.5807
vh쎯	-10.5809
dmjd쎀쎯ypqn쎯	-10.5811
qnu쎁쎯	-10.5811
zzzy쎂쎯	-10.5811
bkcb쎯smg쎯dssn쎀쎯민	-10.5812
qkmh쎀쎯	-10.5812
rrrj쎯tnhc쎁쎯	-10.5812
oqdo쎯qfdj쎯	-10.5814
qoht쎀쎯nqdb쎀쎯	-10.5817
akgq쎀쎯yrwe쎯	-10.5818
xey쎀쎯mtfk쎀쎯mci쎀쎯	-10.582
difc쎯orh쎁쎯	-10.5826
yjdg쎯rdgt쎁쎯	-10.5832
Ďvwyo쎯zzbd쎂쎯	-10.5835
ờumqy쎯	-10.5839
rham쎃쎯xukq쎀쎯	-10.584
lpk쎀쎯puwj쎀쎯	-10.5842
qvln쎁쎯msv쎯wgkw쎃쎯	-10.5842
w쎯n쎯mgji쎀쎯	-10.5845
md쎯lagg쎯	-10.5846
aept쎯yi쎯	-10.5846
ydcy쎯uh쎯	-10.5848
xqrn쎀쎯waqj쎯	-10.5848
ľ	-10.585
sgxe쎯iawk쎁쎯	-10.585
sgwo쎯ua쎯	-10.5853
ydcy쎯tyke쎂쎯	-10.5854
afpa쎯qug쎀쎯iy쎯mm쎯	-10.5854
(auj쎯	-10.5855
slli쎯fn쎯	-10.5857
cck쎯judb쎁쎯wgif쎯भ	-10.5859
sjfh쎯osjh쎁쎯	-10.586
fff쎀쎯ca쎯	-10.5861
tgu쎯lrw쎯	-10.5862
krc쎯	-10.5864
llld쎁쎯	-10.5865
wsdn쎯jtfp쎁쎯	-10.5866
ֻfhit쎀쎯	-10.5866
Ĉjiqn쎂쎯iy쎯mm쎯	-10.5867
qowa쎀쎯	-10.5869
by쎯fpgo쎀쎯vbs쎯	-10.5869
Ķaecn쎯qwnd쎯	-10.587
qvln쎁쎯ɒɒiepc쎯wg	-10.587
ᦆbuah쎀쎯	-10.5875
awwo쎁쎯	-10.5877
რhg쎯	-10.5878
qmy쎁쎯〔ywx쎯	-10.5882
tejh쎀쎯태	-10.5884
gag쎯რiy쎯mm쎯	-10.5886
zzbd쎂쎯dfsh쎯	-10.5895
stdk쎁쎯	-10.5896
ytol쎁쎯	-10.5899
rqcc쎀쎯jtn쎯	-10.59
wgkw쎃쎯iy쎯mm쎯	-10.5901
tyke쎁쎯	-10.5903
g쎁쎯	-10.5907
amwq쎀쎯	-10.5908
gkjg쎯메	-10.5909
ewwb쎯wfj쎁쎯	-10.5911
sudk쎯tpw쎯zzdx쎁쎁쎯	-10.5912
udqg쎁쎯	-10.5916
guj쎯texd쎀쎯	-10.5918
adkn쎯lftj쎯	-10.5921
aqj쎯kwye쎀쎯skkn쎁쎯	-10.5924
ĈƲ	-10.5928
etfp쎀쎯iepc쎯	-10.5929
ayec쎯cep쎯fp쎯민	-10.5939
juk쎯tdko쎯zzbd쎅쎯	-10.594
┒	-10.594
tegf쎀쎯✦	-10.5943
ydcy쎯oue쎯	-10.5943
wpde쎁쎯fff쎀쎯	-10.5944
ywgj쎄쎯qsyy쎯ẩ⎯	-10.5945
tehl쎀쎯kkbh쎯	-10.5945
lpk쎀쎯jgmv쎯	-10.5945
akgq쎀쎯➤	-10.5947
ydcy쎯fujh쎯	-10.5953
iepc쎯dftx쎯wgkw쎃쎯	-10.5954
fcp쎯tf쎯	-10.5957
fooy쎯wynj쎁쎯	-10.5958
fnx쎯gag쎯	-10.5959
ufwq쎯	-10.5959
zzbd쎂쎯sam쎯	-10.596
igk쎯	-10.5963
wuh쎀쎯iawk쎁쎯	-10.5966
y쎯wtf쎯	-10.5966
msv쎯ɒwgkw쎃쎯qenh쎯	-10.5967
ua쎯qenh쎯iy쎯mm쎯	-10.5969
qay쎁쎯snij쎯	-10.597
msv쎯iqas쎀쎯rqct쎁쎯	-10.5971
itky쎯⟩adn쎯	-10.5972
qfh쎁쎯whw쎯	-10.5972
jued쎀쎯jytb쎁쎯	-10.5974
smnn쎯	-10.5974
(iepc쎯msv쎯	-10.5975
qvln쎁쎯dftx쎯juk쎯	-10.5976
igec쎯dujf쎂쎯	-10.5976
cfh쎯ygq쎯fcbh쎁쎯	-10.5977
ukf쎁쎯gkhj쎁쎯	-10.5977
tdhd쎯	-10.5978
qkty쎯Ȏ	-10.5979
뼉jcf쎯	-10.5981
vxx쎯	-10.5981
tfff쎁쎯qlqj쎁쎯	-10.5982
xrh쎀쎯	-10.5983
jtjs쎯	-10.5984
waqj쎯mumj쎯vevg쎁쎯	-10.5985
vevg쎁쎯며adn쎯	-10.5987
rqcc쎀쎯uh쎯	-10.5989
temq쎀쎯	-10.599
abue쎯qlqj쎁쎯	-10.5993
fhuw쎯ctrt쎯	-10.5993
aecn쎯Ąmci쎀쎯	-10.5996
rysd쎯	-10.5997
쎃쎅qwyn쎁쎯	-10.5997
ymko쎀쎯sqoj쎯	-10.5998
kfl쎯┯	-10.6
rs쎯tfkp쎀쎯adn쎯	-10.6002
xudb쎀쎯ẩ	-10.6009
djj쎯	-10.6013
qipr쎯mumj쎯	-10.6015
hlqc쎀쎯fkhp쎀쎯jqu쎯	-10.6016
cm쎯	-10.6018
iy쎯mm쎯sgxe쎯슨	-10.6018
쏅ntas쎯	-10.602
בાbkcb쎯smg쎯	-10.6021
klag쎯	-10.6024
xrh쎀쎯fnff쎁쎯	-10.6025
kmwj쎯ֻĎvwyo쎯	-10.6026
mqdb쎁쎯	-10.6029
sqoj쎯Ą	-10.6029
ֻwym쎯	-10.603
ɒtyvk쎁쎯	-10.6031
tpe쎯kpvg쎯	-10.6033
zzbd쎂쎯Ἴŗ	-10.6034
iy쎯mm쎯ydcy쎯cffq쎯	-10.6039
ude쎯	-10.604
oqdo쎯iawk쎁쎯kpvg쎯	-10.6045
nvk쎯nvk쎯oqdo쎯	-10.6049
민oqdo쎯	-10.6051
crqc쎯dpgh쎯	-10.6051
anwu쎯xudb쎀쎯	-10.6052
uwlo쎯apdi쎯	-10.6052
슨ydcy쎯	-10.6054
syp쎯iafl쎀쎯	-10.6056
cffq쎯ஜ	-10.6057
ljlg쎁쎯zzdx쎁쎁쎯	-10.606
oqdo쎯슨ua쎯	-10.606
iepc쎯msv쎯uqt쎯js쎯	-10.6062
aivs쎁쎯	-10.607
tebl쎯	-10.6071
wrh쎂쎯yygy쎯je쎯ẩ	-10.6072
zzbd쎂쎯vqmy쎯	-10.6072
ww쎯gk쎯yaf쎯	-10.6074
qgog쎯	-10.6076
nwjh쎀쎯wgkw쎃쎯ae	-10.6079
cn쎯ooqh쎁쎯zzjp쎁쎅쎯	-10.6081
qwnd쎯hako쎯ᆞ	-10.6085
jwhs쎯	-10.6085
ryty쎁쎯qoep쎯	-10.6086
ฌxflm쎯ahnl쎂쎯	-10.6089
fhqd쎀쎯	-10.609
gk쎯	-10.6097
vdf쎀쎯gkm쎯	-10.6099
wtfh쎁쎯tpw쎯	-10.6099
bkcb쎯smg쎯iy쎯mm쎯	-10.6102
cks쎯tejh쎀쎯xf쎯sq쎯	-10.6103
jrif쎯suog쎯	-10.6103
qipr쎯ctrt쎯	-10.6103
wuh쎀쎯qkty쎯	-10.6104
avyn쎯wmcy쎯qyiy쎀쎯	-10.6107
ydcy쎯dpgh쎯	-10.611
qoep쎯iy쎯mm쎯	-10.6115
〔ywx쎯kpvg쎯	-10.6117
oqdo쎯fooy쎯	-10.612
fff쎀쎯nwjh쎀쎯	-10.612
ષ민	-10.6122
wpwk쎀쎯	-10.6125
yam쎯qtvq쎁쎯	-10.6127
zzbd쎂쎯zzdx쎁쎁쎯슈	-10.6128
vuaj쎯	-10.6132
ltkg쎀쎯mtfk쎀쎯	-10.6133
fpwo쎀쎯민	-10.6137
ckn쎯afan쎀쎯	-10.6138
jmh쎯╂	-10.6139
ybo쎯xylg쎯	-10.6139
xqay쎀쎯qgig쎁쎯	-10.6145
zzbd쎂쎯ᨣwaqj쎯	-10.6148
qipr쎯ֻcep쎯fp쎯민	-10.6149
gkkk쎀쎯	-10.6151
준ષ	-10.6152
vfho쎀쎯	-10.6152
gag쎯dssn쎀쎯adn쎯	-10.6157
dssn쎀쎯nufh쎀쎯	-10.6159
ga쎯nae쎀쎯obn쎯	-10.616
בip쎯nu쎯tmdq쎁쎯등	-10.6161
ufn쎯mtfk쎀쎯	-10.6165
iugy쎀쎯puyg쎯	-10.6168
aj쎯	-10.6171
dmjd쎀쎯åɒ	-10.6176
ryty쎀쎯	-10.6177
gmye쎁쎯jwfy쎯	-10.6179
tlnf쎯aecn쎯iy쎯mm쎯	-10.6181
iepc쎯iepc쎯juk쎯	-10.6182
ijgf쎀쎯wfil쎀쎯	-10.6183
puyg쎯ાkmwj쎯ֻ	-10.6183
jcf쎯vwyo쎯kpvg쎯	-10.6184
qoak쎁쎯	-10.6186
plpk쎯	-10.6186
mhgh쎀쎯	-10.6187
aecn쎯Ąkmwj쎯ֻ	-10.619
mh	-10.6192
wsdn쎯hnhg쎯	-10.6193
⎯qwyn쎁쎯kbf쎀쎯	-10.6193
륵gmw쎯	-10.6195
nwjh쎀쎯qtnx쎯┯	-10.62
qwyn쎁쎯qgvb쎯of쎯	-10.6202
릿zzdx쎉쎯	-10.6203
iepc쎯fkuh쎀쎯dftx쎯	-10.6205
kdhv쎯kypm쎯	-10.6205
zzbd쎂쎯ewgu쎯	-10.6206
qovh쎀쎯aeef쎁쎯	-10.6207
aeef쎁쎯ydje쎀쎯	-10.6207
atkf쎀쎯texd쎀쎯	-10.6216
ijgf쎀쎯რ	-10.6217
nhdr쎀쎯dcg쎯	-10.622
Ďapdi쎯	-10.622
Įfooy쎯qer쎯afdp쎀쎯	-10.6222
qwnd쎯zzjp쎃쎅쎯	-10.6226
iepc쎯uqt쎯js쎯juk쎯	-10.6226
k쎁쎯	-10.6226
qta쎯zzdx쎁쎁쎯	-10.6227
ẩtebl쎯	-10.623
웠	-10.623
xrh쎀쎯sgfl쎀쎯	-10.623
ltkf쎀쎯	-10.6231
qenh쎯dee쎯wjgr쎀쎯	-10.6236
tebl쎯oue쎯smg쎯	-10.6239
awxx쎯qtnx쎯	-10.6239
qvln쎁쎯awxx쎯	-10.624
wgif쎯भqsyy쎯	-10.624
ywgj쎄쎯mnwe쎀쎯	-10.6241
qwyn쎁쎯jatn쎀쎯	-10.6243
aecn쎯Ąafuo쎀쎯ktr쎯	-10.6244
wtff쎁쎯쀊yfq쎯kgo쎯	-10.6246
nvk쎯mumj쎯	-10.6247
ynah쎁쎯Ąsgfl쎀쎯	-10.6247
lfon쎂쎯	-10.625
ai쎯yntm쎂쎯	-10.6251
rujg쎀쎯	-10.6255
ljlg쎁쎯wdj쎯	-10.6256
lccc쎃쎯zzbd쎂쎯	-10.6259
kaqt쎀쎯rymn쎯	-10.6262
ᨣidg쎀쎯	-10.6264
rqcc쎀쎯kwye쎀쎯	-10.6264
〔ywx쎯ẩ	-10.6264
xuv쎯	-10.6266
➤iawk쎁쎯kpvg쎯	-10.6267
tmdf쎁쎯ς	-10.6268
ghd쎁쎯dssn쎀쎯	-10.6272
rlqj쎀쎯	-10.6274
ȓ제	-10.6276
ptkm쎁쎯r쎯v쎯nae쎀쎯	-10.6279
gajl쎯cep쎯fp쎯	-10.628
wfny쎀쎯	-10.6282
ᨣaha쎯hlqc쎀쎯	-10.6283
meua쎀쎯fcbh쎁쎯	-10.6284
qwyn쎁쎯oguc쎀쎯	-10.6287
llld쎀쎯sghg쎁쎯fm쎯	-10.6287
qgiy쎁쎯쀊	-10.6291
idgt쎀쎯qtdd쎀쎯	-10.6293
qipr쎯tlnf쎯ghnu쎀쎯	-10.6293
pyv쎯	-10.6295
dmjd쎀쎯fkuh쎀쎯ɒ	-10.6297
fff쎀쎯xflm쎯	-10.6299
qtfm쎁쎯혹	-10.6303
sfgn쎯jatn쎀쎯	-10.6305
twu쎯syp쎯	-10.6305
lpk쎀쎯dic쎯	-10.6307
ewwb쎯제	-10.631
fjvw쎯tldt쎀쎯	-10.631
ywgu쎯	-10.6311
hp쎯	-10.6317
cep쎯fp쎯민ayec쎯zz	-10.6317
yaq쎯	-10.6318
iuyy쎯smg쎯tlnf쎯	-10.6318
iwwg쎯	-10.6319
erh쎯difc쎯	-10.632
afuo쎀쎯by쎯iy쎯mm쎯	-10.6321
rqcc쎀쎯ᦆgag쎯	-10.6326
ydcy쎯yhk쎯	-10.6327
ᆞqlqj쎁쎯	-10.6327
jrif쎯ktr쎯	-10.6328
ptol쎁쎯	-10.6331
qgvb쎯of쎯	-10.6334
zzbd쎂쎯tfqb쎁쎯	-10.6334
iy쎯mm쎯mci쎀쎯	-10.6335
ljlg쎁쎯smg쎯	-10.6335
dfny쎁쎯odm쎯	-10.6336
npwa쎀쎯tfqb쎁쎯	-10.6338
qfdj쎯idg쎀쎯	-10.634
zzbd쎂쎯thgc쎀쎯	-10.6341
iafl쎀쎯⟩	-10.6344
lfci쎯nhdv쎁쎯	-10.6345
qmy쎁쎯bkcb쎯smg쎯	-10.6346
ydcy쎯wgmy쎀쎯	-10.6346
fujh쎯	-10.6351
qmwy쎁쎯oguc쎀쎯	-10.6352
Ί꼬	-10.6355
ffff쎂쎯gajl쎯	-10.6355
dsjh쎯qsyy쎯	-10.6357
̇fff쎀쎯	-10.6357
ै	-10.6362
w쎀쎯	-10.6364
jgd쎀쎯iy쎯mm쎯	-10.6365
apr쎯dpgg쎯	-10.6365
ydcy쎯hh쎯	-10.6366
qtfm쎁쎯	-10.6366
djg쎯issj쎯	-10.6366
fpo쎯btfn쎀쎯qipr쎯ֻ	-10.6367
uwgk쎂쎯	-10.637
wcng쎯fth쎯	-10.6372
gjho쎯	-10.6373
ᠴ	-10.6373
aecn쎯xqi쎯	-10.6374
iss쎯	-10.6375
ydcy쎯juk쎯	-10.6375
iy쎯mm쎯왜fkkv쎀쎯	-10.6375
wtfh쎀쎯tvfh쎁쎯	-10.6376
q쎯	-10.6376
rwp쎯zzdx쎉쎯	-10.6378
zzde쎁쎉쎯Į	-10.6384
iepc쎯ɒqvln쎁쎯	-10.6384
iudi쎀쎯wgkw쎃쎯	-10.6386
iepc쎯dftx쎯juk쎯	-10.6387
ugd쎂쎯qfdj쎯	-10.6395
iy쎯mm쎯・judb쎁쎯	-10.6402
mhtl쎯fpgo쎀쎯	-10.6403
uqt쎯js쎯dssn쎀쎯	-10.6404
skgv쎯qqyy쎀쎯	-10.6405
rrrj쎯jtfp쎁쎯	-10.6406
mqyl쎯syp쎯	-10.6408
duvo쎀쎯ynwm쎀쎯juk쎯	-10.641
kwyc쎀쎯rqct쎁쎯	-10.641
tawt쎯ahnr쎀쎯	-10.6411
uuk쎁쎯Ĉiy쎯mm쎯	-10.6413
zzbd쎂쎯glp쎯	-10.6415
zzy쎀쎯	-10.6419
Ĉqqyy쎀쎯	-10.6419
jfwo쎯mhtl쎯	-10.6419
rqcc쎀쎯ᦆawwp쎯fth쎯	-10.6423
ujfj쎀쎯청	-10.6425
ayc쎯	-10.6427
umau쎯xjx쎯jgd쎀쎯	-10.6431
agi쎯nqdb쎀쎯zzbd쎂쎯	-10.6432
msv쎯ɒɒɒ	-10.6432
ds쎯	-10.6433
zzbd쎂쎯edjn쎯	-10.6434
hako쎯of쎯ukd쎁쎯	-10.6438
sudk쎯tldt쎀쎯	-10.6439
itte쎯	-10.6439
zzbd쎂쎯ww쎯gk쎯fnx쎯	-10.644
wc쎯jfd쎯,	-10.6442
kbf쎀쎯kr쎯	-10.6446
qmy쎁쎯qgvb쎯xudb쎀쎯	-10.6446
lktn쎯trch쎯	-10.6447
gjho쎯wfk쎯	-10.645
⋯	-10.6451
뼉efcb쎯	-10.6455
zzbd쎂쎯qsfi쎯erh쎯	-10.6456
towo쎀쎯dnku쎀쎯	-10.6456
를	-10.6457
wfj쎁쎯➤	-10.6457
afqb쎁쎯qbhf쎯	-10.6458
cck쎯judb쎁쎯〔ywx쎯	-10.6458
vdeg쎀쎯,ukd쎁쎯	-10.6458
qug쎀쎯oqdo쎯	-10.6458
ả민	-10.646
zzts쎄쎯	-10.6462
bqrn쎀쎯	-10.6464
qvln쎁쎯åwgkw쎃쎯	-10.6465
akgq쎀쎯itky쎯kpvg쎯	-10.6468
qorc쎀쎯oqdo쎯	-10.647
twic쎀쎯ẩ	-10.6473
qyiy쎀쎯yygy쎯je쎯	-10.6477
뽀qgn쎯	-10.6478
ẩẩẩ	-10.6478
qm쎯gmu쎁쎯	-10.6479
ie쎯	-10.648
ydm쎯akgq쎀쎯wfil쎀쎯	-10.6482
cux쎯	-10.6483
oqdo쎯혹ajqg쎯	-10.6484
בofdj쎯cck쎯judb쎁쎯	-10.6487
ofdj쎯kr쎯ith쎯xe쎯	-10.6488
w쎃쎯tmdf쎁쎯ielf쎀쎯n	-10.649
ฌhqqq쎯	-10.649
juk쎯zzts쎁쎈쎯	-10.6491
fpo쎯쀊qwyn쎁쎯	-10.6496
alkf쎀쎯fudk쎯oqdo쎯	-10.6499
dftx쎯dftx쎯wgkw쎃쎯	-10.6502
vffn쎂쎯afdp쎀쎯	-10.6503
zzsx쎁쎃쎯cqyy쎯	-10.6505
vfj쎀쎯fpo쎯	-10.6517
ŗމiy쎯mm쎯	-10.6517
ᠢzzbd쎂쎯	-10.6525
qbh쎄쎯vevg쎁쎯	-10.6527
aigy쎯qoht쎀쎯	-10.6527
mpf쎯an쎯lwj쎯	-10.653
qtvq쎁쎯ix쎯	-10.6532
zzjp쎃쎈쎯tfnq쎂쎯	-10.6532
ᨣawwp쎯	-10.6533
wduh쎯	-10.6534
jytb쎁쎯hal쎯	-10.6536
iuog쎯	-10.654
tldt쎀쎯adn쎯	-10.6542
qued쎀쎯	-10.6544
wsdn쎯tnhc쎁쎯	-10.6546
puyg쎯qouq쎀쎯	-10.6547
zzbd쎄쎯	-10.6549
sjfh쎯dpgg쎯	-10.655
어qeg쎀쎯	-10.6553
fpgc쎁쎈쎯직lyn쎯tfl쎯	-10.6553
yjdg쎯lyn쎯fhuw쎯	-10.6555
zzpj쎇쎄쎯qtme쎯	-10.6556
Əxhqn쎯	-10.6558
qvln쎁쎯crqc쎯	-10.6559
vgnw쎁쎯	-10.6563
cmg쎁쎯ugi쎯	-10.6564
rn	-10.6565
b쎁쎯	-10.6566
ljlg쎁쎯y쎯s쎯	-10.6568
rkk쎯wt쎯wjgr쎀쎯┯	-10.6569
징dssn쎀쎯	-10.6571
wpn쎯da쎯dk쎯	-10.6571
sdht쎁쎯fkd쎯bkcb쎯	-10.6573
헬쀊	-10.6575
ul	-10.6575
kr쎯afdp쎀쎯	-10.6576
fjqn쎁쎯xflm쎯oqdo쎯	-10.6581
ddu쎁쎯zzbd쎂쎯	-10.6582
rqcc쎀쎯mpf쎯	-10.6582
uffd쎂쎯	-10.6584
duvo쎀쎯åjuk쎯	-10.6586
dtth쎀쎯➤	-10.6588
fff쎂쎯gajl쎯ntas쎯넸	-10.6589
qsyy쎯zzbd쎂쎯⎯	-10.6592
iudi쎀쎯kkbh쎯	-10.6594
zzbd쎂쎯Պjued쎀쎯	-10.6595
r쎯v쎯nae쎀쎯qwnd쎯	-10.6599
kgjf쎀쎯yygy쎯je쎯	-10.6603
tyxh쎀쎯	-10.6605
qgvb쎯tdp쎯┯	-10.6607
wfcj쎯iepc쎯ɒ	-10.661
sfcy쎁쎯fbh쎀쎯	-10.6611
혹qwnd쎯	-10.6611
qdy쎀쎯iqaw쎯	-10.6613
oqdo쎯fgu쎯ằkpvg쎯	-10.6613
qenh쎯▔	-10.6613
wgif쎯भfpo쎯쀊	-10.6616
emww쎯u쎯kkk쎯	-10.6617
sqqo쎯	-10.6627
ymko쎀쎯Ü	-10.6629
adn쎯ydcy쎯	-10.6633
ofkk쎀쎯wton쎁쎯	-10.6634
wjgr쎀쎯oqdo쎯	-10.6635
afuo쎀쎯ktr쎯zzbd쎂쎯	-10.6638
xtyk쎁쎯xef쎯	-10.6639
deuj쎂쎯	-10.664
며qoep쎯zzbd쎂쎯	-10.6642
dadr쎀쎯	-10.6645
aqkl쎀쎯	-10.6647
oqdo쎯ydcy쎯	-10.665
dee쎯qfdj쎯	-10.665
xufh쎀쎯tnhh쎅쎯	-10.6657
xjx쎯rfnf쎁쎯	-10.6657
tnhc쎁쎯bkcb쎯smg쎯	-10.6659
erh쎯erh쎯	-10.6659
iqas쎀쎯ywx쎯민	-10.666
snih쎯iepc쎯	-10.6661
wfj쎁쎯omdy쎯	-10.6661
xflm쎯ryg쎯	-10.6664
atgf쎁쎯	-10.6664
yjs쎯tkgg쎁쎯khjf쎀쎯	-10.6665
egey쎀쎯itky쎯	-10.6666
qm쎯gmu쎁쎯rnp쎯	-10.667
fkuh쎀쎯ɒå	-10.6671
wton쎀쎯aga쎯	-10.6676
tlnf쎯tlnf쎯jlff쎀쎯	-10.6678
މadn쎯tkw쎯se쎯	-10.6679
nutg쎯ith쎯xe쎯	-10.6681
jfwo쎯	-10.6681
yygy쎯je쎯ijlc쎯	-10.6681
rqcy쎀쎯qttf쎀쎯	-10.6685
zzjp쎁쎅쎯dssn쎀쎯	-10.6685
iqas쎀쎯sfcy쎁쎯gag쎯	-10.6686
iqas쎀쎯awwo쎀쎯	-10.6687
wynb쎀쎯yy쎯	-10.6688
kpvg쎯ftux쎯	-10.669
qwy쎀쎯	-10.6691
iepc쎯oope쎁쎯juk쎯	-10.6692
슨jued쎀쎯	-10.6697
adn쎯dssn쎀쎯	-10.6698
soyc쎯jymk쎀쎯	-10.67
fgu쎯vcbo쎀쎯	-10.67
oqdo쎯	-10.67
wyvk쎅쎯	-10.6701
yjdg쎯kdhv쎯zzbd쎂쎯	-10.6702
sbkg쎀쎯ẩ	-10.6703
cfh쎯jlc쎯	-10.6706
qorc쎀쎯qorc쎀쎯	-10.6707
qgvb쎯yssj쎂쎯	-10.6709
ypqn쎯iepc쎯oope쎁쎯	-10.6711
pugi쎀쎯shhy쎯	-10.6711
iawk쎁쎯tebl쎯	-10.6712
xxf쎯og쎯vevg쎁쎯	-10.6712
ntas쎯lv쎯	-10.6712
nhde쎁쎯	-10.6713
zzdx쎁쎁쎯fn쎯	-10.6715
vpns쎯bfkg쎯	-10.6715
ukf쎁쎯Ķ	-10.6716
iuyy쎯ֻbkcb쎯smg쎯	-10.6717
콕iawk쎁쎯tkw쎯se쎯	-10.6718
hka쎯qv쎯	-10.6721
adua쎯yqge쎁쎯	-10.6723
wgkw쎃쎯asff쎁쎯	-10.6728
ฌmqjh쎀쎯	-10.6731
dhq쎯aujf쎀쎯	-10.6731
ipwk쎀쎯wsdn쎯	-10.6732
┯	-10.6732
Ĉếghd쎁쎯ocyj쎯	-10.6733
iepc쎯oope쎁쎯åmsv쎯	-10.6733
މby쎯zzbd쎂쎯	-10.6734
ojgh쎁쎯cbto쎃쎯	-10.6737
sam쎯hnhg쎯	-10.6738
xdey쎯	-10.6739
qta쎯dssn쎀쎯	-10.6741
dssn쎀쎯zzbd쎂쎯x	-10.6743
qqky쎀쎯mfkp쎯weh쎯	-10.6743
valg쎯	-10.6743
슈xtbb쎯	-10.6744
yah쎯청wjgr쎀쎯	-10.6744
iy쎯mm쎯fnw쎯fhit쎀쎯	-10.6745
qtay쎀쎯	-10.6745
oope쎁쎯ɒqorc쎀쎯	-10.6746
ynm쎯xln쎁쎯	-10.6747
ntas쎯넸	-10.6752
qgig쎁쎯pyld쎁쎯	-10.6755
iy쎯mm쎯smg쎯mtje쎃쎯	-10.6759
zzbd쎁쎯yynw쎁쎯	-10.6761
zzde쎃쎯ahnl쎂쎯ȓ	-10.6763
yjdg쎯kruf쎯iy쎯mm쎯	-10.6763
yd쎯	-10.6765
묶	-10.6766
fcvy쎯xrh쎀쎯	-10.6768
yufe쎯ghnn쎀쎯	-10.6771
쎁쎉쎉쎉rh쎯dv쎯	-10.6772
fff쎀쎯kpvg쎯	-10.6772
hkeg쎯	-10.6776
haq쎯rdn쎯	-10.6778
pei쎯n쎯dftx쎯	-10.6782
fpgc쎁쎇쎯	-10.6784
vugd쎯	-10.6784
ybmh쎁쎯btwu쎯	-10.6785
gag쎯qkhk쎯aqkf쎀쎯ֻ	-10.6785
duvo쎀쎯oope쎁쎯juk쎯	-10.6788
kdhv쎯yam쎯	-10.6791
sgxe쎯kruf쎯	-10.6791
iepc쎯dmjd쎀쎯juk쎯	-10.6793
yaah쎁쎯khgh쎂쎯	-10.6795
청jrif쎯	-10.6798
yjdg쎯anw쎯zzbd쎂쎯	-10.68
ᨣfkd쎯rpw쎯rmhj쎯	-10.6804
zzsx쎁쎯iepc쎯	-10.6805
fnw쎯xudb쎀쎯	-10.6807
iepc쎯ɒynwm쎀쎯	-10.6808
yjs쎯tkgg쎁쎯lv쎯	-10.6809
wgke쎀쎯Ąix쎯	-10.6809
rqcc쎀쎯ᦆĄsgfl쎀쎯	-10.681
qoav쎯	-10.6812
yhk쎯fl쎯wf쎯	-10.6813
tpw쎯zzbd쎂쎯	-10.6817
청tdko쎯	-10.6817
ᠢua쎯	-10.6818
itwi쎯xflm쎯	-10.6819
nuk쎀쎯hako쎯	-10.6819
ɒfkuh쎀쎯dftx쎯	-10.6819
್tgk쎯	-10.682
lccc쎃쎯alfw쎯	-10.682
oajj쎀쎯sghg쎂쎯	-10.6823
zzbd쎂쎯쀊adn쎯	-10.6823
nfij쎀쎯	-10.6825
awnu쎁쎯	-10.6826
준	-10.6828
ufte쎯	-10.6829
ỉfere쎯	-10.6829
awxx쎯wym쎯	-10.6833
(pyu쎯	-10.6834
kyxy쎁쎯qwnd쎯waqj쎯	-10.6841
ȃtyke쎂쎯	-10.6841
tebl쎯wgmy쎀쎯	-10.6841
te	-10.6842
tlnf쎯qipr쎯ֻ	-10.6843
kpw쎯	-10.6843
iy쎯mm쎯jiqn쎂쎯adn쎯	-10.6846
bvjs쎀쎯	-10.6846
xrh쎀쎯aah쎀쎯iy쎯mm쎯	-10.6846
dmdf쎀쎯	-10.6846
giv쎯탤	-10.6847
aamf쎯nuk쎀쎯	-10.6847
ajjf쎀쎯	-10.6849
wuh쎀쎯쀊adn쎯	-10.685
tduj쎀쎯ghd쎁쎯	-10.685
axa쎯kpvg쎯	-10.6851
ybj쎯iwcn쎯	-10.6851
itky쎯qwyn쎁쎯	-10.6851
qtyd쎀쎯랄	-10.6851
ihcd쎯	-10.6856
ryqy쎯	-10.6857
zzbd쎂쎯혹ajqg쎯	-10.6863
ydcy쎯xudb쎀쎯gag쎯	-10.6863
〕	-10.6864
adn쎯징sfgn쎯	-10.6865
osjh쎁쎯aga쎯	-10.6872
ɒuqt쎯js쎯wgkw쎃쎯	-10.6873
oopm쎀쎯┯tmgk쎁쎯Ą	-10.6874
adkn쎯	-10.6876
gpd쎀쎯	-10.6879
dmjd쎀쎯kkbh쎯	-10.688
fooy쎯jiqn쎂쎯	-10.6881
akkw쎁쎯	-10.6883
	-10.6885
fere쎯┯	-10.6885
zzbd쎄쎯시qrgk쎯	-10.6886
jf쎯krwy쎯	-10.6887
ghnn쎀쎯tiaw쎀쎯	-10.6889
ɒoope쎁쎯wgkw쎃쎯	-10.6892
tdkb쎀쎯ằ	-10.6903
료fkuh쎀쎯	-10.6904
jfc쎯	-10.6906
kccc쎯zzbd쎂쎯	-10.6906
މsgfl쎀쎯	-10.6913
ʋfooy쎯	-10.6915
며xflm쎯	-10.6916
(iepc쎯oope쎁쎯ɒ	-10.6918
̇wgmy쎀쎯	-10.6924
ẩkr쎯	-10.6925
ςxxf쎯og쎯aecn쎯Ą	-10.6925
Ĉếfefy쎯rblg쎯	-10.6928
dg쎯	-10.693
afuo쎀쎯ktr쎯ghd쎁쎯o	-10.693
ptoq쎯qpgm쎀쎯	-10.693
gmf쎯yaf쎯	-10.693
쀊tkw쎯se쎯	-10.6934
xgli쎯	-10.6935
qbqb쎯wgmy쎀쎯	-10.6935
zzpj쎇쎄쎯yaf쎯	-10.6938
zzdx쎄쎯kxe쎯	-10.6942
뼉ẩ	-10.6943
difc쎯idf쎀쎯┯	-10.6944
҉zzbd쎅쎯	-10.6944
jtn쎯tyke쎂쎯	-10.6945
skg쎯რ	-10.6945
efj쎯	-10.6946
ꁜ	-10.6946
gmfg쎀쎯ddth쎀쎯	-10.695
sam쎯ijgf쎀쎯	-10.6951
kkbh쎯zzbd쎂쎯	-10.6953
nhdj쎀쎯	-10.6953
Ĉaecn쎯iy쎯mm쎯	-10.6953
황	-10.6954
zzjp쎁쎅쎯ix쎯aecn쎯	-10.6955
åiqas쎀쎯rqct쎁쎯	-10.6956
చ	-10.6957
ydcy쎯억	-10.6959
츠iy쎯mm쎯	-10.6962
tlnf쎯ix쎯ufn쎯	-10.6962
wsdn쎯ςith쎯xe쎯	-10.6963
fkeg쎯	-10.6963
itfq쎯jgsy쎯vkcy쎀쎯	-10.6964
zzbd쎂쎯qwfy쎀쎯	-10.6965
oqdo쎯슨ua쎯zzbd쎂쎯	-10.6966
puyg쎯alfw쎯ukd쎁쎯	-10.6971
qug쎂쎯	-10.6973
nvk쎯dssn쎀쎯	-10.6974
dftx쎯oguc쎀쎯ua쎯	-10.6975
tebl쎯tejh쎀쎯	-10.6975
wuh쎀쎯iawk쎁쎯kpvg쎯	-10.6976
tawt쎯dpwi쎯	-10.6977
wqb쎁쎯	-10.6977
Ĉaecn쎯qtfm쎁쎯	-10.6979
ẩavf쎀쎯	-10.6979
며vkb쎯	-10.698
zzdx쎁쎁쎯wfj쎁쎯	-10.6981
징xxe쎯	-10.6982
ftux쎯ua쎯	-10.6984
혹lnav쎯zzdx쎁쎁쎯	-10.6985
wgmy쎀쎯sgwo쎯	-10.6986
uitd쎯wton쎀쎯	-10.6987
iepc쎯fkuh쎀쎯iepc쎯	-10.6987
wpn쎯skkn쎁쎯	-10.6988
hdu쎯	-10.6988
tr	-10.6992
sudk쎯jtjs쎯	-10.6997
nqbt쎂쎯nutg쎯	-10.6997
deqo쎯	-10.7001
uxxn쎁쎯	-10.7002
wgif쎯भyqjg쎯	-10.7004
덕jued쎀쎯	-10.7005
syp쎯zzbd쎂쎯	-10.7005
uvog쎯fff쎀쎯	-10.7006
opf쎯	-10.7006
qwnd쎯	-10.7008
crgg쎀쎯fbh쎀쎯	-10.7009
wtfh쎀쎯ngig쎯	-10.7009
oqdo쎯qfdj쎯	-10.7015
dhim쎀쎯gqt쎯tivf쎯	-10.7015
wvgt쎅쎯	-10.702
ᨣnvk쎯ukd쎁쎯u쎯kkk쎯	-10.702
ewwb쎯vdf쎀쎯	-10.7021
kdhv쎯tlnf쎯	-10.7025
wjai쎯	-10.7026
vq	-10.7026
dujf쎂쎯aha쎯	-10.7026
aecn쎯juk쎯	-10.7028
terc쎯wton쎀쎯	-10.703
iy쎯mm쎯qgn쎯vqqw쎀쎯	-10.7031
fkuh쎀쎯ɒdftx쎯	-10.7032
agmw쎂쎯	-10.7033
iawk쎁쎯gag쎯	-10.7034
yufe쎯nhdi쎀쎯	-10.7036
kqq쎯	-10.7039
cwyg쎁쎯qgig쎁쎯	-10.7042
tdjh쎁쎯	-10.7042
qoce쎀쎯by쎯kpvg쎯	-10.7043
cck쎯alfw쎯	-10.7044
k쎯	-10.7044
bbh쎀쎯	-10.7045
drt쎯kpvg쎯	-10.7045
ghd쎁쎯mci쎀쎯	-10.7045
fkuh쎀쎯ɒiepc쎯	-10.7046
حdfny쎁쎯	-10.7047
ussi쎁쎯막oqdo쎯	-10.7048
wgkw쎃쎯wtfh쎁쎯	-10.7049
fcbh쎁쎯직	-10.7049
wgmy쎀쎯pugi쎀쎯	-10.7053
fhuw쎯	-10.7057
qtfm쎁쎯u쎯kkk쎯	-10.7059
xfpi쎀쎯	-10.7059
kdf쎯	-10.7059
tjwv쎯xtbb쎯jf쎯	-10.7061
ua쎯tdko쎯zzbd쎂쎯	-10.7061
zzbd쎂쎯fgu쎯odm쎯	-10.7061
dhdt쎀쎯	-10.7061
xudb쎁쎯Ďiy쎯mm쎯	-10.7062
aqkn쎯mnmq쎀쎯	-10.7065
zzbd쎅쎯)zzdx쎁쎁쎯	-10.7065
zzbd쎂쎯qmwy쎁쎯	-10.7068
ʀ	-10.7069
oqdo쎯vqmy쎯	-10.707
ɧnutg쎯	-10.707
adn쎯ryty쎁쎯	-10.707
Ցjvip쎀쎯	-10.7071
xfm쎯iwgw쎁쎯	-10.7073
bw쎯qtyd쎀쎯	-10.7073
xxr쎯	-10.7073
tfng쎀쎯	-10.7074
wvey쎯	-10.7075
ca쎯sfgn쎯	-10.7079
zzjp쎁쎅쎯ฌ	-10.7082
fhuw쎯zzbd쎂쎯	-10.7084
ɒawxx쎯qtnx쎯	-10.7085
sjfh쎯llld쎀쎯	-10.709
ჩ	-10.7093
zzbd쎁쎇쎯್	-10.7096
iepc쎯msv쎯ynwm쎀쎯	-10.7097
ydcy쎯owno쎀쎯	-10.7097
uujd쎁쎯xflm쎯	-10.7097
lnav쎯ghd쎁쎯	-10.7102
sqoj쎯ẩ	-10.7103
xfkm쎀쎯직	-10.7104
➤ermg쎯	-10.7105
rnnk쎯	-10.7107
ŗމoqdo쎯	-10.7109
iqas쎀쎯어	-10.711
juk쎯lebf쎯	-10.7111
억jiqn쎂쎯	-10.7113
itwi쎯dpgg쎯	-10.7114
gmf쎯xtbb쎯	-10.7115
auk쎯	-10.7116
iepc쎯ɒfkuh쎀쎯	-10.7116
juk쎯yssj쎂쎯	-10.7118
ukf쎁쎯yntm쎂쎯	-10.7121
p쎀쎯	-10.7121
vfj쎁쎯njqn쎯	-10.7122
temq쎀쎯	-10.7124
aahl쎀쎯sfgn쎯	-10.7126
oue쎯yygy쎯je쎯	-10.7126
ydje쎀쎯zzdx쎁쎁쎯	-10.7128
fpk쎁쎯jnhh쎁쎯adn쎯	-10.7128
xflm쎯qug쎀쎯oqdo쎯	-10.713
▁wc쎯ngk쎯juk쎯	-10.7132
thld쎯wtp쎯	-10.7133
sgxe쎯ስ	-10.7134
gqto쎂쎯	-10.7135
xrh쎀쎯aecn쎯xflm쎯	-10.7136
dmjd쎀쎯ynwm쎀쎯ɒ	-10.7139
	-10.7141
omdy쎯fpo쎯	-10.7145
vadt쎯abv쎯	-10.7147
jjq쎯yvcs쎯	-10.715
crqc쎯넸	-10.715
itx쎯rdc쎯	-10.7154
by쎯pyu쎯	-10.7154
tl쎯며	-10.7157
wfil쎀쎯khgh쎂쎯	-10.7157
uo쎯	-10.7158
iy쎯mm쎯Ĉếzzbd쎂쎯	-10.7158
ywgj쎄쎯chqn쎯	-10.7159
zzbd쎆쎯	-10.716
nvk쎯)	-10.7164
xwnp쎁쎯	-10.7165
ydcy쎯	-10.7169
რith쎯xe쎯ua쎯qoep쎯	-10.7171
kbf쎀쎯terc쎯	-10.7173
pyri쎯	-10.7175
쏅pwxw쎀쎯	-10.718
dic쎯tejh쎀쎯	-10.718
̇qnye쎀쎯	-10.7181
tvfh쎁쎯oafg쎁쎯	-10.7181
msv쎯crqc쎯	-10.7183
fcec쎯	-10.7184
zzbd쎄쎯qvln쎁쎯ẩ	-10.7184
fpgc쎁쎈쎯itwi쎯	-10.7185
epc쎯gc쎯vbs쎯	-10.7185
ynah쎁쎯fnw쎯¦	-10.7187
zzbd쎂쎯މby쎯kpvg쎯	-10.7189
xajd쎯crqc쎯	-10.7192
igey쎀쎯	-10.7193
zzbd쎂쎯qtj쎯mci쎀쎯	-10.7193
qwyn쎁쎯nvk쎯	-10.7195
tdnt쎁쎯oguc쎀쎯	-10.72
qvln쎁쎯ɒfgu쎯qthm쎯	-10.7201
wgkw쎃쎯waqj쎯	-10.7204
ijgf쎀쎯tebl쎯	-10.7206
dftx쎯iepc쎯wgkw쎃쎯	-10.7209
suog쎯uepc쎁쎯	-10.7213
fgu쎯	-10.7214
ذtexd쎀쎯	-10.7214
oqdo쎯wydm쎯dhih쎯	-10.7215
lagg쎯kwye쎀쎯	-10.7216
juk쎯zzbd쎂쎯	-10.7216
auff쎯fefy쎯	-10.7216
ymkt쎁쎯	-10.7219
xrh쎀쎯yqj쎯	-10.722
tebl쎯fgu쎯	-10.7221
dnku쎀쎯vxx쎯ayec쎯	-10.7224
bda쎯	-10.7226
ntas쎯btfn쎀쎯	-10.7231
iiqn쎯	-10.7234
oqdo쎯dftx쎯ẩ	-10.7234
qtny쎁쎯ስ	-10.7235
kjug쎯aecn쎯	-10.7236
diy쎀쎯	-10.7236
wgif쎯vfh쎯ayec쎯	-10.7237
ayec쎯puwe쎀쎯yqjg쎯	-10.7237
uvo쎯	-10.7239
tebl쎯afdp쎀쎯	-10.7241
ynwm쎀쎯ɒɒkkbh쎯	-10.7244
xgfh쎀쎯응	-10.7247
qvf쎀쎯헌	-10.7248
vpns쎯fefy쎯	-10.725
djg쎯ayec쎯	-10.7251
oqdo쎯בaqdo쎯	-10.7251
ryg쎯anw쎯	-10.7252
o쎯y쎯	-10.7252
kaqt쎀쎯wdn쎯	-10.7253
xvtq쎯Ȏ	-10.7257
oguc쎀쎯kmwj쎯ֻ	-10.7261
gajl쎯famu쎯	-10.7265
ृfjqn쎁쎯	-10.7265
rtwh쎀쎯lebf쎯	-10.7265
sgxe쎯zzdx쎂쎯	-10.7265
Ἀayec쎯ukf쎁쎯zzj쎀쎯	-10.7266
yufe쎯tgu쎯	-10.7266
gag쎯kr쎯	-10.7268
gajl쎯ywx쎯	-10.7268
kkg쎯	-10.7269
ssu쎯qdcy쎂쎯	-10.7269
oqdo쎯슨wgkw쎃쎯	-10.727
mgt쎯wgif쎯	-10.7274
gkty쎯	-10.7275
qgjf쎃쎯fpgc쎁쎁쎯	-10.7279
Թ	-10.7279
j쎁쎯	-10.728
gkjg쎯	-10.7287
qoy쎁쎯	-10.7287
shy쎀쎯qkty쎯	-10.7288
lfon쎃쎯qofj쎁쎯	-10.729
￘	-10.7291
kiit쎯	-10.7293
Ĉếzzbd쎂쎯	-10.7295
fpgc쎁쎈쎯wwcy쎯	-10.7299
oqdo쎯mmgk쎁쎯	-10.7306
texd쎀쎯ẩ	-10.7312
ɒynwm쎀쎯wgkw쎃쎯	-10.7315
ofkk쎀쎯syp쎯iy쎯mm쎯	-10.7317
rqcc쎀쎯ᦆaecn쎯Ą	-10.7318
qgvb쎯puyg쎯	-10.7322
vqkg쎁쎯bynn쎯	-10.7323
hako쎯of쎯・judb쎁쎯	-10.7323
xflm쎯ibg쎁쎯	-10.7325
qug쎀쎯odm쎯	-10.7326
iepc쎯etfp쎀쎯	-10.7328
rrrj쎯kdhv쎯	-10.7329
Ἴryty쎁쎯	-10.7331
ồ	-10.7332
rtwh쎀쎯saq쎯	-10.7336
ap	-10.7339
zzdx쎁쎁쎯ydcy쎯xudb	-10.7341
aqrj쎯uduw쎀쎯	-10.7341
oqdo쎯xxf쎯og쎯	-10.7344
wtff쎁쎯쀊zzbd쎂쎯	-10.7345
ojgr쎁쎯	-10.7346
ufn쎯dhih쎯	-10.7347
oqdo쎯puyg쎯qgvb쎯	-10.7348
wjg쎯	-10.7351
Ἀayec쎯ʋfhit쎀쎯	-10.7352
ug	-10.7354
stfh쎀쎯hako쎯	-10.7356
sh	-10.7358
ksjh쎯ู	-10.7361
님nutg쎯ith쎯xe쎯	-10.7361
crgg쎀쎯	-10.7361
rtwh쎀쎯yssj쎁쎯	-10.7362
erh쎯sync쎯	-10.7365
ijgf쎀쎯qkty쎯	-10.7368
ɒiqas쎀쎯rqct쎁쎯	-10.737
,gm쎯zzxx쎄쎯	-10.7373
qun쎯	-10.7374
ix쎯aqkf쎀쎯iuyy쎯	-10.7374
wx쎯	-10.7375
ugd쎂쎯ooou쎀쎯	-10.7376
rqcw쎁쎯yaop쎀쎯	-10.7377
fefy쎯ôqwyn쎁쎯	-10.7378
adn쎯gnn쎀쎯bynn쎯	-10.7379
lccc쎃쎯qfdj쎯hako쎯	-10.738
puyg쎯ા	-10.7382
oqdo쎯Ἴadn쎯	-10.7384
Ἰ	-10.7386
pei쎯n쎯ydcy쎯qwnd쎯	-10.7386
zzdx쎁쎁쎯qmwy쎁쎯	-10.7387
wgkg쎀쎯tivf쎯	-10.7391
qofj쎁쎯	-10.7394
duvo쎀쎯dmjd쎀쎯juk쎯	-10.7395
lnav쎯	-10.7396
끗	-10.7399
wgkw쎃쎯dic쎯zzbd쎂쎯	-10.7402
wtfh쎁쎯탤	-10.7402
olgf쎯	-10.7403
╲	-10.7406
dmjd쎀쎯ɒwym쎯	-10.7409
iyjf쎀쎯wglj쎁쎯	-10.7409
teaw쎁쎯	-10.741
ẩsghg쎂쎯dmjn쎃쎯	-10.7412
vknn쎯어	-10.7412
msv쎯fkuh쎀쎯	-10.7413
ayec쎯ayec쎯민ẩ	-10.7413
oguc쎀쎯nfd쎀쎯	-10.7415
khuv쎀쎯qkk쎯	-10.7418
igmj쎯	-10.7421
sam쎯cux쎯	-10.7422
ddi쎯ydm쎯	-10.7423
gump쎯	-10.7425
І	-10.7428
yntm쎂쎯amhj쎁쎯	-10.7428
fpgc쎁쎈쎯vcm쎯	-10.7429
qgvb쎯Ą	-10.7435
ijsy쎯	-10.7436
ip쎯nu쎯rtwh쎀쎯	-10.7439
rqcc쎀쎯ᦆבા	-10.7441
fnw쎯fhit쎀쎯ʋxflm쎯	-10.7442
asff쎁쎯억	-10.7442
sfcy쎁쎯fbh쎀쎯qwnd쎯	-10.7443
erh쎯iawk쎁쎯iy쎯mm쎯	-10.7444
ẩ〔ywx쎯	-10.7445
Ցlktn쎯	-10.7446
쎂eee쎀쎯hako쎯	-10.7446
iy쎯mm쎯ᨣynah쎁쎯	-10.7446
kdhv쎯judb쎁쎯x	-10.7447
객ugx쎯ttn쎯	-10.7449
ahnr쎀쎯qrc쎯	-10.7451
wuh쎀쎯gag쎯qtfm쎁쎯	-10.7454
jtn쎯pyut쎀쎯	-10.7455
9	-10.7459
tebl쎯Ą	-10.746
fnff쎁쎯yqqe쎯	-10.746
며	-10.7461
lrwy쎀쎯ycb쎯	-10.7466
iy쎯mm쎯pei쎯n쎯	-10.7466
gahm쎁쎯mci쎀쎯	-10.7468
vadt쎯iy쎯mm쎯	-10.7471
쏅pwxw쎀쎯yygy쎯je쎯	-10.7472
abv쎯sug쎁쎯	-10.7473
ghd쎁쎯jued쎀쎯	-10.7473
sug쎁쎯청	-10.7482
utgm쎀쎯	-10.7482
åduvo쎀쎯	-10.7482
hael쎯	-10.7484
w쎯km쎯awwp쎯	-10.7484
tmdf쎁쎯jiqn쎂쎯	-10.7485
evfp쎯	-10.7486
qtj쎯	-10.7488
fudk쎯fnx쎯	-10.7489
qton쎁쎯	-10.749
akgq쎀쎯pykw쎯	-10.7492
nhdi쎀쎯ipr쎯މby쎯	-10.7497
sudk쎯Ą	-10.7502
vkb쎯itfq쎯cep쎯fp쎯	-10.7507
dpgh쎯რ	-10.7507
ifcl쎯dssn쎀쎯	-10.7508
wvgt쎅쎯iuyy쎯	-10.7511
wgkw쎃쎯iepc쎯iepc쎯	-10.7514
jtfp쎁쎯tnhc쎁쎯	-10.7516
qta쎯qtfm쎁쎯	-10.7521
iqas쎀쎯sfcy쎁쎯މby쎯	-10.7522
qug쎀쎯iy쎯mm쎯	-10.7524
fpo쎯tlnf쎯ukd쎁쎯	-10.7526
qfh쎁쎯aecn쎯	-10.7528
iy쎯mm쎯qtj쎯mci쎀쎯	-10.753
itfq쎯jgsy쎯މ민ẩ	-10.753
aviu쎀쎯eujf쎂쎯	-10.753
oue쎯zzjp쎃쎅쎯oue쎯	-10.7531
oue쎯oqdo쎯	-10.7532
kdhv쎯syp쎯	-10.7532
iepc쎯duvo쎀쎯aecn쎯	-10.7533
xflm쎯qug쎀쎯zzbd쎂쎯	-10.7533
yujg쎀쎯hh쎯jrif쎯	-10.7533
tlnf쎯tlnf쎯ghnu쎀쎯	-10.7534
xxe쎯tpw쎯	-10.7534
zzdx쎁쎁쎯ydcy쎯wyk쎯	-10.7535
idg쎀쎯puy쎯	-10.7536
khan쎁쎯	-10.7538
afsh쎀쎯orh쎁쎯	-10.754
zzdx쎉쎯rjyi쎯	-10.7543
zzbd쎂쎯fff쎀쎯qipr쎯	-10.7544
udfm쎀쎯mtfk쎀쎯	-10.7545
nvk쎯qgvb쎯xudb쎀쎯	-10.7546
xfcy쎀쎯vdf쎀쎯	-10.7547
emww쎯qgvb쎯	-10.755
sdht쎁쎯	-10.755
kccc쎯rqcc쎀쎯yqj쎯	-10.7551
kwye쎀쎯tlnf쎯qmy쎁쎯	-10.7551
qtqh쎁쎯	-10.7551
u쎁쎯	-10.7551
fpo쎯xjx쎯	-10.7551
vadn쎯	-10.7552
dwa쎯iuyy쎯რĈdee쎯	-10.7552
슈kr쎯	-10.7552
namy쎀쎯რ	-10.7552
emww쎯afuo쎀쎯ẩ	-10.7554
tak쎯iy쎯mm쎯	-10.7554
fisu쎯	-10.7555
py쎯aq쎯ẩ	-10.7561
zzbd쎂쎯uftj쎂쎯	-10.7562
iepc쎯zzbd쎀쎯	-10.7563
amyq쎯	-10.7566
ofkk쎀쎯yy쎯dm쎯	-10.7568
qei쎯tdko쎯	-10.757
wpde쎁쎯ryty쎁쎯	-10.7572
alfw쎯qsyy쎯	-10.7575
qsyy쎯dssn쎀쎯iuyy쎯	-10.7575
pywf쎀쎯	-10.758
iepc쎯uqt쎯js쎯ɒ	-10.758
fn쎯wtff쎁쎯	-10.7582
ielf쎀쎯wuh쎀쎯	-10.7593
zzdx쎉쎯어	-10.7598
jq	-10.76
ådssn쎀쎯zzbd쎂쎯	-10.7602
wgkw쎃쎯aecn쎯kpvg쎯	-10.7605
tebl쎯ȃ	-10.7607
Ďaitl쎯	-10.7608
hgo쎯dpgg쎯	-10.7611
lnav쎯qtfm쎁쎯	-10.7613
ɒɒɒ	-10.7619
iepc쎯iqaw쎯	-10.7623
vny쎀쎯xfcy쎀쎯ᦆ	-10.7624
ydcy쎯jmfg쎀쎯	-10.7624
어qsfi쎯edjn쎯xxn쎀쎯	-10.7626
rnd쎁쎯uus쎯tivf쎯	-10.7627
oqdo쎯aecn쎯kpvg쎯	-10.7628
aqbt쎀쎯sntn쎀쎯	-10.7631
ua쎯ycb쎯	-10.7636
qtnx쎯oqdo쎯	-10.7638
ix쎯rqcc쎀쎯yqj쎯	-10.7638
xrh쎀쎯fcbh쎁쎯	-10.7642
osjh쎁쎯qyc쎯	-10.7642
oqdo쎯aeef쎁쎯dic쎯	-10.7644
xflm쎯ddu쎁쎯	-10.7645
fgu쎯mhtl쎯탤	-10.7645
mtd쎯jued쎀쎯	-10.765
ẩqamh쎀쎯puwj쎀쎯	-10.7652
qte쎀쎯uxe쎯	-10.7652
ghnu쎀쎯btfn쎀쎯	-10.7655
cbtc쎀쎯mgji쎀쎯	-10.7656
ua쎯iy쎯mm쎯	-10.7657
ྣ	-10.7658
ymd쎯tpe쎯녹qtdd쎀쎯	-10.766
yujg쎀쎯hh쎯	-10.7661
jmf쎯imwy쎀쎯	-10.7664
aruf쎯afdp쎀쎯	-10.7664
tejh쎀쎯qowo쎀쎯	-10.7664
zzsx쎄쎁쎯	-10.7665
texd쎀쎯oqdo쎯	-10.7667
yjs쎯tkgg쎁쎯Ĉ	-10.7671
jrif쎯쀊iy쎯mm쎯	-10.7676
iepc쎯oope쎁쎯åå	-10.7679
rbm쎯제	-10.7681
tyk쎯wuh쎀쎯adwh쎀쎯	-10.7682
afsh쎀쎯	-10.7685
ɒfkuh쎀쎯uqt쎯js쎯	-10.7686
iepc쎯ɒmsv쎯	-10.7686
kgjf쎀쎯ς	-10.7688
ca쎯sfgn쎯ysjh쎯태	-10.7689
rkk쎯wt쎯duvo쎀쎯	-10.769
ed쎀쎯vevg쎁쎯zzbd쎅쎯	-10.7694
dssn쎀쎯qtfm쎁쎯	-10.7695
aecn쎯qvey쎯	-10.7698
zzsx쎄쎁쎯jiqn쎂쎯	-10.77
qtmn쎀쎯lv쎯	-10.7707
yn	-10.7708
omdy쎯mtfk쎀쎯	-10.7711
ahk쎁쎯vufh쎯	-10.7713
ywgk쎀쎯bynn쎯erey쎯	-10.7716
qvln쎁쎯fkuh쎀쎯msv쎯	-10.7719
tgjq쎁쎯	-10.7723
ywx쎯vpns쎯	-10.7724
haei쎀쎯དdssn쎀쎯	-10.7726
jtn쎯hwbh쎯	-10.7728
zzbd쎂쎯kdhv쎯qgvb쎯	-10.7731
lccc쎃쎯zzbd쎅쎯weh쎯	-10.7732
unwe쎀쎯ֻ	-10.7732
mgt쎯fth쎯	-10.7734
idg쎀쎯qlqj쎁쎯	-10.7736
au	-10.7736
yqj쎯릿	-10.7738
cmkg쎯	-10.7738
zzsx쎁쎀쎯an쎯lwj쎯	-10.7743
gkjg쎯fth쎯	-10.7745
ẩkyxy쎁쎯	-10.7745
elll쎀쎯징	-10.7747
iugy쎀쎯aqkf쎀쎯	-10.7749
smg쎯mtje쎃쎯qmy쎁쎯	-10.7749
제rdn쎯	-10.775
duc쎯ayec쎯	-10.7754
cck쎯judb쎁쎯iy쎯mm쎯	-10.7754
lv쎯qkty쎯	-10.7755
mfc쎯	-10.7756
gajl쎯ஜsu	-10.7757
াqyvh쎀쎯oqdo쎯	-10.7758
uftj쎂쎯ufn쎯	-10.7758
qamh쎀쎯jiqn쎂쎯Ἀ	-10.7758
zzbd쎂쎯sgxe쎯ji쎯	-10.776
lwi쎀쎯	-10.7762
qtny쎁쎯	-10.7764
wgkw쎃쎯dic쎯	-10.7766
flmu쎀쎯mqjh쎀쎯	-10.7768
aecn쎯xgmx쎀쎯	-10.7769
jiqn쎂쎯snij쎯	-10.7773
zzdl	-10.7774
wpup쎯₩	-10.7775
tii쎯	-10.7778
qay쎁쎯idgt쎀쎯	-10.778
ếxrh쎀쎯	-10.778
zzde쎃쎯jrif쎯	-10.778
oguc쎀쎯jyn쎀쎯	-10.7781
tkgt쎯qgdd쎯oqdo쎯	-10.7782
fkkv쎀쎯쎂쎀쎀쎅rh쎯	-10.7782
ugd쎂쎯magu쎯	-10.7785
rqcc쎀쎯ા	-10.7792
vqu쎀쎯	-10.7794
drin쎀쎯	-10.78
xyb쎯	-10.7803
kxxi쎀쎯rqcc쎀쎯yqj쎯	-10.7806
pei쎯n쎯jeg쎯owno쎀쎯	-10.7806
qtme쎯wfil쎀쎯	-10.7808
zzbd쎂쎯weh쎯	-10.781
snij쎯waqj쎯	-10.7813
슨jiqn쎂쎯	-10.7813
svi쎯	-10.7813
zzbd쎂쎯gag쎯weh쎯	-10.7815
iqaw쎯ayec쎯puwe쎀쎯	-10.7815
oguc쎀쎯peg쎯	-10.7816
nhdk쎁쎯hg쎯	-10.7816
xudb쎀쎯iawk쎁쎯	-10.782
jyn쎀쎯	-10.782
oqdo쎯qta쎯xln쎁쎯	-10.7821
zzbd쎄쎯ghd쎁쎯	-10.7823
idf쎀쎯zzbd쎅쎯	-10.7824
bij쎯rrrj쎯	-10.7825
awwp쎯adn쎯	-10.7826
sjfh쎯abv쎯	-10.7827
mmm쎯aq쎯qwgj쎀쎯	-10.7827
twu쎯rdfo쎁쎯	-10.7829
zzjp쎄쎈쎯jtn쎯	-10.783
ẩqgvb쎯xudb쎀쎯	-10.7831
ugx쎯gqt쎯	-10.7831
ynna쎀쎯რ	-10.7832
etfm쎀쎯	-10.7835
qcn쎁쎯	-10.7837
duvo쎀쎯qvln쎁쎯juk쎯	-10.7838
fcbh쎁쎯რvwyo쎯	-10.784
uvuh쎯	-10.7841
aga쎯juk쎯	-10.7842
umau쎯ä	-10.7842
ydje쎀쎯issj쎯	-10.7842
aahl쎀쎯ghnu쎀쎯	-10.7845
atdy쎁쎯	-10.7847
sgfl쎀쎯.oqdo쎯	-10.7847
qgmg쎯auj쎯	-10.7849
▁wc쎯ngk쎯wgkw쎃쎯	-10.7849
aeef쎁쎯eqw쎯	-10.7849
iy쎯mm쎯Ȏsggj쎀쎯	-10.7849
oqdo쎯jj쎯	-10.7851
ltkf쎀쎯wuh쎀쎯gag쎯	-10.7854
tfff쎁쎯wmj쎁쎯	-10.7854
qwyn쎁쎯afu쎯	-10.7856
ytwj쎀쎯infj쎯	-10.7856
dmjd쎀쎯awxx쎯	-10.7857
qvln쎁쎯kkbh쎯	-10.7858
xfkm쎀쎯issh쎯	-10.7859
aitl쎯by쎯iy쎯mm쎯	-10.786
Қ	-10.7864
fpgo쎀쎯iwgd쎯adn쎯	-10.7866
zzde쎂쎈쎯iy쎯mm쎯	-10.7867
ghad쎯	-10.7867
fpo쎯cep쎯fp쎯	-10.7868
qwet쎀쎯qyey쎂쎯	-10.7868
aahl쎀쎯suog쎯	-10.7869
쀊jytb쎁쎯	-10.787
lfut쎀쎯	-10.7876
직tfff쎁쎯jcf쎯	-10.7878
qpnn쎯쎂	-10.7878
yjdg쎯엮	-10.7878
jf쎯fpwo쎀쎯	-10.788
ger쎯rymn쎯	-10.788
ofkk쎀쎯uvog쎯	-10.7885
awnu쎁쎯xqi쎯ֻ	-10.7888
ŗydje쎀쎯	-10.7888
ςith쎯xe쎯	-10.789
어fhit쎀쎯oue쎯	-10.7893
umaw쎀쎯yaqj쎂쎯	-10.7893
txt쎯awwp쎯	-10.7894
mqyl쎯iy쎯mm쎯	-10.7899
afwy쎀쎯	-10.7903
ډ	-10.7904
ctrt쎯gnn쎀쎯iy쎯mm쎯	-10.7904
xrh쎀쎯ᅳ	-10.7904
zzbd쎂쎯슈	-10.7904
fnff쎁쎯민zzbd쎂쎯	-10.7905
onw쎯mgkc쎀쎯	-10.7907
kxxi쎀쎯zzbd쎂쎯	-10.791
qtmn쎀쎯xjx쎯	-10.7911
()oqdo쎯	-10.7913
wsdn쎯namy쎀쎯	-10.7914
tejh쎀쎯bij쎯	-10.7914
É	-10.7915
뽀khpj쎯	-10.7915
pyld쎁쎯enwe쎯	-10.7916
gajl쎯ஜnhdi쎀쎯ipr쎯	-10.7921
qay쎁쎯ֶryg쎯	-10.7921
wpde쎁쎯tfqb쎁쎯	-10.7924
쎁쎉쎉쎉rh쎯ẩ	-10.7924
tfqu쎯zzbd쎂쎯	-10.7925
ukd쎁쎯yygy쎯je쎯ẩ	-10.7926
xudb쎀쎯dssn쎀쎯	-10.7928
Ἀix쎯	-10.793
mci쎀쎯iy쎯mm쎯	-10.7931
zzdx쎉쎯cq쎯	-10.7932
hnu쎯	-10.7932
zzdx쎁쎁쎯iawk쎁쎯	-10.7935
mawq쎀쎯	-10.7938
duvo쎀쎯dftx쎯juk쎯	-10.7938
naww쎀쎯	-10.7939
wnx쎯lccc쎃쎯	-10.7939
yqqe쎯	-10.7946
혹zzdx쎁쎁쎯ydcy쎯	-10.7947
ɧgkub쎀쎯	-10.7949
zzts쎀쎯zzbd쎂쎯	-10.7951
yqvg쎀쎯syp쎯iy쎯mm쎯	-10.7952
gmfg쎀쎯qer쎯	-10.7953
jdh쎯	-10.7958
at	-10.796
iy쎯mm쎯skln쎯iooo쎯	-10.7961
iy쎯mm쎯sam쎯wsdn쎯	-10.7965
erey쎯	-10.7965
zzbd쎂쎯enhc쎁쎯ㄫ	-10.7965
xim쎯	-10.7967
nwjh쎀쎯qtwc쎀쎯	-10.7968
wfcj쎯iepc쎯qvln쎁쎯	-10.7969
슨ua쎯djg쎯zzdx쎁쎁쎯	-10.7969
qwyn쎁쎯vny쎀쎯	-10.797
ydcy쎯qwyn쎁쎯	-10.797
∂	-10.7972
gmf쎯xrh쎀쎯iy쎯mm쎯	-10.7972
tra쎯	-10.7973
adn쎯땑	-10.7974
kywy쎁쎯	-10.7976
aqv쎀쎯	-10.7977
iy쎯mm쎯҉	-10.7979
sggj쎀쎯fnx쎯	-10.7982
nvk쎯ʋqkhk쎯	-10.7983
oopm쎀쎯┯zzbd쎂쎯	-10.7984
wgif쎯भqmy쎁쎯	-10.7986
fcbh쎁쎯wtff쎁쎯	-10.7987
iepc쎯oope쎁쎯iepc쎯	-10.7989
anht쎀쎯fooy쎯	-10.799
zzts쎁쎈쎯aghu쎯	-10.799
sjfh쎯kdhv쎯	-10.7993
smg쎯mtje쎃쎯wgif쎯भ	-10.8002
qogj쎁쎯	-10.8003
ŗfnx쎯jued쎀쎯oqdo쎯	-10.8004
cds쎯	-10.8008
na	-10.801
qay쎁쎯iqaw쎯	-10.801
qfdj쎯qlqj쎁쎯	-10.801
aga쎯hidf쎁쎯	-10.8011
fdsk쎀쎯ghd쎁쎯	-10.8012
fnff쎁쎯qgcn쎯	-10.8014
pq쎯┯	-10.8015
zzpj쎇쎄쎯ế	-10.8016
înfnf쎯	-10.8017
aqdo쎯iy쎯mm쎯	-10.8018
dhq쎯Ĉ	-10.8018
zzdx쎁쎁쎯zzbd쎅쎯	-10.8018
직rnp쎯	-10.8019
jtyq쎀쎯rnjl쎯	-10.8019
ouq쎀쎯iqas쎀쎯yqjg쎯	-10.8022
iy쎯mm쎯alkf쎀쎯uus쎯	-10.8023
ẩuh쎯	-10.8024
쎁쎃qenh쎯	-10.8024
thal쎀쎯ufn쎯	-10.8026
wsdn쎯yaqj쎂쎯	-10.8027
Ďydcy쎯	-10.8027
adn쎯nss쎯iqdm쎀쎯	-10.8027
भ	-10.8027
iqi쎯	-10.803
ydcy쎯jtfp쎁쎯	-10.8032
zzbd쎂쎯wfj쎁쎯kpvg쎯	-10.8036
어qsfi쎯ukqb쎀쎯gde쎯	-10.8038
juk쎯ldmj쎀쎯	-10.8038
sgxe쎯xvpc쎀쎯	-10.8039
wpeg쎀쎯rymn쎯jgsy쎯	-10.8044
qtyd쎀쎯dhc쎯	-10.8044
erh쎯wgkw쎃쎯	-10.8048
qkhk쎯qkhk쎯	-10.8049
zzbd쎁쎇쎯xag쎀쎯	-10.8049
awxx쎯	-10.805
쏅ynna쎀쎯ahnl쎂쎯	-10.805
shy쎀쎯xxm쎯	-10.8051
ẩwsdn쎯	-10.8054
yhk쎯awxx쎯	-10.8056
usq쎯fgu쎯	-10.8059
evwo쎀쎯dssn쎀쎯	-10.806
qmy쎁쎯cck쎯judb쎁쎯	-10.806
쏉	-10.806
yaah쎁쎯	-10.806
ytd쎯rvln쎯	-10.8062
iryy쎯afdp쎀쎯	-10.8063
hbfw쎯	-10.8066
읽	-10.8069
yy쎁쎯	-10.8069
kccc쎯aqsc쎯zzbd쎂쎯	-10.807
zzbd쎂쎯fdsk쎀쎯	-10.8071
ikgf쎯	-10.8072
jcf쎯zzbd쎂쎯	-10.8072
tegf쎀쎯변	-10.8073
adn쎯fkeg쎯	-10.8074
apwj쎯	-10.8075
nwjh쎀쎯ddu쎁쎯	-10.8077
jeg쎯zzts쎁쎈쎯	-10.8079
wjgr쎀쎯དzzde쎂쎈쎯	-10.808
sgxe쎯yqqe쎯	-10.8081
jce쎯yaqj쎂쎯	-10.8081
aruf쎯jued쎀쎯dpgg쎯	-10.8081
yauo쎁쎯	-10.8083
vkb쎯vwyo쎯kpvg쎯	-10.8083
tejh쎀쎯alpn쎀쎯	-10.8084
peg쎯rnv쎀쎯	-10.8085
⟩nwsy쎯	-10.8089
tdnt쎁쎯syp쎯	-10.8091
곽	-10.8091
qdn쎯xflm쎯	-10.8098
tlnf쎯ayec쎯zzjp	-10.8099
jf쎯	-10.8101
ayec쎯რ	-10.8101
xudb쎁쎯rds쎯	-10.8102
zzbd쎅쎯iepc쎯ɒ	-10.8102
gahm쎁쎯eua쎯oqdo쎯	-10.8103
Ŋywgj쎄쎯	-10.8107
ytbp쎀쎯	-10.8107
tmdf쎁쎯ielf쎀쎯n	-10.8113
tyoy쎁쎯	-10.8115
fkuh쎀쎯ɒmsv쎯	-10.8117
qgcf쎁쎯	-10.8119
wgif쎯भ헬헬yygy쎯je쎯	-10.812
Ĉếdifc쎯usq쎯	-10.8124
qug쎀쎯dssn쎀쎯puyg쎯	-10.8124
ahnk쎯	-10.8126
)zzbd쎂쎯	-10.8127
gag쎯rrrj쎯	-10.8128
evwo쎀쎯rnp쎯	-10.8129
yt쎯	-10.8129
혹wgaj쎀쎯	-10.8129
r쎯v쎯nae쎀쎯Ȓ	-10.8132
Ҟlagg쎯	-10.8133
wgo쎯	-10.8133
ɒɒzzbd쎂쎯	-10.8134
fff쎀쎯smg쎯	-10.8134
mgji쎀쎯zzjp쎁쎅쎯	-10.8135
tpi쎯	-10.8135
덕of쎯	-10.8136
wydm쎯ua쎯	-10.8139
vkhh쎯yi쎯	-10.814
zz	-10.8144
wb쎯r쎯	-10.8145
iy쎯mm쎯aha쎯hlqc쎀쎯	-10.815
awwp쎯zzjp쎁쎅쎯	-10.8151
f쎯yy쎯aeef쎁쎯	-10.8152
luf쎀쎯oopm쎀쎯	-10.8152
ꔖqenh쎯	-10.8152
ojxx쎀쎯	-10.8152
awxx쎯qtnx쎯oqdo쎯	-10.8157
aqdo쎯xvtq쎯	-10.8158
kwye쎀쎯wmj쎁쎯fpo쎯쀊	-10.8159
iawk쎁쎯iy쎯mm쎯	-10.816
wsdn쎯cux쎯	-10.8161
qfdj쎯꼬	-10.8162
쎁쎃fff쎀쎯	-10.8163
ansu쎯icd쎯	-10.8165
)zzbd쎂쎯zzdx쎁쎁쎯	-10.8166
며zzdx쎉쎯	-10.8166
qggn쎀쎯ul쎯wtf쎯	-10.8166
゙tyke쎂쎯	-10.8169
fpo쎯btfn쎀쎯ẩ	-10.8172
oguf쎁쎯	-10.8173
mfkp쎯amw쎯	-10.8178
qsfi쎯fpgc쎁쎈쎯	-10.8178
muk쎯	-10.8182
suog쎯iawk쎁쎯	-10.8183
teae쎯kgkg쎁쎯	-10.8185
tdko쎯fl쎯wf쎯	-10.8188
rna쎯	-10.8189
릿skln쎯	-10.819
uf쎯	-10.819
wiy쎀쎯dssn쎀쎯	-10.8192
i쎁쎯	-10.8196
xp쎯	-10.8196
qgvb쎯ฌ	-10.8197
fujh쎯nufh쎀쎯	-10.8199
rhit쎯	-10.8202
ih	-10.8203
msv쎯tmdf쎁쎯fpgo쎀쎯	-10.8204
nkk쎯	-10.8205
wfcj쎯ɒiepc쎯	-10.8208
wtfh쎀쎯zzbd쎂쎯	-10.821
qipr쎯ejhh쎯⎯	-10.8211
vadt쎯wgmy쎀쎯	-10.8212
ijgf쎀쎯pyut쎀쎯	-10.8212
zzbd쎂쎯vny쎀쎯tpe쎯	-10.8212
iudi쎀쎯awxx쎯	-10.8212
fgu쎯odm쎯adn쎯	-10.8212
ukqb쎀쎯shy쎀쎯	-10.8216
rnbt쎯	-10.8218
┙	-10.822
idg쎀쎯ึ	-10.8224
sudk쎯ghd쎁쎯iy쎯mm쎯	-10.8231
yygy쎯je쎯qusf쎀쎯	-10.8231
tegf쎀쎯zzpj쎇쎄쎯	-10.8232
bkcb쎯smg쎯tyke쎂쎯	-10.8234
ષfcbh쎁쎯	-10.8235
iepc쎯̇	-10.8236
wfj쎁쎯ryty쎁쎯	-10.8236
dmjd쎀쎯iepc쎯juk쎯	-10.8237
nqdb쎀쎯iy쎯mm쎯	-10.8242
kmwj쎯ֻgmf쎯othj쎯	-10.8245
ijl쎯etxu쎯jf쎯	-10.8245
녹qtdd쎀쎯gag쎯	-10.8245
rqcc쎀쎯lfon쎃쎯	-10.8246
qtyd쎀쎯pvdm쎯	-10.8247
gag쎯aeef쎁쎯zzbd쎂쎯	-10.8248
oopm쎀쎯hako쎯	-10.8248
nwyo쎁쎯wpak쎯	-10.8249
egwo쎯	-10.8252
┢	-10.8252
sbb쎯auj쎯	-10.8254
oqdo쎯qdy쎀쎯	-10.8257
mwht쎯	-10.826
ֻ	-10.8264
ẩՍiudb쎯	-10.8265
rs쎯tfkp쎀쎯ygq쎯	-10.8269
jmf쎯sptk쎯	-10.827
qvln쎁쎯료fkuh쎀쎯	-10.827
anw쎯mci쎀쎯	-10.8271
åtmdf쎁쎯fpgo쎀쎯	-10.8271
dmjd쎀쎯tedm쎀쎯	-10.8272
fff쎀쎯sksw쎯umqy쎯	-10.8275
erh쎯ymko쎀쎯	-10.8278
twt쎯jued쎀쎯	-10.8279
쳐dhc쎯	-10.8281
famu쎯mci쎀쎯	-10.8287
mhtl쎯wfa쎯	-10.8288
rrrj쎯hnhg쎯	-10.8289
se쎯tebl쎯	-10.829
wfj쎁쎯qgmg쎯	-10.829
בip쎯nu쎯oqdo쎯	-10.8291
fnff쎁쎯・	-10.8293
쎂ywx쎯	-10.8293
()ẩ	-10.8294
adn쎯kmwj쎯ֻ	-10.8294
ghd쎁쎯xyxw쎁쎯kpvg쎯	-10.8295
qgmg쎯erey쎯qwyn쎁쎯	-10.8298
itfq쎯gajl쎯	-10.8298
jf쎯zzbd쎂쎯	-10.8298
fff쎀쎯ế	-10.8299
qrrm쎯synu쎯	-10.8301
팀	-10.8301
lnav쎯iugo쎯	-10.8304
zzbd쎂쎯gftj쎯탤	-10.8306
wtfh쎁쎯ooqh쎁쎯	-10.8308
nvk쎯sudk쎯tpw쎯	-10.8313
iy쎯mm쎯슨ua쎯	-10.8314
yjdg쎯dpwi쎯	-10.8317
Ĉpuy쎯	-10.8318
of쎯ukd쎁쎯	-10.8321
sgwo쎯najf쎀쎯fpo쎯쀊	-10.8321
stnn쎯	-10.8323
jued쎀쎯skkn쎁쎯	-10.8326
tejh쎀쎯fpo쎯	-10.8326
iepc쎯ɒwym쎯	-10.8329
ʋghd쎁쎯	-10.833
pydd쎀쎯	-10.8333
dmjd쎀쎯ɒfgu쎯qthm쎯	-10.8333
dakk쎀쎯	-10.8334
bwet쎯왜	-10.8334
zzsx쎁쎀쎯sbkg쎀쎯	-10.8335
ljlg쎁쎯sfgn쎯wdj쎯	-10.8336
iit쎯pyld쎁쎯wgkw쎃쎯	-10.8336
ẩἈayec쎯	-10.8336
jmf쎯rtwh쎀쎯	-10.8337
(ylaw쎀쎯pwi쎯	-10.8337
҉zzbd쎂쎯	-10.8338
vqbt쎀쎯ynna쎀쎯	-10.8339
aga쎯tldt쎀쎯	-10.834
pei쎯n쎯쎁쎃owno쎀쎯	-10.8341
thwu쎯qvln쎁쎯ɒɒ	-10.8342
riq쎯콤	-10.8343
wtfh쎁쎯tkw쎯se쎯	-10.8344
fcbh쎁쎯რ	-10.8344
dssn쎀쎯vevg쎁쎯	-10.8344
fkkv쎀쎯qyiy쎀쎯	-10.8347
mxjj쎯ijgf쎀쎯	-10.8348
tlnf쎯u쎯kkk쎯ẩ	-10.8349
rtwh쎀쎯lckg쎯	-10.8349
ax	-10.835
abv쎯	-10.8351
zzbd쎅쎯wfcj쎯	-10.8351
evwo쎀쎯mpk쎀쎯	-10.8354
jto쎯ὴ	-10.8356
lfon쎃쎯kfl쎯	-10.8358
syp쎯twu쎯	-10.836
anwu쎯tlnf쎯ukd쎁쎯	-10.8361
dfee쎯މ	-10.8362
haq쎯jvip쎀쎯iy쎯mm쎯	-10.8364
peg쎯앙	-10.8365
zzbd쎂쎯djg쎯ghd쎁쎯	-10.8365
nvk쎯magu쎯qrc쎯	-10.8365
ydcy쎯dssn쎀쎯	-10.8367
jiqn쎂쎯avf쎀쎯	-10.8368
ddth쎀쎯	-10.8369
qvln쎁쎯iepc쎯fnw쎯¦	-10.8369
vlq쎯	-10.8369
pudc쎯bkcb쎯	-10.837
qdsk쎁쎯	-10.8371
Ĉếqmy쎁쎯	-10.8371
gqk쎯	-10.8374
anwu쎯bnh쎁쎯	-10.8375
ji쎯ghd쎁쎯	-10.8377
aqrj쎯iooo쎯	-10.8379
rukq쎀쎯Ḧ〔ywx쎯	-10.8379
hako쎯ᆞzzbd쎂쎯	-10.8379
tkw쎯se쎯qta쎯	-10.8379
ewwb쎯졸tkw쎯se쎯	-10.838
qtya쎯dhc쎯	-10.8382
afuo쎀쎯njqn쎯qmy쎁쎯	-10.8382
v쎀쎯	-10.8384
oqdo쎯혹rqct쎁쎯	-10.8385
qouq쎀쎯alfw쎯qsyy쎯	-10.8385
emww쎯afuo쎀쎯qmy쎁쎯	-10.8386
청tpw쎯	-10.8388
bkcb쎯smg쎯tlnf쎯	-10.8388
nujh쎀쎯ajjh쎯	-10.8389
msv쎯dssn쎀쎯zzbd쎂쎯	-10.8389
xxf쎯og쎯qgvb쎯ʋ	-10.8393
halo쎀쎯ʀ	-10.8394
qlq쎯njqn쎯	-10.8397
giv쎯dpgh쎯	-10.8402
difc쎯청iy쎯mm쎯	-10.8403
qug쎀쎯vwyo쎯	-10.8404
ayec쎯ế	-10.8404
ayve쎯jlff쎀쎯	-10.8407
yaww쎀쎯ryg쎯zzbd쎂쎯	-10.8409
⎯aeef쎁쎯cux쎯hako쎯	-10.841
rqrm쎯ukf쎁쎯	-10.8411
ith쎯xe쎯fcbh쎁쎯რ	-10.8411
hako쎯ᆞoqdo쎯	-10.8412
vk쎯	-10.8412
tync쎯jlcb쎯	-10.8412
vdf쎀쎯jrif쎯	-10.8413
iawk쎁쎯suog쎯	-10.8413
oope쎁쎯dssn쎀쎯	-10.8413
⟩wmj쎁쎯	-10.8417
ypqn쎯fkuh쎀쎯	-10.8421
oafg쎁쎯fhit쎀쎯	-10.8421
jmf쎯Į	-10.8422
tldt쎀쎯dmjd쎀쎯	-10.8422
sdkk쎯	-10.8424
qvln쎁쎯tedm쎀쎯	-10.8425
cck쎯・	-10.8426
ynah쎁쎯ydcy쎯qenh쎯	-10.8427
etfp쎀쎯dftx쎯	-10.8427
쎈rnjl쎯	-10.8429
Ἴtexd쎀쎯	-10.843
zzjp쎁쎅쎯aha쎯	-10.843
iepc쎯ɒɒwfcj쎯	-10.8432
뼉რ	-10.8433
qyiy쎀쎯cep쎯fp쎯	-10.8435
fff쎀쎯difc쎯agi쎯	-10.8435
בqgvb쎯xudb쎀쎯	-10.8438
jcf쎯yygy쎯je쎯	-10.844
yufe쎯청	-10.8441
tfnq쎂쎯qwnd쎯	-10.8442
rwyg쎀쎯ghd쎁쎯민fpo쎯	-10.8445
ftux쎯zzdx쎉쎯	-10.8447
ipkm쎀쎯	-10.8449
rwfi쎀쎯	-10.8453
fgu쎯ojgh쎁쎯	-10.8455
hako쎯zzbd쎂쎯	-10.8456
(fptc쎀쎯	-10.8459
rwp쎯mrcy쎁쎯	-10.846
xxf쎯og쎯btfn쎀쎯	-10.8461
rrrj쎯wgmy쎀쎯	-10.8461
tiaw쎀쎯qtyd쎀쎯	-10.8462
tol쎯	-10.8462
aqkf쎀쎯iuyy쎯oqdo쎯	-10.8462
oqdo쎯혹rkk쎯wt쎯	-10.8462
णdrt쎯	-10.8463
seph쎯	-10.8464
⎯ynah쎁쎯	-10.8465
pegf쎯	-10.8469
ugd쎂쎯mkkn쎀쎯	-10.8469
wgmy쎀쎯ylaw쎀쎯	-10.8473
idgt쎀쎯awge쎯abue쎯	-10.8474
kbf쎀쎯tfl쎯	-10.8476
teae쎯kbf쎀쎯	-10.8479
fpo쎯・sgfl쎀쎯	-10.848
smg쎯iooo쎯iy쎯mm쎯	-10.8482
ipwy쎁쎯tool쎀쎯	-10.8488
mftt쎯	-10.8489
ɒdftx쎯wgkw쎃쎯	-10.849
yyna쎀쎯nwjh쎀쎯	-10.849
녹qtdd쎀쎯weh쎯	-10.8491
xfkm쎀쎯	-10.8492
yakg쎁쎯	-10.8492
iy쎯mm쎯vwyo쎯	-10.8492
deps쎯	-10.8493
jxxg쎯	-10.8494
iuyy쎯fth쎯	-10.8495
qipr쎯ֻzzbd쎂쎯	-10.8497
iy쎯mm쎯Պoqdo쎯	-10.8498
iepc쎯ɒuqt쎯js쎯	-10.8501
xplh쎀쎯gajn쎀쎯	-10.8502
iepc쎯iepc쎯fkuh쎀쎯	-10.8503
ȓfff쎀쎯	-10.8504
vg쎯qvln쎁쎯	-10.8504
ivey쎯	-10.8506
iepc쎯åɒɒ	-10.8507
xtol쎀쎯zzbd쎂쎯	-10.8508
s쎀쎯	-10.8508
fj	-10.8515
청rccn쎯	-10.8516
khaj쎂쎯lv쎯	-10.8516
skkn쎁쎯oqdo쎯	-10.8516
qug쎀쎯yygy쎯je쎯	-10.8519
mtd쎯tebl쎯	-10.8522
mkd쎯	-10.8523
nvk쎯Ąsgfl쎀쎯	-10.8524
kkbh쎯ugx쎯	-10.8524
fpo쎯ֻqug쎀쎯	-10.8525
lpk쎀쎯xfn쎯ytd쎯	-10.8526
iy쎯mm쎯ֶrnp쎯	-10.8527
dpgh쎯th쎯	-10.8528
qwnd쎯oops쎁쎯	-10.8529
khjf쎀쎯kmn쎯	-10.8531
khjf쎀쎯wpn쎯iy쎯mm쎯	-10.8531
vny쎀쎯iit쎯	-10.8533
iqas쎀쎯puyg쎯	-10.8534
yjdg쎯dpwi쎯zzbd쎂쎯	-10.8535
zzbd쎅쎯msv쎯	-10.8535
iepc쎯jued쎀쎯	-10.8536
fujh쎯yi쎯nufh쎀쎯	-10.8538
xtgo쎯ghd쎁쎯	-10.8539
anhf쎃쎯spwk쎀쎯	-10.854
rnhe쎯	-10.8547
pwfm쎀쎯	-10.8548
iepc쎯iepc쎯qvln쎁쎯	-10.855
xbg쎂쎯	-10.855
xqa쎯	-10.8552
zzy쎂쎯	-10.8552
᠓	-10.8553
yaf쎯qenh쎯	-10.8555
vpns쎯ֻghd쎁쎯ocyj쎯	-10.8555
inty쎯	-10.8556
gjjg쎀쎯iit쎯	-10.8557
ἴsyny쎀쎯	-10.8559
kr쎯hnhg쎯	-10.856
pk쎯	-10.8561
yleg쎯	-10.8562
fnw쎯fhit쎀쎯iy쎯mm쎯	-10.8563
왜dtth쎀쎯	-10.8564
tfnd쎂쎯	-10.8564
fff쎀쎯hqqq쎯	-10.8565
yah쎯청iy쎯mm쎯	-10.8567
mkkn쎀쎯	-10.8568
ansu쎯	-10.857
ydcy쎯ua쎯	-10.8571
xgl쎯	-10.8574
ydcy쎯qte쎀쎯qte쎀쎯	-10.8577
othj쎯tebl쎯	-10.8577
프	-10.8578
oqdo쎯xrh쎀쎯oue쎯	-10.8579
ynwm쎀쎯ᠴvbs쎯	-10.858
tnhc쎁쎯ryty쎁쎯	-10.8582
kxxi쎀쎯yygy쎯je쎯	-10.8583
wtfh쎀쎯tyke쎂쎯	-10.8584
dftx쎯msv쎯ɒ	-10.8584
nay쎀쎯emww쎯	-10.8585
̇th쎯	-10.8586
aeef쎁쎯qtfm쎁쎯	-10.8591
dmjd쎀쎯crqc쎯	-10.8591
wwkt쎂쎯	-10.8591
qgn쎯r쎯	-10.8591
aahl쎀쎯ֻqwnd쎯	-10.8594
wgkm쎆쎯	-10.8595
kwyc쎀쎯badw쎀쎯	-10.8596
zzdx쎁쎁쎯Ἴadn쎯	-10.8597
ɒfkuh쎀쎯ɒɒ	-10.8599
iy쎯mm쎯މsqde쎯	-10.8599
hako쎯qgjj쎯	-10.86
ike쎯	-10.86
nwjh쎀쎯jued쎀쎯	-10.8602
vqmy쎯qug쎀쎯	-10.8602
qsfi쎯yte쎯	-10.8603
რ졸	-10.8603
nwjh쎀쎯qtnx쎯	-10.8607
tebl쎯tejh쎀쎯태	-10.861
ukf쎁쎯ς	-10.8611
zzbd쎂쎯zzdx쎁쎁쎯	-10.8617
pfi쎯nutg쎯	-10.8618
nay쎀쎯	-10.8622
bevn쎯	-10.8623
ᨣfgu쎯texd쎀쎯	-10.8623
yy쎯dm쎯duc쎯	-10.8625
wfm쎯	-10.8627
r쎯v쎯nae쎀쎯zzbd쎂쎯	-10.8627
aecn쎯juk쎯zzbd쎅쎯	-10.863
jjgr쎀쎯	-10.8631
teae쎯.	-10.8631
lagg쎯kdhv쎯duk쎀쎯	-10.8631
duvo쎀쎯aecn쎯	-10.8631
ɒfkuh쎀쎯oope쎁쎯	-10.8635
u쎯kkk쎯ᇯ	-10.8636
	-10.8637
ynwm쎀쎯zzbd쎂쎯	-10.8637
wgif쎯भzzbd쎂쎯	-10.8638
aym쎯axcu쎯	-10.8641
oqdo쎯wfj쎁쎯	-10.8641
dssn쎀쎯sdht쎁쎯	-10.8643
ᠴvbs쎯zzbd쎂쎯	-10.8651
ayt쎯∂	-10.8651
ua쎯쎃쎅	-10.8653
fkuh쎀쎯ɒqvln쎁쎯	-10.8653
dftx쎯wgkw쎃쎯iepc쎯	-10.8653
wvgw쎅쎯jrif쎯jf쎯	-10.8659
fn	-10.8662
슈fbh쎀쎯	-10.8664
뭣lfon쎃쎯kfl쎯	-10.8665
fooy쎯tlnf쎯	-10.8665
edjn쎯zzdx쎁쎁쎯	-10.8666
ynwm쎀쎯vbs쎯	-10.8669
mfkp쎯dnbm쎯	-10.8671
kwye쎀쎯wgif쎯	-10.8671
sgdy쎁쎯vevg쎁쎯	-10.8672
qdy쎀쎯〔	-10.8673
vmgt쎁쎯ဂ	-10.8675
tfk쎀쎯	-10.8677
dssn쎀쎯ielf쎀쎯	-10.8677
ohqo쎀쎯뼉	-10.868
ẩfere쎯	-10.8681
kdhv쎯judb쎁쎯빛	-10.8681
쀊xudb쎀쎯qgiy쎁쎯	-10.8681
qouq쎀쎯	-10.8682
zzxe쎁쎆쎯	-10.8684
efcb쎯oqdo쎯	-10.8693
ewe쎯nlge쎀쎯elll쎀쎯	-10.8693
qokc쎯	-10.8694
ege쎯hg쎯	-10.8696
qkkn쎁쎯	-10.8697
뼉xqrn쎀쎯	-10.8698
qg	-10.8701
iy쎯mm쎯בofdj쎯	-10.8702
nwjh쎀쎯dssn쎀쎯	-10.8703
pv쎯	-10.8703
보cck쎯	-10.8703
nln쎯	-10.8706
gyv쎯wpn쎯tyke쎂쎯	-10.8712
qamy쎀쎯	-10.8712
zzde쎂쎈쎯yqqe쎯	-10.8712
ynwm쎀쎯ɒɒvbs쎯	-10.8714
qqky쎀쎯	-10.8714
kmn쎯	-10.8714
wrh쎂쎯ẩ	-10.8716
teae쎯zzxx쎉쎯	-10.8717
aib쎯슨	-10.8717
yam쎯rqcc쎀쎯ֶ	-10.8718
sgfl쎀쎯.zzbd쎂쎯	-10.8718
ydcy쎯jgsy쎯	-10.8719
쀊xrh쎀쎯tkw쎯se쎯	-10.8719
fkuh쎀쎯ɒynwm쎀쎯	-10.8721
sk쎯	-10.8722
wov쎯trvy쎯	-10.8722
wmcy쎯뼉	-10.8723
wgif쎯भ민zzbd쎂쎯	-10.8726
dssn쎀쎯쏅	-10.8727
ffff쎂쎯fyao쎯	-10.8727
yqqe쎯rpw쎯rmhj쎯	-10.8731
vlny쎯qtyd쎀쎯	-10.8733
iy쎯mm쎯sgfl쎀쎯.	-10.8734
dfee쎯alfw쎯	-10.8735
iy쎯mm쎯syp쎯	-10.874
Ớ	-10.8743
Ĉzzde쎂쎈쎯	-10.8744
namy쎀쎯yy쎯dm쎯	-10.8745
adn쎯zzbd쎅쎯	-10.8746
zzdx쎁쎁쎯슈qtfm쎁쎯	-10.8747
ẩaump쎯umaw쎀쎯	-10.8747
mjhg쎀쎯xxf쎯og쎯	-10.8749
lauy쎯	-10.8749
sudk쎯qlqj쎁쎯	-10.8749
ydcy쎯gkm쎯	-10.8749
xtyk쎁쎯რ	-10.875
wtfh쎀쎯jf쎯dssn쎀쎯	-10.875
ẩanwu쎯ywx쎯	-10.8754
vdeg쎀쎯	-10.8756
iepc쎯qorc쎀쎯	-10.8757
adeu쎯shwy쎯	-10.8758
▁	-10.8758
y쎯s쎯smg쎯	-10.8761
zzbd쎄쎯⎯	-10.8762
pg쎯	-10.8764
rlf쎁쎯faqb쎯	-10.8765
yy쎯tm쎯ix쎯	-10.877
zzbd쎂쎯kr쎯tnhc쎁쎯	-10.8771
ssu쎯afu쎯	-10.8771
tpe쎯tvfh쎁쎯	-10.8771
yqjg쎯zzdx쎉쎯	-10.8773
jthf쎀쎯qlqj쎁쎯	-10.8773
ntol쎯	-10.8773
zzde쎃쎯jued쎀쎯adn쎯	-10.8774
tmdq쎁쎯등zzbd쎂쎯	-10.8776
sfcy쎁쎯mumj쎯	-10.8777
oopm쎀쎯zzjp쎁쎅쎯	-10.8778
ynna쎀쎯fpo쎯ẩ	-10.878
nvk쎯nwjh쎀쎯	-10.8783
vadt쎯nqdb쎀쎯މby쎯	-10.8784
wgmy쎀쎯ssss쎀쎯msv쎯	-10.8786
vdf쎀쎯vknn쎯iy쎯mm쎯	-10.8787
dmjd쎀쎯료	-10.8789
wgkw쎃쎯uqt쎯js쎯	-10.879
혹iqaw쎯	-10.8791
쀊oopm쎀쎯	-10.8794
itky쎯⟩	-10.8798
zzts쎁쎈쎯u쎯kkk쎯	-10.8799
ồzzbd쎆쎯	-10.8799
iy쎯mm쎯fkeg쎯	-10.88
tam쎯	-10.88
ŗfnx쎯jued쎀쎯	-10.8801
qvf쎀쎯	-10.8801
iyps쎯	-10.8801
wsg쎀쎯zzxe쎂쎇쎯	-10.8802
yqjg쎯zzbd쎂쎯	-10.8802
osjh쎁쎯yygy쎯je쎯	-10.8805
iyp쎯iugo쎯	-10.8806
juk쎯ywgj쎄쎯qsyy쎯	-10.8807
odd쎯mhny쎁쎯	-10.8808
dftx쎯ynwm쎀쎯ɒ	-10.8809
mtje쎃쎯hg쎯	-10.881
khah쎀쎯aeef쎁쎯	-10.881
qvln쎁쎯etfp쎀쎯	-10.8812
ansu쎯fjqn쎁쎯icd쎯	-10.8812
t쎁쎯	-10.8812
5	-10.8815
issh쎯	-10.8818
apwj쎯qfdj쎯	-10.8819
afam쎀쎯wprc쎀쎯	-10.8823
dmjd쎀쎯udjf쎀쎯vbs쎯	-10.8824
며lagg쎯	-10.8825
edjn쎯kpvg쎯	-10.8827
olf쎯gqt쎯ix쎯	-10.8828
qkty쎯〔	-10.8833
nq쎯icd쎯	-10.8833
팔	-10.8834
kknk쎀쎯	-10.8834
qvln쎁쎯ɒɒkkbh쎯	-10.8835
wtfv쎀쎯rkk쎯wt쎯	-10.8836
ᣫmci쎀쎯	-10.8839
uqvh쎂쎯vfhw쎁쎯	-10.884
xjx쎯qcrh쎯zzbd쎂쎯	-10.8841
mgkq쎯mgkq쎯	-10.8844
dfd쎯kgcf쎀쎯	-10.8846
pq쎯dpgg쎯	-10.8847
mpf쎯lftj쎯	-10.8849
rtfh쎀쎯puy쎯ufn쎯	-10.885
wpyg쎁쎯	-10.885
uqt쎯js쎯ynwm쎀쎯ɒ	-10.8851
oguc쎀쎯kpvg쎯	-10.8852
zzbd쎂쎯ghd쎁쎯ua쎯	-10.8854
oqdo쎯qsfi쎯aqdo쎯	-10.8865
wyvf쎁쎯	-10.8865
aqah쎀쎯	-10.8867
rtfh쎀쎯qkhk쎯	-10.8869
afam쎀쎯בމadn쎯	-10.887
wgky쎂쎯	-10.8872
qdh쎯	-10.8872
ydcy쎯fpgo쎀쎯	-10.8873
smg쎯yygy쎯je쎯	-10.8876
puyg쎯iawk쎁쎯	-10.8877
iepc쎯료	-10.888
wjgr쎀쎯zzbd쎅쎯	-10.8881
gajl쎯jpta쎯qmy쎁쎯	-10.8881
åfkuh쎀쎯ynwm쎀쎯	-10.8883
tlkf쎯	-10.8883
wfil쎀쎯qwnd쎯ca쎯	-10.8884
fff쎀쎯peg쎯	-10.8884
iy쎯mm쎯	-10.8885
Ąxflm쎯	-10.8886
f쎯yy쎯변	-10.8888
hc쎯	-10.889
qgvb쎯puyg쎯בofdj쎯	-10.8891
tepu쎯	-10.8892
qamh쎀쎯징	-10.8894
tlnf쎯wgif쎯भ	-10.8895
tgk쎯yten쎯	-10.8895
qouq쎀쎯	-10.8896
fff쎀쎯nhdi쎀쎯	-10.89
zzdx쎁쎁쎯klle쎯wnx쎯	-10.8901
xflm쎯jued쎀쎯	-10.8903
enn쎀쎯icd쎯	-10.8903
hako쎯ᆞẩ	-10.8906
iovg쎯ẩ	-10.8906
bynn쎯ipr쎯iy쎯mm쎯	-10.8907
erey쎯wton쎀쎯	-10.8907
pyu쎯މoqdo쎯	-10.891
jaqh쎯uus쎯iy쎯mm쎯	-10.8913
ncd쎯qve쎯	-10.8914
zzbd쎄쎯dmjd쎀쎯ẩ	-10.8915
zzpj	-10.8917
lnav쎯ijl쎯	-10.8917
wuh쎀쎯tl쎯	-10.8917
fhit쎀쎯iy쎯mm쎯	-10.8919
vpns쎯	-10.892
aadr쎁쎯texd쎀쎯	-10.8921
혹dfny쎁쎯	-10.8922
wuh쎀쎯mqyl쎯	-10.8923
aqtb쎀쎯	-10.8933
ಠaxa쎯	-10.8934
pvdm쎯txgi쎄쎯	-10.8936
dic쎯lccc쎃쎯zzbd쎂쎯	-10.8936
며vevg쎁쎯	-10.8937
qayg쎯	-10.8939
ẩteae쎯	-10.8939
badw쎀쎯texd쎀쎯	-10.894
fefy쎯fcbh쎁쎯	-10.8941
xaet쎯	-10.8942
teae쎯xgfh쎀쎯rnp쎯	-10.8942
wgif쎯भayec쎯smg쎯	-10.8944
ctrt쎯gnn쎀쎯oqdo쎯	-10.8944
ㄫiit쎯	-10.8945
ᦆiqje쎀쎯zzbd쎂쎯	-10.8946
gag쎯ftux쎯	-10.8947
ฯvxx쎯jf쎯	-10.8948
yqvg쎀쎯fff쎀쎯	-10.8949
kccc쎯aqsc쎯qwyn쎁쎯	-10.8949
교	-10.8955
gf쎀쎯	-10.8955
ẩxmw쎯	-10.8955
qm쎯	-10.8958
쁘xfkm쎀쎯	-10.8959
ĵtebl쎯	-10.896
ygqt쎯dujf쎂쎯	-10.8963
슈xrh쎀쎯	-10.8964
xtol쎀쎯igji쎯	-10.8966
ghnn쎀쎯zzxe쎉쎯	-10.8967
zzpj쎇쎄쎯┯	-10.8968
ayec쎯헬	-10.8968
fnu쎀쎯emww쎯	-10.8968
inyu쎯sam쎯	-10.8969
kgne쎁쎯	-10.8971
xj쎯ndj쎯	-10.8971
qvln쎁쎯	-10.8974
(rwyg쎀쎯	-10.8974
zzbd쎂쎯sgxe쎯aqdo쎯	-10.8975
jqrt쎀쎯	-10.8979
zzbd쎂쎯rqcc쎀쎯	-10.898
dgar쎀쎯	-10.898
yssj쎂쎯zzbd쎅쎯	-10.8981
gkhj쎁쎯sgva쎯	-10.8982
wgmy쎀쎯tegf쎀쎯	-10.8985
sgxe쎯snn쎁쎯	-10.8985
ådssn쎀쎯	-10.8986
Ἀayec쎯iy쎯mm쎯	-10.899
qskk쎯iawk쎁쎯	-10.8991
sync쎯qug쎀쎯	-10.8993
zzbd쎈쎯	-10.8994
fpo쎯쀊yntm쎂쎯dpgg쎯	-10.8995
왜gahm쎁쎯	-10.8996
Ἀayec쎯tlnf쎯	-10.8997
jjq쎯zzjp쎃쎈쎯잖	-10.8999
jeg쎯fpgo쎀쎯	-10.9001
tyke쎂쎯iy쎯mm쎯	-10.9002
sgxe쎯gftj쎯	-10.9005
kyxy쎁쎯lagg쎯	-10.9006
cqbt쎀쎯ཛ	-10.9007
ydcy쎯giv쎯qmwy쎁쎯	-10.9008
ynah쎁쎯dssn쎀쎯	-10.9008
qtfm쎁쎯qvln쎁쎯ɒɒ	-10.9008
avyn쎯njqn쎯	-10.901
wtff쎁쎯xjx쎯	-10.9011
iepc쎯oope쎁쎯ɒɒ	-10.9012
ޭ	-10.9012
fpgo쎀쎯btfn쎀쎯	-10.9012
itky쎯imwy쎀쎯	-10.9013
ix쎯tlnf쎯iy쎯mm쎯	-10.9014
cwgd쎁쎯rqcy쎁쎯	-10.9015
ft	-10.902
spr쎯	-10.9025
wiy쎀쎯by쎯	-10.9029
tnhc쎁쎯vpns쎯khpb쎯	-10.903
dssn쎀쎯iuyy쎯oqdo쎯	-10.9032
ul쎯wtf쎯	-10.9032
uqvh쎂쎯jytb쎁쎯	-10.9034
axcu쎯tpw쎯	-10.9034
tnhc쎁쎯ryty쎁쎯qta쎯	-10.9036
afm쎯	-10.9038
xfcy쎀쎯gkhj쎁쎯	-10.904
zzbd쎅쎯å	-10.9041
zzxe쎉쎯alfw쎯	-10.9041
fff쎀쎯징sfgn쎯	-10.9042
xflm쎯llnu쎯	-10.9043
iudi쎀쎯vbs쎯zzbd쎂쎯	-10.9044
vpns쎯ywx쎯	-10.9045
iy쎯mm쎯ydcy쎯ajqg쎯	-10.9046
aw	-10.9046
vbs쎯zzbd쎂쎯wgkw쎃쎯	-10.9046
flmu쎀쎯by쎯	-10.9046
dssn쎀쎯ltkf쎀쎯	-10.9047
ofkk쎀쎯ghd쎁쎯	-10.9048
aeef쎁쎯Ἴ	-10.9049
ŗމzzbd쎂쎯	-10.905
ybo쎯dwg쎯	-10.9051
sgdy쎁쎯	-10.9052
sudk쎯yygy쎯je쎯	-10.9054
dssn쎀쎯zzbd쎂쎯q	-10.9056
ijgr쎀쎯	-10.9056
thdc쎁쎯	-10.9056
fdjd쎀쎯qrc쎯	-10.9056
ilrc쎯qtx쎯	-10.9057
ghnu쎀쎯skg쎯iy쎯mm쎯	-10.9058
iepc쎯wfcj쎯qvln쎁쎯	-10.9059
xxf쎯og쎯jcf쎯	-10.9061
smg쎯eejf쎀쎯	-10.9063
eenc쎯jf쎯	-10.9064
ŗygey쎀쎯	-10.9066
nufh쎀쎯anw쎯	-10.9069
Ąaecn쎯tkw쎯se쎯	-10.9069
rqcc쎀쎯wpn쎯	-10.9069
dm쎯	-10.907
jrif쎯jvip쎀쎯anwu쎯	-10.907
qvln쎁쎯zzbd쎀쎯	-10.907
iy쎯mm쎯vpns쎯tdp쎯	-10.9073
rwp쎯twic쎀쎯qokf쎀쎯	-10.9075
ฯvxx쎯	-10.9076
sgfl쎀쎯vwyo쎯	-10.9077
qsfi쎯	-10.9077
wfcj쎯료	-10.9077
zzxe쎂쎇쎯vfhl쎀쎯	-10.9079
qvln쎁쎯ɒɒvbs쎯	-10.908
zzbd쎂쎯녹qtdd쎀쎯	-10.9083
iepc쎯duvo쎀쎯yqj쎯	-10.9085
yaqj쎂쎯vnf쎯	-10.9088
nwjh쎀쎯qwnd쎯	-10.9092
afan쎀쎯dpgg쎯	-10.9096
th쎯sbb쎯	-10.9097
며qwyn쎁쎯zzbd쎂쎯	-10.91
qkty쎯zzbd쎂쎯	-10.9102
wfj쎁쎯wgmy쎀쎯	-10.9102
sam쎯fpgc쎁쎈쎯	-10.9102
fgu쎯texd쎀쎯nqdb쎀쎯	-10.9103
pnw쎯skg쎯	-10.9107
kmwj쎯ֻfn쎯qyiy쎀쎯	-10.9107
mmm쎯aq쎯ብ	-10.9111
ltkf쎀쎯qtfm쎁쎯	-10.9111
bufh쎯dpwi쎯	-10.9114
dwwo쎁쎯goqh쎯	-10.9117
xfkm쎀쎯aga쎯	-10.9118
dqtn쎯iyny쎁쎯	-10.9118
료snih쎯	-10.9119
punh쎂쎯ayxy쎯	-10.9119
jg쎀쎯	-10.9119
ajq쎯	-10.912
ydcy쎯dpgg쎯	-10.9122
yooy쎯	-10.9123
iy쎯mm쎯헬ghd쎁쎯	-10.9124
fiwe쎯뼉ith쎯xe쎯	-10.9125
ub쎯xriy쎂쎯াqyvh쎀쎯	-10.9126
pwry쎀쎯	-10.9128
vny쎀쎯ghd쎁쎯	-10.9131
⎯qsyy쎯	-10.9135
궁xyxw쎁쎯	-10.9136
iooo쎯ᦆ	-10.9138
Ķaqkn쎯	-10.9138
hpqb쎯	-10.9146
uj	-10.9147
oyhy쎯	-10.9148
afij쎀쎯igji쎯	-10.9149
aecn쎯Ąynna쎀쎯fpo쎯	-10.9149
어zzdx쎂쎯헬	-10.9149
khy	-10.915
fff쎀쎯fhuw쎯	-10.915
ag쎯	-10.915
wgif쎯भoqdo쎯	-10.9153
jada쎁쎯ֻoqdo쎯	-10.9156
tyke쎂쎯jatn쎀쎯	-10.9159
xieg쎁쎯	-10.916
qfdj쎯tjwv쎯iy쎯mm쎯	-10.9161
xqay쎀쎯ֶ	-10.9161
Ĉrwyg쎀쎯tkw쎯se쎯	-10.9163
dttj쎀쎯tool쎀쎯	-10.9165
cwgd쎁쎯rfnf쎁쎯	-10.9166
xflm쎯anw쎯	-10.9168
qgn쎯wh쎯	-10.917
yhk쎯wtff쎁쎯	-10.917
tltk쎁쎯utd쎯	-10.9171
mqjh쎀쎯wny쎀쎯	-10.9174
xjnt쎯najf쎀쎯	-10.9175
itd쎯zzbd쎆쎯	-10.9176
zzbd쎂쎯혹rqct쎁쎯	-10.9184
yaah쎁쎯emww쎯	-10.9185
qyiy쎀쎯saq쎯	-10.9187
qwyn쎁쎯wsdn쎯	-10.9188
ཅ	-10.919
zzbd쎂쎯ydcy쎯giv쎯	-10.9191
evwo쎀쎯wtfh쎀쎯	-10.9194
ooqh쎁쎯xflm쎯	-10.9197
khob쎯	-10.9197
zzbd쎂쎯vevg쎁쎯adn쎯	-10.9201
iafl쎀쎯청	-10.9201
uus쎯wrh쎂쎯	-10.9201
wt쎯	-10.9201
sqqf쎁쎯tgk쎯	-10.9201
yy쎯dm쎯qtvq쎁쎯	-10.9201
בyssj쎁쎯	-10.9204
wfcj쎯iepc쎯msv쎯	-10.9204
ང	-10.9209
sgyb쎀쎯rymn쎯	-10.921
jued쎀쎯vevg쎁쎯vg쎯	-10.921
qolj쎀쎯tejh쎀쎯jf쎯	-10.9212
iy쎯mm쎯gmfg쎀쎯qer쎯	-10.9215
qgn쎯yqj쎯	-10.9217
zzbd쎂쎯dfsh쎯ghd쎁쎯	-10.9217
rnp쎯buah쎀쎯	-10.9219
qtnx쎯qenh쎯	-10.922
zzde쎂쎈쎯smg쎯	-10.9223
iy쎯mm쎯vny쎀쎯mhnf쎯	-10.9224
xgfh쎀쎯뼉	-10.9226
ڪxflm쎯	-10.9227
qbhf쎯aigy쎯	-10.9227
yaop쎀쎯ahnr쎀쎯jf쎯	-10.9228
sqk쎯	-10.9228
ȓfhfq쎯	-10.923
utbd쎯ftux쎯	-10.9232
mqjh쎀쎯aha쎯	-10.9233
qbh쎄쎯ghd쎁쎯	-10.9234
jued쎀쎯rs쎯tfkp쎀쎯	-10.9234
uepc쎁쎯fth쎯iy쎯mm쎯	-10.9235
ngky쎯djdd쎀쎯	-10.9236
ಠ	-10.9237
qsyy쎯zzdx쎁쎁쎯txt쎯	-10.9238
zzbd쎂쎯컥	-10.924
qvln쎁쎯qorc쎀쎯	-10.9247
vcao쎁쎯vcao쎁쎯	-10.9248
릿adn쎯	-10.925
xflm쎯cep쎯fp쎯	-10.9251
mmgk쎁쎯ɧ	-10.9253
lynw쎀쎯fn쎯	-10.9254
itdh쎀쎯	-10.9255
wfcj쎯iepc쎯iepc쎯	-10.9259
iy쎯mm쎯awwp쎯Ἴ	-10.9264
ofkk쎀쎯ᨣiy쎯mm쎯	-10.9265
zzbd쎂쎯syny쎀쎯	-10.9267
qvln쎁쎯ɒnwjh쎀쎯	-10.9269
ynwm쎀쎯ɒvbs쎯	-10.9269
wgkw쎃쎯qfh쎁쎯lv쎯	-10.9274
ynna쎀쎯tebl쎯	-10.9274
Ἀqug쎀쎯vwyo쎯kpvg쎯	-10.9275
fujh쎯쎃쎅	-10.9277
vdf쎀쎯qwet쎀쎯	-10.9279
qtfs쎯	-10.9284
pwkv쎯ubtn쎀쎯	-10.9285
쁘buah쎀쎯	-10.9286
qtnx쎯wgkw쎃쎯(	-10.9287
pvdm쎯zzbd쎂쎯	-10.9289
jgc쎯ijlc쎯	-10.9289
xtol쎀쎯ẩ	-10.9292
qtdd쎀쎯ghd쎁쎯	-10.9295
rvyg쎯	-10.9295
ref쎯	-10.9298
슈wpn쎯lpk쎀쎯	-10.9299
tnhc쎁쎯Ĉế	-10.9304
sgfl쎀쎯.iy쎯mm쎯	-10.9305
yue쎯	-10.9306
aecn쎯Ąẩ	-10.9306
ynwm쎀쎯rnd쎁쎯qgjl쎯	-10.9307
ddr쎯	-10.9308
fnud쎯afkk쎁쎯	-10.9308
zzbd쎂쎯쀊jgd쎀쎯	-10.9311
sudk쎯waqj쎯	-10.9311
vkb쎯dssn쎀쎯	-10.9311
qnwe쎀쎯ix쎯	-10.9311
aecn쎯wfhw쎯	-10.9314
zzbd쎅쎯qvln쎁쎯ɒɒ	-10.9314
yujg쎀쎯sam쎯	-10.9314
쎂쎀쎀쎅rh쎯ẩ	-10.9315
ai쎯kpvg쎯	-10.9316
usfg쎯uguh쎀쎯	-10.9317
qty쎂쎯	-10.9321
yygy쎯je쎯wgmf쎯	-10.9322
iy쎯mm쎯ֶdpgg쎯	-10.9322
kpvg쎯	-10.9323
kwye쎀쎯wmj쎁쎯ẩ	-10.9323
╛	-10.9326
vpns쎯rgiq쎀쎯	-10.9326
tjwv쎯fnx쎯	-10.9326
khyj쎯	-10.9328
yqj쎯zzjp쎃쎅쎯	-10.9329
fere쎯r쎯v쎯nae쎀쎯	-10.933
qbh쎄쎯쀊weh쎯	-10.9331
xxm쎯	-10.9332
eqw쎯pybn쎯	-10.9333
nh	-10.9334
xln쎁쎯iy쎯mm쎯	-10.9336
jtfp쎁쎯რ	-10.9337
gegg쎯	-10.9337
smg쎯tlnf쎯	-10.9339
ix쎯cep쎯fp쎯	-10.9339
헬iawk쎁쎯	-10.9341
Ķaecn쎯wrh쎂쎯	-10.9349
혹vwyo쎯	-10.935
hako쎯qsyy쎯	-10.9351
qgig쎁쎯wym쎯wgkw쎃쎯	-10.9353
awxx쎯	-10.9354
ryty쎁쎯	-10.9355
wfcj쎯iepc쎯å	-10.9356
skg쎯qsyy쎯	-10.9358
mtje쎃쎯qsyy쎯	-10.9358
zzbd쎂쎯djg쎯wuh쎀쎯	-10.936
afpa쎯idgt쎀쎯ddi쎯	-10.9363
xef쎯	-10.9364
xgmx쎀쎯kpvg쎯	-10.9364
kr쎯wgmy쎀쎯	-10.9369
iepc쎯dftx쎯fkuh쎀쎯	-10.9369
awct쎀쎯oguc쎀쎯	-10.9371
zzde쎃쎯vevg쎁쎯	-10.9373
ytb쎯	-10.9373
wuh쎀쎯zzdx쎁쎁쎯	-10.9374
rymn쎯ẩ	-10.9375
wdj쎯fudk쎯	-10.9381
ẩsntn쎀쎯ygq쎯	-10.9383
cep쎯fp쎯ayec쎯zz	-10.9383
xrh쎀쎯aecn쎯qtfm쎁쎯	-10.9383
ʋfhit쎀쎯	-10.9386
mjhg쎀쎯twyc쎃쎯	-10.9386
iy쎯mm쎯wgif쎯Ĉ	-10.9389
iq쎯	-10.9389
wsdn쎯rtfh쎀쎯	-10.9389
jwfy쎯	-10.939
mqyl쎯sdht쎁쎯	-10.9391
dssn쎀쎯wjgr쎀쎯┯	-10.9391
『qtfm쎁쎯	-10.9392
ẩxans쎁쎯	-10.9393
Ȓzzbd쎂쎯	-10.9398
tyke쎂쎯ayec쎯	-10.94
ydcy쎯청ᦆ	-10.9401
kxxi쎀쎯texd쎀쎯	-10.9402
qtfm쎁쎯ryty쎁쎯	-10.9406
crqc쎯zzbd쎂쎯	-10.9406
no쎯	-10.9406
qtfm쎁쎯혹rkk쎯wt쎯	-10.9407
waag쎯	-10.9407
zzdx쎉쎯dee쎯	-10.9409
aq쎯	-10.941
adn쎯rqcc쎀쎯막	-10.9411
〔iawk쎁쎯	-10.9411
oopm쎀쎯kccc쎯	-10.9413
며რ	-10.9413
zzjp쎃쎅쎯wgif쎯भ민	-10.9416
zzbd쎂쎯ȓ	-10.9419
Zgkub쎀쎯	-10.9419
fff쎀쎯fff쎀쎯	-10.942
lccc쎃쎯afkk쎁쎯	-10.9421
ḗ	-10.9421
ẩatkf쎀쎯	-10.9422
qccs쎯jiqn쎂쎯	-10.9426
ynna쎀쎯sync쎯	-10.943
eua쎯flmu쎀쎯	-10.9432
ob쎯iat쎁쎯	-10.9433
euds쎯	-10.9434
wynl쎀쎯mci쎀쎯	-10.9434
fpgc쎁쎈쎯យ	-10.9435
jcf쎯umaw쎀쎯	-10.9437
ytfm쎯askf쎀쎯	-10.944
iudi쎀쎯rqct쎁쎯	-10.9441
)	-10.9442
avkr쎯rgkl쎀쎯	-10.9443
fh	-10.9443
vadt쎯ix쎯waqj쎯	-10.9446
eg	-10.9448
번	-10.9449
xjnt쎯ֻ	-10.9454
jvip쎀쎯chqn쎯	-10.9454
)zzbd쎅쎯	-10.9455
zzbd쎄쎯qtfm쎁쎯	-10.9458
sgxe쎯difc쎯ygji쎯	-10.9459
rfoy쎯ᦡ	-10.9459
qoce쎀쎯	-10.9463
wuh쎀쎯qtdd쎀쎯Ĉế	-10.9464
fmkg쎯	-10.947
뼉ith쎯xe쎯	-10.9473
zzbd쎂쎯ielf쎀쎯	-10.9473
ydcy쎯swgj쎁쎯	-10.9475
ijgf쎀쎯ncd쎯	-10.9475
iqaw쎯wgkw쎃쎯	-10.9476
uvq쎯yrh쎀쎯	-10.9476
rcy	-10.9477
jyj쎯	-10.9477
udjf쎀쎯vbs쎯oqdo쎯	-10.9478
Ďvwyo쎯zzbd쎅쎯	-10.9478
aecn쎯Ąqmy쎁쎯	-10.9479
xqrn쎀쎯qwnd쎯	-10.9484
etxu쎯rymn쎯	-10.9484
odm쎯jued쎀쎯zzbd쎅쎯	-10.9489
rrrj쎯fff쎀쎯	-10.9493
nufh쎀쎯aha쎯	-10.9495
jah쎯	-10.9496
며헬	-10.9497
qnp쎯합	-10.9498
khjf쎀쎯wpn쎯dssn쎀쎯	-10.9499
Պvkb쎯	-10.9501
iafl쎀쎯adn쎯weh쎯	-10.9502
ugkj쎯	-10.9503
oopm쎀쎯┯udfm쎀쎯	-10.9503
pugx쎀쎯goqh쎯krc쎯	-10.9504
aitl쎯tfqb쎁쎯	-10.9505
pyld쎁쎯wgkw쎃쎯	-10.9506
mhag쎀쎯gag쎯	-10.9509
xflm쎯pugi쎀쎯	-10.951
fdmm쎀쎯wuvg쎯	-10.9511
wjgr쎀쎯syp쎯	-10.9512
ffff쎂쎯tejh쎀쎯	-10.9514
쎈hg쎯zzbd쎅쎯	-10.9514
qwnd쎯oqdo쎯	-10.9521
dubh쎯	-10.9524
kr쎯qsfi쎯	-10.9524
fptc쎀쎯zzdx쎁쎁쎯	-10.9533
td쎯ykw쎯	-10.9534
peg쎯ygq쎯	-10.9536
kxxi쎀쎯waqj쎯	-10.9536
sdht쎁쎯xfkm쎀쎯	-10.9537
if	-10.9537
lfci쎯aik쎯	-10.9537
괁	-10.954
fiwe쎯뼉	-10.9543
zzbd쎂쎯iwgd쎯	-10.9543
oqdo쎯헬gag쎯	-10.9544
tak쎯aqkf쎀쎯iuyy쎯	-10.9545
xudb쎀쎯tejh쎀쎯	-10.9545
djg쎯	-10.9546
tdko쎯qskk쎯	-10.9546
wmj쎁쎯dssn쎀쎯	-10.9546
xrh쎀쎯lagg쎯	-10.9547
Ĉẩ	-10.9549
erh쎯spju쎀쎯	-10.9549
ygqt쎯sjfh쎯	-10.955
ygeg쎯	-10.9551
vng쎯qgcf쎁쎯	-10.9551
zzbd쎂쎯혹rkk쎯wt쎯	-10.9553
쎁쎉쎉쎉rh쎯엽	-10.9553
xfcy쎀쎯jgsy쎯	-10.9553
tegf쎀쎯Ķ	-10.9557
wprc쎀쎯xtuh쎯	-10.956
kw쎃쎯xxf쎯og쎯efcb쎯	-10.9561
efcb쎯	-10.9562
iepc쎯oope쎁쎯åɒ	-10.9562
adn쎯iepc쎯	-10.9562
duk쎀쎯wpht쎯	-10.9563
aeef쎁쎯jgd쎀쎯	-10.9564
wgkw쎃쎯ҡdssn쎀쎯	-10.9566
qvln쎁쎯udjf쎀쎯vbs쎯	-10.9566
➤itky쎯	-10.9571
yam쎯aecn쎯	-10.9574
jrif쎯sbkg쎀쎯	-10.9576
zzbd쎂쎯tpe쎯	-10.9577
lpk쎀쎯xfn쎯xewo쎯	-10.9578
dee쎯rwyg쎀쎯adn쎯	-10.9579
aya쎯	-10.9581
sq	-10.9581
jhng쎀쎯	-10.9583
alfw쎯skkn쎁쎯	-10.9584
djh쎀쎯qfdj쎯	-10.9585
rrrj쎯ijgf쎀쎯	-10.9586
khaj쎂쎯vagf쎯	-10.959
『wgkw쎃쎯	-10.959
ldbn쎯tnuh쎀쎯	-10.9595
zzjp쎁쎈쎯	-10.9596
ydcy쎯gyv쎯	-10.9596
Ďvwyo쎯ẩ	-10.9596
iepc쎯iepc쎯ynwm쎀쎯	-10.9597
kih쎯	-10.96
faoi쎯vbs쎯	-10.96
wtfh쎀쎯nvk쎯	-10.96
wfj쎁쎯afkk쎁쎯	-10.9602
ww쎯gk쎯kyxy쎁쎯	-10.9604
qum쎯ijgf쎀쎯	-10.9605
wadn쎯	-10.9606
რfnw쎯¦	-10.9609
wgmy쎀쎯qyiy쎀쎯	-10.961
nujh쎀쎯ajjh쎯efcb쎯	-10.9612
며lpk쎀쎯	-10.9616
aha쎯hlqc쎀쎯tyke쎂쎯	-10.9617
〔oqdo쎯	-10.9617
tpw쎯oqdo쎯	-10.9618
cel쎯	-10.9618
ith쎯xe쎯yjdg쎯lyn쎯	-10.9619
aeef쎁쎯Ķ	-10.9625
nay쎀쎯uh쎯	-10.9625
헌	-10.9627
w쎯km쎯ᦆ	-10.9632
gmf쎯jued쎀쎯	-10.9632
ẩრijgf쎀쎯	-10.9633
gajn쎀쎯ooqh쎁쎯	-10.9633
ifcl쎯tdko쎯	-10.9637
oope쎁쎯wfcj쎯	-10.9637
ទ	-10.964
xpn쎯kdhv쎯iy쎯mm쎯	-10.9641
iepc쎯msv쎯	-10.9643
tegf쎀쎯tdko쎯	-10.9644
vadt쎯쎂	-10.9644
kwye쎀쎯ayec쎯	-10.9645
dic쎯iy쎯mm쎯	-10.9645
qcrh쎯fooy쎯	-10.9647
ynwm쎀쎯vbs쎯zzbd쎂쎯	-10.9648
rovt쎯	-10.9655
emww쎯by쎯iy쎯mm쎯	-10.9656
aahl쎀쎯wtfh쎀쎯	-10.9657
xrh쎀쎯oue쎯zzbd쎅쎯	-10.966
adn쎯iawk쎁쎯sfgn쎯	-10.966
uwvn쎀쎯texd쎀쎯	-10.9661
zzbd쎂쎯fhuk쎁쎯	-10.9661
sgxe쎯axa쎯	-10.9662
zzbd쎂쎯wydm쎯	-10.9662
ayec쎯ayec쎯민oqdo쎯	-10.9662
zzbd쎂쎯wsdn쎯ㄫ	-10.9663
uqvh쎂쎯xul쎯	-10.9664
mesg쎯mesg쎯	-10.9666
kgjf쎀쎯	-10.9669
gl쎯	-10.9669
jywf쎀쎯fhit쎀쎯	-10.9671
qvln쎁쎯ɒwym쎯khpj쎯	-10.9673
tlnf쎯judb쎁쎯어jtn쎯	-10.9674
lyn쎯tfl쎯	-10.9675
jvip쎀쎯qyvl쎀쎯	-10.9675
crqc쎯)	-10.9675
tmdf쎁쎯ua쎯	-10.9677
awwp쎯fth쎯zzbd쎅쎯	-10.9677
fue쎯	-10.9677
vkhh쎯ẫ	-10.9678
puyg쎯awwo쎀쎯	-10.968
zzjp쎃쎅쎯ljlg쎁쎯	-10.9681
uxe쎯ca쎯	-10.9681
zzbd쎂쎯슨ua쎯djg쎯	-10.9681
ifwt쎯	-10.9683
wpde쎁쎯ocyj쎯	-10.9684
dhc쎯rs쎯tfkp쎀쎯	-10.9688
iepc쎯dftx쎯ɒɒ	-10.969
zzj쎀쎯	-10.969
Æ	-10.9694
젖mqyl쎯	-10.9697
yufe쎯hghn쎯	-10.9697
difc쎯usq쎯ẩ	-10.9698
jfwo쎯emww쎯	-10.9701
쏅xxe쎯	-10.9702
aahl쎀쎯쀊iuyy쎯	-10.9702
qipr쎯xudb쎀쎯oqdo쎯	-10.9704
zzjp쎆쎉쎯	-10.9705
즈	-10.9705
yh쎯	-10.9707
료zzdx쎁쎁쎯	-10.9708
oqdo쎯xtgo쎯ghd쎁쎯⎯	-10.9708
an쎯lwj쎯초tkw쎯se쎯	-10.9709
fcjn쎯	-10.971
sdht쎁쎯qwyn쎁쎯	-10.9712
헬qyc쎯	-10.9713
oqdo쎯idi쎯yi쎯	-10.9713
qrrm쎯qta쎯	-10.9713
މ민oqdo쎯	-10.9715
yy쎯tm쎯rdht쎀쎯	-10.9715
awwp쎯ghd쎁쎯	-10.9716
fdl쎯	-10.9718
kr쎯eujg쎯ith쎯xe쎯	-10.9719
mb쎯	-10.9719
xv쎯deuj쎂쎯	-10.9719
mtyi쎯lfk쎯	-10.9719
aecn쎯┯	-10.9721
fpo쎯tlnf쎯	-10.9724
w쎯km쎯wuh쎀쎯	-10.9725
ẩqay쎁쎯	-10.9725
srlo쎯	-10.9728
꼬ijgf쎀쎯	-10.9729
xpn쎯ktr쎯	-10.9729
mfc쎯wtff쎁쎯wgmf쎯	-10.9731
tmo쎯	-10.9734
gprw쎯	-10.9737
ใ	-10.9738
goqh쎯qwyn쎁쎯	-10.9746
byi쎁쎯qyiy쎀쎯	-10.9747
dfsh쎯mpk쎀쎯	-10.9748
ɒvbs쎯zzbd쎂쎯	-10.9748
etxu쎯ugx쎯	-10.9748
쎅	-10.975
jtn쎯tebl쎯	-10.9752
efcb쎯jcf쎯	-10.9753
rj쎯ym쎯qtvq쎁쎯	-10.9754
zzbd쎂쎯anhf쎃쎯	-10.9755
ysjh쎯puwj쎀쎯	-10.9758
yqvg쎀쎯ghd쎁쎯	-10.9758
vny쎀쎯ᨣiy쎯mm쎯	-10.9761
dhdl쎁쎯xv쎯	-10.9762
uth쎯cfcy쎁쎯	-10.9763
ydcy쎯oafg쎁쎯	-10.9764
eap쎯	-10.9764
ynwm쎀쎯tyvk쎁쎯	-10.9765
tebl쎯რ	-10.9765
thal쎀쎯omdy쎯	-10.9767
jqrc쎯	-10.9767
dssn쎀쎯xudb쎀쎯	-10.9768
ynna쎀쎯fff쎀쎯	-10.9768
ynwm쎀쎯crqc쎯	-10.9769
pei쎯n쎯ynwm쎀쎯	-10.9769
md쎯	-10.9774
jtfp쎁쎯wgmy쎀쎯	-10.9774
zzbd쎂쎯ua쎯yqj쎯	-10.9774
vkb쎯zzbd쎂쎯	-10.9776
qdu쎀쎯	-10.9778
yevg쎯sqoj쎯	-10.9782
gkjg쎯nufh쎀쎯	-10.9782
gias쎯jcf쎯	-10.9782
w쎯n쎯lkwo쎀쎯iy쎯mm쎯	-10.9782
xgfh쎀쎯yveu쎯rnp쎯	-10.9784
tmdf쎁쎯tkgg쎁쎯ycb쎯	-10.9786
qb쎯	-10.9786
qtny쎁쎯ስiy쎯mm쎯	-10.9786
zzsx쎁쎃쎯	-10.9786
ah	-10.9788
rqcc쎀쎯atd쎯ip쎯	-10.9789
dmjd쎀쎯ctrt쎯	-10.9789
ằugx쎯	-10.979
ajdr쎯	-10.9794
qsfi쎯aqdo쎯wfj쎁쎯	-10.9794
auj쎯lpk쎀쎯	-10.9795
sgxe쎯adeu쎯	-10.9795
iy쎯mm쎯xfkm쎀쎯	-10.9796
ẩrwp쎯	-10.9796
iyvh쎀쎯	-10.9797
hxn쎯	-10.9798
mci쎀쎯iy쎯mm쎯	-10.9798
mfd쎂쎯ydm쎯	-10.9798
aha쎯xflm쎯	-10.9799
qfdj쎯hgo쎯	-10.9799
Ἅxfcy쎀쎯	-10.9801
iwgd쎯tegf쎀쎯	-10.9801
egey쎀쎯mhtl쎯jf쎯	-10.9803
tdwo쎁쎯	-10.9803
pugx쎀쎯xflm쎯	-10.9804
qay쎁쎯ncd쎯	-10.9805
yagf쎯	-10.9805
tdjh쎀쎯	-10.981
wtn쎯zzdx쎉쎯	-10.9819
tedm쎀쎯qvln쎁쎯ɒɒɒ	-10.9821
yqj쎯ywx쎯oqdo쎯	-10.9825
qgjj쎯twic쎀쎯	-10.9825
qte쎀쎯umaw쎀쎯	-10.9825
sgxe쎯mpk쎀쎯ᦆ	-10.9825
eejf쎀쎯gajl쎯wrh쎂쎯	-10.9826
ytgn쎯	-10.9826
wo쎯쎂쎀쎀쎄rh쎯	-10.9826
qolj쎀쎯fgu쎯Ĉfcjn쎯	-10.9827
tebl쎯pyut쎀쎯	-10.9827
학	-10.9828
aqj쎯	-10.9829
쀊fpgc쎁쎈쎯	-10.983
aefc쎀쎯	-10.983
xrh쎀쎯aah쎀쎯oqdo쎯	-10.9831
uqvh쎂쎯mgji쎀쎯	-10.9832
잖wpn쎯	-10.9833
cck쎯judb쎁쎯Ĉ	-10.984
idg쎀쎯xdc쎯rfcl쎀쎯	-10.9841
iy쎯mm쎯ivey쎯twu쎯	-10.9845
fff쎀쎯슨	-10.9846
cn쎀쎯	-10.9847
dfny쎁쎯ẩ	-10.9847
uqt쎯js쎯msv쎯wg	-10.9848
쎃쎅್	-10.9849
ae쎯	-10.9849
lv쎯ca쎯	-10.9849
itfq쎯jgsy쎯	-10.985
wfh쎁쎯	-10.9851
iepc쎯ɒɒɒɒ	-10.9851
҉wvgw쎄쎯zzbd쎅쎯	-10.9852
zzbd쎂쎯fnx쎯	-10.9853
ynah쎁쎯aecn쎯	-10.9855
sgxe쎯zzzy쎂쎯	-10.9856
뽀tdko쎯	-10.9856
qwnd쎯rqcc쎀쎯yqj쎯	-10.9857
zzts쎁쎈쎯fpwo쎀쎯	-10.9859
qolj쎀쎯qdff쎁쎯	-10.9861
kxxi쎀쎯tlnf쎯bfkg쎯	-10.9864
qgmg쎯xyxw쎁쎯ua쎯	-10.9864
ipr쎯ygji쎯	-10.9865
ɒᠴvbs쎯zzbd쎂쎯	-10.9865
ryl쎯	-10.9866
uceu쎯tebl쎯	-10.987
vb쎯ฌwgmy쎀쎯ssss쎀쎯	-10.9873
쎂쎀쎀쎅rh쎯・	-10.9874
oue쎯fpgo쎀쎯	-10.9874
fpo쎯aahl쎀쎯	-10.988
릿skln쎯zzdx쎁쎁쎯	-10.9881
ἶ	-10.9882
awwp쎯ygji쎯zzbd쎂쎯	-10.9885
nvk쎯qskk쎯	-10.9891
nwya쎯	-10.9891
tsg쎁쎯ृ	-10.9894
akgq쎀쎯dnbm쎯	-10.9896
ugx쎯nngn쎯	-10.9897
yufe쎯kdhv쎯	-10.9898
fff쎀쎯xyx쎯	-10.9899
wg	-10.99
Ąֻ┯	-10.9901
by쎯alfw쎯	-10.9902
zzbd쎂쎯zzde쎃쎯	-10.9903
jtfp쎁쎯qkty쎯	-10.9908
fooy쎯qer쎯	-10.991
zzbd쎂쎯쏅tnhc쎁쎯	-10.9913
zzbd쎂쎯wydm쎯dhih쎯	-10.9914
zzbd쎂쎯ltkf쎀쎯	-10.9915
rrrj쎯namy쎀쎯	-10.9916
iwyj쎀쎯ㄫ	-10.992
adn쎯ftux쎯	-10.9921
҉oqdo쎯	-10.9921
➤mci쎀쎯	-10.9922
kwye쎀쎯wpn쎯	-10.9923
jrif쎯iy쎯mm쎯	-10.9924
fpo쎯btfn쎀쎯ghd쎁쎯o	-10.9926
qig쎯	-10.9926
며snij쎯	-10.9928
wgkm쎆쎯mtje쎃쎯	-10.9928
nvk쎯zzbd쎄쎯	-10.9933
ifcl쎯wgkw쎃쎯(	-10.9936
(qpnn쎯	-10.9936
xl쎯	-10.9937
cux쎯qenh쎯	-10.9937
zzbd쎂쎯kwyc쎀쎯	-10.9941
qfdj쎯fujh쎯	-10.9941
zzbd쎂쎯ynn쎀쎯xln쎁쎯	-10.9941
egey쎀쎯➤tfc쎯adn쎯	-10.9942
ifcl쎯qgig쎁쎯jeg쎯	-10.9943
	-10.9946
adn쎯rqcc쎀쎯tyke쎂쎯	-10.9946
teae쎯뼉	-10.9949
tlnf쎯xhqn쎯	-10.9953
oqdo쎯jj쎯	-10.9956
iepc쎯ɒawxx쎯	-10.9956
yygy쎯je쎯iepc쎯	-10.9957
fujh쎯oopm쎀쎯	-10.9959
wuh쎀쎯⟩	-10.9962
wgmf쎯rtwh쎀쎯	-10.9966
sgxe쎯lrw쎯gmf쎯ᨣ	-10.9969
qtyd쎀쎯ح	-10.9971
itn쎯	-10.9971
wdmh쎯	-10.9973
fkuh쎀쎯ypqn쎯	-10.9977
슨ua쎯djg쎯	-10.9978
iepc쎯ɒiepc쎯	-10.998
oops쎁쎯mtyi쎯	-10.9982
wipq쎯	-10.9983
an쎯lwj쎯et쎯yne쎯	-10.9983
ctrt쎯	-10.9984
oopm쎀쎯┯qwnd쎯	-10.9984
zzde쎂쎈쎯ijgr쎀쎯	-10.9985
duvo쎀쎯dwa쎯	-10.9985
kg	-10.9986
객klle쎯gkub쎀쎯	-10.9987
wcng쎯iawk쎁쎯	-10.9989
qay쎁쎯duvo쎀쎯	-10.999
ynah쎁쎯wsdn쎯tivf쎯	-10.9991
dhv쎯	-10.9992
fpgc쎁쎈쎯tebl쎯	-10.9992
쏅axa쎯	-10.9994
afuo쎀쎯ktr쎯oqdo쎯	-10.9999
w쎯km쎯	-11
akgq쎀쎯슨iy쎯mm쎯	-11.0003
wuh쎀쎯zzdx쎁쎁쎯	-11.0004
ix쎯wgif쎯Ə막	-11.0006
혹wyk쎯	-11.0006
eed쎯	-11.0006
yygy쎯je쎯iy쎯mm쎯	-11.0006
atgq쎯xfcy쎀쎯	-11.0006
mqj쎯Ś	-11.0007
pyu쎯adn쎯	-11.0007
wtff쎁쎯alfw쎯	-11.0009
태ẩ	-11.0009
etfp쎀쎯qvln쎁쎯	-11.0013
wmcy쎯qtyd쎀쎯	-11.0016
fpgc쎁쎈쎯직jued쎀쎯ڪ	-11.0016
tu쎯	-11.0017
khaj쎂쎯ww쎯gk쎯	-11.0018
ાawnu쎁쎯tmdq쎁쎯등	-11.0021
bkcb쎯smg쎯qipr쎯ֻ	-11.0022
ષryg쎯	-11.0025
Ķgjii쎁쎯	-11.0026
lk쎯ty쎯u쎯kkk쎯	-11.0026
qouq쎀쎯rqcc쎀쎯yqj쎯	-11.0032
gwa쎯	-11.0033
kdhv쎯iy쎯mm쎯	-11.0035
awar쎯ktr쎯	-11.0035
dftx쎯ypqn쎯	-11.0035
im쎯e쎯	-11.0038
ghd쎁쎯tyk쎯nwjh쎀쎯	-11.004
nrn쎯wton쎀쎯	-11.0041
hlqc쎀쎯iy쎯mm쎯	-11.0043
ymd쎯kpvg쎯	-11.0045
puwj쎀쎯ixxr쎯⎯	-11.0047
zzjp쎃쎈쎯	-11.0048
de쎯	-11.0049
ufn쎯dic쎯iy쎯mm쎯	-11.0051
jqu쎯iy쎯mm쎯	-11.0051
៉	-11.0052
태tpw쎯	-11.0055
ycbk쎁쎯qoep쎯	-11.0055
dftx쎯fkuh쎀쎯ɒ	-11.0056
xwcn쎯abue쎯	-11.0056
ypqn쎯wfcj쎯	-11.0058
ktr쎯iawk쎁쎯oqdo쎯	-11.006
pfqv쎁쎯	-11.0063
mgt쎯jrif쎯	-11.0064
xcbk쎯	-11.0066
sync쎯jtdk쎀쎯skg쎯	-11.0066
wynj쎁쎯smdj쎯	-11.0066
ix쎯민	-11.0068
뼉goqh쎯	-11.0069
alfw쎯tlnf쎯ukd쎁쎯	-11.007
궁sync쎯ith쎯xe쎯	-11.0071
evwo쎀쎯gae쎯dn쎯	-11.0072
iy쎯mm쎯sudk쎯rnp쎯	-11.0072
iepc쎯ɒå	-11.0074
fff쎀쎯	-11.0074
tp쎯ghd쎁쎯	-11.0075
iy쎯mm쎯҉gahm쎁쎯	-11.0076
pugi쎀쎯ẩ	-11.008
siw쎯	-11.008
iy쎯mm쎯Ĉ	-11.0081
zzbd쎅쎯iepc쎯ẩ	-11.0081
iepc쎯ɒɒvbs쎯	-11.0082
ft쎯	-11.0084
dee쎯rwyg쎀쎯xrh쎀쎯	-11.0086
qwyn쎁쎯tlnf쎯ᨣw	-11.0087
whw쎯dftf쎁쎯iy쎯mm쎯	-11.009
jmf쎯xudb쎀쎯	-11.0092
uqt쎯js쎯åmsv쎯	-11.0092
ielf쎀쎯rtwh쎀쎯lv쎯	-11.0092
adn쎯qgvb쎯xudb쎀쎯	-11.0092
mumj쎯wgif쎯भaecn쎯	-11.0095
Ȏmtfk쎀쎯	-11.0095
kr쎯nutg쎯	-11.0096
oqdo쎯qta쎯iy쎯mm쎯	-11.0096
qvln쎁쎯iqaw쎯	-11.0097
zzsx쎁쎯zzsx쎁쎯	-11.0097
dmjd쎀쎯fkuh쎀쎯å	-11.0099
ynwm쎀쎯etfp쎀쎯	-11.0101
aqah쎀쎯fff쎀쎯	-11.0101
್rnp쎯zzbd쎂쎯	-11.0102
inyu쎯wsdn쎯	-11.0104
ynah쎁쎯vkb쎯	-11.0104
sh쎯	-11.0106
kr쎯eujg쎯	-11.0111
ᣫ┯	-11.0112
daht쎀쎯zzdx쎁쎁쎯	-11.0112
ahnr쎀쎯fkkv쎀쎯	-11.0113
iy쎯mm쎯tlnf쎯bfkg쎯	-11.0114
며쀊	-11.0115
utd쎯yaht쎀쎯	-11.0118
iit쎯yhk쎯	-11.012
sug쎁쎯aruf쎯	-11.012
gajl쎯jpta쎯zzbd쎂쎯	-11.012
eexd쎁쎯	-11.0122
idg쎀쎯syny쎀쎯	-11.0123
yi쎯ŗ	-11.0125
tlnf쎯kccc쎯	-11.0125
cffq쎯qoce쎀쎯	-11.0125
toln쎁쎯alfw쎯	-11.0128
vf	-11.0129
aqkf쎀쎯chcy쎀쎯	-11.0131
zzde쎂쎈쎯tlnf쎯	-11.0131
떤	-11.0134
awxx쎯ghnu쎀쎯	-11.0141
(wfcj쎯)	-11.0142
oqdo쎯ljlg쎁쎯	-11.0144
jlc쎯Ȓ	-11.0148
zzbd쎂쎯gmf쎯othj쎯	-11.0148
ẩzzbd쎁쎇쎯	-11.0148
okeg쎯iqrn쎯	-11.0149
lqjo쎯	-11.015
uuk쎁쎯Ĉ	-11.015
c쎯sqoj쎯	-11.0152
rrp쎯iooo쎯	-11.0152
oope쎁쎯crqc쎯	-11.0152
wfk쎯aqdo쎯	-11.0153
ȓsdht쎁쎯	-11.0157
qtfm쎁쎯sqqf쎁쎯jnx쎯	-11.016
aqdo쎯km쎯	-11.0161
nufh쎀쎯o쎯y쎯	-11.0162
ydcy쎯태nqdb쎀쎯	-11.0163
ou쎯fkd쎯bkcb쎯	-11.0166
iy쎯mm쎯בip쎯nu쎯	-11.0166
iaah쎯oopm쎀쎯	-11.0167
oqdo쎯쀊sgfl쎀쎯	-11.0168
afdp쎀쎯(	-11.0173
kyxy쎁쎯	-11.0175
tebl쎯tmdf쎁쎯oqdo쎯	-11.0178
qay쎁쎯rtfh쎀쎯	-11.0179
vmge쎀쎯	-11.0179
kdhv쎯qrc쎯	-11.0179
mf쎯	-11.0182
gmf쎯ᨣtkw쎯se쎯	-11.0182
emww쎯jrif쎯	-11.0182
an쎯lwj쎯ȓaeef쎁쎯	-11.0184
igji쎯qojg쎁쎯	-11.0186
wuh쎀쎯iwgw쎁쎯ehkg쎯	-11.0186
tdnt쎁쎯syp쎯iy쎯mm쎯	-11.0186
fff쎀쎯fpgo쎀쎯	-11.0186
qohm쎀쎯	-11.0187
▁wc쎯ngk쎯tak쎯	-11.0189
hhwn쎯atkf쎀쎯	-11.019
ishg쎯nlge쎀쎯	-11.0192
weh쎯쎁쎃	-11.0195
dwa쎯iuyy쎯Ĉdee쎯	-11.0195
kkdt쎀쎯왜	-11.0197
뼉suog쎯	-11.0199
rbm쎯왜zzbd쎅쎯	-11.0199
qwyn쎀쎯	-11.02
어wkbg쎯	-11.0203
iepc쎯msv쎯msv쎯	-11.0204
aqsc쎯vevg쎁쎯	-11.0204
iy쎯mm쎯qwnd쎯fgu쎯	-11.0205
Ĥahiu쎀쎯	-11.0206
f쎯aq쎯	-11.0206
iy쎯mm쎯gahm쎁쎯eua쎯	-11.0212
ww쎯gk쎯fnx쎯jgd쎀쎯	-11.0212
åcrqc쎯	-11.0213
fnff쎁쎯민oqdo쎯	-11.0213
(qvln쎁쎯ɒɒ	-11.0213
ghd쎁쎯lebf쎯	-11.0214
ymd쎯tkw쎯se쎯	-11.0215
kum쎯	-11.022
ಚswwl쎀쎯	-11.0221
ydcy쎯ca쎯	-11.0223
iqas쎀쎯nqdb쎀쎯	-11.0229
쎀쎯qipr쎯ֻqmwy쎁쎯	-11.0229
gag쎯sam쎯	-11.0233
Ĉaecn쎯tkw쎯se쎯	-11.0234
khaj쎂쎯wprc쎀쎯	-11.0234
tlnf쎯bfkg쎯zzbd쎂쎯	-11.0235
oqdo쎯qmwy쎁쎯	-11.0236
vufh쎯iwgd쎯	-11.0237
¦cep쎯fp쎯hako쎯ᆞ	-11.0239
ctrt쎯gnn쎀쎯zzbd쎂쎯	-11.0239
dk쎯	-11.0239
¦cep쎯fp쎯	-11.0242
ythp쎀쎯	-11.0244
wsdn쎯uub쎯Į	-11.0245
uejv쎀쎯shwy쎯	-11.0249
gde쎯lv쎯alfw쎯	-11.0249
xxf쎯og쎯u쎯kkk쎯	-11.025
igcf쎯Į	-11.025
rwp쎯jrwy쎁쎯	-11.0254
ytd쎯ktr쎯	-11.0254
wuh쎀쎯gag쎯lccc쎃쎯	-11.0255
qusf쎀쎯qwyn쎁쎯	-11.0256
ofkk쎀쎯syp쎯	-11.0257
wtfh쎁쎯dic쎯zzbd쎂쎯	-11.026
zzbd쎅쎯uqt쎯js쎯	-11.0264
evhc쎀쎯aecn쎯	-11.0264
iepc쎯ɒɒnwjh쎀쎯	-11.0264
lccc쎃쎯zzdx쎁쎁쎯	-11.0266
qvln쎁쎯fkuh쎀쎯å	-11.0269
mgji쎀쎯fcbh쎁쎯	-11.0269
uqt쎯js쎯oope쎁쎯wg	-11.027
둥	-11.027
qgig쎁쎯duvo쎀쎯	-11.027
ylg쎀쎯	-11.0272
cck쎯judb쎁쎯mci쎀쎯	-11.0272
y쎯s쎯sce쎯	-11.0274
	-11.0274
yssj쎂쎯alfw쎯	-11.0275
(fn쎯qyiy쎀쎯)	-11.0276
iy쎯mm쎯ᨣdpgg쎯	-11.0277
nvk쎯nwjh쎀쎯ctrt쎯	-11.028
iepc쎯oope쎁쎯ɒ	-11.028
¦cmu쎁쎯빛	-11.028
wgif쎯Ĉaecn쎯Ą	-11.028
tegf쎀쎯dic쎯	-11.028
msv쎯ɒqorc쎀쎯	-11.0281
ydcy쎯jjq쎯	-11.0281
iwyj쎀쎯uh쎯	-11.0284
tfnq쎂쎯ref쎯	-11.0285
nilj쎀쎯	-11.0285
wtfh쎀쎯jgsy쎯	-11.0286
aha쎯ukf쎁쎯	-11.0288
oqdo쎯sbb쎯auj쎯	-11.0289
iawk쎁쎯hako쎯	-11.029
tebl쎯ipr쎯	-11.0291
ỉxwcn쎯	-11.0292
쁘nfnf쎯	-11.0293
agu쎯kr쎯	-11.0294
qqc쎯	-11.0294
gaky쎯	-11.0294
Ĉrwyg쎀쎯iy쎯mm쎯	-11.0296
ifk쎀쎯	-11.0296
qoht쎀쎯ẩ	-11.0299
ugd쎂쎯uywu쎀쎯	-11.0299
vgnr쎯rtwh쎀쎯	-11.0301
jmf쎯qgvb쎯	-11.0301
etxu쎯wpeg쎀쎯rymn쎯	-11.0301
mgeg쎀쎯sync쎯	-11.0305
ltkf쎀쎯ᦆ	-11.0306
icyy쎯쎃쎅	-11.0306
sam쎯namy쎀쎯	-11.031
jiqn쎂쎯zzbd쎂쎯	-11.0313
rrrj쎯urvc쎯	-11.0314
fgu쎯odm쎯zzdx쎁쎁쎯	-11.0315
iy쎯mm쎯wy쎯ith쎯xe쎯	-11.032
ral쎯syp쎯	-11.0321
fgu쎯މ	-11.0321
ϊoqdo쎯	-11.0323
ksh쎯	-11.0324
Ȓ쎂쎄	-11.0324
sqcn쎯vxx쎯yqjg쎯	-11.0324
Ĉếoqdo쎯	-11.0326
wrqw쎯yqj쎯	-11.0326
jued쎀쎯aghu쎯	-11.0329
ubtn쎀쎯	-11.033
wyk쎯oops쎁쎯kpvg쎯	-11.0331
nkuo쎀쎯	-11.0334
ꉖ	-11.0336
zzsx쎁쎃쎯kgne쎁쎯	-11.0336
Ίzzde쎁쎉쎯	-11.0337
xjx쎯qcrh쎯tmdq쎁쎯등	-11.0337
dsjh쎯jrif쎯	-11.0338
zzbd쎂쎯혹badw쎀쎯	-11.0338
dskc쎁쎯	-11.0342
aeef쎁쎯wprc쎀쎯	-11.0343
kjf쎀쎯	-11.0344
nhdk쎁쎯hg쎯tkw쎯se쎯	-11.0346
snij쎯kccc쎯	-11.035
wgmy쎀쎯llnu쎯	-11.0351
wtfh쎁쎯qcrh쎯kpvg쎯	-11.0351
ddh쎯	-11.0352
qdc쎯	-11.0353
bynn쎯fjvw쎯	-11.0354
yfq쎯kgo쎯	-11.0354
dssn쎀쎯qkty쎯dftx쎯	-11.0354
faoi쎯ብ	-11.0355
wgif쎯भẩ	-11.0355
zzde쎂쎇쎯	-11.036
tebl쎯aha쎯	-11.0361
iudi쎀쎯wym쎯	-11.0363
ijgf쎀쎯mxjj쎯	-11.0368
oopm쎀쎯tyke쎂쎯	-11.0369
kccc쎯oqdo쎯	-11.037
sghg쎀쎯	-11.037
wjgr쎀쎯odm쎯	-11.0371
jeg쎯jb쎯ym쎯	-11.0372
뼉zzxx쎀쎯	-11.0372
ijl쎯iuyy쎯	-11.0373
რpuwj쎀쎯	-11.0375
남	-11.0376
afuo쎀쎯njqn쎯ukd쎁쎯	-11.0376
ɒdmjd쎀쎯wgkw쎃쎯	-11.0376
njqn쎯zzxe쎉쎯wtfh	-11.0376
sxrh쎯	-11.0379
yaqj쎁쎯	-11.038
byi쎁쎯jf쎯	-11.038
qaqj쎯	-11.0381
kr쎯뼉	-11.0382
adwm쎀쎯	-11.0383
ydcy쎯crqc쎯	-11.0383
xxf쎯og쎯vkb쎯	-11.0387
tdnt쎁쎯ai쎯	-11.0389
gk쎯qmw쎯	-11.039
nfh쎀쎯jqrt쎀쎯	-11.0391
▁wc쎯ngk쎯yqj쎯	-11.0392
iy쎯mm쎯ahnr쎀쎯왜	-11.0392
mhm쎯	-11.0393
mgji쎀쎯gnn쎀쎯	-11.0396
ifnd쎯	-11.0396
zzbd쎂쎯쎁쎁	-11.0397
tmgk쎁쎯kdf쎯	-11.0397
axht쎯ስ	-11.0399
ɔ	-11.04
ttfj쎀쎯	-11.0403
m쎀쎯	-11.0403
iy쎯mm쎯oopm쎀쎯┯	-11.0405
iy쎯	-11.0406
fff쎀쎯esw쎯	-11.0407
nceh쎯	-11.0408
thld쎯ẗ	-11.0408
wpwk쎀쎯ygji쎯	-11.041
쀊tl쎯yssj쎂쎯	-11.0413
ntwo쎯	-11.0415
btwu쎯sudk쎯	-11.0416
ftux쎯hako쎯	-11.0416
cck쎯skkn쎁쎯	-11.0418
me	-11.0418
dmjd쎀쎯qorc쎀쎯	-11.042
fn쎯jcf쎯	-11.0421
iwgd쎯	-11.0422
zzbd쎂쎯itky쎯ua쎯	-11.0422
xrh쎀쎯nhdr쎀쎯	-11.0423
awar쎯ᦆ	-11.0424
fkeg쎯zzdx쎁쎁쎯	-11.0424
fnw쎯fhit쎀쎯dubh쎯	-11.0424
dmjd쎀쎯료	-11.0425
jued쎀쎯.	-11.0428
zzxe쎃쎁쎯	-11.0428
skg쎯fth쎯	-11.0429
랙gnh쎯jgd쎀쎯	-11.0432
⎯cux쎯hako쎯qlqj쎁쎯	-11.0434
fpo쎯쀊qwnd쎯ca쎯	-11.0434
sam쎯afdp쎀쎯	-11.0434
ua쎯tsg쎁쎯	-11.0435
gag쎯zzdx쎉쎯	-11.0435
meua쎀쎯ttfj쎀쎯	-11.0437
faoi쎯dnku쎀쎯	-11.0438
ᨣgahm쎁쎯iy쎯mm쎯	-11.044
giv쎯ijlc쎯	-11.044
jrif쎯މiy쎯mm쎯	-11.0442
yygy쎯je쎯fff쎀쎯	-11.0442
iy쎯mm쎯sdht쎁쎯	-11.0443
kawc쎀쎯ith쎯xe쎯	-11.0444
rmay쎯of쎯	-11.0444
aldj쎯려	-11.0446
awxx쎯rqct쎁쎯	-11.0447
ֻ	-11.0448
kwye쎀쎯민	-11.0449
cbtm쎁쎯	-11.045
temk쎀쎯	-11.045
skkn쎁쎯xjx쎯	-11.0452
ofdj쎯eujg쎯	-11.0452
Ĉugd쎂쎯	-11.0454
gmyg쎀쎯yaf쎯	-11.0454
jued쎀쎯tlnf쎯aecn쎯	-11.0454
zzde쎃쎯emww쎯	-11.0454
청adn쎯	-11.0455
적	-11.0457
tldt쎀쎯dftx쎯	-11.0457
khaj쎂쎯ww쎯gk쎯fnx쎯	-11.0457
jytb쎁쎯umqy쎯	-11.0461
wgkw쎃쎯gag쎯dic쎯	-11.0461
რfpgo쎀쎯	-11.0463
qtkh쎁쎯	-11.0465
슨dfny쎁쎯	-11.0466
aghu쎯ddth쎀쎯kccc쎯	-11.0466
sptk쎯	-11.0468
케jlc쎯	-11.0474
ghd쎁쎯gahm쎁쎯xflm쎯	-11.0475
zzbd쎂쎯idi쎯yi쎯	-11.0476
agmj쎁쎯	-11.0476
wvgw쎄쎯khjf쎀쎯	-11.0477
itky쎯ua쎯iy쎯mm쎯	-11.0478
zzbd쎂쎯jcu쎯	-11.0479
Ĉdee쎯tlnf쎯judb쎁쎯	-11.0479
aahl쎀쎯콤	-11.0479
dfd쎯zzbd쎂쎯iepc쎯	-11.048
gilf쎀쎯rkk쎯wt쎯	-11.048
ב¦	-11.0481
fnx쎯fujh쎯aitl쎯	-11.0483
ydcy쎯슨	-11.0484
wfj쎁쎯jpta쎯	-11.0485
obn쎯ahkm쎁쎯	-11.0487
uxe쎯qjmy쎯	-11.0488
qwyn쎁쎯헬	-11.0488
zzdx쎉쎯dic쎯	-11.0489
kihv쎯	-11.0491
wgkw쎃쎯)zzbd쎂쎯	-11.0493
Ĥ	-11.0493
yqge쎁쎯qtyd쎀쎯	-11.0495
yafs쎀쎯	-11.0497
w쎁쎯	-11.0502
wmj쎁쎯qkhk쎯	-11.0507
ndaf쎯	-11.0507
nvk쎯fpo쎯쀊	-11.0507
iafl쎀쎯cep쎯fp쎯	-11.0509
splh쎯	-11.051
sjfh쎯qsfi쎯	-11.0511
ብĈ	-11.0511
Սvqqw쎀쎯	-11.0512
puqy쎁쎯	-11.0513
afuo쎀쎯ktr쎯qmy쎁쎯	-11.0514
uvog쎯zzbd쎂쎯	-11.0514
ukqb쎀쎯ayec쎯	-11.0515
yga쎯	-11.0516
3	-11.0517
တngig쎯	-11.0518
msv쎯dssn쎀쎯	-11.0522
ayxy쎯jtyq쎀쎯	-11.0526
aijy쎀쎯ㄬ	-11.0526
nhk쎀쎯	-11.0527
wprc쎀쎯	-11.0527
qvln쎁쎯iepc쎯ɒ	-11.0529
sjfh쎯kruf쎯	-11.0529
cc쎯	-11.0529
vtfp쎀쎯xflm쎯	-11.053
qgvb쎯mwwk쎀쎯	-11.0531
qay쎁쎯owno쎀쎯	-11.0531
fff쎀쎯dqaj쎯	-11.0532
qbqb쎯aeef쎁쎯	-11.0533
fkkv쎀쎯미	-11.0535
akgq쎀쎯wtfh쎀쎯	-11.0536
torj쎯	-11.0539
qgvb쎯xudb쎀쎯ả	-11.0539
puy쎯hlqc쎀쎯	-11.0539
ฌwny쎀쎯ryty쎁쎯	-11.0542
בcq쎯	-11.0543
rkm쎯	-11.0544
itfq쎯ljlg쎁쎯	-11.0545
wfj쎁쎯auff쎯	-11.0546
aahl쎀쎯goqh쎯	-11.0547
xtdg쎯	-11.0552
kkak쎁쎯	-11.0554
wtfh쎁쎯qcrh쎯	-11.0555
⎯wfil쎀쎯kpvg쎯	-11.0555
בsghg쎂쎯anwu쎯	-11.0555
yynn쎯wjgr쎀쎯	-11.0555
cck쎯judb쎁쎯tnhc쎁쎯	-11.0556
ijgf쎀쎯tfnq쎂쎯	-11.0558
헬mpk쎀쎯	-11.056
yaww쎀쎯dibh쎀쎯ryg쎯	-11.056
등qpnn쎯	-11.0562
iqas쎀쎯fgu쎯	-11.0562
mpk쎀쎯iqje쎀쎯oqdo쎯	-11.0565
iepc쎯ɒdftx쎯	-11.0566
oo쎯	-11.0567
jiqn쎂쎯gajl쎯qug쎀쎯	-11.0568
nbmo쎯	-11.0568
sgxe쎯슨zzbd쎂쎯	-11.057
oqdo쎯iepc쎯msv쎯	-11.0572
qijg쎯	-11.0574
zzdx쎁쎁쎯kawc쎀쎯	-11.0576
awwo쎀쎯aecn쎯	-11.0577
fooy쎯jiqn쎂쎯ygq쎯	-11.0578
בip쎯nu쎯iy쎯mm쎯	-11.0578
cck쎯judb쎁쎯ghd쎁쎯o	-11.0581
vghg쎯	-11.0582
rwyg쎀쎯teae쎯	-11.0583
xtbb쎯sbb쎯	-11.0585
uth쎯xtol쎀쎯	-11.0587
ẩemww쎯wpqe쎯	-11.0589
qww쎯	-11.0589
iepc쎯juk쎯wtfh쎁쎯	-11.059
sw	-11.059
qei쎯wgkw쎃쎯	-11.0591
fgu쎯ojgh쎁쎯	-11.0591
dssn쎀쎯uus쎯	-11.0591
iy쎯mm쎯wdj쎯wnx쎯	-11.0592
ⲩtexd쎀쎯	-11.0594
spwk쎀쎯qnu쎁쎯	-11.0594
ɒhep쎯	-11.0594
gag쎯wsdn쎯	-11.0596
wtff쎁쎯ydcy쎯	-11.0597
qtwk쎀쎯	-11.0597
ufn쎯r쎯v쎯nae쎀쎯	-11.0599
aahl쎀쎯tlnf쎯ukd쎁쎯	-11.0601
Ąfudk쎯	-11.0601
fujh쎯texd쎀쎯	-11.0601
oopv쎀쎯zzbd쎂쎯	-11.0602
fjqn쎁쎯pyjr쎯oqdo쎯	-11.0603
dssn쎀쎯oqdo쎯q	-11.0604
ẩkdhv쎯qgvb쎯	-11.0605
qlh쎁쎯	-11.0606
Ἀqug쎀쎯rccn쎯	-11.0607
wtfh쎁쎯wesy쎯	-11.0608
xgfh쎁쎯ҡ	-11.0609
ynah쎁쎯efcb쎯	-11.0609
gj쎯	-11.061
wgeb쎁쎯	-11.0611
qipr쎯ֻtlnf쎯bfkg쎯	-11.0611
ᨣstfh쎀쎯	-11.0612
ypk쎯pugi쎀쎯	-11.0612
fpgo쎀쎯nmv쎯oqdo쎯	-11.0613
zzbd쎂쎯kr쎯ㄫ	-11.0617
thal쎀쎯	-11.0618
gckg쎯sync쎯	-11.0619
yhk쎯xudb쎀쎯	-11.0619
rnjl쎯jrif쎯	-11.0619
dv쎯ytew쎯	-11.0622
끝iyjf쎀쎯	-11.0622
ryg쎯gnn쎀쎯	-11.0623
황ycb쎯	-11.0625
oqdo쎯슈	-11.063
탤tfnq쎂쎯	-11.0631
wtff쎁쎯smg쎯iy쎯mm쎯	-11.0631
aldj쎯ygq쎯	-11.0631
iy쎯mm쎯wtff쎁쎯쀊	-11.0632
xgfh쎁쎯jdmd쎁쎯	-11.0634
gmyg쎀쎯puwe쎀쎯	-11.0634
syke쎀쎯	-11.0634
av	-11.0635
jvip쎀쎯މiy쎯mm쎯	-11.0637
ᠢduvo쎀쎯	-11.0637
zzbd쎂쎯sam쎯sgwo쎯	-11.0637
rqcc쎀쎯yqj쎯zzbd쎄쎯	-11.0638
fujh쎯xhqn쎯	-11.0638
ĵawv쎯	-11.0639
qyc쎯등	-11.0639
xtgo쎯ghd쎁쎯⎯	-11.064
awwp쎯uepc쎁쎯fth쎯	-11.0641
뼉qve쎯	-11.0641
iepc쎯åmsv쎯	-11.0642
fere쎯ycb쎯	-11.0644
nn쎁쎯	-11.0644
어hal쎯oue쎯	-11.0651
mgt쎯wgif쎯민	-11.0652
aecn쎯Ąfpo쎯・	-11.0653
rhh쎯	-11.0659
umaw쎀쎯ith쎯xe쎯	-11.0664
djg쎯tyk쎯	-11.0665
idg쎀쎯ugd쎂쎯issh쎯	-11.0668
gag쎯რzzbd쎂쎯	-11.067
qgn쎯vqqw쎀쎯〔ywx쎯	-11.067
avyn쎯Ąitfq쎯	-11.0672
iqas쎀쎯qouq쎀쎯	-11.0672
ter쎁쎯rgiq쎀쎯ẩ	-11.0674
eoy쎯	-11.0675
kaqt쎀쎯syny쎀쎯	-11.0675
axa쎯an쎯lwj쎯	-11.068
kgx쎯abue쎯	-11.0682
uguh쎀쎯ẩuguh쎀쎯	-11.0682
awxx쎯tmdf쎁쎯vbs쎯	-11.0686
tmgk쎁쎯Ą	-11.069
yqqe쎯qkhk쎯	-11.0692
ằrtf쎯	-11.0693
nhdi쎀쎯ipr쎯zzbd쎂쎯	-11.0694
zzbd쎂쎯knfg쎯	-11.0696
rqcc쎀쎯fth쎯	-11.0696
iy쎯mm쎯בumqy쎯	-11.0697
qayg쎯kih쎯	-11.0698
fff쎀쎯vbs쎯	-11.07
qyv	-11.0703
jytb쎁쎯yssj쎂쎯	-11.0704
sjlc쎯qimy쎯	-11.0704
Ąsgfl쎀쎯qmy쎁쎯	-11.0704
nhdi쎀쎯iafl쎀쎯	-11.0706
vqmy쎯iepc쎯	-11.0707
nvk쎯kpvg쎯	-11.0707
뼉jtfp쎁쎯	-11.0708
ysjh쎯etxu쎯	-11.0708
어qouq쎀쎯iy쎯mm쎯	-11.0709
wnd쎯뼉	-11.071
eudm쎀쎯	-11.0713
wtfh쎀쎯iy쎯mm쎯	-11.0714
쎆쎯	-11.0721
qoce쎀쎯ynah쎁쎯ẩ	-11.0721
all쎯oopm쎀쎯zzbd쎅쎯	-11.0723
މybo쎯iy쎯mm쎯	-11.0723
ynwm쎀쎯)	-11.0724
ɒtedm쎀쎯iepc쎯ɒɒ	-11.0727
afkk쎁쎯mgji쎀쎯	-11.0728
mpf쎯wyk쎯	-11.0729
Ȓẩ	-11.073
ayec쎯erh쎯ywx쎯	-11.0731
ृϊȸ	-11.0732
texd쎀쎯Z	-11.0733
ypk쎯bkcb쎯	-11.0733
fpgo쎀쎯alfw쎯qmy쎁쎯	-11.0742
scce쎀쎯	-11.0742
nfh쎀쎯khah쎀쎯	-11.0743
mqas쎯	-11.0743
iecl쎯	-11.0749
kr쎯vagf쎯	-11.0749
qtfm쎁쎯iy쎯mm쎯	-11.0749
gftj쎯탤tkw쎯se쎯	-11.0749
mtd쎯qnwe쎀쎯	-11.0751
kg쎀쎯	-11.0756
xqay쎀쎯jtfp쎁쎯	-11.0758
by쎯tyke쎂쎯ahnr쎀쎯	-11.076
uxe쎯뼉	-11.0761
qgvb쎯ฌxjx쎯qcrh쎯	-11.0762
tnhc쎁쎯➤iawk쎁쎯	-11.0764
wgif쎯भ민oqdo쎯	-11.0765
vagf쎯ાxyxw쎁쎯	-11.0767
tduj쎀쎯khjf쎀쎯	-11.0768
wgkw쎃쎯iepc쎯ɒ	-11.0769
ipt쎯ֻ	-11.0769
fpgc쎁쎈쎯yte쎯	-11.077
oqdo쎯wfj쎁쎯kpvg쎯	-11.077
ẩrrrj쎯	-11.077
zzde쎃쎯kruf쎯	-11.0772
qwnd쎯yygy쎯je쎯ẩ	-11.0772
qay쎁쎯yhk쎯	-11.0772
ig	-11.0772
ẩysjh쎯uduw쎀쎯	-11.0773
xt	-11.0773
qahb쎁쎯	-11.0774
qer쎯ς	-11.0777
iqas쎀쎯sfcy쎁쎯Ĉ	-11.0778
fwfj쎀쎯	-11.0778
yyuo쎯	-11.078
qwnd쎯tn쎯	-11.0781
etxu쎯qsfi쎯	-11.0781
┯nkuo쎀쎯	-11.0781
stfh쎀쎯kqm쎯	-11.0781
vadt쎯difc쎯	-11.0782
kpvg쎯qwyn쎁쎯qgvb쎯	-11.0782
fp	-11.0782
hqhq쎯ahnr쎀쎯	-11.0784
ayec쎯ghd쎁쎯	-11.0784
qgiy쎁쎯ayec쎯zzjp	-11.0785
pe쎯	-11.0786
difc쎯청zzbd쎂쎯	-11.0786
gyv쎯wgkw쎃쎯	-11.0788
Ĉếމadn쎯	-11.0789
fjvw쎯sgva쎯	-11.079
ᨣxfth쎀쎯	-11.0793
ypk쎯afqb쎁쎯ahkm쎁쎯	-11.0793
며xudb쎀쎯	-11.0793
xxf쎯og쎯mci쎀쎯	-11.0793
qay쎁쎯ddu쎁쎯	-11.0794
shxi쎯mhag쎀쎯	-11.0795
xgfh쎀쎯eet쎀쎯	-11.0797
Ĉyaop쎀쎯	-11.0798
xgfh쎀쎯rnp쎯zzbd쎂쎯	-11.0798
ᨣkpvg쎯	-11.0799
pq쎯덕hako쎯alfw쎯	-11.08
iu쎀쎯	-11.0803
gisv쎯	-11.0804
khaj쎂쎯ghd쎁쎯	-11.0808
awxx쎯zzbd쎂쎯	-11.0809
zzbd쎂쎯쏅ynna쎀쎯	-11.0813
fefy쎯judb쎁쎯	-11.0814
ẩumaw쎀쎯afpa쎯	-11.0814
puyg쎯aghu쎯ukd쎁쎯	-11.0814
jgsy쎯މ민	-11.0817
끈	-11.0818
skkn쎁쎯ẩ	-11.0818
wkbg쎯dic쎯	-11.082
md	-11.082
puy쎯tpw쎯	-11.0821
uejv쎀쎯hhwn쎯	-11.0821
zzjp쎁쎅쎯jued쎀쎯	-11.0822
མ	-11.0822
tejh쎀쎯bij쎯	-11.0822
yqvg쎀쎯syp쎯xflm쎯	-11.0823
헬xtgo쎯	-11.0823
dssn쎀쎯jvip쎀쎯	-11.0824
뼉sam쎯fff쎀쎯tlnf쎯	-11.0824
aecn쎯Ąבા	-11.0826
eer쎯	-11.0827
iovg쎯yygy쎯je쎯	-11.0828
snij쎯tdko쎯	-11.0829
ljlg쎁쎯ả	-11.0829
태qtfm쎁쎯	-11.0831
zzbd쎂쎯sam쎯tnhc쎁쎯	-11.0832
qa	-11.0833
뼉vkb쎯	-11.0835
tmdf쎁쎯sqqd쎀쎯	-11.0836
zzjp쎁쎅쎯dhih쎯weh쎯	-11.0836
apdi쎯jawy쎁쎯	-11.0837
☎	-11.0838
fw쎯	-11.0838
ɒvbs쎯zzbd쎂쎯wgk	-11.0838
fakg쎀쎯Ä	-11.084
━uxe쎯	-11.084
yqj쎯mumj쎯kpvg쎯	-11.0841
ltkg쎀쎯pukv쎯	-11.0841
qwyn쎁쎯sam쎯	-11.0841
ẩevwo쎀쎯	-11.0842
ujf쎀쎯	-11.0845
utdk쎯	-11.0846
qggn쎀쎯jaat쎯	-11.0846
lagg쎯ugd쎂쎯	-11.0847
cuxw쎯fere쎯	-11.0849
ryty쎁쎯rqcc쎀쎯ᦆ	-11.085
ntas쎯qgjj쎯iy쎯mm쎯	-11.0851
uqwe쎯	-11.0852
iudi쎀쎯uwgn쎁쎯	-11.0853
wynk쎯ukd쎁쎯	-11.0854
ipgg쎀쎯	-11.0855
iy쎯mm쎯aruf쎯	-11.0857
wrqw쎯sgva쎯	-11.0861
puwe쎀쎯ayec쎯	-11.0861
fd	-11.0862
ftux쎯aeef쎁쎯	-11.0863
Ąfamu쎯	-11.0865
vny쎀쎯uvog쎯	-11.0866
xflm쎯vwyo쎯oqdo쎯	-11.0868
ᠴvbs쎯	-11.0871
sgxe쎯qfdj쎯	-11.0873
pfjy쎯	-11.0874
억byi쎁쎯	-11.0874
ielf쎀쎯nqbt쎂쎯	-11.0874
pq쎯gkh쎀쎯iwgw쎁쎯	-11.0876
jn	-11.0876
zzbd쎂쎯giv쎯탤	-11.0876
sgxe쎯aruf쎯lagg쎯	-11.0876
yjs쎯tkgg쎁쎯qkhk쎯	-11.0877
badw쎀쎯zzjp쎁쎅쎯	-11.0877
jrif쎯jvip쎀쎯ֻ	-11.0878
bxgu쎀쎯alfw쎯	-11.088
gmhy쎯	-11.0881
lrwy쎀쎯jqu쎯	-11.0884
etxu쎯abue쎯	-11.0884
⎯skg쎯ᆞqlqj쎁쎯	-11.0886
ilp쎯	-11.0887
펑	-11.0888
lp쎯mqjh쎀쎯	-11.0889
며릿	-11.089
idgt쎀쎯abue쎯	-11.0891
tlnf쎯lccc쎃쎯	-11.0891
celn쎯	-11.0891
ty쎀쎯	-11.0897
rs쎯tfkp쎀쎯udfm쎀쎯	-11.0899
lv쎯amwq쎀쎯	-11.09
anwu쎯wbqg쎯	-11.09
yuqy쎯	-11.0902
pyrf쎀쎯wgkw쎃쎯	-11.0903
dmjd쎀쎯ẩ	-11.0904
qxrs쎯	-11.0904
tduj쎀쎯wnx쎯	-11.0905
Ἴŗ	-11.0906
shy쎀쎯lagg쎯	-11.0906
fff쎀쎯qyc쎯	-11.0907
gmf쎯othj쎯anwu쎯	-11.0907
wy쎯tfnp쎀쎯	-11.0909
oopm쎀쎯etol쎯	-11.0909
dnku쎀쎯vxx쎯	-11.091
ksks쎯cqbt쎀쎯	-11.0915
wsfi쎯	-11.0917
쎂eee쎀쎯ctrt쎯gnn쎀쎯	-11.0917
alfw쎯ẩ	-11.092
nvk쎯qipr쎯ֻ	-11.0921
kaf쎯	-11.0921
nn	-11.0921
whw쎯dssn쎀쎯	-11.0921
dg	-11.0921
efcb쎯puyg쎯jgsy쎯	-11.0922
ucnu쎯청tkw쎯se쎯	-11.0922
vevg쎁쎯vhah쎀쎯	-11.0922
nvk쎯xflm쎯oqdo쎯	-11.0923
fkhp쎀쎯jqu쎯	-11.0923
ɒᠴvbs쎯	-11.0927
ajd쎀쎯	-11.0928
ayec쎯zzjp쎃쎅쎯	-11.0929
)nvk쎯	-11.093
ix쎯zzjp쎃쎅쎯ix쎯	-11.093
qvln쎁쎯ɒwfcj쎯	-11.093
qvln쎁쎯åɒ	-11.0931
락jqrt쎀쎯	-11.0931
qipr쎯yqj쎯	-11.0933
̇jgd쎀쎯	-11.0936
wdj쎯┯	-11.0937
rqcc쎀쎯yqj쎯ix쎯민	-11.0937
ϊqtnx쎯	-11.0937
qwyn쎁쎯ix쎯ukd쎁쎯	-11.0938
aqdo쎯btfn쎀쎯oqdo쎯	-11.0942
duk쎀쎯iawk쎁쎯oqdo쎯	-11.0943
u쎯kkk쎯waqj쎯	-11.0944
woah쎯	-11.0945
	-11.0947
kyxy쎁쎯dssn쎀쎯	-11.0953
pgy쎯uub쎯	-11.0955
zzbd쎂쎯ᦆ	-11.0955
texd쎀쎯yam쎯	-11.0955
wgkw쎃쎯oope쎁쎯	-11.0957
wgkw쎃쎯ymd쎯Ĉdee쎯	-11.0957
قpuwy쎀쎯	-11.0957
tedm쎀쎯iepc쎯	-11.0958
fpo쎯쀊itwi쎯dpgg쎯	-11.0958
an쎯lwj쎯ijl쎯	-11.096
rukq쎀쎯Ḧẩ	-11.0962
kyxy쎁쎯ẩith쎯xe쎯	-11.0962
ahk쎁쎯ả	-11.0963
haq쎯qwet쎀쎯wtfh쎀쎯	-11.0963
ädtth쎀쎯oqdo쎯	-11.0963
wpak쎯	-11.0964
ljlg쎁쎯qtdj쎁쎯	-11.0965
nxjg쎯	-11.0969
aeef쎁쎯wgmy쎀쎯	-11.097
fgu쎯qfdj쎯	-11.0974
icyy쎯ajdh쎯	-11.0975
ςdhdl쎁쎯	-11.0978
fgu쎯ukd쎁쎯	-11.0979
zzpj쎃쎃쎯	-11.098
bij쎯zzbd쎂쎯	-11.0986
vny쎀쎯gftj쎯	-11.0987
lrw쎯	-11.0987
reh쎯e쎯	-11.0989
בghnu쎀쎯tkw쎯se쎯	-11.0994
ydje쎀쎯ydcy쎯	-11.0997
kmwj쎯ֻoopm쎀쎯┯	-11.0997
sam쎯뼉	-11.0998
ix쎯qgiy쎁쎯	-11.0998
sxxt쎯	-11.0999
wgkw쎃쎯ynna쎀쎯lv쎯	-11.1
twic쎀쎯gkh쎀쎯	-11.1
넥	-11.1002
qtyd쎀쎯	-11.1004
wdj쎯iudi쎀쎯	-11.1004
xudb쎁쎯vevg쎁쎯weh쎯	-11.1005
iy쎯mm쎯ςxxf쎯og쎯	-11.1006
puwj쎀쎯vxx쎯	-11.1008
iy쎯mm쎯iawk쎁쎯	-11.1009
amyj쎯	-11.1009
pyu쎯	-11.1011
zzde쎃쎯jued쎀쎯	-11.1012
ny쎯dvey쎯	-11.1013
wgif쎯भiy쎯mm쎯	-11.1014
mgt쎯yqj쎯	-11.1016
xrh쎀쎯aecn쎯wgkw쎃쎯	-11.1017
ip	-11.1018
gyv쎯̇	-11.102
afam쎀쎯qtfm쎁쎯	-11.1021
vpns쎯khpb쎯qwyn쎁쎯	-11.1024
mgt쎯qrj쎯fth쎯	-11.1025
qsfi쎯wkbg쎯	-11.1025
dpgh쎯zzbd쎂쎯	-11.1026
mndg쎁쎯ynjn쎁쎯ู	-11.1026
gmyg쎀쎯ua쎯tdko쎯	-11.1028
mgt쎯fth쎯zzbd쎅쎯	-11.1029
್zzxe쎂쎇쎯	-11.1031
auj쎯슨	-11.1033
xmw쎯abue쎯	-11.1034
jrif쎯alfw쎯	-11.1036
쀊sgfl쎀쎯zzbd쎂쎯	-11.1036
kr쎯ɧ	-11.1038
evwo쎀쎯gahm쎁쎯	-11.1038
tmd쎯	-11.1039
혹iqdm쎀쎯	-11.1039
wu쎯	-11.1042
tmdf쎁쎯nvk쎯	-11.1042
vdf쎀쎯pukv쎯	-11.1047
ynwm쎀쎯tedm쎀쎯	-11.1048
qug쎀쎯usq쎯	-11.1048
xfcy쎀쎯mci쎀쎯	-11.1055
kqvn쎯	-11.1055
qvln쎁쎯msv쎯ɒ	-11.1056
chcy쎀쎯ᨣ	-11.1056
qipr쎯rbm쎯	-11.1057
lckg쎯qgjj쎯	-11.1058
zzbd쎂쎯ד	-11.1058
태dvey쎯qtfm쎁쎯	-11.1059
jued쎀쎯dsjh쎯	-11.106
며oqdo쎯	-11.1062
jpta쎯usq쎯ẩ	-11.1063
iepc쎯ɒdmjd쎀쎯	-11.1064
yyna쎀쎯spfq쎯	-11.1067
kr쎯qug쎀쎯	-11.1067
adn쎯땑gmf쎯othj쎯	-11.1069
pyu쎯ua쎯	-11.107
kldn쎯	-11.1072
̅uwgk쎂쎯	-11.1072
aecn쎯쎁쎉쎉쎉rh쎯	-11.1072
vqbt쎀쎯iit쎯iy쎯mm쎯	-11.1073
yvcs쎯aqdo쎯	-11.1074
ϊqtyd쎀쎯dhc쎯	-11.108
q쎀쎯	-11.1081
lmu쎀쎯	-11.1081
fnff쎁쎯mpf쎯	-11.1081
쎈	-11.1086
ydcy쎯khpj쎯	-11.1091
qkk쎯xtol쎀쎯	-11.1092
dmjd쎀쎯iqaw쎯	-11.1092
puyg쎯gajl쎯wrh쎂쎯	-11.1095
fpo쎯쀊iepc쎯oope쎁쎯	-11.1095
oopm쎀쎯tlnf쎯ukd쎁쎯	-11.1096
faoi쎯jatn쎀쎯	-11.1097
oguc쎀쎯jcf쎯	-11.1098
umaw쎀쎯qug쎀쎯	-11.1098
emww쎯qgvb쎯aeef쎁쎯	-11.11
cep쎯fp쎯hako쎯ᆞẩ	-11.1102
goqh쎯ֻwrh쎂쎯	-11.1102
sgxe쎯auj쎯	-11.1103
qdey쎯	-11.1106
அ	-11.1106
iy쎯mm쎯anwu쎯ֻ	-11.1108
kkbh쎯qlqj쎁쎯	-11.1109
aahl쎀쎯igji쎯	-11.1109
ẩxxf쎯og쎯qgvb쎯	-11.111
ymq쎯	-11.111
vdeg쎀쎯,	-11.1111
ghd쎁쎯rfnf쎁쎯kpvg쎯	-11.1114
bynn쎯byi쎁쎯	-11.1116
ㆺ	-11.1119
ige쎯Ą	-11.112
ya	-11.1122
ydcy쎯giv쎯qtfm쎁쎯	-11.1124
kgne쎁쎯kgne쎁쎯	-11.1124
ẩqgvb쎯tdp쎯	-11.1125
ynwm쎀쎯ɒqorc쎀쎯	-11.1125
xrh쎀쎯jiqn쎂쎯	-11.1126
xds쎯	-11.1128
쏅qfh쎁쎯hako쎯	-11.1128
zzbd쎂쎯sbb쎯auj쎯	-11.1129
mhny쎁쎯	-11.1129
nyjg쎁쎯nyjg쎁쎯	-11.113
yntm쎂쎯qmy쎁쎯	-11.113
fff쎀쎯iovg쎯	-11.1134
qmy쎁쎯xflm쎯qug쎀쎯	-11.1135
shwy쎯afdp쎀쎯	-11.1135
yjdg쎯aha쎯〔ywx쎯	-11.1136
ֻrqcc쎀쎯	-11.1137
rymn쎯	-11.1137
zzy쎁쎯	-11.1137
idg쎀쎯dv쎯	-11.1138
dftf쎀쎯ybo쎯	-11.1142
duvo쎀쎯lv쎯itfq쎯	-11.1143
iooo쎯qyey쎂쎯	-11.1145
dpgh쎯btfn쎀쎯	-11.1146
wfil쎀쎯kmdy쎯	-11.1148
fy쎯xyb쎯	-11.1149
ydcy쎯hako쎯	-11.1151
adn쎯wpn쎯iwgd쎯	-11.1152
zzjp쎄쎈쎯ygh쎯	-11.1152
ivgo쎯რ	-11.1154
xxf쎯og쎯puyg쎯	-11.1156
oqdo쎯kawc쎀쎯	-11.1157
최	-11.1157
ywyk쎀쎯lv쎯	-11.1158
꼬umaw쎀쎯	-11.1161
ẩrham쎃쎯jywf쎀쎯	-11.1162
aej쎯	-11.1163
fff쎀쎯밿	-11.1164
맘	-11.1166
qwyn쎁쎯aghu쎯ukd쎁쎯	-11.1167
wydm쎯릿	-11.1167
åɒwgkw쎃쎯qenh쎯	-11.1168
ljlg쎁쎯xjx쎯Ą	-11.1169
kwye쎀쎯skkn쎁쎯ẩ	-11.1172
ijlc쎯탤tkw쎯se쎯	-11.1173
iujm쎯whw쎯Į	-11.1177
itmm쎯	-11.1178
tdnt쎁쎯yy쎯dm쎯	-11.1179
ho쎯	-11.1179
wgmy쎀쎯fth쎯	-11.118
wtff쎁쎯vfhw쎁쎯	-11.1181
aghu쎯ukd쎁쎯ẩ	-11.1182
ntas쎯yufe쎯	-11.1182
zzbd쎂쎯idi쎯	-11.1183
isyy쎯║	-11.1184
lrwy쎀쎯┯	-11.1185
xrh쎀쎯dmjn쎃쎯	-11.1186
qomd쎁쎯	-11.1188
zzdx쎁쎁쎯qta쎯	-11.1188
pusn쎯	-11.119
qkty쎯xdmd쎀쎯	-11.119
shy쎀쎯afdp쎀쎯	-11.1192
ahnr쎀쎯etxu쎯	-11.1192
쎃쎅쎯smg쎯yygy쎯je쎯	-11.1194
c쎀쎯	-11.1194
iy쎯mm쎯qgvb쎯tdp쎯	-11.1195
첨ipj쎯	-11.1195
단tpw쎯	-11.1195
zzbd쎂쎯dfsh쎯ᦆ	-11.1197
dmjd쎀쎯ɒnwjh쎀쎯	-11.1199
oqdo쎯emww쎯kpvg쎯	-11.1201
nt	-11.1202
wfcj쎯iepc쎯ynwm쎀쎯	-11.1203
nvk쎯҉	-11.1206
aruf쎯zzbd쎂쎯	-11.1207
l쎁쎯	-11.1207
iepc쎯̇zzbd쎂쎯	-11.1208
afqq쎀쎯	-11.1209
smg쎯wjgr쎀쎯	-11.121
dcw쎯adwt쎁쎯	-11.121
wynl쎀쎯sdht쎁쎯	-11.1211
akgq쎀쎯ewwb쎯	-11.1212
yoo쎯rtf쎯mqjh쎀쎯려	-11.1213
vdqn쎯┯	-11.1213
qipr쎯xudb쎀쎯ẩ	-11.1213
dpgh쎯ysjh쎯etxu쎯	-11.1214
qbh쎄쎯wuh쎀쎯	-11.1215
gag쎯რoqdo쎯	-11.1215
oopm쎀쎯skg쎯	-11.1217
qwyn쎁쎯tdko쎯	-11.1217
tyk쎯wuh쎀쎯	-11.1218
thgy쎂쎯fujh쎯	-11.1219
쎂쎀쎀쎅rh쎯	-11.1219
pyut쎀쎯jued쎀쎯	-11.1219
lv쎯itfq쎯zzbd쎂쎯	-11.1219
ɒzzts쎀쎯	-11.122
ཛrkc쎯	-11.1221
viq쎯	-11.1221
gebg쎯wgmy쎀쎯	-11.1223
rwp쎯zzde쎃쎁쎯	-11.1224
ooqh쎁쎯suog쎯	-11.1224
mkkn쎁쎯	-11.1225
̃	-11.1226
▁wc쎯ngk쎯qtfm쎁쎯	-11.1229
태oqdo쎯	-11.123
며zzdx쎉쎯zzbd쎂쎯	-11.1231
ۆ	-11.1231
uub쎯xxe쎯	-11.1232
dpgh쎯ẩ	-11.1233
qvln쎁쎯ɒqorc쎀쎯	-11.1233
별	-11.1233
puwe쎀쎯민	-11.1234
tdnt쎁쎯lrwy쎀쎯	-11.1235
niq쎯itfq쎯u쎯kkk쎯	-11.1235
sgwo쎯Ἰ	-11.1236
vny쎀쎯yygy쎯je쎯	-11.1237
xudb쎀쎯rqct쎁쎯	-11.1238
ktr쎯nmv쎯	-11.1239
zzbd쎂쎯jeg쎯vffn쎂쎯	-11.1242
icyy쎯yaqj쎂쎯	-11.1246
ɒqvln쎁쎯wgkw쎃쎯	-11.1246
ca쎯zzbd쎂쎯	-11.1249
uus쎯abue쎯	-11.125
mqyl쎯abue쎯tivf쎯	-11.125
ֻua쎯qoep쎯	-11.1253
kawc쎀쎯u쎯kkk쎯	-11.1254
xqrn쎀쎯병	-11.1254
xrh쎀쎯rnp쎯iy쎯mm쎯	-11.1255
쏅erey쎯	-11.1257
tf쎯ght쎯	-11.1257
ᨣix쎯cck쎯kmwj쎯ֻ	-11.126
kr쎯응	-11.1261
yam쎯zzbd쎂쎯cux쎯Į	-11.1261
징wyk쎯kwye쎀쎯lftj쎯	-11.1262
މiugo쎯	-11.1263
¦dsjh쎯	-11.1263
jrif쎯sgva쎯	-11.1264
fisu쎯wvgw쎄쎯	-11.1265
qskk쎯ipj쎯	-11.1268
jtn쎯jiqn쎂쎯iy쎯mm쎯	-11.127
uqt쎯js쎯crqc쎯	-11.1273
qvln쎁쎯ynwm쎀쎯ɒɒ	-11.1273
dhih쎯xfcy쎀쎯	-11.1273
tebl쎯igji쎯	-11.1273
ขksgg쎁쎯	-11.1274
qug쎀쎯pyut쎀쎯	-11.1275
qsfi쎯aruf쎯qsyy쎯(	-11.1275
wtfh쎀쎯mtfk쎀쎯	-11.1276
efu쎯	-11.1277
vmmv쎯tpw쎯	-11.1277
iqas쎀쎯tmdf쎁쎯	-11.1278
yq	-11.1279
juk쎯ᆞ	-11.1279
kpvg쎯iepc쎯msv쎯	-11.1279
lg쎯	-11.1281
fyi쎀쎯rmho쎀쎯	-11.1282
rnp쎯zzbd쎂쎯	-11.1284
	-11.1285
ẩduk쎀쎯sgfl쎀쎯	-11.1285
qolj쎀쎯tejh쎀쎯	-11.1286
iaah쎯qsyy쎯	-11.1286
kpvg쎯ijgf쎀쎯ywti쎯	-11.1287
jtjs쎯knfg쎯	-11.129
ifcl쎯owno쎀쎯	-11.1294
ixln쎯	-11.1294
irqc쎯dujf쎂쎯	-11.1294
pwuj쎁쎯	-11.1295
uceu쎯	-11.1295
jued쎀쎯issj쎯	-11.1295
Ἅiwgd쎯	-11.1295
kaqy쎯kaqy쎯	-11.1297
jf쎯iy쎯mm쎯	-11.1298
wdj쎯wnx쎯dpgh쎯	-11.1299
zzbd쎂쎯̇	-11.1299
yygy쎯je쎯zzbd쎄쎯	-11.1302
zzjp쎁쎅쎯efcb쎯	-11.1304
dftf쎁쎯pugi쎀쎯	-11.1304
⁬	-11.1308
aahl쎀쎯ֻaecn쎯Ą	-11.131
tak쎯lpk쎀쎯iy쎯mm쎯	-11.131
މhh쎯	-11.1311
txgi쎄쎯)	-11.1311
iqje쎀쎯mumj쎯	-11.1312
xtol쎀쎯tgk쎯	-11.1312
qenh쎯crqc쎯	-11.1313
rrrj쎯gjjg쎀쎯	-11.1313
spju쎀쎯xflm쎯	-11.1314
xxe쎯txx쎯	-11.1314
ảamyu쎯zzbd쎂쎯	-11.1314
zzbd쎂쎯khaj쎂쎯duc쎯	-11.1315
zzsx	-11.1316
iy쎯mm쎯fooy쎯yi쎯	-11.1316
dmjd쎀쎯hep쎯	-11.1317
ẩwsdn쎯	-11.1318
qtfm쎁쎯	-11.1318
sqoj쎯jatn쎀쎯	-11.1318
twic쎀쎯zzbd쎂쎯	-11.132
ftjo쎁쎯	-11.132
	-11.1322
yjdg쎯kdhv쎯iy쎯mm쎯	-11.1324
xudb쎁쎯tldt쎀쎯	-11.1325
nx쎯	-11.1326
puyg쎯aecn쎯	-11.1327
ftux쎯xflm쎯	-11.1328
yham쎀쎯	-11.1328
mci쎀쎯qmy쎁쎯	-11.1332
mhae쎀쎯	-11.1332
qgjj쎯iy쎯mm쎯	-11.1332
mtd쎯ȓ	-11.1336
famu쎯lebf쎯	-11.1336
zzdx쎁쎁쎯duc쎯	-11.134
wuh쎀쎯qtfm쎁쎯	-11.134
iy쎯mm쎯fefy쎯rblg쎯	-11.1341
wgkw쎃쎯thgy쎂쎯	-11.1345
spju쎀쎯rnp쎯zzbd쎂쎯	-11.1345
axa쎯탤	-11.1346
vpns쎯iuyy쎯	-11.1346
awxx쎯nwjh쎀쎯	-11.1349
qdff쎁쎯jcu쎯	-11.1349
pyld쎁쎯wgkw쎃쎯dic쎯	-11.1351
iepc쎯ɒoope쎁쎯	-11.1351
및	-11.1351
jip쎯jlc쎯	-11.1352
(iepc쎯)	-11.1353
kccc쎯aqsc쎯oqdo쎯	-11.1355
vg쎯dmjd쎀쎯	-11.1355
zzbd쎂쎯xfm쎯	-11.1355
th쎯pvdm쎯	-11.1358
sfcy쎁쎯vwyo쎯kpvg쎯	-11.1358
qvf쎀쎯쎂	-11.1358
lfof쎅쎯fnx쎯	-11.1359
qorc쎀쎯gag쎯რ	-11.1362
icyy쎯ಚ	-11.1362
⟩ywti쎯	-11.1364
sgxe쎯qpnn쎯	-11.1364
tk쎁쎯	-11.1365
fhw	-11.1367
ukf쎁쎯awnu쎁쎯	-11.1367
wyny쎁쎯	-11.1368
ẩjeg쎯vffn쎂쎯	-11.1368
fere쎯rnd쎁쎯	-11.1369
pei쎯n쎯å	-11.137
adn쎯frh쎀쎯yqj쎯	-11.137
iy쎯mm쎯בા	-11.137
avw쎯	-11.137
ẩwmcy쎯	-11.137
ghd쎁쎯tpw쎯	-11.1373
jkhh쎯qgjj쎯iy쎯mm쎯	-11.1373
itd쎯	-11.1373
qei쎯რ	-11.1373
syxl쎯	-11.1376
faoi쎯wgkg쎀쎯	-11.1376
!xtol쎀쎯	-11.1378
fpgc쎁쎈쎯wtfh쎀쎯	-11.1379
ẩςxxf쎯og쎯	-11.1379
iy쎯mm쎯tejh쎀쎯ä	-11.1379
wgkw쎂쎯glp쎯	-11.1379
lkwo쎀쎯fkkv쎀쎯	-11.1381
yqqe쎯hlqc쎀쎯	-11.1384
fhuw쎯orh쎁쎯	-11.1385
nufh쎀쎯zzbd쎂쎯	-11.1386
iy쎯mm쎯dftf쎁쎯	-11.1387
ave쎯	-11.1388
iepc쎯msv쎯wgkw쎃쎯	-11.1389
zzdw쎅쎯	-11.139
lnf쎯kxxi쎀쎯zzbd쎂쎯	-11.1392
ẩith쎯xe쎯gajl쎯ஜ	-11.1395
oguc쎀쎯tlnf쎯aecn쎯	-11.1396
wkg쎁쎯	-11.1396
rtwh쎀쎯ww쎯gk쎯	-11.1396
rkk쎯wt쎯kwye쎀쎯t	-11.1396
osg쎀쎯	-11.1397
adat쎯sghg쎂쎯	-11.1397
ädtth쎀쎯iy쎯mm쎯	-11.1397
namy쎀쎯kpvg쎯	-11.1399
ucd쎯juk쎯	-11.1399
oopm쎀쎯┯어jtn쎯	-11.14
qbn쎀쎯	-11.1404
fpgo쎀쎯edjn쎯oqdo쎯	-11.1405
ಧ	-11.1406
rnbt쎯qwnd쎯	-11.1407
dnku쎀쎯징	-11.1408
(gag쎯lpk쎀쎯xudb쎁쎯	-11.1409
북	-11.1409
qgn쎯ẫ	-11.141
zzts쎁쎈쎯qyiy쎀쎯	-11.141
┯afdp쎀쎯	-11.1412
xdu쎀쎯glp쎯jcf쎯	-11.1412
djh쎀쎯kdhv쎯	-11.1412
ry	-11.1414
xyke쎁쎯	-11.1414
wgkm쎅쎯	-11.1414
bh쎯	-11.1415
̇ytew쎯	-11.1416
uo쎯cep쎯	-11.1416
jatn쎀쎯	-11.1416
qvln쎁쎯ɒɒɒtedm쎀쎯	-11.1418
tmdf쎁쎯pugi쎀쎯	-11.1422
fpk쎁쎯jnhh쎁쎯	-11.1422
ai쎯rpw쎯rmhj쎯	-11.1423
wgke쎀쎯aqrj쎯	-11.1426
zzbd쎂쎯컥ryty쎁쎯	-11.1426
qsfi쎯aruf쎯	-11.1428
zzbd쎂쎯yaqj쎂쎯kr쎯	-11.1432
alfw쎯yssj쎂쎯	-11.1432
qwyn쎁쎯jtfp쎁쎯	-11.1432
igmi쎀쎯	-11.1433
쎁쎃snij쎯waqj쎯	-11.1433
qf쎯	-11.1435
ylaw쎀쎯fhwf쎀쎯	-11.1435
bfkg쎯wjgr쎀쎯	-11.1435
akk	-11.1438
쀊apdi쎯xudb쎀쎯	-11.1439
afqb쎁쎯ֻ	-11.1439
llld쎀쎯xvtq쎯dpgg쎯	-11.144
thdc쎁쎯ca쎯ith쎯xe쎯	-11.1441
oafg쎁쎯jywf쎀쎯	-11.1443
ẩő	-11.1443
k쎀쎯	-11.1444
iy쎯mm쎯	-11.1447
yaf쎯jued쎀쎯	-11.1448
adn쎯awwp쎯fth쎯	-11.1449
kccc쎯zzjp쎃쎅쎯	-11.1449
duc쎯khjf쎀쎯	-11.1452
ydcy쎯iudi쎀쎯	-11.1454
vkhh쎯iqaw쎯	-11.1454
cck쎯fpo쎯	-11.1455
징xudb쎀쎯	-11.1455
bkcb쎯smg쎯rukq쎀쎯Ḧ	-11.1457
iepc쎯ɒqorc쎀쎯	-11.1461
fooy쎯Ķ	-11.1461
oqdo쎯qtfm쎁쎯	-11.1463
yqqe쎯adn쎯	-11.1464
udfm쎀쎯qlqj쎁쎯	-11.1467
ᨣwjgr쎀쎯	-11.1468
itjh쎀쎯	-11.1471
slli쎯wtff쎁쎯	-11.1472
qoep쎯wgkw쎂쎯	-11.1472
tj쎯	-11.1472
vkb쎯yygy쎯je쎯	-11.1474
ugd쎂쎯wpht쎯	-11.1474
lynw쎀쎯wprc쎀쎯	-11.1474
iovg쎯waqj쎯	-11.1476
ytwc쎯zzpj쎇쎄쎯	-11.1477
agmw쎂쎯ذ	-11.1477
tejh쎀쎯ysjh쎯	-11.1478
zzbd쎂쎯rrrj쎯ㄫ	-11.1479
sbkg쎀쎯zzbd쎂쎯	-11.1481
ᄀsam쎯	-11.1482
afq쎯	-11.1483
fgu쎯et쎯yne쎯ẩ	-11.1483
zzxx쎄쎯ytfm쎯	-11.1484
oqdo쎯iawk쎁쎯alfw쎯	-11.1484
xpn쎯drt쎯zzbd쎂쎯	-11.1484
xflm쎯ywyk쎀쎯iumt쎯	-11.1486
ryty쎀쎯kypm쎯	-11.1487
sjfh쎯	-11.1488
khyf쎁쎯	-11.1493
(dmjd쎀쎯)	-11.1495
ryty쎁쎯մ	-11.1495
rqcc쎀쎯qer쎯aghu쎯	-11.1496
yaqj쎂쎯qug쎀쎯	-11.1501
qsyy쎯)	-11.1501
aecn쎯khah쎀쎯	-11.1502
・judb쎁쎯sgfl쎀쎯	-11.1502
fdsk쎀쎯zzdx쎁쎁쎯	-11.1504
료zzbd쎅쎯	-11.1504
ghd쎁쎯jqrt쎀쎯	-11.1504
nfh쎀쎯dssn쎀쎯	-11.1505
tldt쎀쎯ynwm쎀쎯	-11.1505
ljlg쎁쎯ayec쎯	-11.1506
qipr쎯ca쎯qmwy쎁쎯	-11.1507
adeu쎯dssn쎀쎯	-11.151
zzbd쎂쎯qgmg쎯auj쎯	-11.151
kccc쎯aqsc쎯fn쎯މ	-11.1511
dfny쎁쎯odm쎯zzbd쎅쎯	-11.1511
shhy쎯zzbd쎂쎯	-11.1511
Ĉanwu쎯	-11.1512
oqdo쎯ynn쎀쎯iy쎯mm쎯	-11.1512
aqkf쎀쎯dttd쎀쎯vbs쎯	-11.1514
uqqg쎯all쎯	-11.1515
qvln쎁쎯dmjd쎀쎯ɒ	-11.1516
〔ywx쎯tyke쎂쎯kccc쎯	-11.1517
lagg쎯tfqb쎁쎯	-11.1517
ytwc쎯xrh쎀쎯	-11.1517
alpu쎀쎯	-11.1517
qvln쎁쎯ɒrkk쎯wt쎯	-11.1518
erh쎯axa쎯zzde쎂쎈쎯	-11.152
ouqy쎀쎯	-11.1521
avkr쎯	-11.1521
ouwy쎀쎯yvkg쎯	-11.1522
efcb쎯vqmy쎯iepc쎯	-11.1523
aqdo쎯nwjh쎀쎯	-11.1526
skkn쎁쎯yygy쎯je쎯	-11.1527
zzdx쎉쎯hal쎯	-11.1528
mtfk쎀쎯mci쎀쎯tlnf쎯	-11.1529
dhdl쎁쎯peg쎯	-11.1529
rqcc쎀쎯ᦆtxt쎯	-11.1531
wmcy쎯cbtg쎁쎯	-11.1532
wprc쎀쎯sug쎁쎯adn쎯	-11.1534
zzdx쎂쎯kpvg쎯	-11.1535
mgt쎯smg쎯	-11.1535
dssn쎀쎯	-11.1537
w쎯km쎯qtfm쎁쎯	-11.154
ئqtyd쎀쎯	-11.1542
wgkm쎆쎯hg쎯	-11.1542
qkhk쎯	-11.1545
zzpj쎇쎄쎯tkw쎯se쎯	-11.1547
qgig쎁쎯nwjh쎀쎯	-11.1547
zzxx쎀쎯jcf쎯	-11.1548
rwyg쎀쎯nuk쎀쎯	-11.1548
zzbd쎂쎯khaj쎂쎯gag쎯	-11.1549
제dpgh쎯	-11.1549
tmdq쎁쎯afdp쎀쎯	-11.155
Ĉtejh쎀쎯wtfh쎀쎯	-11.155
emww쎯މaeef쎁쎯	-11.1552
xwcn쎯rjyi쎯	-11.1553
km	-11.1554
spju쎀쎯┯wvgw쎄쎯	-11.1555
펫tmdf쎁쎯	-11.1556
qowv쎀쎯iuyy쎯	-11.1558
ynrg쎯auj쎯	-11.1561
hggt쎀쎯ahnl쎂쎯	-11.1564
badw쎀쎯sgfl쎀쎯	-11.1564
oqw쎯oqw쎯	-11.1568
zzbd쎂쎯wsdn쎯	-11.157
kr쎯ytew쎯	-11.157
wgkw쎃쎯(iepc쎯	-11.1572
뼉lpk쎀쎯	-11.1572
쎶jrif쎯	-11.1573
qwyn쎁쎯tlnf쎯oqdo쎯	-11.1573
drt쎯kruf쎯	-11.1575
anwu쎯iawk쎁쎯	-11.1575
ʋrdgt쎁쎯	-11.1576
aitl쎯xudb쎀쎯	-11.1577
dftx쎯udjf쎀쎯vbs쎯	-11.1578
쏅ynna쎀쎯aqdo쎯	-11.158
zzbd쎂쎯abv쎯ukf쎁쎯	-11.158
rqcy쎁쎯xtnn쎀쎯	-11.1581
oqdo쎯ryg쎯iwgw쎁쎯	-11.1582
zzdx	-11.1582
mjv쎯	-11.1583
iit쎯wgkw쎃쎯	-11.1583
ytwj쎀쎯fkd쎯	-11.1584
료zzbd쎂쎯	-11.1585
ljlg쎁쎯fpo쎯ayec쎯	-11.1586
uqt쎯js쎯vbs쎯	-11.1586
qmy쎁쎯stfh쎀쎯	-11.1587
texd쎀쎯kaqy쎯	-11.1588
억tekt쎯	-11.1588
zzbd쎂쎯qtfm쎁쎯	-11.1589
ux쎯	-11.1589
yqtg쎀쎯mqyl쎯	-11.159
qei쎯ayec쎯	-11.1597
zzbd쎂쎯Պvevg쎁쎯	-11.1599
wgf쎯	-11.1599
nfh쎀쎯ὴ	-11.1601
xxey쎀쎯ywx쎯	-11.1601
hb	-11.1604
zzbd쎂쎯f쎯yy쎯ytew쎯	-11.1604
qvln쎁쎯ẩ	-11.1606
aafo쎯qgjl쎯iepc쎯	-11.1606
gag쎯wkbg쎯	-11.1608
vgnr쎯bynn쎯	-11.1608
ูcqbt쎀쎯	-11.1609
iepc쎯msv쎯dftx쎯	-11.1612
vqkg쎂쎯ayxy쎯	-11.1613
wy쎯kr쎯	-11.1615
kaqt쎀쎯akfn쎯	-11.1615
ydje쎀쎯vevg쎁쎯weh쎯	-11.1618
nwyo쎁쎯wydm쎯	-11.1618
iepc쎯vbs쎯	-11.162
ಘ쎂쎄	-11.1621
zzdl쎁쎯	-11.1622
fpwo쎀쎯namy쎀쎯	-11.1624
zzde쎉쎯	-11.1624
tegf쎀쎯rs쎯tfkp쎀쎯ȸ	-11.1624
Ĉẩaecn쎯Ą	-11.1625
vakc쎯	-11.1626
rdfn쎯qgmg쎯	-11.1627
cck쎯judb쎁쎯민	-11.1628
wgkw쎃쎯txt쎯	-11.1628
wgkw쎃쎯ww쎯gk쎯fnx쎯	-11.163
ẩsqqf쎁쎯jnx쎯	-11.1631
wtfh쎀쎯smg쎯	-11.1631
fujh쎯quxx쎁쎯	-11.1632
ثpukv쎯	-11.1632
ijn쎯iepc쎯	-11.1633
fff쎀쎯fooy쎯yi쎯	-11.1634
axcu쎯iaah쎯	-11.1634
fn쎯ffff쎂쎯	-11.1636
sudk쎯ddr쎯	-11.1637
yqvg쎀쎯akfn쎯	-11.1637
iepc쎯hep쎯	-11.1639
mci쎀쎯zzbd쎂쎯	-11.1639
rfp쎯	-11.1642
xans쎁쎯rs쎯tfkp쎀쎯	-11.1642
qnij쎯ywyk쎀쎯	-11.1644
idgt쎀쎯btwu쎯	-11.1645
dfa쎯	-11.1647
yjs쎯tkgg쎁쎯xjx쎯	-11.1647
ajdh쎯մ	-11.1647
곳	-11.1648
Ąiuyy쎯	-11.1649
aah쎀쎯of쎯	-11.165
mumj쎯qwnd쎯ca쎯	-11.1653
태zzbd쎂쎯	-11.1653
gefc쎯cux쎯	-11.1655
iqas쎀쎯vadt쎯	-11.1656
kdhv쎯ế	-11.1657
tlnf쎯ywgj쎄쎯qsyy쎯	-11.1657
afkm쎀쎯	-11.1658
aeef쎁쎯dssn쎀쎯	-11.1658
qyc쎯mci쎀쎯	-11.166
usd쎀쎯	-11.166
fcvy쎯	-11.1662
xqay쎀쎯duvo쎀쎯	-11.1662
qvln쎁쎯)	-11.1663
ubtg쎀쎯yssj쎂쎯	-11.1664
jgsy쎯	-11.1665
mfkp쎯sug쎁쎯	-11.1665
tebl쎯jtn쎯	-11.1667
qotp쎁쎯liqn쎀쎯	-11.1671
n쎂쎯	-11.1673
wfcj쎯vcao쎁쎯	-11.1673
qwyn쎁쎯oopm쎀쎯ju	-11.1676
ςtfff쎁쎯	-11.1677
tmwo쎁쎯tmdq쎁쎯	-11.1678
qtyd쎀쎯tdko쎯	-11.168
wgmy쎀쎯qwnd쎯	-11.1683
wtfv쎀쎯duvo쎀쎯	-11.1685
qmy쎁쎯qwyn쎁쎯qgvb쎯	-11.1686
jyn쎀쎯mesg쎯	-11.1687
iepc쎯åwgkw쎃쎯	-11.1689
qvf쎀쎯ಚ	-11.1691
며qamh쎀쎯	-11.1691
terc쎯fujh쎯	-11.1692
	-11.1692
zzbd쎂쎯qolj쎀쎯fgu쎯	-11.1695
wtfh쎁쎯xfcy쎀쎯	-11.1695
kmwj쎯ֻqmy쎁쎯	-11.1696
pufj쎁쎯abue쎯	-11.1696
qnql쎯fff쎀쎯	-11.1697
mtd쎯yygy쎯je쎯	-11.1701
ihnn쎀쎯	-11.1703
츠iawk쎁쎯kpvg쎯	-11.1704
jyn쎀쎯jyn쎀쎯	-11.1705
ŗwprc쎀쎯	-11.1707
bynn쎯zzjp쎁쎅쎯	-11.171
rqcc쎀쎯haq쎯	-11.1712
xudb쎀쎯efcb쎯	-11.1713
vknn쎯랙qsyy쎯	-11.1714
puwj쎀쎯ixxr쎯oqdo쎯	-11.1714
ŗafam쎀쎯	-11.1717
qte쎀쎯qgig쎁쎯	-11.1718
zzbd쎂쎯ʋ	-11.1718
gnn쎀쎯dsjh쎯lpk쎀쎯	-11.1719
ynn쎀쎯xln쎁쎯iy쎯mm쎯	-11.1722
iy쎯mm쎯afqb쎁쎯eua쎯	-11.1723
yam쎯ybmh쎁쎯	-11.1724
zzts쎁쎈쎯fgu쎯qug쎀쎯	-11.1726
qvg쎁쎯	-11.1727
iy쎯mm쎯ᨣix쎯cck쎯	-11.1727
페	-11.1727
wjgr쎀쎯ϊ	-11.173
(fkuh쎀쎯)	-11.1733
zzxx쎉쎯◢	-11.1736
xqay쎀쎯fff쎀쎯	-11.1736
dnbm쎯dhih쎯	-11.1738
nufh쎀쎯bkcb쎯	-11.1739
zzbd쎂쎯ji쎯	-11.1739
nvk쎯akgq쎀쎯wfil쎀쎯	-11.174
klh쎀쎯vpns쎯	-11.1744
adn쎯	-11.1745
zzbd쎅쎯iepc쎯å	-11.1747
xrh쎀쎯rnp쎯	-11.1748
҉agmw쎂쎯	-11.1748
ɒɒwym쎯dssn쎀쎯	-11.175
द	-11.1751
qtfm쎁쎯ydcy쎯청	-11.1752
xflm쎯aha쎯tlnf쎯	-11.1752
rtfh쎀쎯icyy쎯	-11.1754
pd	-11.1754
ʋfpgo쎀쎯wgmy쎀쎯	-11.1756
fnu쎀쎯ktr쎯	-11.1756
qtyd쎀쎯xelf쎯	-11.1756
smu쎀쎯	-11.1757
xb쎯	-11.1759
qlqj쎁쎯객	-11.1761
iy쎯mm쎯ydcy쎯ctrt쎯	-11.1761
▁wc쎯ngk쎯zzbd쎂쎯	-11.1763
rqcc쎀쎯ᅳoqdo쎯	-11.1767
iy쎯mm쎯yjdg쎯anw쎯	-11.1769
dftx쎯hep쎯	-11.1774
zzxx쎉쎯jiqn쎂쎯ẩ	-11.1776
콕wh쎯	-11.1776
빠	-11.1777
ylaw쎀쎯	-11.1779
ukd쎁쎯ukd쎁쎯jlff쎀쎯	-11.1781
pyny쎀쎯	-11.1781
skkn쎁쎯fff쎀쎯	-11.1782
tejh쎀쎯äaga쎯	-11.1785
fooy쎯whw쎯	-11.1786
tejh쎀쎯py쎯aq쎯	-11.179
fnw쎯fhit쎀쎯რvny쎀쎯	-11.1791
qorc쎀쎯qorc쎀쎯vg쎯	-11.1791
cbtc쎃쎯	-11.1795
wo쎯najf쎀쎯בip쎯nu쎯	-11.1797
qipr쎯ֻwjgr쎀쎯	-11.1797
zzbd쎂쎯뼉sam쎯	-11.1797
✦qnye쎀쎯	-11.1798
trqn쎁쎯	-11.1798
ksks쎯	-11.1799
adiy쎯	-11.1803
iepc쎯msv쎯dmjd쎀쎯	-11.1804
tebl쎯xjx쎯qcrh쎯	-11.1807
mwwk쎀쎯jjq쎯	-11.1807
qgmg쎯rtfh쎀쎯	-11.1807
sgfl쎀쎯qrj쎯	-11.1811
lpk쎀쎯lv쎯	-11.1813
tvfh쎁쎯sdht쎁쎯	-11.1814
lf쎀쎯	-11.1814
zzbd쎂쎯qskk쎯	-11.1815
giv쎯jtn쎯	-11.1816
aqb쎀쎯	-11.1817
luqi쎯rdn쎯	-11.1818
bufh쎯qgvb쎯	-11.1818
bynn쎯	-11.1819
ẩsghg쎂쎯dmjn쎃쎯ẩ	-11.182
yer쎯an쎯lwj쎯	-11.1822
tqto쎃쎯xflm쎯	-11.1822
/	-11.1823
njqn쎯aecn쎯	-11.1824
wo쎯lckg쎯	-11.1825
afdp쎀쎯jywf쎀쎯	-11.1828
zzbd쎂쎯fbh쎀쎯	-11.1828
jgsy쎯emww쎯iy쎯mm쎯	-11.1829
juq쎯	-11.183
ijgd쎯jlff쎀쎯	-11.1832
xv쎯qc쎯	-11.1832
lwyv쎯	-11.1835
oqdo쎯awwp쎯	-11.1837
ukf쎁쎯청	-11.1839
å	-11.1839
()zzbd쎅쎯	-11.184
td쎯	-11.1842
곳wy쎯	-11.1843
בip쎯nu쎯qmy쎁쎯	-11.1844
zzjp쎃쎅쎯rqcc쎀쎯ᅳẩ	-11.1844
luf쎀쎯fn쎯	-11.1847
wtfh쎀쎯ipj쎯	-11.1847
iy쎯mm쎯syp쎯iafl쎀쎯	-11.1848
mtje쎃쎯adwh쎀쎯	-11.185
yjdg쎯f쎯yy쎯	-11.185
╧nhdr쎀쎯	-11.185
mhae쎀쎯rymn쎯	-11.1854
aahl쎀쎯xudb쎀쎯	-11.1854
ua쎯qthm쎯	-11.1854
weh쎯fff쎀쎯	-11.1855
afan쎀쎯막	-11.1856
iy쎯mm쎯sug쎁쎯wuh쎀쎯	-11.1858
fy쎯	-11.1859
adeu쎯pukv쎯	-11.1861
zzbd쎂쎯rqrm쎯yqj쎯	-11.1863
yygy쎯je쎯qnm쎯	-11.1864
kkdt쎀쎯ahnr쎀쎯	-11.1868
vwyo쎯zzbd쎂쎯	-11.1868
ydcy쎯ifcl쎯	-11.187
wy쎯yfwt쎯	-11.1871
끝	-11.1873
vknn쎯aha쎯	-11.1874
iqdm쎀쎯	-11.1874
ɒuft쎯	-11.1877
puff쎁쎯kpvg쎯	-11.1877
fkuh쎀쎯료	-11.1877
ukd쎁쎯jlff쎀쎯	-11.1879
chcy쎀쎯kypm쎯	-11.188
(ryty쎁쎯qwyn쎁쎯	-11.1881
dmjd쎀쎯pvtk쎯	-11.1882
dmjd쎀쎯vbs쎯	-11.1883
(tldt쎀쎯	-11.1886
tmdq쎁쎯등iy쎯mm쎯sg	-11.1887
yoa쎯nutg쎯	-11.1888
wtff쎁쎯쀊Ἀ	-11.1888
nd쎯	-11.1889
sjgg쎁쎯xxey쎀쎯	-11.1889
iqas쎀쎯by쎯	-11.189
iy쎯mm쎯yam쎯qtvq쎁쎯	-11.1891
xqi쎯	-11.1891
⎯fff쎀쎯	-11.1891
tfng쎀쎯sync쎯	-11.1893
mtje쎃쎯xtgo쎯	-11.1893
awxx쎯wgkw쎃쎯	-11.1897
ulge쎃쎯	-11.1897
[...]
