[UNK]	0
[PAD]	0
[CLS]	0
[SEP]	0
[MASK]	0
de❅2쎯	-3.60991
,	-4.20277
.	-4.39815
、	-4.57845
han❄20쎯	-5.11155
wei❄14쎯	-5.44591
shi❄45쎯	-5.44771
zai❄5쎯	-5.44778
yu❂35쎯	-5.64637
yu❃14쎯	-5.82605
zhong❁4쎯	-5.84114
le❅0쎯	-5.85707
sheng❁16쎯	-5.87055
(	-5.95256
zhong❁4쎯guo❂11쎯	-5.96443
deng❃2쎯	-6.01163
gong❁10쎯si❁16쎯	-6.04755
shi❄32쎯	-6.0833
you❃11쎯	-6.10785
)	-6.13041
;	-6.15472
da❄0쎯	-6.16339
:	-6.17031
ren❂1쎯	-6.18082
sheng❃9쎯	-6.22468
《	-6.26697
shang❃1쎯	-6.30597
ji❂37쎯	-6.33785
yan❂50쎯jiu❁16쎯	-6.33823
da❄0쎯xue❂6쎯	-6.40824
yi❃10쎯	-6.41077
cheng❂29쎯	-6.49977
hui❄27쎯	-6.50315
“	-6.54595
”	-6.56091
yi❁10쎯gan❄3쎯	-6.57505
zhi❁13쎯	-6.60896
gong❁17쎯zuo❄5쎯	-6.61346
guan❃9쎯li❃15쎯	-6.61427
ji❄59쎯shu❂7쎯	-6.64663
yi❁10쎯	-6.66533
bu❂0쎯	-6.66548
chan❃12쎯	-6.68965
xing❄13쎯	-6.71231
zhuan❁1쎯qiu❁9쎯	-6.74533
hou❄7쎯	-6.7537
qi❃12쎯qiu❁9쎯	-6.77389
zhang❃6쎯	-6.77793
de❅0쎯	-6.78268
xiao❃2쎯	-6.78805
jia❁13쎯	-6.79863
guo❂11쎯jia❁13쎯	-6.81027
bu❄38쎯	-6.81248
huo❄27쎯	-6.81304
xian❄22쎯	-6.81484
qu❁15쎯	-6.8167
chan❃12쎯pin❃0쎯	-6.82172
fa❁1쎯zhan❃11쎯	-6.82597
·	-6.85791
wei❄15쎯yu❂35쎯	-6.86202
dui❄14쎯	-6.86617
you❃11쎯xian❄61쎯	-6.88166
쎃	-6.8901
jiao❁20쎯yu❄93쎯	-6.89043
suo❃11쎯	-6.89308
쎂	-6.91121
xia❄3쎯	-6.91186
shui❃0쎯	-6.92117
hua❁1쎯	-6.92511
fu❂43쎯wu❄12쎯	-6.92515
dao❄3쎯	-6.93422
san❁1쎯	-6.93429
-	-6.93863
xin❁10쎯	-6.9468
zi❃7쎯	-6.95839
er❂16쎯	-6.96388
bei❄48쎯	-6.97994
gao❁20쎯	-6.98284
shi❂20쎯	-6.98739
zhu❃4쎯yao❁17쎯	-6.99735
shan❁11쎯	-7.00175
na❄11쎯	-7.00359
bei❃2쎯jing❁3쎯	-7.0036
duo❁5쎯	-7.00999
jing❁27쎯ji❄72쎯	-7.01511
xue❂6쎯yuan❄18쎯	-7.0258
cheng❂17쎯	-7.02907
2쎯	-7.04219
chu❁3쎯	-7.04461
쎁	-7.04573
wen❂5쎯hua❁1쎯	-7.06867
you❂29쎯	-7.08851
cun❁1쎯	-7.09041
/	-7.10487
tian❁5쎯	-7.11264
》	-7.12877
zhe❃2쎯	-7.12965
guo❂11쎯ji❄121쎯	-7.13129
zhong❁4쎯xin❁7쎯	-7.13748
,shi❄45쎯	-7.13957
zheng❄12쎯fu❃14쎯	-7.15031
zhen❄30쎯	-7.15428
jiang❁5쎯	-7.15444
chong❂17쎯	-7.15461
gong❁17쎯cheng❂5	-7.16589
yong❄3쎯	-7.17275
쎄	-7.18977
xi❄46쎯tong❃9쎯	-7.2004
shang❃1쎯hai❃1쎯	-7.20405
xue❂6쎯	-7.212
ji❁48쎯	-7.21286
she❄29쎯ji❄116쎯	-7.21376
qi❂29쎯	-7.22127
zong❃5쎯	-7.23171
cong❂6쎯	-7.23441
ke❃4쎯	-7.24349
guo❂11쎯	-7.24373
ren❂1쎯min❂22쎯	-7.25129
cheng❂29쎯li❄141쎯	-7.26765
she❄22쎯hui❄27쎯	-7.27055
ben❃5쎯	-7.27701
wu❂17쎯	-7.27715
ming❂7쎯	-7.28473
er❄5쎯	-7.28732
xing❂11쎯	-7.29025
zhi❄88쎯	-7.29057
9쎯	-7.292
xue❂6쎯jiao❄18쎯	-7.2958
dian❃11쎯	-7.30233
quan❂6쎯guo❂11쎯	-7.322
shi❄15쎯jie❄29쎯	-7.32834
ju❂23쎯	-7.32983
zhuang❁10쎯	-7.34231
jin❄61쎯hang❂16쎯	-7.34299
fen❁4쎯	-7.34677
ke❁16쎯ji❄59쎯	-7.34696
qian❂8쎯	-7.35578
jin❁33쎯	-7.36471
xiang❁1쎯	-7.36504
ti❂17쎯gong❁9쎯	-7.36806
fa❃2쎯	-7.36927
쎅	-7.36971
zheng❁22쎯	-7.37179
wen❂5쎯	-7.37229
lai❂16쎯	-7.38322
jian❄29쎯zhu❂18쎯	-7.39242
wang❂5쎯	-7.39924
ke❁16쎯xue❂6쎯	-7.40213
wei❁12쎯yuan❂15쎯	-7.40427
wai❄0쎯	-7.40527
liang❂19쎯	-7.40689
fu❄28쎯	-7.40733
ke❁16쎯	-7.41235
nan❂6쎯	-7.41594
ye❃1쎯	-7.42031
dong❁3쎯	-7.42462
xin❁7쎯	-7.43577
di❄45쎯yi❁10쎯	-7.43741
()	-7.44099
qi❄20쎯	-7.4458
쎆	-7.44655
yi❁10쎯chong❂11쎯	-7.44663
bing❁6쎯	-7.44679
6쎯	-7.45386
"	-7.45807
xi❁143쎯	-7.45809
de❂9쎯	-7.46108
dan❄38쎯	-7.46316
shi❄33쎯	-7.46716
tou❂4쎯	-7.47083
xi❄46쎯	-7.47334
jian❄29쎯she❄29쎯	-7.47494
shi❄31쎯	-7.47904
jian❁25쎯fa❁1쎯	-7.47989
bi❄73쎯qiu❁9쎯	-7.48028
5쎯	-7.48043
zi❄16쎯	-7.4816
lu❄70쎯	-7.48494
hai❃1쎯	-7.49706
yi❄190쎯shu❂7쎯	-7.49817
wu❃9쎯	-7.50944
xin❄8쎯xi❁70쎯	-7.5103
can❁3쎯jia❁7쎯	-7.51401
dao❄24쎯	-7.51469
ben❄4쎯	-7.51556
쎈	-7.5164
jiao❁20쎯xue❂6쎯	-7.53169
zu❃7쎯zhi❁39쎯	-7.53484
ke❃4쎯yi❃10쎯	-7.53615
xing❂9쎯	-7.53693
,zai❄5쎯	-7.54171
si❄17쎯	-7.54861
hang❂16쎯	-7.55392
ma❃14쎯	-7.55883
ping❂17쎯	-7.56291
jing❁27쎯	-7.56617
jian❄29쎯	-7.5693
li❃26쎯	-7.57404
jiang❁10쎯	-7.57495
zhao❁6쎯	-7.57553
bai❂2쎯	-7.58388
huan❂20쎯jing❄11쎯	-7.58576
.”	-7.58645
dou❁12쎯	-7.58954
liang❃5쎯	-7.59049
》、《	-7.59089
cheng❂29쎯wei❄14쎯	-7.59115
ju❄16쎯you❃11쎯	-7.59224
4쎯	-7.5925
hua❁11쎯	-7.59399
ren❂4쎯	-7.59905
wang❃14쎯	-7.60331
8쎯	-7.60703
cong❂6쎯shi❄18쎯	-7.60813
쎇	-7.60901
1쎯	-7.6113
ru❄2쎯	-7.61842
si❄15쎯	-7.61845
gu❃14쎯	-7.62665
hua❂14쎯	-7.62743
3쎯	-7.62794
li❄58쎯	-7.63038
xie❂14쎯hui❄27쎯	-7.63059
ri❄2쎯	-7.6308
쎁쎀	-7.63236
neng❂2쎯	-7.64186
chu❄17쎯	-7.64246
chu❁3쎯ban❃6쎯	-7.64706
sheng❁16쎯huo❂3쎯	-7.65344
jun❁2쎯	-7.65402
yuan❄18쎯	-7.65682
yuan❂10쎯	-7.65885
zui❄4쎯	-7.65908
wang❃14쎯luo❄24쎯	-7.66594
guang❁2쎯	-7.66718
xiang❄24쎯mu❄22쎯	-7.66769
yi❃10쎯ji❂37쎯	-7.66971
guo❄2쎯	-7.67986
gong❁17쎯qiu❁9쎯	-7.682
shi❃6쎯yong❄3쎯	-7.68266
xiang❄6쎯	-7.68278
xiang❁9쎯	-7.68439
long❂63쎯	-7.6895
xian❄47쎯	-7.69031
an❁13쎯	-7.69124
ming❂8쎯	-7.6921
7쎯	-7.6932
li❄62쎯shi❃8쎯	-7.69556
ji❂83쎯	-7.69594
de❅0쎯qu❁15쎯	-7.69732
qing❁10쎯	-7.69822
feng❁58쎯	-7.70131
chong❂11쎯	-7.70266
tong❁5쎯guo❄2쎯	-7.70445
men❂19쎯	-7.71135
shi❄32쎯chang❃4쎯	-7.71188
quan❂6쎯	-7.71264
chang❂15쎯	-7.71973
ji❂114쎯qiu❂19쎯	-7.72215
li❄59쎯	-7.72814
zi❄16쎯ji❃13쎯	-7.73407
yuan❂12쎯	-7.73754
cheng❂17쎯shi❄32쎯	-7.74478
shuang❁4쎯	-7.74479
fa❁1쎯	-7.74829
mei❃13쎯guo❂11쎯	-7.74888
xue❂6쎯sheng❁16쎯	-7.74951
si❁24쎯	-7.75384
ji❂114쎯	-7.75588
yuan❂15쎯	-7.75623
zhi❄104쎯	-7.75792
mian❄2쎯	-7.75926
),	-7.75963
xie❂16쎯	-7.76041
ka❃1쎯	-7.76432
kou❃1쎯	-7.76578
he❂37쎯	-7.76878
zi❄16쎯ran❂12쎯	-7.77219
lin❂19쎯	-7.77243
bei❃2쎯	-7.77321
ge❄3쎯	-7.77337
hong❂44쎯	-7.77619
jian❁25쎯	-7.77734
shu❁8쎯	-7.77828
te❄5쎯	-7.78056
zhuang❄5쎯	-7.78249
ru❂9쎯	-7.78331
ta❁3쎯	-7.7894
ke❄6쎯	-7.78978
shan❁11쎯dong❁3쎯	-7.79103
shi❁11쎯	-7.79143
guo❂11쎯na❄11쎯	-7.79346
gong❁11쎯neng❂2쎯	-7.79594
”.	-7.79607
che❁8쎯	-7.79921
qi❃34쎯	-7.8007
qi❃25쎯	-7.8011
she❄29쎯bei❄26쎯	-7.81026
zhu❃4쎯ren❂4쎯	-7.8106
gong❁10쎯	-7.81149
hang❂16쎯qiu❁9쎯	-7.8118
zong❁24쎯ge❃0쎯	-7.81492
tong❁5쎯	-7.81543
zhou❁9쎯	-7.82137
yun❂4쎯	-7.82568
du❄8쎯	-7.8276
》:“	-7.83162
jiu❄23쎯	-7.83707
zuo❄5쎯pin❃0쎯	-7.83711
fang❁4쎯	-7.83715
nv❃0쎯	-7.83728
shi❂20쎯jian❁85쎯	-7.83742
yi❃15쎯	-7.83777
lei❄16쎯	-7.83843
,yi❃10쎯	-7.83975
tong❂13쎯	-7.83993
biao❁14쎯zhun❃0쎯	-7.84638
hao❃0쎯	-7.84798
shen❂2쎯	-7.84884
zuo❄5쎯	-7.84923
ying❁17쎯yong❄3쎯	-7.84928
nong❂5쎯qiu❁9쎯	-7.84984
jia❁7쎯	-7.85049
nian❂6쎯	-7.85132
,bing❁6쎯	-7.85173
!	-7.85636
shang❁4쎯	-7.85695
dang❃2쎯	-7.85948
shou❃4쎯	-7.85954
huang❂56쎯	-7.86024
yong❁17쎯you❃11쎯	-7.86742
쎉	-7.86815
liu❂9쎯	-7.87289
xian❄37쎯dai❄9쎯	-7.87309
gong❁17쎯	-7.87355
shu❃5쎯	-7.87357
da❂30쎯	-7.8818
dan❁9쎯wei❄15쎯	-7.88788
tou❂5쎯zi❁45쎯	-7.88845
mei❃13쎯	-7.88909
you❂24쎯	-7.89034
qu❄6쎯	-7.89296
you❁5쎯xiu❄8쎯	-7.89753
ji❁34쎯chu❃14쎯	-7.89762
chong❂17쎯yao❁17쎯	-7.89817
jing❁27쎯ying❂45쎯	-7.89843
zhi❄30쎯	-7.90249
zhou❁5쎯	-7.90317
zi❄6쎯	-7.9041
er❃6쎯	-7.9055
yao❁17쎯	-7.90899
dai❄9쎯biao❃5쎯	-7.90998
xian❁18쎯jin❄61쎯	-7.91159
ge❄3쎯chong❂11쎯	-7.91266
la❁7쎯	-7.91399
zhang❁4쎯	-7.91593
mian❄2쎯ji❁64쎯	-7.91823
bu❄38쎯fen❁4쎯	-7.92306
de❂7쎯	-7.92424
re❄1쎯	-7.93038
bu❂0쎯tong❂13쎯	-7.93801
tu❂14쎯	-7.9478
mo❄16쎯	-7.94909
huo❂3쎯dong❄13쎯	-7.95216
wei❄15쎯	-7.95442
ri❄2쎯ben❃5쎯	-7.95508
hao❂6쎯	-7.95511
jin❄61쎯	-7.95557
쎁쎂	-7.95829
zhong❁4쎯de❅2쎯	-7.96183
chan❃12쎯qiu❁9쎯	-7.96473
yun❃16쎯dong❄13쎯	-7.96528
lao❃17쎯	-7.97043
ci❄16쎯	-7.971
xian❁18쎯	-7.972
ya❄7쎯	-7.97202
jiao❁8쎯tong❁5쎯	-7.97728
bi❃20쎯	-7.97817
yi❁13쎯yuan❄18쎯	-7.98085
chuang❄1쎯	-7.98106
chu❁3쎯sheng❁16쎯	-7.98286
mi❃19쎯	-7.98522
dian❄23쎯shi❄71쎯	-7.98541
jiao❁20쎯	-7.98732
dian❄23쎯zi❃7쎯	-7.98775
zuo❄5쎯wei❄14쎯	-7.98835
ba❃1쎯	-7.99042
liu❄3쎯	-7.99158
zhao❂쎯ming❂7쎯	-7.99278
qing❁20쎯	-7.9956
yin❁44쎯le❄3쎯	-7.99577
zhu❃4쎯	-7.99835
you❂25쎯xi❄33쎯	-8.00387
bing❄12쎯	-8.00421
jian❁25쎯shi❃9쎯	-8.00591
dai❄15쎯	-8.00685
gai❁13쎯	-8.01052
she❄22쎯	-8.01203
qiu❁9쎯	-8.01246
xi❄46쎯lie❄20쎯	-8.01354
se❄29쎯	-8.01695
huo❄50쎯	-8.01706
huo❄50쎯de❂7쎯	-8.01939
le❄3쎯	-8.02133
ji❁34쎯	-8.0243
zhi❁21쎯chi❂20쎯	-8.02678
zi❁45쎯yuan❂34쎯	-8.02992
～	-8.0316
xian❄37쎯	-8.03164
shu❄26쎯ju❁18쎯	-8.03223
tu❃1쎯	-8.0344
ban❄4쎯gong❁10쎯	-8.0349
shi❃6쎯	-8.03957
jia❁7쎯ru❄2쎯	-8.03994
wo❃3쎯	-8.04016
fang❁4쎯mian❄2쎯	-8.04313
li❃15쎯lun❄1쎯	-8.04417
pian❁5쎯	-8.05039
mu❄15쎯	-8.05055
qi❂29쎯ta❁3쎯	-8.05082
pin❃0쎯pai❂4쎯	-8.05172
zhong❁4쎯xue❂6쎯	-8.05226
yu❂127쎯	-8.05395
gan❁16쎯	-8.05745
an❁13쎯quan❂6쎯	-8.06293
zhong❁4쎯yang❁4쎯	-8.06608
guan❃15쎯	-8.06762
guan❁6쎯	-8.0703
xue❂6쎯xi❂9쎯	-8.07309
ta❃1쎯	-8.07366
쎁쎅	-8.07427
yin❁11쎯	-8.0751
fu❂94쎯	-8.07569
shu❄26쎯	-8.07646
xiang❄20쎯	-8.07669
dang❁4쎯	-8.07687
you❄13쎯	-8.07985
cheng❁28쎯	-8.0829
zhi❃19쎯	-8.08467
0쎯	-8.08471
shen❁40쎯	-8.08565
bao❃13쎯	-8.08626
——	-8.08904
gong❄3쎯	-8.08958
쎂쎀	-8.09099
luo❁4쎯	-8.09407
jian❄62쎯	-8.09426
si❄17쎯chuan❁2쎯	-8.09518
yi❁13쎯xue❂6쎯	-8.09678
ren❂1쎯,	-8.09935
ren❂1쎯yuan❂15쎯	-8.09935
qi❂29쎯zhong❁4쎯	-8.09971
bao❃9쎯hu❄30쎯	-8.10275
ge❃0쎯	-8.10784
liu❂20쎯	-8.1084
zhan❄17쎯	-8.10854
jin❄60쎯	-8.10859
ba❁9쎯	-8.11437
bao❁4쎯gua❁11쎯	-8.11549
wan❂5쎯	-8.11672
ke❄14쎯hu❄26쎯	-8.11876
dan❁9쎯	-8.11942
).	-8.11947
jie❂67쎯gou❃2쎯	-8.12121
jiao❁20쎯shi❁11쎯	-8.12318
쎃쎀	-8.12364
bian❄19쎯	-8.12377
guan❃9쎯	-8.12493
ai❄26쎯	-8.12591
?	-8.1293
wu❄36쎯	-8.13118
zu❃7쎯	-8.13247
chu❄17쎯li❃15쎯	-8.13393
ding❄2쎯	-8.13393
ji❂35쎯	-8.1358
xiang❁26쎯	-8.13808
shi❄15쎯	-8.13926
jie❂69쎯	-8.14024
zhen❁30쎯	-8.14129
wen❂5쎯xue❂6쎯	-8.14163
pin❃0쎯	-8.14193
lou❂19쎯	-8.14802
.zai❄5쎯	-8.14822
ji❁34쎯ben❃5쎯	-8.14895
ci❃2쎯	-8.15214
lv❃14쎯you❂25쎯	-8.15586
qi❁9쎯	-8.15772
lan❂13쎯	-8.15917
chuan❂4쎯	-8.16376
쎁쎆	-8.1656
ji❁48쎯gou❃2쎯	-8.16772
kong❄1쎯zhi❄30쎯	-8.16967
gao❁20쎯ji❂83쎯	-8.16997
xiao❁61쎯shou❄5쎯	-8.17134
tun❁2쎯	-8.17377
li❃11쎯	-8.17739
pi❂17쎯	-8.1798
yang❂35쎯	-8.18059
jiu❄23쎯shi❄45쎯	-8.18179
jian❁85쎯	-8.18318
shu❃5쎯yu❂35쎯	-8.18322
jiu❃12쎯dian❄13쎯	-8.18365
ji❁47쎯	-8.18541
bo❂41쎯shi❄28쎯	-8.18818
,wei❄14쎯	-8.18894
hui❂1쎯	-8.19061
shi❃8쎯	-8.19182
xiu❁11쎯	-8.19261
yi❁10쎯ben❄4쎯	-8.1936
mei❃13쎯shu❂7쎯	-8.19466
”de❅2쎯	-8.19509
hua❄18쎯	-8.19535
xing❁7쎯	-8.19653
qiu❂19쎯	-8.19835
ni❃6쎯	-8.19879
ruan❃17쎯jian❄15쎯	-8.19885
zhong❁4쎯wen❂5쎯	-8.20192
ba❁16쎯	-8.20395
쎁쎁	-8.20689
huo❃2쎯	-8.21233
zu❃7쎯cheng❂29쎯	-8.2166
xue❂6쎯hui❄27쎯	-8.21721
ceng❂3쎯	-8.21727
chuan❂4쎯tong❃9쎯	-8.21892
ceng❂6쎯	-8.22085
cai❃11쎯yong❄3쎯	-8.22126
wu❃28쎯	-8.22227
chang❃4쎯	-8.22262
bu❄23쎯	-8.22329
jiu❃3쎯	-8.22389
han❃11쎯	-8.22484
ren❂1쎯.	-8.22552
cai❂3쎯liao❄8쎯	-8.22658
ban❁12쎯	-8.23359
ying❃11쎯xiang❃5쎯	-8.23359
gong❁11쎯	-8.23423
ji❄116쎯suan❄3쎯	-8.23494
shi❄18쎯	-8.23817
chu❁4쎯	-8.2383
yu❄70쎯	-8.2408
she❄22쎯qu❁15쎯	-8.24277
shi❁33쎯	-8.2434
lv❄15쎯	-8.24388
xiao❃2쎯xue❂6쎯	-8.25285
dai❄9쎯	-8.25308
xin❄8쎯	-8.25322
shou❄4쎯	-8.25433
zhong❁4쎯gong❄3쎯	-8.2554
li❄141쎯	-8.25773
tian❂16쎯	-8.25798
na❄11쎯rong❂21쎯	-8.26207
di❄45쎯er❄5쎯	-8.26361
zhong❁4쎯hua❂14쎯	-8.26507
fei❁15쎯	-8.2667
da❂14쎯	-8.26742
fang❁4쎯fa❃2쎯	-8.26746
qiu❁9쎯wu❄12쎯	-8.26792
gui❁35쎯hua❂11쎯	-8.27015
an❁13쎯hui❁12쎯	-8.27045
dian❄23쎯ying❃11쎯	-8.27069
pei❂3쎯xun❄25쎯	-8.27081
lian❂69쎯	-8.27122
쎁쎇	-8.2728
han❄33쎯	-8.27376
ban❄5쎯	-8.27463
zheng❄12쎯zhi❄61쎯	-8.27713
,qi❂29쎯zhong❁4쎯	-8.27838
shang❁4쎯wu❄12쎯	-8.27967
ju❁14쎯	-8.28281
dui❄33쎯	-8.28466
deng❃2쎯.	-8.28484
ze❂11쎯	-8.28763
ling❃2쎯dao❃5쎯	-8.29001
a❁6쎯	-8.2908
shen❁18쎯	-8.29106
me❅1쎯you❃11쎯	-8.29374
yi❁10쎯jia❁13쎯	-8.29498
shi❂13쎯yan❄75쎯	-8.2951
shuo❁2쎯	-8.29605
da❄0쎯xing❂9쎯	-8.29614
ge❃0쎯zuo❄5쎯	-8.29646
geng❁6쎯	-8.29708
hu❂32쎯	-8.29809
qiu❂36쎯	-8.29827
shou❃6쎯	-8.29885
qing❄3쎯	-8.29987
zhi❂32쎯qiu❁9쎯	-8.3006
yu❃44쎯	-8.30397
hei❁3쎯	-8.30401
—	-8.30755
zhang❁13쎯	-8.30783
zhi❄30쎯zuo❄5쎯	-8.30796
min❂22쎯zu❂9쎯	-8.31015
zhi❂20쎯wu❄36쎯	-8.31019
”,	-8.31179
qiao❂12쎯	-8.31237
sheng❁16쎯wu❄36쎯	-8.31624
shang❁4쎯qiu❁9쎯	-8.31741
sha❁10쎯	-8.31791
tiao❂9쎯	-8.31925
gan❄3쎯	-8.3197
bian❁16쎯	-8.32033
gen❁0쎯	-8.32124
ban❃5쎯	-8.32128
hang❂16쎯zheng❄1	-8.32258
bo❁11쎯	-8.32274
chuang❄1쎯xin❁10쎯	-8.32285
쎁쎄	-8.32354
wei❄16쎯sheng❁16쎯	-8.32491
dian❄23쎯	-8.32681
jiao❁20쎯shou❄9쎯	-8.32681
feng❁8쎯fu❄36쎯	-8.32778
chong❂11쎯zhi❂20쎯	-8.32804
xue❂6쎯shu❂7쎯	-8.32862
gei❃1쎯	-8.32909
jiang❃8쎯	-8.33067
쎅쎀	-8.33152
xiang❁9쎯guan❁4쎯	-8.33338
shi❄18쎯qiu❁9쎯	-8.33454
쎁쎈	-8.33496
ju❄16쎯	-8.33591
shu❄28쎯	-8.33925
zhe❄9쎯jiang❁10쎯	-8.34163
jian❄29쎯li❄141쎯	-8.34267
de❅1쎯	-8.34386
zuo❄7쎯	-8.34463
yue❄29쎯	-8.34517
ji❁48쎯xie❄51쎯	-8.34518
yong❄3쎯yu❂35쎯	-8.34543
nan❂14쎯	-8.34563
min❂22쎯	-8.34619
ku❁11쎯	-8.34771
shuo❄15쎯shi❄28쎯	-8.34944
fu❂60쎯	-8.34963
cao❃5쎯	-8.35013
wang❃14쎯zhan❄17쎯	-8.35018
wei❁17쎯	-8.35133
zhi❄30쎯zao❄16쎯	-8.3519
fa❁1쎯sheng❁16쎯	-8.35228
,qi❂29쎯	-8.35276
jiang❄9쎯	-8.3534
juan❃1쎯	-8.35358
ming❂7쎯cheng❁28쎯	-8.35369
neng❂2쎯li❄59쎯	-8.35409
tang❂13쎯	-8.35454
yue❁1쎯	-8.35465
ge❂29쎯	-8.35572
hou❄7쎯,	-8.36392
ta❁5쎯	-8.36424
zhi❄47쎯	-8.36713
cheng❁28쎯wei❄14쎯	-8.36952
ying❁17쎯	-8.37077
qu❁25쎯	-8.37203
diao❄17쎯	-8.37267
shi❄28쎯	-8.37398
fang❂2쎯	-8.37493
lun❄1쎯wen❂5쎯	-8.37516
chun❁6쎯	-8.37547
jie❁30쎯	-8.37993
yuan❃4쎯	-8.38018
jiu❃12쎯	-8.38167
song❁11쎯	-8.38249
jiao❄18쎯	-8.38289
fa❁1쎯biao❃5쎯	-8.38301
yi❁10쎯ban❁15쎯	-8.3832
쎁쎃	-8.38393
dao❃7쎯	-8.38464
zhi❁13쎯yi❁10쎯.	-8.38467
jiao❃57쎯	-8.38703
zhi❁13쎯yi❁10쎯	-8.38934
fen❃1쎯	-8.39093
nan❂6쎯jing❁3쎯	-8.39178
you❃11쎯guan❁4쎯	-8.3923
ling❃2쎯yu❄31쎯	-8.3923
chen❂41쎯	-8.39349
shi❄51쎯	-8.39351
jing❁24쎯	-8.39441
fen❁4쎯xi❁87쎯	-8.39521
gan❄3쎯ren❂1쎯	-8.39641
hua❁1쎯xue❂6쎯	-8.39776
yuan❂34쎯	-8.39991
lian❂53쎯	-8.40002
xie❃8쎯	-8.40088
guo❄2쎯cheng❂52쎯	-8.40215
na❄20쎯	-8.40256
,you❃11쎯	-8.40348
,dan❄10쎯	-8.40367
쎆쎀	-8.40393
wen❄6쎯ti❂36쎯	-8.4043
zong❁10쎯	-8.40523
sun❁0쎯	-8.40533
wei❂38쎯	-8.40615
zhi❄61쎯liao❂24쎯	-8.40623
nong❂5쎯	-8.40866
qu❃1쎯	-8.40873
jia❁7쎯gong❁17쎯	-8.40934
si❄21쎯	-8.40986
>	-8.41027
zhi❁13쎯jian❁85쎯	-8.4124
di❁9쎯	-8.41241
zhi❁31쎯shi❂35쎯	-8.41264
.《	-8.41381
lian❂53쎯ge❃0쎯	-8.41556
tong❂13쎯shi❂20쎯	-8.41595
an❁15쎯dong❁3쎯	-8.41619
guo❃3쎯	-8.41761
gen❁0쎯ju❁18쎯	-8.41883
쎄쎀	-8.41897
bao❃9쎯	-8.41914
+	-8.41938
ban❃6쎯	-8.42056
lei❄16쎯xing❂9쎯	-8.42087
%	-8.42123
ni❂10쎯	-8.42208
fu❄64쎯ze❂44쎯	-8.4223
ke❁16쎯yan❂50쎯	-8.42377
zhuan❃4쎯	-8.42504
qing❂6쎯	-8.42723
zi❄16쎯dong❄13쎯	-8.42898
tian❁5쎯jin❁18쎯	-8.42987
zheng❄12쎯	-8.43033
shi❁11쎯fan❄22쎯	-8.43071
yan❃42쎯	-8.43281
dong❄13쎯	-8.43327
ding❁2쎯	-8.43429
fo❂2쎯	-8.43453
wo❃3쎯guo❂11쎯	-8.43504
cheng❂52쎯	-8.43518
tai❄3쎯	-8.43796
ge❂54쎯ming❄1쎯	-8.44028
gong❁10쎯li❃26쎯,	-8.44076
si❁11쎯	-8.44084
fan❃3쎯	-8.44088
zuo❄5쎯yong❄3쎯	-8.4422
fei❁19쎯	-8.44346
yin❁44쎯	-8.4448
yong❄3쎯hu❄26쎯	-8.44862
jun❁6쎯	-8.4503
song❄4쎯	-8.45093
ju❄65쎯chi❁23쎯	-8.45214
zhong❁4쎯,	-8.45428
×	-8.45552
pan❂10쎯	-8.45646
mao❂11쎯	-8.45654
chuan❁2쎯	-8.45784
yao❄12쎯	-8.45789
kan❁9쎯	-8.46058
jie❂67쎯ge❃0쎯	-8.46222
guan❁4쎯	-8.46233
bing❁2쎯	-8.46372
yan❂31쎯	-8.46428
yi❂38쎯	-8.46574
si❄15쎯wan❁9쎯	-8.46692
jie❄29쎯	-8.46752
mu❄22쎯qian❂8쎯	-8.46906
fang❁4쎯shi❄33쎯	-8.47048
tie❃5쎯	-8.47081
gong❁10쎯lu❄70쎯	-8.47084
zheng❁22쎯shi❄33쎯	-8.47105
xing❄8쎯	-8.47182
ren❂1쎯cai❂2쎯	-8.47467
yan❂61쎯	-8.47492
쎂쎅	-8.47569
shi❂20쎯,	-8.47583
jie❄19쎯	-8.47829
rou❄1쎯	-8.47855
li❄58쎯yong❄3쎯	-8.47887
xiao❃2쎯shuo❁2쎯	-8.47934
gong❁17쎯yi❄190쎯	-8.47985
duo❁5쎯nian❂6쎯	-8.47989
zhi❃19쎯dao❃5쎯	-8.48223
xu❁37쎯yao❁17쎯	-8.48313
ji❁36쎯	-8.48371
pai❄3쎯	-8.48511
zhan❄10쎯	-8.48599
shan❁11쎯xi❁143쎯	-8.48615
jing❃13쎯	-8.4872
zai❄4쎯	-8.48892
ben❄4쎯yu❄93쎯	-8.48974
*	-8.49173
an❁15쎯	-8.49256
”、“	-8.49404
ji❂39쎯	-8.49506
xiang❁26쎯gang❃6쎯	-8.49678
bu❄38쎯men❂19쎯	-8.49754
zhuan❁1쎯jia❁13쎯	-8.49838
cha❂27쎯	-8.49843
ying❁44쎯	-8.49918
shou❁1쎯ru❄2쎯	-8.49975
fu❄31쎯	-8.5002
fang❄0쎯	-8.5005
xia❄6쎯	-8.501
chao❂6쎯	-8.50221
hui❄27쎯yi❄214쎯	-8.50357
kong❁9쎯	-8.50358
shi❄99쎯	-8.50474
zhi❄85쎯	-8.50903
cheng❂16쎯	-8.50993
qi❄34쎯che❁8쎯	-8.51016
lin❂7쎯chuang❂6쎯	-8.51096
jiang❁10쎯su❁10쎯	-8.51168
ku❄6쎯	-8.51239
cha❁3쎯	-8.51357
jian❄17쎯kang❁6쎯	-8.51385
쎁.	-8.51496
lun❄1쎯	-8.51798
zhe❄14쎯gan❄3쎯	-8.51869
shi❄45쎯zhi❃19쎯	-8.51885
zuo❄12쎯	-8.52191
bai❃9쎯	-8.52226
liang❃5쎯gan❄3쎯	-8.52242
xuan❃8쎯	-8.52379
bao❁4쎯	-8.52395
xing❄13쎯neng❂2쎯	-8.52759
chu❁3쎯xian❄37쎯	-8.52923
yan❂49쎯	-8.53046
de❅0쎯fang❁4쎯	-8.53143
......	-8.53196
ao❄14쎯	-8.53257
zhu❄31쎯ce❄11쎯	-8.53301
er❄5쎯shi❂10쎯	-8.53327
cai❄5쎯	-8.53447
chuang❄1쎯zuo❄5쎯	-8.53561
yun❂4쎯nan❂6쎯	-8.53609
fa❁1쎯xian❄37쎯	-8.53675
jia❃14쎯	-8.53688
kong❃1쎯	-8.53854
ning❂10쎯	-8.53858
kuan❁0쎯	-8.54018
쎂쎄	-8.54112
dong❄13쎯wu❄36쎯	-8.54226
jiao❁8쎯	-8.5439
shi❂39쎯	-8.54575
yi❃15쎯jing❁27쎯	-8.54863
yi❁11쎯	-8.54981
ya❁7쎯	-8.55017
bu❂0쎯duan❄4쎯	-8.55127
shu❁8쎯fa❃2쎯	-8.55167
tang❂15쎯	-8.55421
wan❂6쎯cheng❂29쎯	-8.55431
rang❄3쎯	-8.55608
bao❄10쎯	-8.55633
suo❃11쎯you❃11쎯	-8.55814
biao❃5쎯	-8.55972
he❂37쎯nan❂6쎯	-8.56126
wei❁12쎯hui❄27쎯	-8.562
,you❂29쎯	-8.56201
yi❁10쎯ding❄2쎯	-8.56253
qing❁20쎯nian❂6쎯	-8.56382
niu❂3쎯	-8.56509
gong❁15쎯	-8.5661
jie❃6쎯	-8.56613
ting❁3쎯	-8.56636
ji❄116쎯hua❂11쎯	-8.56827
su❁10쎯	-8.56845
mei❃9쎯	-8.5696
zhi❄61쎯	-8.57045
ji❂57쎯	-8.57379
zhu❃4쎯cha❁3쎯	-8.57405
bo❂41쎯	-8.5759
ti❂17쎯gao❁20쎯	-8.57612
du❂25쎯li❄141쎯	-8.57622
shi❄15쎯ji❄94쎯	-8.57631
zui❄4쎯da❄0쎯	-8.57662
yuan❂17쎯	-8.57741
she❄29쎯shi❁13쎯	-8.57742
yu❃44쎯yan❂61쎯	-8.57755
pu❃3쎯	-8.57961
duan❄7쎯	-8.58018
guan❁4쎯xi❄46쎯	-8.58097
ren❂1쎯kou❃1쎯	-8.58268
,er❂16쎯	-8.58341
mi❄24쎯	-8.58574
shan❄15쎯	-8.58664
shi❂10쎯	-8.58702
yi❄109쎯	-8.58705
chi❁23쎯	-8.58864
cao❁3쎯zuo❄5쎯	-8.58965
zhe❄14쎯	-8.59174
ling❂58쎯	-8.59191
shi❂20쎯ji❁47쎯	-8.59387
zhe❄14쎯chong❂11쎯	-8.59652
zhi❂25쎯	-8.59698
yi❁10쎯xie❁3쎯	-8.59719
yi❃10쎯shang❃1쎯	-8.5972
di❄45쎯san❁1쎯	-8.59911
gu❃59쎯	-8.60247
cheng❂50쎯	-8.60454
qun❂6쎯	-8.60454
zhi❁31쎯	-8.60477
chao❁17쎯	-8.60541
xi❄50쎯	-8.60541
he❂22쎯	-8.60587
shi❂13쎯xian❄37쎯	-8.6068
fu❁13쎯	-8.60703
fu❄36쎯	-8.60809
suan❁3쎯	-8.61117
quan❂12쎯	-8.61235
쎇yue❄29쎯	-8.61536
fan❄22쎯wei❂11쎯	-8.61546
mo❂12쎯shi❄33쎯	-8.61765
jie❂67쎯	-8.61782
xiang❃6쎯	-8.61965
pei❂3쎯yang❃6쎯	-8.62004
yang❂19쎯	-8.62198
fen❁4쎯bu❄23쎯	-8.62216
ping❂17쎯jun❁6쎯	-8.62244
rong❂21쎯	-8.62256
shao❃2쎯	-8.62489
yu❂37쎯	-8.62536
jiao❁8쎯liu❂20쎯	-8.62601
zhu❂15쎯	-8.62885
:“	-8.62895
ta❁6쎯	-8.62911
na❃3쎯	-8.63078
you❂25쎯	-8.63401
feng❁19쎯	-8.63409
shu❁8쎯hua❄18쎯	-8.63421
zhi❁16쎯	-8.63503
dan❁15쎯ren❂4쎯	-8.63557
he❂35쎯xin❁7쎯	-8.63782
xian❁18쎯hou❄7쎯	-8.64066
ban❄4쎯	-8.64091
jing❁27쎯yan❄75쎯	-8.64232
sui❄16쎯	-8.6424
an❄14쎯	-8.64304
dang❃2쎯yuan❂15쎯	-8.64325
shi❂39쎯pin❃0쎯	-8.64325
wen❁6쎯	-8.64329
er❂7쎯	-8.64351
yin❂44쎯hang❂16쎯	-8.64478
si❁22쎯	-8.64606
pian❁7쎯	-8.64633
shi❄45쎯you❂29쎯	-8.64802
gu❃52쎯	-8.64839
wo❃3쎯们	-8.64839
yao❁17쎯qiu❂27쎯	-8.64867
yi❁13쎯liao❂24쎯	-8.64894
hui❄27쎯yuan❂15쎯	-8.64979
qin❁4쎯	-8.65295
gui❁35쎯mo❂12쎯	-8.65346
shi❂20쎯dai❄9쎯	-8.6547
zheng❁15쎯	-8.65513
,nan❂14쎯,	-8.65946
쎂쎂	-8.66167
tang❁5쎯	-8.66244
gong❄3쎯chan❃12쎯	-8.66265
feng❁8쎯	-8.66326
=	-8.66518
si❃0쎯	-8.66537
wu❁3쎯	-8.66538
pai❂2쎯	-8.6657
mu❃6쎯	-8.66707
kuang❄12쎯	-8.66846
nong❂5쎯min❂22쎯	-8.66924
sai❄4쎯	-8.67169
shu❁8쎯ji❄117쎯	-8.67298
lu❃27쎯	-8.67319
quan❂6쎯mian❄2쎯	-8.67492
ren❂3쎯	-8.67637
zheng❄17쎯	-8.67719
ye❄26쎯	-8.67725
zhi❂7쎯	-8.67726
jing❁24쎯shen❂2쎯	-8.67832
cai❂2쎯	-8.6786
zu❂11쎯	-8.68001
xiang❄4쎯	-8.68041
gan❃6쎯	-8.68193
ha❁0쎯	-8.68203
wei❄14쎯zhu❃4쎯	-8.68368
quan❂6쎯qiu❂36쎯	-8.68371
hen❃2쎯	-8.68446
su❄56쎯	-8.68612
hu❂32쎯nan❂6쎯	-8.68733
sheng❁16쎯yu❂35쎯	-8.68747
ye❃7쎯	-8.68925
qie❁1쎯	-8.6893
--	-8.68949
lie❄20쎯	-8.69033
guan❁16쎯	-8.69116
dong❁3쎯bei❃2쎯	-8.69161
ya❃9쎯	-8.69368
yin❄7쎯	-8.6939
lei❂30쎯	-8.69574
shi❂13쎯	-8.69583
shi❂13쎯shi❁13쎯	-8.69596
zhan❁4쎯de❅0쎯	-8.69603
wei❄26쎯	-8.69644
cang❂5쎯	-8.69781
huan❂20쎯	-8.69803
nong❂5쎯cun❁1쎯	-8.69911
tie❃5쎯lu❄70쎯	-8.7
xi❁97쎯	-8.70021
쎁쎀쎀	-8.70043
ge❄3쎯lei❄16쎯	-8.70059
san❃7쎯	-8.70159
jiao❄35쎯	-8.70824
ye❃1쎯shi❄45쎯	-8.70848
jie❄13쎯shao❄10쎯	-8.70899
si❁22쎯xiang❃6쎯	-8.70928
shou❁1쎯	-8.7097
di❄45쎯	-8.71074
mei❂12쎯ben❄4쎯	-8.71173
쎃쎂	-8.71212
쎁쎂yue❄29쎯	-8.71396
mei❂18쎯	-8.71552
jing❃3쎯	-8.71561
lao❂11쎯dong❄13쎯	-8.71564
wei❄15쎯zhi❄85쎯	-8.71642
yang❂16쎯	-8.71643
qian❁13쎯	-8.71705
쎁쎀yue❄29쎯	-8.71764
qu❁15쎯yu❄31쎯	-8.71993
ji❁116쎯	-8.7204
ge❁16쎯	-8.72069
duan❃0쎯	-8.72502
xiang❄24쎯	-8.72537
zu❂9쎯	-8.72564
쎄쎅	-8.72578
wei❄14쎯le❅0쎯	-8.7261
pi❁11쎯zhun❃0쎯	-8.72637
쎂쎃	-8.72681
shui❃0쎯ping❂17쎯	-8.7279
can❁3쎯shu❄26쎯	-8.72799
xian❄37쎯you❃11쎯	-8.72879
leng❃쎯	-8.73015
tu❂14쎯shu❁8쎯	-8.73022
yi❄119쎯	-8.73054
gang❁32쎯	-8.73139
ben❃5쎯ke❁16쎯	-8.73158
liang❂7쎯	-8.73162
zhan❄10쎯zheng❁7쎯	-8.73169
fen❁4쎯zi❃7쎯	-8.73235
ji❁34쎯jin❁33쎯	-8.73252
dian❄13쎯	-8.73548
xian❁13쎯	-8.73636
ping❂17쎯si❄15쎯	-8.73707
fei❁15쎯chang❂15쎯	-8.7375
peng❂7쎯	-8.73873
.gai❁13쎯	-8.73939
jian❁25쎯zhan❃11쎯	-8.74062
ling❂34쎯	-8.74103
)、	-8.74167
gai❃2쎯ge❂54쎯	-8.7421
gong❁10쎯li❃26쎯	-8.74297
wa❃5쎯	-8.74454
jiao❁29쎯	-8.7449
gang❃6쎯	-8.74498
쎁쎉	-8.74506
yong❃21쎯	-8.74548
she❄29쎯	-8.74682
sai❁5쎯	-8.74704
wei❃25쎯	-8.74736
fa❁1쎯hang❂16쎯	-8.74791
ren❂1쎯wu❄36쎯	-8.74892
gong❄3쎯tong❂13쎯	-8.74907
an❁15쎯fan❄15쎯	-8.74918
gu❃14쎯dai❄9쎯	-8.74929
tai❄9쎯	-8.74932
bu❃11쎯	-8.75095
gui❁12쎯	-8.75139
he❂37쎯bei❃2쎯	-8.75327
bi❃24쎯	-8.7538
hu❄26쎯	-8.75651
feng❁17쎯	-8.75655
bian❁13쎯	-8.75762
hu❂32쎯bei❃2쎯	-8.7577
ju❄18쎯	-8.75836
sui❂9쎯	-8.76044
xin❁10쎯wen❂23쎯	-8.76055
xian❃24쎯shi❄60쎯	-8.76284
zuo❄5쎯zhe❃2쎯	-8.76374
dao❁1쎯	-8.76484
'	-8.76511
an❁15쎯da❄0쎯	-8.76522
shi❄71쎯	-8.7655
bei❄26쎯	-8.76737
duo❁5쎯chong❂11쎯	-8.76815
la❄23쎯	-8.77046
yue❄46쎯	-8.77057
kang❁6쎯	-8.7713
yun❃16쎯	-8.77139
mu❄22쎯	-8.77219
jin❄61쎯ru❄2쎯	-8.7739
lin❂7쎯	-8.77404
yin❂44쎯	-8.7742
jie❄14쎯zhi❂7쎯	-8.77507
fa❃2쎯lv❄9쎯	-8.77646
jun❁4쎯	-8.77672
jie❁13쎯kou❃1쎯	-8.77897
gong❄3쎯han❄20쎯	-8.77983
gao❁20쎯su❄70쎯	-8.77987
zui❄4쎯da❄0쎯de❅2쎯	-8.78095
chu❂42쎯	-8.78176
jie❃6쎯jue❂33쎯	-8.7818
ben❄4쎯xi❄46쎯	-8.78217
dong❄24쎯	-8.78219
wu❁12쎯	-8.78532
liang❂15쎯	-8.78629
bing❁4쎯	-8.7875
xi❄50쎯bao❁9쎯	-8.78793
jiang❁10쎯xi❁143쎯	-8.78885
jiu❄30쎯	-8.78933
xie❃4쎯	-8.79004
ke❄7쎯	-8.79017
ji❄36쎯	-8.79058
pu❃3쎯tong❁5쎯	-8.79221
de❅2쎯“	-8.79361
fang❁4쎯xiang❄6쎯	-8.79424
fang❁4쎯mi❃19쎯,	-8.79434
yi❁10쎯ci❄16쎯	-8.79586
gai❄17쎯	-8.79592
jie❁13쎯	-8.79644
xue❃5쎯	-8.79725
zhi❄104쎯liang❂1	-8.79756
cheng❂29쎯guo❃3쎯	-8.79968
dang❃2쎯wei❁12쎯	-8.79987
쎈쎀	-8.80042
gao❁20쎯deng❃2쎯	-8.80066
ci❂29쎯	-8.8018
you❄13쎯cheng❁28쎯	-8.80194
zhi❃32쎯	-8.8025
pin❃0쎯chong❂11쎯	-8.80262
,ji❂35쎯	-8.80268
zhi❁21쎯	-8.80438
~	-8.80505
xuan❃8쎯ze❂19쎯	-8.80544
gai❃2쎯	-8.80544
zou❃0쎯	-8.80563
gu❄12쎯shi❄18쎯	-8.80626
deng❁7쎯	-8.80632
da❂30쎯dao❄3쎯	-8.80753
ze❂44쎯ren❂4쎯	-8.80763
yi❁10쎯zhi❂25쎯	-8.80835
fu❃14쎯	-8.80882
liang❂15쎯hao❃0쎯	-8.80913
tiao❂9쎯jian❄15쎯	-8.81237
ying❂45쎯	-8.81254
쎂쎆	-8.81322
zhan❃11쎯	-8.81358
tang❂28쎯	-8.81537
mao❄39쎯yi❄119쎯	-8.81628
yang❃6쎯	-8.81657
du❂34쎯	-8.8167
zai❄8쎯	-8.81679
fen❁4쎯bie❂4쎯	-8.81761
fang❂4쎯	-8.81962
dian❄23쎯yuan❂34쎯	-8.82016
cun❁1쎯dai❄45쎯	-8.8205
fen❁4쎯lei❄16쎯	-8.82108
tao❄1쎯	-8.82197
duan❁4쎯	-8.82304
qing❁16쎯	-8.82373
te❄5쎯dian❃11쎯	-8.82384
ke❄14쎯	-8.82415
쎈yue❄29쎯	-8.82443
쎉쎀	-8.82666
tuo❁6쎯	-8.82708
zhu❁29쎯	-8.83011
wen❂5쎯jian❄15쎯	-8.83093
gong❁17쎯zuo❄5쎯,	-8.83099
ying❁44쎯yu❃44쎯	-8.831
jia❁13쎯ting❂8쎯	-8.83191
qing❂6쎯kuang❄1쎯	-8.83266
wu❄36쎯li❃15쎯	-8.83318
,shi❃6쎯	-8.8335
cheng❂30쎯	-8.83356
gong❁10쎯wan❂5쎯	-8.83425
wei❄14쎯“	-8.83448
쎇쎀	-8.83525
he❂35쎯	-8.83628
can❁3쎯yu❃14쎯	-8.83656
zheng❄12쎯ce❄26쎯	-8.83714
zhi❂16쎯hang❂16쎯	-8.83759
jin❃16쎯	-8.83771
쎃쎅	-8.83838
ying❂45쎯xiao❁61쎯	-8.83889
lun❂28쎯	-8.83909
xue❂6쎯li❄62쎯	-8.83912
zhuan❁1쎯	-8.84093
쎂쎀쎁쎀nian❂6쎯	-8.84191
qiu❂27쎯	-8.84203
yin❁37쎯	-8.84257
bo❂37쎯	-8.84307
yi❁13쎯	-8.8435
bi❃20쎯jiao❄35쎯	-8.84354
sheng❁16쎯tai❄6쎯	-8.84501
pai❂4쎯	-8.84583
쎂쎈	-8.84636
shi❂13쎯jian❄72쎯	-8.84655
ji❁34쎯de❅0쎯	-8.84684
쎉yue❄29쎯	-8.84713
jian❄20쎯	-8.84731
hu❂46쎯	-8.84735
yi❁10쎯qi❃34쎯	-8.84757
jin❁33쎯shu❃5쎯	-8.84976
xi❁143쎯nan❂6쎯	-8.85036
hou❄6쎯	-8.85111
,wei❄15쎯yu❂35쎯	-8.85193
man❃4쎯	-8.85301
zuo❃3쎯	-8.85364
shi❁8쎯	-8.85433
yan❂50쎯fa❁1쎯	-8.85488
jin❁33쎯rong❂50쎯	-8.85496
yi❁38쎯	-8.85644
you❁5쎯zhi❄104쎯	-8.85657
쎂쎁	-8.85815
ta❁3쎯们	-8.85827
wang❄4쎯	-8.85838
ju❃4쎯	-8.85846
qing❄14쎯	-8.85915
er❂7쎯tong❂36쎯	-8.85917
en❁2쎯	-8.85959
fang❄0쎯ru❄2쎯	-8.85998
jin❁10쎯	-8.86127
zui❄4쎯gao❁20쎯	-8.86145
ti❂17쎯	-8.86285
qi❂29쎯ta❁6쎯	-8.86329
zi❁11쎯xun❂42쎯	-8.86329
gu❃42쎯fen❄2쎯	-8.86459
wei❄16쎯	-8.8648
xuan❁9쎯chuan❂4쎯	-8.86536
jian❁14쎯	-8.86623
gong❁17쎯zuo❄5쎯.	-8.86663
ding❃11쎯	-8.86777
qian❂40쎯	-8.86798
jia❄5쎯	-8.8682
fang❁4쎯mi❃19쎯	-8.86849
jian❃52쎯	-8.86928
kuai❄14쎯	-8.86948
nan❂20쎯	-8.86953
dan❁5쎯	-8.87191
xia❄3쎯,	-8.87256
si❁16쎯	-8.875
xiao❁29쎯fei❄37쎯	-8.87518
yu❃47쎯	-8.87603
kang❄5쎯	-8.87613
geng❁17쎯de❅0쎯	-8.87661
ying❁44쎯guo❂11쎯	-8.87681
zhang❃6쎯ji❁47쎯	-8.87682
쎂쎀쎀쎈nian❂6쎯	-8.87759
chuan❂13쎯	-8.87867
ju❄57쎯	-8.87978
ran❂12쎯	-8.88009
liao❄8쎯	-8.88041
wen❂5쎯ming❂8쎯	-8.88047
er❃12쎯	-8.8812
chi❁8쎯	-8.88296
li❃15쎯shi❄18쎯	-8.88307
sheng❁3쎯	-8.88323
shang❃1쎯de❅2쎯	-8.88467
fu❂43쎯	-8.88524
bu❂0쎯neng❂2쎯	-8.88576
li❃17쎯	-8.88587
zhu❃4쎯chi❂20쎯	-8.88608
ye❄44쎯	-8.8864
jing❁3쎯	-8.88654
lv❄20쎯	-8.89008
you❃11쎯xiao❄14쎯	-8.89089
zhi❁31쎯ming❂7쎯	-8.89174
쎂쎀쎀쎆nian❂6쎯	-8.89294
lu❄35쎯	-8.89323
dong❁3쎯nan❂6쎯	-8.89482
luo❄17쎯	-8.89655
wei❁13쎯	-8.89768
jie❁30쎯dao❄24쎯	-8.90117
mu❄22쎯biao❁14쎯	-8.90135
xu❃19쎯duo❁5쎯	-8.90198
feng❁58쎯ge❂29쎯	-8.90263
li❃15쎯	-8.9031
bie❂4쎯	-8.90334
shou❃3쎯	-8.90342
bing❁5쎯mu❄10쎯	-8.90413
sheng❁16쎯,	-8.90414
jiang❁4쎯	-8.90443
,zhu❃4쎯yao❁17쎯	-8.90508
quan❂17쎯	-8.90516
,dui❄14쎯	-8.90659
chong❂14쎯	-8.90691
ren❄30쎯zheng❄17쎯	-8.90718
duo❁5쎯ci❄16쎯	-8.90806
cun❂1쎯zai❄5쎯	-8.90818
guang❁8쎯	-8.90853
zu❂11쎯qiu❂36쎯	-8.90921
zhong❁4쎯yi❁13쎯	-8.91173
ling❂46쎯	-8.91191
zhi❄89쎯li❄59쎯	-8.91243
ji❄117쎯	-8.91251
shun❄11쎯	-8.91251
xi❁143쎯bei❃2쎯	-8.91495
xing❂11쎯shi❄33쎯	-8.91548
zhi❁13쎯yi❁10쎯,	-8.91564
ke❃4쎯neng❂2쎯	-8.91671
ruo❄8쎯	-8.91697
mo❄30쎯	-8.917
cha❁8쎯	-8.9182
li❄50쎯	-8.91832
shan❁11쎯qu❁15쎯	-8.9186
meng❁3쎯gu❃14쎯	-8.91903
yuan❂15쎯gong❁17쎯	-8.91924
que❄11쎯	-8.91943
ying❃11쎯	-8.91954
xiu❄8쎯	-8.92006
chong❂17쎯qing❄4쎯	-8.92017
qiu❁16쎯	-8.92116
te❄5쎯shu❁26쎯	-8.92154
xi❃1쎯	-8.92177
jian❄29쎯yu❂35쎯	-8.92216
jun❁15쎯	-8.92295
feng❄2쎯	-8.92324
fen❁4쎯wei❄14쎯	-8.92368
gou❁12쎯	-8.9241
xue❂6쎯ke❁16쎯	-8.92427
te❄5쎯se❄29쎯	-8.92476
shi❂13쎯ji❄121쎯	-8.92502
yi❄67쎯	-8.92536
bi❄46쎯	-8.92733
bian❄16쎯	-8.92769
fu❂60쎯jian❄29쎯	-8.92789
xue❂6쎯wei❄15쎯	-8.92966
jia❁8쎯	-8.92972
wei❄18쎯	-8.93051
han❂20쎯	-8.93137
zi❁45쎯chan❃12쎯	-8.93204
biao❃5쎯xian❄37쎯	-8.93265
ru❃0쎯	-8.93289
쎂쎀쎀쎇nian❂6쎯	-8.93295
jian❁52쎯du❁8쎯	-8.93377
an❁15쎯zhou❁9쎯	-8.93379
kong❁9쎯jian❁85쎯	-8.93422
ke❄29쎯cheng❂52쎯	-8.93473
jing❁27쎯guo❄2쎯	-8.93511
kao❃10쎯	-8.93539
chun❂18쎯	-8.93573
》shi❄45쎯	-8.93585
gan❁16쎯bu❄38쎯	-8.93647
hui❄27쎯ji❄116쎯	-8.93871
ren❂1쎯lei❄16쎯	-8.9393
le❄5쎯	-8.93931
gong❁10쎯yuan❂10쎯	-8.94046
ji❂37쎯qi❂29쎯	-8.94058
fei❄37쎯	-8.94113
zuo❄5쎯jia❁13쎯	-8.94137
,ke❃4쎯	-8.94188
mo❄22쎯	-8.94212
ti❂36쎯	-8.94255
jiao❁8쎯yi❄119쎯	-8.94258
jian❄15쎯	-8.94419
da❂14쎯zao❄16쎯	-8.94559
》,	-8.94693
ji❂75쎯bing❄12쎯	-8.94703
liu❂28쎯	-8.94822
quan❂6쎯cun❁1쎯	-8.94876
shang❁2쎯	-8.95051
bei❁8쎯	-8.95108
e❂39쎯	-8.95275
zhi❂25쎯jie❁13쎯	-8.95334
wen❂12쎯	-8.95439
shao❃2쎯nian❂6쎯	-8.95504
pei❄19쎯	-8.9564
da❄0쎯liang❂19쎯	-8.95651
chong❁10쎯	-8.95694
쎃쎆	-8.95727
ju❄65쎯	-8.95832
kao❃10쎯shi❄78쎯	-8.95894
쎂쎀쎀쎉nian❂6쎯	-8.95897
de❅0쎯chu❄17쎯	-8.96027
chang❁6쎯	-8.96071
xin❁7쎯li❃15쎯	-8.96094
shi❂10쎯fen❁4쎯	-8.96156
fu❄39쎯	-8.96213
di❄26쎯	-8.96227
zuo❄9쎯la❄23쎯	-8.96251
ting❂4쎯	-8.9626
wei❂7쎯yi❁10쎯	-8.96328
ji❂39쎯lin❂19쎯	-8.96363
an❄16쎯	-8.96624
dao❃5쎯	-8.97077
zhu❁7쎯	-8.97268
shi❄71쎯pin❂15쎯	-8.97723
ren❂1쎯de❅2쎯	-8.97759
yi❂20쎯	-8.97767
chuang❄1쎯zao❄16쎯	-8.97901
song❄9쎯	-8.97988
,ta❁3쎯	-8.98021
lv❄20쎯se❄29쎯	-8.98037
zu❃5쎯	-8.98166
쎁쎁yue❄29쎯	-8.98187
cun❂1쎯	-8.98254
ji❁48쎯guan❁4쎯	-8.98316
shi❄45쎯yi❁10쎯	-8.98383
zhi❄88쎯jin❁10쎯	-8.98465
mo❂16쎯	-8.9859
ting❁5쎯	-8.98614
ma❂8쎯	-8.98657
niao❃17쎯	-8.98658
쎂쎀쎀쎅nian❂6쎯	-8.98675
lve❄11쎯	-8.98687
nuo❄16쎯	-8.98712
쎂쎇	-8.98803
you❂29쎯yu❂35쎯	-8.98827
zeng❁2쎯	-8.98869
miao❄1쎯	-8.98993
tu❃1쎯de❅0쎯	-8.99085
jiao❃53쎯	-8.99129
shu❁44쎯ru❄2쎯	-8.99161
ji❁21쎯	-8.99164
tong❂48쎯	-8.99167
xian❄37쎯zai❄5쎯	-8.99235
sha❁4쎯	-8.99297
yi❁10쎯ji❂83쎯	-8.99323
gu❄12쎯	-8.99391
pei❄19쎯tao❄1쎯	-8.99405
chu❁3쎯sheng❁16쎯,	-8.9949
qi❂117쎯	-8.99498
yin❃14쎯	-8.99599
rui❄12쎯	-8.99678
pin❃0쎯zhi❄104쎯	-8.99715
su❄70쎯	-8.99796
lan❂41쎯	-8.99811
bing❄12쎯du❂17쎯	-8.99813
zhe❄14쎯xie❁3쎯	-8.99846
쎄쎈	-8.99947
zhan❄10쎯lve❄11쎯	-9.00048
tui❁1쎯	-9.00195
zhan❁4쎯	-9.00346
chang❂15쎯wu❄12쎯	-9.0054
,ru❂9쎯	-9.00574
ti❂17쎯chu❁3쎯	-9.00611
bao❃9쎯xian❃46쎯	-9.00632
wang❃7쎯	-9.00703
yang❂27쎯	-9.00762
miao❂5쎯shu❄47쎯	-9.00818
zhi❄30쎯du❄8쎯	-9.00942
zi❁45쎯liao❄8쎯	-9.01027
hu❃8쎯	-9.01032
de❅0쎯zhi❄104쎯	-9.01035
.qi❂29쎯	-9.01048
dou❁12쎯shi❄45쎯	-9.01132
de❅0쎯li❃15쎯	-9.01214
hua❁1쎯gong❁17쎯	-9.01248
shi❂10쎯er❄5쎯	-9.01346
deng❃2쎯jiang❃8쎯	-9.01408
yuan❂44쎯	-9.01412
bo❂41쎯wu❄36쎯	-9.01514
,bu❂0쎯	-9.0152
duo❃23쎯	-9.01551
an❁13쎯zhuang❁10쎯	-9.01574
bing❁5쎯	-9.01616
yi❁10쎯suo❃11쎯	-9.01671
°	-9.01731
dao❃2쎯	-9.01735
yin❁11쎯wei❄14쎯	-9.01916
jia❁5쎯	-9.02127
chu❁3쎯kou❃1쎯	-9.02137
tong❁5쎯chang❂15쎯	-9.02212
jing❄44쎯	-9.02276
zhi❄56쎯	-9.02301
feng❁58쎯jing❃13쎯	-9.02311
jue❂92쎯	-9.02328
gu❄7쎯	-9.02393
,tong❂13쎯shi❂20쎯	-9.02419
xiao❄14쎯guo❃3쎯	-9.02531
zheng❄13쎯	-9.0265
chuang❄1쎯ban❄4쎯	-9.02715
cu❄9쎯jin❄61쎯	-9.02827
hong❂29쎯	-9.02835
han❂17쎯	-9.02853
dian❄23쎯nao❃16쎯	-9.02913
you❃9쎯	-9.02943
ci❁2쎯	-9.02948
cai❃4쎯	-9.02962
bei❁15쎯	-9.03216
dan❄10쎯	-9.03356
de❂9쎯guo❂11쎯	-9.03652
de❂7쎯dao❄3쎯	-9.0383
guan❁4쎯yu❂35쎯	-9.03928
kuai❄18쎯	-9.03937
쎂쎀쎀쎄nian❂6쎯	-9.04022
yi❁12쎯	-9.04115
mo❄57쎯	-9.04208
dan❄33쎯	-9.04279
쎆yue❄29쎯	-9.04304
jiu❃1쎯	-9.04319
qian❃5쎯	-9.04397
gu❃42쎯	-9.04446
deng❁10쎯	-9.04576
gui❁35쎯fan❄22쎯	-9.04577
wan❂6쎯quan❂6쎯	-9.04614
jin❄32쎯	-9.0463
ku❃1쎯	-9.04756
zhe❃2쎯,	-9.04794
she❂3쎯ma❅1쎯	-9.04966
ji❁64쎯ji❂57쎯	-9.04971
ming❄1쎯	-9.05111
san❁1쎯gan❄3쎯	-9.05209
bao❁4쎯zhuang❁10쎯	-9.05272
쎃쎃	-9.05303
,jiang❁5쎯	-9.05418
jia❃2쎯	-9.05449
》(	-9.05479
an❁15쎯gao❄3쎯	-9.05513
yi❁10쎯ming❂7쎯	-9.05582
biao❃5쎯mian❄2쎯	-9.05603
zao❃2쎯	-9.05768
chuan❂4쎯bo❁10쎯	-9.05785
fa❃2쎯guo❂11쎯	-9.058
neng❂2쎯gou❄10쎯	-9.05833
yi❃10쎯lai❂16쎯	-9.05895
chi❂23쎯	-9.06052
pian❁2쎯	-9.06181
cheng❂29쎯le❅0쎯	-9.06184
qing❄4쎯	-9.06197
mai❄9쎯	-9.06315
wu❃37쎯	-9.06318
jing❄48쎯	-9.06404
ji❁22쎯	-9.06463
yi❂31쎯	-9.06518
shan❃12쎯xi❁143쎯	-9.06536
tang❂16쎯	-9.06538
suo❃18쎯	-9.06557
mu❄9쎯	-9.06691
shang❄2쎯	-9.06747
lun❂5쎯	-9.06761
liao❂37쎯ning❂10쎯	-9.06773
huang❂34쎯	-9.06785
wei❁12쎯	-9.06808
chang❂15쎯wei❁12쎯	-9.06886
man❄12쎯	-9.06899
yan❁33쎯	-9.06913
hu❄30쎯	-9.06936
zhong❁29쎯	-9.06961
gui❁35쎯ding❄2쎯	-9.07111
shang❁4쎯pin❃0쎯	-9.07117
you❁5쎯	-9.0712
zhu❁17쎯	-9.0716
di❂40쎯	-9.0722
zi❃18쎯	-9.07259
tui❁1쎯an❁15쎯	-9.07272
jie❄14쎯ge❂29쎯	-9.07405
xu❁29쎯	-9.07425
shi❁13쎯	-9.07465
ke❂0쎯	-9.07467
long❁쎯	-9.07505
zhao❄31쎯	-9.07645
shu❄26쎯xue❂6쎯	-9.07708
yi❁13쎯yao❄12쎯	-9.07715
duan❄4쎯	-9.07974
li❃15쎯nian❄4쎯	-9.08014
wan❁9쎯	-9.08015
zuo❃3쎯you❄14쎯	-9.08066
jiao❁20쎯cai❂3쎯	-9.08188
chuang❁13쎯	-9.08567
쎆쎄	-9.08593
ju❁14쎯min❂22쎯	-9.08763
ling❂98쎯	-9.08822
bian❄19쎯hua❁1쎯	-9.08902
jie❂67쎯guo❃3쎯	-9.08911
ying❁44쎯wen❂5쎯	-9.08916
zi❄16쎯zhi❄61쎯	-9.08926
yu❂46쎯le❄3쎯	-9.08948
ren❄30쎯wei❄14쎯	-9.09011
zhu❄63쎯	-9.09021
dai❄9쎯li❃15쎯	-9.09388
sa❄13쎯	-9.09407
hui❄27쎯fu❄28쎯	-9.09439
guan❁5쎯	-9.09509
hui❁23쎯	-9.09607
qin❂29쎯	-9.09707
쎂쎀쎀쎀nian❂6쎯	-9.09719
cheng❂52쎯xu❄36쎯	-9.09762
dan❄21쎯	-9.0985
duo❁5쎯gan❄3쎯	-9.09882
ce❄8쎯	-9.09956
meng❄8쎯	-9.10069
bu❄28쎯	-9.10077
lai❂16쎯yuan❂34쎯	-9.10186
lu❂10쎯	-9.10342
bei❄52쎯	-9.10397
po❄17쎯	-9.10418
lou❄9쎯	-9.10611
hui❄60쎯	-9.10631
shi❄31쎯、	-9.10777
xuan❁9쎯	-9.1088
jie❄14쎯	-9.109
쎂쎀쎀	-9.10926
lian❂69쎯xu❄69쎯	-9.10927
yan❂37쎯	-9.11065
shu❁44쎯chu❁3쎯	-9.11123
wen❃10쎯ding❄2쎯	-9.11149
m	-9.11166
she❄29쎯you❃11쎯	-9.11176
bai❂2쎯se❄29쎯	-9.1118
quan❂6쎯bu❄38쎯	-9.11499
jian❃36쎯ce❄22쎯	-9.11574
te❄5쎯bie❂4쎯	-9.11592
ruan❃17쎯	-9.11609
yuan❂15쎯,	-9.11632
du❂34쎯zhe❃2쎯	-9.11668
you❄14쎯	-9.11719
bang❁5쎯zhu❄20쎯	-9.11725
쎂쎀쎀쎂nian❂6쎯	-9.11741
shou❄4쎯dao❄3쎯	-9.11748
zhu❄19쎯	-9.11787
gong❁17쎯shang❁4쎯	-9.11955
fan❃3쎯ying❁17쎯	-9.11961
.zhu❃4쎯yao❁17쎯	-9.11987
du❂17쎯	-9.12157
duo❃23쎯zhi❄47쎯	-9.12236
dou❄18쎯	-9.12319
쎂쎀쎀쎃nian❂6쎯	-9.12396
yun❃16쎯shu❁44쎯	-9.1241
zhu❃4쎯xi❂12쎯	-9.12428
yi❁10쎯tiao❂9쎯	-9.12786
ke❄29쎯	-9.12852
ge❂53쎯	-9.1286
...	-9.12927
li	-9.13007
ni❂15쎯	-9.13019
yi❁10쎯kuan❃7쎯	-9.13031
li❄144쎯	-9.13037
gao❁20쎯zhong❁4쎯	-9.13055
wu❄36쎯zhi❄104쎯	-9.132
ou❁8쎯zhou❁11쎯	-9.13232
dian❄23쎯chi❂23쎯	-9.1324
zhi❂32쎯gong❁17쎯	-9.13267
an❁15쎯xi❁143쎯	-9.13334
meng❁3쎯	-9.13366
.gong❁10쎯si❁16쎯	-9.13393
wan❂6쎯shan❄15쎯	-9.13436
yun❃16쎯hang❂16쎯	-9.13522
sen❁0쎯	-9.13612
wen❂23쎯	-9.13659
dou❃4쎯	-9.137
can❁3쎯	-9.13718
zhu❄31쎯	-9.1378
xiong❂2쎯	-9.13788
xian❄37쎯ren❂4쎯	-9.13804
sheng❁16쎯ming❄1쎯	-9.13951
dai❄45쎯shu❃5쎯	-9.1398
gong❁10쎯gong❄3쎯	-9.14008
kuan❃7쎯	-9.14056
po❁2쎯	-9.14071
she❄29쎯li❄141쎯	-9.14081
zao❄16쎯	-9.14105
jian❁22쎯	-9.14107
yi❄190쎯	-9.14125
쎂쎉	-9.14193
li❄62쎯	-9.14312
min❂22쎯jian❁85쎯	-9.14358
dong❁5쎯	-9.14404
쎃쎈	-9.1444
,cong❂6쎯	-9.14447
bei❁12쎯	-9.14515
ce❄33쎯	-9.14579
xiao❄14쎯li❄59쎯	-9.146
cheng❂17쎯qu❁15쎯	-9.14644
》deng❃2쎯	-9.14656
qun❂6쎯yin❂10쎯	-9.14687
nao❃16쎯	-9.14724
na❄11쎯wai❄0쎯	-9.14755
gou❁10쎯	-9.14787
jie❁23쎯	-9.15054
yin❃31쎯	-9.15085
hang❂16쎯wei❄14쎯	-9.15097
zi❁45쎯jin❁33쎯	-9.15119
xi❃1쎯huan❁7쎯	-9.15182
hua❄26쎯	-9.15186
she❄8쎯	-9.15236
da❄0쎯hui❄27쎯	-9.15239
jian❁17쎯chi❂20쎯	-9.153
yin❃14쎯qi❃34쎯	-9.15373
xian❁57쎯	-9.15438
an❄15쎯	-9.15457
huo❄27쎯zhe❃2쎯	-9.15465
she❄13쎯ying❃11쎯	-9.15648
ji❄116쎯	-9.15691
쎃쎄	-9.15716
zhao❄18쎯	-9.15741
tian❁5쎯ran❂12쎯	-9.15778
jiang❄25쎯	-9.15828
kai❃2쎯	-9.15862
shi❁13쎯gong❁17쎯	-9.15888
zhou❂3쎯	-9.16094
shu❄26쎯zi❄6쎯	-9.16156
sheng❃9쎯ji❂83쎯	-9.16197
jiao❄6쎯	-9.16206
fu❂94쎯you❃11쎯	-9.16234
shi❂20쎯shang❄2쎯	-9.16239
zhi❄89쎯	-9.16284
gui❄41쎯	-9.16319
xu❂1쎯	-9.16436
wu❃28쎯han❄33쎯	-9.1653
tui❁1쎯chu❁3쎯	-9.16576
ji❄94쎯nian❄4쎯	-9.16584
biao❃5쎯shi❄60쎯	-9.16604
su❄70쎯du❄8쎯	-9.1671
da❄0쎯xiao❃2쎯	-9.16738
쎃.	-9.16748
te❄5쎯zheng❁15쎯	-9.16769
huo❂3쎯	-9.16784
xing❄13쎯de❅2쎯	-9.16974
bi❃20쎯sai❄4쎯	-9.17007
ce❄22쎯	-9.17027
zhi❁22쎯	-9.17207
lu❄83쎯	-9.17226
kuo❄15쎯yong❄3쎯	-9.17289
wen❄6쎯	-9.17324
dong❁3쎯fang❁4쎯	-9.17389
dong❄13쎯li❄59쎯	-9.1741
zhao❂쎯	-9.17457
shi❄78쎯yan❄75쎯	-9.17609
hou❂10쎯	-9.17705
zhe❄14쎯yi❁10쎯	-9.17769
shou❂쎯	-9.17818
yin❂10쎯	-9.17908
쎅쎀쎀	-9.17922
li❄59쎯liang❂19쎯	-9.18004
shi❄78쎯	-9.18094
lai❂25쎯	-9.1816
an❁15쎯bo❁10쎯	-9.18184
lian❂69쎯jie❁13쎯	-9.18215
wen❂5쎯wu❄36쎯	-9.18306
shen❁18쎯zhen❄13쎯	-9.18363
tong❃9쎯yi❁10쎯	-9.18379
kuai❄18쎯su❄70쎯	-9.18413
biao❁14쎯	-9.18441
tui❄8쎯	-9.18457
di❄45쎯si❄17쎯	-9.18466
guo❂11쎯min❂22쎯	-9.18514
cai❃11쎯	-9.18565
fang❁4쎯bian❄16쎯	-9.18576
ya❂12쎯	-9.18578
jun❄36쎯	-9.1858
bao❂9쎯	-9.18826
jue❂33쎯ding❄2쎯	-9.18837
hang❂13쎯kong❁9쎯	-9.1885
zeng❁2쎯jia❁7쎯	-9.18865
mu❃3쎯	-9.18915
쎃yue❄29쎯	-9.1903
yi❁10쎯bu❄38쎯	-9.19133
yuan❂12쎯liao❄8쎯	-9.19208
ji❁48쎯chang❃4쎯	-9.19281
dang❁4쎯dai❄9쎯	-9.19318
shi❄60쎯fan❄22쎯	-9.19457
xiang❁9쎯dui❄14쎯	-9.19461
nan❂6쎯bu❄38쎯	-9.19479
cha❂17쎯	-9.19502
lai❂16쎯zi❄16쎯	-9.19829
쎃쎇	-9.19903
tai❄3쎯yang❂35쎯	-9.19988
cun❁1쎯min❂22쎯	-9.20011
mi❂38쎯	-9.2011
fu❄23쎯	-9.20145
쎅yue❄29쎯	-9.20155
ji❄94쎯	-9.20277
chi❄49쎯	-9.20322
shao❁8쎯	-9.20343
shi❂13쎯yong❄3쎯	-9.20358
bi❄100쎯shu❁8쎯	-9.20388
qie❃쎯	-9.20395
chen❁13쎯	-9.20464
bu❂0쎯ke❃4쎯	-9.20515
yin❂10쎯duo❁5쎯	-9.20591
li❄58쎯ya❄7쎯	-9.20592
huan❄21쎯	-9.20605
shou❄8쎯	-9.20646
zhe❂16쎯xue❂6쎯	-9.20857
hen❃2쎯duo❁5쎯	-9.20881
tao❂20쎯	-9.20964
de❅0쎯zhen❄33쎯	-9.21036
yan❂20쎯	-9.21037
ban❄4쎯xue❂6쎯	-9.21053
dong❁3쎯guan❁11쎯	-9.21071
쎄-	-9.21129
yang❂10쎯	-9.21132
zi❄16쎯you❂29쎯	-9.21153
wen❁6쎯du❄8쎯	-9.21161
lei❄16쎯xing❂9쎯:	-9.21213
bao❃10쎯	-9.21235
,yu❃14쎯	-9.21283
,ye❃1쎯shi❄45쎯	-9.21317
bei❄48쎯ping❂36쎯	-9.21344
yi❂79쎯	-9.21565
wei❄52쎯	-9.21629
쎂.	-9.21654
xian❃24쎯ka❃1쎯	-9.21663
fang❁4쎯an❄16쎯	-9.21674
zhi❂32쎯	-9.21696
shang❃1쎯,	-9.21746
jing❁30쎯	-9.21908
e❄47쎯	-9.21964
fu❄48쎯	-9.22015
cheng❁10쎯	-9.22024
juan❁5쎯	-9.22045
zui❄4쎯jia❁5쎯	-9.22079
huo❄56쎯	-9.22164
du❂25쎯	-9.22167
chao❂8쎯	-9.22201
쎅쎅	-9.22367
쎄yue❄29쎯	-9.22424
zhong❁10쎯	-9.22477
hui❄50쎯	-9.22573
ta❁3쎯de❅2쎯	-9.2259
ze❂24쎯	-9.22629
jiao❁20쎯shou❄9쎯,	-9.22647
wan❃17쎯	-9.22651
zhou❁9쎯shi❄32쎯	-9.22652
han❄33쎯zu❂9쎯	-9.22688
zhi❁27쎯	-9.227
wu❄12쎯	-9.22743
shi❄45쎯zai❄5쎯	-9.2285
’	-9.22884
_	-9.22963
《zhong❁4쎯guo❂11쎯	-9.23029
cheng❂61쎯	-9.23127
bei❃2쎯bu❄38쎯	-9.23159
qiang❂2쎯	-9.23161
xiu❁9쎯xian❂54쎯	-9.23252
gu❃63쎯	-9.23271
chang❄2쎯	-9.23282
cheng❂29쎯dou❁12쎯	-9.23296
wei❂11쎯	-9.23396
ru❂9쎯he❂22쎯	-9.2349
쎂쎀쎀쎁nian❂6쎯	-9.23549
qi❃12쎯qiu❁9쎯.	-9.23553
tou❂5쎯	-9.236
zui❄4쎯xin❁10쎯	-9.23644
she❂5쎯	-9.23754
man❃4쎯zu❂11쎯	-9.23779
10쎯	-9.23809
ji❁47쎯jian❁85쎯	-9.23895
pao❁5쎯	-9.23905
chen❂26쎯	-9.23928
zun❁2쎯	-9.23969
ju❄30쎯	-9.24013
yi❁10쎯nian❂6쎯	-9.24026
bao❃9쎯zhang❄19쎯	-9.24032
쎇쎅	-9.24089
liang❂5쎯	-9.24138
shi❄32쎯wei❁12쎯	-9.24192
tui❄5쎯	-9.24202
shen❂2쎯jing❁27쎯	-9.24298
lao❂11쎯	-9.24325
che❃7쎯cun❄2쎯	-9.24389
bei❄21쎯	-9.24493
gong❁9쎯	-9.24542
de❅0쎯qiu❂36쎯	-9.24633
su❄56쎯zhi❄104쎯	-9.24684
jie❃6쎯fang❄0쎯	-9.24695
zuo❄5쎯wu❄36쎯	-9.24728
xian❃24쎯	-9.24782
yi❁10쎯bu❄28쎯	-9.24834
ben❃5쎯shu❁8쎯	-9.24924
an❁15쎯chang❃4쎯	-9.24963
du❄8쎯de❅0쎯tu❂14쎯	-9.24992
,ta❁6쎯	-9.25039
yi❁10쎯zuo❄12쎯	-9.25134
suo❃11쎯zai❄5쎯	-9.25135
hua❁1쎯de❅2쎯	-9.25198
tong❁5쎯xin❄8쎯	-9.25239
′	-9.25389
qi❂46쎯	-9.25393
da❄0쎯lian❂69쎯	-9.25402
bin❁12쎯	-9.25433
xian❂50쎯	-9.25445
ying❂45쎯yang❃6쎯	-9.25468
gao❁20쎯xin❁10쎯	-9.25519
쎂쎀쎁쎁nian❂6쎯	-9.25532
zhu❁16쎯	-9.25568
cu❁0쎯	-9.2564
ban❄4쎯shi❄18쎯	-9.25668
,gu❄12쎯	-9.25748
쎄쎃	-9.25789
ji❄46쎯	-9.25848
bao❃9쎯chi❂20쎯	-9.2585
zhou❁11쎯	-9.25851
zhu❃4쎯ti❂36쎯	-9.25893
ren❂4쎯wu❄12쎯	-9.25935
yue❁0쎯	-9.25937
쎁쎉쎉쎈nian❂6쎯	-9.26021
ba❄11쎯	-9.26166
wai❄0쎯ke❁16쎯	-9.26184
ning❂10쎯bo❁11쎯	-9.26307
쎆쎅	-9.26519
tou❄4쎯	-9.26594
,bei❄48쎯	-9.26603
ling❃2쎯	-9.26609
gong❁17쎯ju❄16쎯	-9.26637
yuan❄18쎯zhang❃6쎯	-9.268
쎁쎉쎉쎇nian❂6쎯	-9.26802
zuo❄9쎯	-9.26805
xing❄9쎯	-9.26817
쎄.	-9.26836
xun❄25쎯lian❄22쎯	-9.26865
쎃쎀쎀	-9.26865
mo❂14쎯	-9.26872
jian❁25쎯fang❄0쎯	-9.26892
qiu❂19쎯dui❄33쎯	-9.26893
bian❁13쎯ji❂107쎯	-9.2693
fu❂51쎯	-9.26951
쎄쎄	-9.26956
,suo❃11쎯yi❃10쎯	-9.26975
fei❂1쎯	-9.27029
zhe❄14쎯li❃26쎯	-9.27052
jun❁2쎯shi❄18쎯	-9.27062
you❄21쎯er❂7쎯	-9.27285
shou❃4쎯ji❁48쎯	-9.27287
yi❄165쎯	-9.27338
ke❄29쎯ti❂36쎯	-9.27462
jia❁7쎯jiang❄9쎯	-9.27495
xi❃11쎯	-9.27539
,ju❄16쎯you❃11쎯	-9.27576
gu❄7쎯ding❄2쎯	-9.27656
pai❁0쎯she❄13쎯	-9.27714
mo❂26쎯	-9.27769
dong❁3쎯xi❁143쎯	-9.27782
cai❂9쎯zheng❄12쎯	-9.27859
mai❄16쎯	-9.27988
ji❂114쎯cheng❂29쎯	-9.27996
zui❄4쎯zao❃2쎯	-9.28007
.ta❁3쎯	-9.28018
cheng❂15쎯	-9.2802
쎁쎉쎉쎉nian❂6쎯	-9.28081
yin❄7쎯du❄8쎯	-9.28094
ge❁8쎯	-9.28151
chuang❂6쎯	-9.28153
sha❄6쎯men❂19쎯	-9.28229
sen❁0쎯lin❂19쎯	-9.28242
》.	-9.28255
쎄쎂	-9.28278
da❄0쎯lu❄83쎯	-9.28293
shi❁16쎯	-9.28325
zhi❄56쎯neng❂2쎯	-9.28373
jian❃18쎯	-9.28413
jie❂48쎯	-9.28429
lian❄27쎯	-9.28457
zhan❄10쎯dou❃4쎯	-9.28554
jing❃13쎯guan❁16쎯	-9.28572
diao❄17쎯cha❂17쎯	-9.28596
们	-9.28692
yi❁10쎯wei❄15쎯	-9.28701
tai❄3쎯ping❂17쎯	-9.28775
can❁3쎯kao❃10쎯	-9.2878
qian❂8쎯shen❁40쎯	-9.28866
chi❃33쎯	-9.28886
xin❁20쎯	-9.28944
di❄45쎯shi❂10쎯	-9.29001
ren❂1쎯da❄0쎯	-9.29032
yuan❄18쎯jiao❄18쎯	-9.29035
jing❁27쎯dian❃5쎯	-9.29051
kuo❄15쎯liang❂19쎯	-9.2908
xue❂6쎯shi❄28쎯	-9.29162
ren❂1쎯们	-9.29195
.xian❄37쎯ren❂4쎯	-9.29251
yi❁10쎯qie❁1쎯	-9.29312
zheng❃4쎯	-9.29329
yu❄52쎯	-9.2944
jiang❃19쎯	-9.29456
she❄29쎯zhi❄85쎯	-9.2952
chuan❁5쎯	-9.29564
wu❄12쎯yuan❄18쎯	-9.29587
shu❁34쎯	-9.29592
dang❁4쎯shi❂20쎯	-9.29606
kuo❄15쎯ying❁17쎯	-9.29612
li❄51쎯	-9.29626
huan❂20쎯bao❃9쎯	-9.29756
fu❂22쎯	-9.29915
shi❂20쎯jian❁85쎯:	-9.29993
jing❃23쎯	-9.3006
zhong❁4쎯shan❁11쎯	-9.30126
ying❄9쎯	-9.30151
run❄4쎯	-9.3017
xian❄22쎯wei❁12쎯	-9.30182
liu❂20쎯hang❂16쎯	-9.30218
dan❄43쎯bai❂2쎯	-9.30264
xu❁37쎯qiu❂27쎯	-9.30411
xiao❄12쎯	-9.30481
쎁yue❄29쎯	-9.3074
shou❁1쎯cang❂5쎯	-9.30743
zhang❃2쎯	-9.30841
dian❄18쎯	-9.30891
lian❂58쎯	-9.30936
쎀	-9.30942
쎁쎉쎉쎆nian❂6쎯	-9.30952
,you❄13쎯	-9.30969
쎁gan❄3쎯	-9.31018
wen❂5쎯yi❄190쎯	-9.31097
xi❄33쎯	-9.31101
hu❄14쎯lian❂53쎯	-9.31353
ren❂4쎯he❂22쎯	-9.31405
lang❂28쎯	-9.31418
nv❃0쎯xing❄13쎯	-9.31433
,yong❄3쎯	-9.3146
zi❁45쎯ben❃5쎯	-9.31534
xue❂6쎯zhe❃2쎯	-9.31722
meng❄7쎯	-9.31774
ce❄22쎯liang❂19쎯	-9.31807
mei❃13쎯li❄50쎯	-9.31816
dian❄23쎯li❄59쎯	-9.31831
shui❄11쎯	-9.31874
wu❁8쎯	-9.31883
liu❃3쎯	-9.31915
zhuan❁1쎯men❂19쎯	-9.3192
zheng❄12쎯xie❂14쎯	-9.31996
tong❃9쎯ji❄116쎯	-9.32024
cun❁1쎯wei❁12쎯	-9.32024
yue❄21쎯	-9.32083
xin❁10쎯jiang❁16쎯	-9.32099
nai❃0쎯	-9.32127
)shi❄45쎯	-9.32129
jing❁27쎯li❃15쎯	-9.32177
yan❂44쎯	-9.32265
ci❂31쎯	-9.32265
kuo❄15쎯ge❃0쎯	-9.32312
na❄11쎯bu❄38쎯	-9.32319
san❁1쎯shi❂10쎯	-9.32361
dang❁4쎯de❅0쎯	-9.32392
zhen❁52쎯	-9.32532
cheng❂30쎯dan❁15쎯	-9.32547
tie❁5쎯	-9.32566
ji❄72쎯	-9.32614
shi❄22쎯	-9.32695
,ye❃1쎯	-9.32716
zhi❁13쎯hou❄7쎯	-9.32729
e❂11쎯luo❁4쎯	-9.32792
tan❂29쎯	-9.3284
me❅1쎯	-9.3285
jiao❄18쎯wan❂5쎯	-9.32853
xu❃19쎯	-9.32881
fu❄41쎯	-9.32935
xiao❃2쎯qu❁15쎯	-9.3298
yi❂20쎯qi❄20쎯	-9.33173
ling❂99쎯	-9.33177
ce❄22쎯shi❄78쎯	-9.33196
gong❁10쎯an❁13쎯	-9.33214
nai❄5쎯	-9.33227
ju❂23쎯zhang❃6쎯	-9.33284
bu❄38쎯dui❄33쎯	-9.33381
(jin❁10쎯	-9.33408
shi❂20쎯hou❄5쎯	-9.33442
jian❃52쎯dan❁9쎯	-9.33485
bao❁6쎯	-9.33504
gang❃4쎯	-9.33514
zhong❁19쎯	-9.3355
yun❃16쎯ying❂45쎯	-9.33578
bao❃9쎯jian❄17쎯	-9.33692
bi❄61쎯	-9.33745
zui❄4쎯hou❄7쎯	-9.33797
yan❂50쎯zhi❄30쎯	-9.33854
tian❂15쎯	-9.33927
shang❃1쎯shi❄32쎯	-9.33941
,yi❃10쎯ji❂37쎯	-9.33969
ge❃0쎯fei❂1쎯	-9.33975
ju❁14쎯zhu❄19쎯	-9.33983
shou❄3쎯	-9.34076
쎃쎉	-9.3421
ji❂35쎯ke❃4쎯	-9.34235
gong❄3쎯you❃11쎯	-9.34382
qing❃9쎯	-9.34382
dai❁1쎯	-9.34445
mo❂9쎯	-9.34458
gui❁35쎯ge❂29쎯	-9.34459
xi❁143쎯bu❄38쎯	-9.34507
yan❂46쎯	-9.3457
shi❃9쎯	-9.34599
chong❂17쎯da❄0쎯	-9.34619
쎁쎉쎉쎅nian❂6쎯	-9.34842
shu❂7쎯	-9.34846
zhi❁16쎯you❃11쎯	-9.34851
tu❁14쎯chu❁3쎯	-9.34895
can❂17쎯	-9.34912
,shu❃5쎯yu❂35쎯	-9.34946
jiu❄29쎯	-9.34982
lv❃7쎯	-9.34985
yu❄126쎯	-9.35034
dun❄22쎯	-9.35052
zhan❃11쎯lan❃28쎯	-9.35116
fu❄74쎯	-9.35159
zhan❃11쎯shi❄60쎯	-9.35187
ou❁8쎯	-9.35221
yan❃39쎯	-9.35332
ruo❄4쎯	-9.35441
쎃쎁	-9.35563
fu❂94쎯shi❄45쎯	-9.35693
kong❄1쎯	-9.35741
ji❄61쎯	-9.35744
jin❃31쎯	-9.35747
zhi❄30쎯ding❄2쎯	-9.35768
du❄10쎯	-9.35799
yi❂61쎯dong❄13쎯	-9.35824
na❄11쎯cun❂1쎯	-9.35868
gu❃28쎯	-9.35949
tian❁5쎯xia❄3쎯	-9.35949
jie❂69쎯mu❄22쎯	-9.35954
ya❄7쎯zhou❁11쎯	-9.35999
13쎯	-9.36021
ai❁5쎯	-9.36049
bian❁13쎯xie❃4쎯	-9.36063
쎇쎆	-9.36075
ren❂1쎯sheng❁16쎯	-9.36206
쎆쎆	-9.36246
yi❁13쎯shi❁11쎯	-9.36281
dao❄24쎯lu❄70쎯	-9.36329
you❃11쎯ji❁48쎯	-9.36356
ju❄16쎯ben❄4쎯	-9.3636
gao❁20쎯du❄8쎯	-9.36366
liang❄2쎯	-9.3642
ha❁0쎯er❃6쎯	-9.36442
luan❄0쎯	-9.36513
<	-9.36631
gan❁25쎯	-9.36692
jing❄30쎯zheng❁7쎯	-9.3675
bi❄61쎯xu❁39쎯	-9.36777
zhu❄19쎯zhai❂1쎯	-9.36793
si❄10쎯	-9.36833
shu❁8쎯ji❄117쎯、	-9.36912
shan❄22쎯zhang❃6쎯	-9.36939
peng❂11쎯you❃9쎯	-9.37042
jia❁10쎯	-9.37057
fu❄74쎯jin❄60쎯	-9.37097
zheng❃4쎯ben❄4쎯	-9.37156
feng❂5쎯	-9.37186
you❁5쎯shi❄22쎯	-9.37227
ji❄95쎯	-9.37254
쎂쎀쎁쎂nian❂6쎯	-9.37286
zheng❄18쎯	-9.37417
gua❁16쎯	-9.3747
wei❄26쎯lai❂16쎯	-9.3748
suo❃11쎯shu❃5쎯	-9.375
yi❃10쎯xia❄3쎯	-9.37577
xiang❂6쎯	-9.37608
shan❁11쎯qu❁15쎯.	-9.3762
gang❁7쎯	-9.37659
);	-9.37692
ren❂1쎯jun❁6쎯	-9.37752
zhai❄4쎯	-9.37754
nin❂5쎯	-9.37804
pi❂17쎯fu❁39쎯	-9.37819
》shi❁33쎯:“	-9.37825
dai❄20쎯	-9.3797
ming❂7쎯.	-9.38007
zhu❄26쎯	-9.38017
xi❁65쎯	-9.38101
tong❄3쎯	-9.38158
ji❂52쎯	-9.38162
gao❁20쎯jiao❄18쎯	-9.38283
le❅0쎯jie❃6쎯	-9.38292
kan❁3쎯	-9.38358
yuan❂15쎯.	-9.38444
qi❃34쎯lai❂16쎯	-9.38502
dong❄13쎯hua❄18쎯	-9.38529
diao❄17쎯zheng❃4쎯	-9.38558
de❅0쎯xia❄3쎯	-9.38577
wei❄62쎯	-9.38684
fan❂14쎯	-9.38754
zheng❃4쎯gan❄3쎯	-9.38795
쎆쎈	-9.38821
han❂37쎯	-9.38835
쎄쎆	-9.3889
zhou❂3쎯cheng❂30쎯	-9.38892
hang❂13쎯	-9.38982
쎅쎆	-9.39079
ji❄59쎯neng❂2쎯	-9.3915
jing❄11쎯na❄11쎯	-9.39211
dan❄38쎯you❂24쎯	-9.39221
gong❁9쎯ying❁17쎯	-9.39276
er❄5쎯ji❂83쎯	-9.39454
yi❄109쎯da❄0쎯	-9.39511
yan❁37쎯	-9.396
huang❂56쎯se❄29쎯	-9.39604
fu❂43쎯wu❄12쎯.	-9.39662
dui❁14쎯	-9.3968
쎃-	-9.397
》《	-9.39719
zhu❃4쎯ren❂4쎯、	-9.39838
di❂17쎯	-9.39939
wu❂17쎯xian❄47쎯	-9.39964
she❄23쎯	-9.39997
xi❁51쎯	-9.40013
ji❄117쎯lu❄35쎯	-9.40025
qi❃13쎯	-9.40089
fa❁1쎯bu❄23쎯	-9.40186
zhe❄14쎯yang❂17쎯	-9.40215
yi❁10쎯liu❂20쎯	-9.40362
qiang❁13쎯	-9.40402
쎁쎉쎉쎃nian❂6쎯	-9.40405
ming❄1쎯ming❂7쎯	-9.40482
qiu❁8쎯	-9.40485
wu❄36쎯liu❂20쎯	-9.40494
xiao❄22쎯	-9.405
,ju❄65쎯chi❁23쎯	-9.4062
man❄13쎯hua❄18쎯	-9.40632
hua❁11쎯wan❂5쎯	-9.4064
xi❂9쎯	-9.40649
nian❂6쎯lai❂16쎯	-9.40677
gong❁23쎯	-9.40837
mai❄6쎯	-9.4085
ming❂8쎯xian❃24쎯	-9.40936
fan❁14쎯	-9.41007
yi❃10쎯lai❂16쎯,	-9.41065
nu❃1쎯li❄59쎯	-9.41107
yu❃41쎯	-9.41259
yi❁10쎯yang❂17쎯	-9.41265
gui❄22쎯	-9.41274
yun❄27쎯	-9.41289
mu❄10쎯	-9.41456
쎅-	-9.4146
qiu❂19쎯ben❄4쎯	-9.41476
you❃11쎯zhao❁6쎯	-9.41554
bo❁13쎯li❂53쎯	-9.4159
gui❃37쎯	-9.41605
ma❃6쎯	-9.41716
xi❃11쎯cheng❁10쎯	-9.41771
yi❄183쎯	-9.41869
san❁1쎯nian❂6쎯	-9.41954
cun❂1쎯chu❃3쎯	-9.41961
zhang❃6쎯,	-9.4198
zhi❄30쎯pin❃0쎯	-9.42001
dui❄14쎯xiang❄20쎯	-9.42078
xu❁39쎯	-9.42081
fo❂2쎯jiao❁20쎯	-9.42169
han❂37쎯guo❂11쎯	-9.42169
yi❄215쎯	-9.42202
zhu❃14쎯	-9.42221
suan❄3쎯	-9.42248
fu❂43쎯zhuang❁10쎯	-9.4234
yun❃16쎯yong❄3쎯	-9.42343
zao❄16쎯cheng❂29쎯	-9.42379
dou❃4쎯zheng❁7쎯	-9.42428
xin❁10쎯xing❂9쎯	-9.4246
쎂-	-9.42476
ban❁9쎯	-9.42718
zhu❃4쎯guan❃9쎯	-9.42774
er❂16쎯cheng❂29쎯	-9.42842
chuang❄1쎯qiu❁9쎯	-9.42872
zu❃7쎯ge❃0쎯	-9.4291
jiao❄18쎯zhang❃6쎯	-9.43047
qi❂46쎯xia❄3쎯	-9.43051
쎁쎉쎉쎄nian❂6쎯	-9.43055
xiang❃3쎯shou❄4쎯	-9.43074
.쎄	-9.43107
xin❁17쎯pian❁5쎯	-9.43143
,zong❃5쎯	-9.43179
xiang❂11쎯xi❄50쎯	-9.43223
zhu❃4쎯ren❂4쎯,	-9.43252
-쎁	-9.43319
bai❄7쎯	-9.43385
na❄11쎯zhi❄85쎯	-9.43428
feng❄3쎯	-9.43463
쎄쎀쎀	-9.43472
zhuang❄0쎯	-9.43473
hei❁3쎯se❄29쎯	-9.43556
zi❁45쎯	-9.43563
bao❃9쎯zheng❄17쎯	-9.4362
ren❂1쎯shi❄28쎯	-9.43635
쎆쎀쎀	-9.43855
tu❂25쎯	-9.43858
chang❂20쎯	-9.43942
ping❂36쎯	-9.43948
se❄29쎯cai❃4쎯	-9.44062
que❄26쎯ding❄2쎯	-9.44063
ji❁64쎯	-9.44091
ping❂36쎯wei❄14쎯	-9.44105
yu❄93쎯	-9.44116
miao❂7쎯	-9.44146
ge❄3쎯de❅0쎯	-9.44162
쎅쎂	-9.44204
sang❁2쎯	-9.44289
쎈쎀쎀	-9.44314
」	-9.44355
「	-9.44376
chu❃9쎯	-9.44382
fang❂2쎯de❅0쎯	-9.44473
쎄쎇	-9.44578
lu❂23쎯	-9.44592
xie❄84쎯	-9.44598
zu❃7쎯jian❄29쎯	-9.44702
xin❄8쎯hao❂6쎯	-9.44706
fu❄64쎯	-9.44728
pen❁1쎯	-9.44835
pu❄3쎯	-9.44849
mei❂25쎯	-9.4485
ce❄26쎯hua❂11쎯	-9.44876
fu❄67쎯	-9.44929
쎁쎉쎉쎂nian❂6쎯	-9.4495
쎅쎃	-9.44964
an❄14쎯zhao❄18쎯	-9.4504
dong❃8쎯shi❄18쎯	-9.45091
xie❂27쎯	-9.45196
zi❁45쎯ge❂29쎯	-9.45228
yan❃39쎯yuan❂15쎯	-9.45319
bin❁5쎯	-9.45334
qian❁54쎯	-9.45414
20쎯	-9.45478
.쎇	-9.45479
xiang❁9쎯dang❁4쎯	-9.45508
chao❃7쎯	-9.45641
ming❂26쎯	-9.45663
xiang❁11쎯	-9.4574
mai❃0쎯	-9.45866
dang❃2쎯yuan❂15쎯,	-9.45875
gan❃6쎯ran❃11쎯	-9.46003
ce❄33쎯huo❄50쎯	-9.4606
pu❃7쎯	-9.46065
쎂gan❄3쎯	-9.46106
ye❃1쎯you❃11쎯	-9.46127
bu❂0쎯fu❄23쎯	-9.46145
zhong❁4쎯jian❁85쎯	-9.46171
mo❂12쎯	-9.46176
shi❂13쎯li❄59쎯	-9.46278
jiang❃19쎯shu❄47쎯	-9.4639
ying❃11쎯shi❄71쎯	-9.4652
』『	-9.46531
xiong❁12쎯	-9.46541
guo❁22쎯	-9.46556
,ke❃4쎯yi❃10쎯	-9.46588
dui❄14쎯yu❂35쎯	-9.46612
chuang❄1쎯li❄141쎯	-9.46612
yuan❂17쎯xing❂11쎯	-9.46627
g	-9.46633
qin❂12쎯	-9.4664
cheng❂52쎯du❄8쎯	-9.46644
shu❄26쎯liang❂19쎯	-9.46668
nan❂6쎯bei❃2쎯	-9.46717
bang❁13쎯	-9.4674
zhuang❄5쎯tai❄6쎯	-9.46756
wan❂12쎯	-9.46789
hao❂25쎯	-9.46814
sha❁14쎯	-9.46816
chi❂20쎯xu❄69쎯	-9.46819
fan❄22쎯	-9.46874
xiao❃3쎯	-9.47078
guo❁26쎯	-9.47149
wan❂5쎯qu❁15쎯	-9.47178
ai❄35쎯	-9.47222
tong❁5쎯xun❄26쎯	-9.4723
piao❄5쎯	-9.47264
nian❂6쎯dai❄9쎯	-9.47403
hang❂8쎯zhou❁9쎯	-9.47418
cao❂8쎯	-9.47659
hai❃1쎯yang❂19쎯	-9.47678
biao❃5쎯yan❃39쎯	-9.47707
ai❄26쎯qing❂6쎯	-9.47713
zheng❁7쎯	-9.47781
fei❄18쎯	-9.47835
qin❂25쎯	-9.47858
li❃15쎯xiang❃6쎯	-9.47897
gua❄3쎯	-9.48076
zhuan❁1쎯ke❁16쎯	-9.4817
gan❁31쎯	-9.48258
jian❃36쎯cha❂17쎯	-9.48279
gui❄41쎯zhou❁9쎯	-9.48282
ju❁18쎯	-9.48312
jue❂104쎯	-9.48347
nian❂6쎯qing❁16쎯	-9.48375
he❄27쎯	-9.48444
xiao❄14쎯	-9.48519
.ta❁6쎯	-9.48634
zhao❁3쎯	-9.48685
ju❃4쎯ban❄4쎯	-9.48733
dian❃5쎯	-9.48748
du❄12쎯	-9.48776
wen❂5쎯zi❄6쎯	-9.48822
shi❄18쎯jian❄15쎯	-9.48855
ji❄95쎯xu❄69쎯	-9.48918
hong❂44쎯se❄29쎯	-9.48946
:쎁	-9.48976
ce❄11쎯	-9.49077
,er❂16쎯qie❃쎯	-9.49115
yu❃24쎯	-9.49148
jiang❄25쎯shui❃0쎯	-9.49158
ban❃6쎯she❄22쎯:	-9.4917
xing❂11쎯,	-9.49226
pu❃13쎯	-9.49364
xi❁143쎯an❁13쎯	-9.49546
shao❁11쎯	-9.4958
ji❂114쎯zhong❁4쎯	-9.49621
쎅.	-9.49761
yin❁44쎯pin❂15쎯	-9.49789
zhi❃22쎯	-9.49842
,gai❁13쎯	-9.49856
shen❁18쎯ru❄2쎯	-9.4988
yao❁15쎯	-9.49881
dang❃2쎯jiao❄18쎯	-9.49959
yu❄40쎯	-9.49976
쎅쎈	-9.50084
yin❄7쎯shua❁1쎯	-9.50192
ping❂25쎯	-9.50221
쎆쎃	-9.50284
mie❄10쎯	-9.50284
cai❂9쎯	-9.50305
zhi❃19쎯hui❁15쎯	-9.50323
jing❁11쎯	-9.50325
chong❁9쎯fen❁4쎯	-9.50349
zhao❂쎯zuo❄5쎯	-9.50377
쎂yue❄29쎯	-9.50409
chao❁17쎯guo❄2쎯	-9.50435
jin❄61쎯bu❄28쎯	-9.50527
.쎆	-9.50601
jian❃36쎯yan❄75쎯	-9.50619
쎈쎅	-9.50627
xu❄36쎯	-9.50713
jie❁13쎯shou❄4쎯	-9.50731
zhong❄3쎯	-9.50758
hong❂21쎯	-9.50762
-쎂	-9.50781
guan❄33쎯che❄20쎯	-9.50808
tan❄5쎯	-9.50815
lv❃14쎯	-9.50823
.쎉	-9.50855
jian❄17쎯	-9.50865
nian❄4쎯	-9.50903
fei❄34쎯	-9.51002
(),	-9.51059
쎈쎈	-9.51105
ya❁7쎯li❄59쎯	-9.51207
yuan❄14쎯	-9.51233
26쎯	-9.51237
ding❃12쎯	-9.51265
쎈쎆	-9.51272
gai❃2쎯bian❄19쎯	-9.51322
tu❂14쎯pian❁5쎯	-9.51329
jin❁18쎯	-9.51363
xun❂11쎯	-9.51394
tan❂8쎯	-9.51603
pu❂20쎯tao❂13쎯	-9.51607
쎃gan❄3쎯	-9.51609
-쎄	-9.51666
xian❁39쎯wei❂38쎯	-9.51686
yi❂61쎯	-9.51698
de❅2쎯xin❁10쎯	-9.51717
su❄33쎯	-9.51748
zhuan❁6쎯	-9.51758
,jiao❁8쎯tong❁5쎯	-9.51766
dui❄14쎯wai❄0쎯	-9.51849
qu❃1쎯de❂7쎯	-9.51895
ju❃4쎯hang❂16쎯	-9.51916
ting❂5쎯	-9.51918
bu❂0쎯shi❄45쎯	-9.5193
lie❄45쎯	-9.52012
zheng❃4쎯ge❃0쎯	-9.52015
jing❄19쎯	-9.5203
ce❄33쎯yu❄105쎯	-9.52113
yi❃9쎯	-9.52113
yang❂17쎯	-9.52114
guan❁5쎯jun❁2쎯	-9.52133
,yin❁11쎯	-9.52211
geng❁6쎯duo❁5쎯	-9.52231
xiao❁29쎯	-9.52249
chang❂15쎯yong❄3쎯	-9.52256
ji❂114쎯ben❄4쎯	-9.52272
fu❂36쎯	-9.52321
쎀°C	-9.52329
fa❁1쎯dong❄13쎯	-9.52369
jin❃24쎯	-9.52375
wang❃14쎯ka❃1쎯	-9.52388
ti❂17쎯sheng❁3쎯	-9.52427
ge❂29쎯shi❄33쎯	-9.52569
xing❄13쎯zhi❄104쎯	-9.52729
쎆쎂	-9.52778
shen❁40쎯ben❄4쎯	-9.52854
‘	-9.52855
wan❂6쎯zheng❃4쎯	-9.52876
cai❂9쎯wu❄12쎯	-9.52928
mian❃10쎯fei❄37쎯	-9.52941
lian❂53쎯xi❄46쎯	-9.52967
yi❂79쎯zhi❃13쎯	-9.53104
mou❃2쎯	-9.5313
da❄0쎯dao❄24쎯	-9.53136
si❁33쎯	-9.53146
zong❄12쎯	-9.53186
dian❃5쎯xing❂9쎯	-9.53191
ren❂1쎯wen❂5쎯	-9.53281
ru❂9쎯guo❃3쎯	-9.53304
da❄0쎯sai❄4쎯	-9.53306
jiang❄22쎯	-9.53394
gou❄26쎯	-9.53429
bu❄38쎯、	-9.5343
dao❃5쎯yan❃39쎯	-9.53446
lang❃9쎯	-9.53457
cheng❂29쎯ji❁74쎯	-9.53458
tai❄6쎯	-9.53505
쎁-	-9.53519
cheng❂29쎯shou❂쎯	-9.53661
xu❄69쎯	-9.53668
쎁쎀쎀쎀	-9.53696
neng❂2쎯yuan❂34쎯	-9.53705
shi❄32쎯qu❁15쎯	-9.53812
ba❁11쎯	-9.53994
na❂4쎯	-9.54034
gong❁23쎯ji❁22쎯	-9.54035
chen❂15쎯	-9.54098
ge❂52쎯	-9.5411
yi❄109쎯cha❁3쎯	-9.54174
zhuan❁1쎯ji❂107쎯	-9.54182
ling❃2쎯xian❁18쎯	-9.54186
2	-9.54194
,bao❁4쎯gua❁11쎯	-9.54202
chuan❂4쎯》:“	-9.54252
min❂22쎯zhu❃4쎯	-9.54271
gan❁19쎯	-9.54271
chu❁3쎯ban❃6쎯she❄	-9.54284
쎁쎉쎈쎄nian❂6쎯	-9.54317
xia❂39쎯	-9.54362
xiao❃2쎯shi❂20쎯	-9.54373
yue❄56쎯du❂34쎯	-9.54392
gong❁10쎯li❃26쎯.	-9.54418
쎇쎂	-9.54473
yan❃39쎯chang❄2쎯	-9.54606
ming❂7쎯zi❄6쎯	-9.54626
쎉쎈	-9.5464
jiang❁11쎯	-9.54666
bao❄10쎯gao❄3쎯	-9.54756
zhen❁52쎯dui❄14쎯	-9.548
fu❄57쎯gai❄17쎯	-9.54853
gan❁25쎯su❄58쎯	-9.54865
xiang❁9쎯tong❂13쎯	-9.54916
da❄0쎯zhuan❁1쎯	-9.54952
shi❂35쎯	-9.54979
shen❄11쎯	-9.54984
nv❃0쎯zi❃7쎯	-9.55037
쎅쎄	-9.55077
쎆쎇	-9.55094
,zhong❁4쎯gong❄3쎯	-9.55132
he❄23쎯se❄29쎯	-9.55205
tun❂3쎯	-9.55394
zui❄11쎯	-9.55396
kua❄4쎯	-9.55424
xin❁10쎯de❅2쎯	-9.5551
dou❁12쎯you❃11쎯	-9.55558
yao❂43쎯	-9.55723
lian❂53쎯meng❂34쎯	-9.55728
san❁1쎯jiao❃57쎯	-9.55731
i	-9.55756
che❁8쎯zhan❄17쎯	-9.55762
,ze❂11쎯	-9.55938
heng❂7쎯	-9.5595
bai❃6쎯	-9.55975
di❄45쎯wu❃9쎯	-9.55996
jian❄56쎯	-9.5602
qie❁1쎯cheng❂29쎯	-9.56052
yu❄70쎯mi❃19쎯	-9.56074
seng❁1쎯	-9.56086
ye❄65쎯	-9.56251
hua❂11쎯	-9.56318
dui❁14쎯qiu❂27쎯	-9.56321
tu❂28쎯	-9.56321
dai❄15쎯lai❂16쎯	-9.56389
,zui❄4쎯zhong❁19쎯	-9.56478
,zhong❁4쎯guo❂11쎯	-9.565
gao❄3쎯	-9.56622
xia❁10쎯	-9.56647
xuan❂11쎯	-9.56669
쎁쎉쎉쎀nian❂6쎯	-9.56674
bi❂5쎯	-9.56706
shi❄45쎯yi❃10쎯	-9.56758
de❅2쎯xiao❃2쎯	-9.56786
shou❄9쎯yu❂34쎯	-9.56793
,zai❄4쎯	-9.56959
쎂.쎀	-9.56987
zhuan❁1쎯li❄58쎯	-9.57015
gou❄26쎯wu❄36쎯	-9.5709
yuan❄10쎯	-9.57157
fan❃3쎯ying❄7쎯	-9.57164
,hou❄7쎯	-9.57384
xiao❁61쎯	-9.57448
zhou❁5쎯bian❁16쎯	-9.57467
wei❄37쎯	-9.57548
zong❁10쎯zhi❃20쎯	-9.5759
hun❂11쎯	-9.57591
wen❂5쎯xian❄35쎯	-9.57619
lv❄9쎯	-9.5762
zhen❄16쎯	-9.57646
reng❂4쎯	-9.57661
zhun❃0쎯	-9.5767
dian❄23쎯hua❄26쎯	-9.57695
fa❂19쎯	-9.57727
ge❃0쎯bing❁6쎯	-9.57786
ye❃1쎯.”	-9.57796
fen❁4쎯zhong❁29쎯	-9.57905
su❄30쎯liao❄8쎯	-9.57912
ch	-9.57929
hai❂6쎯zi❃7쎯	-9.57981
que❁0쎯	-9.57995
yan❂72쎯se❄29쎯	-9.58051
ren❂1쎯shu❄26쎯	-9.58057
jin❁24쎯	-9.5811
,mei❃9쎯	-9.5823
gou❃2쎯cheng❂29쎯	-9.58302
쎁쎉쎈쎅nian❂6쎯	-9.58325
zu❃11쎯	-9.58393
mi❃19쎯,	-9.58467
hao❃0쎯de❅2쎯	-9.58493
yi❄214쎯	-9.58559
kao❄5쎯	-9.58731
shou❃4쎯shu❂7쎯	-9.58821
ren❂1쎯ben❄4쎯	-9.58851
yang❃6쎯zhi❂22쎯	-9.58936
tao❂5쎯	-9.59038
.xue❂6쎯jiao❄18쎯	-9.59086
cheng❂29쎯ben❃5쎯	-9.59107
fa❁1쎯hui❁15쎯	-9.59215
쎄쎉	-9.59217
ji❂81쎯	-9.59236
jia❁7쎯na❂4쎯da❄0쎯	-9.59259
dai❄35쎯	-9.59284
di❄51쎯	-9.59297
geng❁6쎯jia❁7쎯	-9.59321
bo❁10쎯	-9.59403
ge❃0쎯cheng❂29쎯	-9.59467
ping❂36쎯jie❄14쎯	-9.59479
kong❁9쎯qi❃25쎯	-9.59549
bian❄16쎯li❄58쎯	-9.59557
쎅쎁	-9.59573
rong❂50쎯	-9.59641
cha❁11쎯	-9.59649
쎁쎉쎈쎈nian❂6쎯	-9.59713
zhong❃7쎯liu❂31쎯	-9.59738
hun❂11쎯ge❃0쎯	-9.59766
wai❄0쎯guan❁16쎯	-9.59842
quan❂6쎯xin❁10쎯	-9.5986
ting❂8쎯	-9.59867
fang❁2쎯	-9.59915
zhang❃2쎯wo❄12쎯	-9.5993
.쎂.	-9.59947
tou❂5쎯ru❄2쎯	-9.59957
zuo❃1쎯	-9.59987
,ran❂12쎯hou❄7쎯	-9.60042
chuan❂4쎯mei❂12쎯	-9.60055
gai❄11쎯nian❄4쎯	-9.60063
xi❁161쎯	-9.60127
xi❁65쎯wang❄4쎯	-9.60279
dong❄13쎯tai❄6쎯	-9.60291
wei❁12쎯fu❄28쎯	-9.60308
xing❂11쎯tai❄6쎯	-9.60337
hai❄8쎯	-9.60393
de❅2쎯yi❁10쎯	-9.60396
han❂17쎯liang❂19쎯	-9.60418
zhu❄20쎯	-9.60482
shi❄60쎯	-9.60523
,yin❁11쎯ci❃2쎯	-9.6055
chuan❂4쎯shuo❁2쎯	-9.60636
gong❄9쎯xian❄35쎯	-9.60653
wai❄0쎯xing❂11쎯	-9.60653
zhuan❁1쎯yong❄3쎯	-9.60678
tong❃9쎯	-9.60697
ding❄2쎯wei❄15쎯	-9.60786
쎅쎇	-9.60845
duo❁5쎯shu❄26쎯	-9.60854
bo❁10쎯fang❄0쎯	-9.60854
jiao❁20쎯yan❂50쎯	-9.60872
\	-9.60953
xiu❁9쎯	-9.60975
jing❄17쎯	-9.60982
jing❄11쎯	-9.60988
xun❄28쎯su❄70쎯	-9.60989
%,	-9.61036
gan❄3쎯xing❄13쎯	-9.61055
,cong❂6쎯er❂16쎯	-9.61077
,ceng❂6쎯	-9.61113
wei❄14쎯zhu❃4쎯,	-9.61146
ge❁16쎯qu❁25쎯	-9.61158
you❂25쎯ji❁22쎯	-9.61302
chu❁3쎯lai❂16쎯	-9.61415
yan❃39쎯chu❁3쎯	-9.61429
,zhe❄14쎯	-9.61448
zong❁10쎯jiao❁20쎯	-9.61461
ai❄26쎯hao❃0쎯	-9.61501
pa❄0쎯	-9.61511
fang❁9쎯	-9.61586
huang❁9쎯	-9.61716
,xian❄37쎯ren❂4쎯	-9.61716
ren❂1쎯gong❁17쎯	-9.61723
jiang❄9쎯da❄0쎯	-9.6173
ge❃0쎯tong❂13쎯	-9.61788
wan❂6쎯	-9.61841
mei❃13쎯rong❂21쎯	-9.61855
hu❁17쎯	-9.61927
lv❃30쎯	-9.6197
lun❄1쎯tan❂8쎯	-9.62025
guo❂11쎯tu❃1쎯	-9.62045
zheng❁37쎯	-9.6213
pei❄5쎯	-9.62174
bin❁5쎯guan❃15쎯	-9.62207
쎁쎉쎈쎆nian❂6쎯	-9.62255
xiang❁1쎯cun❁1쎯	-9.62327
qing❁20쎯dao❃7쎯	-9.62332
chu❄17쎯,	-9.62425
쎀%	-9.6247
quan❂6쎯xian❄22쎯	-9.62497
.쎈	-9.62551
jing❁27쎯li❄62쎯	-9.62559
pang❂9쎯	-9.6264
tiao❄6쎯	-9.62669
jing❃13쎯qu❁15쎯	-9.62768
쎄gan❄3쎯	-9.62769
du❂25쎯te❄5쎯de❅2쎯	-9.62776
han❄20쎯xie❂47쎯	-9.62781
jie❁32쎯duan❄7쎯	-9.62831
te❄5쎯xing❄13쎯	-9.62858
쎁、	-9.62911
shen❃7쎯ji❄116쎯	-9.63033
miao❄0쎯	-9.63107
huan❄19쎯zhe❃2쎯	-9.63113
쎂쎀쎀쎀	-9.63135
lian❂69쎯suo❃23쎯	-9.63151
2쎯shi❁11쎯	-9.63151
li❃15쎯gong❁17쎯	-9.63169
dong❄22쎯	-9.63174
chong❂5쎯	-9.63184
zhi❂32쎯cheng❁28쎯	-9.63236
nang❂2쎯	-9.6326
da❄0쎯shi❁11쎯	-9.63353
ou❃3쎯	-9.63356
jing❁24쎯pin❃0쎯	-9.63409
shi❄45쎯fou❃0쎯	-9.63554
zan❄17쎯	-9.63559
shi❁33쎯ren❂1쎯	-9.63631
she❄13쎯xiang❄4쎯	-9.63633
xiang❁9쎯hu❄14쎯	-9.63671
°C	-9.63727
yi❃10쎯“	-9.63834
wan❂12쎯jia❁13쎯	-9.63861
jiang❄9쎯du❄8쎯	-9.6388
tao❂17쎯	-9.63888
wan❂5쎯lin❂19쎯	-9.63907
shen❃7쎯	-9.63922
zi❄16쎯shen❁40쎯	-9.63923
cha❂12쎯	-9.63924
xiang❄4쎯su❄56쎯	-9.63937
yuan❂10쎯su❄56쎯	-9.63949
쎇쎃	-9.63956
nen❄4쎯	-9.63963
dao❃5쎯shi❁11쎯	-9.64024
,rang❄3쎯	-9.64029
geng❁6쎯ming❂7쎯	-9.64031
pai❁0쎯	-9.64108
xi❄33쎯ju❄18쎯	-9.64122
she❄17쎯ji❂37쎯	-9.64178
.you❂29쎯yu❂35쎯	-9.64184
lu❄91쎯	-9.64192
han❂15쎯shu❄26쎯	-9.64257
xie❂14쎯diao❄17쎯	-9.64296
wen❂5쎯zhang❁13쎯	-9.64376
쎅%	-9.64402
wei❂38쎯hu❄30쎯	-9.64426
nian❂9쎯	-9.64476
dao❄3쎯le❅0쎯	-9.64526
ji❄59쎯	-9.64551
yang❃14쎯hua❁1쎯	-9.64614
yuan❂12쎯li❃15쎯	-9.64666
jian❁52쎯	-9.64672
,tong❁5쎯guo❄2쎯	-9.64739
,ju❄65쎯	-9.64769
an❄13쎯	-9.64786
ren❂1쎯li❄59쎯	-9.64877
쎄쎁	-9.64939
쎁쎅쎀	-9.64957
dou❁12쎯shi❄32쎯	-9.65045
ya❁23쎯	-9.65057
quan❂6쎯shi❄32쎯	-9.65101
suo❃23쎯	-9.65141
chuang❁11쎯	-9.65149
ci❂22쎯	-9.65175
wan❂6쎯mei❃13쎯	-9.65176
.“	-9.65254
su❁10쎯zhou❁9쎯	-9.65257
hui❄27쎯yuan❂15쎯,	-9.65308
zhen❁30쎯shi❂13쎯	-9.65354
jiao❁24쎯	-9.65401
shou❁1쎯lu❄35쎯	-9.65434
diao❁23쎯	-9.65454
zui❃0쎯	-9.65508
lv❄20쎯hua❁1쎯	-9.65529
shi❂10쎯wu❃9쎯	-9.65529
yao❄12쎯wu❄36쎯	-9.65562
gong❁10쎯qing❃10쎯	-9.65585
ge❄3쎯xiang❄24쎯	-9.65597
쎁.쎅	-9.65604
sheng❃9쎯wei❁12쎯	-9.65664
gen❁1쎯	-9.65671
쎁쎉쎈쎉nian❂6쎯	-9.65673
shi❂10쎯ba❁9쎯	-9.65675
xi❁70쎯	-9.65893
zhu❄31쎯yi❄109쎯	-9.65903
ao❄14쎯yun❃16쎯	-9.65932
yao❂20쎯	-9.65979
zhi❁31쎯dao❄24쎯	-9.66056
tai❁4쎯	-9.66062
4쎯nan❂6쎯sheng❃9쎯	-9.66075
jie❄15쎯	-9.66076
ying❄9쎯pan❂10쎯	-9.66133
shu❃5쎯yu❂35쎯yun❂	-9.66166
ge❁16쎯shou❃4쎯	-9.66181
fan❁14쎯yi❄215쎯	-9.6623
zhi❂20쎯	-9.66358
shi❄31쎯na❄11쎯	-9.66359
쎁쎉쎈쎇nian❂6쎯	-9.66418
zhi❁43쎯	-9.66425
su❂0쎯	-9.66441
shao❃2쎯xu❃19쎯	-9.6645
miao❃6쎯	-9.66459
fan❄28쎯	-9.66496
yin❃37쎯	-9.66541
.ben❃5쎯	-9.66546
lian❄22쎯	-9.6658
mian❃10쎯	-9.6663
ying❁44쎯xiong❂2쎯	-9.66648
da❄0쎯jia❁13쎯	-9.66706
shuo❁2쎯ming❂8쎯	-9.66744
jing❁14쎯	-9.66817
zhao❁4쎯	-9.66837
yi❁13쎯ke❁16쎯	-9.66867
fu❄41쎯qin❁4쎯	-9.66923
zhu❃4쎯ren❂4쎯.	-9.66942
quan❂10쎯	-9.66945
,yong❁17쎯you❃11쎯	-9.67017
hai❃1쎯ba❂11쎯	-9.67071
xuan❂15쎯	-9.67074
fu❄31쎯ge❃0쎯	-9.67074
shan❁11쎯shui❃0쎯	-9.67095
shi❃9쎯jian❄29쎯	-9.67144
yan❂72쎯	-9.67151
mu❄20쎯	-9.67182
dang❄12쎯an❄16쎯	-9.67387
zhai❁3쎯	-9.67495
cang❁0쎯	-9.67511
fu❂38쎯	-9.67552
bian❁13쎯zhi❄30쎯	-9.67571
liang❂11쎯shi❂39쎯	-9.67583
pin❂15쎯	-9.67587
zheng❄17쎯quan❄1쎯	-9.67599
bi❄51쎯	-9.67606
zha❁9쎯	-9.67615
zao❄16쎯xing❂9쎯	-9.67634
쎈쎂	-9.67665
gao❃12쎯	-9.67667
teng❂14쎯	-9.67705
li❄62쎯ren❂4쎯	-9.67706
sui❄29쎯	-9.67738
xian❂18쎯	-9.67806
bi❄157쎯	-9.67811
zhen❁25쎯	-9.67841
chi❄45쎯	-9.67951
da❂24쎯	-9.67983
yi❁10쎯ben❃5쎯	-9.68001
l	-9.68006
zhe❃2쎯.	-9.68016
zhou❁5쎯wei❂11쎯	-9.68082
쎉쎅	-9.68107
ju❄14쎯le❄3쎯	-9.68154
fang❂4쎯zhi❄61쎯	-9.68218
lin❂19쎯qiu❁9쎯	-9.68233
yin❃14쎯jin❄61쎯	-9.68283
deng❁10쎯ji❄117쎯	-9.68288
jun❁6쎯jun❁3쎯	-9.6836
suo❃11쎯yi❃10쎯	-9.68459
du❄8쎯jia❃2쎯	-9.68464
쎁쎉쎉쎁nian❂6쎯	-9.68492
xiao❃2쎯xing❂9쎯	-9.68521
zheng❁22쎯zai❄5쎯	-9.68538
jun❁2쎯qu❁15쎯	-9.68567
wu❂17쎯fa❃2쎯	-9.68575
ye❃1쎯.	-9.68587
쎀fen❁4쎯zhong❁29쎯	-9.68627
,mu❄22쎯qian❂8쎯	-9.68681
zhu❂24쎯jian❄40쎯	-9.68685
cui❁6쎯	-9.68713
jiao❄35쎯da❄0쎯	-9.68739
,ta❁5쎯	-9.68743
kang❄5쎯ri❄2쎯	-9.68754
chi❂20쎯	-9.68826
cang❁14쎯	-9.68834
-쎅	-9.68931
zong❃5쎯bu❄38쎯	-9.68954
qing❁3쎯	-9.69007
xi❁51쎯shou❁1쎯	-9.69105
shao❃2쎯shu❄26쎯	-9.6915
shu❄26쎯ma❃8쎯	-9.6915
zhong❁4쎯bu❄38쎯	-9.69184
xie❂49쎯	-9.69222
mu❃2쎯	-9.69224
쎀ping❂17쎯fang❁4쎯	-9.69245
qi❃12쎯	-9.69246
,jing❁27쎯	-9.69263
mi❄24쎯du❄8쎯	-9.69265
쎀.쎅	-9.69269
bi❄98쎯	-9.69342
쎇쎇	-9.69351
zi❁9쎯	-9.69414
tong❂36쎯	-9.69421
ji❄48쎯	-9.69428
kuo❄15쎯yi❂31쎯	-9.69481
(쎁).	-9.69541
zhen❃27쎯duan❄4쎯	-9.69549
chong❁9쎯man❃4쎯	-9.69582
yi❄68쎯	-9.69592
-쎃	-9.69596
mei❂16쎯	-9.69608
su❄30쎯	-9.69623
dong❁3쎯bu❄38쎯	-9.69736
guo❂11쎯wai❄0쎯	-9.69773
she❂11쎯	-9.69819
.ci❃2쎯	-9.69952
mou❂17쎯	-9.69979
you❄21쎯	-9.69986
yuan❂12쎯ze❂11쎯	-9.70002
xing❂7쎯	-9.70059
yi❁10쎯zhi❁21쎯	-9.70063
bei❁15쎯jing❃13쎯	-9.70089
guan❁4쎯zhu❄31쎯	-9.70235
zou❄2쎯	-9.70265
yan❂50쎯	-9.70414
xiang❁7쎯	-9.70428
nuan❃2쎯	-9.70462
si❄17쎯gan❄3쎯	-9.70467
tui❁1쎯dong❄13쎯	-9.70492
bu❄38쎯zhang❃6쎯	-9.70556
fu❄32쎯nv❃0쎯	-9.70585
hua❄18쎯jia❁13쎯	-9.70616
xiang❁1쎯zhen❄30쎯	-9.70645
hui❁13쎯fu❄31쎯	-9.70737
mei❃9쎯gan❄3쎯	-9.70751
qiao❂5쎯	-9.70775
dan❄43쎯	-9.7082
12쎯	-9.70846
lang❄4쎯	-9.70853
gong❁10쎯jian❁25쎯	-9.70893
luo❂18쎯	-9.71003
jia❁13쎯zu❂9쎯	-9.71033
ji❁48쎯、	-9.7104
bao❃9쎯cun❂1쎯	-9.71063
dian❄23쎯qi❃25쎯	-9.71089
&	-9.7116
hui❃8쎯	-9.71214
yi❁10쎯pi❁11쎯	-9.71312
re❄1쎯dai❄15쎯	-9.71406
ji❄72쎯nan❂6쎯	-9.71561
yin❁11쎯ci❃2쎯	-9.7162
hong❂67쎯	-9.71625
pen❂2쎯	-9.71632
huang❂34쎯di❄26쎯	-9.71719
chong❂17쎯xin❁10쎯	-9.71733
rou❂6쎯	-9.71743
chen❂23쎯yang❂35쎯	-9.71774
zhi❂25쎯shu❃5쎯	-9.71874
zhi❁21쎯bu❄38쎯	-9.7188
zhen❄33쎯	-9.71939
he❂46쎯	-9.7198
shi❄18쎯wu❄12쎯	-9.72002
zhun❃0쎯bei❄26쎯	-9.72018
jian❄77쎯ding❄2쎯	-9.72068
30쎯	-9.72075
shui❃0쎯li❄58쎯	-9.72087
,bing❁6쎯qie❃쎯	-9.72196
tui❁1쎯jin❄61쎯	-9.72215
dui❄33쎯wu❃11쎯	-9.72249
hai❃1쎯nan❂6쎯	-9.72285
kuo❄7쎯zhan❃11쎯	-9.72333
she❄29쎯ji❄116쎯、	-9.72355
zao❃2쎯ji❁47쎯	-9.72355
lao❃17쎯shi❁11쎯	-9.72373
hui❁40쎯	-9.72419
gui❁35쎯ze❂11쎯	-9.72504
rong❂21쎯yi❄119쎯	-9.72525
ni❄27쎯	-9.72601
bian❁16쎯yuan❂44쎯	-9.72615
쎅쎉	-9.72689
yu❄113쎯	-9.72696
mao❄32쎯	-9.72713
xiang❄10쎯	-9.72719
chong❁9쎯	-9.7276
yu❄31쎯	-9.72762
jiao❄35쎯gao❁20쎯	-9.72814
xia❂45쎯	-9.7287
chuan❂4쎯shu❁44쎯	-9.72939
de❅0쎯wei❄15쎯	-9.72976
guai❄7쎯	-9.72996
ji❁34쎯yin❁11쎯	-9.73001
shi❂10쎯liu❄3쎯	-9.73014
zuo❄5쎯yong❄3쎯.	-9.73061
liang❂11쎯	-9.73135
ing❂7쎯cheng❁28쎯:	-9.73162
gu❄23쎯wen❄6쎯	-9.73255
lie❄34쎯	-9.73271
de❅2쎯ren❂1쎯	-9.7329
cheng❁28쎯“	-9.73293
ni❂10쎯ya❄7쎯	-9.73297
ji❁34쎯yu❂35쎯	-9.73317
pei❄19쎯zhi❄85쎯	-9.7333
wei❄14쎯zhu❃4쎯.	-9.73339
xie❃4쎯zuo❄5쎯	-9.73368
,nv❃0쎯,	-9.73393
gang❁23쎯	-9.73398
zi❄16쎯zhu❃4쎯	-9.7341
gu❁11쎯	-9.73488
xi❁113쎯sheng❁13쎯	-9.73488
wen❂5쎯ming❂7쎯:	-9.7351
tan❄5쎯suo❃18쎯	-9.73543
jiao❃57쎯se❄29쎯	-9.73554
〕	-9.73584
fu❄31쎯duo❃23쎯	-9.73611
can❁13쎯	-9.7373
shi❃9쎯zhong❁19쎯	-9.73746
he❄35쎯	-9.73782
huo❄61쎯	-9.73801
-쎆	-9.73835
wu❁17쎯ran❃11쎯	-9.73863
jie❁13쎯chu❄36쎯	-9.74061
〔	-9.74086
luo❂15쎯bo❅0쎯	-9.74146
duo❁5쎯xiang❄24쎯	-9.74147
mian❄2쎯xiang❄6쎯	-9.74162
cui❄30쎯	-9.74168
()shi❄45쎯	-9.74201
you❂16쎯	-9.74233
yan❂20쎯ge❂29쎯	-9.74314
yuan❂12쎯ming❂7쎯	-9.74333
dong❄13쎯zuo❄5쎯	-9.74335
zhu❄59쎯	-9.7441
c	-9.74502
zhi❂16쎯	-9.74527
shi❂10쎯yi❁10쎯	-9.74577
zhu❄20쎯li❃15쎯	-9.74582
ke❄14쎯fang❂2쎯	-9.74591
ming❂7쎯,	-9.74616
쎁쎉쎈쎂nian❂6쎯	-9.74717
shou❃6쎯dou❁12쎯	-9.74723
jiao❃57쎯du❄8쎯	-9.74736
cuo❄18쎯	-9.74797
guo❂11쎯you❃11쎯	-9.74803
quan❂12쎯wei❁13쎯	-9.74831
meng❂34쎯	-9.74865
huan❁7쎯ying❂59쎯	-9.74949
you❁9쎯	-9.74967
gong❁17쎯han❃11쎯	-9.7504
,xian❄37쎯	-9.7506
heng❂14쎯	-9.7507
tan❄9쎯	-9.75101
xian❃46쎯	-9.75118
jue❂33쎯	-9.75181
shi❂10쎯nian❂6쎯	-9.75217
wei❃14쎯	-9.7522
huan❄19쎯	-9.7529
jiu❄23쎯qiu❁9쎯	-9.753
쎇.	-9.75343
qian❂22쎯	-9.75403
bang❁5쎯	-9.75421
mei❃9쎯nian❂6쎯	-9.75464
xue❂6쎯jia❁13쎯	-9.75474
shang❃6쎯	-9.75506
wu❃37쎯dao❃20쎯	-9.75533
xie❂14쎯	-9.75602
cheng❂29쎯jiu❄23쎯	-9.75747
chu❄17쎯yu❂35쎯	-9.75817
yan❂20쎯chong❂17쎯	-9.75837
zhuo❂8쎯	-9.75957
ren❄30쎯shi❂35쎯	-9.76
shou❃6쎯ci❄16쎯	-9.76012
pin❂15쎯lv❄15쎯	-9.76045
zhi❂32쎯neng❂2쎯	-9.76061
si❁16쎯fa❃2쎯	-9.76077
yi❁10쎯dai❄9쎯	-9.76099
”wei❄14쎯	-9.7611
쎉쎉	-9.76185
fu❂62쎯ge❃0쎯	-9.76218
min❂22쎯guo❂11쎯	-9.76262
shi❂39쎯yong❄3쎯	-9.763
guan❁4쎯jian❄85쎯	-9.76321
jiang❃19쎯shi❁11쎯	-9.76395
da❄0쎯sha❄6쎯	-9.76402
li❄59쎯de❅2쎯	-9.76431
li❃15쎯nian❄4쎯,	-9.76497
mu❄22쎯de❅2쎯	-9.76501
xiu❄19쎯gang❁32쎯	-9.76527
yang❃14쎯	-9.76536
shi❂13쎯hang❂16쎯	-9.76559
chuang❄1쎯yi❄109쎯	-9.76606
ben❄4쎯yan❄75쎯	-9.76607
bi❃24쎯ji❄117쎯	-9.76649
zhang❃6쎯.	-9.7666
mian❂13쎯	-9.76676
28쎯	-9.76723
keng❁7쎯	-9.76751
쎆쎉	-9.76772
fa❁1쎯dian❄23쎯	-9.76817
diao❄8쎯	-9.76865
쎁쎂쎀	-9.76884
22쎯chu❁3쎯ban❃6쎯	-9.77039
ping❂10쎯	-9.77057
xue❂6쎯、	-9.77116
feng❁58쎯xian❃46쎯	-9.77126
jian❁17쎯	-9.77137
qi❃25쎯hou❄5쎯	-9.77202
qiang❁24쎯	-9.77285
fen❁4쎯pei❄19쎯	-9.77313
diao❄17쎯jie❂69쎯	-9.77313
,xian❁18쎯hou❄7쎯	-9.77357
ta❁6쎯de❅2쎯	-9.77367
nong❂10쎯	-9.77378
dan❁9쎯wei❄15쎯.	-9.77447
bi❄145쎯	-9.77508
xie❂14쎯yi❄214쎯	-9.77577
tai❄3쎯yuan❂12쎯	-9.77626
jian❁67쎯	-9.77836
tu❃1쎯rang❃3쎯	-9.77867
shou❄9쎯	-9.77906
de❅0쎯tie❃5쎯	-9.77936
wu❃28쎯qi❄20쎯	-9.77955
gun❃8쎯	-9.77988
16쎯zhi❄61쎯qu❁15쎯	-9.78036
shu❃23쎯	-9.78043
cheng❂29쎯fen❁4쎯	-9.78044
lian❄8쎯	-9.7806
bing❃29쎯	-9.78072
jun❁6쎯chun❂18쎯	-9.78117
yi❄225쎯	-9.78138
,dan❄10쎯shi❄45쎯	-9.78152
fu❄74쎯shu❃5쎯	-9.78241
zhe❃2쎯de❅2쎯	-9.78262
zhen❄31쎯	-9.7827
duan❁4쎯kou❃1쎯	-9.78273
lao❃17쎯nian❂6쎯	-9.78298
yi❁10쎯xiang❄24쎯	-9.78322
ping❂17쎯fang❁4쎯	-9.78348
zhu❃4쎯ben❄4쎯	-9.78397
nai❃2쎯	-9.78446
jian❄85쎯	-9.78456
sui❄33쎯	-9.78509
ni❃6쎯de❅2쎯	-9.78532
ji❁47쎯kan❁3쎯	-9.78535
she❂3쎯	-9.78539
,wu❂17쎯	-9.78561
fa❃2쎯gui❁35쎯	-9.78583
hu❂22쎯	-9.78592
chang❃4쎯shang❃1쎯	-9.78629
you❃11쎯yi❁10쎯	-9.78636
ya❂18쎯	-9.78712
zuo❄7쎯chu❁3쎯	-9.78729
쎇쎈	-9.78753
yu❂66쎯	-9.78792
you❄32쎯	-9.7884
fa❁1쎯she❄8쎯	-9.7886
gong❁11쎯lv❄15쎯	-9.78941
sui❁12쎯	-9.7906
ji❁80쎯	-9.79101
xian❄37쎯shi❂13쎯	-9.79105
zui❄4쎯ju❄16쎯	-9.79154
,huo❄50쎯	-9.79218
쎀.쎀	-9.79256
zhu❃4쎯ban❄4쎯	-9.79262
zuo❄5쎯zhe❃2쎯:	-9.79264
ri❄2쎯chang❂15쎯	-9.79278
tong❂13쎯zhi❄47쎯	-9.7928
sui❄42쎯	-9.79297
tao❂20쎯ci❂20쎯	-9.79412
fen❁4쎯hui❄27쎯	-9.79418
da❂14쎯yin❄7쎯	-9.79561
15쎯	-9.79582
z	-9.79636
쎇쎉	-9.7966
fu❄65쎯	-9.7967
(쎁)	-9.79693
huang❂56쎯jin❁33쎯	-9.79775
chen❂23쎯	-9.79803
,jiu❄23쎯	-9.79805
yong❃6쎯	-9.7989
jun❄13쎯	-9.799
bei❃2쎯fang❁4쎯	-9.79926
,yi❁10쎯	-9.79994
ling❂114쎯	-9.80078
zai❄5쎯xian❄47쎯	-9.80095
qing❁1쎯	-9.80112
yuan❂12쎯yin❁11쎯	-9.80112
cheng❁28쎯hao❂6쎯.	-9.80133
zhai❂1쎯	-9.8015
ben❄4쎯xian❄37쎯	-9.80248
han❄34쎯	-9.80251
,zhan❁4쎯de❅0쎯	-9.80271
쎀쎅	-9.80319
deng❃2쎯de❅0쎯	-9.80457
쎅gan❄3쎯	-9.80486
biao❁14쎯zhi❄47쎯	-9.8055
yi❃15쎯you❃11쎯	-9.80552
you❁5쎯liang❂15쎯	-9.80563
shu❁8쎯·	-9.80606
kan❁9쎯dao❄3쎯	-9.80632
쎉쎆	-9.80717
shu❁40쎯cai❄5쎯	-9.80756
er❂16쎯bu❂0쎯	-9.80787
yu❄126쎯fang❂4쎯	-9.80804
luo❁4쎯ma❃14쎯	-9.80804
xing❂9쎯hao❂6쎯	-9.80817
hong❂44쎯jun❁2쎯	-9.80845
qi	-9.80846
tu❂14쎯xiang❄4쎯	-9.80858
min❃13쎯	-9.80877
fei❁12쎯	-9.80892
hou❄5쎯	-9.80897
fu❄24쎯	-9.80906
.쎃	-9.80961
zhi❃19쎯ding❄2쎯	-9.80965
gong❄9쎯	-9.80981
쎇쎄	-9.8104
deng❃2쎯nong❂5쎯	-9.81144
shang❁4쎯biao❁14쎯	-9.81276
chu❄36쎯	-9.81347
mei❂43쎯	-9.8136
):	-9.81398
gong❁10쎯si❁16쎯,	-9.81399
cai❂3쎯	-9.81426
jiao❁20쎯shou❄9쎯.	-9.81445
》zhong❁4쎯	-9.81446
jin❄61쎯kou❃1쎯	-9.81451
쎁쎉쎈쎃nian❂6쎯	-9.81462
ju❂23쎯fu❄28쎯	-9.8151
.쎂	-9.81526
yi❃10쎯hou❄7쎯	-9.81542
ban❃6쎯ben❃5쎯	-9.81618
.mu❄22쎯qian❂8쎯	-9.81625
jia❁13쎯ju❄16쎯	-9.81646
xian❄37쎯chang❃4쎯	-9.8167
xin❄8쎯yong❄3쎯	-9.81749
ceng❂6쎯ren❂4쎯	-9.81756
ling❂36쎯	-9.81794
jian❃36쎯	-9.81814
xu❁37쎯	-9.81815
xi❁143쎯fang❁4쎯	-9.81926
deng❃2쎯ji❂83쎯	-9.8193
hang❂16쎯dong❄13쎯	-9.8198
di❁15쎯	-9.82087
chong❂11쎯lei❄16쎯	-9.82101
tu❃0쎯	-9.82175
zui❄4쎯hao❃0쎯	-9.82202
lian❂53쎯sai❄4쎯	-9.82204
dian❄23쎯qi❄20쎯	-9.82234
pi❁11쎯	-9.82237
,zi❄16쎯	-9.8225
dian❄19쎯fen❃1쎯	-9.82301
gu❃59쎯gan❁16쎯	-9.82306
jiao❁8쎯huan❄21쎯	-9.82367
zui❄4쎯zhong❁19쎯	-9.82389
zhe❄14쎯shi❄45쎯	-9.82408
jiang❁5쎯jun❁2쎯	-9.82408
fei❁19쎯ji❁48쎯	-9.82446
hai❃1쎯jun❁2쎯	-9.82475
%.	-9.82548
zhi❄56쎯hui❄51쎯	-9.82555
gai❃2쎯shan❄15쎯	-9.82607
쎂.쎅	-9.8261
yong❄3쎯pin❃0쎯	-9.82667
xiong❁2쎯di❄27쎯	-9.82697
bi❄100쎯	-9.82699
hui❄79쎯hua❄18쎯	-9.82726
kao❃6쎯	-9.82795
hu❁13쎯	-9.82798
wo❄8쎯	-9.82817
ban❁12쎯ya❂12쎯	-9.82855
zhi❃13쎯	-9.82873
18쎯	-9.82937
hun❁4쎯	-9.82966
tong❃5쎯	-9.82984
die❂19쎯	-9.82992
wang❂0쎯	-9.83023
yin❁11쎯su❄56쎯	-9.8303
bing❁6쎯bu❂0쎯	-9.83048
shen❄17쎯	-9.83052
쎀쎃	-9.83053
de❅0쎯qu❁15쎯de❅2쎯	-9.83059
wei❄16쎯xing❁7쎯	-9.83103
gai❃2쎯wei❄14쎯	-9.83105
(쎁쎈	-9.83123
zhu❄31쎯chong❂17쎯	-9.83159
쎂쎀쎁쎃nian❂6쎯	-9.8316
cheng❁28쎯hao❂6쎯	-9.83184
zhu❃4쎯bian❁13쎯	-9.83204
gong❁10쎯bu❄23쎯	-9.83212
fu❄57쎯	-9.83227
wan❂3쎯	-9.8329
fa❃2쎯xue❂6쎯	-9.83373
gong❁10쎯si❁16쎯.	-9.83387
wei❃15쎯	-9.83478
zeng❄6쎯	-9.83506
fa❁1쎯ming❂8쎯	-9.83556
ㄧ	-9.83563
tuo❃6쎯yuan❂17쎯	-9.83606
fan❂35쎯	-9.83617
ge❃0쎯jin❁33쎯	-9.83686
ma❃8쎯	-9.83747
ge❃0쎯li❃15쎯	-9.83747
zhua❁0쎯	-9.83775
yuan❂15쎯、	-9.83845
chu❁4쎯zhong❁4쎯	-9.8385
fang❃18쎯wen❄6쎯	-9.83896
shu❄47쎯	-9.8391
쎀쎁	-9.83929
,huo❄27쎯	-9.83969
zi❄16쎯wo❃3쎯	-9.83971
ji❄83쎯	-9.83974
mao❄37쎯	-9.83982
shi❂10쎯san❁1쎯	-9.83992
wu❄36쎯qiu❁9쎯	-9.84023
shu❁38쎯	-9.84086
쎆-	-9.84128
쎀쎆	-9.84146
wu❄44쎯	-9.84163
ling❄0쎯	-9.84236
쎀쎈	-9.84324
ming❂7쎯wei❄14쎯	-9.84325
fang❁4쎯wei❄15쎯	-9.8435
ye❃1쎯ke❃4쎯yi❃10쎯	-9.84352
bao❄12쎯	-9.84365
bao❁4쎯han❂17쎯	-9.84387
dui❁9쎯	-9.84403
ju❄16쎯bei❄26쎯	-9.84421
si❁24쎯te❄5쎯	-9.84439
ye❁8쎯	-9.84505
han❂17쎯you❃11쎯	-9.84664
jie❂69쎯neng❂2쎯	-9.84686
pao❃0쎯	-9.84752
da❁17쎯	-9.84762
jia❃17쎯	-9.84796
xiao❃2쎯zu❃7쎯	-9.84831
xiang❁9쎯ying❁17쎯	-9.84929
tu❁14쎯	-9.84973
ding❄2쎯cha❁3쎯	-9.85028
wu❂11쎯	-9.85041
ping❂17쎯mian❄2쎯	-9.85046
ban❄3쎯	-9.85065
zhu❁8쎯	-9.85068
li❂41쎯	-9.85093
fu❂93쎯she❄8쎯	-9.85177
jian❄29쎯zao❄16쎯	-9.85182
yuan❂12쎯shi❃9쎯	-9.8519
ge❁11쎯	-9.85249
ai❂12쎯	-9.85263
ren❂4쎯jiao❁20쎯	-9.85263
wang❃14쎯shang❃1쎯	-9.85282
si❁16쎯ling❂34쎯	-9.85365
biao❃5쎯da❂30쎯	-9.85382
”deng❃2쎯	-9.8539
qi❃12쎯qiu❁9쎯,	-9.85427
yu❂35쎯쎂쎀쎀	-9.85439
xun❄25쎯	-9.85454
qi❁32쎯	-9.85496
ren❂1쎯shi❄18쎯	-9.85498
na❄15쎯	-9.85498
lian❄17쎯	-9.85501
fei❁19쎯hang❂16쎯	-9.85596
luan❃0쎯	-9.85596
jin❄61쎯xiu❁11쎯	-9.85611
le❄3쎯dui❄33쎯	-9.85616
jie❄24쎯	-9.85693
bao❄11쎯	-9.8573
ceng❂6쎯jing❁27쎯	-9.8575
kuo❄15쎯	-9.85782
fang❃15쎯zhi❁39쎯	-9.8582
jun❁2쎯dui❄33쎯	-9.85862
guan❃9쎯li❃15쎯、	-9.85881
(쎃)	-9.85911
hui❄79쎯	-9.85918
mi❂15쎯	-9.85951
she❂9쎯	-9.85999
xian❄35쎯	-9.86057
bing❃2쎯	-9.86077
쎂쎀쎁쎀	-9.8608
mo❂12쎯xing❂9쎯	-9.86086
bing❃9쎯	-9.86408
ji❃13쎯	-9.8645
ping❂17쎯heng❂14쎯	-9.86481
tui❃7쎯	-9.86543
-쎈	-9.86654
lei❄16쎯si❄10쎯	-9.86697
li❃15쎯jie❃6쎯	-9.86762
ceng❂3쎯ci❄16쎯	-9.86774
sui❂9쎯zhao❁6쎯	-9.86833
ba❂11쎯	-9.86853
de❅0쎯mian❄2쎯	-9.86868
you❄13쎯ming❂7쎯	-9.86912
fang❁4쎯mi❃19쎯.	-9.86919
xun❂16쎯huan❂20쎯	-9.86969
cai❄6쎯	-9.86976
zuo❄5쎯zhan❄10쎯	-9.8702
fa❃2쎯yuan❄18쎯	-9.87027
("	-9.87028
jiang❄25쎯di❁9쎯	-9.87031
yi❁10쎯shou❃6쎯	-9.87055
fen❁4쎯chi❁23쎯	-9.87064
mao❁0쎯	-9.87096
he❄26쎯	-9.87191
di❄45쎯쎁	-9.87231
chong❂11쎯zi❃7쎯	-9.87234
wei❂38쎯xiu❁11쎯	-9.87283
xian❄61쎯	-9.87302
쎆gan❄3쎯	-9.87309
.zhe❄14쎯	-9.87325
e❂11쎯	-9.87342
liu❂20쎯dong❄13쎯	-9.874
31쎯	-9.87405
xiang❄12쎯	-9.87421
hua❂14쎯dong❁3쎯	-9.87436
xian❂54쎯	-9.87474
cai❂2쎯neng❂2쎯	-9.87485
zhi❄30쎯cheng❂29쎯	-9.87541
lan❂13쎯zhou❁9쎯	-9.8757
nan❂6쎯fang❁4쎯	-9.87576
chui❂5쎯	-9.87607
gou❃3쎯	-9.87677
duo❁5쎯jia❁13쎯	-9.87722
liao❂37쎯	-9.8775
di❄45쎯liu❄3쎯	-9.87788
wai❄0쎯guo❂11쎯	-9.87797
쎆쎁	-9.87799
ban❄13쎯	-9.87805
ge❄3쎯gan❄3쎯	-9.87829
wan❃26쎯	-9.87846
yong❄3쎯lai❂16쎯	-9.87854
쎁/	-9.87888
li❄141쎯ben❄4쎯	-9.87897
de❅0쎯zhi❃13쎯	-9.87903
su❁10쎯lian❂53쎯	-9.87927
shi❄20쎯	-9.87949
yi❂58쎯	-9.87981
tan❁12쎯	-9.88003
you❃11쎯《	-9.88074
쎈쎄	-9.88093
zh	-9.88101
yang❂35쎯xian❄22쎯	-9.88124
fu❃34쎯	-9.88125
jian❃18쎯shao❃2쎯	-9.88136
gu❄23쎯	-9.88177
hei❁3쎯long❂63쎯ji	-9.88198
zai❄5쎯ci❃2쎯	-9.88275
xing❄12쎯fu❂60쎯	-9.88278
shui❃0쎯ku❄6쎯	-9.88325
dian❄23쎯ya❁7쎯	-9.88343
shu❄27쎯	-9.88462
yue❁1쎯쎁	-9.88486
zeng❁2쎯zhang❃6쎯	-9.88509
xing❄13쎯han❄20쎯	-9.8859
shi❄89쎯	-9.88616
쎈쎉	-9.88631
y	-9.88639
ang❁10쎯sheng❃9쎯	-9.88667
.”《	-9.88712
chan❂33쎯	-9.88748
.cong❂6쎯	-9.88856
shu❁12쎯	-9.88947
kuai❄18쎯le❄3쎯	-9.89055
쎀쎀	-9.89063
dao❃2쎯ru❄2쎯	-9.89085
bai❄15쎯	-9.89097
fa❁1쎯zhan❃11쎯,	-9.89114
nian❂6쎯lai❂16쎯,	-9.89117
ji❁48쎯zhi❄30쎯	-9.89177
xiao❄14쎯yi❄165쎯	-9.89194
li❃15쎯xue❂6쎯	-9.89213
chi❁23쎯zi❃7쎯	-9.89228
gong❄3쎯xiang❃3쎯	-9.89248
yuan❂53쎯	-9.8932
che❁8쎯liang❄10쎯	-9.89343
wei❂51쎯	-9.89394
jiao❁8쎯jie❄29쎯	-9.89431
cai❂9쎯jing❁27쎯	-9.89462
de❅2쎯gao❁20쎯	-9.89471
xiang❁9쎯lian❂69쎯	-9.89524
.tang❂13쎯	-9.89583
ci❂20쎯	-9.89639
쎆.	-9.89642
shen❁40쎯fen❄2쎯	-9.89669
si❁24쎯tan❃4쎯	-9.89711
zai❁1쎯pei❂3쎯	-9.89719
fan❄17쎯	-9.8981
❂22쎯xiao❃2쎯zu❃7쎯	-9.89889
ying❂59쎯	-9.89953
wo❄16쎯	-9.90017
ping❂36쎯gu❁4쎯	-9.90045
nan❂6쎯chang❁6쎯	-9.90095
shi❄32쎯ji❂83쎯	-9.90128
.ben❃5쎯shu❁8쎯	-9.90205
mo❂12쎯ni❃11쎯	-9.90252
lv❃14쎯hang❂16쎯	-9.90253
xian❄47쎯lu❄70쎯	-9.90272
qiao❃3쎯	-9.90292
qi❄20쎯,	-9.90297
jin❄61쎯cheng❂52쎯	-9.9032
cao❂10쎯	-9.90326
jie❄13쎯	-9.90357
쎅fen❁4쎯zhong❁29쎯	-9.90377
chao❂6쎯xian❁57쎯	-9.90398
shou❃6쎯jie❄19쎯	-9.90408
han❄20쎯ping❂17쎯	-9.90409
ben❃9쎯	-9.90448
zhong❁4쎯wai❄0쎯	-9.90448
,shi❄45쎯yi❁10쎯	-9.90499
jie❃6쎯shi❄89쎯	-9.90543
ji❃22쎯	-9.90613
22쎯	-9.90615
zhi❁16쎯shi❄45쎯	-9.90685
,fu❂94쎯	-9.90773
kuang❄1쎯	-9.90813
gu❃14쎯dian❃5쎯	-9.90841
.ceng❂6쎯ren❂4쎯	-9.90847
bu❃9쎯	-9.90893
xia❄3쎯de❅2쎯	-9.90896
ji❁48쎯qi❄20쎯	-9.90919
xi❂12쎯	-9.9092
tian❂8쎯	-9.90928
ying❃11쎯pian❁5쎯	-9.9094
쎀×	-9.90982
li❃26쎯,	-9.90986
gai❃2쎯zao❄16쎯	-9.91016
na❄11쎯ke❁16쎯	-9.91191
yi❃10쎯bai❃9쎯	-9.91195
pei❄19쎯ge❃0쎯	-9.91206
dong❄13쎯man❄13쎯	-9.91251
lv❄11쎯	-9.91292
.쎂、	-9.91352
,xing❂11쎯	-9.91358
guan❄23쎯	-9.9137
you❂26쎯	-9.9154
zhi❂25쎯jing❄17쎯	-9.91568
xing❁7쎯ji❂83쎯	-9.91568
shen❂2쎯bi❄100쎯	-9.91604
can❁13쎯yin❃37쎯	-9.91652
you❁5쎯hua❁1쎯	-9.91671
fu❄26쎯	-9.91723
23쎯	-9.91835
gong❁17쎯ren❂1쎯	-9.9186
zhu❃4쎯jiao❃57쎯	-9.91924
lin❂43쎯	-9.9195
dong❁3쎯jing❁3쎯	-9.91977
cui❁16쎯	-9.91986
nian❂6쎯jian❁85쎯	-9.91987
쎅ping❂17쎯fang❁4쎯	-9.91988
gong❁11쎯xiao❄14쎯	-9.91997
쎂쎀shi❄15쎯ji❄94쎯	-9.92011
xing❄13쎯、	-9.92013
쎈쎃	-9.9202
quan❃3쎯	-9.92022
ji❁21쎯gan❄3쎯	-9.92077
xiao❄14쎯lv❄15쎯	-9.92135
shui❂1쎯	-9.92168
ying❄7쎯	-9.9221
xing❃5쎯	-9.92212
qing❁10쎯shui❃0쎯	-9.92324
쎉.	-9.92337
쎈쎇	-9.92423
chan❃12쎯quan❂12쎯	-9.92445
27쎯	-9.92457
shu❃16쎯	-9.92536
,ren❂4쎯	-9.92552
shen❁23쎯	-9.92563
cong❂5쎯shu❁8쎯	-9.92576
jue❂33쎯ce❄26쎯	-9.92585
gao❁20쎯xiao❄14쎯	-9.92621
yi❁10쎯duan❄7쎯	-9.9266
tou❄4쎯ming❂8쎯	-9.92663
shi❄18쎯gu❄12쎯	-9.92677
jian❄17쎯shen❁40쎯	-9.92699
han❄33쎯yu❃44쎯	-9.92723
jian❁52쎯ce❄22쎯	-9.92743
쎂쎀쎀쎈	-9.92768
jian❃19쎯	-9.92802
shui❄11쎯wu❄12쎯	-9.92808
gan❁7쎯long❁쎯	-9.9285
ji❁48쎯gou❃2쎯.	-9.92858
gong❁10쎯yi❄165쎯	-9.92863
zeng❁2쎯jiang❄9쎯	-9.92865
jian❁44쎯	-9.92905
yi❁10쎯zhi❄89쎯	-9.92961
zhong❁4쎯xin❁7쎯、	-9.92969
mu❄24쎯	-9.92987
po❂3쎯	-9.93027
chang❃4쎯suo❃11쎯	-9.93027
chu❁3쎯le❅0쎯	-9.93063
beng❄6쎯	-9.93078
,wo❃3쎯们	-9.93104
da❄0쎯dui❄33쎯	-9.93112
gou❃2쎯zao❄16쎯	-9.93174
hua❁1쎯、	-9.93183
ming❂7쎯:	-9.93191
gao❁20쎯duan❁4쎯	-9.93217
gong❁10쎯yu❄35쎯	-9.93287
hao❄23쎯	-9.93318
pei❄19쎯jian❄15쎯	-9.93359
lin❂51쎯	-9.93366
yue❄25쎯	-9.93375
jian❁52쎯cha❂12쎯	-9.93388
fo❂2쎯shan❁11쎯	-9.93399
,yin❁11쎯wei❄14쎯	-9.93411
,qie❃쎯	-9.93416
zhu❄63쎯de❅0쎯	-9.93471
chun❂11쎯	-9.93598
쎀쎇	-9.93621
,shu❃5쎯	-9.93631
zhuang❄5쎯,	-9.93662
nai❄2쎯	-9.93693
p	-9.93709
kuo❄7쎯da❄0쎯	-9.9371
ben❁2쎯	-9.93714
쎀쎂	-9.93761
ya❂7쎯	-9.93834
chun❂23쎯	-9.93836
jia❁13쎯ji❂114쎯	-9.93859
xue❂6쎯li❄62쎯,	-9.93935
hua❁11쎯xu❄36쎯	-9.94011
wu❃9쎯nian❂6쎯	-9.94021
쎀쎀mo❄16쎯yuan❂10쎯	-9.94047
er❄5쎯nian❂6쎯	-9.94053
tang❂13쎯dai❄9쎯	-9.94054
qing❄3쎯yin❁44쎯	-9.94068
suo❁15쎯	-9.94101
pin❂15쎯dao❄24쎯	-9.94107
yu❂35쎯bai❃9쎯	-9.94132
.dan❄10쎯	-9.94176
yi❁12쎯ju❁18쎯	-9.94284
qi❂104쎯	-9.94286
gui❁28쎯	-9.94291
》deng❃2쎯.	-9.94417
dong❄11쎯	-9.94432
/////.",(){(	-9.94458
rong❂50쎯ge❃0쎯	-9.94462
xie❃8쎯guan❃9쎯	-9.94494
쎁쎀쎀쎀쎀쎈쎀쎁);});	-9.94494
zhi❃19쎯biao❁14쎯	-9.94498
wei❄14쎯zhun❃0쎯..	-9.94512
u❄14쎯le❄3쎯bu❄38쎯	-9.94578
yi❄109쎯si❁22쎯	-9.94581
tu❄1쎯	-9.946
zu❂11쎯qiu❂36쎯ju	-9.94617
shui❃0쎯ni❂15쎯	-9.94649
geng❁6쎯hao❃0쎯	-9.94715
hui❄27쎯zhang❃6쎯	-9.94722
jian❃48쎯	-9.94737
fa❁1쎯qi❃34쎯	-9.94739
,ba❃1쎯	-9.94742
wu❃37쎯si❄15쎯	-9.94788
fang❃18쎯	-9.94839
hua❄18쎯mian❄2쎯	-9.9487
pi❂11쎯lin❂43쎯	-9.94969
shao❃2쎯nv❃0쎯	-9.94984
fu❃34쎯dao❃5쎯	-9.95009
diao❄17쎯wei❄18쎯	-9.95014
bi❃20쎯li❄51쎯	-9.95022
jing❃27쎯	-9.95035
ci❄23쎯	-9.95068
fu❄41쎯mu❃6쎯	-9.95068
she❄22쎯qiu❂19쎯	-9.95073
bie❂4쎯ming❂7쎯:	-9.95076
diao❄5쎯	-9.95079
cong❂5쎯	-9.95169
huan❃7쎯	-9.95198
guang❁2쎯xue❂6쎯	-9.95222
jian❁25쎯ta❄26쎯	-9.95229
chou❁5쎯	-9.95282
dao❃5쎯zhi❄89쎯	-9.95287
쎉쎂	-9.9531
duo❂3쎯	-9.95401
qi❂48쎯	-9.95419
bian❃4쎯	-9.95474
chu❁4쎯ji❂83쎯	-9.95477
mo❂12쎯fan❄22쎯	-9.95547
da❄0쎯jie❁30쎯	-9.95547
bu❄23쎯ju❂23쎯	-9.95621
.song❄4쎯	-9.95661
qing❁10쎯hua❂14쎯	-9.95743
men❂19쎯hu❄26쎯	-9.95751
xie❂48쎯	-9.9579
guan❁16쎯cha❂12쎯	-9.95792
hu❄14쎯dong❄13쎯	-9.9586
ta❁6쎯们	-9.95862
ke❁16쎯、	-9.95866
yu❄115쎯	-9.95926
zu❁0쎯	-9.95953
bu❂0쎯hui❄27쎯	-9.9599
.”qing❁10쎯	-9.96011
gong❁10쎯jiao❁8쎯	-9.96025
shu❁38쎯kuo❄15쎯	-9.96043
he❂52쎯	-9.96044
ru❄2쎯xuan❃8쎯	-9.96053
ben❄4쎯zhi❄30쎯	-9.96057
tui❁1쎯jian❄58쎯	-9.96071
niao❄2쎯	-9.9608
yan❂31쎯dan❄38쎯	-9.96094
zhang❃6쎯sha❁10쎯	-9.96109
sheng❁16쎯cun❂1쎯	-9.96121
쎁쎉쎈쎀nian❂6쎯	-9.96128
jie❂67쎯shu❄27쎯	-9.96162
jin❁26쎯	-9.96265
ti❁6쎯	-9.96357
wu❃9쎯shi❂10쎯	-9.96407
zhu❂18쎯	-9.9642
zhun❃0쎯que❄26쎯	-9.96433
ru❂7쎯	-9.96437
gui❁35쎯	-9.96475
fu❂62쎯	-9.96479
mian❂22쎯	-9.96498
meng❃3쎯	-9.96512
yi❁12쎯tuo❁6쎯	-9.96535
쎀쎄	-9.96548
ping❂17쎯yuan❂12쎯	-9.96613
xue❂6쎯wei❄15쎯.	-9.96625
gao❁20쎯ceng❂3쎯	-9.96636
huan❁7쎯	-9.96662
xi❂22쎯	-9.96773
zhou❁17쎯	-9.96788
,“	-9.96829
bang❃2쎯	-9.96889
hui❄51쎯	-9.96952
lou❄2쎯	-9.96983
wang❄3쎯	-9.97003
,yi❁10쎯ban❁15쎯	-9.97068
2쎯xue❂6쎯yuan❄18쎯	-9.9712
、gao❁20쎯	-9.9713
jiang❁10쎯nan❂6쎯	-9.9714
zhang❃6쎯、	-9.97141
xia❄3쎯zai❄8쎯	-9.9717
fa❃2쎯ren❂1쎯	-9.97219
wu❃11쎯	-9.97257
zhan❃11쎯jian❁25쎯	-9.97283
16쎯	-9.97367
hu❄14쎯	-9.97419
ban❄4쎯li❃15쎯	-9.97454
zhong❁4쎯wen❂5쎯m	-9.97455
cun❄2쎯	-9.97463
b	-9.97518
yi❄109쎯shi❂35쎯	-9.97593
fang❃6쎯	-9.97594
.’	-9.97631
ji❂75쎯	-9.97642
san❃7쎯wen❂5쎯	-9.97657
jiang❄22쎯you❂24쎯	-9.97703
mi❃19쎯.	-9.97707
zu❂11쎯qiu❂36쎯j	-9.97731
shen❁23쎯qing❃9쎯	-9.97748
la❄28쎯jiao❁21쎯	-9.97758
xiong❂2쎯hou❄6쎯	-9.97784
di❄26쎯guo❂11쎯	-9.97805
liang❃5쎯ce❄8쎯	-9.97822
gui❁46쎯	-9.9783
ji❁54쎯	-9.97832
quan❂6쎯sheng❃9쎯	-9.97896
cu❄30쎯	-9.97921
yao❄11쎯	-9.97939
kuai❄18쎯jie❂42쎯	-9.97948
san❁1쎯da❄0쎯	-9.98019
ta❁5쎯de❅2쎯	-9.98029
gai❁13쎯cun❁1쎯	-9.98062
kan❁3쎯wu❄36쎯	-9.98064
ban❄4쎯fa❃2쎯	-9.98066
bu❄38쎯fu❄28쎯	-9.9807
fa❁1쎯yu❄93쎯	-9.98083
zhao❄18쎯pian❁5쎯	-9.98084
po❄17쎯huai❄0쎯	-9.98141
wu❃15쎯	-9.98172
xin❁10쎯qu❁15쎯	-9.98183
dian❄23쎯lu❄70쎯	-9.98216
xian❄51쎯	-9.98233
zi❃7쎯,	-9.98324
zai❃4쎯	-9.9838
qi❄23쎯	-9.98403
zhao❃3쎯dao❄3쎯	-9.9842
쎇-	-9.98433
mian❃10쎯yi❄159쎯	-9.98465
wang❄2쎯	-9.98478
la❄28쎯	-9.98486
si❄17쎯shi❂10쎯	-9.98535
feng❄2쎯huang❂16쎯	-9.9856
gan❁16쎯zao❄6쎯	-9.98663
nan❂14쎯zi❃7쎯	-9.98702
long❄5쎯	-9.98781
,dang❁4쎯	-9.98806
jin❄20쎯	-9.98856
shou❃6쎯pi❁11쎯	-9.98856
jian❃36쎯cha❂12쎯	-9.98901
lian❃12쎯	-9.9892
gong❁10쎯she❄22쎯	-9.98974
you❁5쎯mei❃13쎯	-9.98977
25쎯	-9.98993
sa❁2쎯	-9.99006
.quan❂6쎯cun❁1쎯	-9.99066
du❁8쎯	-9.99074
qiu❂36쎯dui❄33쎯	-9.99127
shou❃4쎯duan❄7쎯	-9.99134
yi❄226쎯	-9.99185
ling❄0쎯yi❁10쎯	-9.99283
jia❁7쎯re❄1쎯	-9.99289
jin❄38쎯	-9.99301
qi❃13쎯dong❄13쎯	-9.99303
wu❄48쎯	-9.99387
teng❂13쎯	-9.99403
shi❄31쎯fu❄28쎯	-9.99413
shang❃1쎯xia❄3쎯	-9.99434
yang❂35쎯guang❁2쎯	-9.99505
mo❄75쎯	-9.99524
ji	-9.99535
xian❃24쎯zhao❂쎯	-9.99589
nian❂6쎯ling❂114쎯	-9.99613
shu❁44쎯	-9.99647
cheng❂61쎯xin❄8쎯	-9.99665
쎁쎉쎇쎈nian❂6쎯	-9.99692
jian❁25쎯she❄29쎯	-9.997
24쎯	-9.99708
mai❄16쎯ke❄6쎯	-9.99709
,neng❂2쎯	-9.99712
li❂98쎯	-9.99765
fang❄0쎯zai❄5쎯	-9.99766
pan❄2쎯	-9.99784
you❃11쎯:	-9.9979
ding❄15쎯	-9.99795
쎇쎁	-9.99811
cui❄32쎯	-9.99835
po❄12쎯	-9.99852
xi❁124쎯	-9.99871
shu❃12쎯	-9.99904
쎂쎀쎀쎇	-9.99946
zhi❁13쎯hou❄7쎯,	-9.99949
shang❃1쎯you❃11쎯	-10.0001
jiang❃8쎯.	-10.0001
jie❁32쎯	-10.0006
쎈gan❄3쎯	-10.0007
you❁10쎯	-10.0011
mo❂12쎯ju❄16쎯	-10.0013
da❄0쎯yin❂10쎯	-10.0022
fan❂35쎯hua❂14쎯	-10.0025
쎀쎉	-10.0028
niang❂0쎯	-10.003
쎉쎇	-10.0031
쎉쎄	-10.0037
fu❃34쎯zhu❄20쎯	-10.0038
zhong❁4쎯yao❄12쎯	-10.0045
bu❂0쎯shao❃2쎯	-10.0045
.ceng❂6쎯	-10.0046
ying❁17쎯gai❁13쎯	-10.0046
ji❂74쎯	-10.005
shan❁11쎯xian❄22쎯	-10.005
wan❁7쎯	-10.0052
ji❄120쎯	-10.0052
쎂쎀쎁쎂	-10.0057
kuang❂3쎯	-10.0065
hu❁17쎯xi❁51쎯	-10.0071
mi❄45쎯	-10.0073
yi❁10쎯chang❃4쎯	-10.0074
jian❄29쎯yi❄214쎯	-10.0076
shi❂13쎯qiu❁9쎯	-10.0078
shi❄45쎯“	-10.0082
zai❄5쎯zhi❂32쎯	-10.0084
si❄17쎯da❄0쎯	-10.0099
dong❃8쎯	-10.0099
/쎃	-10.01
cha❁5쎯	-10.01
fen❄2쎯	-10.0106
,ta❁3쎯们	-10.0108
qu❁15쎯,	-10.0109
dang❄23쎯	-10.0112
quan❂6쎯shu❁8쎯	-10.0117
wo❃3쎯们de❅2쎯	-10.0119
、zhong❁4쎯guo❂11쎯	-10.0122
jiu❄23쎯du❂34쎯	-10.0126
ju❃9쎯	-10.0128
yi❁10쎯tao❄1쎯	-10.0133
zheng❄12쎯fa❃2쎯	-10.0134
,hao❂6쎯	-10.0138
chuang❄1쎯shi❃9쎯	-10.0146
xia❂39쎯qu❁15쎯	-10.0146
zhao❄9쎯	-10.0153
feng❄7쎯	-10.0156
hou❄7쎯lai❂16쎯	-10.0158
chong❂17쎯shi❄71쎯	-10.0161
de❅0쎯tu❂14쎯	-10.0162
ao❄25쎯da❄0쎯	-10.0163
chuan❂4쎯ji❁36쎯	-10.0164
zheng❁22쎯que❄26쎯	-10.0167
hun❂21쎯	-10.0168
hu❄30쎯li❃15쎯	-10.0171
zai❄5쎯jiao❄18쎯	-10.0173
yu❄109쎯	-10.0178
gao❁20쎯dang❄12쎯	-10.0178
,que❄11쎯	-10.0179
xue❂14쎯	-10.018
쎁쎂쎈	-10.018
si❄17쎯nian❂6쎯	-10.0181
shi❂39쎯wu❄36쎯	-10.019
bai❃4쎯	-10.0191
qi❃25쎯xiang❄20쎯	-10.0192
mai❄12쎯	-10.0194
de❅0쎯chan❃12쎯	-10.0194
hao❂25쎯hua❂14쎯	-10.0198
di❄45쎯쎂	-10.0199
ying❂58쎯de❂7쎯	-10.0199
zuan❁4쎯	-10.0202
hui❂1쎯:“	-10.0203
fu❃16쎯	-10.0206
ji❁48쎯dian❄23쎯	-10.0208
pa❄1쎯	-10.0209
huo❃2쎯che❁8쎯	-10.0213
&;	-10.0219
po❄21쎯	-10.0221
bo❁8쎯	-10.0221
mou❃2쎯xie❁3쎯	-10.0227
qian❂8쎯hou❄7쎯	-10.0229
geng❁17쎯	-10.0237
wen❁6쎯quan❂17쎯	-10.024
zhen❁44쎯	-10.0249
wei❁12쎯yuan❂15쎯、	-10.0253
yu❄28쎯	-10.0259
bie❂4쎯shu❄18쎯	-10.026
ji❄117쎯yi❄104쎯	-10.0262
pei❂3쎯	-10.0263
ling❂34쎯ren❂1쎯	-10.0263
zhong❁4쎯xiao❃2쎯	-10.0265
zang❄7쎯	-10.0266
chen❂38쎯	-10.0272
shi❂10쎯si❄17쎯	-10.0273
na❃3쎯xie❁3쎯	-10.0275
bao❄15쎯	-10.0278
jiao❄35쎯wei❄14쎯	-10.0282
gu❃14쎯cheng❂17쎯	-10.0286
qu❁17쎯	-10.0294
shi❁33쎯ge❁16쎯	-10.0294
ci❂15쎯	-10.0298
xia❄3쎯she❄29쎯	-10.0304
:쎂	-10.0307
쎁쎉쎅쎈nian❂6쎯	-10.0308
qing❄14쎯li❄58쎯	-10.0308
ang❂7쎯	-10.0311
huo❄56쎯wu❄36쎯	-10.0315
qing❁7쎯	-10.0318
2쎯guan❃9쎯li❃15쎯	-10.032
(쎂)	-10.0323
zhong❁4쎯you❃11쎯	-10.0323
쎂쎀쎁쎁	-10.0329
si❁24쎯·	-10.0331
tian❁7쎯jia❁7쎯	-10.0336
kou❄7쎯	-10.0336
쎁쎉쎈쎁nian❂6쎯	-10.0336
xi❁143쎯cang❂5쎯	-10.0338
zhu❃4쎯ren❂1쎯	-10.0338
yin❃11쎯	-10.0339
lan❄6쎯	-10.0342
lei❃25쎯	-10.0344
bang❄9쎯	-10.0347
yi❁12쎯fa❃2쎯	-10.0349
tu❂38쎯	-10.0351
cai❃4쎯se❄29쎯	-10.0355
ji❂37쎯shi❂20쎯	-10.0359
qi❄20쎯、	-10.0365
she❄29쎯zai❄5쎯	-10.0367
zhong❁4쎯deng❃2쎯	-10.0367
di❄27쎯	-10.0375
jian❄85쎯pan❂10쎯	-10.0377
qun❂6쎯dao❃7쎯	-10.0381
yi❂28쎯	-10.0381
guan❁16쎯yin❂10쎯	-10.0382
di❂17쎯ren❂1쎯	-10.0382
fu❄32쎯	-10.0386
feng❁52쎯	-10.0387
sui❂9쎯ji❁48쎯	-10.0388
nu❄2쎯	-10.0391
lan❂25쎯	-10.0393
gan❃6쎯jue❂104쎯	-10.0403
man❃4쎯yi❄109쎯	-10.0403
ming❂8쎯xing❁7쎯	-10.0403
xie❂14쎯zhu❄20쎯	-10.0404
chui❁1쎯	-10.0404
chuan❄0쎯	-10.0405
ji❄95쎯cheng❂30쎯	-10.0405
chun❁6쎯qiu❁16쎯	-10.0409
bi❄73쎯	-10.0413
xiang❃5쎯	-10.0414
kong❄1쎯gu❃42쎯	-10.0414
dao❄24쎯de❂9쎯	-10.0415
che❃7쎯	-10.0415
xiang❃3쎯you❃11쎯	-10.0422
,de❅0쎯chu❄17쎯	-10.043
guo❂11쎯fang❂4쎯	-10.0431
ong❂21쎯liang❂19쎯	-10.0436
qu❁49쎯dong❄13쎯	-10.0438
jia❄9쎯	-10.0438
,kuo❄15쎯yi❂31쎯	-10.0439
gan❁7쎯	-10.0444
zhao❃3쎯	-10.0448
쎈쎁	-10.045
qing❁16쎯song❁11쎯	-10.0452
cheng❂29쎯de❅2쎯	-10.0467
zuo❄5쎯chu❁3쎯	-10.0471
duo❁5쎯yuan❂10쎯	-10.0475
sui❁12쎯ran❂12쎯	-10.0478
jian❁85쎯,	-10.0479
zhuan❄6쎯xie❃4쎯	-10.048
san❁1쎯guo❂11쎯	-10.0483
,you❂29쎯yu❂35쎯	-10.0488
,wo❃3쎯	-10.0488
zhuan❁1쎯zhao❂쎯	-10.0489
zha❂8쎯	-10.0496
ji❂35쎯ke❃4쎯.	-10.0497
yuan❂12쎯zi❃7쎯	-10.0499
lin❂19쎯de❅0쎯	-10.0501
bei❁6쎯	-10.0503
chu❄29쎯mu❄20쎯	-10.0508
fang❂2쎯wu❁8쎯	-10.0509
bai❃9쎯xing❄9쎯	-10.051
xiu❁11쎯gai❃2쎯	-10.0511
nian❂6쎯du❄8쎯	-10.0512
ji❁34쎯ceng❂3쎯	-10.0512
le❅0쎯“	-10.0514
an❄16쎯li❄51쎯	-10.0517
dang❃2쎯de❅2쎯	-10.0519
huai❄0쎯	-10.0521
guan❄31쎯	-10.0522
jiao❁20쎯shou❄9쎯、	-10.0525
guai❄7쎯shou❄3쎯	-10.0525
❃6쎯fang❄0쎯jun❁2쎯	-10.0531
쎂쎂쎀	-10.0531
쎂쎀쎀쎅	-10.0539
dou❄18쎯fu❃28쎯	-10.0541
쎁쎉쎇쎉nian❂6쎯	-10.0543
-쎇	-10.0543
zhuan❃4쎯huan❄21쎯	-10.0544
(쎂	-10.0547
gui❃35쎯dao❄24쎯	-10.0547
yong❄3쎯tu❂38쎯	-10.0548
ji❄117쎯zai❄8쎯	-10.0551
21쎯	-10.0556
ken❃6쎯	-10.0556
ning❂10쎯xia❄6쎯	-10.0557
:쎁.	-10.0558
zhang❁4쎯)	-10.0562
ge❄3쎯ji❂83쎯	-10.0562
la❄23쎯shi❂13쎯	-10.0563
ㄨ	-10.0564
bing❁6쎯qie❃쎯	-10.0567
pi❁	-10.0572
gui❁35쎯lv❄9쎯	-10.0573
-쎉	-10.0578
peng❂8쎯	-10.058
sheng❁16쎯yu❄93쎯	-10.0581
ba❄25쎯	-10.0584
ji❂67쎯	-10.0588
shu❄26쎯shi❂10쎯	-10.0591
gong❁10쎯zhu❃4쎯	-10.0593
ren❂1쎯min❂22쎯jie	-10.0595
ba❁16쎯xi❁143쎯	-10.0603
zi❁45쎯xun❄26쎯	-10.0614
hu❂43쎯	-10.0616
an❄19쎯	-10.0617
xi❁65쎯la❄20쎯	-10.063
chang❂14쎯	-10.064
ji❄59쎯qiao❃3쎯	-10.0641
sun❃4쎯	-10.0642
""	-10.0645
zong❃5쎯tong❃9쎯	-10.0648
,geng❁6쎯	-10.0651
,fang❄0쎯ru❄2쎯	-10.0653
().	-10.0655
shen❄11쎯zhi❄88쎯	-10.066
xing❄13쎯ge❂29쎯	-10.0664
qiu❂19쎯jie❂67쎯	-10.0666
쎈-	-10.0669
nong❂5쎯hu❄26쎯	-10.0672
han❄33쎯zu❂9쎯,	-10.0681
zou❃0쎯xiang❄6쎯	-10.0682
she❄17쎯	-10.0684
gu❄23쎯ke❄14쎯	-10.0685
.ju❁18쎯	-10.0695
xun❂14쎯	-10.0699
shu❁8쎯ji❄117쎯.	-10.0704
cai❂3쎯zhi❄104쎯	-10.0706
min❂22쎯ying❂45쎯	-10.0707
ˋ	-10.0714
wu❃28쎯zhuang❁10쎯	-10.072
lv❄12쎯	-10.0728
yao❄12쎯pin❃0쎯	-10.0731
쎂쎀쎀쎉	-10.0737
tu❁4쎯	-10.074
wei❁10쎯xian❃46쎯	-10.0743
gou❃2쎯	-10.0745
qi❃25쎯ben❄4쎯	-10.0746
hui❁12쎯	-10.0747
jing❄44쎯tou❂4쎯	-10.0748
man❄13쎯	-10.075
shou❄5쎯hou❄7쎯	-10.0751
si❃0쎯wang❂0쎯	-10.0752
yi❁10쎯dian❃11쎯	-10.0759
geng❁6쎯xin❁10쎯	-10.0759
jiao❃22쎯ban❄11쎯	-10.0763
xiong❂1쎯	-10.0766
.qing❁10쎯	-10.0766
zhuo❂8쎯yue❄46쎯	-10.0767
bi❄100쎯mi❄24쎯	-10.0767
tong❁5쎯yong❄3쎯	-10.0769
di❄45쎯qi❁9쎯	-10.0775
cheng❁18쎯	-10.078
guan❁4쎯jie❂69쎯	-10.0781
zai❁4쎯	-10.0785
ji❁64쎯lei❃25쎯	-10.079
ci❁2쎯ji❁54쎯	-10.0794
yu❃44쎯wen❂5쎯	-10.0796
tong❁5쎯dao❄24쎯	-10.08
xuan❂9쎯	-10.0809
huan❄18쎯	-10.0814
zhi❁13쎯qian❂8쎯	-10.0817
xian❄37쎯wei❄14쎯	-10.0819
xing❂11쎯rong❂21쎯	-10.0822
ba❁16쎯li❂98쎯	-10.0827
qi❂117쎯quan❂6쎯	-10.0833
zhuan❁1쎯zhu❄31쎯	-10.0838
guo❄2쎯qu❄6쎯	-10.084
ju❄45쎯	-10.084
chui❂5쎯zhi❂25쎯	-10.0843
zong❃5쎯jie❂67쎯	-10.0845
hai❃1쎯wai❄0쎯	-10.0847
chu❃3쎯	-10.0849
ji❁34쎯bu❄38쎯	-10.085
shi❂35쎯bie❂4쎯	-10.0852
xun❂11쎯zhao❃3쎯	-10.0854
쎈ping❂17쎯fang❁4쎯	-10.0855
ji❄117쎯zhe❃2쎯	-10.0855
huang❂56쎯he❂37쎯	-10.0855
zhong❁4쎯xin❁7쎯,	-10.0855
lu❄83쎯jun❁2쎯	-10.0857
쎂쎀쎀쎄	-10.0859
jia❁13쎯peng❂7쎯	-10.0863
bao❄10쎯kan❁3쎯	-10.0869
zui❄4쎯wei❄14쎯	-10.0871
zhang❃6쎯du❄8쎯	-10.0873
,cu❄9쎯jin❄61쎯	-10.0876
shan❁13쎯	-10.0877
wu❄26쎯	-10.0883
gan❄3쎯ben❄4쎯	-10.0883
yu❄42쎯	-10.0884
wo❁5쎯	-10.0888
yi❁13쎯sheng❁16쎯	-10.0895
fei❁15쎯zhou❁11쎯	-10.0901
xia❄3쎯xia❂39쎯	-10.0903
tan❃4쎯	-10.0914
qi❁15쎯	-10.092
you❁11쎯jiu❃1쎯	-10.092
”shi❄45쎯	-10.0921
jia❁13쎯,	-10.0926
li❄58쎯yi❄165쎯	-10.0926
xie❁3쎯	-10.0932
wei❁10쎯	-10.0933
쎁쎈쎀	-10.0935
zhi❁39쎯	-10.0939
fan❃4쎯	-10.0941
ran❂13쎯	-10.0946
xiao❁51쎯	-10.0948
yang❃6쎯sheng❁16쎯	-10.0948
you❁5쎯yue❄46쎯	-10.0952
―	-10.0952
er❂16쎯qie❃쎯	-10.0953
yu❃24쎯zhou❄16쎯	-10.0953
dian❄23쎯zhan❄17쎯	-10.0953
zai❄4쎯ci❄16쎯	-10.096
gu❃14쎯lao❃17쎯	-10.096
jie❂42쎯	-10.096
xi❁51쎯yin❃14쎯	-10.0964
hu❄36쎯	-10.0964
liu❂28쎯xue❂6쎯	-10.0969
zheng❃4쎯li❃15쎯	-10.097
le❅0쎯yi❁10쎯	-10.0974
lu❄35쎯yin❁44쎯	-10.098
ye❄44쎯ben❄4쎯	-10.0981
li❄59쎯xue❂6쎯	-10.0983
man❄11쎯	-10.0989
쎇쎀쎀	-10.0996
ge❄3쎯jie❄29쎯	-10.0998
tan❂20쎯	-10.0998
、xin❁10쎯	-10.0999
cun❁1쎯,	-10.1009
liang❂19쎯:	-10.1012
dian❄23쎯liu❂20쎯	-10.1013
mu❄22쎯lu❄35쎯	-10.1013
ta❁3쎯们de❅2쎯	-10.1017
ge❄3쎯guo❂11쎯	-10.1021
.you❃11쎯	-10.1024
shou❁1쎯ji❂114쎯	-10.1026
ce❄26쎯lve❄11쎯	-10.1027
lu❄53쎯	-10.1032
ceng❂6쎯zai❄5쎯	-10.1033
ming❂7쎯ren❂1쎯	-10.1034
liang❂19쎯de❅2쎯	-10.1036
ku❄18쎯	-10.1036
xi❂9쎯guan❄12쎯	-10.1039
du❂34쎯shu❁8쎯	-10.104
bai❃9쎯nian❂6쎯	-10.1041
yang❃4쎯	-10.1048
shou❄9쎯quan❂12쎯	-10.1053
duo❃21쎯	-10.1053
gao❁20쎯wen❁6쎯	-10.1055
te❄5쎯ding❄2쎯	-10.1056
shi❂10쎯qi❁9쎯	-10.1057
bian❄43쎯	-10.1057
chao❁17쎯ji❂83쎯	-10.1063
ran❃11쎯	-10.1067
ren❃1쎯	-10.1068
ju❂38쎯	-10.1068
ke❁7쎯	-10.1068
ga❁1쎯fei❁3쎯	-10.107
dao❄11쎯	-10.1073
zuo❄5쎯qu❁25쎯	-10.1074
dao❃5쎯dan❄21쎯	-10.1075
shao❂3쎯	-10.1075
shang❁4쎯mao❄39쎯	-10.1077
ji❁21쎯hu❁13쎯	-10.1079
kun❁9쎯ming❂8쎯	-10.108
weng❁6쎯	-10.1088
zheng❄18쎯zhou❁9쎯	-10.1089
tong❃9쎯zhi❄61쎯	-10.1095
xuan❁39쎯	-10.1101
hong❂25쎯	-10.1101
sheng❁3쎯ji❂83쎯	-10.1102
zi❁13쎯	-10.1104
qian❁39쎯	-10.1107
ji❁116쎯dan❄43쎯	-10.1107
zu❃7쎯cheng❂29쎯.	-10.1109
wai❄0쎯yu❃44쎯	-10.1109
li❃15쎯shi❄18쎯,	-10.1109
qing❁10쎯dai❄9쎯	-10.1113
bian❄38쎯	-10.1117
de❂7쎯dao❄3쎯le❅0쎯	-10.1118
tian❁5쎯de❅0쎯	-10.1118
;쎂	-10.112
zheng❄17쎯shu❁8쎯	-10.1121
쎉쎁	-10.1121
yi❃10쎯wei❄14쎯	-10.1125
shi❂10쎯da❄0쎯	-10.1127
si❁22쎯wei❂38쎯	-10.1127
hu❁23쎯	-10.1129
ning❂6쎯	-10.1133
,xian❄37쎯you❃11쎯	-10.1137
yi❁10쎯dao❄24쎯	-10.1138
zhan❃11쎯xian❄37쎯	-10.1138
dai❄15쎯you❃11쎯	-10.1141
쎀.쎁	-10.1147
shan❃11쎯	-10.115
zhi❄61쎯li❃15쎯	-10.1152
×쎂	-10.1156
chao❂6쎯yang❂35쎯	-10.1156
zhu❄31쎯:“	-10.116
쎂쎅쎀	-10.1161
쎀쎀gong❁10쎯li❃26쎯	-10.1165
si❁16쎯ma❃14쎯	-10.117
meng❄8쎯xiang❃6쎯	-10.1171
yin❃37쎯shi❂39쎯	-10.1172
yi❂79쎯chan❃12쎯	-10.1172
shui❃0쎯dao❄14쎯	-10.1173
bian❄16쎯li❄58쎯.	-10.1175
cuo❄7쎯shi❁13쎯	-10.1176
ming❂8쎯dai❄9쎯	-10.118
ge❂38쎯	-10.118
neng❂2쎯liang❂19쎯	-10.1183
ci❂26쎯	-10.119
xiao❁29쎯hua❁1쎯	-10.1192
wei❁12쎯yuan❂15쎯,	-10.1198
lang❂17쎯	-10.1208
can❁3쎯mou❂17쎯	-10.1212
qu❁15쎯wei❁12쎯	-10.1212
ren❂1쎯kou❃1쎯쎂	-10.1213
mei❃13쎯zhou❁11쎯	-10.1217
ye❄44쎯jing❁14쎯	-10.1218
hang❂13쎯tian❁5쎯	-10.1225
jiao❁21쎯	-10.1225
jing❃13쎯dian❃11쎯	-10.1227
,xian❄37쎯zai❄5쎯	-10.123
san❁1쎯xing❁7쎯	-10.1234
ke❃4쎯da❂30쎯	-10.1238
ting❂9쎯	-10.124
liu❂28쎯xia❄3쎯	-10.1242
bo❂41쎯lan❃28쎯	-10.1245
×쎁	-10.1246
bao❄10쎯dao❄24쎯	-10.1248
ming❂24쎯	-10.1251
xing❄12쎯	-10.1265
e❄81쎯	-10.1265
fen❁19쎯	-10.1271
mian❄2쎯ji❁64쎯쎄	-10.1271
,ti❂17쎯gao❁20쎯	-10.1272
gong❁17쎯hui❄27쎯	-10.1273
tie❁0쎯	-10.1273
쎆ping❂17쎯fang❁4쎯	-10.1274
》de❅2쎯	-10.1274
%%	-10.1275
tu❁14쎯po❄17쎯	-10.129
.쎁쎂	-10.1291
shen❃7쎯ding❄2쎯	-10.1291
jia❁13쎯ju❁14쎯	-10.1295
dan❁9쎯yuan❂10쎯	-10.1295
guo❂11쎯li❄141쎯	-10.1296
gai❃2쎯jin❄61쎯	-10.1297
shi❄19쎯	-10.1306
,bing❁6쎯zai❄5쎯	-10.1307
pan❁4쎯	-10.1311
,yi❄67쎯	-10.1313
.”song❄4쎯	-10.1313
bu❂0쎯yao❁17쎯	-10.132
da❄0쎯qiao❂12쎯	-10.1324
dian❄7쎯	-10.1328
tong❂22쎯	-10.1345
tu❂14쎯xing❂11쎯	-10.1345
qing❁20쎯chun❁6쎯	-10.1352
zhi❂32쎯ze❂44쎯	-10.1364
ying❂45쎯qiu❁9쎯	-10.1367
tong❂13쎯yang❂17쎯	-10.1369
ji❁54쎯guang❁2쎯	-10.1377
pi❁11쎯fa❁1쎯	-10.1378
bu❂0쎯zu❂11쎯	-10.1383
°C,nian❂6쎯	-10.1386
jie❂40쎯	-10.1392
mai❂5쎯	-10.1392
qun❂6쎯ben❄4쎯	-10.1395
li❃26쎯de❅2쎯	-10.1397
ying❁67쎯	-10.1399
,jia❁7쎯ru❄2쎯	-10.1399
shi❄45쎯:	-10.14
gan❃6쎯shou❄4쎯	-10.1401
ji❁48쎯,	-10.1404
jian❁14쎯ren❂4쎯	-10.1408
ku❁14쎯	-10.1409
mao❂18쎯	-10.1421
dai❄15쎯ling❃2쎯	-10.1423
xian❂27쎯	-10.1426
,gong❄3쎯	-10.1433
li❄155쎯	-10.1434
gu❃42쎯piao❄5쎯	-10.1436
chou❂29쎯	-10.1438
yuan❂12쎯lai❂16쎯	-10.144
zui❄4쎯duo❁5쎯	-10.1442
niu❃9쎯yue❁1쎯	-10.145
hua❂14쎯ren❂1쎯	-10.145
ke❃4쎯kao❄5쎯	-10.1457
:tu❂14쎯shu❁8쎯>	-10.1459
qiao❂12쎯liang❂7쎯	-10.1466
gang❁24쎯	-10.1467
kou❃1쎯qiang❁24쎯	-10.1467
gan❁16쎯cheng❁10쎯	-10.1472
sheng❂5쎯	-10.1478
kun❄1쎯	-10.1483
zei❂3쎯	-10.1496
jia❁7쎯po❁2쎯	-10.1498
dan❄47쎯sheng❁16쎯	-10.15
shi❁33쎯ci❂29쎯	-10.1504
zhuan❃4쎯yi❂61쎯	-10.1516
guang❁2쎯xu❄68쎯	-10.1519
pei❄19쎯bei❄26쎯	-10.152
吗	-10.1537
쎂ping❂17쎯fang❁4쎯	-10.154
shi❄45쎯gan❄3쎯	-10.154
yi❃10쎯qian❂8쎯	-10.154
fa❂5쎯	-10.1546
zi❁45쎯zhi❄104쎯	-10.1551
jian❄77쎯	-10.1552
ke❁34쎯li❄144쎯	-10.1553
wen❃10쎯	-10.1554
yao❁8쎯	-10.1558
qi❄34쎯	-10.1558
wei❂11쎯rao❄2쎯	-10.156
fei❁4쎯	-10.1568
ci❂24쎯	-10.1571
qu❃1쎯de❂7쎯le❅0쎯	-10.158
deng❃2쎯jiang❃8쎯.	-10.158
shu❁8쎯ji❄117쎯,	-10.1584
mian❄2쎯dui❄14쎯	-10.1585
xiang❂9쎯	-10.1586
hu❄46쎯	-10.1589
jie❂48쎯chu❁3쎯	-10.1595
na❄11쎯you❃11쎯	-10.1596
mi❄24쎯ma❃8쎯	-10.1598
hou❄7쎯ji❁47쎯	-10.1599
fan❁11쎯	-10.1604
xiao❃2쎯er❂7쎯	-10.1606
yi❁11쎯si❁24쎯	-10.1608
ping❂36쎯lun❄1쎯	-10.1617
]	-10.1619
guang❁2쎯qu❁49쎯	-10.1621
you❃11쎯xie❁3쎯	-10.1623
.”(쎂).	-10.1624
(쎁	-10.1628
huo❄56쎯bi❄51쎯	-10.1629
,jian❃52쎯	-10.1634
ce❄26쎯	-10.1634
jin❁10쎯tian❁5쎯	-10.164
liu❂21쎯lan❃28쎯	-10.164
zhuan❁1쎯ti❂36쎯	-10.1641
chu❁3쎯tu❃1쎯	-10.1642
piao❁11쎯	-10.1648
/쎂	-10.1649
zuo❄7쎯hao❃0쎯	-10.165
jian❄40쎯	-10.1651
pai❂2쎯lie❄20쎯	-10.1652
ju❄18쎯《	-10.1653
chuan❂4쎯》	-10.1654
xia❄3쎯shu❃5쎯	-10.1659
11쎯	-10.1661
kong❁9쎯diao❄17쎯	-10.1662
rao❄2쎯	-10.1667
tao❁16쎯	-10.1669
xian❄22쎯ji❂83쎯	-10.1671
dang❁4쎯xuan❃8쎯	-10.1673
yue❁0쎯:‘	-10.168
쎁hao❂6쎯	-10.168
ping❂17쎯si❄15쎯.	-10.1682
shao❄5쎯	-10.1683
쎁쎉쎄쎉nian❂6쎯	-10.1683
miao❂5쎯shu❄47쎯:	-10.1683
gong❁10쎯jin❁17쎯	-10.1685
chen❂20쎯	-10.1689
qian❁13쎯nian❂6쎯	-10.1691
sang❄0쎯	-10.1691
dai❄38쎯kuan❃7쎯	-10.1692
er❃12쎯ji❁48쎯	-10.1693
dian❄23쎯dong❄13쎯	-10.1693
(.)	-10.1694
dui❄14쎯fang❁4쎯	-10.1695
zuo❃3쎯you❄14쎯,	-10.1703
yuan❂12쎯liao❄8쎯:	-10.1709
shuang❃7쎯	-10.171
----------------	-10.1718
bian❄16쎯li❄58쎯,	-10.1723
kao❃10쎯ru❄2쎯	-10.1726
ji❂107쎯	-10.1726
qing❂6쎯gan❃6쎯	-10.1726
wei❂7쎯	-10.1739
,ci❃2쎯	-10.1744
an❁13쎯pai❂2쎯	-10.1747
ji❄35쎯	-10.1751
쎁쎉쎅쎆nian❂6쎯	-10.1752
gang❁5쎯	-10.1753
zhu❃4쎯yan❃39쎯	-10.1753
ni❃11쎯	-10.1754
jiang❄9쎯lie❄34쎯	-10.1754
di❂41쎯	-10.1756
gou❁9쎯	-10.1757
tan❄5쎯tao❃3쎯	-10.1757
cai❃11쎯qu❃1쎯	-10.1759
guo❂11쎯dao❄24쎯	-10.1759
.쎃.	-10.176
mian❄2쎯fen❃1쎯	-10.1762
sou❁9쎯suo❃18쎯	-10.1762
jian❃52쎯jie❄13쎯:	-10.1763
():	-10.1766
쎃.쎅	-10.1768
huo❂3쎯xing❄13쎯	-10.177
fang❁4쎯zhen❁52쎯	-10.177
dao❃5쎯shi❁11쎯.	-10.1775
xia❂10쎯	-10.1777
pan❂4쎯	-10.1781
xi❁143쎯ya❄7쎯	-10.1784
nao❄3쎯	-10.1784
xiao❄14쎯ying❁17쎯	-10.1787
bi❃20쎯ya❄7쎯	-10.1805
xing❄9쎯ming❂7쎯:	-10.1805
.xian❄37쎯wei❄14쎯	-10.1805
(-)	-10.1806
te❄5쎯se❄29쎯de❅2쎯	-10.1806
qing❁10쎯xi❁83쎯	-10.1808
쎀mu❃2쎯,	-10.1814
xing❄8쎯qu❄11쎯	-10.1814
shi❂10쎯zi❄6쎯	-10.1816
wei❂21쎯	-10.1818
쎀.쎂	-10.1822
zhang❄19쎯ai❄33쎯	-10.1823
chu❂42쎯le❅0쎯	-10.1823
a❁6쎯er❃6쎯	-10.1824
yi❁10쎯sheng❁16쎯	-10.1824
li❄62쎯dai❄9쎯	-10.1827
bian❁13쎯ma❃8쎯	-10.183
jian❁52쎯kong❄1쎯	-10.1832
cun❁1쎯、	-10.1838
sheng❁16쎯su❄56쎯	-10.1842
xiong❁4쎯	-10.1844
yan❄25쎯	-10.1844
jing❁27쎯yan❄75쎯,	-10.1845
che❃7쎯cun❄2쎯:	-10.1851
jie❄13쎯zhi❄104쎯	-10.1858
lai❂16쎯dao❄3쎯	-10.1858
hei❁3쎯long❂63쎯	-10.1859
gou❁12쎯tong❁5쎯	-10.1862
쎀쎀쎀ping❂17쎯	-10.1863
shi❄18쎯wu❄36쎯	-10.1864
xiu❄11쎯	-10.1866
liu❂31쎯	-10.1875
jiao❄18쎯qu❁15쎯	-10.1875
ye❂4쎯	-10.1877
jiao❁20쎯lian❄22쎯	-10.1877
fan❄28쎯dian❄13쎯	-10.1887
dian❄23쎯ji❁48쎯	-10.1888
hun❄10쎯	-10.1889
,han❄33쎯zu❂9쎯,	-10.1889
,duo❁5쎯	-10.1897
pian❁5쎯,	-10.1899
ˊ	-10.1902
chu❄17쎯.	-10.1902
jing❄46쎯	-10.1903
ru❂9쎯ci❃2쎯	-10.1906
zhi❃40쎯	-10.1912
bo❂40쎯	-10.1912
gong❁17쎯zuo❄5쎯;	-10.1913
qu❁15쎯bie❂4쎯	-10.1916
,jing❁27쎯guo❄2쎯	-10.1925
mao❄18쎯	-10.1928
qu❁15쎯.	-10.193
lun❂5쎯dun❁9쎯	-10.1936
yi❂20쎯biao❃5쎯	-10.1944
bao❄10쎯》	-10.1944
ping❂7쎯jie❄15쎯	-10.1946
liu❂20쎯yu❄31쎯	-10.1948
lan❂36쎯qiu❂36쎯	-10.1949
chong❁20쎯	-10.1949
fu❂41쎯	-10.1949
pu❃3쎯bian❄43쎯	-10.1949
feng❁43쎯	-10.1949
jia❄3쎯	-10.1952
jian❁25쎯guan❁4쎯	-10.1961
쎅)	-10.1962
min❂22쎯zheng❄12쎯	-10.1967
tuo❂31쎯	-10.1972
yi❁10쎯dai❄15쎯	-10.1973
.li❄62쎯ren❂4쎯	-10.198
dang❃2쎯zu❃7쎯	-10.1982
ban❁15쎯	-10.1982
yi❄109쎯jian❄62쎯	-10.1983
cai❃11쎯gou❄26쎯	-10.1983
2쎯cun❁1쎯,shu❃5쎯	-10.1985
tian❁5쎯wen❂5쎯	-10.1985
mian❄2쎯ji❁64쎯쎃	-10.1985
suan❄4쎯	-10.1987
ke❄14쎯yun❃16쎯	-10.1989
ji❁48쎯gou❃2쎯,	-10.1989
zong❃5쎯ju❂23쎯	-10.1991
,zi❄6쎯	-10.2004
zhang❃6쎯chun❁6쎯	-10.2006
an❃52쎯cheng❁28쎯	-10.2014
long❂63쎯tou❂4쎯	-10.2015
n	-10.2015
쎁,	-10.2019
bu❂0쎯de❂7쎯	-10.202
,dai❄45쎯shu❃5쎯	-10.2021
xiong❁2쎯	-10.2022
쎁쎉쎀	-10.2024
huo❃0쎯ban❄3쎯	-10.2027
→	-10.2032
gou❄26쎯mai❃0쎯	-10.2033
sun❃7쎯	-10.2036
xi❁71쎯	-10.2036
xian❄63쎯	-10.2038
쎁쎀-	-10.204
bing❃15쎯	-10.2042
쎁)	-10.2048
---	-10.2048
dang❃2쎯yuan❂15쎯.	-10.205
hou❄10쎯	-10.2051
”han❄20쎯“	-10.2054
zao❃3쎯	-10.2056
а	-10.2061
,te❄5쎯bie❂4쎯	-10.2065
1	-10.207
zao❁7쎯	-10.2071
nan❂6쎯ning❂10쎯	-10.2076
fan❄17쎯zui❄11쎯	-10.2078
dian❄23쎯xin❄8쎯	-10.208
shao❄5쎯jian❁25쎯	-10.2081
xin❄8쎯yu❄105쎯	-10.2082
xi❁143쎯yi❁13쎯	-10.2088
guo❂11쎯yu❃44쎯	-10.2088
chuan❂4쎯gan❃6쎯	-10.2092
.tong❂13쎯shi❂20쎯	-10.2097
ge❄3쎯da❄0쎯	-10.2099
da❄0쎯qi❃25쎯	-10.2103
ting❂5쎯che❁8쎯	-10.2104
zhu❂24쎯	-10.2104
du❂25쎯te❄5쎯	-10.2104
dao❄3쎯da❂30쎯	-10.2105
.dang❁4쎯	-10.2107
tu❂14쎯an❄16쎯	-10.211
jing❁24쎯xin❁7쎯	-10.211
zhu❃4쎯zhi❄61쎯	-10.2112
ke❃4쎯jian❄62쎯	-10.2116
(jian❃52쎯	-10.2116
gao❁16쎯	-10.2117
xiu❁11쎯jian❄29쎯	-10.2118
er❃6쎯·	-10.2118
gang❁32쎯tie❃5쎯	-10.212
bian❄16쎯jie❂42쎯	-10.2123
jiu❃3쎯nian❂6쎯	-10.2126
hui❄27쎯yuan❂15쎯、	-10.2127
hao❂6쎯:	-10.213
ben❃5쎯de❅0쎯	-10.213
qu❁15쎯、	-10.2131
jie❂27쎯	-10.2139
she❄13쎯	-10.2139
.qi❂29쎯zhong❁4쎯	-10.214
te❄5쎯you❃11쎯	-10.2143
zi❄16쎯hang❂16쎯	-10.2147
쎄、	-10.2147
jia❁13쎯、	-10.2148
bi❄117쎯	-10.2149
ji❄121쎯	-10.2153
can❂19쎯	-10.2153
zao❃9쎯	-10.2154
❄14쎯le❄3쎯bu❄38쎯.	-10.2156
hua❁11쎯hui❄31쎯	-10.2158
qing❁20쎯hai❃1쎯	-10.2159
mei❃13쎯shi❂39쎯	-10.2159
fei❄37쎯yong❄3쎯	-10.2161
shua❁1쎯	-10.2161
ji❁37쎯	-10.2162
fu❂43쎯shi❄99쎯	-10.2163
hu❂46쎯jiao❁21쎯	-10.2164
:《	-10.2167
an❁13쎯xian❄22쎯	-10.2171
cu❄10쎯	-10.2172
ban❄5쎯dao❃7쎯	-10.2172
jing❁24쎯mi❄24쎯	-10.2173
liang❃5쎯nian❂6쎯	-10.2176
ya❁7쎯suo❁15쎯	-10.2178
xun❄26쎯	-10.2184
zhao❄30쎯	-10.2199
jin❄60쎯dai❄9쎯	-10.2201
mu❃6쎯qin❁4쎯	-10.2201
chang❄2쎯pian❁5쎯	-10.2205
tou❁0쎯	-10.2212
quan❂6쎯ben❄4쎯	-10.2214
gang❁32쎯qin❂25쎯	-10.2217
yun❃16쎯zuo❄5쎯	-10.2221
lv❄9쎯shi❁11쎯	-10.2227
can❁13쎯ting❁3쎯	-10.2231
cheng❂29쎯ren❂1쎯	-10.2231
cha❂27쎯xie❂16쎯	-10.2233
xie❂16쎯pian❁5쎯	-10.2237
xi❁56쎯	-10.2237
rong❂33쎯	-10.2239
yu❄54쎯	-10.2241
ge❃0쎯ge❂29쎯	-10.2241
hang❂8쎯	-10.2244
hong❂54쎯	-10.2247
,you❂16쎯qi❂29쎯	-10.2249
sh	-10.2254
gou❁23쎯	-10.2256
chuang❁11쎯kou❃1쎯	-10.2256
shang❄2쎯shu❁8쎯	-10.2258
zheng❄12쎯cun❁1쎯	-10.226
na❄11쎯de❅2쎯	-10.2267
yan❄75쎯	-10.2271
xun❄30쎯	-10.2273
ke❁34쎯	-10.2275
yi❁10쎯zhi❁16쎯	-10.2277
ben❃5쎯pin❃0쎯	-10.2278
bie❂4쎯ming❂7쎯	-10.2278
chan❃12쎯de❅2쎯	-10.2279
suo❃11쎯wei❄52쎯	-10.2281
wang❃14쎯you❃9쎯	-10.2282
wu❃9쎯gan❄3쎯	-10.2284
guo❁26쎯zhong❁4쎯	-10.2285
guo❄2쎯lv❄12쎯	-10.2292
gong❃12쎯	-10.2295
bu❄38쎯wei❄15쎯	-10.2296
chuan❁5쎯yue❄46쎯	-10.2302
gao❁20쎯ya❁7쎯	-10.2303
xing❄8쎯jian❄29쎯	-10.2308
zui❄15쎯	-10.2311
hua❁11쎯sheng❁16쎯	-10.2314
ge❂29쎯lan❂13쎯	-10.2315
yan❄45쎯	-10.2317
han❄38쎯	-10.2324
qiao❂6쎯	-10.2326
wu❁17쎯	-10.2335
.쎃、	-10.2337
jian❄29쎯you❃11쎯	-10.2341
qi❂29쎯shi❂13쎯	-10.2344
ran❂12쎯hou❄7쎯	-10.2346
zuo❄5쎯qiu❁9쎯	-10.2347
zhu❂24쎯bu❄28쎯	-10.2349
nan❂14쎯ren❂1쎯	-10.2349
ren❄30쎯zhen❁30쎯	-10.2352
ju❄14쎯	-10.2357
re❄1쎯shui❃0쎯	-10.2357
tan❃4쎯ke❄6쎯	-10.2359
shan❁11쎯shi❄32쎯	-10.2366
ben❃5쎯shen❁40쎯	-10.2369
쎁쎆쎀	-10.2371
|	-10.2372
fu❂43쎯wu❄12쎯,	-10.2375
ji❁34쎯du❁8쎯	-10.2378
tong❂13쎯yi❁10쎯	-10.2379
di❃10쎯	-10.2379
deng❄8쎯	-10.2379
)、《	-10.2381
쎅ke❄6쎯	-10.2384
lian❂30쎯	-10.239
sha❁17쎯	-10.2394
ruo❄8쎯gan❁16쎯	-10.2396
zhi❃19쎯shu❄26쎯	-10.2396
luo❄17쎯yang❂35쎯	-10.2399
ying❄9쎯jian❄15쎯	-10.2401
kao❃10쎯gu❃14쎯	-10.2405
jiao❁20쎯shi❄31쎯	-10.2405
sui❂8쎯	-10.2411
tong❂13쎯bu❄28쎯	-10.2412
dan❄27쎯	-10.2415
huo❄50쎯jiang❃8쎯	-10.2416
bu❂0쎯liang❂15쎯	-10.2417
쎃ping❂17쎯fang❁4쎯	-10.2419
,fu❂94쎯you❃11쎯	-10.2425
lan❂41쎯se❄29쎯	-10.2425
쎂)	-10.2427
jian❄29쎯cai❂3쎯	-10.2431
ban❁20쎯fa❁1쎯	-10.2433
mo❂26쎯fa❃2쎯	-10.2435
de❅2쎯di❄45쎯	-10.2446
tan❄8쎯	-10.2449
an❁16쎯	-10.2455
shuai❄1쎯	-10.2455
xue❂6쎯yuan❂15쎯	-10.2459
29쎯	-10.2464
da❄0쎯li❃15쎯	-10.2465
bu❂0쎯zhi❁31쎯	-10.2472
liu❂20쎯chuan❂4쎯	-10.2472
huai❂8쎯	-10.2478
jin❄32쎯sheng❁3쎯	-10.248
hua❂14쎯zhong❁4쎯	-10.2484
ye❃1쎯bu❂0쎯	-10.2487
geng❃8쎯	-10.2488
》zhong❁4쎯de❅2쎯	-10.2489
san❃5쎯	-10.2491
zhang❄5쎯	-10.2496
,zhe❄14쎯shi❄45쎯	-10.2496
zhuo❂	-10.2502
min❃24쎯	-10.2507
xiang❁19쎯	-10.2507
su❄67쎯	-10.251
jian❃52쎯jie❄13쎯	-10.2514
jun❁6쎯you❃11쎯	-10.2518
xi❁87쎯	-10.2519
jun❁6쎯wei❄14쎯	-10.2519
qiang❃2쎯	-10.2519
san❁1쎯ji❂83쎯	-10.252
yue❄46쎯lai❂16쎯	-10.252
chu❁3쎯zi❄16쎯	-10.2521
//	-10.2522
huo❂3쎯dong❄13쎯.	-10.2522
yan❂37쎯shen❁5쎯	-10.2523
jue❂92쎯dui❄14쎯	-10.2524
pin❂12쎯	-10.2527
dou❁12쎯hui❄27쎯	-10.2529
zhu❃4쎯dao❃5쎯	-10.2529
bao❃9쎯liu❂28쎯	-10.253
xiao❄23쎯	-10.2531
shan❁11쎯mai❄9쎯	-10.2533
die❂56쎯	-10.2533
ce❄22쎯ding❄2쎯	-10.2535
shuang❁4쎯fang❁4쎯	-10.2537
han❂25쎯gai❄17쎯	-10.2537
.yin❁11쎯	-10.2539
hao❄35쎯	-10.2543
liu❂20쎯cheng❂52쎯	-10.2546
po❁12쎯	-10.2546
xin❁17쎯	-10.2547
shui❄9쎯	-10.255
gong❁10쎯si❁16쎯、	-10.2557
shi❂10쎯jiu❃3쎯	-10.256
hui❄27쎯yuan❂15쎯.	-10.2561
wei❁12쎯tuo❁6쎯	-10.2564
mei❄5쎯	-10.2566
zhi❁43쎯fang❂3쎯	-10.2567
zhou❁5쎯ji❁47쎯	-10.2571
mao❄39쎯	-10.2574
nan❂6쎯tong❁5쎯	-10.258
2쎯ji❄59쎯shu❂7쎯	-10.2582
,li❄62쎯ren❂4쎯	-10.2588
mo❂12쎯te❄5쎯	-10.2588
zheng❃4쎯xing❂11쎯	-10.259
ー	-10.2592
mian❄2쎯ji❁64쎯쎅	-10.2593
cao❁3쎯	-10.2605
jiao❄6쎯zuo❄7쎯	-10.2606
fu❃28쎯	-10.2608
쎇gan❄3쎯	-10.261
cheng❂30쎯bao❁4쎯	-10.2617
.ru❂9쎯	-10.262
ping❂17쎯si❄15쎯,	-10.2623
dun❁4쎯	-10.2624
xin❁10쎯cheng❂17쎯	-10.2629
,fen❁4쎯bie❂4쎯	-10.2634
lei❄10쎯	-10.2634
zhong❁4쎯zhuan❁1쎯	-10.2635
쎄ping❂17쎯fang❁4쎯	-10.2635
jie❁13쎯shou❁1쎯	-10.2636
shang❃1쎯wang❃14쎯	-10.2636
yan❃39쎯zou❄2쎯	-10.2637
mi❄24쎯feng❁17쎯	-10.2641
si❁22쎯kao❃10쎯	-10.2642
ming❄1쎯yun❃16쎯	-10.2644
t	-10.2646
guan❁6쎯fang❁4쎯	-10.2648
chou❂12쎯	-10.2649
ru❃2쎯	-10.2651
song❄4쎯dai❄9쎯	-10.2652
bu❄28쎯hang❂16쎯	-10.2652
”(	-10.2654
yue❄41쎯	-10.2654
shi❂13쎯ben❄4쎯	-10.2656
hen❄1쎯	-10.2656
shou❄15쎯	-10.2661
guan❃9쎯dao❄24쎯	-10.2666
tiao❁4쎯zhan❄10쎯	-10.2669
ban❄10쎯yan❃39쎯	-10.267
jian❄62쎯de❅2쎯	-10.2671
,shi❂13쎯xian❄37쎯	-10.2673
diao❁23쎯su❄30쎯	-10.2677
liu❄3쎯nian❂6쎯	-10.2683
fu❄28쎯zong❃5쎯	-10.2684
zhi❁44쎯	-10.2686
liu❂20쎯liang❂19쎯	-10.2687
쎉쎃	-10.2687
li❃26쎯mian❄2쎯	-10.2691
,jia❁7쎯	-10.2692
tao❃3쎯lun❄1쎯	-10.2694
zhan❄10쎯yi❄103쎯	-10.2702
fan❃4쎯hui❂1쎯	-10.2705
bu❂0쎯guo❄2쎯	-10.2707
fan❄15쎯	-10.2708
huo❃2쎯shan❁11쎯	-10.2709
zheng❄17쎯ming❂8쎯	-10.2709
man❄11쎯xing❄13쎯	-10.271
chai❂6쎯	-10.2715
yong❃8쎯	-10.2716
xiang❂11쎯	-10.2717
ao❄9쎯	-10.2718
hen❃2쎯hao❃0쎯	-10.272
ying❃11쎯xiang❄4쎯	-10.2721
pu❂19쎯sa❄13쎯	-10.2723
la❁7쎯ding❁2쎯	-10.2723
qi❃34쎯dian❃11쎯	-10.2724
ben❄4쎯ji❁64쎯	-10.2724
you❂24쎯hua❄18쎯	-10.2725
hun❂11쎯ning❂6쎯	-10.2725
song❄11쎯	-10.2729
kong❁9쎯jun❁2쎯	-10.273
shen❁18쎯du❄8쎯	-10.2734
zong❁10쎯zhi❃20쎯,	-10.2734
mei❂25쎯tan❄8쎯	-10.2735
ao❁4쎯	-10.2745
cai❃11쎯ji❂114쎯	-10.2746
xi❁107쎯	-10.2747
yao❂32쎯	-10.2748
fu❂48쎯	-10.2748
yu❄113쎯dao❄3쎯	-10.275
jue❂76쎯	-10.2755
dian❄23쎯lan❃24쎯	-10.2755
shi❃8쎯shang❃1쎯	-10.2756
hai❃1쎯an❄13쎯	-10.2761
liu❂33쎯	-10.2762
kuo❄17쎯	-10.2767
쎁쎉쎆쎄nian❂6쎯	-10.2768
yi❄190쎯ren❂1쎯	-10.2769
ming❂7쎯jia❁13쎯	-10.2769
shen❄5쎯	-10.277
liu❂20쎯tong❁5쎯	-10.277
shi❄18쎯qing❂6쎯	-10.2776
pan❄3쎯	-10.2778
쎃쎀쎀쎀	-10.2779
qin❁16쎯	-10.2779
an❄16쎯jian❄15쎯	-10.2783
qiao❁28쎯	-10.2785
wen❂23쎯ming❂7쎯	-10.2787
yu❄104쎯	-10.2792
qi❃34쎯cha❁3쎯	-10.2794
wan❂11쎯	-10.2794
jiao❁20쎯tang❂15쎯	-10.2795
shi❄71쎯jue❂104쎯	-10.2802
ti❄21쎯	-10.2803
kan❃4쎯	-10.281
xiang❁9쎯chuan❂4쎯	-10.2813
bian❄38쎯lv❄15쎯	-10.2814
)ren❂1쎯.	-10.2814
zhan❄10쎯shi❄28쎯	-10.2816
k	-10.2817
:쎃	-10.2817
shan❁11쎯de❅0쎯	-10.2822
fang❂4쎯zhi❃22쎯	-10.2823
bian❄19쎯xing❂11쎯	-10.2825
feng❁8쎯fu❄36쎯,	-10.2831
yi❄67쎯zuo❄5쎯“	-10.2833
lai❄19쎯	-10.2836
lin❂7쎯yi❂54쎯	-10.2839
zong❃5쎯ben❄4쎯	-10.2839
gu❁9쎯	-10.2843
chan❃12쎯pin❃0쎯.	-10.2844
gai❄22쎯	-10.2845
chi❁23쎯jian❁25쎯	-10.2846
di❁11쎯	-10.285
hun❂10쎯	-10.2852
shu❁44쎯song❄9쎯	-10.2853
qu❁15쎯na❄11쎯	-10.2858
쎂쎀쎀쎃	-10.2858
fu❄36쎯you❃11쎯	-10.286
sha❁18쎯	-10.2861
lin❂32쎯	-10.2861
.쎀쎇	-10.2864
mo❂12쎯kuai❄14쎯	-10.2865
#	-10.287
xuan❁9쎯bu❄23쎯	-10.2872
ben❃3쎯	-10.2875
shou❄5쎯	-10.2877
su❁13쎯	-10.288
xiang❃3쎯	-10.2882
wei❄22쎯	-10.2886
zhi❄47쎯》	-10.2886
jiao❁41쎯	-10.289
gong❁17쎯nong❂5쎯	-10.2891
fen❁4쎯zhi❁21쎯	-10.2891
dan❄10쎯shi❄45쎯	-10.2892
ji❄117쎯》	-10.2893
mei❃13쎯hao❃0쎯	-10.2894
er❂16쎯cheng❂29쎯.	-10.2895
liang❃5쎯ci❄16쎯	-10.2895
lin❂25쎯	-10.2898
shou❃6쎯xian❁18쎯	-10.2902
ping❂30쎯guo❃3쎯	-10.2905
bao❁4쎯gua❁11쎯:	-10.2907
bo❅0쎯	-10.2909
》duo❃23쎯zhi❄47쎯	-10.2911
○	-10.2916
he❁5쎯	-10.2916
dang❁4쎯nian❂6쎯	-10.2923
shang❃1쎯ji❂83쎯	-10.2923
shi❄32쎯min❂22쎯	-10.2926
yue❄46쎯nan❂6쎯	-10.2928
di❄45쎯ba❁9쎯	-10.2929
cui❃3쎯	-10.2932
bing❄12쎯ren❂1쎯	-10.2934
《zhong❁4쎯hua❂14쎯	-10.2937
쎁쎉쎆쎃nian❂6쎯	-10.2939
()、	-10.2941
jiu❄23쎯hui❄27쎯	-10.2946
wai❄0쎯jiao❁8쎯	-10.2946
zong❃5쎯shu❄26쎯	-10.295
shen❂2쎯hua❄26쎯	-10.2951
feng❁58쎯guang❁2쎯	-10.2953
fen❁4쎯guan❃9쎯	-10.2959
duo❁5쎯pian❁7쎯	-10.296
cu❄9쎯	-10.2961
wang❃14쎯shi❄45쎯	-10.2961
chi❂48쎯	-10.2962
yuan❃4쎯cheng❂52쎯	-10.2966
qi❄22쎯	-10.2966
kuang❄12쎯wu❄36쎯	-10.2966
nian❂6쎯de❅2쎯	-10.2967
～쎁	-10.2969
dao❄14쎯	-10.297
mu❄13쎯	-10.2971
nv❃0쎯ren❂1쎯	-10.2975
li❄98쎯	-10.2975
han❃11쎯fang❂2쎯	-10.2975
dian❄23쎯si❄15쎯	-10.2977
nv❃0쎯,	-10.2978
qiong❂23쎯	-10.2979
yong❁17쎯	-10.2979
pin❁3쎯	-10.2982
ren❂4쎯zhi❂32쎯	-10.2987
you❃11쎯“	-10.299
shi❂10쎯yu❂37쎯	-10.2997
ge❂54쎯	-10.3004
shao❄10쎯	-10.3004
he❂52쎯lan❂13쎯	-10.3006
shi❄32쎯zheng❄12쎯	-10.3007
qi❃34쎯,	-10.3007
da❄0쎯fu❁13쎯	-10.3011
fu❂60쎯zhou❁9쎯	-10.3021
ting❃4쎯	-10.3025
ai❄26쎯guo❂11쎯	-10.3034
qu❄6쎯pi❂17쎯	-10.3038
tui❄8쎯xiu❁9쎯	-10.304
tan❄3쎯	-10.3042
xi❃11쎯cheng❁10쎯,	-10.3046
shi❃6쎯yong❄3쎯.	-10.3051
bo❂52쎯	-10.3056
zai❄5쎯《	-10.306
ju❂23쎯、	-10.306
ji❁21쎯nian❂6쎯	-10.3062
zha❂16쎯	-10.3062
yi❂38쎯chang❂15쎯	-10.3067
yong❁33쎯	-10.3068
yao❂55쎯	-10.3068
chou❃1쎯	-10.307
dan❁9쎯wei❄15쎯,	-10.3073
guan❁16쎯ce❄22쎯	-10.3074
ji❂57쎯wei❄14쎯	-10.3075
●	-10.3077
lan❂25쎯mu❄22쎯	-10.3079
gan❃6쎯qing❂6쎯	-10.3079
mei❃9쎯yi❁10쎯	-10.3084
ye❃2쎯jin❁33쎯	-10.3085
“san❁1쎯	-10.3085
gan❄19쎯	-10.3086
he❂37쎯liu❂20쎯	-10.3089
jie❂67쎯jing❁14쎯	-10.3095
shuang❁11쎯	-10.31
zhong❃7쎯	-10.3101
xiao❁8쎯	-10.3103
xie❄80쎯	-10.3104
yi❁10쎯bai❃9쎯	-10.3106
ren❄30쎯ke❃4쎯	-10.3108
hua❁1쎯dan❄38쎯	-10.3112
xiao❃2쎯mai❄16쎯	-10.3112
ri❄2쎯ji❁47쎯	-10.3116
qiong❂28쎯	-10.3117
tong❂13쎯shi❂20쎯,	-10.3118
hui❂1쎯dao❄3쎯	-10.312
lu❄70쎯、	-10.3121
yue❄48쎯	-10.3122
kun❁9쎯chong❂14쎯	-10.3123
[	-10.3123
xiao❁29쎯fang❂4쎯	-10.3124
쎁쎉쎇쎀nian❂6쎯	-10.3124
쎇ping❂17쎯fang❁4쎯	-10.3124
쎁.쎂	-10.3125
tong❂13쎯nian❂6쎯	-10.3128
pi	-10.313
wang❃7쎯wang❃7쎯	-10.313
kao❃10쎯cha❂12쎯	-10.3131
)han❄20쎯	-10.3132
si❄17쎯ji❄46쎯	-10.3134
shu❁8쎯ji❂81쎯	-10.3134
ti❂36쎯cai❂3쎯	-10.3136
ba❁9쎯nian❂6쎯	-10.3137
jiu❁19쎯cuo❄18쎯	-10.3138
mei❂30쎯	-10.3141
gai❃2쎯ming❂7쎯	-10.3141
gai❃2쎯bian❁13쎯	-10.3144
wei❃14쎯da❄0쎯	-10.3144
he❄23쎯se❄29쎯,	-10.3149
quan❂12쎯li❄58쎯	-10.315
bie❂4쎯ren❂1쎯	-10.3155
pu❂22쎯	-10.3157
pu❃7쎯dong❁3쎯	-10.3157
cao❃5쎯ben❃5쎯	-10.3157
da❂14쎯jian❁25쎯	-10.3159
wei❁10쎯ji❁48쎯	-10.3162
a❃0쎯	-10.3166
zhu❄35쎯	-10.3169
(xue❂6쎯ming❂7쎯:)	-10.317
zi❁45쎯shen❁18쎯	-10.317
bi	-10.3172
ling❄0쎯wai❄0쎯	-10.3176
fang❁4쎯fa❃2쎯.	-10.3177
ai❁1쎯	-10.3178
yuan❄9쎯	-10.3179
wu❃9쎯jin❁33쎯	-10.3181
ta❁6쎯shi❄45쎯	-10.3185
jing❄30쎯sai❄4쎯	-10.3189
r	-10.3189
she❄29쎯bei❄26쎯,	-10.319
xiu❄8쎯li❄50쎯	-10.319
dun❁2쎯	-10.3191
qi❁9쎯nian❂6쎯	-10.3191
jing❁24쎯cai❃4쎯	-10.3192
jing❁24쎯ying❁44쎯	-10.3193
yi❄103쎯	-10.3197
ban❄11쎯	-10.3199
ying❂36쎯	-10.3201
chu❁4쎯ji❁47쎯	-10.3201
yi❂79쎯chuan❂4쎯	-10.3205
쎁.쎀	-10.3206
cun❁1쎯peng❂7쎯	-10.3208
pu❃3쎯ji❂37쎯	-10.3209
yu❄67쎯	-10.321
ming❂8쎯que❄26쎯	-10.3211
yi❄113쎯zhi❄30쎯	-10.3213
dang❁4쎯qian❂8쎯	-10.3214
bei❄48쎯cheng❁28쎯	-10.3214
ye❃1쎯ke❃4쎯	-10.3214
mu❄15쎯ma❃14쎯	-10.322
zheng❄12쎯cun❁1쎯,	-10.3221
ji❄63쎯	-10.3223
.ming❂8쎯	-10.3224
gen❁0쎯ben❃5쎯	-10.3227
hou❄7쎯de❅2쎯	-10.3231
si❄15쎯bei❃2쎯	-10.3232
jian❁25쎯qiu❁9쎯	-10.3235
hua❂14쎯bei❃2쎯	-10.3236
ying❁11쎯	-10.3246
ju❄18쎯qing❂6쎯	-10.3247
》han❄20쎯《	-10.3247
쎀.쎃	-10.3248
da❄0쎯zhan❄10쎯	-10.3249
chong❂11쎯.	-10.3251
xiao❃2쎯shuo❁2쎯《	-10.3252
jie❁13쎯jin❄60쎯	-10.3255
tong❁5쎯hua❄26쎯	-10.3256
gan❃19쎯	-10.3256
bao❁2쎯	-10.3257
쎁쎉쎇쎆nian❂6쎯	-10.3259
ge❃0쎯wu❄36쎯	-10.326
yong❄3쎯zuo❄5쎯	-10.326
nan❂6쎯hai❃1쎯	-10.3263
shi❁11쎯zi❁45쎯	-10.3266
guan❃9쎯xia❂39쎯	-10.3274
zhao❄18쎯ming❂8쎯	-10.3274
cha❁3쎯wu❄12쎯	-10.3277
ka❁2쎯	-10.3282
nan❂14쎯nv❃0쎯	-10.3284
2쎯、	-10.3286
deng❃2쎯zhi❂32쎯.	-10.3287
yang❂35쎯shi❄32쎯	-10.3295
e❂45쎯	-10.33
ling❂58쎯huo❂3쎯	-10.3306
yin❃14쎯dao❃5쎯	-10.3308
wu❂17쎯xian❄61쎯	-10.3308
、bai❂2쎯	-10.331
yi❁10쎯pian❁5쎯	-10.3315
he❂47쎯	-10.3317
bian❄39쎯	-10.332
mo❄16쎯yuan❂10쎯	-10.3324
qin❂28쎯	-10.333
mo❄16쎯ping❂17쎯	-10.3332
jiao❄35쎯jiang❄9쎯	-10.3334
dun❄11쎯	-10.3335
shi❁11쎯sheng❁16쎯	-10.3341
li❃15쎯shi❄18쎯、	-10.3342
ji❂114쎯》	-10.3343
die❂47쎯	-10.3347
yue❁0쎯:“	-10.3349
gang❃4쎯wei❄15쎯	-10.3359
zhong❁4쎯ji❂83쎯	-10.3364
yue❄56쎯	-10.3373
qu❁49쎯	-10.3374
xin❁10쎯jian❄29쎯	-10.3376
xi❄46쎯shu❄26쎯	-10.3377
ri❄2쎯zhi❄30쎯	-10.3377
zhe❄9쎯	-10.3384
fa❁1쎯da❂30쎯	-10.3385
la❄20쎯	-10.3386
zhi❂32쎯wu❄12쎯	-10.3386
bao❁5쎯zi❃7쎯	-10.3386
mang❂29쎯	-10.3389
kuan❁0쎯dai❄15쎯	-10.339
xin❁13쎯	-10.3393
zhe❂16쎯	-10.3396
ji❁47쎯jian❁85쎯,	-10.3398
hou❂13쎯	-10.3401
li❄141쎯zu❂11쎯	-10.3401
wang❂5쎯chao❂6쎯	-10.3401
bu❄38쎯jian❄15쎯	-10.3402
쎉쎀쎀	-10.3403
fen❁4쎯zhi❁22쎯	-10.3406
쎁쎉쎇쎅nian❂6쎯	-10.3408
xuan❃8쎯shou❃4쎯	-10.3409
yong❄3쎯de❅0쎯	-10.3412
쎃쎀ke❄6쎯	-10.3412
fu❄32쎯ke❁16쎯	-10.3417
diao❁23쎯ke❄7쎯	-10.3418
duo❁5쎯yang❂17쎯	-10.3421
쎂쎄쎀	-10.3422
zhao❃5쎯	-10.3423
yue❁1쎯쎂	-10.3425
liao❂24쎯	-10.3426
.(	-10.3426
geng❁6쎯shi❄45쎯	-10.3426
fu❄48쎯bu❄38쎯	-10.3427
쎁쎁쎀	-10.343
chan❃12쎯xian❄47쎯	-10.343
yu❃38쎯	-10.3431
wu❃28쎯shu❂7쎯	-10.3431
wen❃3쎯	-10.3437
.er❂16쎯	-10.3438
sui❄16쎯de❅2쎯	-10.3441
tai❄3쎯zi❃7쎯	-10.3441
chuan❂13쎯bo❂73쎯	-10.3444
shang❁4쎯chang❃4쎯	-10.3445
pai❂2쎯ming❂7쎯	-10.3446
xie❃8쎯ye❄44쎯	-10.3446
kang❁6쎯xi❁107쎯	-10.3446
qu❁40쎯	-10.3448
s	-10.345
gui❃35쎯	-10.3453
shen❁18쎯shou❄4쎯	-10.3454
,chang❂15쎯	-10.3456
、xiao❃2쎯	-10.3457
zhong❁4쎯nan❂6쎯	-10.3459
쎈.	-10.347
chan❃45쎯shu❄47쎯	-10.3471
er❄5쎯ci❄16쎯	-10.3473
te❄5쎯chong❂11쎯	-10.3475
》huo❄50쎯	-10.3476
qian❁52쎯	-10.3478
fa❁1쎯zhan❃11쎯.	-10.3479
.쎀쎉	-10.349
jian❁14쎯zhi❂32쎯	-10.35
hua❂14쎯nan❂6쎯	-10.3501
yao❂22쎯	-10.3501
zhi❄47쎯yuan❄10쎯	-10.3505
yi❁10쎯xia❄3쎯	-10.3507
ta❄26쎯zhan❃11쎯	-10.3509
chuang❁8쎯	-10.3512
fang❂2쎯jian❁85쎯	-10.3518
jiao❄35쎯hao❃0쎯	-10.352
yi❁10쎯ke❁34쎯	-10.3521
shi❄99쎯yan❃39쎯	-10.3526
pei❄19쎯you❃11쎯	-10.3528
rong❂36쎯	-10.353
shi❄45쎯jing❁27쎯	-10.3532
pi❁12쎯zhen❁52쎯	-10.3533
rong❂33쎯ye❄44쎯	-10.3533
yi❁10쎯kuai❄14쎯	-10.3536
jian❁25쎯shui❃0쎯	-10.354
lang❂12쎯	-10.3541
zhai❁2쎯	-10.3541
cao❃5쎯yuan❂12쎯	-10.3545
wen❁6쎯zhou❁9쎯	-10.3548
zong❁16쎯	-10.3549
diao❄17쎯yan❂50쎯	-10.3553
zhi❁13쎯cheng❁28쎯	-10.3557
zhuan❄6쎯	-10.3558
,yi❃15쎯	-10.3559
jing❃23쎯cha❂12쎯	-10.356
qi❁22쎯	-10.3561
xian❄61쎯zhi❄30쎯	-10.3567
you❂16쎯qi❂29쎯	-10.3574
ju❄45쎯dao❄24쎯	-10.3577
≤	-10.3581
dun❄9쎯	-10.3583
gong❄9쎯xian❄35쎯.	-10.3584
chang❄9쎯	-10.3588
chu❁3쎯shen❁40쎯	-10.3595
.gai❁13쎯cun❁1쎯	-10.3597
xie❄54쎯	-10.3598
.xian❄37쎯	-10.3598
wu❂17쎯xi❁161쎯	-10.3605
,zhi❄89쎯li❄59쎯	-10.3612
wang❁6쎯	-10.3614
yi❄144쎯	-10.3616
zhi❁16쎯neng❂2쎯	-10.3616
qu❄11쎯	-10.362
fu❄74쎯jian❄15쎯	-10.362
zhan❄10쎯guo❂11쎯	-10.3624
dian❄24쎯	-10.3625
shou❄8쎯ming❄1쎯	-10.3625
ji❄116쎯liang❂19쎯	-10.3625
da❄0쎯lou❂19쎯	-10.3627
ze❂11쎯shi❄45쎯	-10.363
.ta❁5쎯	-10.363
guo❃3쎯shi❂13쎯	-10.3632
hui❁40쎯huang❂28쎯	-10.3636
shou❃6쎯jia❁13쎯	-10.3637
qing❁10쎯chao❂6쎯	-10.3641
ren❂1쎯kou❃1쎯쎃	-10.3641
shi❁20쎯	-10.3642
.xian❄37쎯you❃11쎯	-10.3644
쎁쎉쎆쎅nian❂6쎯	-10.3644
쎁쎉쎆쎂nian❂6쎯	-10.3645
bei❄55쎯	-10.3645
jian❄50쎯	-10.3645
pan❁3쎯	-10.3646
kun❄1쎯nan❂20쎯	-10.3647
cha❁8쎯yi❂38쎯	-10.3655
yi❃10쎯qi❂29쎯	-10.3655
kao❃10쎯bi❄126쎯	-10.3658
cheng❂13쎯	-10.3658
zui❄4쎯chu❁4쎯	-10.3661
xin❁10쎯hua❂14쎯	-10.3665
fang❄0쎯she❄8쎯	-10.367
shen❁18쎯ke❄7쎯	-10.3679
sun❃4쎯shi❁8쎯	-10.3682
wei❄18쎯jing❁24쎯	-10.3682
de❅0쎯zhi❃13쎯:	-10.3682
feng❂17쎯	-10.3683
zhu❄19쎯fang❂2쎯	-10.3686
zhuan❃4쎯hua❁1쎯	-10.3697
쎂쎀쎀쎆	-10.3697
xi❄46쎯tong❃9쎯、	-10.3697
“zhong❁4쎯guo❂11쎯	-10.3704
ji❄94쎯lu❄35쎯	-10.3707
tu❁14쎯ran❂12쎯	-10.3709
you❃11쎯suo❃11쎯	-10.3709
duan❃0쎯xin❄8쎯	-10.3718
han❃11쎯jia❁13쎯	-10.3727
xing❄13쎯.	-10.3728
che❄24쎯	-10.3729
long❂40쎯	-10.373
gu	-10.3737
wo❃3쎯de❅2쎯	-10.374
you❂25쎯yong❃22쎯	-10.3743
jing❁24쎯du❄8쎯	-10.3744
le❅0쎯《	-10.3748
.zhe❄14쎯shi❄45쎯	-10.3748
fan❁14쎯chao❃7쎯	-10.3752
,쎂	-10.3753
yao❁19쎯qing❃9쎯	-10.3763
cai❂7쎯	-10.3763
ji❄94쎯wei❁12쎯	-10.3764
yi❂44쎯	-10.3765
da❄0쎯tong❂13쎯	-10.3772
쎉-	-10.3774
,ceng❂6쎯ren❂4쎯	-10.3778
peng❂37쎯	-10.3778
ji❄55쎯	-10.3778
yan❃42쎯jing❁19쎯	-10.3779
ke❁16쎯ji❄59쎯jin	-10.3779
kong❃1쎯zi❃7쎯	-10.3781
(,)	-10.3785
di❄45쎯쎃	-10.3786
hun❁4쎯yin❁14쎯	-10.3791
zi❃7쎯·	-10.3792
li❄68쎯	-10.3794
,zui❄4쎯hou❄7쎯	-10.3799
ye❃2쎯	-10.3801
fen❁4쎯mi❄33쎯	-10.3804
±	-10.3811
xue❂6쎯wei❄15쎯,	-10.3811
peng❂7쎯cun❁1쎯	-10.3811
jiao❁22쎯	-10.3813
rui❄20쎯	-10.3816
』	-10.3816
zhao❁3쎯shang❁4쎯	-10.3819
wei❄14쎯:	-10.3819
ren❄30쎯	-10.3823
jiang❃16쎯	-10.3825
da❄0쎯yue❁1쎯	-10.3827
쎁쎀쎀%	-10.3828
jia❁7쎯meng❂34쎯	-10.3832
dang❄12쎯	-10.3833
dao❃5쎯shi❁11쎯,	-10.3837
쎅、	-10.384
qing❂6쎯bao❄10쎯	-10.3846
chao❂3쎯	-10.3849
tu❃1쎯dou❄18쎯	-10.3851
cheng❁28쎯zhi❁13쎯	-10.3854
kun❁9쎯	-10.3855
xuan❂11쎯zhuan❃4쎯	-10.3856
hou❄6쎯du❄8쎯	-10.3858
쎉gan❄3쎯	-10.3861
쎅쎀ke❄6쎯	-10.3862
fu❁13쎯ren❂1쎯	-10.3862
,tong❂13쎯nian❂6쎯	-10.3863
6쎯,	-10.3864
sheng❁16쎯ya❂10쎯	-10.3865
jiang❄9쎯hua❁1쎯	-10.3868
lian❄22쎯xi❂9쎯	-10.3868
,gen❁0쎯ju❁18쎯	-10.3872
zhi❄64쎯	-10.3873
zhu❃4쎯ying❂45쎯	-10.3876
zu❃7쎯cheng❂29쎯,	-10.3876
wei❄14쎯yi❁10쎯	-10.3878
yi❂20쎯shi❄33쎯	-10.3881
qian❁35쎯	-10.3886
,jiu❄23쎯shi❄45쎯	-10.389
bian❁13쎯hao❂6쎯	-10.3892
xiu❁11쎯fu❄31쎯	-10.3899
e❄9	-10.3899
qi❃34쎯yuan❂34쎯	-10.3902
ren❄30쎯ding❄2쎯	-10.3904
yuan❁16쎯	-10.3905
feng❁58쎯wei❄18쎯	-10.3906
zhen❃27쎯zhi❄61쎯	-10.3906
shao❄10쎯xing❄8쎯	-10.3907
dui❄14쎯bi❃20쎯	-10.3907
ti❁	-10.3908
zui❄4쎯xiao❃2쎯	-10.391
di❂41쎯zheng❄12쎯	-10.3916
xing❄13쎯jiang❄9쎯	-10.3918
fang❂4쎯hu❄30쎯	-10.392
gu❄7쎯ben❄4쎯	-10.3925
sao❃3쎯	-10.3927
che❁8쎯jian❁85쎯	-10.3929
zhi❁40쎯	-10.393
fu❃24쎯	-10.3931
;쎃	-10.3932
hua❂11쎯fen❁4쎯	-10.3937
jiang❁5쎯qi❂29쎯	-10.3939
쎃쎂쎀	-10.3939
쎆)	-10.3943
guan❁16쎯shang❃6쎯	-10.3946
mang❂15쎯	-10.3948
gan❃8쎯	-10.3956
xing❄9쎯ming❂7쎯	-10.3966
shang❃1쎯mian❄2쎯	-10.3966
cheng❂45쎯	-10.397
ning❂10쎯xian❄22쎯	-10.3973
zhi❃19쎯shi❄60쎯	-10.3978
bu❄38쎯fen❁4쎯.	-10.3983
a❁2쎯	-10.3984
jiao❁8쎯hui❄60쎯	-10.3988
na❃2쎯	-10.3989
di❄27쎯zi❃7쎯	-10.3994
hun❁7쎯	-10.3998
wu❁9쎯	-10.3998
bei❃2쎯hai❃1쎯	-10.3999
tiao❂9쎯li❄51쎯	-10.4001
yi❁10쎯ceng❂3쎯	-10.4003
yuan❂10쎯nian❂6쎯(	-10.4005
bu❂0쎯zai❄4쎯	-10.4006
lou❂19쎯、	-10.4011
zhang❃6쎯pian❁7쎯	-10.4011
zhi❁21쎯fu❄24쎯	-10.4013
shi❄31쎯,	-10.4015
.hou❄7쎯	-10.4026
jie❁13쎯dai❁1쎯	-10.4028
yu❂127쎯lei❄16쎯	-10.4029
ke❃4쎯gong❁9쎯	-10.4031
,quan❂6쎯cun❁1쎯	-10.4034
shi❄18쎯xiang❄24쎯	-10.4037
mei❃9쎯tian❁5쎯	-10.404
.guo❂11쎯tu❃1쎯	-10.4045
쎁쎀ke❄6쎯	-10.4051
ma❁0쎯ma❁0쎯	-10.4054
,yuan❂12쎯ming❂7쎯	-10.4054
zuo❄5쎯pin❃0쎯《	-10.4057
liu❄3쎯shi❂10쎯	-10.4057
쎃)	-10.4058
xu❃19쎯ke❃4쎯	-10.4063
lao❃17쎯ren❂1쎯	-10.4069
wen❁6쎯xin❁26쎯	-10.4069
shi❁16쎯du❄8쎯	-10.4069
guo❂11쎯wang❂5쎯	-10.4071
tang❄2쎯	-10.4073
zhang❃6쎯an❁13쎯	-10.4073
pi❁12쎯	-10.4076
hou❂11쎯	-10.4076
yan❄67쎯	-10.4078
zhu❃4쎯jiao❁20쎯	-10.4082
xian❄22쎯ren❂1쎯	-10.4084
shu❄28쎯zhi❁43쎯	-10.4086
dui❄14쎯zhao❄18쎯	-10.4091
(ru❂9쎯	-10.4091
shu❃14쎯	-10.4092
.”tang❂13쎯	-10.4094
yan❂44쎯hai❃1쎯	-10.4095
gang❃6쎯kou❃1쎯	-10.4096
jiao❁8쎯cha❁5쎯	-10.4099
qi❂117쎯quan❂6쎯,	-10.4099
zhao❁3쎯sheng❁16쎯	-10.4101
yu❂61쎯	-10.4101
yu❄36쎯	-10.4102
na❃3쎯ma❅1쎯	-10.4104
li❃28쎯	-10.4107
yu❄126쎯ce❄22쎯	-10.4113
jing❁31쎯	-10.4115
shang❁2쎯hai❄8쎯	-10.4115
wei❄14쎯ben❃5쎯	-10.4115
yi❁13쎯shi❁11쎯,	-10.4117
de❂7쎯ming❂7쎯.	-10.412
fang❁4쎯yan❂61쎯	-10.4122
tiao❁4쎯	-10.4123
yong❃21쎯yuan❃4쎯	-10.4124
쎃、	-10.4125
dai❄9쎯ma❃8쎯	-10.4126
shou❃6쎯xi❂12쎯	-10.4126
yu❂34쎯	-10.4127
zhi❄30쎯yao❄12쎯	-10.4129
zhu❄31쎯ru❄2쎯	-10.4131
jiang❃8쎯li❄60쎯	-10.4134
xiao❁29쎯xi❁70쎯	-10.414
wang❃14쎯ye❄65쎯	-10.4142
liang❃5쎯da❄0쎯	-10.4143
wei❁12쎯yuan❂15쎯.	-10.4144
gao❁20쎯da❂30쎯	-10.4146
shi❁8쎯bai❄15쎯	-10.4148
쎁쎉쎅쎇nian❂6쎯	-10.4151
★	-10.4152
qu❁40쎯shi❄22쎯	-10.4153
qin❁5쎯	-10.4155
ji❁80쎯fu❁39쎯	-10.4157
jia❁13쎯.	-10.4157
“”	-10.4157
hi❄104쎯liang❂19쎯	-10.416
bian❁13쎯hao❂6쎯:	-10.416
ju❂23쎯bu❄38쎯	-10.4162
fen❁4쎯xiang❃3쎯	-10.4163
.”ming❂8쎯	-10.4163
de❅0쎯dian❃11쎯	-10.4164
chao❁17쎯shi❄32쎯	-10.4171
sheng❃9쎯shi❄32쎯	-10.4171
jing❁24쎯xuan❃8쎯	-10.4173
hu❂46쎯tong❂13쎯	-10.4176
guang❁2쎯pan❂10쎯	-10.4176
bi❄145쎯mian❃10쎯	-10.4177
a❁6쎯la❁7쎯bo❂37쎯	-10.4184
,gao❁20쎯	-10.4185
,er❂16쎯shi❄45쎯	-10.419
gong❁19쎯	-10.4191
bi❄144쎯	-10.4191
gou❃2쎯jian❄29쎯	-10.4192
zai❄5쎯jin❁10쎯	-10.4197
shui❃0쎯guo❃3쎯	-10.4202
yu❃44쎯yin❁44쎯	-10.4202
tie❃5쎯dao❄24쎯	-10.4206
jian❁52쎯guan❃9쎯	-10.4207
quan❂6쎯cheng❁28쎯	-10.4209
ke❁16쎯zhang❃6쎯	-10.4212
chan❃12쎯zhi❂7쎯	-10.4212
shi❁11쎯,	-10.4216
о	-10.4217
xia❄3쎯lai❂16쎯	-10.4218
you❁11쎯	-10.4227
、da❄0쎯	-10.4231
ge❁6쎯	-10.4232
쎀.쎈	-10.4237
(yuan❂12쎯	-10.4238
mian❄2쎯ji❁64쎯쎆	-10.4242
you❂25쎯ke❄14쎯	-10.4242
bu❂0쎯dao❄3쎯	-10.4243
ming❂7쎯qing❄14쎯	-10.4244
hang❂16쎯xing❁7쎯	-10.4246
zhong❁4쎯yuan❂12쎯	-10.4248
dong❄13쎯mai❄9쎯	-10.4249
zhu❁29쎯duo❁5쎯	-10.4249
jia❄9쎯shi❃20쎯	-10.4251
san❁1쎯chong❂11쎯	-10.4252
gao❃5쎯	-10.4254
の	-10.4255
,jiang❁10쎯su❁10쎯	-10.4255
jing❁27쎯》	-10.4256
ren❂1쎯jian❁85쎯	-10.4259
ze❃쎯yang❂17쎯	-10.426
huo❂3쎯dong❄13쎯,	-10.4261
feng❁58쎯qing❂6쎯	-10.4276
ン	-10.4278
qi❄43쎯	-10.4279
gao❁20쎯qing❁10쎯	-10.4279
han❄29쎯	-10.4279
쎂、	-10.4281
leng❃쎯que❄11쎯	-10.4289
shu❁8쎯yuan❄18쎯	-10.4289
qing❁10쎯re❄1쎯	-10.4291
ou❃7쎯	-10.4291
lai❂16쎯shuo❁2쎯	-10.4298
luo❂21쎯ji❂107쎯	-10.43
ben❄4쎯de❅2쎯	-10.43
쎁/쎂	-10.4302
qi❄20쎯cai❂3쎯	-10.4307
xiao❃2쎯huo❃2쎯	-10.431
hu❄14쎯xiang❁9쎯	-10.4312
tong❂13쎯xue❂6쎯	-10.4315
yuan❂26쎯	-10.432
wan❃24쎯	-10.432
μ	-10.4323
ting❃9쎯	-10.4323
zhong❁4쎯xin❁7쎯.	-10.4323
ri❄2쎯bao❄10쎯	-10.4325
zhang❄2쎯	-10.4325
jiang❄3쎯	-10.4325
qia❄9쎯	-10.4334
gu❁25쎯	-10.4339
ma❃8쎯tou❂4쎯	-10.434
ming❂7쎯yu❄105쎯	-10.4342
쎃ke❄6쎯	-10.4342
ge❃0쎯zi❁45쎯	-10.4346
gang❁32쎯guan❃9쎯	-10.4351
se❄23쎯	-10.4351
,ru❂9쎯guo❃3쎯	-10.4352
,《	-10.4355
bao❁5쎯	-10.4358
yan❂41쎯	-10.4358
ling❂99쎯shou❄5쎯	-10.4359
、huang❂56쎯	-10.4361
쎀쎁ye❄65쎯shu❄26쎯:	-10.4364
ye❄44쎯ya❁7쎯	-10.4365
ke❁16쎯pu❃3쎯	-10.4365
zai❃5쎯	-10.4365
xia❂13쎯	-10.4368
쎁쎉쎆쎀nian❂6쎯	-10.4371
tun❁1쎯	-10.4374
fa❃2쎯》	-10.4374
xin❁24쎯	-10.4375
chou❄2쎯	-10.4377
han❄38쎯jie❁13쎯	-10.4377
jiao❁20쎯shi❁11쎯,	-10.4378
zhang❃6쎯jian❁14쎯	-10.438
ye❃7쎯sheng❁16쎯	-10.4381
nai❃0쎯zhi❄88쎯	-10.4385
jiang❄9쎯diao❄17쎯	-10.4385
jie❁13쎯kou❃1쎯:	-10.4387
shan❁11쎯po❁2쎯	-10.439
jiao❁26쎯	-10.4391
쎁쎀gan❄3쎯	-10.4393
mu❃7쎯dan❁5쎯	-10.4397
쎃nian❂6쎯	-10.4397
ze❃쎯ma❅1쎯	-10.4397
쎁쎉쎉쎉	-10.4399
、xi❁143쎯	-10.4407
gong❁9쎯dian❄23쎯	-10.441
lu❄35쎯》	-10.4415
gu❄12쎯shi❄18쎯.	-10.4418
shou❃6쎯fu❃14쎯	-10.4418
mei❄24쎯li❄59쎯	-10.4418
wang❂5쎯guo❂11쎯	-10.4419
ji❂35쎯jiang❁5쎯	-10.442
an❁18쎯ji❁34쎯	-10.4421
dang❃2쎯zhi❁21쎯	-10.4421
xu❄32쎯	-10.4425
-쎂-	-10.4426
shui❃0쎯dian❄23쎯	-10.443
shao❃2쎯liang❂19쎯	-10.443
jin❃24쎯mi❄24쎯	-10.4431
wu❄36쎯pin❃0쎯	-10.4435
nv❃0쎯hai❂6쎯	-10.4435
,cai❃11쎯yong❄3쎯	-10.4441
bei❃2쎯song❄4쎯	-10.4443
hu❂36쎯	-10.4444
zhen❄16쎯dong❄13쎯	-10.4448
.ru❂9쎯guo❃3쎯	-10.445
chuang❂5쎯	-10.4451
rong❂21쎯na❄20쎯	-10.4454
fa❃2쎯zhi❄30쎯	-10.4454
jiang❁16쎯	-10.4458
cheng❂30쎯ban❄4쎯	-10.4459
쎁쎉쎇쎂nian❂6쎯	-10.4462
xu❁29쎯ni❃11쎯	-10.4463
mo❄22쎯xi❁143쎯ge❁	-10.4465
쎁쎈쎉	-10.4466
fen❁4쎯jiao❄18쎯	-10.4467
sao❃3쎯miao❂5쎯	-10.4467
hu❄26쎯shu❄26쎯	-10.4471
ying❄9쎯hua❁1쎯	-10.4475
.yi❁10쎯ban❁15쎯	-10.4479
.쎁쎈	-10.4482
yi❁10쎯jie❄19쎯	-10.4485
zhan❃16쎯	-10.4486
kang❁6쎯fu❄31쎯	-10.4487
hou❄7쎯qin❂12쎯	-10.4487
shu❃5쎯xing❄13쎯	-10.4491
yi❁10쎯lei❄16쎯	-10.4491
zhi❁16쎯yao❁17쎯	-10.4496
chuan❂4쎯di❄58쎯	-10.4508
cai❂9쎯fu❄36쎯	-10.4509
guan❁4쎯xin❁7쎯	-10.4514
jing❁27쎯xiao❁61쎯	-10.4514
ni❁쎯	-10.4517
chu❁3쎯se❄29쎯	-10.4518
cong❂6쎯er❂16쎯	-10.452
tong❁5쎯su❂0쎯	-10.4521
ye❃1쎯cheng❁28쎯	-10.4522
ren❂1쎯qun❂6쎯	-10.4524
ji❂83쎯bie❂4쎯	-10.4525
쎁쎉쎅쎅nian❂6쎯	-10.4527
pi❄14쎯	-10.4529
zuo❄5쎯pin❃0쎯.	-10.4532
jian❄62쎯yu❂35쎯	-10.4534
zuo❄12쎯la❄23쎯	-10.4536
hen❃2쎯gao❁20쎯	-10.4537
쎁쎉쎅쎀nian❂6쎯	-10.4537
fen❁4쎯ju❂23쎯	-10.4538
chong❁10쎯ji❁22쎯	-10.4542
zhi❁21쎯cheng❁15쎯	-10.4543
deng❃2쎯deng❃2쎯	-10.4544
shi❂20쎯hou❄5쎯,	-10.4547
hu❄26쎯,	-10.4549
zuo❄5쎯yong❄3쎯,	-10.455
duo❁5쎯shao❃2쎯	-10.4551
re❄1쎯qing❂6쎯	-10.4552
mao❂11쎯ze❂24쎯	-10.4553
xin❁10쎯xing❄8쎯	-10.4561
,bu❂0쎯duan❄4쎯	-10.4562
de❅2쎯mu❄22쎯de❅2쎯	-10.4568
jing❁14쎯ben❄4쎯	-10.4569
guan❁16쎯guang❁2쎯	-10.457
shi❄18쎯,	-10.4572
ou❁8쎯mei❃13쎯	-10.4576
guo❁26쎯na❄11쎯	-10.4586
de❅0쎯yu❄31쎯	-10.4587
dui❄14쎯ying❁17쎯	-10.4587
xiang❁26쎯wei❄18쎯	-10.4587
jia❁8쎯xing❄8쎯	-10.4591
kuo❄15쎯pei❄19쎯	-10.4596
sheng❁16쎯li❃15쎯	-10.4597
dui❄14쎯cheng❁28쎯	-10.4597
lie❄34쎯shi❄28쎯	-10.46
zong❃5쎯cai❂7쎯	-10.4601
yue❄29쎯쎂쎈ri❄2쎯	-10.4605
na❃3쎯gan❄3쎯	-10.4607
쎀mo❄16쎯yuan❂10쎯,	-10.4609
ke❁16쎯yuan❄18쎯	-10.4609
xie❄55쎯	-10.461
pi❂22쎯	-10.4611
shu❃23쎯biao❁14쎯	-10.4612
,xian❄37쎯wei❄14쎯	-10.4613
dian❄23쎯ci❂22쎯	-10.4614
mian❄2쎯ji❁64쎯쎂	-10.4618
guan❁16쎯dian❃11쎯	-10.4624
cha❁11쎯cao❂10쎯	-10.4629
shuo❄15쎯	-10.4632
huo❂3쎯li❄59쎯	-10.4634
쎄)	-10.4635
zhuo❁8쎯	-10.4635
wen❄6쎯ti❂36쎯,	-10.4636
sou❁9쎯	-10.464
li❃17쎯pin❃0쎯	-10.4642
da❄0쎯li❄59쎯	-10.4642
nong❂5쎯chang❃4쎯	-10.4644
cuo❄18쎯wu❄44쎯	-10.4645
suo❃11쎯xu❁37쎯	-10.4647
jie❁13쎯rang❃3쎯	-10.465
shi❄89쎯fang❄0쎯	-10.4652
yin❃14쎯qing❂7쎯	-10.4656
lu❃4쎯	-10.4657
xiang❁26쎯you❂24쎯	-10.4664
쎃.쎀	-10.4665
xue❂6쎯jiao❄18쎯.	-10.4665
shun❄11쎯li❄58쎯	-10.4666
xiang❁9쎯si❄10쎯	-10.4666
lao❂23쎯	-10.4667
shen❁40쎯shang❃1쎯	-10.4669
,zhi❃19쎯	-10.467
lian❂53쎯bang❁13쎯	-10.467
쎈)	-10.4675
.”쎂.	-10.4675
mou❃2쎯yi❁10쎯	-10.4676
zhu❃4쎯li❄59쎯	-10.468
qing❁10쎯xi❃11쎯	-10.4684
и	-10.4686
쎁쎉쎆쎈nian❂6쎯	-10.4691
jia❁13쎯yong❄3쎯	-10.4693
pei❂3쎯yu❄93쎯	-10.4695
xia❂21쎯	-10.4696
(쎄)	-10.4698
shang❃1쎯sheng❁3쎯	-10.4699
(ji❂35쎯	-10.4701
yi❁10쎯zhang❁4쎯	-10.4702
쎁ping❂17쎯fang❁4쎯	-10.4708
.you❂29쎯	-10.4708
qi❁22쎯xi❁70쎯	-10.4712
yi❄109쎯wai❄0쎯	-10.4717
chai❁2쎯	-10.472
gong❁17쎯xue❂6쎯	-10.4723
17쎯	-10.4725
mi❄24쎯qie❁1쎯	-10.4728
zhao❁3쎯pin❄1쎯	-10.4728
zhuan❃4쎯bian❄19쎯	-10.4729
bi❃17쎯	-10.473
ji❂52쎯xing❄13쎯	-10.4732
qu❃1쎯chu❁3쎯	-10.4741
rao❂9쎯	-10.4751
neng❂2쎯li❄59쎯.	-10.4753
jin❃31쎯biao❁14쎯	-10.4754
tai❁5쎯	-10.4754
xue❁2쎯	-10.4755
she❄29쎯ji❄116쎯,	-10.4756
jing❄31쎯	-10.4756
ta❄26쎯	-10.4761
.wei❄14쎯le❅0쎯	-10.4763
『	-10.4767
gao❁20쎯yuan❂12쎯	-10.4768
jia❁7쎯su❄70쎯	-10.477
.ta❁6쎯shi❄45쎯	-10.4776
ci❂35쎯	-10.4782
qiu❁9쎯ji❁74쎯	-10.4783
쎂,	-10.4784
xin❁7쎯zang❄4쎯	-10.4789
쎁쎉쎅쎉nian❂6쎯	-10.4791
ji❁48쎯hui❄27쎯	-10.4793
cai❂9쎯chan❃12쎯	-10.4794
xi❄33쎯qu❁25쎯	-10.4794
jing❁24쎯mei❃13쎯	-10.4795
zhi❁13쎯zhong❁4쎯	-10.4795
jia❁13쎯zhang❃6쎯	-10.4797
duo❃23쎯jiao❁8쎯	-10.4798
lin❂53쎯	-10.4803
wa❁10쎯	-10.4804
kui❂10쎯	-10.4811
zai❁4쎯hai❄8쎯	-10.4814
xian❄37쎯yi❃15쎯	-10.4821
geng❁6쎯wei❄14쎯	-10.4822
gan❄3쎯hang❂16쎯	-10.4823
.쎂쎀쎀쎆nian❂6쎯	-10.4824
.쎅	-10.4828
ban❃6쎯)	-10.4828
tong❃3쎯	-10.4835
xi❁74쎯	-10.4835
(yi❃10쎯xia❄3쎯ji	-10.4835
zhou❁5쎯nian❂6쎯	-10.4838
chang❄9쎯xiao❁61쎯	-10.4848
gong❁10쎯yin❂10쎯	-10.485
rao❃1쎯	-10.4851
ban❄11쎯jun❁3쎯	-10.4851
fan❂35쎯ce❄33쎯	-10.4854
yu❂38쎯	-10.4858
tang❂13쎯shan❁11쎯	-10.4859
mao❄16쎯xian❃46쎯	-10.4863
yuan❂34쎯yu❂35쎯	-10.4864
gei❃1쎯yu❂34쎯	-10.4869
juan❁9쎯	-10.4874
tu❂20쎯	-10.4875
nong❂10쎯du❄8쎯	-10.4876
sun❃4쎯shang❁2쎯	-10.4876
xue❂6쎯xi❄46쎯	-10.4878
lin❂7쎯shi❂20쎯	-10.488
han❂15쎯shou❄9쎯	-10.4883
chi❂55쎯	-10.4885
쎁쎉쎅쎂nian❂6쎯	-10.4886
de❅0쎯shang❃1쎯	-10.4887
nan❂14쎯xing❄13쎯	-10.4889
bao❄15쎯fa❁1쎯	-10.4889
shu❁8쎯zhong❁4쎯	-10.4892
ding❃11쎯ji❂83쎯	-10.4893
shi❄18쎯shi❂13쎯	-10.4893
dun❄20쎯	-10.4893
chen❄10쎯	-10.4894
fu❄31쎯dan❄27쎯	-10.4895
tong❂44쎯	-10.4901
,ye❃1쎯ke❃4쎯	-10.4901
yan❂50쎯tao❃3쎯	-10.4901
da❄0쎯de❅0쎯	-10.4901
jie❄29쎯mian❄2쎯	-10.4902
gong❁17쎯wei❁12쎯	-10.4904
jing❁24쎯xi❄50쎯	-10.4905
yang❂10쎯zhou❁9쎯	-10.4908
rong❂33쎯yu❂35쎯	-10.4913
fang❃15쎯	-10.4914
nan❂6쎯lu❄70쎯	-10.4914
ta❄43쎯	-10.4917
쎁ren❂1쎯,	-10.492
na❄11쎯han❂25쎯	-10.493
shu❁23쎯niu❃9쎯	-10.4935
zui❄4쎯di❁9쎯	-10.4941
meng❃1쎯	-10.4945
rong❂21쎯qi❄20쎯	-10.4945
mou❃2쎯chong❂11쎯	-10.4946
san❁1쎯ya❄7쎯	-10.4948
쎅쎁쎂	-10.4949
hen❃2쎯da❄0쎯	-10.4951
fang❁4쎯fa❃2쎯,	-10.4953
zuo❄7쎯dao❄3쎯	-10.4954
ren❂1쎯,lao❂11쎯	-10.4954
xu❄73쎯	-10.4956
liang❃5쎯an❄13쎯	-10.4957
lang❄4쎯man❄13쎯	-10.4957
33쎯	-10.4958
lian❂58쎯hua❁11쎯	-10.496
쎁쎉쎇쎇nian❂6쎯	-10.4961
bu❄21쎯	-10.4962
shen❁5쎯	-10.4964
,zhi❁16쎯	-10.4964
.쎅gong❁10쎯li❃26쎯	-10.4965
dan❄30쎯	-10.4965
....	-10.4965
xi❄70쎯	-10.4967
tian❁5쎯shi❃6쎯	-10.4968
zui❄4쎯jin❄60쎯	-10.4969
rang❄3쎯ren❂1쎯	-10.4969
쎅～	-10.4972
te❄5쎯dian❃11쎯:	-10.4977
lu❄70쎯xian❄47쎯	-10.4978
beng❁9쎯	-10.4989
nan❂20쎯yi❃10쎯	-10.4991
pu❁3쎯	-10.4992
qian❂8쎯wang❃7쎯	-10.4994
9쎯guan❃9쎯li❃15쎯	-10.4997
qian❁61쎯	-10.4998
bao❄29쎯	-10.4999
쎅쎀쎀쎀	-10.4999
hui❄27쎯zhan❃11쎯	-10.5
huo❄26쎯	-10.5003
,shi❄45쎯zhi❃19쎯	-10.5007
❃4쎯yao❁17쎯yi❃10쎯	-10.501
wei❂41쎯	-10.501
xie❃8쎯ya❁7쎯	-10.501
shou❁1쎯ru❄2쎯zhu	-10.501
xin❁7쎯ling❂58쎯	-10.5011
ma❃14쎯ke❄6쎯si❁2	-10.5014
쎂hao❂6쎯	-10.5018
쎁쎉쎅쎄nian❂6쎯	-10.5024
chu❄17쎯chu❄17쎯	-10.5024
cheng❂38쎯	-10.5026
shang❃1쎯you❂25쎯	-10.5028
na❄11쎯she❄29쎯	-10.5029
-쎀쎁suo❃11쎯shu❃5쎯	-10.5031
,nai❃0쎯	-10.5031
xiang❁2쎯	-10.5032
쎂쎀쎁쎄nian❂6쎯	-10.5033
mo❃2쎯	-10.5035
yuan❂10쎯jian❄15쎯	-10.504
la❁7쎯si❁24쎯	-10.5047
쎂쎄xiao❃2쎯shi❂20쎯	-10.5048
xiang❁9쎯lin❂43쎯	-10.5049
쎂쎅쎆	-10.5051
tao❃3쎯	-10.5054
wu❄36쎯chong❂11쎯	-10.5054
si❄47쎯liao❄8쎯	-10.5054
yi❁10쎯ri❄2쎯	-10.5056
(huo❄27쎯	-10.5059
de❅0쎯ceng❂3쎯	-10.506
pin❄1쎯	-10.5062
ti❂17쎯qu❃1쎯	-10.5066
shui❃0쎯fen❁4쎯	-10.5066
bian❁13쎯ju❄18쎯	-10.5067
.fen❁4쎯bu❄23쎯	-10.5068
guan❃15쎯、	-10.507
,shen❄11쎯zhi❄88쎯	-10.507
zhu❃4쎯dong❄13쎯	-10.5072
yu❂118쎯	-10.5078
dong❁3쎯hai❃1쎯	-10.5084
kao❃10쎯he❂35쎯	-10.5088
gong❁20쎯	-10.5091
hao❂6쎯xian❄47쎯	-10.5092
hu❂26쎯	-10.5095
yuan❂10쎯nian❂6쎯	-10.5098
yi❁10쎯dui❄14쎯	-10.5105
fa❁1쎯chu❁3쎯	-10.5108
shi❄71쎯jiao❃57쎯	-10.5108
qie❁1쎯huan❄21쎯	-10.5108
bu❃11쎯chong❁9쎯	-10.5112
ying❂58쎯	-10.5117
huo❂3쎯yue❄48쎯	-10.5118
pai❂2쎯shui❃0쎯	-10.5119
nan❂6쎯song❄4쎯	-10.5122
hu	-10.5126
hao❃0쎯ping❂36쎯.	-10.5128
ji❃15쎯	-10.5132
5쎯,	-10.5135
ben❄4쎯na❄11쎯	-10.5135
lin❂20쎯	-10.5135
shi❂20쎯ji❁47쎯,	-10.5137
,zhe❄9쎯jiang❁10쎯	-10.5137
xing❄15쎯	-10.514
yi❁10쎯jiu❃3쎯	-10.5141
re❄1쎯ai❄26쎯	-10.5144
bi❄73쎯qiu❁9쎯,	-10.5148
yan❁27쎯	-10.515
zhi❄30쎯pian❁5쎯	-10.5151
qi❄20쎯jian❄15쎯	-10.5152
zong❃5쎯zhi❁21쎯	-10.5152
yu❂35쎯쎁쎈	-10.5154
mo❄16쎯ren❂1쎯	-10.5156
guan❄23쎯mu❄15쎯	-10.5157
zhi❂7쎯de❂7쎯	-10.5158
xian❄47쎯,	-10.5158
you❄28쎯	-10.516
jing❁27쎯mao❄39쎯	-10.5161
xin❁25쎯	-10.5166
qu	-10.5167
.zi❄16쎯	-10.5169
kan❁5쎯	-10.517
mei❂25쎯kuang❄12쎯	-10.5171
su❁10쎯qu❁15쎯	-10.5176
쎁.쎈	-10.5178
yun❃7쎯xu❃19쎯	-10.5184
dang❁4쎯jin❁10쎯	-10.5184
쎁쎉쎄쎅nian❂6쎯	-10.5185
li❄1	-10.5186
shi❄32쎯zhang❃6쎯	-10.5186
bing❄12쎯、	-10.5189
ai❁5쎯ji❂37쎯	-10.5191
shan❁11쎯、	-10.5191
zhong❁19쎯yu❂35쎯	-10.5194
fan❁4쎯	-10.5195
zuo❄9쎯biao❁14쎯	-10.5196
qing❁10쎯xin❁10쎯	-10.5197
qian❃14쎯	-10.5198
.yi❃10쎯	-10.5199
quan❄2쎯	-10.5199
쎁쎉쎇쎄nian❂6쎯	-10.5199
sheng❁16쎯zhi❂22쎯	-10.5201
zhi❁21쎯dui❄33쎯	-10.5202
,quan❂6쎯	-10.5206
jue❂96쎯	-10.5207
de❅2쎯hao❃0쎯	-10.5207
쎂쎀ke❄6쎯	-10.5211
yin❂12쎯	-10.5211
hao❃0쎯ping❂36쎯	-10.5214
le❄3쎯qiu❂19쎯	-10.5216
gong❁10쎯wu❄12쎯	-10.5221
le❄3쎯qi❄20쎯	-10.5222
xing❂11쎯huo❄27쎯	-10.5223
shan❁11쎯zhen❄30쎯	-10.5223
쎀～	-10.5225
huan❂20쎯rao❄2쎯	-10.5226
tuo❁8쎯	-10.5227
jia❁13쎯wan❂5쎯	-10.5229
shang❃1쎯ying❄7쎯	-10.523
quan❂6쎯qu❁15쎯	-10.5234
you❄21쎯er❂7쎯wan❂	-10.5237
wu❂17쎯shu❄26쎯	-10.524
yue❄29쎯쎁쎅ri❄2쎯	-10.5241
de❅0쎯dai❄15쎯	-10.5247
chu❄17쎯fu❄28쎯	-10.5249
shi❄18쎯ji❄120쎯	-10.525
xi❁143쎯yang❂19쎯	-10.5251
guan❁4쎯xi❄46쎯.	-10.5252
쎅°C	-10.5253
shu❄26쎯kong❄1쎯	-10.5256
huo❄44쎯	-10.5259
xian❁57쎯ming❂8쎯	-10.5264
lian❂69쎯zai❄8쎯	-10.5264
yue❄29쎯쎁쎀ri❄2쎯	-10.5266
,wei❄14쎯le❅0쎯	-10.5266
쎃쎆쎀	-10.5267
gao❁20쎯kao❃10쎯	-10.5269
xiang❁9쎯ji❁48쎯	-10.5271
chong❁9쎯dian❄23쎯	-10.5277
,zhu❄31쎯ce❄11쎯	-10.528
wen❄6쎯ti❂36쎯.	-10.528
tu❂28쎯liao❄8쎯	-10.5282
guan❁16쎯yin❁44쎯	-10.5283
zuo❄5쎯wu❄36쎯.	-10.5285
dan❁15쎯	-10.5287
bao❃13쎯bao❃13쎯	-10.5287
jin❁15쎯	-10.5288
yi❄137쎯	-10.529
tou❂5쎯ying❃11쎯	-10.5295
fu❃28쎯shi❂32쎯	-10.5298
kong❃2쎯	-10.53
34쎯	-10.5305
yan❂46쎯、	-10.5308
jiao❁20쎯wei❁12쎯	-10.531
fu❄31쎯zhi❄30쎯	-10.5311
jia❁7쎯yi❃10쎯	-10.5311
she❄29쎯ding❄2쎯	-10.5318
wen❂5쎯lian❂53쎯	-10.5318
wei❃48쎯	-10.5319
shi❁9쎯	-10.532
xin❁10쎯xian❁57쎯	-10.5321
.쎁쎀	-10.5322
zha❁16쎯	-10.5323
wei❄18쎯dao❄24쎯	-10.5326
luo❂18쎯xuan❂11쎯	-10.5326
쎉ping❂17쎯fang❁4쎯	-10.5332
dong❁3쎯lu❄70쎯	-10.5334
chang❃4쎯de❅0쎯	-10.5335
de❅2쎯tu❃1쎯de❅0쎯	-10.534
kong❃2쎯bu❄24쎯	-10.5342
(쎃	-10.5344
kun❁4쎯	-10.5344
jun❄18쎯	-10.5345
,쎀쎀쎀	-10.5346
wai❄0쎯ke❂0쎯	-10.5347
(쎁쎉쎀	-10.5348
zhi❃20쎯zai❄5쎯	-10.5349
zhi❁44쎯ma❂8쎯	-10.5351
fan❂35쎯zhi❂22쎯	-10.5352
ao❄25쎯men❂19쎯	-10.5363
dang❃3쎯	-10.5364
,jie❁23쎯	-10.5366
bao❃9쎯ding❄2쎯	-10.5367
qi❃25쎯xi❁70쎯	-10.5368
shi❂19쎯	-10.5368
lei❄16쎯bie❂4쎯	-10.5371
bao❁9쎯	-10.5379
luo❄24쎯	-10.5383
se❄29쎯ze❂24쎯	-10.5385
nan❂6쎯chao❂6쎯	-10.5388
zhi❁13쎯,	-10.5392
rong❂50쎯zi❁45쎯	-10.5393
guang❁2쎯ming❂8쎯	-10.5396
sui❄16쎯.	-10.5398
shu❁8쎯.	-10.5399
,sui❄42쎯	-10.5405
hao❂6쎯ma❃8쎯	-10.5407
mian❄2쎯ji❁64쎯쎇	-10.5413
pin❂12쎯kun❄1쎯	-10.5413
sui❄46쎯dao❄24쎯	-10.5414
na❄28쎯	-10.5415
xian❄22쎯ren❂1쎯.	-10.5418
쎁쎈쎈	-10.542
jian❄29쎯guo❂11쎯	-10.5422
shen❂2쎯ji❁36쎯	-10.5423
,hou❄7쎯lai❂16쎯	-10.5425
fen❁11쎯wei❂11쎯	-10.5427
nian❃	-10.5428
tan❁18쎯	-10.5439
yin❁44쎯xiao❄14쎯	-10.5443
liao❄8쎯jiu❃12쎯	-10.5447
zhong❁4쎯xing❂9쎯	-10.5451
yi❁12쎯kao❄5쎯	-10.5454
ba❄21쎯	-10.5455
wei❄14쎯nin❂5쎯	-10.5455
쎁쎉쎇쎃nian❂6쎯	-10.5455
ke❄6쎯si❁24쎯	-10.5459
fang❂4쎯yu❄40쎯	-10.5459
dun❁9쎯	-10.5461
tu❂38쎯jing❄17쎯	-10.5465
kou❃1쎯jing❄17쎯	-10.5482
qu❁25쎯xian❄47쎯	-10.5485
er❂7쎯zi❃7쎯	-10.5493
meng❁3쎯gu❃14쎯zi❄	-10.5496
hua❂14쎯xia❄6쎯	-10.5497
-쎁쎀	-10.5497
hui❁23쎯se❄29쎯	-10.5498
.yong❄3쎯yu❂35쎯	-10.5499
xuan❃8쎯yong❄3쎯	-10.5501
쎁쎉쎆쎉nian❂6쎯	-10.5501
shi❄45쎯ji❂114쎯	-10.5503
tan❂21쎯	-10.5505
guan❁16쎯nian❄4쎯	-10.5507
tou❂4쎯,	-10.5508
han❃11쎯shang❁4쎯	-10.5514
guan❄33쎯	-10.5514
,ta❁6쎯shi❄45쎯	-10.5515
9쎯,	-10.5515
you❃9쎯yi❄217쎯	-10.5516
si❄47쎯yang❃6쎯	-10.5517
쎁쎉쎉쎆	-10.5517
.xian❁18쎯hou❄7쎯	-10.552
dao❃7쎯yu❃26쎯	-10.5522
yi❁10쎯chu❄17쎯	-10.5522
xuan❃8쎯ju❃4쎯	-10.5523
shen❁18쎯hou❄6쎯	-10.5523
shuo❄7쎯	-10.5525
min❂22쎯su❂0쎯	-10.5533
fa❁1쎯jue❂58쎯	-10.5543
di❄45쎯jiu❃3쎯	-10.5547
de❂9쎯·	-10.5549
shi❄45쎯dui❄14쎯	-10.5554
2쎯xi❄46쎯	-10.5556
ji❂94쎯	-10.5556
쎁쎉쎃쎇nian❂6쎯	-10.5556
.ci❃2쎯wai❄0쎯,	-10.5557
tan❄5쎯ce❄22쎯	-10.5557
lie❄20쎯ru❄2쎯	-10.5559
ju❄18쎯yuan❄18쎯	-10.556
xiang❄6쎯shang❃1쎯	-10.5562
guan❄33쎯chuan❁5쎯	-10.5563
gao❁20쎯shan❁11쎯	-10.5566
nan❂6쎯yang❂35쎯	-10.5568
3쎯,	-10.5572
zhang❁4쎯jia❁13쎯	-10.5573
you❂29쎯ci❃2쎯	-10.5573
can❂17쎯ji❂75쎯	-10.5574
shui❃0쎯,	-10.5579
ping❂36쎯shen❃7쎯	-10.5583
long❃12쎯	-10.5586
dan❄21쎯xing❄13쎯	-10.5587
fu❄32쎯chan❃12쎯	-10.5589
쎁쎉쎉쎇	-10.559
xian❄22쎯ren❂1쎯,	-10.5592
nu❂1쎯	-10.5595
shan❁16쎯	-10.5595
lv❃9쎯	-10.5595
쎇)	-10.5598
wai❄0쎯bu❄38쎯	-10.5601
da❄0쎯men❂19쎯	-10.5602
jian❁85쎯de❅2쎯	-10.5604
쎁.쎆	-10.5605
bian❁13쎯zhao❂쎯	-10.561
yi❂58쎯nan❂20쎯	-10.561
qing❁10쎯ji❂67쎯	-10.5614
fen❁4쎯jie❃6쎯	-10.5614
kuang❁9쎯	-10.5615
yun❄7쎯	-10.5615
쎈쎀nian❂6쎯dai❄9쎯	-10.5617
you❁5쎯dian❃11쎯	-10.5618
yong❁14쎯	-10.5619
ji❁34쎯de❅0쎯.	-10.5619
쎄쎈쎀	-10.5625
xia❄3쎯you❂25쎯	-10.5625
lai❂16쎯de❅2쎯	-10.5626
ji❂58쎯	-10.5626
yuan❄18쎯shi❄28쎯	-10.5627
fan❃3쎯dui❄14쎯	-10.5628
,zhi❁21쎯chi❂20쎯	-10.5629
ya❄29쎯	-10.5629
bi❄61쎯yao❁17쎯	-10.5631
chen❁13쎯ji❁64쎯	-10.5633
zhang❄15쎯	-10.5634
xiang❁9쎯xin❄8쎯	-10.5635
nong❂10쎯yu❄115쎯	-10.5636
,yin❁11쎯er❂16쎯	-10.5643
α	-10.5645
reng❂4쎯ran❂12쎯	-10.5653
eng❁16쎯chan❃12쎯、	-10.5654
ji❁48쎯chuang❂6쎯	-10.5656
bing❁6쎯zai❄5쎯	-10.5658
쎁쎃쎀	-10.5659
----	-10.566
、fu❄28쎯	-10.5671
hua❂14쎯qiao❂6쎯	-10.5675
huo❄56쎯yun❃16쎯	-10.5675
yi❂42쎯zu❂9쎯	-10.568
xi❁143쎯lu❄70쎯	-10.5681
zong❃5쎯li❃15쎯	-10.5682
huang❂34쎯hou❄7쎯	-10.5682
jing❄30쎯	-10.5683
zan❄5쎯	-10.5684
bao❄15쎯zha❂8쎯	-10.5686
feng❁21쎯	-10.5687
ping❂7쎯	-10.569
yue❄29쎯쎈ri❄2쎯	-10.5696
》yi❁10쎯shu❁8쎯	-10.5696
ke❃4쎯yong❄3쎯	-10.5698
shen❃7쎯pan❄2쎯	-10.5699
huang❂34쎯jia❁13쎯	-10.5699
na❄11쎯de❅0쎯	-10.57
guo❂11쎯hua❄18쎯	-10.57
쎅gong❁10쎯li❃26쎯	-10.5701
mian❄2쎯ji❁64쎯쎈	-10.5703
jian❁19쎯	-10.5703
ke❁16쎯ji❂83쎯	-10.5705
yan❂20쎯jin❃29쎯	-10.5706
yue❄29쎯쎂쎇ri❄2쎯	-10.5707
li❄58쎯run❄4쎯	-10.571
xi❁135쎯	-10.5711
yuan❂12쎯you❃11쎯	-10.5717
chu❄29쎯	-10.572
fei❃3쎯	-10.572
de❅2쎯ge❃0쎯zuo❄5쎯	-10.5722
쎄.쎅	-10.5723
rui❄12쎯dian❃5쎯	-10.5726
ling❂95쎯	-10.5727
2쎯,	-10.5733
쎁쎉쎅쎃nian❂6쎯	-10.574
jing❁24쎯shen❂2쎯,	-10.574
jie❁15쎯	-10.5745
xi❄50쎯ni❄24쎯	-10.5746
wu❄36쎯ben❄4쎯	-10.5746
zhen❃27쎯	-10.5747
xiao❁29쎯shi❁8쎯	-10.5748
)(	-10.5751
ji❄59쎯shu❂7쎯、	-10.5755
zhu❄59쎯zao❄16쎯	-10.5756
kou❃1쎯wei❄18쎯	-10.5757
,gong❄3쎯you❃11쎯	-10.5758
,쎃	-10.5758
shi❂13쎯li❄51쎯	-10.576
e❄29쎯	-10.576
shang❄2쎯wei❄26쎯	-10.5762
zha❄	-10.5763
wa❁13쎯	-10.5767
,xi❁143쎯	-10.5771
heng❁0쎯	-10.5772
liao❂24쎯xiao❄14쎯	-10.5773
li❄63쎯	-10.5773
bai❂2쎯tang❂28쎯	-10.5778
zhu❃4쎯xi❂12쎯.	-10.5779
zhuan❄9쎯ke❄7쎯	-10.5781
nv❃0쎯er❂7쎯	-10.5781
gong❄3쎯fen❁4쎯	-10.5784
hu❄26쎯wai❄0쎯	-10.5784
fa❁1쎯bing❄12쎯	-10.5785
쎁쎉쎆쎆nian❂6쎯	-10.5786
bei❃2쎯lu❄70쎯	-10.5787
),shi❄45쎯	-10.5787
qi❃34쎯dao❄3쎯	-10.579
xi	-10.5791
yue❄29쎯쎁쎄ri❄2쎯	-10.5794
shan❁11쎯cun❁1쎯	-10.58
lan❃28쎯	-10.58
,ji❁64쎯ji❂57쎯	-10.5803
xiao❁29쎯chu❂42쎯	-10.5804
쎉쎀%	-10.5805
jia❃14쎯ji❁34쎯	-10.5806
da❄0쎯huo❃2쎯	-10.5807
hai❃1쎯guan❁4쎯	-10.5808
shang❁4쎯hui❄27쎯	-10.5809
zhe❁4쎯	-10.581
diao❄17쎯ru❄2쎯	-10.5812
piao❁4쎯	-10.5812
mei❂47쎯	-10.5815
쎀mu❃2쎯	-10.5818
sai❄4쎯shi❄18쎯	-10.5818
yi❁10쎯fen❄2쎯	-10.5819
ben❃3쎯dou❃4쎯	-10.5822
jin❁33쎯gang❁7쎯	-10.5823
、shui❃0쎯	-10.5824
lu❄70쎯,	-10.5825
mo❄16쎯yu❂37쎯	-10.5828
guang❁2쎯dian❄23쎯	-10.583
,yuan❂12쎯	-10.5831
shang❃1쎯bu❄38쎯	-10.5833
sui❂6쎯	-10.5833
yue❄29쎯쎉ri❄2쎯	-10.5833
.쎁쎁	-10.5839
ju❄30쎯da❄0쎯de❅2쎯	-10.5841
yue❄29쎯쎃쎀ri❄2쎯	-10.5841
you❃9쎯hao❃0쎯	-10.5843
you❃11쎯xian❄47쎯	-10.5845
xing❂7쎯shi❄18쎯	-10.5847
shui❄11쎯shou❁1쎯	-10.5848
ta❁5쎯们	-10.5849
jing❁24쎯zhi❄89쎯	-10.5852
zi❃7쎯、	-10.5855
、dian❄23쎯zi❃7쎯	-10.5863
yan❁34쎯	-10.5871
guang❁2쎯gu❃28쎯	-10.5877
jing❁27쎯ji❄94쎯	-10.5877
zhen❁25쎯gui❄41쎯	-10.5878
yang❂10쎯qing❄3쎯	-10.5879
쎈hao❂6쎯	-10.5879
chan❂40쎯	-10.5881
xiang❄20쎯.	-10.5883
ji❁48쎯shen❁40쎯	-10.5883
ren❂1쎯xing❄13쎯	-10.5884
na❄11쎯,	-10.589
di❂41쎯piao❄5쎯	-10.5891
,nong❂5쎯min❂22쎯	-10.5892
xie❃4쎯zi❄6쎯	-10.5894
shui❃0쎯zhong❁4쎯	-10.5895
yin❄7쎯fa❁1쎯	-10.5896
nu❃1쎯	-10.5898
hen❂2쎯	-10.5899
ben❄4쎯zhang❃6쎯	-10.59
pan❄2쎯duan❄4쎯	-10.59
miao❂5쎯xie❃4쎯	-10.5902
dong❁5쎯ji❄46쎯	-10.5905
shuo❁2쎯fa❃2쎯	-10.5908
chun❂13쎯	-10.5909
.wo❃3쎯们	-10.5911
fa❁1쎯song❄9쎯	-10.5912
yuan❂17쎯zhui❁6쎯	-10.5915
,zuo❄9쎯la❄23쎯	-10.5916
ting❃12쎯	-10.5916
dai❄9쎯ti❄21쎯	-10.5917
ling❂58쎯hun❂21쎯	-10.5918
,ju❄65쎯xian❄22쎯	-10.5919
jia❁13쎯xiang❁1쎯	-10.5924
yi❁10쎯tian❁5쎯	-10.5929
bian❄19쎯de❂7쎯	-10.5936
xie❄37쎯	-10.5938
feng❄3쎯xian❄35쎯	-10.5939
wu❃28쎯di❄26쎯	-10.594
hua❂14쎯shuo❄15쎯	-10.594
qiu❁8쎯ling❂98쎯	-10.5943
zheng❁22쎯shi❄45쎯	-10.5945
liang❄10쎯	-10.5948
chong❃2쎯wu❄36쎯	-10.5954
dao❃5쎯hang❂13쎯	-10.5954
wei❁13쎯hai❃1쎯	-10.5955
,xian❄37쎯yi❃15쎯	-10.5958
ai❃12쎯	-10.5958
wu❂17쎯se❄29쎯	-10.596
38쎯	-10.5961
yi❁10쎯xian❄47쎯	-10.5963
de❅0쎯qu❁15쎯.	-10.5967
,bian❄16쎯	-10.5968
hou❄7쎯zai❄5쎯	-10.5969
niu❂3쎯rou❄1쎯	-10.5969
fang❁4쎯xing❂11쎯	-10.5969
nin❂5쎯de❅2쎯	-10.5969
gui❄41쎯zu❂9쎯	-10.5969
”zhi❁13쎯	-10.5972
yao❁17쎯su❄56쎯	-10.5978
liu❂20쎯shui❃0쎯	-10.598
qiu❂19쎯wei❁12쎯	-10.5981
xian❂44쎯	-10.5981
ding❄2쎯zhi❄30쎯	-10.5981
zhu❃4쎯zhang❁4쎯	-10.5983
н	-10.5983
can❃4쎯	-10.5984
yi❃10쎯nan❂6쎯	-10.5986
shou❃4쎯fa❃2쎯	-10.5988
chang❄1쎯dao❃5쎯	-10.5991
hai❃1쎯shang❃1쎯	-10.5991
qing❂8쎯	-10.5992
ri❄2쎯jun❁2쎯	-10.5994
.mu❄22쎯qian❂8쎯,	-10.5995
xi❁46쎯	-10.5997
xian❄66쎯	-10.5997
쎁쎀쎅	-10.6
bo❁10쎯chu❁3쎯	-10.6006
xin❁13쎯shang❃6쎯	-10.6006
yue❄29쎯쎂쎉ri❄2쎯	-10.6007
쎉)	-10.6007
wu❃9쎯dai❄9쎯	-10.6008
ju❄57쎯ji❂114쎯	-10.6012
mao❄16쎯	-10.6012
you❃11쎯shi❂20쎯	-10.6015
su❄58쎯	-10.6019
she❄29쎯bei❄26쎯、	-10.6019
huo❃2쎯jian❄50쎯	-10.602
cun❁1쎯.	-10.6022
bi❃20쎯yu❄28쎯	-10.6024
cong❂6쎯qiu❁9쎯	-10.6024
zhuan❁1쎯ji❂107쎯《	-10.6025
bei❄26쎯yong❄3쎯	-10.6026
fa❂19쎯men❂19쎯	-10.6026
,ni❃6쎯	-10.6028
jiu❃3쎯long❂63쎯	-10.6031
guan❁6쎯yuan❂15쎯	-10.6032
zhen❃12쎯	-10.6033
,nian❂6쎯	-10.6033
hu❄26쎯xing❂9쎯	-10.6035
pi❁7쎯	-10.6036
xue❂6쎯ke❁16쎯:	-10.6037
fa❂13쎯	-10.6037
fan❃3쎯she❄8쎯	-10.6038
na❄11쎯cun❂1쎯r	-10.6042
chong❂11쎯,	-10.6044
di❁9쎯wen❁6쎯	-10.6048
(쎁쎉쎁	-10.6048
zi❃17쎯	-10.6049
ting❂5쎯zhi❃22쎯	-10.6051
、li❃11쎯	-10.6058
yan❁33쎯si❄15쎯	-10.6065
yi❃9쎯xi❁99쎯	-10.6065
.쎀쎈	-10.6069
ku❁9쎯	-10.607
zong❃5쎯xian❄47쎯	-10.6072
han❂15쎯	-10.6075
ming❂8쎯chao❂6쎯	-10.6076
chu❄17쎯zhang❃6쎯	-10.6077
쎀쎉-	-10.6078
ding❄2쎯dian❃11쎯	-10.608
ze❂44쎯	-10.6084
ling❂7	-10.6085
nian❂6쎯qian❂8쎯	-10.6085
na❃3쎯li❃26쎯	-10.6088
:zhi❁21쎯chi❂20쎯	-10.6088
쎁쎉쎇쎁nian❂6쎯	-10.6088
zuo❄7쎯le❅0쎯	-10.609
yuan❂17쎯zhu❄26쎯	-10.6094
suo❃11쎯zhi❄89쎯	-10.6095
shang❃1쎯shu❄47쎯	-10.6095
si❄17쎯zhou❁5쎯	-10.6096
da❄0쎯chen❂26쎯	-10.6102
de❅0쎯duan❄7쎯	-10.6104
:쎄	-10.6108
gai❁13쎯jiao❄18쎯	-10.6109
쎁쎀쎈	-10.6111
ke❄6쎯la❁7쎯	-10.6111
tou❂4쎯bu❄38쎯	-10.6111
ren❂1쎯zai❄5쎯	-10.6111
ju❄18쎯qiu❂19쎯	-10.6114
dang❃2쎯zu❃7쎯ch	-10.6116
fen❁17쎯	-10.6117
wei❁10쎯hai❄8쎯	-10.612
쎁쎀쎀ke❄6쎯	-10.6124
rui❄12쎯shi❄28쎯	-10.6127
.gen❁0쎯ju❁18쎯	-10.6129
bian❄43쎯bu❄23쎯	-10.6129
bei❃2쎯da❄0쎯	-10.6143
kou❄6쎯	-10.6143
ji❂39쎯ta❁3쎯	-10.6144
.zuo❄5쎯wei❄14쎯	-10.6144
쎂쎀쎀쎂	-10.6145
shu❃8쎯	-10.6147
bao❄14쎯bu❄23쎯	-10.615
쎁쎉쎃쎉nian❂6쎯	-10.6152
die❁4쎯	-10.6152
쎁쎀nian❂6쎯	-10.6154
.xian❄37쎯zai❄5쎯	-10.6156
ji❁7	-10.6158
쎁쎂gan❄3쎯	-10.616
qian❁13쎯mi❃19쎯	-10.6162
shi❃6쎯de❂7쎯	-10.6163
.jiu❃12쎯dian❄13쎯	-10.6165
xi❃1쎯ju❄18쎯	-10.6168
,shi❄45쎯you❂29쎯	-10.6168
hong❂44쎯wai❄0쎯	-10.6171
-쎃-	-10.6171
fa❁1쎯jiao❄36쎯	-10.6174
❁쎯	-10.6176
li❄59쎯,	-10.618
wu❄36쎯zi❁45쎯	-10.618
quan❂6쎯shen❁40쎯	-10.6182
wan❁7쎯qu❁25쎯	-10.6185
fan❂26쎯	-10.6186
cheng❁10쎯hua❁1쎯	-10.6186
shu❄35쎯	-10.6186
쎀쎀mu❃2쎯,	-10.6187
∶	-10.6187
qi❃25쎯wen❁6쎯	-10.6189
yin❃37쎯yong❄3쎯	-10.6191
cha❂17쎯xun❂42쎯	-10.6191
qian❂8쎯yan❂44쎯	-10.6192
쎁쎉쎄쎀nian❂6쎯	-10.6192
cheng❂29쎯xing❂9쎯	-10.6193
su❂0쎯cheng❁28쎯	-10.6196
zhu❃4쎯ji❁48쎯	-10.6198
hong❂21쎯guan❁16쎯	-10.6198
ji❁21쎯shi❂10쎯	-10.6198
dian❃5쎯ya❃9쎯	-10.6201
rong❂43쎯	-10.6205
yue❄29쎯쎂쎆ri❄2쎯	-10.6206
nong❂5쎯li❄62쎯	-10.6207
,shan❁11쎯dong❁3쎯	-10.621
cha❄11쎯	-10.6215
dai❁1쎯ji❁48쎯	-10.6215
(bao❁4쎯gua❁11쎯	-10.6218
jun❁3쎯	-10.6219
zhang❃6쎯yu❂35쎯	-10.6219
suo❁15쎯xie❃4쎯	-10.6222
ming❂8쎯qing❁10쎯	-10.6222
fu❄72쎯	-10.6223
jian❁25쎯fa❁1쎯、	-10.6223
yi❃22쎯	-10.6225
bei❃2쎯mei❃13쎯	-10.6226
ba❁9쎯shi❂10쎯	-10.6228
chu	-10.6229
14쎯	-10.6229
yu❂96쎯	-10.6232
bao❃9쎯xiu❁11쎯	-10.6238
mo❄16쎯dun❁2쎯	-10.624
neng❂2쎯li❄59쎯,	-10.624
que❄26쎯bao❃9쎯	-10.624
lun❄1쎯shu❄47쎯	-10.6242
chong❃2쎯	-10.6242
dian❁19쎯	-10.6243
zhu❃4쎯liu❂20쎯	-10.6244
tong❁5쎯zhi❁31쎯	-10.6247
zhe❄14쎯zhang❁4쎯	-10.6253
deng❃2쎯zhi❂32쎯	-10.6254
qian❁39쎯yue❁1쎯	-10.6255
shi❃9쎯jian❄29쎯y	-10.6255
wei❄34쎯	-10.6256
mu❃2쎯;you❃11쎯	-10.6258
run❄4쎯gu❃28쎯	-10.6261
di❂41쎯jian❄15쎯	-10.6261
jie❂67쎯hun❁4쎯	-10.6261
ze❂19쎯	-10.6261
,ji❁34쎯bu❄38쎯	-10.6268
,nan❂6쎯	-10.6269
shan❁23쎯hu❂38쎯	-10.627
rong❂36쎯dian❃11쎯	-10.6271
bei❁5쎯	-10.6277
yue❄29쎯쎃ri❄2쎯	-10.628
bu❄38쎯ji❂83쎯	-10.6282
lv	-10.6287
qi❂36쎯	-10.6293
chan❃12쎯、	-10.6294
zhai❃2쎯	-10.6297
gua❁8쎯	-10.6298
yue❄29쎯쎁쎉ri❄2쎯	-10.6298
rong❂21쎯ji❁64쎯	-10.6303
de❂7쎯yi❃10쎯	-10.6304
de❅0쎯xing❂11쎯	-10.6305
yue❄29쎯쎁쎈ri❄2쎯	-10.6306
xi❃	-10.6306
shuo❁2쎯shi❄45쎯	-10.6311
xun❄28쎯	-10.6318
bao❁7쎯	-10.6319
ju❃4쎯ban❄4쎯de❅2쎯	-10.6323
gong❁10쎯si❁16쎯(	-10.6323
min❂22쎯ban❄4쎯	-10.6324
yan❃30쎯	-10.6324
jie❁32쎯ji❂83쎯	-10.6328
ming❄1쎯ling❂34쎯	-10.6329
dan❁9쎯qu❁25쎯	-10.6332
zhi❂16쎯fa❃2쎯	-10.6332
ren❂1쎯qi❃25쎯	-10.6333
쎁쎉쎄쎈nian❂6쎯	-10.6333
suo❃11쎯zhang❃6쎯	-10.6334
liao❂24쎯fa❃2쎯	-10.6336
쎁쎂쎅	-10.6339
zhu❄31쎯she❄8쎯	-10.634
han❃15쎯	-10.634
kou❃1쎯fu❂43쎯	-10.6341
jun❄31쎯gong❁17쎯	-10.6343
qiu❁9쎯jie❄29쎯	-10.6345
mo❄16쎯li❄62쎯	-10.6345
.쎀쎃	-10.6346
xia❄6쎯ji❄46쎯	-10.6347
shi❁11쎯.	-10.6348
nian❂15쎯	-10.6348
(쎂쎀쎀	-10.6355
jin❄61쎯qu❃1쎯	-10.6357
feng❁17쎯bi❄157쎯	-10.6366
mei❃9쎯ri❄2쎯	-10.6368
쎁.쎄	-10.6371
duo❁5쎯wei❄14쎯	-10.6372
mo❄16쎯yuan❂10쎯,	-10.6372
mu❄15쎯cai❂3쎯	-10.6376
zu❃5쎯guo❂11쎯	-10.6376
zhang❄2쎯fu❁13쎯	-10.6376
jin❁10쎯nian❂6쎯	-10.6377
ru❄2쎯kou❃1쎯	-10.6377
shui❃0쎯xian❄22쎯	-10.6378
deng❃2쎯deng❃2쎯.	-10.6379
shu❄26쎯bai❃9쎯	-10.638
fen❁4쎯san❃7쎯	-10.6386
gu❄12쎯zhang❄19쎯	-10.6388
ˇ	-10.639
kui❁	-10.639
～쎂	-10.6392
fa❂4쎯	-10.6392
hou❄7쎯ren❂4쎯	-10.6395
er❂16쎯cheng❂29쎯,	-10.6395
gua❃7쎯	-10.6396
nian❂6쎯chan❃12쎯	-10.6396
du❃11쎯	-10.6407
zhan❁4쎯you❃11쎯	-10.6407
ping❂17쎯hang❂16쎯	-10.6409
quan❂12쎯yi❄165쎯	-10.6411
gong❁11쎯neng❂2쎯:	-10.6412
zhu❃4쎯xi❂12쎯,	-10.6413
gao❄3쎯su❄67쎯	-10.6413
yi❃24쎯	-10.6415
jia❁7쎯kuai❄18쎯	-10.6417
jie❁13쎯kou❃1쎯,	-10.6417
tai❄9쎯guo❂11쎯	-10.6418
yue❄29쎯쎂쎁ri❄2쎯	-10.6426
qiu❂36쎯chang❃4쎯	-10.6429
fang❂2쎯、	-10.6431
huo❄50쎯qu❃1쎯	-10.6433
shou❂쎯xi❁71쎯	-10.6436
mei❃13쎯nv❃0쎯	-10.6436
쎀.쎆	-10.6437
zai❁1쎯	-10.6443
hong❂25쎯yang❂10쎯	-10.6444
guan❁4쎯xi❄46쎯,	-10.6445
jian❄29쎯jiao❄18쎯	-10.6451
zhi❁13쎯lu❄70쎯	-10.6453
ke❁16쎯shi❄31쎯	-10.6456
chan❃12쎯han❄20쎯	-10.6457
쎃쎅쎀	-10.6464
bo❂41쎯shi❄28쎯,	-10.6466
deng❃2쎯duo❁5쎯	-10.6467
la❁6쎯ji❁32쎯	-10.6467
bao❄10쎯jing❃23쎯	-10.6468
mian❄2쎯ji❁64쎯쎁쎀	-10.6468
wu❂17쎯lun❄1쎯	-10.6474
쎁쎉쎆쎁nian❂6쎯	-10.6477
pei❂12쎯	-10.6477
hou❄7쎯wei❄16쎯	-10.6478
you❃11쎯liang❃5쎯	-10.6482
ji❄47쎯	-10.6485
,si❄17쎯chuan❁2쎯	-10.6485
kou❃1쎯,	-10.649
48쎯	-10.6492
ca❁4쎯	-10.6494
hua❁11쎯niao❃17쎯	-10.6497
mian❄2쎯lin❂7쎯	-10.6498
biao❃5쎯zhang❁6쎯	-10.6499
shi❄89쎯wen❂5쎯:	-10.6499
zhao❄24쎯	-10.6499
yin❃14쎯fa❁1쎯	-10.6501
ji❄46쎯jie❂69쎯	-10.6502
xi❄50쎯jun❁15쎯	-10.6504
gong❁11쎯de❅2쎯	-10.6504
dian❃11쎯,	-10.6506
bai❃9쎯huo❄56쎯	-10.6506
jin❄38쎯pao❁5쎯	-10.6511
yong❄3쎯shui❃0쎯	-10.6512
shu❁26쎯	-10.6512
geng❁4쎯	-10.6514
.zhe❄14쎯xie❁3쎯	-10.6518
7쎯,	-10.6519
jiang❁10쎯shi❄32쎯	-10.6519
su❄30쎯jiao❁29쎯	-10.6521
shu❁8쎯ji❄117쎯;	-10.6522
chao❂8쎯liu❂20쎯	-10.6526
shang❁4쎯juan❁5쎯	-10.6531
zang❄4쎯	-10.6532
chou❂28쎯	-10.6534
bai❂2쎯cai❄5쎯	-10.6536
lan❂41쎯ya❂12쎯	-10.6538
teng❂9쎯tong❄3쎯	-10.6539
kong❁9쎯zhong❁4쎯	-10.6541
you❁5쎯shi❄22쎯,	-10.6541
zhu❃4쎯liao❄8쎯:	-10.6543
zong❄12쎯guang❁8쎯	-10.6543
fu❂43쎯wu❄12쎯、	-10.6543
ping❂36쎯xuan❃8쎯	-10.6544
.쎀쎁	-10.6545
de❅0쎯ming❂7쎯	-10.6546
yi❃10쎯bei❃2쎯	-10.6547
-쎁쎈	-10.6547
≥	-10.6548
pian❁7쎯,	-10.655
xin❄8쎯lai❄19쎯	-10.6551
shi❁8쎯qu❄6쎯	-10.6552
sai❁5쎯er❃6쎯	-10.6552
yi❃11쎯	-10.6552
lao❁0쎯chu❁3쎯	-10.6553
yong❄3쎯liang❂19쎯	-10.6554
.wei❄15쎯yu❂35쎯	-10.6555
yao❂32쎯gun❃8쎯	-10.6557
gong❁23쎯du❂34쎯	-10.6562
ba❃1쎯wo❄12쎯	-10.6562
dai❄9쎯xie❄84쎯	-10.6562
32쎯	-10.6564
yuan❂10쎯.	-10.6564
ban❁12쎯zi❃7쎯	-10.6565
diao❁	-10.6567
mei❃9쎯ci❄16쎯	-10.657
쎁쎉쎃쎈nian❂6쎯	-10.6572
ji❄48쎯sheng❁16쎯	-10.6572
zhong❁19쎯duan❁4쎯	-10.6573
yue❄29쎯쎇ri❄2쎯	-10.6573
ti❄	-10.6574
yi❂31쎯chang❁6쎯	-10.6575
2쎯zhuan❁1쎯qiu❁9쎯	-10.6575
kuang❄12쎯qiu❁9쎯	-10.6581
fen❃1쎯mo❄30쎯	-10.6582
fan❁15쎯	-10.6582
yue❄29쎯쎁쎂ri❄2쎯	-10.6584
dan❄38쎯hua❁1쎯	-10.6587
ling❂95쎯qing❄3쎯	-10.6587
pei❄19쎯fang❁4쎯	-10.6591
bu❂0쎯yong❄3쎯	-10.6592
er❄5쎯ren❂1쎯	-10.6593
de❅0쎯qu❁15쎯,	-10.6593
gan❁25쎯cao❃5쎯	-10.6593
you❁5쎯yi❂38쎯	-10.6595
yi❁10쎯mian❄2쎯	-10.6599
쎀.쎄	-10.6599
ban❃5쎯kuai❄14쎯	-10.6599
:‘	-10.66
li❃17쎯yi❂20쎯	-10.6606
yin❃37쎯liao❄8쎯	-10.6606
zi❁15쎯	-10.6608
yi❂61쎯min❂22쎯	-10.6609
pen❂2쎯de❅0쎯	-10.661
fang❁4쎯shi❄33쎯,	-10.6614
yue❄29쎯쎂쎃ri❄2쎯	-10.6616
han❂25쎯	-10.6617
yao❁17쎯qiu❂27쎯,	-10.6618
shou❃4쎯ce❄11쎯	-10.662
yan❂37쎯zhang❃6쎯	-10.6624
zhong❁4쎯zui❄4쎯	-10.6624
jie❂50쎯	-10.6624
bao❃9쎯wei❄16쎯	-10.6624
zai❄5쎯yu❂35쎯	-10.6626
쎁쎉쎄쎁nian❂6쎯	-10.663
쎁쎄쎀	-10.663
hui❄27쎯di❄45쎯	-10.6632
yi❁10쎯qun❂6쎯	-10.6632
zhi❂20쎯wu❄36쎯.	-10.6634
mi❂37쎯	-10.6634
qi❄20쎯xie❄51쎯	-10.6635
er❂7쎯ke❁16쎯	-10.6637
jie❃6쎯du❂17쎯	-10.6638
han❄33쎯zi❄6쎯	-10.6644
.쎂쎀쎀쎈nian❂6쎯	-10.6645
en❁0쎯ju❁18쎯de❅0쎯	-10.6645
xiao❃2쎯jie❃1쎯	-10.6646
yue❄29쎯쎂ri❄2쎯	-10.6646
ran❃11쎯se❄29쎯	-10.6648
mu❄8쎯	-10.6648
fu❂62쎯hao❂6쎯	-10.6649
쎂쎁shi❄15쎯ji❄94쎯	-10.6651
yue❄29쎯쎂쎂ri❄2쎯	-10.6656
xia❄3쎯bu❄38쎯	-10.6656
xue❂6쎯bao❄10쎯	-10.6657
yi❃10쎯wai❄0쎯	-10.6657
nian❂6쎯ji❂83쎯	-10.6657
yue❄29쎯쎂쎀ri❄2쎯	-10.6658
zi❄16쎯yuan❄10쎯	-10.6659
dong❁3쎯han❄33쎯	-10.6659
shi❄32쎯di❄45쎯	-10.666
he❂35쎯tao❂5쎯	-10.666
du❃	-10.6661
zong❁16쎯se❄29쎯	-10.6661
ming❂6쎯	-10.6664
jin❁17쎯	-10.6666
hui❄27쎯suo❃11쎯	-10.6673
mian❄2쎯ji❁64쎯쎁	-10.6674
yu❄126쎯suan❄3쎯	-10.6674
lai❂16쎯shuo❁2쎯,	-10.6681
ge❂54쎯ming❄1쎯g	-10.6681
lie❄20쎯che❁8쎯	-10.6682
xi❃1쎯ai❄26쎯	-10.6682
쎂ren❂1쎯,	-10.6683
zhi❂25쎯dao❄3쎯	-10.6683
xian❄37쎯cun❂1쎯	-10.6684
qiu❁9쎯yu❂37쎯	-10.6686
sheng❃9쎯di❄45쎯	-10.6687
lai❂16쎯yuan❂34쎯:	-10.6688
ban❄4쎯fa❃2쎯》	-10.6688
shi❄32쎯dong❁3쎯	-10.6689
fu❄36쎯shi❄28쎯	-10.669
^	-10.669
gui❁35쎯zhang❁13쎯	-10.6691
de❅2쎯fan❃3쎯	-10.6692
yong❄3쎯fa❃2쎯	-10.6692
nian❂6쎯,	-10.6699
,zuo❄5쎯wei❄14쎯	-10.6702
wo❁	-10.6703
,yu❂35쎯shi❄45쎯	-10.6705
zhi❃20쎯	-10.6705
р	-10.6707
hui❄9	-10.6711
lei❃14쎯	-10.6711
ke❁16쎯fu❄28쎯	-10.6713
wei❂38쎯chi❂20쎯	-10.6714
huan❂20쎯jie❂69쎯	-10.6714
bi❁12쎯	-10.6715
di❄58쎯	-10.6715
sheng❁16쎯ri❄2쎯:	-10.6721
xuan❃8쎯yu❄93쎯	-10.6722
yan❄14쎯	-10.6722
쎁쎂-	-10.6723
wan❃14쎯	-10.6723
ju❁	-10.6729
a❁3쎯	-10.673
쎁쎂쎀쎀	-10.673
you❁5쎯yue❄46쎯,	-10.6731
yan❂49쎯qiu❁9쎯	-10.6732
hong❂44쎯qi❂46쎯	-10.6734
sheng❃9쎯、shi❄32쎯	-10.6735
cuo❄	-10.6736
qing❂6쎯jie❂69쎯	-10.6739
shao❄12쎯	-10.674
qi❄20쎯de❅2쎯	-10.6742
qi❂111쎯	-10.6745
-쎀	-10.6749
xian❄22쎯zhang❃6쎯	-10.675
gao❁20쎯zhi❄104쎯	-10.675
쎁쎉쎄쎆nian❂6쎯	-10.675
han❂17쎯cha❁3쎯	-10.6758
,you❄13쎯ming❂7쎯	-10.6758
liao❂29쎯	-10.6758
xin❁10쎯ying❃24쎯	-10.676
jiu❄23쎯zai❄5쎯	-10.6767
mian❄2쎯shang❃1쎯	-10.6767
wa❁10쎯jue❂58쎯	-10.677
yue❁1쎯쎃	-10.677
ta❁3쎯shi❄45쎯	-10.6772
ping❂17쎯mi❃19쎯	-10.6772
ji❄36쎯、	-10.6778
zhen❁30쎯kong❁9쎯	-10.6779
쎀-	-10.6779
yuan❂10쎯dai❄9쎯	-10.6783
yu❄87쎯	-10.6788
niu❃4쎯	-10.6792
sui❄16쎯shi❂20쎯	-10.6793
dai❄15쎯zhao❁6쎯	-10.6795
que❁0쎯fa❂4쎯	-10.6797
bei❃2쎯bu❄38쎯,	-10.6798
mo❄37쎯	-10.6798
chang❂15쎯gui❁35쎯	-10.6802
쎁쎉쎄쎂nian❂6쎯	-10.6803
bei❄52쎯er❃6쎯	-10.6804
liang❃5쎯ren❂1쎯	-10.6809
chan❃12쎯yu❂35쎯	-10.681
쎁쎉쎅쎁nian❂6쎯	-10.681
yan❃39쎯bian❄19쎯	-10.6815
hen❃2쎯kuai❄18쎯	-10.6815
wang❂5쎯zi❃7쎯	-10.6819
zong❃5쎯shi❄45쎯	-10.682
yin❃31쎯cang❂5쎯	-10.682
xi❁81쎯	-10.6825
yue❄29쎯쎄ri❄2쎯	-10.6825
gu❃14쎯jin❁10쎯	-10.6825
tong❂13쎯ming❂7쎯	-10.6826
shu❁8쎯,	-10.6827
/쎁	-10.6827
song❄8쎯	-10.6828
chan❃12쎯dang❃2쎯,	-10.683
cui❁3쎯hua❁1쎯	-10.6833
huang❂56쎯se❄29쎯,	-10.6837
ke❃4쎯xuan❃8쎯	-10.6838
hai❃1쎯yu❄31쎯	-10.6839
zai❄5쎯na❄11쎯	-10.684
gan❃10쎯lan❃17쎯	-10.684
han❄43쎯	-10.6842
쎂ke❄6쎯	-10.6846
ming❂7쎯ci❂29쎯	-10.6847
qi❁9쎯shi❂10쎯	-10.6849
jin❄61쎯gong❁23쎯	-10.6852
gai❃2쎯cheng❁28쎯	-10.6852
guo❂11쎯chan❃12쎯	-10.6854
ying❃24쎯	-10.6855
bi❃24쎯hua❄18쎯	-10.6855
ke❄6쎯li❃26쎯	-10.6856
yue❄29쎯쎅ri❄2쎯	-10.686
yun❄14쎯	-10.6866
shen❁40쎯bian❁16쎯	-10.6872
she❄8쎯ji❁22쎯	-10.6877
shi❄71쎯ye❃7쎯	-10.6879
chang❃4쎯jing❃13쎯	-10.6879
zi❃7쎯.	-10.688
da❁12쎯pei❄19쎯	-10.688
쎁쎅ke❄6쎯	-10.6881
zhai❄2쎯	-10.6885
쎁쎉쎄쎄nian❂6쎯	-10.6886
chu❁3쎯yan❃39쎯	-10.6889
guan❄23쎯gai❄14쎯	-10.6891
ma❃14쎯lai❂16쎯	-10.6892
xi❄46쎯tong❃9쎯,	-10.6896
na❄20쎯mi❃19쎯	-10.6897
miao❂5쎯hui❄79쎯	-10.69
,zhe❄14쎯xie❁3쎯	-10.69
chu❁3쎯pin❃0쎯	-10.6904
hao❃0쎯,	-10.6904
hua❁11쎯ban❄13쎯	-10.6906
ta❁3쎯ren❂1쎯	-10.6907
diao❄17쎯liao❄8쎯	-10.6908
fen❁4쎯lie❄45쎯	-10.6908
yu❃41쎯mao❂11쎯	-10.6912
ding❃11쎯duan❁4쎯	-10.6913
xiang❃5쎯ying❁17쎯	-10.6913
ju❄57쎯ge❃0쎯	-10.6913
wai❄0쎯chu❁3쎯	-10.6913
ri❄2쎯ji❁47쎯:	-10.6915
yan❁17쎯	-10.6916
,shen❁18쎯shou❄4쎯	-10.6917
ju❃	-10.692
쎁쎇쎀	-10.6922
shi❂13쎯shi❂20쎯	-10.6924
ming❂7쎯wei❄14쎯“	-10.6927
ji❂39쎯xiang❂6쎯	-10.6929
lou❄	-10.693
hui❄60쎯ji❂114쎯	-10.6931
lv❄15쎯xian❁18쎯	-10.6936
qian❁13쎯ke❄6쎯	-10.694
-쎁쎂	-10.694
.쎂쎀쎀쎇nian❂6쎯	-10.6942
ge❁33쎯	-10.6945
deng❁10쎯chang❃4쎯	-10.6946
xing❂11쎯shi❄22쎯	-10.6947
shou❁1쎯ru❄2쎯쎁	-10.6949
xun❄1	-10.6953
.yin❁11쎯wei❄14쎯	-10.6953
wei❄16쎯shi❄71쎯	-10.6953
yue❄29쎯쎂쎅ri❄2쎯	-10.6954
you❁5쎯mei❃13쎯,	-10.6957
zun❁7쎯	-10.6957
ju❁17쎯	-10.6962
쎃ci❄16쎯	-10.6966
qian❂22쎯li❄59쎯	-10.6971
he❄23쎯	-10.6971
е	-10.6975
shang❃1쎯zui❄4쎯	-10.6982
jiao❁36쎯	-10.6983
mo❂12쎯shi❄33쎯,	-10.6985
bai❃9쎯yu❂37쎯	-10.6986
wan❂12쎯ju❄16쎯	-10.6987
pao❁3쎯	-10.6988
su❄67쎯song❄7쎯	-10.6989
yin❂10쎯sheng❁16쎯	-10.6996
shen❃7쎯he❂35쎯	-10.6999
kuo❄15쎯dang❁4쎯	-10.6999
bai❂2쎯yun❂4쎯	-10.7
hua❁1쎯zhuang❁0쎯	-10.7001
biao❃5쎯ming❂8쎯	-10.7005
shao❄5쎯huan❄12쎯	-10.7005
쎂gong❁10쎯li❃26쎯	-10.7006
,fu❄64쎯ze❂44쎯	-10.7007
gong❁17쎯zi❁45쎯	-10.7007
(쎄	-10.7007
cang❁7쎯	-10.7008
mu❃2쎯,	-10.701
lu❂14쎯	-10.7011
qiu❂36쎯yuan❂15쎯	-10.7013
chuan❁2쎯xian❄22쎯	-10.7013
ben❃5쎯zhao❁6쎯	-10.7015
shang❁4쎯jia❁13쎯	-10.7016
shou❃4쎯gong❁17쎯	-10.7018
meng❂40쎯	-10.7019
ying❁44쎯cun❄2쎯	-10.7021
kuang❁9쎯jia❄5쎯	-10.7021
쎇.쎅	-10.7025
bin❁	-10.7026
쎅쎀쎀ke❄6쎯	-10.7028
yin❃14쎯ling❃2쎯	-10.7029
gong❁10쎯min❂22쎯	-10.7032
、zhang❁4쎯	-10.7037
ci❂29쎯hui❄60쎯	-10.7038
zhuan❁1쎯zhi❂32쎯	-10.7044
yan❃45쎯	-10.7047
ji❁74쎯	-10.7054
bian❄19쎯jiao❁24쎯	-10.7055
jing❁3쎯ju❄18쎯	-10.7056
dui❄14쎯shou❃4쎯	-10.7059
peng❂26쎯	-10.7061
shui❃0쎯mian❄2쎯	-10.7061
you❄13쎯you❃11쎯	-10.7063
xiang❁26쎯gu❁25쎯	-10.7066
zeng❁2쎯zhi❂7쎯	-10.7066
quan❂6쎯zi❁45쎯	-10.7068
zhong❁4쎯ji❁47쎯	-10.7069
lv❃11쎯	-10.7069
,hu❂32쎯bei❃2쎯	-10.7071
쎁ren❂1쎯	-10.7074
tang❂13쎯shu❁8쎯·	-10.7076
쎂쎀nian❂6쎯	-10.7078
ke❄14쎯ren❂1쎯	-10.7079
de❅2쎯quan❂6쎯	-10.7082
li❃15쎯shi❄18쎯.	-10.7086
han❃11쎯、	-10.7089
fu❂60쎯li❄58쎯	-10.7091
jin❄61쎯shi❄28쎯	-10.7091
yao❂42쎯	-10.7096
da❄0쎯dou❄18쎯	-10.7101
shuo❁2쎯,	-10.7101
ne❅쎯?	-10.7105
jing❁24쎯ling❂58쎯	-10.7106
chu❄17쎯ji❂83쎯	-10.7111
shen❄9쎯	-10.7113
da❂14쎯ji❁22쎯	-10.7115
57쎯	-10.7118
qi❁15쎯zi❃7쎯	-10.7118
ding❄2쎯ji❁47쎯	-10.7119
da❄0쎯da❄0쎯	-10.7122
shi❃6쎯ming❄1쎯	-10.7122
ke❄14쎯guan❁16쎯	-10.7122
fei❃	-10.7124
.쎂쎀쎀쎉nian❂6쎯	-10.7126
쎁쎀gong❁10쎯li❃26쎯	-10.7128
쎄쎀쎀쎀	-10.7131
shu❄20쎯	-10.7131
yue❄29쎯쎂쎄ri❄2쎯	-10.7131
zu❁0쎯lin❄15쎯	-10.7136
chan❃12쎯de❅0쎯	-10.7141
you❃11쎯li❄59쎯	-10.7142
bu❄38쎯,	-10.7143
ri❄2쎯yi❄165쎯	-10.7143
chan❃12쎯wu❄36쎯	-10.7144
ao❄14쎯si❁24쎯	-10.7144
shan❁11쎯,	-10.7144
tian❁5쎯tang❂15쎯	-10.7145
–	-10.7148
shao❃2쎯jiang❁5쎯	-10.7148
.ta❁3쎯们	-10.7149
wei❃	-10.7152
쎃gong❁10쎯li❃26쎯	-10.7154
yin❁30쎯	-10.7155
li❄50쎯jiang❁10쎯	-10.7158
xi❁143쎯ce❄8쎯	-10.7158
u❂34쎯ka❃1쎯qi❄20쎯	-10.716
,xia❄3쎯	-10.7161
yue❄29쎯쎁쎆ri❄2쎯	-10.7161
chu❁3쎯xie❃8쎯	-10.7163
dou❁12쎯neng❂2쎯	-10.7163
bin❁5쎯ke❄14쎯	-10.7164
zi❃7쎯gong❁15쎯	-10.7165
xie❂47쎯	-10.7168
shi❃15쎯	-10.7169
du❄21쎯	-10.7169
su❄33쎯she❄23쎯	-10.717
dai❄15쎯dong❄13쎯	-10.7171
feng❁58쎯yun❂4쎯	-10.7171
mei❃16쎯	-10.7174
xian❄47쎯shang❃1쎯	-10.7174
ping❂17쎯xian❄22쎯	-10.7174
bao❄10쎯zhi❃32쎯	-10.7174
hu❄26쎯,you❃11쎯	-10.7175
쎁쎉쎉쎅	-10.7178
쎀쎀쎀쎀	-10.718
bu❄28쎯qiang❁13쎯	-10.7181
mao❂15쎯dun❄11쎯	-10.7182
xian❁39쎯	-10.7182
dian❃11쎯ji❁22쎯	-10.7186
chong❂17쎯dian❃	-10.7187
xin❄8쎯yang❃4쎯	-10.7188
suo❃11쎯zuo❄5쎯	-10.7191
lv❃11쎯hang❂16쎯	-10.7196
san❁1쎯ci❄16쎯	-10.7197
jing❁24쎯yan❂49쎯	-10.7198
、duo❁5쎯	-10.7199
jing❁27쎯yan❄75쎯.	-10.72
shen❄9쎯tou❄4쎯	-10.7202
bai❂2쎯se❄29쎯,	-10.7202
jing❁24쎯zhan❄16쎯	-10.7207
nan❂6쎯bu❄38쎯,	-10.7208
shi❂10쎯jia❁5쎯	-10.7209
cheng❂52쎯shi❁11쎯	-10.7209
쎁쎉쎃쎆nian❂6쎯	-10.7209
gai❃2쎯zhi❄30쎯	-10.7212
ji❄59쎯fa❃2쎯	-10.7213
shi❄15쎯bo❂41쎯	-10.7215
chu❁4쎯bu❄28쎯	-10.7217
ben❃5쎯tu❃1쎯	-10.7217
shui❃0쎯chan❃12쎯	-10.7217
dan❁9쎯du❂25쎯	-10.7219
lie❄21쎯	-10.722
bao❃13쎯dan❄38쎯	-10.722
lou❂15쎯	-10.7221
lie❄20쎯wei❄14쎯	-10.7223
,쎁쎈	-10.7224
bing❁6쎯ru❄2쎯	-10.7224
jue❂33쎯sai❄4쎯	-10.7224
yi❄67쎯cheng❁28쎯	-10.7224
feng❁58쎯shi❁16쎯	-10.7224
jin❁33쎯jiang❃8쎯	-10.7225
jiang❃8쎯”	-10.7225
shi❄45쎯cong❂6쎯	-10.7225
zhi❄61쎯an❁13쎯	-10.7226
si❄10쎯hu❁13쎯	-10.7227
you❁5쎯ya❃9쎯	-10.7228
lei❄16쎯bie❂4쎯:	-10.7229
dong❁3쎯feng❁58쎯	-10.7231
bin❁12쎯hai❃1쎯	-10.7232
mu❃2쎯chan❃12쎯	-10.7232
jie❄14쎯zhi❂7쎯.	-10.7233
chang❂15쎯zhu❄19쎯	-10.7233
ying❂45쎯zao❄16쎯	-10.7234
chu❁4쎯,	-10.7236
you❄10쎯	-10.7237
쎁쎉쎃쎅nian❂6쎯	-10.7243
,you❃11쎯shi❂20쎯	-10.7243
mei❂27쎯gui❁24쎯	-10.7247
che❄20쎯de❅1쎯	-10.7249
ran❂13쎯shao❁8쎯	-10.7249
yin❃14쎯ru❄2쎯	-10.725
.쎁、	-10.7253
ying❁17쎯li❄59쎯	-10.7253
duo❁5쎯ceng❂3쎯	-10.7253
qin❄10쎯	-10.7254
san❁1쎯wei❂38쎯	-10.7257
xi❄46쎯,	-10.7257
.zhi❃19쎯	-10.7258
“wei❂11쎯chao❁6쎯”	-10.7259
gan❁16쎯rao❃1쎯	-10.726
3	-10.7261
ken❃6쎯ding❄2쎯	-10.7263
fa❃2쎯,	-10.7263
yuan❂3	-10.7265
ting❁3쎯、	-10.7266
쎃ren❂1쎯,	-10.7266
dan❁9쎯wei❄15쎯:	-10.7269
xuan❁	-10.7269
pai❄3쎯chu❁3쎯	-10.727
yu❃44쎯:	-10.7273
xie❂14쎯zuo❄5쎯	-10.7274
ji❂114쎯ge❃0쎯	-10.728
ya❁14쎯	-10.7281
yuan❂12쎯ze❂11쎯,	-10.7284
zhi❃19쎯nan❂6쎯	-10.729
,ying❁44쎯wen❂5쎯	-10.7291
da❄0쎯pi❁11쎯	-10.7292
chu❁3쎯xi❂12쎯	-10.7298
xi❄46쎯.	-10.7304
bo❂9	-10.7305
wai❄0쎯mao❄39쎯	-10.7305
xue❂6쎯de❅2쎯	-10.7306
si❁22쎯lu❄70쎯	-10.7309
tan❂30쎯	-10.731
shou❁1쎯yi❄165쎯	-10.7311
sui❂9쎯shi❂20쎯	-10.7311
shan❃12쎯	-10.7313
qi❂5	-10.7314
hai❃1쎯xia❂13쎯	-10.7314
chou❂20쎯	-10.7315
di❄45쎯쎄	-10.7316
쎀쎀mi❃19쎯,nian❂6쎯	-10.7317
gu❄12쎯gong❁15쎯	-10.7318
2쎯zhu❃4쎯cha❁3쎯	-10.7318
mu❃2쎯.	-10.7319
fen❂7쎯	-10.7319
an❁13쎯de❂9쎯	-10.7324
ju❂27쎯	-10.7327
zai❄4쎯sheng❁16쎯	-10.7328
min❂22쎯bi❄51쎯	-10.7329
jiu❄23쎯you❃11쎯	-10.7332
,ji❄61쎯	-10.7332
ne❅쎯	-10.7333
chu❃7쎯meng❂29쎯	-10.7339
an❁18쎯suan❁3쎯	-10.734
yue❄29쎯쎆ri❄2쎯	-10.7342
쎉yue❄29쎯zhi❄88쎯	-10.7343
yan❂50쎯jiu❁16쎯》	-10.7347
xun❂16쎯	-10.7347
rong❂33쎯jie❃6쎯	-10.7348
zi❃18쎯se❄29쎯	-10.7348
ni❂7쎯	-10.7351
deng❃2쎯)	-10.7353
kui❂21쎯	-10.7353
zhi❂25쎯liu❂20쎯	-10.7364
,zhang❃6쎯	-10.7366
,jin❄61쎯쎀qiu❂36쎯	-10.7366
쎀.쎇	-10.7367
gan❃6쎯dao❄3쎯	-10.7369
jie❄29쎯de❅2쎯	-10.7371
xia❄3쎯mian❄2쎯	-10.7371
n❃5쎯	-10.7373
tuo❂	-10.7373
ge❄3쎯you❃11쎯	-10.7374
ren❂1쎯kou❃1쎯쎄	-10.7374
ceng❂3쎯,	-10.7376
、bei❃2쎯jing❁3쎯	-10.7378
fang❂4쎯huo❃2쎯	-10.7381
liu❂20쎯ben❄4쎯	-10.7382
쎅hao❂6쎯	-10.7382
yin❄7쎯xiang❄20쎯	-10.7386
lei❃29쎯	-10.7388
쎁쎀쎂	-10.7391
zhang❄18쎯	-10.7395
yuan❄18쎯fu❄28쎯	-10.7395
gao❁13쎯	-10.7397
쎃hao❂6쎯	-10.7397
;(	-10.7397
che❁8쎯cheng❂52쎯	-10.7398
deng❃2쎯jiang❃8쎯,	-10.7399
wei❂13쎯	-10.7401
jiang❃19쎯jie❃6쎯	-10.7402
rong❂33쎯ji❄36쎯	-10.7405
쎂ci❄16쎯	-10.7407
쎁쎉쎄쎇nian❂6쎯	-10.7407
(han❂17쎯	-10.7409
.쎂쎀쎀쎅nian❂6쎯	-10.741
zhi❁13쎯wai❄0쎯	-10.7411
nie❄	-10.7415
ben❄4쎯chong❂17쎯	-10.7415
ping❂31쎯	-10.7417
ren❂1쎯、	-10.7419
qu❄6쎯shi❄15쎯	-10.742
wu❃9쎯da❄0쎯	-10.742
yuan❂12쎯ben❃5쎯	-10.7422
fu❄31쎯xing❄8쎯	-10.7422
bai❃9쎯mo❄16쎯	-10.7426
feng❁17쎯jian❄29쎯	-10.7428
》ren❂1쎯wu❄36쎯	-10.743
4쎯,	-10.7433
yu❂67쎯	-10.7433
zhui❄0쎯	-10.7437
zhi❄79쎯xu❄36쎯	-10.7438
kan❃	-10.7443
wei❄27쎯	-10.7444
jiao❁11쎯	-10.7445
wei❄14쎯qi❂29쎯	-10.7446
xing❄9쎯shi❄51쎯	-10.7449
shi❁13쎯hang❂16쎯.	-10.745
guan❁4쎯bi❄157쎯	-10.7455
zhen❁25쎯zhu❁17쎯	-10.7456
zhen❃14쎯	-10.7456
li❄141쎯ji❂35쎯	-10.7457
ji❁80쎯rou❄1쎯	-10.746
yue❄29쎯쎁쎇ri❄2쎯	-10.7461
hui❂1쎯zu❂9쎯	-10.7463
yi❁10쎯ji❁47쎯	-10.7464
zhen❁30쎯jun❁15쎯	-10.7464
zhu❃4쎯xi❂12쎯、	-10.7465
mian❂13쎯hua❁11쎯	-10.7467
bu❄38쎯.	-10.7467
jiao❄35쎯duo❁5쎯	-10.7471
dan❁9쎯yi❁10쎯	-10.7472
fan❄22쎯wei❂11쎯:	-10.7472
yu❄93쎯ren❂1쎯	-10.7472
duo❁5쎯cai❃4쎯	-10.7473
ping❂17쎯an❁13쎯	-10.7474
qiu❂19쎯gou❄26쎯	-10.7474
쎂.쎄	-10.7477
zhi❁13쎯jian❁85쎯,	-10.7477
tong❂13쎯lei❄16쎯	-10.7478
jin❁10쎯ri❄2쎯	-10.7482
gu❃63쎯li❄60쎯	-10.7484
.sui❂9쎯zhao❁6쎯	-10.7485
ying❁17쎯ji❂52쎯	-10.7485
in❂19쎯pi❁7쎯ke❄6쎯	-10.7492
ren❂1쎯can❁3쎯	-10.7494
li❄62쎯jing❁27쎯	-10.7496
an❁13쎯qing❄4쎯	-10.7496
bu❂0쎯bian❄19쎯	-10.7497
peng❂12쎯	-10.7498
쎁-쎂	-10.7499
ao❄14쎯l	-10.7499
qu❁15쎯wei❄15쎯	-10.7506
you❃11쎯le❅0쎯	-10.7506
wan❃17쎯ji❁47쎯	-10.7507
jie❃1쎯	-10.7507
jiao❁20쎯dao❃5쎯	-10.7508
jing❁24쎯hua❂14쎯	-10.7512
ye❃1쎯jiu❄23쎯	-10.7514
luan❃0쎯xing❂11쎯	-10.7514
nan❂6쎯gua❁16쎯	-10.7514
qian❂46쎯	-10.7515
ji❁21쎯he❂22쎯	-10.7519
い	-10.752
huo❃0쎯	-10.752
.yin❁11쎯ci❃2쎯,	-10.7521
zhen❃27쎯liao❂24쎯	-10.7521
.jing❁27쎯guo❄2쎯	-10.7522
,bu❂0쎯fu❄23쎯	-10.7523
kao❃10쎯sheng❁16쎯	-10.7523
wen❁6쎯nuan❃2쎯	-10.7524
yi❁10쎯shen❁40쎯	-10.7526
dian❄23쎯zu❃11쎯	-10.7527
yu❁6쎯	-10.7528
,ye❃1쎯you❃11쎯	-10.753
hao❂14쎯	-10.7532
tong❂13쎯ji❄72쎯	-10.7532
fang❂4쎯shui❃0쎯	-10.7533
、nan❂6쎯	-10.7536
jie❂69쎯ri❄2쎯	-10.7537
guo❁26쎯lu❂23쎯	-10.7537
da❄0쎯duo❁5쎯	-10.7537
、she❄22쎯hui❄27쎯	-10.7538
fou❃0쎯	-10.754
yan❄43쎯	-10.7542
xu❄43쎯	-10.7543
zi❁45쎯zhu❄20쎯	-10.7544
li❂32쎯mi❃19쎯	-10.7545
hui❂1쎯gui❁12쎯	-10.7547
guang❁2쎯ze❂24쎯	-10.7549
zuo❃3쎯you❄14쎯.	-10.755
yi❃9쎯chun❂23쎯	-10.755
chu❃3쎯cun❂1쎯	-10.755
yi❁10쎯jian❄15쎯	-10.755
ren❂1쎯dou❁12쎯	-10.7552
zhi❁21쎯liu❂20쎯	-10.7554
shou❃4쎯dong❄13쎯	-10.7554
zhu❁16쎯rou❄1쎯	-10.7555
ru❂1	-10.7559
zhi❃19쎯ling❂34쎯	-10.756
ri❄2쎯yu❃44쎯	-10.7561
cheng❂29쎯pin❃0쎯	-10.7562
,pi❂11쎯lin❂43쎯	-10.7566
yi❁12쎯ran❂12쎯	-10.7566
gui❄22쎯lin❂19쎯	-10.7566
jiao❁29쎯nang❂2쎯	-10.757
ren❄9쎯	-10.757
yuan❂21쎯	-10.7571
shu❂7쎯yu❃44쎯	-10.7583
tu❃1쎯er❃12쎯	-10.7584
shi❂13쎯xi❂9쎯	-10.7586
qu❃1쎯dai❄9쎯	-10.7587
wai❄0쎯,	-10.7587
wei❁13쎯er❃6쎯	-10.7588
zi❄6쎯mu❃6쎯	-10.7588
lu❄70쎯yu❃14쎯	-10.7591
ju❄30쎯da❄0쎯	-10.7594
.tong❂13쎯nian❂6쎯	-10.76
jia❁7쎯shang❃1쎯	-10.76
к	-10.7601
xiu❁11쎯ding❄15쎯	-10.7602
ming❂8쎯zhu❁17쎯	-10.7604
qi❂104쎯shi❄28쎯	-10.7606
ren❂4쎯yi❄109쎯	-10.7607
yan❃39쎯yuan❂15쎯,	-10.7607
yi❄159쎯	-10.7607
si❄17쎯fang❁4쎯	-10.7607
쎅ren❂1쎯,	-10.7608
zhen❁3	-10.7615
▁	-10.7615
zhi❃37쎯	-10.7616
,bei❃2쎯	-10.7618
ge❁16쎯wu❃37쎯	-10.7618
yu❄95쎯	-10.7621
yi❃10쎯hou❄7쎯,	-10.7622
bao❃9쎯wen❁6쎯	-10.7623
xie❁5쎯	-10.7624
yu❄40쎯shi❃8쎯	-10.7625
dao❄24쎯jiao❁20쎯	-10.7627
shi❁16쎯de❅0쎯	-10.7628
쎁쎅쎀쎀	-10.763
-쎁쎆	-10.7631
chi❁19쎯	-10.7635
da❁12쎯	-10.764
zhuang❄3쎯	-10.7641
.쎂쎀쎀쎄nian❂6쎯	-10.7643
feng❁58쎯yu❃47쎯	-10.7643
zao❂1쎯	-10.765
men❄9쎯	-10.765
niu❂3쎯nai❃2쎯	-10.765
mei❃13쎯xue❂6쎯	-10.7651
she❄22쎯ke❁16쎯	-10.7651
fu❄23쎯you❃11쎯	-10.7658
le❄16쎯	-10.7659
shao❃2쎯er❂7쎯	-10.7661
nan❂6쎯xian❄22쎯	-10.7663
с	-10.7665
zhu❄19쎯su❄33쎯	-10.7666
shi❂13쎯zhan❄10쎯	-10.7669
쎁쎉쎄쎃nian❂6쎯	-10.767
zhi❂25쎯li❄141쎯	-10.7673
qian❁13쎯mo❄16쎯	-10.7674
tong❁5쎯feng❁58쎯	-10.7675
,cheng❂16쎯	-10.7676
qi❂34쎯	-10.7677
zhi❃19쎯de❅2쎯	-10.7681
huang❂56쎯gua❁16쎯	-10.7683
jiao❁20쎯shi❁11쎯.	-10.7684
mian❂16쎯	-10.7684
ye❃1쎯hui❄27쎯	-10.7685
mian❄2쎯ji❁64쎯쎁.	-10.7687
guang❁2쎯xian❁39쎯	-10.7687
mei❃13쎯wei❄18쎯	-10.7689
huan❂17쎯	-10.7692
yong❄3쎯yao❄12쎯	-10.7692
huo❂3쎯po❁4쎯	-10.7692
ka❃1쎯la❁7쎯	-10.77
wei❄14쎯zhi❃22쎯	-10.7708
쎁쎉쎃쎃nian❂6쎯	-10.771
zhuang❄5쎯.	-10.7718
kao❄5쎯jin❄60쎯	-10.7718
쎃,	-10.7718
you❃11쎯ren❂1쎯	-10.7719
xiang❁9쎯ji❄95쎯	-10.772
쎁쎉쎃쎄nian❂6쎯	-10.772
kou❃1쎯gan❃6쎯	-10.7722
yue❄29쎯쎁쎃ri❄2쎯	-10.7723
zhi❄30쎯leng❃쎯	-10.7723
쎁쎉쎉쎃	-10.7727
mi❄33쎯niao❄2쎯	-10.7728
ong❁17쎯cheng❂52쎯	-10.7731
쎁ci❄16쎯	-10.7735
na❄11쎯xin❁7쎯	-10.7735
dao❃7쎯shang❃1쎯	-10.7735
shi❄22쎯li❄59쎯	-10.7737
gui❄41쎯yang❂35쎯	-10.7738
zi❁23쎯	-10.7738
fang❁4쎯shi❄33쎯:	-10.7739
쎂쎀쎀쎁	-10.7739
》juan❃1쎯	-10.7743
shi❄74쎯	-10.7743
shi❄26쎯	-10.7743
zhuang❁0쎯	-10.7744
tian❁5쎯qi❃25쎯	-10.7745
쎁쎁-	-10.7746
zhe❄14쎯kuan❃7쎯	-10.7746
liang❂19쎯wei❄14쎯	-10.7746
chang❂6쎯	-10.775
mian❄2쎯ji❁64쎯쎀.	-10.775
zhu❃4쎯ban❃5쎯	-10.7751
bu❄38쎯la❄23쎯	-10.7752
chong❂17쎯fu❄31쎯	-10.7753
fang❂2쎯chan❃12쎯	-10.7754
fan❄12쎯	-10.7755
diao❄17쎯liao❄8쎯:	-10.776
zhi❂25쎯xian❄47쎯	-10.7762
:쎅	-10.7762
zong❃5쎯jian❁52쎯	-10.7763
,qing❁10쎯	-10.7764
8쎯,	-10.7764
xun❁3쎯	-10.7767
mei❃13쎯guan❁16쎯	-10.7768
nong❂5쎯yao❄12쎯	-10.7769
jian❁25쎯qi❃13쎯	-10.777
kang❄5쎯zhan❄10쎯	-10.777
shi❂10쎯ji❁21쎯	-10.7771
zheng❄12쎯wu❄12쎯	-10.7776
ta❁3쎯zai❄5쎯	-10.7778
yu❂66쎯qiu❁9쎯	-10.7779
cheng❂17쎯nan❂6쎯	-10.778
min❃13쎯gan❃6쎯	-10.7782
ling❂62쎯	-10.7784
yi❁10쎯yang❂17쎯,	-10.7784
ㄢ	-10.7788
hao❄23쎯te❄5쎯	-10.779
er❂16쎯de❂7쎯	-10.7793
ju❃16쎯	-10.7793
shan❁11쎯ding❃11쎯	-10.7796
jian❁14쎯rong❂21쎯	-10.7798
zhong❁4쎯chang❃4쎯	-10.7799
chao❁19쎯	-10.7803
de❅2쎯xue❂6쎯xi❂9쎯	-10.7808
,xue❂6쎯jiao❄18쎯	-10.7809
쎅쎄쎀쎀쎅쎇	-10.781
jian❄39쎯	-10.7812
zhai❄2쎯quan❄1쎯	-10.7812
mei❃13쎯yuan❂10쎯	-10.7813
.쎀쎆	-10.7813
sai❄4쎯ji❄46쎯	-10.7814
pai❁0쎯mai❄6쎯	-10.7814
yong❃22쎯	-10.7815
chu❄36쎯mo❁쎯	-10.7816
ren❂1쎯wu❄36쎯,	-10.7816
ren❂4쎯fu❄28쎯	-10.7816
te❄5쎯chan❃12쎯	-10.782
ying❁11쎯er❂7쎯	-10.7822
sha❄6쎯	-10.7825
쎀hao❂14쎯mi❃19쎯	-10.7826
(쎆	-10.7828
ting❁10쎯	-10.7828
-)	-10.7831
de❅0쎯mao❄37쎯	-10.7836
shou❄9쎯yu❂34쎯“	-10.7836
dong❁3쎯ce❄8쎯	-10.7837
zhi❄88쎯shao❃2쎯	-10.7839
yan❃39쎯yi❄176쎯	-10.7841
he❂37쎯kou❃1쎯	-10.7844
geng❁6쎯gao❁20쎯	-10.7845
fu❂43쎯.	-10.7847
qi❄20쎯guan❁6쎯	-10.7848
bo❁11쎯lan❂13쎯	-10.7851
jiao❃51쎯	-10.7856
mang❂25쎯	-10.7857
zhi❄30쎯bei❄26쎯	-10.7859
wo❁2쎯	-10.7859
ke❄6쎯,	-10.7861
bian❁22쎯	-10.7861
mo❄57쎯si❁24쎯	-10.7864
lai❂16쎯dian❄23쎯	-10.7866
nan❂14쎯hai❂6쎯	-10.7868
yu❄35쎯	-10.7869
、san❁1쎯	-10.7869
dan❄38쎯qi❄20쎯	-10.787
de❅0쎯shi❄22쎯	-10.7871
yao❄12쎯cai❂3쎯	-10.7872
쎅쎀쎀mi❃19쎯	-10.7873
shi❄78쎯dian❃11쎯	-10.7873
chao❁17쎯yue❄46쎯	-10.7876
wu❄28쎯	-10.7877
lan❂28쎯	-10.7877
jiang❁10쎯hu❂32쎯	-10.7879
쎉hao❂6쎯	-10.7879
you❂24쎯,	-10.7881
de❅2쎯fa❃2쎯lv❄9쎯	-10.7882
ao❄25쎯	-10.7884
xi❄50쎯jie❂69쎯	-10.7887
zheng❁22쎯mian❄2쎯	-10.7888
ke❁8쎯	-10.7888
fen❁22쎯	-10.7889
uo❄5쎯wu❄36쎯.you❃	-10.7892
deng❃2쎯nong❂5쎯z	-10.7894
ji❁48쎯dong❄13쎯	-10.7896
、wang❂5쎯	-10.7896
42쎯	-10.7896
an❁15쎯kuo❄17쎯	-10.7897
da❄0쎯qing❄4쎯	-10.7897
zhan❄17쎯、	-10.7899
11쎯geng❁17쎯de❅0쎯	-10.79
ge❁8쎯lun❂5쎯	-10.7905
shi❂32쎯	-10.7906
,쎁쎉쎈쎄nian❂6쎯	-10.7907
de❂7쎯ming❂7쎯	-10.7907
fu❂94쎯yuan❂12쎯	-10.7908
qi❃11쎯	-10.7909
yu❂108쎯	-10.791
bi❄126쎯	-10.7911
hen❃2쎯shao❃2쎯	-10.7915
le❄3쎯wan❂5쎯	-10.7918
zhong❁4쎯xi❁143쎯	-10.7924
cui❁3쎯	-10.7925
shi❂20쎯zhong❁29쎯	-10.7926
ou❃3쎯xiang❄4쎯	-10.7927
jiao❁20쎯hui❄27쎯	-10.7934
qi❂29쎯jian❁85쎯	-10.7934
shi❂20쎯kong❁9쎯	-10.7935
yi❁10쎯lu❄70쎯	-10.7935
chu❂15쎯	-10.794
jiu❄23쎯neng❂2쎯	-10.7942
.쎂쎀쎁쎀nian❂6쎯	-10.7942
zi❄16쎯xue❂6쎯	-10.7942
zuo❄5쎯le❅0쎯	-10.7942
shuan❁1쎯	-10.7944
fan❃3쎯fu❄31쎯	-10.7945
shou❁1쎯gou❄26쎯	-10.7951
zhe❄14쎯bu❄38쎯	-10.7952
cheng❂17쎯dong❁3쎯	-10.7952
zheng❁37쎯qi❄34쎯	-10.7952
nan❂14쎯,	-10.7952
chao❂6쎯ting❂9쎯	-10.7958
cun❁1쎯ren❂1쎯.	-10.7958
.hou❄7쎯lai❂16쎯	-10.7959
shuang❁4쎯he❂35쎯	-10.796
ping❂36쎯wei❄14쎯“	-10.7961
pian❄3쎯	-10.7963
jin❁33쎯shan❁11쎯	-10.7964
wu❄12쎯gong❁17쎯	-10.7971
zheng❄12쎯wei❁12쎯	-10.7971
qing❁20쎯tong❂48쎯	-10.7972
2쎯shi❁11쎯.	-10.7973
hui❂1쎯guo❂11쎯	-10.7975
xing❂9쎯hao❂6쎯:	-10.7979
de❅2쎯xing❂11쎯	-10.7981
fan❁11쎯jia❁30쎯	-10.7984
shu❁29쎯	-10.7984
qie❁1쎯pian❁5쎯	-10.7988
zhang❃3쎯	-10.7988
tian❁5쎯zi❃7쎯	-10.7991
jian❄29쎯she❄29쎯,	-10.7991
shi❂20쎯ke❄7쎯	-10.7993
gan❁19쎯jun❁15쎯	-10.7997
su❄30쎯zao❄16쎯	-10.8001
jun❁6쎯ke❃4쎯	-10.8004
dong❃6쎯	-10.8011
쎂-쎃	-10.8012
tian❁7쎯	-10.8013
、dan❄38쎯	-10.8014
쎁쎉쎉쎀	-10.8014
you❁9쎯mo❄75쎯	-10.8015
ji❁47쎯huo❄56쎯	-10.802
cun❁1쎯na❄11쎯	-10.8025
쎀mi❃19쎯,nian❂6쎯	-10.8025
yun❃7쎯	-10.8026
bu❂0쎯xie❄49쎯	-10.803
xin❁18쎯	-10.8032
xiao❄14쎯guo❃3쎯.	-10.8032
nong❂10쎯hou❄6쎯	-10.8033
quan❂12쎯li❄59쎯	-10.8033
liu❂28쎯jiao❄18쎯	-10.8035
,ju❄16쎯	-10.8036
wu❁	-10.8038
shou❁1쎯fei❄37쎯	-10.8039
wu❄12쎯shi❂13쎯	-10.8044
zui❄4쎯you❃11쎯	-10.8044
쎂쎀쎀mi❃19쎯	-10.8046
zhe❄14쎯ci❄16쎯	-10.8047
bian❄16쎯shi❄45쎯	-10.8048
jin❃24쎯lin❂43쎯	-10.8051
xu❁1	-10.8051
jing❄30쎯ji❄59쎯	-10.8055
sha❁10쎯mo❄37쎯	-10.8062
쎂.쎈	-10.8062
dan❁5쎯mai❄16쎯	-10.8063
zhi❁13쎯xiang❁1쎯	-10.8063
pi❂11쎯	-10.8063
chu❁3쎯zi❁45쎯	-10.8071
hu❂47쎯hu❄46쎯	-10.8071
chong❂17쎯xiu❁11쎯	-10.8074
쎁쎉쎆쎇nian❂6쎯	-10.8075
che❄20쎯	-10.8081
hai❃1쎯shui❃0쎯	-10.8083
yong❁2	-10.8084
(ji❂114쎯qiu❂19쎯)	-10.8085
bei❃2쎯mian❄2쎯	-10.8086
쎆ren❂1쎯,	-10.8086
ben❃5쎯ren❂1쎯	-10.8088
、xiao❁61쎯shou❄5쎯	-10.8088
-쎂쎀	-10.809
jin❁33쎯pai❂4쎯	-10.8092
.min❂22쎯guo❂11쎯	-10.8093
chi❄33쎯	-10.8093
chuan❂4쎯dong❄13쎯	-10.8094
tang❂13쎯chao❂6쎯	-10.8094
、shang❃1쎯hai❃1쎯	-10.8097
si❄16쎯	-10.8102
tiao❂9쎯li❄51쎯》	-10.8103
xing❄13쎯,	-10.8104
ji❁48쎯zu❃7쎯	-10.8105
shai❁2쎯	-10.8106
you❁5쎯hui❄50쎯	-10.8107
ji❂57쎯qi❂29쎯	-10.8109
zuo❄5쎯wen❂5쎯	-10.8109
fu❃2	-10.8111
ti❂17쎯shi❄60쎯	-10.8112
luo❃15쎯	-10.8118
fang❄0쎯da❄0쎯	-10.8118
que❄26쎯ren❄30쎯	-10.8121
gan❃6쎯ying❁17쎯	-10.8121
yi❃15쎯cheng❂29쎯	-10.8122
jue❂92쎯yuan❂44쎯	-10.813
xu❂1쎯zhou❁9쎯	-10.8131
,쎄	-10.8132
man❂21쎯	-10.8133
nie❄42쎯	-10.8133
zhe❂4	-10.8134
liu❄3쎯gan❄3쎯	-10.8137
rang❄3쎯ni❃6쎯	-10.8138
yu❂53쎯	-10.8139
cang❁0쎯chu❃3쎯	-10.814
ji❄117쎯·	-10.814
hua❁11쎯jiao❁21쎯	-10.814
dai❄45쎯	-10.8145
pi❁11쎯zhun❃0쎯,	-10.8146
yi❁10쎯zhong❁4쎯	-10.8149
zu❃7쎯zhang❃6쎯	-10.815
niu❃9쎯	-10.815
lian❂53쎯luo❄24쎯	-10.8154
li❄59쎯.	-10.8156
jue❂104쎯de❂7쎯	-10.8158
ma❅1쎯	-10.8158
lv❃4쎯	-10.8159
ju❄18쎯ben❃5쎯	-10.8162
.zhe❄14쎯gan❄3쎯	-10.8162
yi❁10쎯guan❄33쎯	-10.8164
shou❄3쎯yi❁13쎯	-10.8167
gao❁20쎯zhi❂32쎯	-10.8168
ba❁9쎯jiao❃57쎯	-10.8168
qie❄1	-10.817
ru❂9쎯jin❁10쎯	-10.8172
er❄5쎯nian❂6쎯(	-10.8174
mian❄2쎯ban❃5쎯	-10.8175
fen❄9쎯	-10.8175
biao❃5쎯ge❂29쎯	-10.8178
wu❂17쎯ren❂1쎯	-10.8179
yin❁37쎯yang❂35쎯	-10.8179
tian❁5쎯kong❁9쎯	-10.818
쎀쎀duo❁5쎯ping❂17쎯	-10.8181
jian❁17쎯chi❂20쎯“	-10.8182
jiu❃3쎯jiang❁10쎯	-10.8182
jiao❁44쎯	-10.8182
;fu❄64쎯ze❂44쎯	-10.8183
zun❁7쎯xun❂16쎯	-10.8185
쎁쎉쎈쎉	-10.8187
쎁쎉쎈쎈	-10.8188
tang❂28쎯niao❄2쎯	-10.819
shuo❁2쎯:“	-10.8196
쎁쎅nian❂6쎯	-10.8197
❄19쎯	-10.8199
jian❄29쎯she❄29쎯、	-10.8199
qi❃21쎯	-10.8201
chang❂15쎯nian❂6쎯	-10.8201
de❅0쎯.	-10.8201
guo❄2쎯de❅2쎯	-10.8201
ji❁48쎯de❅2쎯	-10.8204
te❄5쎯·	-10.8207
shan❁11쎯shang❃1쎯	-10.8208
ce❄22쎯hui❄79쎯	-10.821
yan❃39쎯yi❄190쎯	-10.8213
jie❁13쎯rang❃3쎯,	-10.8214
ji❁66쎯	-10.8215
cong❂6쎯xiao❃2쎯	-10.8215
ke❄29쎯tang❂15쎯	-10.8217
hun❄10쎯fa❃2쎯	-10.8217
qing❂6쎯jing❃13쎯	-10.8217
쎁.쎃	-10.822
pin❃0쎯pai❂4쎯.	-10.8221
:zhong❁4쎯guo❂11쎯	-10.8222
xie❂24쎯dai❄15쎯	-10.8224
xia❄3쎯jiang❄25쎯	-10.8228
pian❁7쎯.	-10.823
yue❄56쎯lan❃28쎯	-10.8231
du❄8쎯,	-10.8231
dao❃12쎯	-10.8233
yi❁10쎯du❄8쎯	-10.8233
quan❄1쎯	-10.8233
zuo❄5쎯ci❂29쎯	-10.8234
쎅nian❂6쎯	-10.8238
쎁쎉쎃쎀nian❂6쎯	-10.8239
bu❄38쎯fen❁4쎯,	-10.8239
zhi❁13쎯zi❃7쎯	-10.824
쎀쎀쎀	-10.824
jia❃19쎯	-10.8241
deng❃2쎯ren❂1쎯	-10.8242
yun❃16쎯he❂37쎯	-10.8244
《da❄0쎯	-10.8244
lin❂51쎯pian❁5쎯	-10.8245
shun❄11쎯xu❄36쎯	-10.8245
you❄13쎯jiao❄6쎯	-10.8245
ga❂0쎯	-10.8249
jia❁4쎯	-10.8251
bing❄12쎯li❃15쎯	-10.8255
xiao❃2쎯chi❁8쎯	-10.8256
ye❃1쎯jiao❄6쎯	-10.8259
ke❃4쎯ai❄26쎯	-10.826
.mei❃9쎯	-10.8261
yan❄75쎯shou❁1쎯	-10.8261
jing❁16쎯	-10.8262
lian❂29쎯	-10.8265
lun❄1쎯》	-10.8269
rong❂50쎯ru❄2쎯	-10.8271
du❂25쎯ju❄16쎯	-10.8272
chuang❄1쎯kan❁3쎯	-10.8273
ti❄21쎯dai❄9쎯	-10.8274
qi❃34쎯ren❂4쎯	-10.8275
dian❁12쎯	-10.8276
”cheng❁28쎯hao❂6쎯	-10.8277
ku	-10.8281
wang❄1쎯	-10.8281
liang❄2쎯du❄8쎯	-10.8283
jiu❄3	-10.8284
diu❁1쎯	-10.8287
:쎉	-10.8287
zhi❁13쎯suo❃11쎯	-10.8289
쎅°	-10.8293
liang❃5쎯tiao❂9쎯	-10.8295
hun❁4쎯li❃17쎯	-10.8298
mo❄16쎯yuan❂10쎯.	-10.83
se❄15쎯	-10.8303
ji❄83쎯si❄32쎯	-10.8303
xue❂6쎯jiao❄18쎯,	-10.8304
쎁쎈쎇	-10.8306
shan❁11쎯yao❄12쎯	-10.8307
hen❃2쎯jiang❄9쎯	-10.8308
)-	-10.8309
duo❄	-10.831
te❄5쎯pin❄1쎯	-10.8313
ding❄2쎯ju❁14쎯	-10.8313
zhe❃2쎯han❄20쎯	-10.8313
fu❁22쎯	-10.8316
dan❁9쎯wei❄15쎯、	-10.8317
deng❃2쎯gong❁11쎯	-10.832
bian❁16쎯jie❄29쎯	-10.8323
fu❃11쎯	-10.8324
dao❄24쎯guang❁2쎯	-10.8329
yan❁30쎯	-10.833
lu❄70쎯kou❃1쎯	-10.8331
lei❃25쎯ji❄116쎯	-10.8332
쎁gong❁10쎯li❃26쎯	-10.8332
shi❂13쎯wu❄12쎯	-10.8333
kui❂35쎯	-10.8334
),zi❄6쎯	-10.8334
guan❁4쎯cun❁1쎯	-10.8337
dui❄33쎯yuan❂15쎯	-10.8338
xiu❄19쎯	-10.8339
ren❂1쎯xin❁7쎯	-10.8341
쎃쎂.	-10.8342
ji❄94쎯jian❃36쎯	-10.8348
ka❃1쎯er❃6쎯	-10.8349
ji❁34쎯de❅0쎯,	-10.835
zhou❄14쎯	-10.8351
,jian❄29쎯li❄141쎯	-10.8351
yi❄18	-10.8351
zhi❁31쎯xian❄22쎯	-10.8353
ming❂7쎯pai❂4쎯	-10.8354
han❄20쎯xian❂27쎯	-10.8358
qie❄25쎯	-10.8358
hui❂1쎯shou❁1쎯	-10.8363
ling❂99쎯jian❄15쎯	-10.8365
an❁18쎯	-10.8365
xue❂6쎯ming❂7쎯	-10.8366
zhang❃6쎯da❂30쎯	-10.8367
쎂.쎂	-10.8368
hei❁3쎯bai❂2쎯	-10.837
”,shi❄45쎯	-10.8372
ji❄61쎯you❃11쎯	-10.8372
yu❃26쎯	-10.8373
,huo❄50쎯de❂7쎯	-10.8376
ding❁12쎯	-10.838
fu❄65쎯》:“	-10.8382
ke❃10쎯	-10.8382
yue❄29쎯쎁쎁ri❄2쎯	-10.8382
qian❁13쎯mi❃19쎯,	-10.8385
jia❃14쎯ji❂83쎯	-10.8386
chao❁14쎯	-10.8389
su❄70쎯lv❄15쎯	-10.8389
g❃1쎯fa❁1쎯biao❃5쎯	-10.839
yue❁1쎯wei❄14쎯	-10.8392
bing❃10쎯	-10.8392
ling❃2쎯xiu❄13쎯	-10.8395
쎃ren❂1쎯	-10.8396
,bu❂0쎯guo❄2쎯	-10.8397
tai❄3쎯kong❁9쎯	-10.84
쎄쎅쎀	-10.8401
mian❄2쎯ji❁64쎯쎉	-10.8402
쎁쎉쎉쎄	-10.8402
duan❃0쎯pian❁7쎯	-10.8403
쎁.쎁	-10.8404
han❄2	-10.8405
yi❁10쎯fang❁4쎯	-10.841
jian❁25쎯tong❁5쎯	-10.841
nuo❄14쎯mi❃19쎯	-10.8411
zhang❄9쎯	-10.8414
peng❃1쎯	-10.8419
jing❁24쎯que❄26쎯	-10.8422
,dou❁12쎯	-10.8424
gong❃10쎯	-10.8424
zha❁9쎯shi❂13쎯	-10.8425
쎁쎉쎉쎂	-10.8426
、chuang❁13쎯	-10.8427
yue❄29쎯fen❄2쎯	-10.8428
ceng❂6쎯huo❄50쎯	-10.8428
bu❄28쎯zhou❄39쎯	-10.8429
wei❂28쎯fang❁2쎯	-10.843
kuan❁0쎯du❄8쎯	-10.843
쎂/	-10.8431
lan❂36쎯	-10.8433
cai❄5쎯dan❁9쎯	-10.8433
you❃11쎯qu❄11쎯	-10.8433
".	-10.8435
la❁4쎯	-10.8437
쎀.쎉	-10.8444
qie❁1쎯ge❁6쎯	-10.8446
ji❁54쎯lie❄34쎯	-10.8449
qing❁10쎯chu❃9쎯	-10.845
dang❁4쎯zhong❁4쎯	-10.8452
tian❁5쎯xian❄47쎯	-10.8453
shu❁8쎯xie❃4쎯	-10.8457
er❂16쎯you❄13쎯	-10.8458
zhuang❁3쎯	-10.8459
ju❂23쎯zhang❃6쎯、	-10.8461
nian❂6쎯sheng❁16쎯	-10.8461
hong❁12쎯	-10.8462
qian❂8쎯feng❁52쎯	-10.8465
ji❂9	-10.8467
쎀.	-10.8467
쎅.쎅	-10.8469
yi❃10쎯dong❁3쎯	-10.8469
nan❂6쎯mian❄2쎯	-10.8472
hui❄27쎯shang❃1쎯	-10.8473
쎁쎉쎈쎇	-10.8475
◎	-10.8476
,ge❄3쎯	-10.8476
chong❁10쎯tu❁14쎯	-10.8477
,gu❄12쎯cheng❁28쎯	-10.8478
(yi❁10쎯)	-10.8479
bin❁12쎯shi❄32쎯	-10.8481
ke❁16쎯yuan❂15쎯	-10.8481
tong❂13쎯yi❄109쎯	-10.8482
man❄11쎯man❄11쎯	-10.8483
ran❂13쎯liao❄8쎯	-10.8488
—쎁	-10.8489
쎅ren❂1쎯	-10.8489
bu❂0쎯yi❄119쎯	-10.849
jin❄61쎯zhan❃11쎯	-10.8491
fu❁39쎯	-10.8491
mian❄2쎯qian❂8쎯	-10.8492
hua❄18쎯yuan❄18쎯	-10.8495
chu❁3쎯fa❁1쎯	-10.8501
ke❃4쎯kou❃1쎯	-10.8502
cheng❂17쎯guan❁4쎯	-10.8502
a❁6쎯gen❁0쎯ting❂	-10.8505
,dui❄14쎯yu❂35쎯	-10.8505
〉	-10.8506
,jin❁10쎯	-10.8509
zhu❃4쎯jiang❃19쎯	-10.8511
chong❂17쎯zu❃7쎯	-10.8511
xue❂6쎯ke❁16쎯dai❄	-10.8511
shun❄8쎯	-10.8514
ben❄4쎯xing❂9쎯	-10.8515
hui❄27쎯、	-10.8521
,xia❂39쎯	-10.8522
er❃6쎯fu❁13쎯	-10.8525
쎁쎉쎈쎅	-10.8527
lu❄92쎯	-10.8528
,me❅1쎯you❃11쎯	-10.8529
jin❁18쎯tie❁5쎯	-10.853
-쎁쎅	-10.8531
pei❁7쎯	-10.8532
bu❂0쎯xing❄12쎯	-10.8534
hua❁11쎯wen❂12쎯	-10.8534
ren❂1쎯wu❄36쎯.	-10.8535
-쎁쎁	-10.8536
huang❃	-10.8537
zhi❁13쎯chu❄17쎯	-10.8538
ai❄26쎯de❅2쎯	-10.854
zhen❄30쎯dong❁3쎯	-10.8541
xie❂24쎯shou❃4쎯	-10.8542
zhan❃11쎯chu❁3쎯	-10.8544
xi❄50쎯zhi❄89쎯	-10.8545
min❃24쎯dong❁3쎯	-10.8545
rong❂47쎯	-10.8545
zai❄8쎯ben❄4쎯	-10.8546
you❂29쎯yuan❂12쎯	-10.8551
35쎯	-10.8551
wai❄0쎯,fu❂94쎯	-10.8557
hao❃0쎯you❃9쎯	-10.8557
hua❂14쎯li❄50쎯	-10.856
ri❄2쎯,	-10.856
pi❄	-10.8561
.zhe❄14쎯li❃26쎯	-10.8561
quan❂6쎯cheng❂52쎯	-10.8564
쎁쎉쎈쎆	-10.8565
yu❃14쎯qi❂29쎯	-10.8565
mian❄2쎯qiu❂19쎯	-10.8567
zhi❁13쎯zhong❁4쎯,	-10.857
jian❁25쎯gong❁17쎯	-10.8574
dou❁12쎯zai❄5쎯	-10.8574
pei❄19쎯song❄9쎯	-10.8575
qin❁4쎯zi❄16쎯	-10.8577
쎂ren❂1쎯	-10.8578
ji❁48쎯che❁8쎯	-10.8582
fen❃1쎯、	-10.8583
qian❂8쎯jin❄61쎯	-10.8584
ji❂57쎯ju❄16쎯	-10.8587
.xia❂39쎯	-10.8588
쎀쎀hao❂14쎯mi❃19쎯	-10.8589
lan❂17쎯	-10.8591
,xiao❃2쎯	-10.8593
shi❄45쎯wo❃3쎯们	-10.8594
xiang❄24쎯mu❄22쎯.	-10.8594
dan❁15쎯bao❃9쎯	-10.8594
ta❁4쎯	-10.8598
bao❄20쎯	-10.8599
yi❁10쎯shi❂20쎯	-10.8601
shi❃8쎯》	-10.8603
,zuo❄5쎯zhe❃2쎯	-10.8604
shi❁11쎯、	-10.8605
zai❄5쎯zhe❄14쎯	-10.8605
bei❁15쎯mian❄2쎯	-10.8606
niao❃17쎯lei❄16쎯	-10.8606
qian❁13쎯li❃26쎯	-10.8607
kan❁4쎯tan❄5쎯	-10.8609
zao❄8쎯	-10.8611
cun❁1쎯zhen❄30쎯	-10.8614
쎀쎆-	-10.8615
,zhe❄14쎯gan❄3쎯	-10.8616
,mei❃13쎯guo❂11쎯	-10.8618
ji❄36쎯,	-10.8621
cang❂5쎯shu❁8쎯	-10.8622
、fu❂43쎯wu❄12쎯	-10.8624
er❂16쎯lai❂16쎯	-10.8625
、wei❄18쎯jing❁24쎯	-10.8626
bo❂47쎯	-10.8628
,shou❄4쎯dao❄3쎯	-10.8628
bi❃20쎯li❄58쎯	-10.8629
,jie❂67쎯ge❃0쎯	-10.8631
gui❁6쎯	-10.8631
zhan❁12쎯	-10.8634
si❃0쎯hou❄7쎯	-10.864
leng❃쎯shui❃0쎯	-10.8641
mian❄2쎯bao❁4쎯	-10.8643
da❄0쎯jiang❃8쎯	-10.8644
quan❂17쎯zhou❁9쎯	-10.8645
chu❁3쎯ren❂4쎯	-10.8647
nan❂6쎯jian❁25쎯	-10.8648
qi❁28쎯	-10.8648
쎁쎉쎈쎄	-10.8649
jia❁7쎯zhou❁9쎯	-10.8649
wan❂5쎯、	-10.8651
、hong❂44쎯	-10.8651
fen❁4쎯qu❁15쎯	-10.8655
miao❂7쎯zu❂9쎯	-10.8655
ben❃5쎯zhi❄104쎯	-10.8656
man❂20쎯	-10.8657
wen❂5쎯shu❁8쎯	-10.866
tong❂13쎯hang❂16쎯	-10.8661
yin❁11쎯zi❃7쎯	-10.8662
hei❁3쎯an❄15쎯	-10.8663
kuo❄7쎯	-10.8663
qiu❁9쎯na❄11쎯	-10.8664
bu❄19쎯	-10.8667
zhan❃11쎯hui❄27쎯	-10.867
dou❄13쎯	-10.8672
〈	-10.8673
,xi❁143쎯yu❃14쎯	-10.8674
yi❁10쎯ren❂1쎯	-10.8675
rui❄13쎯	-10.8678
shu❄28쎯li❄141쎯	-10.8679
yan❂50쎯fa❁1쎯、sh	-10.868
zhi❁13쎯dao❄24쎯	-10.8686
fu❄31쎯yin❄7쎯	-10.8687
dian❄23쎯ti❁6쎯	-10.8689
han❃15쎯jian❄62쎯	-10.8689
lv❄20쎯se❄29쎯,	-10.8693
쎀쎈-	-10.8694
da❄0쎯xing❄8쎯	-10.8696
huan❃7쎯cun❂1쎯	-10.8698
gan❁16쎯shi❄18쎯	-10.87
zhi❁13쎯shang❃1쎯	-10.8702
qian❂40쎯,	-10.8705
.....	-10.8707
jie❂69쎯zou❄2쎯	-10.8708
ge❁	-10.8708
shu❃5쎯de❅2쎯	-10.8709
qi❂61쎯	-10.871
,chu❂42쎯	-10.8715
,zhi❁16쎯you❃11쎯	-10.8716
de❅2쎯hua❄26쎯	-10.8716
xiang❄20쎯,	-10.8716
.jin❄60쎯nian❂6쎯	-10.8718
ben❁2쎯teng❂13쎯	-10.8719
jun❁2쎯yi❁13쎯	-10.872
쎂쎀쎀ke❄6쎯	-10.8721
jing❄48쎯mai❄9쎯	-10.8723
쎁쎀쎈쎀	-10.8723
tao❄1쎯fang❂2쎯	-10.8723
duan❄20쎯lian❄17쎯	-10.8727
ying❁4	-10.8731
cao❃5쎯ben❃5쎯,	-10.8732
dui❄13쎯	-10.8735
쎁쎀쎆	-10.874
qiao❂12쎯zhen❄30쎯	-10.8742
na❃3쎯yang❂17쎯	-10.8742
lan❂13쎯jiao❁20쎯	-10.8746
ban❁15쎯de❅2쎯	-10.8746
bing❁4쎯chuan❁2쎯	-10.8747
li❄51쎯ru❂9쎯	-10.8751
yan❂50쎯fa❁1쎯、	-10.8753
liu❂33쎯suan❁3쎯	-10.8753
shu❄28쎯mu❄15쎯	-10.8753
you❃11쎯ming❂7쎯	-10.8756
qi❃34쎯le❅0쎯	-10.8756
bai❃9쎯ke❁16쎯	-10.876
li❄58쎯xing❄13쎯	-10.8763
.쎂쎀쎀쎃nian❂6쎯	-10.8764
zao❄6쎯	-10.8764
ceng❂6쎯bei❄48쎯	-10.8764
kuo❄7쎯jian❄29쎯	-10.8765
fo❂2쎯xue❂6쎯	-10.8765
쎁쎈쎆	-10.8767
.quan❂6쎯shu❁8쎯	-10.8771
う	-10.8772
jia❁13쎯ren❂1쎯	-10.8773
ge❃0쎯fa❃2쎯	-10.8774
dian❄11쎯ding❄2쎯	-10.8774
min❂22쎯yong❄3쎯	-10.8775
shang❃1쎯le❅0쎯	-10.8779
pi❂5쎯jiu❃12쎯	-10.8781
gun❄2쎯	-10.8785
qian❂8쎯wei❄16쎯	-10.8785
gui❁35쎯ding❄2쎯,	-10.8791
쎇쎅쎀	-10.8793
bi❃17쎯ci❃2쎯	-10.8794
cheng❂17쎯xi❁143쎯	-10.8794
》shi❄45쎯you❂29쎯	-10.8794
lv❃14쎯ke❄14쎯	-10.8795
쎁쎇쎈	-10.8799
tang❂	-10.8801
xian❁18쎯feng❁52쎯	-10.8801
lun❂4쎯	-10.8803
◇	-10.8804
jing❄48쎯tai❄6쎯	-10.8805
hui❂1쎯yi❄104쎯	-10.8805
qiu❁27쎯	-10.8807
tong❂36쎯hua❄26쎯	-10.8808
luan❂1	-10.8809
bin❁7쎯	-10.881
quan❂6쎯li❄59쎯	-10.882
xu❄32쎯shu❄47쎯	-10.8823
wen❄4쎯	-10.8825
-쎂쎀쎀	-10.8825
di❁9쎯yu❂35쎯	-10.8825
jian❁25쎯cai❃11쎯	-10.8826
쎅gong❁10쎯li❃26쎯,	-10.8826
,de❅0쎯li❃15쎯	-10.8827
xian❃24쎯cun❂1쎯	-10.8828
lai❂16쎯,	-10.8832
쎁쎉쎂쎆nian❂6쎯	-10.8833
、chen❂41쎯	-10.8835
bao❃9쎯an❁13쎯	-10.8835
tou❂4쎯tong❄3쎯	-10.8836
mu❄9쎯de❅0쎯	-10.8838
you❂25쎯xi❄33쎯,	-10.8841
ban❁7쎯	-10.8841
,yi❁10쎯zhi❂25쎯	-10.8842
zhan❄16쎯	-10.8843
chan❃12쎯pin❃0쎯,	-10.8843
yi❁13쎯shi❁11쎯.	-10.8849
,chong❁9쎯fen❁4쎯	-10.885
,bei❃2쎯yu❃14쎯	-10.8851
guang❁2쎯ce❄33쎯	-10.8852
ye❃1쎯bei❄48쎯	-10.8854
kui❁2쎯	-10.8855
,xiang❄6쎯	-10.8862
mei❄5쎯mei❄5쎯	-10.8862
yan❂37쎯an❁13쎯	-10.8865
bu❄23쎯zhi❄85쎯	-10.8865
de❅0쎯ban❃5쎯	-10.8869
wei❄14쎯ren❂1쎯	-10.8869
zhi❃19쎯chu❁3쎯	-10.887
mi❄24쎯ji❂114쎯	-10.8873
liang❃5쎯wei❁12쎯	-10.8873
yi❄239쎯	-10.8876
po❄23쎯	-10.8879
jian❃	-10.8883
fu❄64쎯he❂52쎯	-10.8883
huo❃2쎯tui❃7쎯	-10.8887
fang❁4쎯cheng❂52쎯	-10.8888
dui❄14쎯qi❂29쎯	-10.8889
jing❄11쎯jie❄29쎯	-10.8889
yan❃1	-10.889
dui❄33쎯zhang❃6쎯	-10.8892
tai❄3쎯ji❂57쎯	-10.8895
dui❄14쎯mian❄2쎯	-10.8899
yi❁10쎯zu❃7쎯	-10.8903
nv❃0쎯sheng❁16쎯	-10.8905
쎆hao❂6쎯	-10.8907
jie❂67쎯gou❃2쎯,	-10.8907
fei❁15쎯ying❂45쎯	-10.8908
β	-10.8911
mang❂30쎯	-10.8911
lin❂32쎯suan❁3쎯	-10.8916
d	-10.8917
bian❄19쎯ya❁7쎯	-10.8917
shi❄15쎯jia❁13쎯	-10.8921
ya	-10.8922
ru❄2쎯men❂19쎯	-10.8923
xian❄47쎯xing❄13쎯	-10.8925
ci❂15쎯shan❄15쎯	-10.8925
lou❂19쎯,	-10.8927
zhan❄10쎯chang❃4쎯	-10.8928
쎀쎃-	-10.8928
ao❄14쎯de❅0쎯	-10.8928
jian❃52쎯ji❂67쎯	-10.8931
gong❁11쎯neng❂2쎯,	-10.8932
(쎅	-10.8933
xia❂13쎯gu❃52쎯	-10.8934
shi❃9쎯yu❂35쎯	-10.8934
쎄ren❂1쎯	-10.8934
yuan❂15쎯、fu❄28쎯	-10.8937
dian❃11쎯.	-10.8939
ni❂10쎯si❁24쎯	-10.894
shi❄32쎯xi❁143쎯	-10.8942
chang❂14쎯shi❄78쎯	-10.8943
sui❄16쎯,	-10.8946
mai❃0쎯mai❄6쎯	-10.8947
zong❁24쎯	-10.8952
chou❂29쎯jian❄29쎯	-10.8954
jiu❄23쎯xiang❄4쎯	-10.8955
chao❁11쎯	-10.8956
bao❃13쎯bei❄52쎯	-10.8956
쎉쎀nian❂6쎯dai❄9쎯	-10.896
di❄26쎯wang❂5쎯	-10.896
xu❄36쎯lie❄20쎯	-10.8961
jiang❁5쎯hui❄27쎯	-10.8962
yuan❃4쎯xiao❁61쎯	-10.8962
huai❂7쎯	-10.8963
zao❁7쎯dao❄3쎯	-10.8969
wu❁3쎯lu❃27쎯	-10.8971
peng❂11쎯	-10.8975
tao❂9쎯	-10.8977
san❁1쎯jie❄19쎯	-10.8979
wei❄24쎯	-10.8979
cha❁3쎯wu❁3쎯	-10.8979
qun❂7쎯	-10.8981
zhi❁13쎯xia❄3쎯	-10.8983
,bi❄73쎯qiu❁9쎯	-10.8983
qi❂63쎯	-10.8986
si❁33쎯li❄141쎯	-10.8988
cuo❄7쎯	-10.8988
qiao❄20쎯	-10.8988
jian❃36쎯suo❃18쎯	-10.8989
yu❂34쎯yi❃10쎯	-10.8991
쎂쎈쎀	-10.8993
zhan❄17쎯,	-10.8994
.sheng❁16쎯yu❂35쎯	-10.8995
mian❄2쎯ji❁64쎯쎁쎂	-10.9001
an❄14쎯mo❂9쎯	-10.9002
cong❁36쎯	-10.9002
쎁쎈쎅	-10.9004
chi❂20쎯you❃11쎯	-10.9005
gao❁9쎯	-10.9006
mu❄22쎯biao❁14쎯,	-10.9009
liang❂19쎯:쎂	-10.9011
ge❁16쎯ju❄18쎯	-10.9011
xi❁143쎯lan❂13쎯	-10.9011
xian❄47쎯tiao❂9쎯	-10.9012
qu❁29쎯	-10.9012
.dan❄10쎯shi❄45쎯	-10.9013
juan❃1쎯,	-10.9015
du❃3쎯	-10.9015
,zhe❄14쎯li❃26쎯	-10.9019
ying❄9쎯du❄8쎯	-10.9025
wei❂38쎯ya❄7쎯	-10.9026
fu❂43쎯yi❄103쎯	-10.9027
da❄0쎯lu❄83쎯de❅2쎯	-10.9028
yi❃15쎯bei❄48쎯	-10.9029
wei❄14쎯쎁	-10.9029
san❁1쎯xia❂13쎯	-10.903
shou❃6쎯fa❁1쎯	-10.9031
dong❁3쎯ying❂45쎯	-10.9031
ge❂29쎯ju❂23쎯	-10.9033
nan❂6쎯fei❁15쎯	-10.9034
rong❂48쎯	-10.9034
yan❂37쎯xu❄69쎯	-10.9035
zi❁21쎯bo❂41쎯	-10.9035
、jin❁33쎯	-10.9036
xiang❃6쎯yao❁17쎯	-10.9038
쎁nian❂6쎯	-10.9038
li❄62쎯cheng❂52쎯	-10.9039
,zhe❄14쎯yang❂17쎯	-10.9039
da❄0쎯yu❂35쎯	-10.904
si❁33쎯ren❂1쎯	-10.9041
jia❁8쎯jing❄46쎯	-10.9045
wen❂12쎯,	-10.9045
le❅0쎯xin❁10쎯	-10.9048
de❅2쎯nu❃1쎯li❄59쎯	-10.9053
,mei❃9쎯nian❂6쎯	-10.9054
zhang❃6쎯tu❂38쎯	-10.9062
chang❃4쎯,	-10.9063
yu❂35쎯yi❁10쎯	-10.9066
shi❄32쎯zhong❁4쎯	-10.9069
mo❄16쎯zi❄6쎯	-10.9069
xue❂6쎯jiao❄18쎯、	-10.9069
fang❁4쎯xiang❄6쎯:	-10.9069
ge❁16쎯ci❂29쎯	-10.9071
dian❄23쎯gong❁17쎯	-10.9077
wen❂5쎯hua❁1쎯,	-10.9079
shou❃6쎯xuan❃8쎯	-10.9081
,ruo❄8쎯	-10.9081
bu❂0쎯shou❄4쎯	-10.9088
쎄.쎀	-10.9089
di❂23쎯	-10.909
di❂41쎯dian❄23쎯	-10.909
,nan❂6쎯yu❃14쎯	-10.909
you❂24쎯tian❂16쎯	-10.909
yan❃39쎯yuan❂15쎯.	-10.9093
shui❃0쎯jing❁14쎯	-10.9094
jian❁68쎯ku❃1쎯	-10.9094
zao❄5쎯	-10.9095
nan❂6쎯shan❁11쎯	-10.9095
sheng❃9쎯dao❄24쎯	-10.9096
yin❂19쎯	-10.9097
쎁xiang❄24쎯	-10.9098
쎁쎉쎃쎂nian❂6쎯	-10.91
pu❃	-10.9101
fa❁1쎯yuan❂34쎯	-10.9104
yue❄29쎯kan❁3쎯	-10.9105
、wu❂17쎯	-10.9108
liang❂19쎯:쎁	-10.9109
wu❃9쎯yue❄29쎯	-10.911
yi❁10쎯ban❄5쎯	-10.9112
jiu❁19쎯	-10.9114
xin❁10쎯ren❂1쎯	-10.9116
zhui❁6쎯	-10.9117
sheng❃9쎯na❄11쎯	-10.9117
쎁쎉쎃쎁nian❂6쎯	-10.9121
bu❂0쎯cuo❄18쎯	-10.9122
.쎁	-10.9123
ye❁6쎯	-10.9125
❃15쎯	-10.9126
.쎂쎀쎀쎂nian❂6쎯	-10.9126
ru❂9쎯:	-10.9128
qin❂32쎯	-10.9129
si❄15쎯,	-10.9132
tai❄6쎯du❄8쎯	-10.9132
hang❂16쎯,	-10.9134
shi❁20쎯zi❃7쎯	-10.9136
zhu❁29쎯hou❂10쎯	-10.9136
jiang❃8쎯,	-10.9137
cheng❂30쎯jie❁13쎯	-10.9138
shi❁11쎯da❄0쎯	-10.9138
de❅1쎯bu❄38쎯	-10.9139
qing❂6쎯xu❄68쎯	-10.9139
nv	-10.9144
.쎀쎄	-10.9146
men❂19쎯,	-10.9146
shi❄18쎯.	-10.9146
в	-10.9148
wai❄0쎯hui❄60쎯	-10.9148
tong❂13쎯meng❂34쎯	-10.9148
shou❃3쎯hu❄30쎯	-10.9151
bu❂0쎯jiu❃1쎯	-10.9155
쎄gong❁10쎯li❃26쎯	-10.9157
.(쎂)	-10.9158
()de❅2쎯	-10.9158
.쎁쎉쎄쎉nian❂6쎯	-10.9159
쎇쎀nian❂6쎯dai❄9쎯	-10.9162
gui❁35쎯ge❂29쎯:	-10.9163
yi❂54쎯	-10.9163
hu❂32쎯bo❂52쎯	-10.9164
cong❂6쎯ci❃2쎯	-10.9167
zhun❃0쎯ze❂11쎯	-10.9169
lao❂11쎯wu❄12쎯	-10.917
cha❄16쎯	-10.9171
쎀)	-10.9171
she❄17쎯wai❄0쎯	-10.9174
ng❃15쎯cheng❂30쎯“	-10.9176
ken❃1쎯	-10.9176
bi❄124쎯	-10.9178
ri❄2쎯zhao❄18쎯	-10.9178
liang❃5쎯mian❄2쎯	-10.9179
xu❄3	-10.918
shi❄32쎯ren❂1쎯	-10.9182
zhi❄56쎯li❄59쎯	-10.9184
,nu❃1쎯li❄59쎯	-10.9185
pian❁5쎯、	-10.9185
.쎁.	-10.9188
쎁쎉shi❄15쎯ji❄94쎯	-10.9189
zong❃5쎯hui❄27쎯	-10.9189
yi❂61쎯zhi❂20쎯	-10.9192
xian❄47쎯、	-10.9193
jian❁25쎯ban❄4쎯	-10.9194
er❂16쎯yan❂61쎯	-10.9194
,qing❃9쎯	-10.92
쎀*	-10.9203
xu❄36쎯》:“	-10.9204
zhao❁3쎯shou❁1쎯	-10.9204
wei❄15쎯,	-10.9207
yan❁17쎯hou❂11쎯	-10.9207
que❁4쎯	-10.9209
ou❁8쎯yang❂35쎯	-10.921
쎀쎇-	-10.9213
yi❄67쎯you❃11쎯	-10.9219
jian❄58쎯	-10.922
fa❁1쎯re❄1쎯	-10.923
gu❃42쎯dong❁3쎯	-10.9234
wan❂19쎯	-10.9235
zhong❁4쎯du❂17쎯	-10.9237
cong❁36쎯ming❂8쎯	-10.9238
gu❁9쎯niang❂0쎯	-10.9244
biao❁	-10.9245
yi❃32쎯	-10.9245
chu❄17쎯fang❁4쎯	-10.9246
da❄0쎯suan❄4쎯	-10.9247
,can❁3쎯jia❁7쎯	-10.9248
li❃15쎯cai❂9쎯	-10.925
huan❄12쎯	-10.9253
gan❁2	-10.9253
zhi❂16쎯qiu❁9쎯	-10.9256
huan❄31쎯	-10.9263
shen❁23쎯bao❄10쎯	-10.9264
gong❁9쎯shui❃0쎯	-10.9265
xiao❁29쎯hao❄35쎯	-10.9266
wu❂17쎯feng❄7쎯	-10.9266
dui❄14쎯hua❄26쎯	-10.9267
sou❁13쎯	-10.9267
kua❄4쎯yue❄46쎯	-10.9268
piao❁4쎯liang❄2쎯	-10.927
shai❄1쎯	-10.9271
ming❂7쎯shi❁11쎯	-10.9272
jie❄34쎯	-10.9274
chan❃12쎯dang❃2쎯.	-10.9274
jiu❁16쎯	-10.9275
yi❄203쎯	-10.9279
tu❂38쎯zhong❁4쎯	-10.9282
te❄5쎯yue❁1쎯	-10.9283
gai❄11쎯	-10.9286
,dang❁4쎯shi❂20쎯	-10.9286
bian❁13쎯wei❁12쎯	-10.9287
,zhi❄88쎯jin❁10쎯	-10.9289
qi❃25쎯shi❄22쎯	-10.929
fei❁12쎯lv❄9쎯bin❁	-10.9291
쎁쎁쎂	-10.9292
qian❂8쎯lie❄20쎯	-10.9293
zhu❃4쎯gan❁16쎯	-10.9293
chu❁3쎯chang❃4쎯	-10.9297
li❄108쎯gan❁16쎯	-10.9297
zhi❄88쎯shang❃1쎯	-10.9299
chuan❂4쎯ran❃11쎯	-10.9302
fei❄27쎯shui❃0쎯	-10.9305
yi❄68쎯yuan❂10쎯,	-10.9306
yao❃16쎯	-10.9309
fang❁4쎯shi❄33쎯.	-10.9312
dou❁12쎯bu❂0쎯	-10.9312
bei❃2쎯ce❄8쎯	-10.9314
he❂35쎯suan❄3쎯	-10.9316
yi❁10쎯ba❁9쎯	-10.9316
ren❄38쎯	-10.9323
yi❃10쎯xi❁143쎯	-10.9324
bing❁6쎯fei❁15쎯	-10.9325
ri❄2쎯bao❄10쎯》	-10.9325
shu❁8쎯》:“	-10.9325
”zi❄6쎯	-10.933
.dui❄14쎯	-10.9332
wu❁17쎯shui❃0쎯	-10.9332
san❁1쎯yue❄29쎯	-10.9343
ji❂35쎯cheng❂29쎯.	-10.9343
tong❃9쎯cheng❁28쎯	-10.9344
de❂9쎯yu❄93쎯	-10.9347
gu❃14쎯ji❄120쎯	-10.935
、bei❃2쎯	-10.935
,huo❄27쎯zhe❃2쎯	-10.9354
shi❄33쎯de❅2쎯	-10.9354
ge❁16쎯chang❄2쎯	-10.9358
you❄13쎯shi❄45쎯	-10.9358
fang❄0쎯qi❄23쎯	-10.9359
xi❁99쎯	-10.9359
zhuan❁1쎯jia❁13쎯,	-10.9363
ji❄59쎯yi❄190쎯	-10.9366
gong❁11쎯neng❂2쎯.	-10.9367
zhu❁17쎯bao❃13쎯	-10.937
xu❁37쎯qiu❂27쎯,	-10.9371
ji❄12	-10.9371
peng❂7쎯zhen❄30쎯	-10.9371
¥	-10.9375
man❃4쎯zu❂9쎯	-10.9375
zi❃7쎯shi❄33쎯:	-10.9375
쎂쎀gong❁10쎯li❃26쎯	-10.9375
yao❄12쎯yong❄3쎯	-10.9376
yu❄31쎯ming❂7쎯	-10.9376
rou❂5쎯	-10.9377
da❁12쎯jian❄29쎯	-10.9378
(xian❄37쎯	-10.9378
쎈ren❂1쎯,	-10.938
jia❁13쎯dian❄23쎯	-10.9383
xun❁3쎯zhang❁13쎯	-10.9387
hong❂44쎯se❄29쎯,	-10.9388
xiang❁26쎯cai❄5쎯	-10.939
1쎯,	-10.939
lu❄70쎯jiao❁8쎯	-10.9393
,gai❃2쎯	-10.9394
gao❁20쎯feng❁19쎯	-10.9394
hou❄7쎯bei❄48쎯	-10.9399
wu❂17쎯xu❁37쎯	-10.9399
2쎯she❄29쎯ji❄116쎯	-10.9399
shi❄45쎯yong❄3쎯	-10.9399
di❄45쎯쎅	-10.9404
.sui❁12쎯ran❂12쎯	-10.9408
bing❄12쎯de❅2쎯	-10.9412
can❁3쎯guan❁16쎯	-10.9412
쎂쎅ke❄6쎯	-10.9414
bao❁4쎯tou❂4쎯	-10.9417
《guan❁4쎯yu❂35쎯	-10.9419
wen❂5쎯ben❃5쎯	-10.9421
,ri❄2쎯ben❃5쎯	-10.9428
bi❄46쎯hua❄18쎯	-10.9433
ying❁44쎯wen❂5쎯mi	-10.9439
ke❁16쎯zhang❃6쎯、	-10.9441
si❄32쎯	-10.9442
chi❄3	-10.9442
ding❃11쎯bu❄38쎯	-10.9442
ji❁54쎯su❄56쎯	-10.9442
ji❁54쎯fa❁1쎯	-10.9444
jie❄15쎯jian❄77쎯	-10.9445
.쎁쎉쎈쎂nian❂6쎯	-10.9445
xie❂16쎯bing❃9쎯	-10.9446
mian❃24쎯dian❄24쎯	-10.9447
peng❁13쎯ren❄41쎯	-10.9447
er❃	-10.9448
(쎁쎉쎂	-10.945
쎉쎀쎀쎁	-10.9451
,bing❁6쎯yu❂35쎯	-10.9456
ru❃4쎯	-10.9456
shi❄84쎯	-10.9456
zi❃9쎯	-10.9457
quan❂6쎯jiao❄18쎯	-10.9458
te❄5쎯dian❃11쎯,	-10.9461
yi❁17쎯	-10.9462
pei❂5쎯	-10.9465
xia❄3쎯wu❃15쎯	-10.9465
yu❂88쎯	-10.9467
wa❂0쎯	-10.9467
mo❄16쎯mu❃2쎯	-10.9468
tu❂14쎯shu❁8쎯>	-10.9469
쎄ren❂1쎯,	-10.9472
xiu❄13쎯	-10.9475
ge❁8쎯ge❁8쎯	-10.9476
hen❃2쎯you❃11쎯	-10.9478
쎆.쎅	-10.9478
쎁쎉쎂쎉nian❂6쎯	-10.9478
yi❂79쎯ji❄120쎯	-10.9482
wei❁16쎯	-10.9483
bai❃6쎯lin❂19쎯	-10.9483
gai❃2쎯jian❄29쎯	-10.9485
chao❁17쎯qing❄3쎯	-10.9485
gong❁9쎯xiao❁61쎯	-10.9485
gong❁15쎯ting❂9쎯	-10.9486
jin❄60쎯nian❂6쎯	-10.949
wu❄1	-10.949
wei❁17쎯bo❂41쎯	-10.9491
wei❄52쎯zhi❁13쎯	-10.9497
dang❃2쎯han❄20쎯	-10.9497
zhe❄14쎯zuo❄12쎯	-10.9499
,na❃3쎯ma❅1쎯	-10.9499
쎇hao❂6쎯	-10.9502
."	-10.9502
.쎀쎅	-10.9506
,ta❁6쎯们	-10.9508
chi❃33쎯lun❂28쎯	-10.9509
bu❂0쎯dan❄10쎯	-10.9512
yu❄105쎯	-10.9514
zou❁8쎯	-10.9515
xiao❁61쎯shou❄5쎯、	-10.9515
shi❂10쎯yue❄29쎯	-10.952
fa❃2쎯shi❁11쎯	-10.9521
ji❂114쎯di❂41쎯	-10.9522
bing❁2쎯qi❄20쎯	-10.9523
.nan❂6쎯chao❂6쎯	-10.9527
miao❃	-10.9527
jian❄29쎯zhi❄30쎯	-10.9527
wa❁20쎯	-10.9529
han❄33쎯zu❂9쎯,쎁쎉쎆	-10.9531
zhe❄14쎯lei❄16쎯	-10.9532
zai❁0쎯	-10.9534
xu❄68쎯	-10.9534
쎁쎆쎀쎀	-10.9536
jin❁33쎯yin❂44쎯	-10.9538
xi❁143쎯han❄33쎯	-10.9539
nian❂6쎯jian❁85쎯,	-10.9542
ju❁14쎯wei❁12쎯	-10.9543
chu❁3쎯hang❂16쎯	-10.9543
쎁쎀쎁	-10.9543
jian❄17쎯quan❂6쎯	-10.9545
w	-10.9547
zong❃5쎯gong❁17쎯	-10.9548
bian❄16쎯yu❂35쎯	-10.9551
shui❃0쎯yu❄31쎯	-10.9551
yao❂51쎯	-10.9553
yi❃10쎯ci❃2쎯	-10.9553
쎁쎉쎉쎁	-10.9556
xiang❁9쎯bi❃20쎯	-10.9557
sui❃6쎯	-10.956
“wu❃9쎯	-10.9561
e❂13쎯	-10.9561
shu❄26쎯zhi❂7쎯	-10.9562
qing❁20쎯shan❁11쎯	-10.9562
bu❄34쎯	-10.9562
yi❄109쎯cha❁3쎯.	-10.9563
dan❄33쎯shui❃0쎯	-10.9563
ti❂30쎯	-10.9564
jiao❃52쎯	-10.9564
dang❃2쎯zheng❄12쎯	-10.9564
,jin❄60쎯	-10.9571
dan❄38쎯tou❂4쎯	-10.9572
shi❂39쎯yan❂49쎯	-10.9574
un❁1쎯min❂22쎯xiao	-10.9577
si❄21쎯yuan❄18쎯	-10.9577
ji❁54쎯qing❂6쎯	-10.9578
xia❂39쎯쎁gan❄3쎯c	-10.9578
zhang❁10쎯	-10.9578
fu❂94쎯yao❁17쎯	-10.9582
hui❄27쎯you❃11쎯	-10.9583
guo❄2쎯min❃13쎯	-10.9588
jing❃13쎯se❄29쎯	-10.9588
geng❁6쎯da❄0쎯	-10.959
ya❁22쎯	-10.9591
xin❁7쎯zhong❁4쎯	-10.9593
ren❂1쎯kou❃1쎯쎅	-10.9595
.쎁쎉쎈쎄nian❂6쎯	-10.9597
zhang❃6쎯da❄0쎯	-10.9598
ren❂1쎯zao❄16쎯	-10.9601
tian❁5쎯,	-10.9601
suo❃11쎯yong❄3쎯	-10.9602
bu❃11쎯chang❂6쎯	-10.9604
chen❂41쎯lie❄20쎯	-10.9604
wan❂5쎯yi❄190쎯	-10.9606
qu❄11쎯wei❄18쎯	-10.9606
dao❄3쎯de❅1쎯	-10.9608
shao❂9쎯	-10.9609
쎂쎀쎁쎃	-10.961
kan❃7쎯	-10.9611
mo❂9쎯tuo❁6쎯	-10.9614
yi❁10쎯dan❄27쎯	-10.9614
e❂27쎯	-10.9615
que❄26쎯	-10.9618
wei❁13쎯xie❂37쎯	-10.9618
쎅mu❃2쎯	-10.9621
ren❂4쎯ming❄1쎯	-10.9622
bang❄6쎯	-10.9622
qian❂8쎯duan❁4쎯	-10.9622
shi❁33쎯wen❂5쎯	-10.9623
wen❂12쎯shi❄99쎯	-10.9629
shu❁23쎯	-10.9629
,쎁	-10.9631
gu❁4쎯	-10.9635
zhang❄19쎯	-10.9638
ju❄18쎯chang❃4쎯	-10.9639
you❃11쎯li❄58쎯	-10.964
han❄33쎯dai❄9쎯	-10.9641
shu❂7쎯yu❃44쎯,	-10.9642
11쎯wen❂5쎯wu❄36쎯	-10.9643
”bian❄19쎯	-10.9643
fa❁1쎯guang❁2쎯	-10.9646
쎅ke❄6쎯,	-10.9646
sha❁14쎯tang❂28쎯	-10.9646
xing❁7쎯xi❄46쎯	-10.9647
chang❂15쎯zhou❁9쎯	-10.9648
쎁쎀쎀mi❃19쎯	-10.9649
ya❄7쎯chong❂11쎯	-10.9649
ye❃1쎯neng❂2쎯	-10.9651
mei❂18쎯hua❁11쎯	-10.9651
qi❄56쎯jin❁10쎯	-10.9654
ji❂35쎯wei❄14쎯	-10.9657
huo❄50쎯sheng❃9쎯	-10.9658
chu❁3쎯dao❄24쎯	-10.9659
rong❂25쎯	-10.966
cheng❂30쎯nuo❄16쎯	-10.9661
qian❁39쎯ding❄15쎯	-10.9661
dan❁9쎯chun❂18쎯	-10.9663
cang❁0쎯ku❄6쎯	-10.9666
jiu❃12쎯ba❁11쎯	-10.9668
쎆ren❂1쎯	-10.9669
ding❄2쎯wei❄14쎯	-10.967
lei❄16쎯、	-10.9673
zi❄	-10.9673
bei❃2쎯wei❄62쎯	-10.9676
che❄24쎯xiao❁61쎯	-10.9676
cao❃5쎯de❅0쎯	-10.9677
shi❄32쎯xin❁10쎯	-10.9679
qi❁19쎯	-10.968
du❂34쎯wu❄36쎯	-10.9681
pin❃0쎯.	-10.9683
se❄29쎯,	-10.9686
yi❂31쎯xing❄8쎯	-10.9686
qi❃25쎯zhi❄104쎯	-10.9692
yue❁1쎯쎄	-10.9696
ba❂19쎯	-10.9698
xia❂39쎯cun❁1쎯	-10.97
jing❁3쎯dou❁12쎯	-10.97
wan❃13쎯	-10.9701
juan❄9쎯	-10.9704
◆	-10.9704
fa❃2쎯.	-10.9705
5쎯、	-10.9706
ge❄3쎯zi❄16쎯	-10.9706
쎁yue❄29쎯쎁ri❄2쎯	-10.9713
bi❃24쎯ming❂7쎯	-10.9717
yi❁10쎯bian❁16쎯	-10.9717
quan❂6쎯min❂22쎯	-10.9719
jie❂69쎯yue❁1쎯	-10.9719
zui❄4쎯jiang❄9쎯	-10.972
shu❁8쎯》	-10.972
yi❁10쎯hao❂6쎯	-10.9722
18쎯wu❄12쎯suo❃11쎯	-10.9724
chuang❃7쎯	-10.9724
sheng❁16쎯chou❁5쎯	-10.9724
xian❃24쎯de❂7쎯	-10.9724
shou❄4쎯shang❁2쎯	-10.9725
shen❃7쎯cha❂17쎯	-10.9726
jun❁4쎯zi❃7쎯	-10.9726
wu❄36쎯.	-10.9727
,an❄14쎯	-10.973
huo❂3쎯xie❃8쎯	-10.9734
6쎯、	-10.9734
zhi❄47쎯·	-10.9736
ren❂1쎯ge❂29쎯	-10.9738
ming❂7쎯lie❄20쎯	-10.9741
ge❃0쎯zuo❄5쎯,	-10.9743
mo❄16쎯li❃26쎯	-10.9745
zheng❁22쎯cha❁3쎯	-10.9745
qian❂8쎯ji❁47쎯	-10.9745
bao❂9쎯mo❂16쎯	-10.9746
,jian❄29쎯zhu❂18쎯	-10.9746
wu❃9쎯bai❃9쎯	-10.9747
que❄11쎯shi❄45쎯	-10.9749
,jun❁6쎯	-10.975
san❁1쎯bai❃9쎯	-10.975
xiu❄4쎯	-10.975
ren❂1쎯cheng❁28쎯	-10.9751
쎅mi❃19쎯	-10.9752
she❄8쎯xian❄47쎯	-10.9754
《》	-10.9754
dou❃9쎯	-10.9755
,sui❂9쎯zhao❁6쎯	-10.9755
qi❂57쎯	-10.9756
shi❄84쎯shi❄15쎯	-10.9756
si❁24쎯ji❁34쎯	-10.9757
zhong❃0쎯	-10.9759
qi❂51쎯	-10.9762
lu❄70쎯mian❄2쎯	-10.9763
52쎯	-10.9764
ci❂20쎯qi❄20쎯	-10.9765
zhi❂25쎯da❂30쎯	-10.9767
shan❁4쎯chu❂42쎯	-10.9767
wan❄11쎯	-10.9768
—쎂쎀쎀	-10.9768
ying❁17쎯dang❁4쎯	-10.9768
zhi❁16쎯xu❁37쎯	-10.977
,sheng❁16쎯yu❂35쎯	-10.9772
tian❁5쎯cai❂2쎯	-10.9775
gua❄3쎯pai❂4쎯	-10.9776
lv❄11쎯hua❁1쎯	-10.9777
ben❄	-10.9779
,duo❁5쎯ci❄16쎯	-10.978
.jiang❁5쎯	-10.978
fan❄15쎯zhi❃19쎯	-10.9783
(qi❂29쎯zhong❁4쎯	-10.9784
de❅2쎯lao❃17쎯	-10.9785
fa❃2쎯lan❂13쎯	-10.9787
wu❃9쎯”	-10.9788
ル	-10.9789
li❄134쎯	-10.9792
gu❄12쎯shi❄18쎯,	-10.9793
wu❄14쎯	-10.9794
,ji❂114쎯	-10.9796
zhen❄30쎯xi❁143쎯	-10.98
lun❂5쎯li❃15쎯	-10.9801
yi❃10쎯ren❂1쎯	-10.9806
de❅0쎯wei❄15쎯.	-10.9807
pin❃0쎯wei❄15쎯	-10.9812
bu❂0쎯jian❄62쎯	-10.9814
fen❁4쎯bian❄38쎯	-10.9814
jing❁27쎯fei❄37쎯	-10.9817
bai❃9쎯du❄8쎯	-10.9818
xiang❄6쎯qian❂8쎯	-10.9818
yi❄10	-10.9819
si❄15쎯、	-10.9821
jiao❄18쎯she❄23쎯	-10.9821
quan❂12쎯de❅2쎯	-10.9821
mian❄2쎯ji❁64쎯쎁쎁	-10.9821
쎂nian❂6쎯	-10.9822
shuo❁2쎯hua❄26쎯	-10.9823
si❄15쎯zhou❁9쎯	-10.9826
wai❄0쎯biao❃5쎯	-10.9827
mo❄30쎯duan❁4쎯	-10.983
bao❃27쎯	-10.983
e❂11쎯yu❃44쎯	-10.9831
te❄5쎯ji❂83쎯	-10.9833
zai❄5쎯qi❂29쎯	-10.9833
yin❁44쎯xiang❃5쎯	-10.9835
cheng❁28쎯hu❁17쎯	-10.9835
zhao❂쎯you❃11쎯	-10.9838
bu❄38쎯han❄20쎯	-10.9839
ji❂114쎯《	-10.9839
zhuang❄0쎯da❄0쎯	-10.9839
di❂24쎯	-10.9843
wei❁17쎯ji❁48쎯	-10.9843
)deng❃2쎯	-10.9844
,zui❄4쎯da❄0쎯	-10.9844
yi❁10쎯fu❂36쎯	-10.9846
min❂22쎯yin❂10쎯	-10.9847
bing❁4쎯xiang❁11쎯	-10.9849
wei❂38쎯ai❁5쎯	-10.9849
,shi❃6쎯de❂7쎯	-10.9852
zhe❄14쎯wei❄15쎯	-10.9853
ban❁12쎯ji❂83쎯	-10.9853
jiu❄30쎯zhi❃13쎯	-10.9853
jie❁18쎯	-10.9854
kan❁4쎯	-10.9855
쎁쎉쎁	-10.9859
,hu❂32쎯nan❂6쎯	-10.9862
tian❂16쎯jing❄17쎯	-10.9864
zun❁2쎯chong❂17쎯	-10.9864
fang❁4쎯mian❄2쎯,	-10.9864
dong❁3쎯jing❁27쎯쎁	-10.9865
shen❃7쎯mei❃13쎯	-10.9866
ji❂57쎯gao❁20쎯	-10.9867
mou❂11쎯	-10.9868
dai❁0쎯	-10.9868
jin❄61쎯hua❁1쎯	-10.9868
dao❃5쎯xiang❄6쎯	-10.9869
jie❄15쎯zhu❄20쎯	-10.9871
dao❄24쎯,	-10.9872
wan❂6쎯bei❄26쎯	-10.9872
gai❁13쎯shu❁8쎯	-10.9873
nan❂6쎯ce❄8쎯	-10.9874
er❄5쎯ji❁47쎯	-10.9875
.쎂쎀쎀쎁nian❂6쎯	-10.9875
you❃11쎯se❄29쎯	-10.9875
tao❂5쎯hua❁11쎯	-10.9877
shi❃6쎯qi❂29쎯	-10.9878
fen❂14쎯	-10.9881
xin❄8쎯ren❂4쎯	-10.9882
hai❁6쎯sou❄0쎯	-10.9883
.쎂쎀쎁쎃nian❂6쎯	-10.9885
huai❂8쎯nan❂6쎯	-10.9885
chu❁3쎯guo❁26쎯	-10.9887
lian❂53쎯yi❄217쎯	-10.9889
sun❃4쎯hai❄8쎯	-10.9889
fan❂26쎯nao❃11쎯	-10.9891
guan❁16쎯kan❁9쎯	-10.9894
xin❁10쎯sheng❁16쎯	-10.9897
yi❄	-10.9899
zhi❁13쎯de❅0쎯	-10.9901
쎀li❂32쎯mi❃19쎯,	-10.9902
shou❁1쎯ru❄2쎯쎂	-10.9904
le❅0쎯ta❁3쎯	-10.9909
쎀쎀ping❂17쎯	-10.991
yue❄29쎯쎃쎁ri❄2쎯	-10.9912
de❅0쎯,	-10.9914
쎀쎀mu❃2쎯	-10.9916
lei❂30쎯da❂30쎯	-10.9921
wo❄12쎯	-10.9921
lian❃7쎯	-10.9923
hu❁17쎯han❄20쎯	-10.9925
ban❃2쎯	-10.9925
jun❄41쎯	-10.9927
zuo❄7쎯fa❃2쎯	-10.9927
gen❁1쎯zong❁31쎯	-10.9928
ren❂1쎯们de❅2쎯	-10.9928
xing❁7쎯ji❁47쎯	-10.9929
liang❂19쎯han❄20쎯	-10.993
men❂19쎯zhen❃27쎯	-10.9931
ji❁48쎯ben❄4쎯	-10.9931
zhou❁9쎯qu❁15쎯	-10.9932
peng❄2쎯	-10.9932
e❂11쎯guo❂11쎯	-10.9933
tong❂1	-10.9933
ju❂23쎯zhang❃6쎯.	-10.9936
yan❁33쎯cao❃5쎯	-10.9936
shui❃0쎯shang❃1쎯	-10.9938
쎅mu❃2쎯,	-10.9939
xi❄46쎯tong❃9쎯.	-10.9941
jue❂109쎯	-10.9942
chu❁3쎯zu❁0쎯	-10.9943
qian❂40쎯bi❄51쎯	-10.9943
fang❁4쎯an❄16쎯.	-10.9945
쎁쎃쎃	-10.9946
ke❄14쎯zuo❄12쎯	-10.9946
zhan❄17쎯dian❃11쎯	-10.9948
gu❃14쎯ren❂1쎯	-10.9948
,,,	-10.9948
쎁쎅gong❁10쎯li❃26쎯	-10.9951
-쎀쎁	-10.9951
,shi❃9쎯jian❄29쎯	-10.9952
si❄38쎯	-10.9953
fu❄74쎯jia❁7쎯	-10.9955
chang❃4쎯suo❃11쎯.	-10.9956
ren❂4쎯wu❄12쎯.	-10.9957
lian❄8쎯ai❄26쎯	-10.9958
“da❄0쎯	-10.9959
chu❂15쎯fang❂2쎯	-10.9961
mian❃1	-10.9963
lie❄45쎯pian❁5쎯	-10.9965
ji❁116쎯rou❄1쎯	-10.9965
de❅0쎯wei❁12쎯	-10.9965
쎁쎀쎄	-10.9966
chu❃3쎯bei❄26쎯	-10.9967
lv❄15쎯da❂30쎯	-10.9967
xie❄43쎯	-10.9967
zhuo❁	-10.9968
sheng❁16쎯ri❄2쎯	-10.9968
cu❄10쎯nian❂6쎯	-10.9971
shang❃1쎯fang❁4쎯	-10.9971
jia❁7쎯gong❁17쎯、	-10.9972
ning❂6쎯ju❄57쎯	-10.9973
,yi❃10쎯“	-10.9974
qiu❂	-10.9975
zhi❄88쎯jin❁10쎯,	-10.9975
zong❃5쎯e❂39쎯	-10.9978
gui❁35쎯hua❂11쎯、	-10.9981
hai❃1쎯ba❂11쎯쎁,	-10.9982
()han❄20쎯	-10.9982
zhen❁52쎯jiu❃8쎯	-10.9983
qing❁10쎯mo❄30쎯	-10.9984
mu❄15쎯qi❂117쎯	-10.9988
fen❁4쎯lei❄16쎯:	-10.9988
fu❄74쎯dai❄15쎯	-10.9989
shi❁11쎯cong❂6쎯	-10.9992
쎅yue❄29쎯,	-10.9992
wei❁13쎯lian❂30쎯·	-10.9997
tou❂5쎯chan❃12쎯	-10.9998
wan❂5쎯na❄11쎯	-10.9999
shan❁11쎯gu❃52쎯	-10.9999
ting❂	-11
yi❁13쎯bao❃9쎯	-11.0002
쎈쎀쎂.쎃	-11.0003
yue❄21쎯yang❂35쎯	-11.0004
-(	-11.0004
.ling❄0쎯wai❄0쎯,	-11.0008
liao❂	-11.0008
wu❄36쎯,	-11.001
pang❂6쎯da❄0쎯	-11.0011
li❄144쎯zi❃7쎯	-11.0011
yan❃42쎯ke❁16쎯	-11.0013
da❂14쎯po❄17쎯	-11.0015
de❅2쎯er❂7쎯zi❃7쎯	-11.0015
hui❁15쎯	-11.0015
san❃7쎯re❄1쎯	-11.0015
lang❂18쎯	-11.0024
guan❃15쎯.	-11.0026
쎁쎉쎉쎈	-11.0026
zha❂7쎯	-11.0027
bo❂54쎯hai❃1쎯	-11.0029
xian❁18쎯tian❁5쎯	-11.0031
li❄108쎯	-11.0031
jia❁8쎯ding❄2쎯	-11.0032
er❄5쎯jie❄19쎯	-11.0033
jia❁7쎯shui❃0쎯	-11.0034
쎁쎅쎀ke❄6쎯	-11.0035
deng❄8쎯xiao❃2쎯	-11.0035
bei❁15쎯hou❄7쎯	-11.0038
qiu❁9쎯、	-11.0038
cang❂5쎯zu❂9쎯	-11.0038
lu❄83쎯xu❄69쎯	-11.004
jie❃6쎯xi❁87쎯	-11.004
zhuan❃4쎯xiang❄6쎯	-11.0042
쎁쎂쎃	-11.0044
.쎀쎂	-11.0045
fa❃2쎯ding❄2쎯	-11.0054
ni❄24쎯	-11.0056
an❁13쎯yang❂35쎯	-11.0058
deng❁10쎯lu❄83쎯	-11.0058
(쎁쎉	-11.0059
da❄0쎯gang❁23쎯	-11.006
zheng❄12쎯qu❁15쎯	-11.0061
guang❁2쎯pu❃13쎯	-11.0061
xin❄8쎯fang❃18쎯	-11.0062
zhi❄5	-11.0063
e❂16쎯	-11.0066
gong❁10쎯jin❁17쎯,	-11.007
ou❃11쎯	-11.007
hui❃5쎯	-11.0074
shi❄79쎯	-11.0074
lu❃27쎯xun❄28쎯	-11.0076
gong❄3쎯qing❁20쎯	-11.008
jiao❁8쎯wang❃7쎯	-11.0084
fen❁4쎯cheng❂29쎯	-11.0086
gu❄21쎯	-11.0086
gu❄12쎯xiang❁1쎯	-11.0087
biao❁14쎯ben❃5쎯	-11.009
ma❂8쎯zui❄15쎯	-11.0092
쎁:	-11.0093
jun❁24쎯	-11.01
gong❁10쎯fen❁4쎯	-11.0101
,jian❁17쎯chi❂20쎯	-11.0101
shang❃1쎯wu❃15쎯	-11.0101
쎁쎀쎉	-11.0102
ka❃1쎯pian❁5쎯	-11.0104
fu❄23쎯fu❄23쎯	-11.0106
yuan❂34쎯zi❄16쎯	-11.0107
.tong❁5쎯guo❄2쎯	-11.0108
쎁쎁gan❄3쎯	-11.0109
jiao❄35쎯xiao❃2쎯	-11.011
du❂25쎯dao❄3쎯	-11.0112
,sui❁12쎯ran❂12쎯	-11.0112
jing❃13쎯de❂9쎯	-11.0114
쎃쎀nian❂6쎯	-11.0117
ju❂23쎯dang❃2쎯	-11.0118
jiao❃46쎯	-11.0119
chou❂44쎯	-11.0119
heng❂7쎯xing❁7쎯	-11.012
ping❂17쎯gu❃28쎯	-11.0121
ji❁47쎯dai❁1쎯	-11.0123
ren❂1쎯wei❄14쎯	-11.0126
an❃11쎯	-11.0127
ge❃0쎯li❃15쎯de❅2쎯	-11.0127
❂10쎯xi❁143쎯ya❄7쎯	-11.0128
shi❄20쎯lang❂28쎯	-11.0128
hao❂6쎯,	-11.0129
shou❁1쎯suo❁15쎯	-11.0129
ming❂8쎯liang❄2쎯	-11.013
xiao❃2쎯yu❂35쎯	-11.013
xiao❃2쎯kuai❄14쎯	-11.013
na❄11쎯rong❂21쎯.	-11.013
dan❄38쎯ke❄7쎯	-11.0132
ci❁2쎯shi❃8쎯	-11.0133
,da❄0쎯zhuan❁1쎯	-11.0133
shun❄7쎯jian❁85쎯	-11.0134
xiao❃2쎯shuo❁2쎯,	-11.0135
.쎁쎉쎈쎅nian❂6쎯	-11.0139
guan❃15쎯cang❂5쎯	-11.014
bao❄10쎯》、《	-11.0141
yi❁13쎯yuan❄18쎯、	-11.0141
tan❁9쎯	-11.0143
mian❄2쎯ji❁64쎯쎁쎃	-11.0144
pu❃3쎯cha❂17쎯	-11.0146
yi❁10쎯tong❂13쎯	-11.0149
xue❂6쎯shuo❁2쎯	-11.015
pa❂3쎯	-11.015
jiao❄35쎯di❁9쎯	-11.0152
jia❁7쎯da❄0쎯	-11.0152
tu❁14쎯qi❃34쎯	-11.0152
wen❂5쎯shi❃8쎯	-11.0157
sui❄16쎯yue❄29쎯	-11.0159
bing❁2쎯qiu❂19쎯	-11.0161
yong❄3쎯yi❃10쎯	-11.0162
te❄5쎯dian❃11쎯.	-11.0162
쎂.쎁	-11.0166
,fen❁4쎯	-11.0169
(쎁쎀	-11.0169
yang❂17쎯zi❃7쎯	-11.017
zhi❂20쎯zhu❁8쎯	-11.017
mo❄16쎯nian❂6쎯	-11.0171
쎀쎄-	-11.0173
wu❄36쎯de❅2쎯	-11.0175
li❄141쎯fa❃2쎯	-11.0175
jian❁17쎯shi❂13쎯	-11.0176
er❂16쎯chu❁3쎯	-11.0177
cheng❂17쎯bei❃2쎯	-11.0184
(-	-11.0185
hai❂6쎯zi❃7쎯们	-11.0186
ye❃1쎯xu❃19쎯	-11.0187
que❄26쎯li❄141쎯	-11.0187
qi❃34쎯cao❃5쎯	-11.0187
hui❄79쎯zhi❄30쎯	-11.0189
,ren❂1쎯们	-11.0192
si❄26쎯	-11.0192
zhuo❂28쎯	-11.0193
tu❂14쎯wen❂5쎯	-11.0194
mian❄2쎯mao❄37쎯	-11.0195
쎀.쎀쎀	-11.0197
イ	-11.0198
xi❁97쎯xian❄22쎯	-11.0198
bu❂0쎯gan❃8쎯	-11.0198
❂4쎯	-11.0201
teng❂7쎯	-11.0203
,쎂쎀쎀쎄nian❂6쎯	-11.0208
jie❁15쎯shi❄60쎯	-11.0209
쎁쎃쎅	-11.0209
,bang❁5쎯zhu❄20쎯	-11.0209
qu❁42쎯	-11.0212
ス	-11.0214
쎁zhi❁16쎯	-11.0215
gong❁10쎯shi❄33쎯	-11.0217
can❁3쎯sai❄4쎯	-11.0217
shan❄22쎯	-11.0217
쎉yue❄29쎯,	-11.0217
xin❁7쎯qing❂6쎯	-11.0219
zhan❁4쎯ju❁18쎯	-11.0222
cui❄26쎯	-11.0222
ben❄4쎯hui❄27쎯	-11.0223
zheng❁15쎯shou❁1쎯	-11.0223
can❁3쎯jian❄62쎯	-11.0224
chang❂15쎯lv❄20쎯	-11.0224
(qu❄6쎯	-11.0225
shi❄99쎯)	-11.0226
chang❃4쎯ge❃0쎯	-11.0231
hua❄26쎯ju❄18쎯	-11.0232
yong❃2	-11.0233
zhong❁4쎯hai❃1쎯	-11.0235
deng❃2쎯dai❁1쎯	-11.0236
tong❁5쎯wang❃7쎯	-11.0241
fang❁4쎯bian❄16쎯,	-11.0242
ping❁0쎯pang❁2쎯	-11.0244
xi❁114쎯	-11.0244
rou❂6쎯ruan❃17쎯	-11.0247
hui❄27쎯zhang❃6쎯,	-11.0248
lv❄15쎯wei❄14쎯	-11.0249
dang❁4쎯gui❁12쎯	-11.0258
gang❃6쎯ao❄25쎯	-11.0259
tao❁	-11.0259
xiao❁29쎯du❂17쎯	-11.026
mou❃2쎯gan❄3쎯	-11.0265
de❅1쎯,	-11.0267
fen❁4쎯zhong❁29쎯,	-11.0269
nong❂17쎯	-11.0269
tai❄9쎯shan❁11쎯	-11.027
쎂.쎃	-11.0271
zao❃2쎯zai❄5쎯	-11.0272
yan❄19쎯	-11.0272
jun❁6쎯heng❂14쎯	-11.0274
qu❃	-11.0274
ce❄26쎯hua❂11쎯、	-11.0274
yi❁10쎯qian❁13쎯	-11.0277
dui❄14쎯kang❄5쎯	-11.0279
bian❁13쎯ru❄2쎯	-11.0279
pin❁3쎯yin❁44쎯	-11.028
qiang❁22쎯	-11.028
zuo❄7쎯cheng❂29쎯	-11.0282
qiu❁16쎯ji❄46쎯	-11.0282
deng❃2쎯jiang❃8쎯;	-11.0284
chang❃4쎯、	-11.0286
,quan❂6쎯mian❄2쎯	-11.0286
shui❃0쎯dao❄14쎯、	-11.0287
que❁0쎯xian❄63쎯	-11.0288
su❄55쎯	-11.0291
fen❁4쎯hang❂16쎯	-11.0294
ge❄	-11.0296
:chu❁3쎯chang❃4쎯쎀	-11.0298
:쎀.	-11.0303
wu❂17쎯suo❃11쎯	-11.0303
sheng❁16쎯si❃0쎯	-11.0303
쎇ren❂1쎯,	-11.0304
ba❁27쎯	-11.031
.쎁쎉쎉쎇nian❂6쎯	-11.0311
ban❄10쎯	-11.0312
15쎯tou❂4쎯ren❂1쎯	-11.0312
쎁쎀yue❄29쎯,	-11.0313
shen❃7쎯pi❁11쎯	-11.0315
zi❁11쎯xun❂42쎯、	-11.0316
zhang❁9쎯	-11.0317
(er❄5쎯)	-11.0318
chong❁9쎯zu❂11쎯	-11.0319
ti❂17쎯ming❂7쎯	-11.0321
guo❃3쎯shu❄28쎯	-11.0322
an❁13쎯zhi❄85쎯	-11.0322
juan❁	-11.0325
ji❂57쎯da❄0쎯	-11.0326
,yao❁17쎯	-11.0326
rou❂6쎯mao❂11쎯	-11.0327
쎁쎀ke❄6쎯,	-11.0327
de❅0쎯biao❃5쎯	-11.0327
ju❄39쎯jue❂92쎯	-11.0329
л	-11.033
quan❂6쎯zhang❃6쎯	-11.033
쎁쎁쎅	-11.0331
zheng❁7쎯yi❄214쎯	-11.0331
geng❁17쎯de❅0쎯쎀.	-11.0332
hai❃1쎯dian❄19쎯	-11.0332
ping❂17쎯fan❂14쎯	-11.0333
ban❄5쎯nian❂6쎯	-11.0334
wei❁17쎯mi❃19쎯	-11.0335
jia❁8쎯qing❄4쎯	-11.0336
xuan❂11쎯lv❄9쎯	-11.0336
ji❁48쎯deng❃2쎯	-11.0338
mi❃19쎯de❅2쎯	-11.0338
hui❂1쎯jia❁13쎯	-11.0343
,gu❄12쎯ming❂7쎯	-11.0343
bo❁21쎯	-11.0344
xi❂9쎯xing❄13쎯	-11.035
li❄141쎯fang❁4쎯	-11.035
zui❄4쎯zhang❃6쎯	-11.035
qiu❁9쎯wu❄12쎯.	-11.0352
,kuo❄15쎯ge❃0쎯	-11.0352
shi❁13쎯hang❂16쎯	-11.0356
cheng❂29쎯re❄1쎯	-11.0358
jin❃29쎯	-11.036
shi❄32쎯nan❂6쎯	-11.0361
da❄0쎯zhi❄89쎯	-11.0363
쎀쎅-	-11.0363
쎂쎀-	-11.0363
er❂16쎯ding❄2쎯	-11.0365
shi❂13쎯xun❄25쎯	-11.0365
nai❃2쎯you❂24쎯	-11.0366
,dong❁3쎯lin❂7쎯	-11.0366
shui❃0쎯zhun❃0쎯	-11.0371
、zui❄4쎯	-11.0372
bu❄28쎯bing❁2쎯	-11.0373
,쎂쎀쎀쎆nian❂6쎯	-11.0373
ren❂1쎯cai❂2쎯.	-11.0374
、guo❂11쎯jia❁13쎯	-11.0374
.쎁쎉쎉쎈nian❂6쎯	-11.0375
cun❁1쎯ren❂1쎯	-11.0376
fu❁13쎯qi❁15쎯	-11.0377
fang❂2쎯xing❂9쎯	-11.0378
chuan❃1쎯	-11.0379
duan❄20쎯	-11.038
yi❄215쎯ming❂7쎯	-11.038
ju❄74쎯chi❃33쎯	-11.0381
qi❃25쎯,	-11.0384
guo❄2쎯du❄12쎯	-11.0386
.ta❁3쎯de❅2쎯	-11.0387
yu❁	-11.0391
,yong❄3쎯yu❂35쎯	-11.0391
wu❂17쎯qiong❂28쎯	-11.0391
gan❁20쎯	-11.0392
hai❃1쎯ba❂11쎯쎂	-11.0393
jian❃18쎯fei❂1쎯	-11.0393
zeng❁2쎯chan❃12쎯	-11.0396
de❅1쎯yun❄14쎯	-11.0397
chao❃7쎯)	-11.0397
mu❄15쎯zhi❄104쎯	-11.0397
fu❃20쎯	-11.0397
xian❄22쎯jing❄11쎯	-11.0398
,zhi❂25쎯dao❄3쎯	-11.0399
jing❄48쎯dian❄23쎯	-11.04
xian❄37쎯chu❁3쎯	-11.0402
shan❁11쎯lin❂19쎯	-11.0403
jia❁13쎯xie❂14쎯	-11.0406
yao❁19쎯	-11.0408
wai❄0쎯lai❂16쎯	-11.0408
chui❂10쎯	-11.0412
u❁0쎯	-11.0413
❄0쎯	-11.0417
ran❂13쎯qi❃25쎯	-11.0418
shou❂쎯lian❄22쎯	-11.0418
zhai❄2쎯wu❄12쎯	-11.0422
leng❃쎯dong❄11쎯	-11.0422
jun❁2쎯jiao❄18쎯	-11.0422
ju❄65쎯xian❄22쎯	-11.0423
쎅li❂32쎯mi❃19쎯	-11.0424
shi❄15쎯jian❁85쎯	-11.0426
jie❂63쎯	-11.0427
zhu❁17쎯hai❃1쎯	-11.043
jiu❃3쎯jiu❃3쎯	-11.0431
wen❁6쎯han❄20쎯	-11.0431
bu❂0쎯ming❂8쎯	-11.0432
guo❄2쎯cheng❂52쎯.	-11.0433
jiao❃22쎯	-11.0433
you❄13쎯yi❁10쎯	-11.0433
kan❃7쎯ru❄2쎯	-11.0434
yi❁10쎯men❂19쎯	-11.0438
ru❂9쎯xia❄3쎯	-11.0438
쎁liang❃5쎯,	-11.0439
,쎂쎀쎀쎃nian❂6쎯	-11.0444
yan❃42쎯jing❄44쎯	-11.0451
sai❁13쎯	-11.0452
bai❃9쎯ge❃0쎯	-11.0454
lu❄70쎯you❂29쎯	-11.0456
qiao❄8쎯	-11.0458
.zong❃5쎯	-11.0462
,bi❃20쎯	-11.0462
yuan❂12쎯chan❃12쎯	-11.0463
wei❄40쎯	-11.0464
ji❂83쎯chong❂17쎯	-11.0466
zhuan❄9쎯	-11.0466
o❁1쎯	-11.0466
bao❄10쎯she❄22쎯	-11.0469
shen❁40쎯gao❁20쎯:	-11.047
、zhe❄9쎯jiang❁10쎯	-11.0473
wei❄14쎯ci❃2쎯	-11.0473
zheng❃4쎯qi❂117쎯	-11.0475
bang❃5쎯	-11.0476
dong❁5쎯gua❁16쎯	-11.0476
ming❂7쎯cheng❂17쎯	-11.0479
feng❁58쎯ge❂29쎯,	-11.0482
zhi❄68쎯	-11.0483
xu❁37쎯qiu❂27쎯.	-11.0484
bo❁10쎯chong❂11쎯	-11.0485
wei❄16쎯yu❄54쎯	-11.0486
men❄7쎯	-11.0486
qian❁13쎯wa❃5쎯	-11.0486
.ke❃4쎯	-11.0488
gong❁10쎯ping❂17쎯	-11.049
tui❁1쎯hang❂16쎯	-11.0493
fu❂23쎯	-11.0497
zhong❁4쎯xue❂6쎯,	-11.0498
ri❄2쎯ji❁47쎯:쎂쎀쎀	-11.0503
feng❁58쎯shui❃0쎯	-11.0508
zhang❃6쎯;	-11.051
bu❃7쎯ru❃0쎯	-11.0512
zheng❄11쎯	-11.0513
qin❂12쎯ben❃3쎯	-11.0514
suo❃11쎯de❂7쎯	-11.0515
lu❄35쎯zhi❄30쎯	-11.0515
bian❄19쎯hua❁1쎯,	-11.0516
ci❃2쎯shi❂20쎯	-11.0517
yu❄126쎯ji❄116쎯	-11.052
deng❃2쎯de❅0쎯,	-11.052
si❁23쎯	-11.052
jing❄19쎯qiu❁9쎯	-11.052
zhe❄14쎯ma❅1쎯	-11.0521
zhi❁13쎯.”	-11.0523
,ti❂17쎯gong❁9쎯	-11.0524
.쎂쎀쎁쎁nian❂6쎯	-11.0524
xie❃4쎯de❅2쎯	-11.0524
,zhi❃20쎯zai❄5쎯	-11.0526
shi❄45쎯wo❃3쎯	-11.0526
te❄5쎯zhang❃6쎯	-11.0526
er❃6쎯si❁24쎯	-11.0527
er❂16쎯guo❄2쎯	-11.0527
bu❂0쎯tong❂13쎯,	-11.0529
quan❂17쎯shui❃0쎯	-11.0529
쎁쎉쎂쎅nian❂6쎯	-11.0529
ai❄26쎯xin❁7쎯	-11.0533
tiao❂9쎯xing❂11쎯	-11.0534
mi	-11.0535
bi❃	-11.0537
jun❁2쎯guan❁6쎯	-11.0537
쎁쎉쎂쎈nian❂6쎯	-11.0539
kuo❄7쎯zhang❁4쎯	-11.0539
쎃.쎁	-11.0539
hen❃3쎯	-11.0539
,ta❁6쎯de❅2쎯	-11.0541
yi❄113쎯	-11.0543
bu❄23쎯la❁7쎯	-11.0545
qian❂8쎯jing❃13쎯	-11.0545
ran❂12쎯er❂16쎯	-11.0546
you❁9쎯ya❃9쎯	-11.0546
nv❃0쎯shen❂2쎯	-11.0548
,쎂쎀쎀쎅nian❂6쎯	-11.0548
,gei❃1쎯	-11.0548
rou❄1쎯zhi❄104쎯	-11.0554
duan❃0쎯ji❁47쎯	-11.0554
zhan❁4쎯ling❃2쎯	-11.0555
.ta❁6쎯de❅2쎯	-11.0556
xin❁10쎯cun❁1쎯	-11.0557
fu❂94쎯ke❃4쎯	-11.0558
cheng❂17쎯bao❃10쎯	-11.0563
yin❂44쎯hang❂16쎯、	-11.0563
xiao❃2쎯zu❃7쎯,	-11.0564
wang❃14쎯you❂25쎯	-11.0567
zhi❄85쎯qiu❁9쎯	-11.0568
yuan❄18쎯、	-11.0569
;zai❄5쎯	-11.057
jia❄5쎯gou❃2쎯	-11.0571
duo❁5쎯bu❄38쎯	-11.0571
zhan❄17쎯zai❄5쎯	-11.0572
fu❂94쎯neng❂2쎯	-11.0573
zhi❄85쎯yu❂35쎯	-11.0573
qiao❄14쎯	-11.0574
ju❄18쎯mu❄22쎯	-11.0577
shi❂13쎯wu❄36쎯	-11.058
ping❂17쎯shi❂20쎯	-11.0582
.쎁쎉쎈쎈nian❂6쎯	-11.0583
hou❄7쎯you❄13쎯	-11.0585
chai❂6쎯you❂24쎯	-11.0586
du❂25쎯zi❁45쎯	-11.0588
shi❃8쎯liao❄8쎯	-11.0593
-;	-11.0593
lin❂20쎯ba❁16쎯	-11.0598
か	-11.0598
xia❂1	-11.0599
kuang❄6쎯	-11.0599
hai❂6쎯zi❃7쎯de❅2쎯	-11.0599
shi❄31쎯.	-11.0601
,fen❁4쎯bu❄23쎯	-11.0601
ben❄4쎯,	-11.0602
dai❄13쎯	-11.0603
ji❁36쎯ji❄120쎯	-11.0604
쎁쎉쎂쎇nian❂6쎯	-11.0604
,zheng❁22쎯	-11.0607
ma❁0쎯	-11.0607
he❂70쎯	-11.0608
nan❂6쎯bian❁16쎯	-11.061
、nai❄5쎯	-11.0611
ji❂35쎯shi❂20쎯	-11.0612
de❅2쎯xian❄37쎯	-11.0614
ci❃2쎯ci❄16쎯	-11.0615
suan❄3쎯fa❃2쎯	-11.0616
bao❁4쎯guo❃11쎯	-11.0617
na❄20쎯shui❄11쎯	-11.0619
pang❂6쎯	-11.0619
chu❄17쎯、	-11.062
hong❂29쎯wu❃28쎯	-11.062
qian❄21쎯	-11.0624
de❂7쎯tian❁5쎯du	-11.0627
qiu❁9쎯de❅2쎯	-11.0627
쎇쎂쎀	-11.0629
ji❂114쎯zhen❄30쎯	-11.0631
zhong❁4쎯lu❄70쎯	-11.0633
san❁1쎯nian❂6쎯(	-11.0633
qiang❃2쎯jiu❄29쎯	-11.0639
shao❃2쎯lin❂19쎯	-11.0639
yi❄19	-11.064
wan❃16쎯	-11.0641
bian❁16쎯jing❄11쎯	-11.0642
kan❁3쎯wu❄36쎯shan	-11.0642
zi❃7쎯nv❃0쎯	-11.0643
gan❃6쎯dong❄13쎯	-11.0644
jiang❃19쎯shou❄9쎯	-11.0644
ban❄5쎯dao❃5쎯	-11.0646
bu❂0쎯deng❃2쎯	-11.0646
dai❄38쎯	-11.0648
bu❄38쎯shu❃12쎯	-11.0648
ba❁16쎯er❃6쎯	-11.0651
cai❁7쎯	-11.0651
long❂63쎯yan❂31쎯	-11.0651
쎅쎀ke❄6쎯,	-11.0652
hou❄7쎯mian❄2쎯	-11.0653
dai❄9쎯hao❂6쎯	-11.0653
huan❄18쎯xiang❃6쎯	-11.0654
sha❁4쎯ren❂1쎯	-11.0654
yin❃14쎯chong❂11쎯	-11.0655
ben❄4쎯.	-11.0657
xian❁13쎯ren❂1쎯	-11.0657
dou❁12쎯yao❁17쎯	-11.0658
.han❄33쎯	-11.0658
ao❁8쎯	-11.066
yi❄68쎯yuan❂10쎯	-11.066
yuan❂10쎯/	-11.066
zhang❃6쎯yue❁1쎯	-11.0662
ru❄2쎯qin❁5쎯	-11.0662
shan❁11쎯xiang❁1쎯	-11.0668
ming❂7쎯jiao❄6쎯	-11.0669
bai❃9쎯fen❁4쎯	-11.0669
da❄0쎯fang❁4쎯	-11.0672
,sui❂9쎯	-11.0673
─	-11.0673
.wo❃3쎯	-11.0675
、guo❂11쎯ji❄121쎯	-11.0676
gu❃14쎯zhen❄30쎯	-11.0683
jian❁25쎯ben❃5쎯:	-11.0688
、shang❁4쎯wu❄12쎯	-11.0689
ding❃11쎯jian❁22쎯	-11.069
《xin❁10쎯	-11.0691
bei❃2쎯bian❁16쎯	-11.0693
shan❁11쎯lu❄70쎯	-11.0694
qi❃25쎯wen❁6쎯쎁	-11.07
、ke❁16쎯yan❂50쎯	-11.0703
zhi❃22쎯tong❄3쎯	-11.0704
wen❂5쎯ben❄4쎯	-11.071
ba❁9쎯da❄0쎯	-11.0713
hen❃2쎯da❄0쎯de❅2쎯	-11.0719
hong❂44쎯he❂37쎯	-11.0721
tai❄15쎯	-11.0722
yi❁10쎯pian❁7쎯	-11.0723
chui❂16쎯	-11.0723
chu❄17쎯de❅2쎯	-11.0724
sha❁4쎯hai❄8쎯	-11.0724
yi❁13쎯yuan❄18쎯.	-11.073
nan❂20쎯du❄8쎯	-11.073
yi❁10쎯juan❃1쎯	-11.0731
bu❂0쎯yi❂31쎯	-11.0732
gou❁11쎯qi❃23쎯	-11.0732
fen❁17쎯fen❁17쎯	-11.0733
bi❄61쎯bei❄26쎯	-11.0733
jiu❁19쎯fen❁17쎯	-11.0733
jian❄17쎯pi❂22쎯	-11.0733
fu❂41쎯pin❂12쎯	-11.0736
yu❄105쎯wei❄14쎯“	-11.0737
zhu❄53쎯	-11.0737
de❅0쎯yu❄67쎯	-11.0737
pin❃0쎯pai❂4쎯,	-11.0737
mo❁쎯	-11.0738
se❄29쎯lie❄20쎯	-11.0739
bian❄	-11.0739
쎁.쎇	-11.0741
bao❃13쎯ji❁116쎯	-11.0743
wu❄36쎯liao❄8쎯	-11.0744
xiao❃2쎯zhen❄30쎯	-11.0745
xi❁5	-11.0747
jiao❁20쎯qu❁15쎯	-11.0748
chong❂17쎯li❄59쎯	-11.0748
qu❃1쎯ming❂7쎯	-11.075
wei❄15쎯.	-11.0752
tian❁5쎯men❂19쎯	-11.0752
xiu❁9쎯xi❁70쎯	-11.0753
zheng❁18쎯	-11.0756
yi❄119쎯dong❃6쎯	-11.0758
bei❄48쎯bu❃9쎯	-11.0758
wu❂17쎯ji❁48쎯	-11.0759
,쎁쎉쎈쎅nian❂6쎯	-11.0759
qi❃34쎯fu❂22쎯	-11.0759
song❃12쎯	-11.076
し	-11.0761
yi❄109쎯wei❄18쎯	-11.0761
쎂xiang❄24쎯	-11.0763
,bing❁6쎯yi❃10쎯	-11.0763
jian❁25쎯feng❁17쎯	-11.0764
wei❁17쎯bo❁11쎯	-11.0764
xia❄6쎯tian❁5쎯	-11.0764
yin❄7쎯du❄8쎯ni	-11.0764
,xi❁143쎯lin❂43쎯	-11.0766
cheng❂30쎯ren❄30쎯	-11.0767
tai❄3쎯wang❃14쎯	-11.0767
bing❃2쎯xi❁99쎯	-11.0767
ren❄30쎯zhi❁31쎯	-11.077
hei❁3쎯ke❄14쎯	-11.0772
duan❃0쎯,	-11.0772
re❄1쎯dian❃11쎯	-11.0773
yin❁29쎯	-11.0777
、qi❄34쎯che❁8쎯	-11.0778
long❂63쎯shan❁11쎯	-11.0779
tong❄3쎯ku❃1쎯	-11.078
bian❄19쎯dong❄13쎯	-11.0781
si❄17쎯jun❁2쎯	-11.0785
yan❂44쎯an❄13쎯	-11.0787
feng❁58쎯su❂0쎯	-11.0787
peng❁13쎯	-11.0789
ying❂4	-11.0791
ya❄7쎯tai❄3쎯	-11.0792
ha❁0쎯sa❄13쎯ke❄6쎯	-11.0794
쎂.쎆	-11.0794
ren❂1쎯;	-11.0795
mian❃12쎯	-11.0795
geng❁17쎯de❅0쎯쎁.	-11.0797
bang❄14쎯	-11.0799
shang❁2쎯han❂20쎯	-11.0801
ming❂	-11.0801
,sui❁12쎯	-11.0804
duo❂3쎯de❂7쎯	-11.0804
쎅쎀mi❃19쎯	-11.0804
zhen❄30쎯,	-11.0804
song❄4쎯·	-11.0804
ren❂1쎯jia❁13쎯	-11.0805
쎆쎀nian❂6쎯dai❄9쎯	-11.0806
.쎁쎉쎈쎃nian❂6쎯	-11.0808
mo❄30쎯,	-11.0809
si❄17쎯jie❄19쎯	-11.0809
zhong❁25쎯	-11.081
쎈ren❂1쎯	-11.081
zhan❄10쎯shu❂7쎯	-11.081
gong❁23쎯guan❁4쎯	-11.0811
、fa❃2쎯gui❁35쎯	-11.0813
nong❂5쎯ji❁48쎯	-11.0814
shen❁18쎯hua❁1쎯	-11.0816
yi❁12쎯lai❄19쎯	-11.0818
san❁1쎯ceng❂3쎯	-11.0825
yue❁0쎯:	-11.0825
shi❄31쎯deng❃2쎯	-11.0825
yong❄3쎯shu❁8쎯	-11.0826
zhu❃14쎯shou❂쎯	-11.0826
wei❁30쎯	-11.0826
shan❁11쎯peng❂7쎯	-11.0826
,fu❄23쎯	-11.0829
·a❁6쎯	-11.0832
xie❂24쎯	-11.0832
guan❁4쎯fu❄39쎯	-11.0833
,xie❂16쎯	-11.0833
lu❄70쎯shang❃1쎯	-11.0834
ni❃6쎯们	-11.0834
hai❃1쎯bin❁12쎯	-11.0834
you❂24쎯、	-11.0836
ka❃1쎯tong❁5쎯	-11.0837
jiu❃12쎯dian❄13쎯(	-11.0839
suo❃11쎯fu❄28쎯	-11.0841
fa❃2쎯、	-11.0842
jie❃1쎯mei❄5쎯	-11.0843
qi❄20쎯.	-11.0845
zhi❄30쎯dong❄13쎯	-11.0845
zu❃7쎯zhi❁39쎯.	-11.0846
qu❁25쎯she❂5쎯	-11.0849
shao❁8쎯jian❁25쎯	-11.085
bei❄26쎯an❄16쎯	-11.0852
zao❄16쎯zhi❃32쎯	-11.0855
gu❃59쎯ke❁16쎯	-11.0857
kong❁9쎯bai❂2쎯	-11.0859
yue❄46쎯duo❁5쎯	-11.0859
jian❄40쎯jian❄40쎯	-11.0859
yue❄29쎯jing❁27쎯	-11.0861
yi❁10쎯ci❂29쎯	-11.0861
yong❄3쎯tu❂38쎯:	-11.0863
ku❄15쎯	-11.0864
dai❄9쎯biao❃5쎯.	-11.0864
”can❁3쎯jian❄62쎯“	-11.0864
쎄hao❂6쎯	-11.0864
zhi❁13쎯lv❃14쎯	-11.0865
zhi❂22쎯min❂22쎯	-11.0866
ben❃5쎯cun❁1쎯	-11.0866
쎆yue❄29쎯,	-11.0867
niang❄1쎯	-11.0868
т	-11.0868
qian❂8쎯lai❂16쎯	-11.0869
ci❃2쎯wai❄0쎯	-11.0873
xiang❁9쎯fan❃3쎯	-11.0874
yi❄67쎯zuo❄5쎯	-11.0876
hui❄27쎯zai❄5쎯	-11.0876
ping❂17쎯deng❃2쎯	-11.0878
lei❃2	-11.0879
gong❁10쎯ban❄4쎯	-11.0881
zao❁7쎯yu❄113쎯	-11.0882
9쎯ben❄4쎯xi❄46쎯	-11.0883
song❁7쎯	-11.0883
쎀°	-11.0884
qing❄1	-11.0884
wei❂38쎯ji❁36쎯	-11.0887
wang❃14쎯qiu❂36쎯	-11.0889
ku❁11쎯de❅0쎯	-11.0889
xuan❃8쎯ba❂11쎯	-11.0889
xiu❁11쎯zheng❁22쎯	-11.089
lv❄15쎯ling❃2쎯	-11.0891
mian❄2쎯ji❁64쎯쎁쎅	-11.0893
zhong❁4쎯dong❁3쎯	-11.0893
,neng❂2쎯gou❄10쎯	-11.0895
mu❄15쎯er❃12쎯	-11.0896
qing❄3쎯le❄3쎯	-11.0897
kui❂	-11.0902
°Cnian❂6쎯	-11.0903
zhu❁17쎯jiang❁10쎯	-11.0904
ju❂23쎯shi❄45쎯	-11.0904
,liang❃5쎯	-11.0906
fen❁4쎯yuan❄18쎯	-11.0908
han❄20쎯shang❄2쎯	-11.0909
jiao❄35쎯shao❃2쎯	-11.0909
zao❃2쎯nian❂6쎯	-11.091
jia❂19쎯	-11.0911
shang❁4쎯.	-11.0912
.쎂쎀쎁쎂nian❂6쎯	-11.0912
ji❂35쎯shi❃6쎯	-11.0913
쎁-쎁	-11.0916
ke❄14쎯jia❁13쎯	-11.0918
hao❂14쎯mi❃19쎯	-11.0918
ma❂8쎯you❂24쎯	-11.092
.쎁쎉쎉쎂nian❂6쎯	-11.092
qi❃25쎯fen❁11쎯	-11.0923
mei❄9쎯	-11.0923
yi❃24쎯.”	-11.0927
쎈gong❁10쎯li❃26쎯	-11.0931
jiu❃3쎯shi❂10쎯	-11.0931
(쎁쎅	-11.0932
zuo❄12쎯,	-11.0933
ying❁17쎯dui❄14쎯	-11.0934
쎆쎀쎀쎀	-11.0937
yi❄104쎯	-11.0939
bi❄57쎯	-11.0939
,bing❁6쎯jiang❁5쎯	-11.094
ai❁5쎯er❃6쎯	-11.0941
yi❂87쎯	-11.0941
.dui❄14쎯yu❂35쎯	-11.0943
pei❂3쎯xun❄25쎯、	-11.0944
ni❄	-11.0944
、dong❁3쎯	-11.0946
,chuang❄1쎯	-11.0949
dian❄23쎯wang❃14쎯	-11.0949
shu❃5쎯xia❄3쎯	-11.0951
heng❂14쎯yang❂35쎯	-11.0951
쎆gong❁10쎯li❃26쎯	-11.0953
de❅2쎯te❄5쎯se❄29쎯	-11.0954
dan❁	-11.0954
,jian❁14쎯	-11.0955
tiao❂9쎯,	-11.0958
ling❂46쎯nan❂6쎯	-11.0959
lian❂	-11.096
mo❄16쎯mu❃2쎯,	-11.0961
ming❂7쎯lu❄35쎯	-11.0961
쎯	-11.0962
qi❃12쎯qiu❁9쎯、	-11.0964
,li❄51쎯ru❂9쎯	-11.0968
zou❃0쎯chu❁3쎯	-11.0968
qi❃34쎯lai❂16쎯,	-11.0969
.wei❄52쎯	-11.097
ce❄21쎯	-11.097
si❄17쎯zhi❁40쎯	-11.0971
kong❃2쎯long❂63쎯	-11.0971
shui❃0쎯、	-11.0978
ji❁54쎯li❄60쎯	-11.0982
he❂37쎯xi❁143쎯	-11.0983
dian❄13쎯)	-11.0985
hao❂6쎯)	-11.0986
ji❁111쎯	-11.0986
ling❃2쎯yu❄31쎯.	-11.0987
ke❁1	-11.0988
ru❄2쎯dang❃2쎯	-11.0989
bao❁10쎯pian❁5쎯	-11.0989
ou❁1	-11.0991
yang❃17쎯	-11.0992
ren❄11쎯shen❁10쎯	-11.0992
fu❄65쎯yu❂34쎯	-11.0995
mei❂12쎯jie❄13쎯	-11.0998
qian❂8쎯ti❂17쎯	-11.0999
yang❃6쎯lao❃17쎯	-11.1
long❂63쎯men❂19쎯	-11.1001
zuo❄8쎯	-11.1003
dou❄1	-11.1003
jia❃2쎯ri❄2쎯	-11.1005
tiao❂9쎯wen❂12쎯	-11.1005
hong❂44쎯jiao❁21쎯	-11.1006
ben❄4쎯xi❄46쎯,	-11.1008
liang❃5쎯guo❂11쎯	-11.1008
bian❃13쎯	-11.1008
°C,	-11.1008
bi❄5	-11.101
yi❄214쎯hui❄27쎯	-11.101
you❁5쎯xian❁18쎯	-11.1012
qiao❂5쎯mu❄15쎯	-11.1014
.쎂쎀쎀쎀nian❂6쎯	-11.1016
jian❁85쎯ge❂53쎯	-11.1017
duo❁5쎯ming❂7쎯	-11.1017
gao❁20쎯shang❄2쎯	-11.1018
nong❂5쎯tian❂16쎯	-11.1019
se❄29쎯su❄56쎯	-11.102
:(	-11.1021
,an❁15쎯dong❁3쎯	-11.1021
jin❃24쎯zhang❁4쎯	-11.1024
zuo❄5쎯feng❁58쎯	-11.1025
tuo❃1쎯	-11.1026
chou❂29쎯bei❄26쎯	-11.1026
yi❁38쎯fu❂43쎯	-11.1028
an❁13쎯dong❁3쎯	-11.1031
fu❄28쎯xian❄22쎯	-11.1033
cuo	-11.1033
zhi❄104쎯de❅0쎯	-11.1036
ji❃22쎯chui❂10쎯	-11.1037
zhi❂20쎯wu❄36쎯,	-11.1038
yi❄67쎯ke❃4쎯	-11.1038
,fei❁15쎯	-11.1039
,na❃3쎯	-11.1042
jie❂67쎯ge❃0쎯,	-11.1043
zhi❄89쎯fu❄36쎯	-11.1045
si❄17쎯mian❄2쎯	-11.1047
he❂37쎯zhen❄30쎯	-11.105
shang❁4쎯dian❄13쎯	-11.1051
ke❁16쎯wei❁12쎯	-11.1052
yu❄70쎯mi❃19쎯、	-11.1053
tu❃1쎯mu❄15쎯	-11.1053
tou❄4쎯guo❄2쎯	-11.1054
duo❁5쎯ren❂1쎯	-11.1055
jian❄77쎯shang❃6쎯	-11.1055
ru❄2쎯xue❂6쎯	-11.1057
du❃14쎯	-11.1059
ji❁36쎯huan❄18쎯	-11.106
yong❃21쎯jiu❃1쎯	-11.1067
fu❄28쎯yuan❄18쎯	-11.1067
po❁12쎯you❃11쎯	-11.1067
쎂쎀gan❄3쎯	-11.1072
ban❄5쎯gan❄3쎯	-11.1072
xue❂6쎯ban❁12쎯,	-11.1072
chuan❁5쎯guo❄2쎯	-11.1074
zhang❄3쎯	-11.1074
xing❂7쎯fa❃2쎯	-11.1074
deng❃2쎯de❅0쎯.	-11.1075
zui❄4쎯shou❄4쎯	-11.1075
쎁쎆쎈	-11.108
luan❃0쎯xing❂11쎯,	-11.108
:쎀	-11.1081
jie❃6쎯du❂34쎯	-11.1081
xi❂22쎯ji❁22쎯	-11.1082
jian❁52쎯yu❄67쎯	-11.1083
fu❄28쎯bi❄100쎯	-11.1087
ta❁5쎯shi❄45쎯	-11.1087
da❂30쎯biao❁14쎯	-11.1088
hui❄34쎯	-11.1088
li❄59쎯qiu❂27쎯	-11.1088
he❂37쎯pan❄10쎯	-11.1089
zhuan❃4쎯xing❂9쎯	-11.109
wang❃7쎯lai❂16쎯	-11.1092
de❅0쎯dai❄15쎯,	-11.1092
tong❂13쎯zhi❄61쎯	-11.1094
liu❂20쎯chang❄9쎯	-11.1096
yuan❂34쎯xian❄22쎯	-11.1098
zheng❁22쎯gui❁35쎯	-11.1099
ping❂36쎯ding❄2쎯	-11.11
yu❂35쎯ci❃2쎯	-11.1102
feng❁8쎯xian❄22쎯	-11.1102
쎁mu❃2쎯	-11.1103
쎀hao❂14쎯sheng❁3쎯	-11.1103
quan❂6쎯nian❂6쎯	-11.1103
qiu❂36쎯xing❂11쎯	-11.1103
long❂63쎯quan❂17쎯	-11.1104
gong❁10쎯li❄141쎯	-11.1107
shang❁4쎯yong❄3쎯	-11.1107
ling❄0쎯you❃11쎯	-11.1107
.쎁쎉쎉쎃nian❂6쎯	-11.111
ge❄3쎯sheng❃9쎯	-11.1111
shi❄71쎯wei❄14쎯	-11.1111
zhen❄16쎯xing❄8쎯	-11.1112
xing❄13쎯bie❂4쎯	-11.1112
)zi❄6쎯	-11.1112
di❄27쎯di❄27쎯	-11.1113
bi❄87쎯	-11.1115
cen❂7쎯	-11.1115
ci❃2쎯de❅0쎯	-11.1116
:na❄11쎯zhi❄85쎯	-11.112
zhi❄8	-11.1122
shui❃0쎯liang❂19쎯	-11.1123
bu❂0쎯ru❂9쎯	-11.1123
te❄5쎯er❃6쎯	-11.1123
ya❄7쎯yun❃16쎯	-11.1124
mu❄14쎯	-11.1126
,nan❂14쎯,쎁쎉쎆	-11.1127
zheng❁7쎯qu❃1쎯	-11.1127
xue❂6쎯tang❂15쎯	-11.1129
xiang❄24쎯.	-11.113
liu❄3쎯yue❄29쎯	-11.113
fen❂16쎯	-11.1132
chan❂42쎯	-11.1132
yu❂114쎯	-11.1133
쎁쎀쎇	-11.1134
li❃26쎯ya❄7쎯	-11.1134
ci❃2쎯shu❁8쎯	-11.1134
a❁6쎯la❁7쎯	-11.1137
,dong❁3쎯	-11.114
you❂26쎯ru❂9쎯	-11.114
lin❂19쎯xia❄3쎯	-11.1142
.yuan❂10쎯	-11.1143
biao❁14쎯shi❂35쎯	-11.1143
쎇yue❄29쎯,	-11.1144
luo❁4쎯han❄33쎯	-11.1145
zheng❄13쎯wei❄14쎯	-11.1146
qian❁13쎯mi❃19쎯.	-11.1148
、xin❄8쎯xi❁70쎯	-11.1148
,wu❂17쎯lun❄1쎯	-11.115
biao❁14쎯qian❁39쎯	-11.1153
ren❂1쎯kou❃1쎯쎁	-11.1153
zhan❃22쎯	-11.1155
jian❃36쎯yi❄159쎯	-11.1157
shi❄78쎯ji❄36쎯	-11.1163
de❅2쎯zhi❄104쎯	-11.1164
yin❁11쎯er❂16쎯	-11.1164
shu❄26쎯mu❄22쎯	-11.1165
fu❂51쎯diao❁23쎯	-11.1166
쎁ming❂7쎯	-11.1167
suo❃11쎯shuo❁2쎯	-11.1167
shi❄45쎯ta❁3쎯	-11.1171
fen❃1쎯si❁11쎯	-11.1173
sha❁14쎯yan❂31쎯	-11.1176
er❂16쎯bei❄48쎯	-11.1179
gou❄	-11.118
si❄15쎯shi❄33쎯	-11.118
gan❁25쎯zhe❄12쎯	-11.1185
ge❃0쎯chang❄2쎯	-11.1189
wei❂38쎯er❃6쎯	-11.1189
duo❃28쎯	-11.1189
qi❂76쎯	-11.1189
jiao❁20쎯shi❁11쎯、	-11.119
jie❃1쎯jie❃1쎯	-11.119
ban❁9쎯dian❃11쎯	-11.1193
bian❄43쎯ji❂37쎯	-11.1193
yuan❂12쎯wei❄14쎯	-11.1194
、xiu❁9쎯xian❂54쎯	-11.1195
cha❁8쎯bie❂4쎯	-11.1197
shan❁33쎯	-11.1197
shou❃6쎯gan❄3쎯	-11.1198
xi❄46쎯fu❄28쎯	-11.1198
diao❄17쎯kong❄1쎯	-11.1199
guang❁8쎯xiang❄6쎯	-11.12
zhong❁4쎯xue❂6쎯.	-11.1201
dong❁3쎯shan❁11쎯	-11.1202
ti❂17쎯qin❂25쎯	-11.1203
zao❄2쎯qing❄3쎯	-11.1205
,fu❂94쎯shi❄45쎯	-11.1205
hou❄7쎯zai❄4쎯	-11.1205
shi❄99쎯pin❃0쎯	-11.1206
zhen❁4쎯tan❄5쎯	-11.1208
❁0쎯	-11.1208
you❂25쎯lan❃28쎯	-11.1209
er❄5쎯shou❃4쎯	-11.121
쎁쎂yue❄29쎯ren❂4쎯	-11.121
,chong❂17쎯	-11.1211
쎂쎅쎀ke❄6쎯	-11.1212
bi❄93쎯	-11.1212
bei❃2쎯ji❂57쎯	-11.1213
쎁쎀/쎁쎀쎀	-11.1214
juan❄26쎯	-11.1218
:쎁쎀	-11.1219
,fang❄0쎯	-11.1219
zhan❄17쎯shi❄33쎯	-11.122
kuang❁5쎯	-11.122
ke❄6쎯lan❂13쎯	-11.122
yi❁12쎯shan❁11쎯	-11.1221
、wen❂5쎯hua❁1쎯	-11.1221
,쎂쎀쎀쎂nian❂6쎯	-11.1222
zhan❄17쎯.	-11.1222
zhe❃2쎯wei❄14쎯	-11.1223
fang❄0쎯zhi❄85쎯	-11.1223
jian❁25쎯hua❁11쎯	-11.1224
de❅2쎯zhu❃4쎯	-11.1225
duan❄7쎯,	-11.1225
wei❁12쎯hui❄27쎯,	-11.1227
zhi❁13쎯xing❁7쎯	-11.1227
shui❃0쎯ping❂17쎯.	-11.1232
,he❂37쎯nan❂6쎯	-11.1234
yang❂17쎯pin❃0쎯	-11.1236
suo❃11쎯zhao❂쎯	-11.1237
zhu❄19쎯zai❄5쎯	-11.1241
,bi❃20쎯ru❂9쎯	-11.1242
ba❁9쎯yue❄29쎯	-11.1246
rang❄3쎯wo❃3쎯们	-11.1247
shan❄15쎯yu❂35쎯	-11.1249
sha❁4쎯si❃0쎯	-11.1251
fang❃6쎯zhen❁30쎯	-11.126
zhuan❁1쎯jia❁13쎯、	-11.126
shui❃0쎯zhi❄104쎯	-11.1262
xiang❁9쎯wang❄4쎯	-11.1264
du❂25쎯jia❁13쎯	-11.1264
de❅2쎯nv❃0쎯er❂7쎯	-11.1265
mo❄16쎯duo❁5쎯	-11.1266
쎃.쎂	-11.1266
xue❂6쎯fu❃14쎯	-11.1266
die❂65쎯	-11.1266
jin❃24쎯cou❄0쎯	-11.127
dan❄38쎯ying❁44쎯	-11.127
tian❁5쎯ben❄4쎯	-11.127
yi❁12쎯ci❄16쎯	-11.1273
yan❃45쎯sheng❁16쎯	-11.1273
jian❃52쎯yue❁1쎯	-11.1274
xing❂11쎯shi❄33쎯,	-11.1275
che❁8쎯xing❂9쎯	-11.1276
—쎁쎉쎉	-11.128
쎃yue❄29쎯,	-11.128
ji❄94쎯lv❄9쎯	-11.1281
wan❃17쎯hui❄27쎯	-11.1283
[...]
