[UNK]	0
[PAD]	0
[CLS]	0
[SEP]	0
[MASK]	0
,	-3.53548
的	-3.85395
。	-4.01632
、	-4.03921
▁	-4.50344
和	-5.02613
在	-5.44575
为	-5.47459
是	-5.6314
:	-5.67195
中	-5.73422
(	-5.74895
与	-5.79438
有	-5.83033
等	-5.88284
;	-5.91436
人	-5.93272
大	-5.95239
)	-5.95538
了	-6.07175
《	-6.13738
上	-6.1421
“	-6.1906
之	-6.22034
及	-6.23122
一	-6.23574
以	-6.27735
不	-6.3199
市	-6.40873
于	-6.40985
”	-6.42654
水	-6.47442
区	-6.55513
中国	-6.55799
山	-6.58747
后	-6.59425
对	-6.60276
1	-6.60457
日	-6.61794
子	-6.62058
县	-6.62905
高	-6.64488
地	-6.65216
小	-6.66189
性	-6.68896
用	-6.69258
长	-6.70124
》	-6.70602
三	-6.73374
多	-6.73533
2	-6.74312
家	-6.74315
下	-6.74787
而	-6.7579
或	-6.76214
到	-6.7686
新	-6.76975
-	-6.798
3	-6.80229
被	-6.80422
公司	-6.8217
时	-6.82634
天	-6.82904
将	-6.82943
出	-6.85251
年	-6.85675
·	-6.88131
.	-6.89371
至	-6.89922
名	-6.90021
所	-6.90165
内	-6.90376
企业	-6.91606
会	-6.92025
学	-6.92652
生	-6.97265
东	-6.98429
文	-6.98789
/	-6.98854
部	-6.99707
西	-6.99848
技术	-6.99912
可	-7.0054
管理	-7.0055
镇	-7.01853
成	-7.02338
工作	-7.0444
无	-7.05188
本	-7.07386
由	-7.08535
来	-7.08834
产品	-7.09185
其	-7.09725
海	-7.10048
分	-7.10323
金	-7.11857
法	-7.12236
二	-7.12809
化	-7.12962
南	-7.13051
石	-7.13542
4	-7.14843
5	-7.15078
花	-7.15805
服务	-7.16112
路	-7.16312
前	-7.16546
行	-7.16975
外	-7.17214
从	-7.17809
机	-7.17828
并	-7.17977
国家	-7.18022
村	-7.18052
大学	-7.18596
王	-7.18823
国	-7.19658
心	-7.1967
体	-7.2023
教育	-7.21072
专业	-7.21139
城	-7.21783
者	-7.21989
系统	-7.22659
线	-7.23785
安	-7.24128
德	-7.24306
力	-7.24722
里	-7.27116
头	-7.28153
门	-7.28634
乡	-7.28728
自	-7.28815
也	-7.2909
一个	-7.29172
都	-7.29714
入	-7.29788
国际	-7.30398
马	-7.30945
道	-7.31133
明	-7.3173
能	-7.32092
研究	-7.3239
光	-7.3257
四	-7.32637
式	-7.32781
任	-7.33245
白	-7.33625
五	-7.33841
清	-7.34249
发展	-7.35137
进行	-7.35997
科	-7.36204
面	-7.36566
河	-7.36833
两	-7.3697
江	-7.37145
北	-7.3751
平	-7.37567
位于	-7.37662
他	-7.37981
学校	-7.38005
型	-7.38082
发	-7.38344
军	-7.38484
中心	-7.38857
龙	-7.39201
,是	-7.39649
美	-7.40168
过	-7.40315
()	-7.4042
最	-7.40431
州	-7.40565
口	-7.40789
克	-7.41076
万	-7.41447
林	-7.41587
6	-7.41832
》、《	-7.42079
华	-7.42193
着	-7.4298
经	-7.43752
黄	-7.44242
经济	-7.44457
文化	-7.44459
8	-7.44493
通	-7.44507
工程	-7.44686
局	-7.45104
设计	-7.45149
,在	-7.45234
开	-7.45894
全	-7.46065
系	-7.46419
10	-7.47
风	-7.47019
,并	-7.47109
手	-7.47486
车	-7.48076
度	-7.48096
处	-7.48508
制	-7.48859
全国	-7.49159
尔	-7.49286
向	-7.49427
斯	-7.49432
作	-7.49809
台	-7.50044
书	-7.50127
生产	-7.50547
集	-7.50872
达	-7.50941
点	-7.50977
特	-7.51006
方	-7.51056
"	-7.51141
古	-7.51299
元	-7.51462
气	-7.5155
正	-7.52068
重	-7.52296
建设	-7.5347
7	-7.53787
相	-7.54918
红	-7.55197
原	-7.55554
20	-7.5581
网	-7.55879
提供	-7.56053
组织	-7.5613
同	-7.56725
具有	-7.56768
张	-7.57885
热	-7.58539
项目	-7.58579
工	-7.58783
起	-7.59064
各	-7.59242
类	-7.59844
人,	-7.60016
病	-7.60239
位	-7.60565
师	-7.60657
管	-7.6127
油	-7.61371
总	-7.62146
就	-7.62378
学院	-7.6272
好	-7.62868
器	-7.63155
地区	-7.63344
阳	-7.63377
19	-7.64293
已	-7.64359
。”	-7.64371
以及	-7.64783
叶	-7.64869
主	-7.64943
米	-7.64954
信息	-7.65343
片	-7.65559
种	-7.6559
9	-7.65609
如	-7.658
去	-7.66493
可以	-7.66538
网络	-7.66555
级	-7.66772
老	-7.66987
利	-7.67829
),	-7.68099
双	-7.6811
得	-7.68123
省	-7.68199
要	-7.68303
使用	-7.6844
流	-7.68987
世界	-7.69442
加	-7.70059
,以	-7.70272
市场	-7.70324
号	-7.70785
拉	-7.70795
公	-7.7086
色	-7.7099
定	-7.71907
通过	-7.71987
电	-7.72075
使	-7.72649
数	-7.72801
站	-7.73027
科技	-7.74205
社会	-7.74271
层	-7.74453
神	-7.74472
第一	-7.74786
我	-7.75331
带	-7.75585
图	-7.75637
字	-7.7585
约	-7.76363
量	-7.76415
主要	-7.76572
北京	-7.7672
个	-7.76748
设备	-7.77553
环境	-7.77907
教学	-7.7839
建	-7.78538
条	-7.78974
近	-7.79701
期	-7.80196
有限公司	-7.80389
艺术	-7.80512
又	-7.80974
木	-7.81485
李	-7.81551
30	-7.81603
合	-7.81853
物	-7.81991
比	-7.82053
12	-7.82314
把	-7.82509
属	-7.82603
获	-7.82864
”。	-7.82952
星	-7.83164
女	-7.83567
学习	-7.83801
功能	-7.84068
上海	-7.84343
云	-7.84389
卡	-7.84588
世	-7.84618
指	-7.84804
15	-7.84899
学生	-7.84915
香	-7.85032
人。	-7.85097
进	-7.85173
事	-7.85207
立	-7.85227
月	-7.85913
教	-7.86285
当	-7.86672
城市	-7.87047
品牌	-7.87053
说	-7.88564
开发	-7.88976
单	-7.89018
给	-7.89146
美国	-7.8922
九	-7.89398
间	-7.89427
标准	-7.89515
业	-7.89705
建筑	-7.89776
身	-7.90013
厂	-7.90063
情	-7.90162
亚	-7.90169
形	-7.90238
此	-7.90443
爱	-7.91082
火	-7.91506
周	-7.91627
武	-7.91645
楼	-7.91737
场	-7.91807
该	-7.91861
民	-7.92067
行业	-7.92153
罗	-7.92188
官	-7.92735
青	-7.92757
更	-7.9276
干	-7.92777
强	-7.92786
鱼	-7.92843
节	-7.93382
六	-7.93569
基	-7.93734
16	-7.93741
八	-7.93848
边	-7.93916
商	-7.941
语	-7.94195
动	-7.94207
因	-7.9452
还	-7.94923
集团	-7.94986
调	-7.95203
作品	-7.95395
卷	-7.95402
品	-7.95521
副	-7.9555
生活	-7.96002
校	-7.96117
汉	-7.96565
结构	-7.96666
工业	-7.96712
皮	-7.96781
质量	-7.96822
!	-7.97113
院	-7.97404
诗	-7.97483
拥有	-7.97752
乐	-7.98023
投资	-7.98459
单位	-7.98479
宝	-7.98563
首	-7.98712
回	-7.99008
药	-7.99087
各种	-7.99091
章	-7.99267
状	-7.99924
安全	-7.99967
传	-7.99977
土	-7.99999
画	-8.00084
变	-8.00213
草	-8.00266
田	-8.00347
选	-8.00927
初	-8.01259
即	-8.01295
声	-8.0131
布	-8.01547
质	-8.01573
率	-8.01801
桥	-8.019
代	-8.01978
战	-8.02021
连	-8.02078
园	-8.02217
深	-8.02262
称	-8.0235
湖	-8.02563
18	-8.02581
组	-8.03076
医院	-8.03104
活动	-8.03122
见	-8.03227
百	-8.03249
打	-8.03288
0	-8.03463
应	-8.03677
巴	-8.03793
板	-8.04102
做	-8.04155
日本	-8.04265
团	-8.04474
源	-8.04634
成为	-8.04722
系列	-8.04818
先	-8.04907
极	-8.04916
次	-8.05335
户	-8.05413
作为	-8.05543
科学	-8.05595
远	-8.05879
电子	-8.05908
房	-8.05984
七	-8.05999
血	-8.06221
50	-8.06258
开始	-8.06287
——	-8.06459
这	-8.06595
格	-8.06956
》:“	-8.07187
游戏	-8.07192
应用	-8.07374
非	-8.07463
取	-8.07686
室	-8.07704
转	-8.07839
果	-8.0829
,为	-8.08719
则	-8.0876
材料	-8.09226
联	-8.09252
14	-8.09427
你	-8.09433
共	-8.09591
真	-8.09595
受	-8.09602
优秀	-8.09791
兴	-8.10185
支持	-8.10238
玉	-8.10303
教师	-8.10304
中的	-8.1089
音乐	-8.11072
陈	-8.11078
史	-8.11191
曾	-8.11231
参加	-8.11254
—	-8.11387
～	-8.11483
树	-8.11498
现代	-8.11589
奖	-8.11592
曲	-8.11716
阿	-8.11976
信	-8.12846
控制	-8.12934
实	-8.12957
40	-8.13114
综合	-8.13316
波	-8.13643
毕业于	-8.13984
11	-8.14021
业务	-8.14121
意	-8.14175
协会	-8.14258
沙	-8.14393
方法	-8.14792
兰	-8.14961
精	-8.16075
表	-8.161
治	-8.16279
”的	-8.16378
理论	-8.1645
12月	-8.16574
采用	-8.16827
9月	-8.16849
余	-8.16915
分析	-8.16936
太	-8.16951
时间	-8.16967
宁	-8.16996
班	-8.1722
底	-8.17351
音	-8.17432
塔	-8.17494
丝	-8.17583
专家	-8.17749
春	-8.17968
中学	-8.1797
常	-8.18138
放	-8.18165
13	-8.18167
食	-8.1825
装	-8.18397
居	-8.18425
保	-8.18656
社区	-8.18828
临	-8.18874
看	-8.19074
治疗	-8.19159
第二	-8.19174
等。	-8.19216
国内	-8.19413
理	-8.19513
”、“	-8.19552
旅游	-8.19564
队	-8.19674
肉	-8.19723
感	-8.19775
刘	-8.20054
超	-8.20061
资源	-8.20209
界	-8.2022
低	-8.20323
农业	-8.20324
修	-8.20679
反	-8.20686
盘	-8.20909
政府	-8.20946
产	-8.20959
7月	-8.20975
面积	-8.21051
销售	-8.21146
士	-8.21386
从事	-8.21512
酒	-8.21564
接	-8.21604
获得	-8.21665
微	-8.21707
球	-8.21774
制作	-8.21855
,但	-8.21872
黑	-8.21876
茶	-8.21984
结	-8.21985
指导	-8.22136
半	-8.22183
报	-8.22352
软件	-8.22477
。在	-8.22699
防	-8.22713
角	-8.22736
言	-8.22765
写	-8.23
17	-8.23044
交	-8.2313
经营	-8.23256
广	-8.23284
具	-8.23321
25	-8.23477
直	-8.2353
景	-8.23753
目	-8.23908
版	-8.245
义	-8.24501
菜	-8.24552
毛	-8.24722
志	-8.24723
街	-8.2556
”,	-8.25983
100	-8.26004
岁	-8.2602
机构	-8.26083
福	-8.26169
10月	-8.26359
盐	-8.26376
加工	-8.26442
复	-8.26605
8月	-8.26879
不同	-8.27266
粉	-8.27304
包括	-8.27434
其中	-8.27711
馆	-8.27714
压	-8.28017
派	-8.28063
60	-8.28282
论	-8.28379
根	-8.28413
人员	-8.28525
自己	-8.28658
历史	-8.28671
抗	-8.28781
温	-8.29117
部分	-8.29204
合作	-8.29211
眼	-8.29265
落	-8.29511
松	-8.29511
培训	-8.29909
)。	-8.30304
酒店	-8.3033
空	-8.30417
飞	-8.30498
千	-8.31068
唐	-8.3112
均	-8.31238
就是	-8.31383
后,	-8.31518
,其	-8.32069
氏	-8.32128
座	-8.32158
用户	-8.32203
关	-8.32304
没有	-8.32424
成立	-8.3251
才	-8.32666
铁	-8.32751
她	-8.328
环	-8.329
6月	-8.33255
段	-8.33324
,其中	-8.33487
自然	-8.3355
保护	-8.33724
人才	-8.33952
永	-8.34203
3月	-8.34386
兵	-8.34386
少	-8.34843
解	-8.35281
宗	-8.35441
游	-8.35489
文学	-8.35603
创新	-8.35863
著名	-8.36066
细	-8.36325
群	-8.36325
宽	-8.36441
让	-8.36447
我们	-8.36764
营	-8.36869
川	-8.36893
切	-8.36994
农	-8.37187
5月	-8.37272
产业	-8.37367
纳	-8.37371
权	-8.37518
办	-8.37895
80	-8.37985
时,	-8.38074
化学	-8.38103
它	-8.38148
族	-8.38282
再	-8.38307
机械	-8.38336
十	-8.38357
处理	-8.38551
知	-8.38696
包	-8.38916
客户	-8.39222
支	-8.39427
现	-8.39639
其他	-8.39698
负责	-8.3974
展	-8.39764
兼	-8.39813
堂	-8.399
提高	-8.39948
店	-8.3998
收	-8.40015
词	-8.40061
汽车	-8.40107
酸	-8.40137
根据	-8.40467
骨	-8.4088
牛	-8.40938
设	-8.40942
圣	-8.40986
英	-8.40994
专	-8.41003
男	-8.41021
编	-8.41251
委员会	-8.41298
杨	-8.41299
短	-8.41341
人口	-8.41643
山东	-8.41803
一般	-8.4186
养	-8.4205
岛	-8.42173
代表	-8.42284
4月	-8.42354
运	-8.42437
规划	-8.42531
寺	-8.42593
岩	-8.42743
,有	-8.42752
员	-8.42958
植物	-8.43067
尼	-8.43129
出版	-8.43149
盛	-8.43265
奇	-8.43363
人民	-8.43591
厅	-8.4362
离	-8.43702
只	-8.43722
交通	-8.43818
未	-8.43829
委	-8.43839
以上	-8.4411
圆	-8.44361
方式	-8.44553
易	-8.44635
走	-8.44665
有关	-8.44707
中央	-8.44892
甲	-8.45193
社	-8.45381
剂	-8.45605
异	-8.45697
要求	-8.46025
政	-8.46032
藏	-8.46134
香港	-8.46198
卫生	-8.46258
末	-8.46285
较	-8.46336
小学	-8.46442
溪	-8.46493
死	-8.46532
健康	-8.466
200	-8.4677
素	-8.46797
计划	-8.468
端	-8.46858
改	-8.46923
大型	-8.47089
视	-8.47265
汤	-8.47573
便	-8.47578
观	-8.47585
很	-8.47633
行政	-8.47641
一种	-8.47795
吴	-8.47974
利用	-8.48393
随	-8.48393
宫	-8.4854
普	-8.48552
11月	-8.48644
像	-8.48736
密	-8.4883
医学	-8.4892
泰	-8.49179
歌	-8.49243
件	-8.49264
建立	-8.49358
项	-8.49382
生物	-8.49429
制造	-8.49517
除	-8.49639
维	-8.49742
运动	-8.49754
党	-8.49774
想	-8.49868
印	-8.50087
24	-8.50444
府	-8.50487
需要	-8.50529
篇	-8.5065
传统	-8.50715
重点	-8.50719
纸	-8.5083
每	-8.51068
完成	-8.51085
医	-8.51155
苏	-8.51185
丰	-8.51246
性能	-8.51263
载	-8.51285
峰	-8.51362
宋	-8.51436
雷	-8.51443
内容	-8.51592
鸡	-8.51632
笔	-8.51943
庄	-8.52153
值	-8.52238
网站	-8.52268
实现	-8.52368
增	-8.52495
?	-8.52522
康	-8.52625
孔	-8.52746
夫	-8.52807
朝	-8.52958
亲	-8.53251
套	-8.53391
那	-8.53432
按	-8.5355
商业	-8.53794
排	-8.53832
亩	-8.53878
料	-8.54132
刻	-8.54244
已经	-8.54248
然	-8.54324
数据	-8.54366
求	-8.54433
这个	-8.54501
钢	-8.54905
1月	-8.5499
港	-8.55074
库	-8.55077
领导	-8.5508
,而	-8.55138
味	-8.55163
核	-8.55552
功	-8.55934
:“	-8.55982
博	-8.56038
水平	-8.56042
足	-8.5605
特色	-8.56143
个人	-8.56216
台湾	-8.56528
牌	-8.56658
职业	-8.56672
之一	-8.56767
吉	-8.56937
,使	-8.57065
佛	-8.57083
职	-8.57139
学会	-8.5717
同时	-8.57298
达到	-8.5731
占	-8.57397
政治	-8.57415
工艺	-8.57452
谷	-8.575
22	-8.57602
彩	-8.5761
竹	-8.57798
民族	-8.58037
基本	-8.58045
......	-8.58168
思	-8.58258
问题	-8.58312
各类	-8.58438
散	-8.58519
奥	-8.58547
胜	-8.58582
块	-8.58682
洞	-8.58712
实施	-8.58872
食品	-8.58885
灵	-8.58992
学术	-8.59045
相关	-8.5913
自己的	-8.59249
模式	-8.5938
绿	-8.59515
记	-8.59526
补	-8.59684
服	-8.59719
加入	-8.59739
两个	-8.59783
影响	-8.59866
基地	-8.59904
+	-8.59917
标	-8.59969
参与	-8.59975
类型	-8.59983
区域	-8.60021
程	-8.60074
课程	-8.60186
培养	-8.60406
托	-8.60427
导	-8.60638
归	-8.60714
银	-8.60739
纹	-8.60757
发表	-8.61072
能力	-8.61246
泉	-8.61456
富	-8.61456
,他	-8.61535
梅	-8.61594
电影	-8.61692
人物	-8.61745
胶	-8.61804
儿	-8.6189
列	-8.61891
高级	-8.61955
夏	-8.62061
之一。	-8.62078
开展	-8.62121
灯	-8.62457
领域	-8.6254
送	-8.62571
距	-8.62748
先进	-8.62988
不断	-8.6302
几	-8.6302
知识	-8.63038
届	-8.63165
基础	-8.63191
担任	-8.63263
证	-8.63306
教授	-8.63315
母	-8.63402
选择	-8.63474
糖	-8.63483
满	-8.64086
部门	-8.64278
操作	-8.6429
目标	-8.64301
膜	-8.64313
伤	-8.64406
发现	-8.6442
形成	-8.64447
配	-8.64473
昌	-8.64571
守	-8.64596
仙	-8.64719
京	-8.64728
自动	-8.64736
快	-8.64776
难	-8.6498
鲁	-8.64984
液	-8.65036
浙江	-8.6525
计算机	-8.65417
平台	-8.65438
衣	-8.65578
接口	-8.65602
关系	-8.65755
*	-8.65925
钱	-8.66051
2月	-8.66318
厚	-8.66611
成功	-8.66645
威	-8.66669
第三	-8.66669
--	-8.66713
交流	-8.66744
细胞	-8.66941
体育	-8.66977
读	-8.67006
26	-8.67183
轮	-8.6727
善	-8.67471
提	-8.6751
23	-8.67636
考	-8.67681
尾	-8.67863
务	-8.67865
四川	-8.68172
升	-8.68263
青年	-8.68364
一些	-8.68444
呈	-8.68458
令	-8.68563
70	-8.68716
雅	-8.68885
盖	-8.68909
引	-8.68938
礼	-8.68948
工作。	-8.68985
进入	-8.6899
32	-8.692
丁	-8.69327
经验	-8.69475
顺	-8.69507
非常	-8.69605
友	-8.69633
,由	-8.69915
丽	-8.70004
我国	-8.70164
野	-8.70186
28	-8.70228
井	-8.70327
中,	-8.70562
用于	-8.70601
%	-8.70626
人们	-8.70823
精神	-8.70941
仁	-8.71094
生于	-8.71148
留	-8.71148
雨	-8.71171
方面	-8.71337
创作	-8.71424
银行	-8.71564
小说	-8.71577
文件	-8.71605
断	-8.71635
越	-8.71691
船	-8.71708
全面	-8.71764
哈	-8.71767
梁	-8.71854
菌	-8.71892
发生	-8.71894
临床	-8.71894
地方	-8.71908
结合	-8.72041
尽	-8.72131
▁公司	-8.72157
全球	-8.72217
雪	-8.72279
举	-8.72429
旧	-8.72442
司	-8.7245
何	-8.72463
动物	-8.72549
轻	-8.7255
的一种	-8.72726
21	-8.72795
科研	-8.72795
他们	-8.72972
×	-8.73068
山东省	-8.73076
冷	-8.73169
论文	-8.73189
作者	-8.73229
封	-8.73269
架	-8.73288
故	-8.73369
卫	-8.73533
)、	-8.73551
话	-8.73687
住	-8.7375
望	-8.73917
实验	-8.74048
帝	-8.74085
赛	-8.74106
横	-8.74124
广州	-8.7415
顶	-8.7422
作用	-8.74224
夜	-8.74381
广东	-8.74403
置	-8.74405
所有	-8.74422
软	-8.74494
费	-8.74497
,男,	-8.74655
收入	-8.74718
铜	-8.74729
客	-8.74749
洋	-8.74785
虫	-8.74917
秀	-8.75032
是指	-8.75037
宜	-8.75116
价	-8.75123
正式	-8.75186
目前	-8.75332
宣传	-8.75366
别	-8.75481
最大	-8.75501
瓦	-8.75551
鲜	-8.75564
设施	-8.75755
速	-8.75921
思想	-8.75923
独立	-8.75958
政策	-8.75974
体系	-8.76176
影	-8.76195
庆	-8.76245
优	-8.76287
语言	-8.76309
检测	-8.76324
朱	-8.76324
共同	-8.76355
安装	-8.76434
孙	-8.76487
伊	-8.76673
亩,	-8.76703
今	-8.76703
不能	-8.76703
存	-8.77024
秋	-8.77146
听	-8.77236
创	-8.77287
重要	-8.77296
广西	-8.77307
例	-8.77358
风格	-8.77368
是一个	-8.77384
英国	-8.77631
研究所	-8.77665
农村	-8.77788
矿	-8.77788
却	-8.78018
公路	-8.78078
得到	-8.78094
含	-8.78283
阴	-8.78296
35	-8.78323
豆	-8.78344
法律	-8.78488
会议	-8.78622
计	-8.78722
湾	-8.78736
题	-8.78823
失	-8.78918
若	-8.78941
艺	-8.78955
试	-8.78963
空间	-8.79082
剧	-8.79121
英语	-8.79167
施	-8.79183
刀	-8.79191
医疗	-8.792
耐	-8.79207
中华	-8.79551
》等	-8.79603
推广	-8.79699
款	-8.79748
电视	-8.79873
打造	-8.79901
录	-8.79946
仅	-8.79948
品种	-8.79983
生态	-8.80073
直接	-8.8016
杀	-8.80249
认证	-8.80268
,可	-8.80384
步	-8.80468
的一个	-8.80486
效果	-8.80516
们	-8.80596
侧	-8.80661
铁路	-8.80834
,对	-8.80856
江苏	-8.80909
课	-8.81256
绝	-8.81316
新闻	-8.81392
领	-8.81496
额	-8.81601
冲	-8.81722
2000	-8.81973
齐	-8.81979
先生	-8.82033
丹	-8.82045
股	-8.82254
诸	-8.82294
致	-8.82311
亦	-8.82314
州市	-8.82455
击	-8.82528
静	-8.82611
湖南	-8.82695
经过	-8.82713
普通	-8.82751
是由	-8.82769
比较	-8.82784
纯	-8.82867
弹	-8.82883
主持	-8.83023
降	-8.83179
左	-8.83277
机关	-8.83311
资料	-8.83369
症	-8.83442
家庭	-8.83475
但	-8.83502
晋	-8.83521
脚	-8.83573
壁	-8.83745
洪	-8.8382
27	-8.83824
执行	-8.83849
赵	-8.83909
吃	-8.83977
他的	-8.84046
墨	-8.84153
差	-8.84496
价值	-8.84498
恩	-8.84509
雄	-8.84552
会员	-8.84634
金属	-8.84676
陵	-8.84728
佳	-8.84996
怀	-8.85278
最高	-8.85302
~	-8.85317
金融	-8.8533
整	-8.85364
团队	-8.85371
研发	-8.85395
人的	-8.85454
蓝	-8.85483
样	-8.85555
聚	-8.85571
的“	-8.85738
参	-8.85811
造	-8.85853
南京	-8.85921
德国	-8.85927
供	-8.86053
本书	-8.86097
术	-8.86123
广告	-8.86127
90	-8.86163
预	-8.86216
试验	-8.86317
出现	-8.8633
苦	-8.8634
500	-8.86347
注	-8.86399
》(	-8.86452
缘	-8.86455
烧	-8.86463
胡	-8.86496
登	-8.86584
病毒	-8.86641
由于	-8.86668
副主任	-8.86703
生,	-8.86767
乌	-8.86799
商务	-8.86963
批准	-8.86981
历	-8.8724
河南	-8.87335
岭	-8.87348
时代	-8.87395
备	-8.87415
伯	-8.87484
45	-8.87486
距离	-8.87592
,即	-8.87631
容	-8.87683
耳	-8.87714
瑞	-8.87799
干部	-8.87874
乳	-8.87881
1998年	-8.87923
贵	-8.88355
成员	-8.88525
长期	-8.8854
过程	-8.88619
积极	-8.88695
境	-8.89104
麻	-8.89115
联合	-8.89307
祖	-8.89372
条件	-8.89575
学科	-8.89637
施工	-8.89811
粒	-8.89849
事业	-8.89867
勒	-8.89973
往	-8.90038
制度	-8.90053
沟	-8.90104
货	-8.90154
脑	-8.90213
美术	-8.90228
一次	-8.90252
及其	-8.90279
是一种	-8.90295
一直	-8.90443
装饰	-8.90509
时期	-8.90589
喜	-8.9061
出版社	-8.90677
2008年	-8.90677
略	-8.90737
规模	-8.90904
°C	-8.91067
属于	-8.91677
之间	-8.9188
上的	-8.91971
洛	-8.91976
产生	-8.92093
杂	-8.92204
都是	-8.92363
依	-8.92407
2007年	-8.92463
烟	-8.92477
象	-8.92496
君	-8.92562
附	-8.9264
形式	-8.9278
多种	-8.92853
方向	-8.92879
推	-8.92882
国内外	-8.92899
江苏省	-8.93124
陆	-8.93162
2010年	-8.93211
第	-8.93221
公园	-8.93275
征	-8.93311
出生于	-8.93331
右	-8.93372
努力	-8.93494
熟	-8.93503
方便	-8.93608
池	-8.93655
成立于	-8.93716
紫	-8.93739
电脑	-8.93804
庙	-8.9386
文明	-8.93967
工作,	-8.94014
莱	-8.94019
29	-8.94041
注册	-8.94137
您	-8.94179
徐	-8.94252
肥	-8.94258
这些	-8.94287
诺	-8.94293
隆	-8.94367
环保	-8.94445
教材	-8.94559
案	-8.94596
。公司	-8.9469
荣	-8.94703
痛	-8.94715
腹	-8.94908
促进	-8.94981
故事	-8.95088
柱	-8.95153
种植	-8.95161
。《	-8.95267
运行	-8.95403
皇	-8.95411
塞	-8.95487
这种	-8.9549
早	-8.95592
羊	-8.95598
满足	-8.95598
咨询	-8.95687
良	-8.95693
省级	-8.95718
众	-8.95824
最大的	-8.95838
,如	-8.95884
护	-8.95903
出生,	-8.95956
势	-8.95958
待	-8.95978
的发展	-8.96014
东北	-8.96215
2000年	-8.96229
活	-8.96362
寒	-8.96421
小时	-8.96461
塘	-8.96464
久	-8.96476
组成	-8.96524
情况	-8.96616
命	-8.9663
尚	-8.96726
书法	-8.96755
纪	-8.96768
完全	-8.96894
射	-8.96895
1999年	-8.9692
300	-8.9697
。他	-8.97034
萨	-8.97035
日,	-8.97096
广东省	-8.97111
宣	-8.97182
法国	-8.97222
虚	-8.9732
独	-8.97324
背	-8.97517
时尚	-8.97569
钟	-8.97619
税	-8.97725
2009年	-8.97802
表面	-8.97828
驻	-8.9787
能够	-8.97879
仪	-8.97901
警	-8.97983
品质	-8.98064
折	-8.98095
员工	-8.98161
被评为	-8.98186
儿童	-8.98222
剑	-8.98349
战略	-8.98361
假	-8.98373
程序	-8.98494
工具	-8.98499
1997年	-8.98533
舞	-8.98617
这一	-8.98673
照	-8.98751
围	-8.98777
虎	-8.98813
多次	-8.98891
安徽	-8.98968
枝	-8.9898
介绍	-8.99004
改革	-8.99054
西南	-8.99138
:1	-8.99162
索	-8.99232
设有	-8.99335
智	-8.9937
中共	-8.99376
连续	-8.99494
革命	-8.99648
世纪	-8.99668
潮	-8.99916
交易	-9.00142
现有	-9.00147
至今	-9.00226
轴	-9.00336
沿	-9.00371
温度	-9.00495
必	-9.00575
成果	-9.00635
显示	-9.00659
实践	-9.00698
出生	-9.00844
1996年	-9.00873
镜	-9.00879
厘米	-9.009
,将	-9.00952
秦	-9.01032
有效	-9.01038
1000	-9.01042
土地	-9.01066
分别	-9.01079
迁	-9.01088
凤	-9.01125
投	-9.01262
猪	-9.01336
许	-9.01349
译	-9.01368
全部	-9.01387
万元	-9.01465
蒙	-9.01488
延	-9.01507
尖	-9.01558
欧	-9.01639
,位于	-9.01641
床	-9.01775
问	-9.01824
冬	-9.01882
,中国	-9.01952
包装	-9.01955
为了	-9.02123
作家	-9.02125
认为	-9.02248
毒	-9.02278
墙	-9.02328
破	-9.02441
绿色	-9.0245
汇	-9.02463
博士	-9.02552
演	-9.02623
评	-9.02633
办公室	-9.02641
寿	-9.02642
航	-9.02791
箱	-9.02851
36	-9.0286
600	-9.0287
可能	-9.02882
也是	-9.02895
嘉	-9.03009
减	-9.03047
倒	-9.03095
脱	-9.03109
特征	-9.03179
圈	-9.03197
▁《	-9.03433
炎	-9.03448
中医	-9.03527
冰	-9.03551
显	-9.03675
2006年	-9.03676
露	-9.03688
实际	-9.03762
,它	-9.03808
控	-9.03819
迪	-9.0401
电力	-9.04038
句	-9.04078
平方米	-9.04276
国家级	-9.04298
墓	-9.04304
帮助	-9.04428
脉	-9.04548
营销	-9.0455
讲	-9.04555
济	-9.046
惠	-9.04618
农民	-9.04649
天津	-9.04668
优质	-9.04747
承	-9.04817
1995年	-9.0488
范围	-9.04997
人类	-9.05012
视频	-9.05071
校园	-9.05177
800	-9.05206
炒	-9.05278
。该	-9.05285
发行	-9.05404
规范	-9.05494
洲	-9.05549
梦	-9.05605
鸟	-9.05739
追	-9.05742
良好的	-9.05777
,从	-9.05828
多年	-9.05834
表现	-9.05856
速度	-9.06002
,不	-9.06014
》,	-9.06121
斗	-9.06123
四川省	-9.06135
河北	-9.06291
采	-9.06371
湖北	-9.06432
泥	-9.06649
编辑	-9.06702
查	-9.06707
统一	-9.06736
杯	-9.06742
贝	-9.06785
退	-9.06785
承担	-9.06805
柳	-9.0693
西北	-9.06999
著	-9.07024
之一,	-9.07054
郑	-9.07184
固	-9.07317
测	-9.0739
珠	-9.07511
分为	-9.07521
化工	-9.07551
於	-9.07636
战争	-9.07673
400	-9.07758
价格	-9.07843
▁2.	-9.07852
致力于	-9.08089
地质	-9.08113
陶	-9.0822
称为	-9.08257
亭	-9.08326
关于	-9.08444
洗	-9.08461
换	-9.08482
任务	-9.08516
课题	-9.0854
1993年	-9.08558
连接	-9.08605
扬	-9.08692
浙江省	-9.08714
针	-9.08747
父	-9.08927
决定	-9.09032
先后	-9.09119
重庆	-9.09455
为主	-9.09571
>	-9.09598
监督	-9.09644
刺	-9.09645
巨	-9.09733
浅	-9.09765
代理	-9.09858
增加	-9.09882
商品	-9.09966
。其	-9.09985
创建	-9.09986
莫	-9.10137
益	-9.10323
变化	-9.10438
韩	-9.10555
十分	-9.10577
行为	-9.1087
1992年	-9.10894
丰富	-9.10925
反应	-9.10995
现任	-9.11113
适合	-9.11155
公里	-9.11256
疾病	-9.11303
叫	-9.11354
48	-9.11458
湿	-9.11569
2001年	-9.11585
北京市	-9.11596
配套	-9.11606
助	-9.11633
2003年	-9.11718
形象	-9.11748
亮	-9.11773
神经	-9.11794
严	-9.12106
锅	-9.12223
曼	-9.12367
倍	-9.12432
重大	-9.12453
碑	-9.12592
广泛	-9.12597
荣获	-9.12604
上海市	-9.12606
攻	-9.1271
传播	-9.12729
左右	-9.12753
许多	-9.12879
创造	-9.12944
1个	-9.13007
劳动	-9.1303
数字	-9.13189
遗	-9.13201
广场	-9.13207
壳	-9.13241
,又	-9.1327
的重要	-9.13284
快速	-9.13293
淡	-9.13324
成绩	-9.13402
群众	-9.13419
凉	-9.13446
云南	-9.13446
统计	-9.13464
三个	-9.1355
坡	-9.13603
地处	-9.13673
资	-9.13679
汁	-9.13742
弱	-9.13841
锦	-9.13962
姜	-9.13992
保证	-9.13997
岗	-9.14003
隔	-9.14027
保持	-9.14248
娱乐	-9.14272
最佳	-9.14302
乘	-9.14305
1994年	-9.14328
穿	-9.1434
物流	-9.14354
薄	-9.14363
止	-9.1439
赤	-9.14396
表示	-9.14417
伦	-9.14477
透	-9.14502
考试	-9.14513
输出	-9.14527
麦	-9.14599
=	-9.14628
以来	-9.14693
深圳	-9.14766
手机	-9.14777
2005年	-9.1478
受到	-9.14787
殿	-9.14934
数学	-9.14983
特别	-9.15159
润	-9.1516
媒体	-9.1524
书画	-9.15261
物理	-9.15274
下,	-9.15281
福建	-9.15328
必须	-9.15392
设置	-9.15538
提升	-9.15538
演员	-9.15545
平均	-9.15561
韩国	-9.15593
泡	-9.15613
简	-9.15618
劳	-9.15657
放入	-9.15675
众多	-9.15686
稳定	-9.15704
份	-9.15717
期间	-9.15819
迷	-9.15859
凡	-9.15895
刊	-9.16087
实验室	-9.16177
停	-9.16187
村委会	-9.16194
欧洲	-9.16203
运输	-9.16304
解决	-9.16311
分布	-9.16327
斑	-9.1633
,也	-9.16338
鼓	-9.16369
示	-9.16429
当时	-9.16451
河南省	-9.16639
2002年	-9.16673
或者	-9.16679
毕业	-9.16888
杰	-9.16998
,故	-9.1701
状态	-9.17024
没	-9.17032
训练	-9.17126
谓	-9.17207
恶	-9.17275
来自	-9.17282
唱	-9.17424
整个	-9.17429
砂	-9.17447
灰	-9.17496
桂	-9.1753
按照	-9.17605
磨	-9.17687
万元,	-9.1779
多个	-9.17792
第四	-9.1781
福建省	-9.17828
肠	-9.17836
魔	-9.17896
森	-9.179
苗	-9.17915
继	-9.18049
收藏	-9.18052
党员	-9.18054
戏	-9.18057
幼	-9.18137
居民	-9.1818
00	-9.18286
资金	-9.18293
饰	-9.18375
移动	-9.1846
二十	-9.18492
核心	-9.18509
物质	-9.18515
皆	-9.18529
大小	-9.1864
一条	-9.18652
摄影	-9.18664
煮	-9.18664
吸	-9.18683
效	-9.1874
保险	-9.18815
江西	-9.18822
制定	-9.18859
民间	-9.18863
一起	-9.18875
算	-9.18878
智能	-9.18902
议	-9.18952
通信	-9.19052
优势	-9.19121
害	-9.1915
顾问	-9.19162
安徽省	-9.19167
坐	-9.19173
2012年	-9.19231
偏	-9.19321
,同时	-9.19332
生命	-9.19369
尊	-9.1944
甘	-9.19489
乱	-9.19582
册	-9.19587
米,	-9.19652
任何	-9.19661
38	-9.19714
姆	-9.19729
主义	-9.19766
贸易	-9.19773
喷	-9.19999
泽	-9.20012
加强	-9.20061
高速	-9.20132
取得	-9.20146
自由	-9.20162
丰富的	-9.20347
插	-9.20385
当地	-9.20387
甜	-9.20451
对于	-9.20613
测试	-9.20632
未来	-9.20644
示范	-9.20693
广大	-9.20739
闻	-9.20765
1985年	-9.20849
硬	-9.20887
提出	-9.20944
坚持	-9.20945
超过	-9.2095
坝	-9.20984
因为	-9.21048
高中	-9.21056
冠	-9.2112
先进的	-9.21194
还有	-9.21293
敌	-9.21401
枪	-9.21419
县城	-9.21433
发布	-9.21481
晚	-9.215
负	-9.21507
典	-9.21566
岸	-9.21594
粘	-9.21621
计算	-9.2175
规定	-9.21755
始	-9.21764
欲	-9.21855
喜欢	-9.21858
一级	-9.21923
研	-9.21923
靠	-9.21924
明显	-9.21983
且	-9.22049
电源	-9.22049
屏	-9.22108
’	-9.22124
33	-9.22135
旅	-9.22167
城区	-9.22298
幅	-9.22321
,具有	-9.22349
诚	-9.22358
-1	-9.22392
裂	-9.22408
其它	-9.2246
仍	-9.22547
特殊	-9.22621
紧	-9.22635
尺寸	-9.2265
2004年	-9.22801
还是	-9.22831
整体	-9.22839
需求	-9.22875
主席	-9.2288
公共	-9.2295
内部	-9.23025
技能	-9.23065
读者	-9.23144
湖北省	-9.2315
生长	-9.23192
销	-9.23253
特点	-9.23262
190	-9.23317
疏	-9.23362
旗	-9.23364
请	-9.23396
煤	-9.23418
测量	-9.23422
1988年	-9.23433
完	-9.23446
臣	-9.23452
一定	-9.23453
沉	-9.23475
°	-9.23568
粗	-9.23748
暗	-9.23771
杜	-9.23774
贴	-9.23805
以下	-9.23869
类型:	-9.23871
会计	-9.23905
存在	-9.23929
忠	-9.23957
救	-9.23977
31	-9.24084
滑	-9.24098
调查	-9.24205
起来	-9.24333
营养	-9.24385
协调	-9.24507
废	-9.24516
隐	-9.2467
完善	-9.24678
谈	-9.24719
》。	-9.2474
邻	-9.24752
输入	-9.2478
孩子	-9.24812
移	-9.24833
杂志	-9.24937
维护	-9.24994
模	-9.24998
频	-9.25014
道路	-9.25081
炉	-9.25089
很多	-9.25216
津	-9.25319
师范大学	-9.25361
育	-9.25399
争	-9.25416
武汉	-9.25468
屏幕	-9.25474
,与	-9.25619
压力	-9.25645
电话	-9.25679
如何	-9.2569
诚信	-9.25695
▁1	-9.25725
1990年	-9.25733
白色	-9.25741
浪	-9.25918
山区	-9.26085
2011年	-9.26142
了解	-9.26161
运用	-9.26257
之后	-9.2631
杭州	-9.26409
十二	-9.2646
谱	-9.2653
公里,	-9.26533
研制	-9.26541
外科	-9.26585
当代	-9.26733
湖南省	-9.26867
适应	-9.26954
私	-9.26975
雕	-9.27107
》是	-9.27135
成长	-9.27145
高校	-9.27195
浮	-9.27233
检	-9.27351
调整	-9.27364
现在	-9.27377
郎	-9.27422
规格	-9.27531
曰	-9.27558
1.	-9.2759
浦	-9.27601
参数	-9.27719
山西	-9.27747
羽	-9.27859
75	-9.27898
节目	-9.28047
赴	-9.28089
办公	-9.28126
联系	-9.28137
莲	-9.28154
魏	-9.28169
海拔	-9.28256
装置	-9.28359
为“	-9.28404
不同的	-9.28434
队伍	-9.28491
高度	-9.28494
分钟	-9.28538
陕西	-9.28585
肝	-9.28643
积	-9.28649
平方米,	-9.28666
1986年	-9.28717
相对	-9.28755
惊	-9.28767
简单	-9.28775
寨	-9.28801
宇	-9.2881
职工	-9.28813
一切	-9.28845
跨	-9.28854
协	-9.28868
街道	-9.2893
▁1.	-9.28934
似	-9.28935
有机	-9.28971
制品	-9.28978
堡	-9.28989
残	-9.29066
胸	-9.29124
1987年	-9.29128
茎	-9.29206
,所以	-9.2922
37	-9.29298
票	-9.29308
组合	-9.29321
炮	-9.29394
的研究	-9.29471
流行	-9.29472
34	-9.29513
玻璃	-9.29531
景观	-9.29706
挂	-9.2972
07	-9.29741
基金	-9.29817
贤	-9.29944
,用	-9.29959
、中国	-9.30035
有着	-9.30134
博物馆	-9.30175
辛	-9.30266
购	-9.30299
刚	-9.30302
阀	-9.30309
过程中	-9.3038
辞	-9.30504
突出	-9.30513
亿	-9.30534
成本	-9.30535
保健	-9.30592
,以及	-9.30629
坚	-9.30689
著作	-9.30907
免费	-9.30957
结果	-9.30973
..	-9.31072
哲学	-9.31161
科技有限公司	-9.31418
责任	-9.31446
方案	-9.31452
名。	-9.31477
(今	-9.31748
恒	-9.31788
启	-9.31895
统	-9.31955
郡	-9.31962
态	-9.31985
创办	-9.31996
限	-9.31999
总面积	-9.32052
64	-9.3206
什么	-9.32097
玄	-9.32109
出口	-9.32187
装备	-9.3221
比赛	-9.32239
建筑面积	-9.32275
天然	-9.32306
通常	-9.32391
幕	-9.32424
服装	-9.32448
保障	-9.32584
据	-9.32607
建成	-9.32649
文艺	-9.32659
研究生	-9.32725
楚	-9.32757
桃	-9.32835
1984年	-9.32934
一年	-9.32978
65	-9.33004
籍	-9.33057
牙	-9.33069
谢	-9.33072
户,	-9.33168
...	-9.33226
材	-9.33238
知名	-9.33247
浆	-9.33278
1989年	-9.33286
祥	-9.33299
振	-9.33555
1991年	-9.33611
原料	-9.33633
古代	-9.33729
1.5	-9.33753
歌曲	-9.33765
》《	-9.33768
急	-9.33803
理念	-9.3381
为一体的	-9.33836
燕	-9.33903
部队	-9.34141
全村	-9.34142
合理	-9.34165
享受	-9.34169
引进	-9.34177
创业	-9.34193
零	-9.3428
主题	-9.3442
1982年	-9.34505
颜色	-9.34554
检验	-9.34655
55	-9.34778
河北省	-9.34801
纤维	-9.34807
演出	-9.34829
瓜	-9.34843
以来,	-9.34868
经典	-9.34933
,主要	-9.3509
报告	-9.35157
勤	-9.35189
军事	-9.35218
既	-9.35298
,再	-9.35338
只有	-9.35368
名称	-9.354
新的	-9.35409
者,	-9.35492
徒	-9.355
确定	-9.35594
实用	-9.35783
);	-9.35927
卖	-9.35996
成都	-9.36009
朗	-9.36011
医药	-9.36031
编写	-9.36067
拜	-9.36152
信号	-9.3617
艾	-9.36244
净	-9.36266
即可	-9.36279
胃	-9.36308
,也是	-9.36406
,公司	-9.36497
98	-9.36497
红色	-9.36524
公斤	-9.36564
大量	-9.3658
追求	-9.36604
,被	-9.36648
灭	-9.36693
和谐	-9.36699
评价	-9.36828
辖	-9.36855
招	-9.37007
季	-9.37099
一等奖	-9.37135
伏	-9.37155
吨	-9.37165
,可以	-9.37168
肾	-9.37213
每个	-9.37229
文字	-9.37234
识	-9.37254
乙	-9.3729
舍	-9.37309
的主要	-9.37316
,后	-9.37338
庭	-9.37378
原理	-9.3742
三年	-9.37502
实力	-9.37555
分子	-9.376
东方	-9.37606
上,	-9.37639
▁2	-9.37695
力量	-9.37706
记录	-9.37751
掌	-9.37878
氧	-9.3812
消费者	-9.3813
齿	-9.38266
检查	-9.38271
错	-9.38334
表演	-9.38351
本科	-9.38549
不仅	-9.38586
境内	-9.38586
摩	-9.38625
新疆	-9.38649
继续	-9.38655
举办	-9.38688
壮	-9.38702
页	-9.38737
不是	-9.38756
接受	-9.38757
进一步	-9.38787
划	-9.3879
特性	-9.38808
互联网	-9.38841
玩	-9.38905
西部	-9.38941
穗	-9.38991
集中	-9.39063
<	-9.39191
黑色	-9.39215
数量	-9.39225
姓	-9.39251
描述	-9.3926
播	-9.39274
二等奖	-9.3929
鼎	-9.39292
岳	-9.3933
现象	-9.3934
意大利	-9.39355
全县	-9.39367
屋	-9.39388
顿	-9.39414
运营	-9.39417
心理	-9.39425
。它	-9.39463
现代化	-9.39532
导演	-9.39691
株	-9.39731
杆	-9.39784
径	-9.39805
参考	-9.39815
尘	-9.39847
希	-9.3985
调节	-9.39868
豪	-9.39873
英文	-9.39887
患者	-9.3989
东南	-9.39895
休闲	-9.39936
笑	-9.39949
▁2、	-9.39984
财政	-9.40016
免	-9.40072
兽	-9.40093
愿	-9.40188
更加	-9.40275
主编	-9.40385
希望	-9.40386
消	-9.40388
是在	-9.4039
阁	-9.40517
袋	-9.40584
财务	-9.40673
汉族	-9.4072
建立了	-9.40767
硕士	-9.40816
审	-9.40829
厘米,	-9.4083
郭	-9.40836
范	-9.40854
改变	-9.40862
餐	-9.40867
专用	-9.4091
,这	-9.40915
皮肤	-9.40949
1983年	-9.40977
等地	-9.40993
手术	-9.41026
婚	-9.41066
提供了	-9.41093
▁在	-9.41131
缺	-9.41213
适	-9.41244
需	-9.41284
通讯	-9.41319
腰	-9.41328
,而且	-9.41333
震	-9.4135
42	-9.41437
不可	-9.41524
女性	-9.41525
翻	-9.41552
西安	-9.41554
股份有限公司	-9.4156
韵	-9.4156
著名的	-9.41648
,成为	-9.41655
戴	-9.41681
石油	-9.41735
孝	-9.41737
玉米	-9.4182
进行了	-9.41868
设计、	-9.41891
琴	-9.41944
地理	-9.41948
技	-9.42012
阶段	-9.42025
色彩	-9.42073
实行	-9.42078
位置	-9.42157
中文	-9.42321
宏	-9.42451
仪器	-9.42465
小区	-9.4247
构成	-9.42506
迅速	-9.42551
宿	-9.42608
充	-9.42619
适用于	-9.42763
地震	-9.42778
奉	-9.42824
觉	-9.42867
蛋	-9.42904
秒	-9.42913
推动	-9.42942
人民政府	-9.42945
办学	-9.4298
服务。	-9.43089
凯	-9.43192
2.5	-9.43211
,让	-9.43213
泵	-9.43218
适量	-9.43227
年)	-9.43287
深入	-9.43357
存储	-9.43365
玛	-9.43379
湘	-9.43422
侯	-9.43453
囊	-9.43492
年代	-9.4359
研究员	-9.43602
组建	-9.43665
39	-9.43666
药物	-9.43679
幼儿园	-9.43727
主任	-9.43734
财	-9.43763
。现任	-9.4377
全市	-9.43838
《中国	-9.43853
人生	-9.43866
机场	-9.43907
肺	-9.43946
居住	-9.43968
正常	-9.44094
资产	-9.44138
对象	-9.4415
‘	-9.44187
人士	-9.44228
健	-9.44231
又称	-9.44244
展示	-9.44306
3个	-9.44397
感染	-9.44464
程度	-9.44567
曹	-9.44605
探	-9.44607
引起	-9.44617
蒸	-9.44718
犹	-9.44742
策划	-9.44779
花园	-9.44897
男,	-9.4492
旁	-9.44947
配置	-9.45014
机、	-9.45054
维修	-9.45076
▁3.	-9.45154
桑	-9.45159
混	-9.45222
某	-9.45231
焦	-9.4524
精品	-9.45282
朋友	-9.45352
遇	-9.45363
铺	-9.4552
须	-9.45559
突	-9.4561
图书	-9.45625
充分	-9.4568
事件	-9.45697
氧化	-9.45755
消费	-9.45801
纲	-9.45803
敬	-9.45832
碎	-9.45913
涂	-9.45996
融	-9.46007
习	-9.4604
是中国	-9.46043
研究院	-9.46091
空气	-9.46125
息	-9.46208
拍摄	-9.46217
150	-9.46243
鉴定	-9.46304
内置	-9.46494
翅	-9.46546
繁	-9.46596
44	-9.46604
念	-9.46636
的专业	-9.46673
脂	-9.46728
监	-9.46857
磁	-9.46913
掌握	-9.47109
专业的	-9.47117
终	-9.47187
专门	-9.47297
动画	-9.47547
诊断	-9.47626
借	-9.47629
乃	-9.47674
(18	-9.4775
降低	-9.47902
阻	-9.47915
战斗	-9.47931
深圳市	-9.47989
影视	-9.48046
漫画	-9.48076
天下	-9.48094
2个	-9.48114
始建于	-9.48307
高效	-9.48336
之间的	-9.48342
纵	-9.48376
推进	-9.48515
人体	-9.4852
因此	-9.48661
唯一	-9.48719
栋	-9.48725
稍	-9.48752
如果	-9.48778
潜	-9.48838
一样	-9.48908
鼻	-9.48911
,从而	-9.49094
赞	-9.491
告	-9.49176
,因此	-9.49184
性的	-9.49215
最后	-9.49221
关注	-9.49278
46	-9.49279
大赛	-9.49286
葱	-9.49303
瓶	-9.49323
面向	-9.49579
覆盖	-9.49634
符合	-9.49663
具体	-9.4967
'	-9.49701
东西	-9.49725
举行	-9.49772
自动化	-9.49858
拍	-9.49864
海洋	-9.49881
塑料	-9.49886
周边	-9.49963
定位	-9.50083
航空	-9.50101
禁	-9.50115
码	-9.50124
正在	-9.50316
英寸	-9.50318
餐饮	-9.50399
防治	-9.50516
纪念	-9.50579
坊	-9.50632
渡	-9.50665
身体	-9.50689
43	-9.50779
学历	-9.50918
2.0	-9.50944
,拥有	-9.50945
亡	-9.50954
设立	-9.50992
涉及	-9.51013
链	-9.51038
针对	-9.51061
江西省	-9.51093
重量	-9.51114
分类	-9.51212
改善	-9.5129
准	-9.51333
占地	-9.51379
重要的	-9.51396
格式	-9.51418
含量	-9.51494
校长	-9.51529
室内	-9.51611
场所	-9.51617
哥	-9.51707
芯片	-9.51747
共有	-9.51759
印度	-9.51767
附近	-9.51815
二级	-9.51857
整合	-9.51899
评为	-9.52016
寻	-9.52071
鬼	-9.52213
名,	-9.5237
铝	-9.52412
「	-9.52427
,通过	-9.52434
鸣	-9.52501
」	-9.52521
120	-9.52522
,包括	-9.52544
68	-9.52575
荷	-9.5258
3000	-9.52686
参加了	-9.52722
邦	-9.52758
肿瘤	-9.52783
亚洲	-9.5282
就业	-9.52855
址	-9.52871
植	-9.529
攻击	-9.529
买	-9.52915
探索	-9.52915
效率	-9.52976
跟	-9.53062
坪	-9.5313
意义	-9.53167
盟	-9.53198
产品的	-9.53251
多年来	-9.53267
苏州	-9.53269
印刷	-9.53307
漆	-9.53319
律	-9.53328
占地面积	-9.53363
妙	-9.53438
淮	-9.53445
山西省	-9.53547
4个	-9.53611
动力	-9.53652
工程师	-9.53683
有限责任公司	-9.53735
批	-9.53764
滚	-9.5379
5%	-9.53794
平方公里,	-9.53903
注重	-9.53905
衰	-9.54078
每年	-9.5411
减少	-9.54141
-2	-9.54193
投入	-9.542
两种	-9.54226
茂	-9.54237
翼	-9.5424
电池	-9.54301
机制	-9.54338
▁1、	-9.54357
学者	-9.54376
66	-9.54423
地下	-9.54469
持续	-9.54488
黄色	-9.54497
赫	-9.54528
,该	-9.54615
嫩	-9.54643
序	-9.54699
毫米	-9.54786
第五	-9.5481
都有	-9.54829
第1	-9.54856
锁	-9.54894
发展的	-9.54897
怪	-9.54919
开放	-9.54959
恢复	-9.54968
贡献	-9.54989
蒂	-9.5499
增强	-9.55137
俄罗斯	-9.55161
卢	-9.55248
辉	-9.55261
多家	-9.55266
螺	-9.55275
勇	-9.55303
丸	-9.55333
南部	-9.55334
称号	-9.55552
牧	-9.55598
文章	-9.55598
在中国	-9.55638
团体	-9.5565
图书馆	-9.55651
以“	-9.55799
际	-9.55991
崇	-9.5602
老师	-9.56042
具备	-9.56074
稿	-9.56094
村民	-9.56142
弗	-9.56174
陕西省	-9.56244
0.5	-9.56389
旋	-9.5648
1958年	-9.56491
99	-9.56554
鞋	-9.56593
重庆市	-9.56595
吸收	-9.56627
砖	-9.56649
竞争	-9.56671
独特的	-9.56674
及时	-9.5669
炸	-9.56704
高速公路	-9.56711
也有	-9.56728
,任	-9.5679
肌	-9.56799
委员	-9.56857
练	-9.56878
国外	-9.56902
动态	-9.56922
强度	-9.56937
晓	-9.56963
56	-9.56969
49	-9.56999
闪	-9.57086
晶	-9.57147
训	-9.57164
扎	-9.57185
阅读	-9.57233
医学院	-9.57252
住宅	-9.57328
满意	-9.57336
虽	-9.57377
注意	-9.57397
47	-9.57402
新型	-9.57421
棉	-9.57474
手段	-9.57538
文物	-9.57558
饭	-9.57626
解放	-9.57668
持	-9.57726
人文	-9.57728
枚	-9.57757
域	-9.57764
逐渐	-9.57771
甚	-9.57783
罪	-9.578
先进单位	-9.57808
谋	-9.58038
御	-9.58047
显卡	-9.58056
公安	-9.5807
是以	-9.58125
建议	-9.58157
顾	-9.58218
大道	-9.58239
仓	-9.58244
夹	-9.58304
将军	-9.58368
,因	-9.58387
腔	-9.58407
宾	-9.58492
烈	-9.585
大家	-9.58578
玩家	-9.58686
孟	-9.5874
丘	-9.58763
民国	-9.58847
授	-9.58854
青岛	-9.58959
经常	-9.59009
改造	-9.59079
部、	-9.59083
芳	-9.59119
科学技术	-9.59123
角色	-9.59188
坛	-9.59202
童	-9.59208
的人	-9.59253
展览	-9.59277
锡	-9.59334
三等奖	-9.59337
显著	-9.59392
斜	-9.59409
素质	-9.59453
主要从事	-9.5961
,男,汉族,	-9.59731
同志	-9.59733
电子商务	-9.5974
这样	-9.59761
取得了	-9.59807
授予	-9.59821
吧	-9.59826
始终	-9.59868
拿	-9.59901
58	-9.59915
歌手	-9.5993
固定	-9.59953
滨	-9.59958
证书	-9.59961
赋	-9.59963
造成	-9.60072
,距	-9.60123
柏	-9.60139
阵	-9.60199
工厂	-9.60214
无法	-9.60261
公开	-9.60267
一座	-9.60317
爱情	-9.6032
俗	-9.60407
遗址	-9.60521
坐落于	-9.60562
全省	-9.60568
背景	-9.6057
简称	-9.60575
,每	-9.60601
地位	-9.60611
填	-9.60613
室、	-9.60642
论坛	-9.60658
北部	-9.6069
绵	-9.6077
等级	-9.6084
混合	-9.60858
各项	-9.60966
集成	-9.61017
3年	-9.61026
掉	-9.61043
舰	-9.61058
指挥	-9.61138
,曾	-9.61244
周围	-9.61302
舞蹈	-9.6132
造型	-9.61379
-19	-9.61406
柔	-9.61444
欢迎	-9.61447
癌	-9.61577
跳	-9.61713
充满	-9.6175
,我们	-9.61757
南北	-9.6178
森林	-9.61872
它们	-9.61883
(),	-9.61919
体验	-9.6195
▁3	-9.61953
到了	-9.61984
舒适	-9.6199
续	-9.62058
翻译	-9.62096
▁3、	-9.62157
频率	-9.62189
饮	-9.62208
冠军	-9.62261
节能	-9.62269
电压	-9.6229
国务院	-9.62305
长江	-9.62326
良好	-9.62407
配合	-9.62447
编制	-9.62474
现场	-9.62555
创建于	-9.62602
音频	-9.62604
,现	-9.62773
房地产	-9.62834
资格	-9.6289
办理	-9.62896
随着	-9.63156
塑	-9.63195
电器	-9.63214
苑	-9.63236
经济学	-9.63264
市政府	-9.63292
沈	-9.63319
水利	-9.63338
入选	-9.63342
酷	-9.63354
装修	-9.6345
寄	-9.63455
诗人	-9.63467
溶	-9.63473
合成	-9.63527
▁:	-9.63564
鸭	-9.63652
2003	-9.63667
轴承	-9.63723
措施	-9.63742
幽	-9.63744
历任	-9.63754
预防	-9.6376
进口	-9.63789
它的	-9.63804
工作的	-9.63827
直径	-9.63842
旺	-9.63848
鹿	-9.63916
5年	-9.63935
中间	-9.63948
蔬菜	-9.6395
副教授	-9.63998
洁	-9.64025
各个	-9.64153
刑	-9.64236
付	-9.64246
辽	-9.64253
发挥	-9.64288
循环	-9.64316
颜	-9.64328
一流的	-9.64367
容量	-9.64388
署	-9.64421
专利	-9.64465
能源	-9.64488
僧	-9.64488
养殖	-9.64489
,然后	-9.64536
2013年	-9.64559
革	-9.64636
档案	-9.64647
1980年	-9.64666
解决方案	-9.64747
成熟	-9.64752
客房	-9.6478
该村	-9.64876
平方公里	-9.64877
尺	-9.64886
元素	-9.64951
廉	-9.64953
父亲	-9.64961
52	-9.64992
大师	-9.65004
1978年	-9.65029
处于	-9.65036
好的	-9.65055
的历史	-9.65055
窑	-9.65094
陶瓷	-9.65264
画家	-9.65275
基于	-9.65277
研究中心	-9.65305
推出	-9.65345
粮	-9.65354
用品	-9.65447
吕	-9.65516
团结	-9.65521
市级	-9.6555
,现任	-9.6566
方面的	-9.6567
军区	-9.65703
86	-9.65739
曾任	-9.65739
合同	-9.65783
的产品	-9.65816
粮食	-9.65841
为主,	-9.65904
内蒙古	-9.66026
触	-9.66095
传说	-9.66096
联盟	-9.66193
,则	-9.66204
荣誉	-9.66206
剪	-9.66214
优化	-9.66228
人事	-9.66296
参加工作	-9.66378
地球	-9.66461
独特	-9.66485
的小	-9.66553
蔡	-9.6658
奶	-9.6659
严重	-9.6666
经理	-9.66705
1981年	-9.6673
虽然	-9.66748
筒	-9.66753
患	-9.66754
民主	-9.66779
原则	-9.66787
仲	-9.66832
专辑	-9.66843
增长	-9.66857
嘴	-9.66878
目的	-9.66882
珍	-9.66896
76	-9.66925
键	-9.67047
释	-9.67138
苍	-9.67175
形态	-9.67176
除了	-9.67199
逃	-9.67239
昭	-9.6726
滩	-9.67318
酱	-9.6738
。主要	-9.675
多项	-9.67541
85	-9.67544
贵州	-9.67631
污染	-9.67645
鸿	-9.67667
,并且	-9.67694
辽宁省	-9.67728
所以	-9.67826
碧	-9.67901
足球	-9.67952
疑	-9.67967
伴	-9.6806
2.	-9.68137
食用	-9.68141
献	-9.68151
抽	-9.68181
才能	-9.68246
拔	-9.68263
购物	-9.68318
妇	-9.68335
:2	-9.68381
95	-9.68436
建于	-9.68452
巧	-9.6852
女子	-9.68537
电气	-9.68572
戏剧	-9.68578
最新	-9.68617
煎	-9.6875
钻	-9.68769
54	-9.68792
景区	-9.68817
真实	-9.68835
荒	-9.68848
内存	-9.68873
不会	-9.68891
曾经	-9.68926
碗	-9.69002
的基本	-9.69025
概念	-9.69079
000	-9.6912
解释	-9.69194
辅	-9.69243
700	-9.69278
性质	-9.69307
鹤	-9.69348
不锈钢	-9.69409
中共党员	-9.69478
伟	-9.69481
栽培	-9.69505
因素	-9.6953
教育部	-9.69641
导致	-9.69646
管理、	-9.69683
监测	-9.69774
腾	-9.6978
十一	-9.69794
接触	-9.69817
成就	-9.69855
说明	-9.69898
人数	-9.69914
恋	-9.69942
秘书	-9.69982
委员会委员	-9.70008
协助	-9.70026
成分	-9.7011
的地方	-9.70188
审计	-9.70193
模型	-9.70207
旗下	-9.70275
响	-9.70334
一项	-9.70335
胆	-9.70422
主体	-9.7043
蛇	-9.70529
1979年	-9.70546
肿	-9.70546
盒	-9.70754
2008	-9.70797
浓	-9.70846
败	-9.70914
的服务	-9.70929
胎	-9.70956
酶	-9.70971
宾馆	-9.71122
院校	-9.71147
任教	-9.71165
硅	-9.71175
于一体的	-9.71202
重新	-9.71206
,自	-9.71225
5-	-9.71229
帮	-9.71269
十年	-9.71285
美容	-9.71289
详细	-9.71298
切成	-9.71358
对外	-9.71381
图片	-9.71383
首届	-9.7139
谁	-9.71394
有一	-9.71406
记载	-9.71413
这里	-9.71464
辽宁	-9.71575
中部	-9.716
肩	-9.71626
喜爱	-9.7164
察	-9.71693
褐色	-9.71702
而不	-9.71731
》中	-9.71821
风险	-9.71829
园林	-9.71897
穴	-9.71919
准备	-9.71942
访	-9.71954
介绍了	-9.71976
抓	-9.71982
耕地面积	-9.71999
2006	-9.72002
市区	-9.72023
帕	-9.72074
产品质量	-9.72083
配件	-9.72141
职务	-9.72181
耕地	-9.72223
复合	-9.72233
密度	-9.72357
暖	-9.72366
,北	-9.72433
染	-9.72486
完善的	-9.72529
述	-9.7254
城镇	-9.72554
获奖	-9.72576
自身	-9.72604
我们的	-9.72662
大陆	-9.72686
尿	-9.72725
霍	-9.72749
宗教	-9.72778
指标	-9.72791
,她	-9.72845
意识	-9.72862
公里。	-9.72868
佛教	-9.7287
避	-9.72872
呼	-9.72937
蛋白	-9.7299
登记	-9.73015
损	-9.73039
。由于	-9.73094
。学校	-9.73122
72	-9.73147
进步	-9.73198
铭	-9.73222
闭	-9.73244
1956年	-9.73279
虾	-9.73292
柜	-9.73319
平衡	-9.73355
垂	-9.73395
顾客	-9.73411
窗	-9.73425
少年	-9.73428
舒	-9.73512
评估	-9.73602
申请	-9.7366
险	-9.73713
迎	-9.73763
咸	-9.73798
扩展	-9.73816
电视台	-9.73835
拳	-9.7386
早期	-9.7388
严格	-9.73974
稀	-9.73989
53	-9.74007
88	-9.7407
认识	-9.74148
看到	-9.74154
层次	-9.74162
”等	-9.74192
迈	-9.74249
大学生	-9.7425
主管	-9.74292
气候	-9.74296
菲	-9.74305
(1	-9.74373
碳	-9.74437
龄	-9.74474
的新	-9.74568
保存	-9.74598
赏	-9.74724
96	-9.74726
休	-9.74763
妇女	-9.74807
在此	-9.74847
5000	-9.74902
出了	-9.75009
功效	-9.75017
互	-9.75024
也。”	-9.75037
沃	-9.75064
模拟	-9.75155
67	-9.7516
淋	-9.7516
决	-9.75178
尤	-9.75252
文献	-9.7528
醇	-9.75384
鼠	-9.75432
年轻	-9.75441
副主席	-9.75499
家具	-9.75522
蒜	-9.75523
办法	-9.75576
63	-9.75611
0.0	-9.7562
一家	-9.75636
另外	-9.7565
社会主义	-9.75656
灌	-9.75902
以后	-9.75902
动作	-9.75995
腿	-9.76015
收录	-9.76039
自我	-9.76111
黎	-9.76122
讲师	-9.76155
相当	-9.76162
斗争	-9.76192
餐厅	-9.7623
黄金	-9.76254
1-	-9.76412
偶	-9.76419
斋	-9.76433
,获	-9.76442
沈阳	-9.76475
空调	-9.76576
伍	-9.76615
意见	-9.76618
屯	-9.76619
曾在	-9.76633
资本	-9.76634
信誉	-9.76637
工商	-9.76667
敏	-9.76745
忘	-9.7676
企	-9.76769
.12	-9.76799
淀粉	-9.76811
铸	-9.76855
奏	-9.76888
天津市	-9.76904
稻	-9.76978
水泥	-9.76986
监控	-9.76995
,无	-9.7709
3.5	-9.77115
战士	-9.7722
霞	-9.77287
你的	-9.77296
逆	-9.77298
藤	-9.7731
97	-9.77325
又名	-9.77359
依据	-9.77365
含有	-9.77377
申	-9.77391
红军	-9.77432
人工	-9.77432
功率	-9.77467
。这	-9.775
秘	-9.77565
盆	-9.77573
豪华	-9.77597
所谓	-9.77641
加拿大	-9.77662
英雄	-9.77699
,一	-9.777
儒	-9.7771
芽	-9.77757
卵	-9.77789
创意	-9.77835
等方面	-9.77875
种类	-9.77897
辐射	-9.77921
海南	-9.77933
稳	-9.7796
权威	-9.77962
数码	-9.77965
趣	-9.77981
最早	-9.78031
,但是	-9.78034
是否	-9.78034
助理	-9.78044
1963年	-9.78086
坐落在	-9.78187
少许	-9.78217
基因	-9.78239
乡村	-9.78246
2007	-9.78283
医科大学	-9.78351
闽	-9.7838
万吨	-9.78421
长,	-9.78454
推荐	-9.7847
东部	-9.78517
94	-9.78646
4年	-9.78716
现实	-9.78753
”为	-9.78771
在线	-9.7882
所属	-9.78823
,还	-9.78826
撰写	-9.78849
多媒体	-9.78896
邮	-9.78899
四个	-9.78924
绘	-9.78926
饼	-9.78943
太阳	-9.78978
只是	-9.79088
万平方米	-9.79227
)是	-9.79237
凭借	-9.79284
俱乐部	-9.79301
时间:	-9.79314
科、	-9.79317
反映	-9.79358
77	-9.7945
颈	-9.79471
翠	-9.79484
离子	-9.79547
五年	-9.79629
国民党	-9.79637
云南省	-9.79654
的影响	-9.79698
均匀	-9.7989
柄	-9.79926
产量	-9.79929
1年	-9.79952
协议	-9.79966
一流	-9.79972
。此	-9.80028
网上	-9.80028
。其中	-9.80052
各级	-9.80071
抱	-9.80186
织	-9.80201
准确	-9.80213
-3	-9.80242
园区	-9.80261
版本	-9.80393
比例	-9.804
兼任	-9.80409
学家	-9.80414
广播	-9.8049
报道	-9.80496
炼	-9.80516
瓷	-9.80542
处理器	-9.80542
血管	-9.80544
系统的	-9.80637
郊	-9.80647
定义	-9.80705
行动	-9.8076
跑	-9.80857
十五	-9.80976
逐步	-9.81148
信息化	-9.81154
本品	-9.81323
滴	-9.81343
容易	-9.81359
依托	-9.81386
疗	-9.81406
包含	-9.81433
司法	-9.81446
都市	-9.81469
1964年	-9.8151
2010	-9.81536
广州市	-9.81546
下设	-9.81548
渔	-9.81654
的生活	-9.81671
执	-9.81672
首次	-9.81726
进修	-9.81763
,就	-9.81781
毁	-9.81919
传》:“	-9.81962
缝	-9.82
串	-9.82046
传媒	-9.82065
亩。	-9.82077
朵	-9.82103
分会	-9.82107
真正	-9.82126
标志	-9.82143
漫	-9.82151
犯	-9.82175
担	-9.82223
依法	-9.82226
厦门	-9.82228
匙	-9.82265
碱	-9.82323
俊	-9.82324
6个	-9.82332
表达	-9.82389
教授,	-9.8239
播放	-9.82392
大队	-9.82403
内科	-9.82431
开设	-9.8244
卿	-9.82473
佐	-9.82543
初中	-9.82568
车辆	-9.82621
遂	-9.82624
宗旨	-9.82648
的《	-9.82671
武器	-9.82693
破坏	-9.82698
扩大	-9.82841
用来	-9.82868
大部分	-9.82918
共享	-9.82936
翔	-9.82958
,把	-9.82988
貌	-9.83039
齐全	-9.83054
更名为	-9.83055
疾	-9.83084
做好	-9.83137
禅	-9.83193
是一家	-9.83228
党委书记	-9.8327
生产线	-9.83285
41	-9.83291
贡	-9.83293
雾	-9.83326
水库	-9.83342
孤	-9.83343
无线	-9.83397
拨	-9.83415
斯特	-9.83444
坑	-9.83467
艺术家	-9.83481
8年	-9.83538
乔	-9.83543
贾	-9.83554
效益	-9.8358
,女,	-9.83683
伪	-9.83713
烤	-9.83757
指定	-9.8376
最终	-9.83769
理事	-9.83849
大会	-9.83875
相互	-9.83899
写作	-9.83912
合并	-9.83965
分公司	-9.8397
火车站	-9.83996
59	-9.84053
纺织	-9.84095
凝	-9.84101
,更	-9.84107
集团公司	-9.84117
发表论文	-9.84126
农户	-9.84163
奔	-9.84171
村位于	-9.843
》等。	-9.84362
席	-9.84402
埃	-9.84549
,目前	-9.84576
国道	-9.84581
的时候	-9.84629
理解	-9.84644
大厦	-9.84685
令人	-9.84708
,能	-9.84709
拟	-9.84726
专科	-9.84727
一支	-9.84735
乡镇	-9.84802
甘肃	-9.84816
三角	-9.84847
而且	-9.84848
认真	-9.84852
1.2	-9.84908
贺	-9.84917
驱	-9.84933
局局长	-9.84934
直属	-9.84962
皇帝	-9.84972
证券	-9.85053
69	-9.85087
高科技	-9.85126
国土面积	-9.85145
得到了	-9.85164
扣	-9.852
自治区	-9.85217
撰	-9.85274
图像	-9.85282
耗	-9.85285
一名	-9.85289
逸	-9.85314
加热	-9.85334
冯	-9.85349
找	-9.85357
作战	-9.85397
纱	-9.85407
毕业后	-9.8543
制成	-9.85437
》诗:“	-9.85456
免疫	-9.85456
济南	-9.85473
棋	-9.85492
筑	-9.85542
罐	-9.85558
丛	-9.85565
连锁	-9.85632
吾	-9.8564
分离	-9.85653
原名	-9.85696
她的	-9.8572
弃	-9.85742
合金	-9.85803
多人	-9.85816
另	-9.85856
原因	-9.85863
暴	-9.85869
伸	-9.85908
劳动力	-9.86115
清代	-9.86123
风景	-9.86131
彭	-9.86144
快乐	-9.86199
记者	-9.86201
几个	-9.8627
圆形	-9.86353
上下	-9.86356
ㄨ	-9.86359
种子	-9.86398
商标	-9.86398
绘画	-9.86457
1962年	-9.86458
高等	-9.86486
盗	-9.86513
林业	-9.86513
近年来	-9.86532
书记	-9.86537
智慧	-9.86557
乐队	-9.86641
租	-9.86643
误	-9.86648
技巧	-9.86732
第一个	-9.86769
省市	-9.86812
卓	-9.86815
蜜	-9.8683
62	-9.86863
一位	-9.86865
刊物	-9.86865
介	-9.86901
逐	-9.86928
带领	-9.86948
第2	-9.8699
分布于	-9.87008
筹	-9.87053
----------------	-9.87062
卧	-9.87066
年度	-9.87133
擅长	-9.87145
各地	-9.87146
下的	-9.87186
年间	-9.872
青少年	-9.87226
的工作	-9.87267
娜	-9.87305
51	-9.87331
西方	-9.87343
辅助	-9.87376
知道	-9.87459
,且	-9.87476
形成了	-9.87521
创立	-9.87576
57	-9.87585
大连	-9.87587
涉	-9.87626
郑州	-9.87703
经历	-9.87733
,经	-9.87744
2年	-9.87811
桐	-9.87838
多年的	-9.87943
巷	-9.87951
启动	-9.88045
影片	-9.88054
联合会	-9.88072
浸	-9.88101
180	-9.88149
呼吸	-9.88149
棒	-9.88161
壶	-9.88172
并且	-9.88174
栏	-9.88178
袁	-9.88192
合格	-9.88223
缩	-9.88258
洗净	-9.88296
长沙	-9.88316
这是	-9.88361
飞机	-9.88459
阳县	-9.88468
本数据来源于百度地图	-9.8848
,最终结果以百度地图数据为准。	-9.88503
.",(){(	-9.88576
.("/////	-9.88576
强大的	-9.88601
决策	-9.88604
10000801);});	-9.88608
什	-9.88615
名称:	-9.88616
边缘	-9.88657
73	-9.88721
1965年	-9.88724
倾	-9.88799
地址	-9.88816
也。	-9.88892
黑龙江省	-9.88899
槽	-9.88978
适用	-9.89073
企业。	-9.89086
荡	-9.8912
西班牙	-9.8913
常用	-9.89184
迹	-9.89189
赣	-9.89194
亿元	-9.89362
情况下	-9.89436
工作;	-9.89446
规	-9.89473
身份	-9.89533
之前	-9.8955
渐	-9.89562
观察	-9.89579
▁4.	-9.89614
第六	-9.89663
。目前	-9.89687
阳光	-9.89698
资讯	-9.89728
融合	-9.89749
输	-9.89772
叠	-9.89888
6年	-9.89893
弦	-9.89911
几乎	-9.89925
束	-9.89939
董	-9.90029
78	-9.9004
出来	-9.90092
,南	-9.9016
候	-9.90185
朴	-9.90188
苯	-9.90233
全方位	-9.9026
山水	-9.90282
事业单位	-9.90347
平面	-9.90357
夺	-9.90402
1项	-9.90405
79	-9.9042
防止	-9.90429
十八	-9.90433
侵	-9.90462
市人民政府	-9.9047
数十	-9.90476
来源	-9.90513
画面	-9.90553
捕	-9.90607
,因为	-9.90623
名:	-9.90634
资质	-9.90646
正确	-9.90654
事务	-9.90672
突破	-9.90679
流动	-9.90764
滤	-9.90809
朝鲜	-9.90856
江南	-9.90858
衡	-9.90895
应该	-9.90911
锐	-9.91
自主	-9.91014
建造	-9.91042
材质	-9.91148
重视	-9.91153
缓	-9.91171
党委	-9.91175
汗	-9.91184
答	-9.91196
锋	-9.91196
电流	-9.91202
读书	-9.9122
外观	-9.91268
传输	-9.91407
互动	-9.91428
贫	-9.91455
最具	-9.9148
了一个	-9.91482
部长	-9.91524
&	-9.91527
,或	-9.9153
否	-9.9153
土壤	-9.91537
机电	-9.91569
构	-9.91592
2-	-9.91597
十六	-9.91607
狗	-9.91641
督	-9.91643
过去	-9.91671
已有	-9.91675
经济发展	-9.91678
规律	-9.9173
5个	-9.91745
悲	-9.91832
灾	-9.91877
海军	-9.91902
飞行	-9.91909
信用	-9.91919
新加坡	-9.91983
高端	-9.91992
四年	-9.92
梨	-9.92045
地面	-9.92059
干燥	-9.92084
凌	-9.92125
葬	-9.92245
0.1	-9.92265
焊	-9.92304
治理	-9.92355
县委	-9.92355
激	-9.92362
发达	-9.92379
浩	-9.92386
清水	-9.92422
倒入	-9.92466
猎	-9.92499
气体	-9.92504
在职	-9.92516
舞台	-9.92562
途	-9.92613
脸	-9.92617
弯	-9.92624
复杂	-9.92642
佩	-9.92724
透明	-9.92735
改为	-9.92741
军队	-9.92745
形,	-9.92877
.09	-9.92962
演唱	-9.92999
健身	-9.93007
兹	-9.93023
采取	-9.93114
坦	-9.9313
冶金	-9.93187
开拓	-9.9327
道德	-9.93344
卒	-9.93386
筋	-9.93391
高级工程师	-9.93484
吉林省	-9.93556
验	-9.93573
弥	-9.93602
订	-9.93623
形容	-9.93634
釉	-9.93638
2011	-9.9372
报刊	-9.93765
澳大利亚	-9.93771
舌	-9.93785
激光	-9.93816
县政府	-9.93819
货物	-9.93891
肖	-9.93894
个性	-9.93916
兄弟	-9.94024
。但	-9.94102
供应	-9.94107
职能	-9.94108
4-	-9.94131
危	-9.94138
韦	-9.94194
戈	-9.94209
橡胶	-9.94216
监察	-9.94233
宴	-9.94249
工人	-9.9425
工作者	-9.94267
更新	-9.94301
电机	-9.94335
2005	-9.94355
分辨率	-9.94393
三大	-9.94416
醋	-9.94432
费用	-9.94439
兆	-9.94455
类似	-9.94495
体现	-9.94501
母亲	-9.94512
结束	-9.94535
长度	-9.94594
一套	-9.94605
发明	-9.9461
猫	-9.94611
是一款	-9.94649
组成的	-9.94693
作用。	-9.94715
,当	-9.94739
消化	-9.94761
不足	-9.94842
不少	-9.94861
吉林	-9.94885
奖励	-9.94891
中药	-9.94931
有些	-9.94961
慈	-9.94963
幸福	-9.94979
吹	-9.9498
较大	-9.9498
相同	-9.95013
房屋	-9.9506
耶	-9.95091
辣	-9.95103
吸引	-9.95123
发射	-9.95184
一致	-9.95214
▁4、	-9.95214
有《	-9.95265
进程	-9.95281
海外	-9.95298
扁	-9.95303
,他们	-9.95313
74	-9.95344
通道	-9.95384
万人	-9.95409
2009	-9.95433
覆	-9.95471
大学学历	-9.95473
气象	-9.95557
药品	-9.95575
的企业	-9.95613
邑	-9.95624
戒	-9.95639
丙	-9.95668
祠	-9.95673
鸡蛋	-9.95694
。从	-9.95712
潘	-9.95721
芯	-9.95805
,距离	-9.95897
中华人民共和国	-9.96014
赠	-9.96016
村隶属于	-9.96103
三十	-9.96135
奈	-9.9615
祭	-9.96212
娘	-9.96294
瓣	-9.96333
优良	-9.96342
叶片	-9.96379
放在	-9.96418
建材	-9.96501
学员	-9.96546
利益	-9.96562
高档	-9.96562
开发区	-9.96577
政协	-9.967
常委	-9.9673
公寓	-9.96732
模具	-9.96746
法学	-9.96752
漏	-9.9676
集体	-9.96795
教室	-9.96834
摆	-9.96837
大力	-9.96854
事故	-9.9687
耀	-9.9688
晨	-9.96901
小型	-9.96932
本公司	-9.96962
综合性	-9.96987
领域的	-9.9701
在全国	-9.97031
1970年	-9.9704
截	-9.97078
勃	-9.97086
学会会员	-9.97087
敌人	-9.97104
。曾	-9.97105
):	-9.97116
,先后	-9.97161
。本	-9.97209
映	-9.97236
一系列	-9.97264
贞	-9.97288
轻松	-9.97306
为主。	-9.97314
不得	-9.97316
吐	-9.97353
,属于	-9.97395
地区的	-9.97455
策略	-9.97475
水稻	-9.97584
累	-9.97617
梯	-9.97629
下载	-9.97644
己	-9.97647
转换	-9.97649
甘肃省	-9.97675
ˋ	-9.97677
20世纪	-9.97682
党的	-9.97748
,一般	-9.97772
高压	-9.9782
闲	-9.97882
0.2	-9.97895
外形	-9.97904
系列产品	-9.97946
安排	-9.98005
一带	-9.98018
1976年	-9.98039
负责人	-9.98061
语文	-9.98113
&;	-9.98143
职称	-9.9816
悬	-9.98177
不过	-9.98212
百年	-9.98231
家族	-9.9824
仔	-9.98321
死亡	-9.98345
奖。	-9.98356
所在	-9.98428
行业的	-9.98433
父母	-9.98462
售	-9.98471
绣	-9.98473
仿	-9.98486
社团	-9.985
带来	-9.98573
学、	-9.98664
160	-9.9867
抗日	-9.98704
的方法	-9.98724
▁本	-9.98812
生存	-9.98862
十三	-9.98874
颇	-9.98885
82	-9.98903
2004	-9.98913
硬盘	-9.98925
舟	-9.98949
医师	-9.98983
基层	-9.99034
辨	-9.99036
屈	-9.99047
粤	-9.9905
山县	-9.99061
散文	-9.99116
流量	-9.99137
堆	-9.99199
专著	-9.99206
沪	-9.99216
市委	-9.99228
乎	-9.99233
管道	-9.9925
亿元,	-9.99261
贵州省	-9.99287
慢性	-9.99303
另一	-9.99317
吊	-9.99358
摇	-9.99392
迫	-9.99407
找到	-9.99412
两侧	-9.99448
困	-9.9948
报》	-9.99508
驱动	-9.99522
阔	-9.99632
氢	-9.99634
记忆	-9.99634
辣椒	-9.99687
唯	-9.99692
采购	-9.99699
公元	-9.99705
面对	-9.99759
北方	-9.99788
清晰	-9.9982
89	-9.99859
出版社出版	-9.99864
′	-9.99868
力学	-9.9994
幼儿	-9.9995
大众	-9.99957
首批	-9.99988
丛书	-9.99999
全书	-10.0002
忍	-10.0003
卫星	-10.0004
上级	-10.0005
售后服务	-10.0006
公司的	-10.0008
困难	-10.0008
频道	-10.0016
单元	-10.0027
研究会	-10.0029
状况	-10.0038
彩色	-10.0039
流程	-10.0046
年龄	-10.0048
精心	-10.0049
其实	-10.0056
-01	-10.0058
巡	-10.0059
案例	-10.0061
档	-10.0061
1960年	-10.0062
心理学	-10.0063
护理	-10.0068
可达	-10.0071
线路	-10.0071
宅	-10.0071
主要是	-10.0074
开关	-10.0075
首都	-10.0076
1950年	-10.0076
名为	-10.008
1955年	-10.0082
培	-10.0084
爆	-10.0085
企业的	-10.0087
,由于	-10.0091
性和	-10.0096
熊	-10.0096
书·	-10.0098
萧	-10.0102
1949年	-10.0102
运作	-10.0106
能量	-10.0109
观众	-10.0111
今天	-10.0117
食物	-10.012
骑	-10.0121
命名	-10.0121
隶属于	-10.0124
多功能	-10.0124
改进	-10.0126
甚至	-10.0128
升级	-10.013
欢	-10.013
美丽	-10.0139
办事处	-10.0139
就会	-10.014
后来	-10.0143
邓	-10.0147
踏	-10.015
电路	-10.0154
250	-10.0154
医生	-10.0155
打印	-10.0158
关键	-10.0162
坏	-10.0165
侠	-10.0167
总结	-10.0179
绿化	-10.018
8个	-10.0181
南方	-10.0183
瘦	-10.0188
袭	-10.019
脆	-10.0196
胜利	-10.0197
1975年	-10.0197
的作用	-10.0198
习惯	-10.0202
足球俱乐部	-10.0204
构造	-10.0211
茅	-10.0214
动漫	-10.0216
理工大学	-10.0217
慧	-10.0219
春秋	-10.0225
抚	-10.0227
输送	-10.0229
传统的	-10.0238
阅	-10.0243
赐	-10.0245
发动机	-10.0246
主演	-10.0253
专业化	-10.0256
购买	-10.0257
葛	-10.0259
渠道	-10.0266
避免	-10.027
退休	-10.0272
//	-10.0278
照片	-10.0279
两年	-10.0287
的特点	-10.0288
狂	-10.0288
畅	-10.0299
汽	-10.0301
范围内	-10.0304
硬件	-10.031
之后,	-10.0319
建有	-10.0324
潭	-10.0331
怕	-10.0331
劲	-10.0334
,加	-10.0336
汉语	-10.0336
豫	-10.0339
1957年	-10.0342
第十	-10.0346
明代	-10.035
每天	-10.0351
1968年	-10.0352
钙	-10.0354
思维	-10.036
整理	-10.0361
营业	-10.0367
数据库	-10.0367
展开	-10.037
多篇	-10.0377
外国	-10.0378
醒	-10.0385
返	-10.0387
秉承	-10.0387
辞典	-10.0388
专题	-10.0396
首先	-10.0397
函数	-10.0398
下辖	-10.04
访问	-10.04
更是	-10.0401
然后	-10.0417
为客户提供	-10.0417
兴趣	-10.0419
琼	-10.042
一定的	-10.042
那些	-10.0421
高层	-10.0425
弟	-10.0428
衔	-10.0428
活动,	-10.0436
分管	-10.0437
继承	-10.044
诗歌	-10.0442
者。	-10.0444
秘书长	-10.0448
一点	-10.0449
先进工作者	-10.046
群体	-10.0466
操	-10.0475
榜	-10.0477
。曾任	-10.0477
税务	-10.0478
也不	-10.0478
获得了	-10.0479
郁	-10.0482
危险	-10.0484
古典	-10.0486
签	-10.0488
更多	-10.0491
通用	-10.0492
如此	-10.0492
县级	-10.0492
愈	-10.0493
局副局长	-10.0494
1952年	-10.0494
党委副书记	-10.0501
穆	-10.0502
收集	-10.0502
7年	-10.0504
忧	-10.0504
邪	-10.0508
高新技术企业	-10.051
学会理事	-10.0513
在《	-10.0515
犬	-10.0516
辈	-10.0517
诗词	-10.0518
笋	-10.0524
车站	-10.0526
02	-10.0528
期刊	-10.053
委会	-10.0533
成了	-10.0538
作业	-10.054
接壤	-10.054
引导	-10.0544
操作系统	-10.0546
沟通	-10.0547
管理工作	-10.0553
龟	-10.0556
他们的	-10.0556
较为	-10.0562
在北京	-10.0566
的要求	-10.0566
昂	-10.0567
幸	-10.0569
判	-10.0571
授权	-10.0571
然而	-10.0574
消防	-10.0574
在一起	-10.0577
脊	-10.058
已成为	-10.0581
年),	-10.0581
颗粒	-10.0588
认	-10.0589
污	-10.059
优秀的	-10.0596
服务器	-10.0598
的故事	-10.0599
发电	-10.0601
参加工作,	-10.0601
厂房	-10.0605
液体	-10.0606
拓展	-10.0607
型号	-10.0611
兰州	-10.0613
900	-10.0615
是一名	-10.0625
律师	-10.0627
鉴	-10.0629
叔	-10.0634
柯	-10.0638
电动	-10.0638
原始	-10.0639
照明	-10.0639
魂	-10.0641
艳	-10.0651
4000	-10.0651
症状	-10.0652
国防	-10.0655
布局	-10.0658
某些	-10.0658
贯	-10.066
西藏	-10.0662
苏联	-10.0662
0-	-10.0666
鹰	-10.0666
轩	-10.0669
,促进	-10.0669
蜂	-10.0671
加入中国共产党,	-10.0679
脂肪	-10.0683
相连	-10.0685
总建筑面积	-10.0692
本地	-10.0692
精密	-10.0694
考入	-10.0694
3-	-10.0695
形状	-10.0695
构建	-10.0698
前后	-10.0703
记》	-10.0704
藻	-10.071
子,	-10.0721
莉	-10.0723
明星	-10.0723
走向	-10.0727
豆腐	-10.073
社会科学	-10.0735
美丽的	-10.0737
鳞	-10.0738
宁波	-10.0742
”和“	-10.0744
,并在	-10.0745
篇,	-10.0747
发育	-10.0751
抵	-10.0754
,我	-10.0755
摄像头	-10.0756
服务,	-10.0761
角度	-10.0768
侨	-10.0768
。“	-10.0769
维生素	-10.077
转移	-10.0776
分配	-10.0778
:3	-10.078
武装	-10.0786
二年	-10.0788
,却	-10.0798
1959年	-10.0812
93	-10.0817
:《	-10.0819
,提高	-10.082
』	-10.0824
枣	-10.0827
地铁	-10.0827
燃	-10.0828
不久	-10.0829
学士	-10.0829
商贸	-10.0831
尝	-10.0833
富有	-10.0838
北京大学	-10.0842
活性	-10.0848
高温	-10.0848
,中共党员,	-10.0857
完美	-10.0863
,已	-10.0865
我的	-10.0865
▁4	-10.0866
称“	-10.0867
的作品	-10.0868
状,	-10.0869
密封	-10.0871
靖	-10.0877
业有限公司	-10.0879
同样	-10.0887
名人	-10.0893
证明	-10.0893
再次	-10.0894
各大	-10.0895
策	-10.0896
总经理	-10.09
符	-10.0903
1969年	-10.0903
设计师	-10.0906
毗邻	-10.0906
冻	-10.0906
车间	-10.0907
烂	-10.0915
●	-10.0916
强化	-10.0916
垫	-10.0916
,共	-10.0918
集团有限公司	-10.0919
币	-10.092
匀	-10.0923
肯	-10.0923
总投资	-10.0927
华人	-10.0927
扶	-10.093
110	-10.0933
公司拥有	-10.0935
公益	-10.0936
崖	-10.0946
往往	-10.0946
家居	-10.0948
以前	-10.0957
便利	-10.0959
的基础上	-10.0963
教职工	-10.0966
里,	-10.0971
录音	-10.0977
辅导	-10.0977
辉煌	-10.0977
1966年	-10.0992
的设计	-10.0995
浙	-10.0995
等多种	-10.0998
有:	-10.0999
和平	-10.1001
完整	-10.1002
悦	-10.1004
耕	-10.1004
障碍	-10.101
考察	-10.101
越来越	-10.1011
原来	-10.1014
刷	-10.1015
间,	-10.1021
模块	-10.1023
是一所	-10.1024
更多的	-10.1024
暂	-10.1025
,海拔	-10.103
毕	-10.1033
▁主要	-10.1033
硕士生导师	-10.1035
案件	-10.1036
师生	-10.1038
当年	-10.104
适宜	-10.1044
限制	-10.1046
弄	-10.1052
三国	-10.1055
光学	-10.1056
小组	-10.1057
科学院	-10.1057
、高	-10.1058
的大型	-10.1058
做出	-10.1059
酱油	-10.1064
办公室主任	-10.107
陷	-10.1072
陆军	-10.1073
1号	-10.1074
业绩	-10.1074
黄河	-10.1075
寸	-10.1078
标准化	-10.1078
老年	-10.1082
中心、	-10.1084
1954年	-10.1088
比喻	-10.1089
先后在	-10.1092
有限公司是	-10.1092
1953年	-10.1093
大桥	-10.1094
慢	-10.1094
92	-10.1097
霸	-10.1098
神秘	-10.1098
()是	-10.1099
廷	-10.1103
合肥	-10.1104
阿尔	-10.1105
进士	-10.1105
钢铁	-10.1107
默	-10.1117
中有	-10.1119
哈尔滨	-10.112
130	-10.1127
摘	-10.1127
优越	-10.113
六年	-10.1131
0.3	-10.1135
端口	-10.1137
太平	-10.1139
拥	-10.1139
公社	-10.1142
院长	-10.1143
蛋白质	-10.1146
硕士学位	-10.1146
不要	-10.1148
1972年	-10.1149
驰	-10.115
128	-10.115
控股	-10.1153
侍	-10.1153
捷	-10.1154
个体	-10.1155
后的	-10.1157
上市	-10.1166
的方式	-10.1166
十大	-10.1167
遍	-10.1171
客户的	-10.1181
220	-10.1181
腺	-10.1184
梗	-10.1185
出土	-10.1185
并不	-10.1187
04	-10.1187
最为	-10.1189
效应	-10.119
城县	-10.119
飘	-10.1191
优秀教师	-10.1192
瘤	-10.1192
股票	-10.1196
起义	-10.1199
一生	-10.1203
董事长	-10.1203
)、《	-10.1204
驾	-10.1208
翁	-10.1208
有“	-10.1208
中小学	-10.1212
绳	-10.1213
产生的	-10.1214
扇	-10.1214
书中	-10.1223
像素	-10.1223
竞赛	-10.1231
委托	-10.1231
,地处	-10.1233
里的	-10.1233
渠	-10.1237
地带	-10.1238
地图	-10.124
四大	-10.1244
电缆	-10.1248
幻	-10.1251
是“	-10.1256
最多	-10.1258
撒	-10.1261
午	-10.1261
同步	-10.1264
常见	-10.1264
理念,	-10.1267
为主的	-10.1268
ˊ	-10.127
番	-10.1274
惟	-10.1275
液压	-10.1276
第七	-10.1277
,高	-10.1278
味精	-10.1286
平原	-10.1288
展现	-10.1295
中外	-10.1303
性格	-10.1303
成立的	-10.1305
5公里	-10.1307
键盘	-10.1313
蜀	-10.1313
贡献。	-10.1316
黑龙江	-10.1316
新建	-10.132
女人	-10.132
刺激	-10.1321
后期	-10.1327
廊	-10.1327
管理局	-10.1328
熔	-10.133
以其	-10.1333
典型	-10.1334
磷	-10.1338
灵活	-10.1341
揭	-10.1341
储	-10.1342
姚	-10.1344
留下	-10.1348
,属	-10.1353
1938年	-10.1353
生产的	-10.1361
1945年	-10.1363
弘	-10.1363
活动。	-10.1364
纽约	-10.1365
汪	-10.1365
生动	-10.1366
茶叶	-10.1369
计量	-10.1369
器、	-10.1369
镜头	-10.137
中山	-10.1374
帝国	-10.1377
1961年	-10.1377
替	-10.1378
发起	-10.1379
婆	-10.138
芬	-10.1385
精英	-10.139
我公司	-10.1397
贷款	-10.1397
,亦	-10.14
杰出	-10.1402
村,	-10.1404
只能	-10.1405
▁该	-10.1407
期间,	-10.1408
优美	-10.1412
传奇	-10.1415
评论	-10.1415
是个	-10.1416
不到	-10.1421
2002	-10.143
绍	-10.1433
臂	-10.1434
数控	-10.1434
以人为本	-10.1438
挑战	-10.144
探讨	-10.145
安县	-10.1451
赢得了	-10.1455
遥	-10.1457
机器	-10.1458
实现了	-10.1462
公布	-10.1465
如今	-10.1465
87	-10.1469
爱好者	-10.1471
大街	-10.1478
快捷	-10.1481
▁“	-10.1481
东京	-10.1485
血液	-10.1487
.10	-10.1487
超级	-10.1496
历史上	-10.1499
总统	-10.1501
鄂	-10.1503
讯	-10.1507
均为	-10.1508
,长	-10.1508
温泉	-10.1511
的需求	-10.1514
青春	-10.1516
猛	-10.1521
狼	-10.1521
徽	-10.1523
寻找	-10.1523
服饰	-10.1531
ㄧ	-10.1533
总部	-10.1533
61	-10.1538
做到	-10.1539
辰	-10.154
测定	-10.1542
接口:	-10.1543
严谨	-10.1544
农业大学	-10.1544
博士学位	-10.1545
享有	-10.1545
部位	-10.1551
全区	-10.1554
枯	-10.1558
闹	-10.156
的技术	-10.1563
4.5	-10.1564
该校	-10.1576
爽	-10.1576
旱	-10.1579
妖	-10.158
饮食	-10.1581
1974年	-10.1584
梦想	-10.1588
2012	-10.1588
了“	-10.1588
总公司	-10.1589
绕	-10.1591
生成	-10.1594
万平方米,	-10.1596
拱	-10.1597
附属	-10.1602
,经过	-10.1603
就可以	-10.1604
一体化	-10.1605
围绕	-10.1608
可见	-10.1609
1977年	-10.1619
浴	-10.162
书籍	-10.1622
的时间	-10.1629
个教学班	-10.163
辑	-10.1634
别墅	-10.1635
、省	-10.1636
秘密	-10.1637
等等	-10.1649
华东	-10.1652
菊	-10.1664
规则	-10.1665
广播电视	-10.1667
中专	-10.1667
左右,	-10.1667
贸	-10.1669
兴建	-10.1671
狭	-10.1681
,字	-10.1682
契	-10.1684
84	-10.1686
蒲	-10.169
认定	-10.1691
窝	-10.1696
福州	-10.1699
志》	-10.17
超市	-10.1705
热水	-10.1706
在国内	-10.1713
康复	-10.1713
芦	-10.1715
外语	-10.1716
监督管理	-10.1717
一批	-10.1721
---	-10.1722
饶	-10.1729
骨干	-10.1732
〕	-10.1735
视觉	-10.1739
钢琴	-10.174
平方米。	-10.1743
煤炭	-10.1744
炭	-10.1746
交换	-10.175
仕	-10.175
电信	-10.1752
图案	-10.1752
战役	-10.1755
本身	-10.1756
配备	-10.1759
传感器	-10.1763
罗马	-10.1765
特定	-10.1767
第一次	-10.177
繁华	-10.1771
集》	-10.1776
接收	-10.1779
83	-10.1781
兔	-10.1784
邀请	-10.1784
非洲	-10.1788
():	-10.1789
咖啡	-10.1789
赖	-10.1793
忽	-10.1793
腐	-10.1793
企业管理	-10.1793
尼亚	-10.1796
上有	-10.1797
普遍	-10.1799
-4	-10.1802
内外	-10.1812
2001	-10.1816
柴	-10.1817
10克	-10.1818
度假	-10.1823
”是	-10.1824
,此	-10.1828
师范	-10.183
九年	-10.1836
陀	-10.1836
混凝土	-10.1841
同学	-10.1846
船舶	-10.1847
语音	-10.1847
71	-10.1851
科长	-10.1855
管辖	-10.1856
少女	-10.1857
为中国	-10.1858
在这里	-10.1859
员,	-10.1863
考核	-10.1863
万亩	-10.1865
有一个	-10.1868
埋	-10.188
根本	-10.188
-5	-10.1882
先进个人	-10.1884
师范学院	-10.189
唐代	-10.1892
。现	-10.1903
东南亚	-10.191
贯彻	-10.1917
葡萄	-10.1917
耳机	-10.192
悟	-10.1921
窗口	-10.1921
教练	-10.1927
唇	-10.1928
性、	-10.1931
市中心	-10.1933
焊接	-10.1935
但是	-10.1938
涌	-10.1939
贼	-10.1942
料酒	-10.1942
每一	-10.1944
运动员	-10.1948
闸	-10.1949
1973年	-10.195
上面	-10.1951
岗位	-10.1952
特种	-10.1952
涛	-10.1955
特色的	-10.1957
凸	-10.1958
禄	-10.1963
百姓	-10.1969
引起的	-10.1972
伐	-10.1974
荆	-10.1974
垂直	-10.1974
环境优美	-10.1978
教授。	-10.1978
都会	-10.1982
识别	-10.1983
召开	-10.1983
的教学	-10.1983
.08	-10.1984
蝶	-10.1985
裁	-10.1985
球队	-10.1985
法规	-10.1989
数:	-10.1991
生产基地	-10.1991
3.	-10.1992
好评	-10.1992
病人	-10.1994
系统、	-10.1998
相似	-10.2001
较高	-10.2004
专业从事	-10.2006
0.00	-10.2011
党支部	-10.2017
您的	-10.2017
日期:	-10.2017
流通	-10.2022
蒙古	-10.2024
人民医院	-10.2027
桥梁	-10.2029
摄	-10.203
眉	-10.2034
介质	-10.2038
用途	-10.2046
酯	-10.2048
情感	-10.2051
糊	-10.2057
乾隆	-10.2058
庵	-10.2059
进出口	-10.2063
关节	-10.2063
每一个	-10.207
轨	-10.2072
村、	-10.2076
1200	-10.2077
.11	-10.2078
认可	-10.2079
带有	-10.208
深度	-10.2083
防护	-10.2086
两次	-10.2087
明确	-10.2094
思考	-10.2094
保留	-10.2097
图形	-10.2097
1948年	-10.2098
经验,	-10.2102
热带	-10.2102
抑制	-10.2102
,全	-10.2102
50克	-10.2104
而成	-10.2109
10余	-10.2109
翰	-10.2117
中国科学院	-10.2117
。本书	-10.2117
全新	-10.2117
党组成员	-10.2124
椭圆形	-10.2133
凹	-10.2134
转化	-10.2136
m2	-10.2137
一所	-10.2143
承办	-10.2147
抢	-10.2147
主办	-10.2147
周期	-10.2148
芒	-10.2152
1.8	-10.2153
一下	-10.2161
演奏	-10.2162
在美国	-10.2163
→	-10.2165
岩石	-10.2167
上网	-10.217
跃	-10.2173
短信	-10.2175
络	-10.2175
同年	-10.2176
美术学院	-10.2176
189	-10.2179
下来	-10.2183
鑫	-10.2186
旦	-10.2192
,号	-10.2198
化的	-10.2199
,形成	-10.2202
是国内	-10.2203
审定	-10.2208
资深	-10.2208
可靠	-10.2212
1500	-10.2213
出自	-10.2214
添	-10.2216
1951年	-10.2218
阶	-10.2219
茨	-10.2222
均有	-10.2224
留学	-10.2229
析	-10.2232
副院长	-10.2233
影响力	-10.2234
万元。	-10.2238
叉	-10.2238
:4	-10.2245
现为	-10.2246
缸	-10.2246
党组书记	-10.2251
注册资本	-10.2255
俄	-10.2256
考虑	-10.2257
穷	-10.2259
之中	-10.2265
风景区	-10.227
▁产品	-10.2271
纺	-10.2272
三级	-10.2273
闻名	-10.2273
等职。	-10.2275
俱	-10.2276
1.0	-10.228
桌	-10.2286
》的	-10.2288
清洗	-10.2289
初期	-10.229
修建	-10.2292
白糖	-10.2294
固定资产	-10.2297
一代	-10.2301
加上	-10.2304
哲	-10.2305
约1	-10.2307
较强	-10.2307
蚕	-10.2308
温州	-10.231
绝对	-10.231
悉	-10.2311
,西	-10.2316
7-	-10.2318
冈	-10.2318
会长	-10.2321
渊	-10.2323
钱,	-10.2324
”(	-10.2326
修复	-10.2329
第3	-10.233
----	-10.2332
成都市	-10.2332
帽	-10.2332
司令	-10.2335
驻地	-10.2335
政法	-10.2336
椒	-10.234
.03	-10.2342
鹅	-10.2343
』『	-10.2343
怒	-10.2344
逢	-10.2345
-6	-10.2347
民政	-10.2352
下属	-10.2353
×1	-10.2354
化、	-10.2355
厂家	-10.2356
高达	-10.2362
开发、	-10.2365
接待	-10.2369
前身是	-10.2372
“三	-10.2374
希腊	-10.2381
20余	-10.2382
科技大学	-10.2382
姿	-10.2385
拼	-10.2386
之路	-10.2392
的原则	-10.2397
口腔	-10.2398
,历任	-10.2404
五十	-10.2404
热情	-10.2404
隋	-10.2408
以为	-10.2411
金奖	-10.2413
08	-10.2415
遗传	-10.2416
阀门	-10.2417
遭	-10.2417
毫米,	-10.2424
形成的	-10.2428
弧	-10.2429
男子	-10.2432
诱	-10.2434
长期从事	-10.2434
供应商	-10.2439
孕	-10.2439
等农作物。	-10.2444
养生	-10.2444
到达	-10.2447
他在	-10.245
膏	-10.2451
。据	-10.2456
魔法	-10.2465
美食	-10.2469
使用的	-10.247
爵	-10.2474
打开	-10.2478
感觉	-10.2479
影像	-10.2484
创始人	-10.2484
花生	-10.2485
新华	-10.2487
千年	-10.2487
终于	-10.2488
杭	-10.2492
,实现	-10.2493
密码	-10.2494
电视剧	-10.2496
副主任医师	-10.2507
立体	-10.2512
服务中心	-10.2517
日报	-10.2517
将其	-10.2517
局长	-10.2517
涂料	-10.2517
全国各地	-10.252
排列	-10.2521
城乡	-10.2522
不良	-10.2524
不知	-10.2526
1937年	-10.2528
慎	-10.2532
虹	-10.2535
是我国	-10.254
特别是	-10.2545
来到	-10.2548
澄	-10.2549
毫	-10.2549
肢	-10.2552
时候	-10.2554
幢	-10.2554
庞	-10.2554
武汉市	-10.2555
祝	-10.2556
是一部	-10.2557
高新技术	-10.2558
女儿	-10.2561
在于	-10.2562
交通便利	-10.2563
确保	-10.2564
也可以	-10.2565
魅力	-10.2569
/2	-10.2569
效力于	-10.257
,放入	-10.257
誉	-10.2574
狮	-10.2575
支撑	-10.2576
美洲	-10.2577
》获	-10.2579
崔	-10.258
制药	-10.2581
开发的	-10.2582
面粉	-10.2583
培育	-10.2592
来的	-10.2595
蓬	-10.2596
从而	-10.2597
,不断	-10.2598
旨在	-10.2599
博士,	-10.2601
故障	-10.2603
05	-10.2603
原子	-10.2605
妻	-10.2605
唱片	-10.2607
天地	-10.2608
泛	-10.2612
每日	-10.2613
醉	-10.2614
优点	-10.2615
召	-10.2618
忌	-10.2622
讨论	-10.2624
全体	-10.2624
巢	-10.2625
睡	-10.2626
凭	-10.2633
虚拟	-10.2639
乾	-10.2639
当前	-10.2639
村人。	-10.264
做法	-10.2646
裕	-10.2648
日常	-10.2649
五个	-10.2656
清洁	-10.2658
俗称	-10.2659
,加入	-10.2662
胞	-10.2664
地产	-10.2668
》和《	-10.2669
栏目	-10.2671
雌	-10.2674
可供	-10.2675
犯罪	-10.2677
加入中国共产党	-10.2679
迟	-10.2683
麓	-10.2686
一场	-10.2686
简介	-10.2688
1946年	-10.2689
任职	-10.269
创办于	-10.2692
第二届	-10.2693
被誉为	-10.2695
钦	-10.2696
有所	-10.2698
旋转	-10.2699
凤凰	-10.2699
异常	-10.27
钩	-10.2706
栖	-10.2708
代码	-10.271
奉献	-10.2716
荷兰	-10.2716
中国人民解放军	-10.272
锥	-10.2727
尔·	-10.2729
者的	-10.2729
188	-10.273
变成	-10.2731
条件下	-10.2737
清华大学	-10.2737
汝	-10.274
饭店	-10.2746
个行政村	-10.2746
罚	-10.2748
,还有	-10.275
勾	-10.2751
为核心	-10.2757
变形	-10.2764
惜	-10.2765
扫描	-10.2765
统治	-10.2765
所在地	-10.2767
中医药	-10.2768
仰	-10.2774
盈	-10.2778
聘	-10.2782
巴黎	-10.2789
给予	-10.279
主动	-10.2791
委书记	-10.2792
主任医师	-10.2792
落实	-10.2793
氯	-10.2793
房间	-10.2796
员。	-10.2796
°C,年降水量	-10.2797
领先	-10.2798
思路	-10.2803
离开	-10.2804
。如	-10.2806
技术、	-10.2806
货币	-10.2809
新技术	-10.281
100%	-10.2811
赶	-10.2814
的各种	-10.2814
菇	-10.2815
被称为	-10.2815
雕刻	-10.2815
区别	-10.2816
校区	-10.2816
曾获	-10.2817
是一家集	-10.2821
主治	-10.2822
1971年	-10.2822
夕	-10.2825
传》	-10.2827
较高的	-10.2827
电站	-10.2828
庐	-10.283
老人	-10.2831
编委	-10.2831
多名	-10.2832
昆虫	-10.2834
利亚	-10.2841
莎	-10.2842
一部	-10.2845
八年	-10.2846
蒋	-10.2848
花卉	-10.2851
过滤	-10.2851
中心,	-10.2852
1.6	-10.2857
无限	-10.2858
“中国	-10.2859
关心	-10.2861
兄	-10.2861
最初	-10.2862
主要有	-10.2869
帖	-10.287
蕴	-10.287
。唐	-10.2873
挺	-10.2875
堤	-10.2876
诊	-10.2878
泄	-10.2879
(-)	-10.2881
加快	-10.2882
7个	-10.2884
帐	-10.2886
地点	-10.2886
-8	-10.2887
.01	-10.2891
事,	-10.2893
高等教育	-10.2893
宽带	-10.2895
大楼	-10.2896
溢	-10.2896
紧密	-10.2897
指数	-10.2901
逊	-10.2901
果实	-10.2905
即可。	-10.2906
出发	-10.2908
很大	-10.2908
泪	-10.2909
组成。	-10.2911
风味	-10.2912
毕业生	-10.2912
91	-10.2915
\	-10.2916
0.8	-10.2919
硫	-10.292
饲料	-10.292
1947年	-10.2923
慕	-10.2924
武术	-10.2925
01	-10.2926
篇。	-10.2928
十七	-10.2929
称为“	-10.293
,常	-10.2931
(1)	-10.2931
县人民政府	-10.2939
彦	-10.294
增产	-10.2942
十四	-10.2944
电磁	-10.2945
6000	-10.2947
硕士研究生	-10.2951
详	-10.2953
女孩	-10.2953
有效的	-10.2956
鹏	-10.2956
搜索	-10.2957
主机	-10.2957
,根据	-10.2958
原创	-10.2959
小麦	-10.296
回:“	-10.2964
延伸	-10.2964
相信	-10.2967
斯·	-10.2969
、黄	-10.297
蓝色	-10.297
为广大	-10.297
顺利	-10.2971
从此	-10.2974
扫	-10.2976
毅	-10.2979
泊	-10.2979
扬州	-10.2984
双方	-10.2988
配有	-10.2989
感受	-10.2991
公主	-10.2996
家长	-10.2997
2.1	-10.2998
▁●	-10.2998
出来的	-10.2999
发出	-10.3
年产	-10.3001
专业技术	-10.3002
立足	-10.3003
评审	-10.3005
小儿	-10.3008
仇	-10.3008
平台,	-10.3009
周年	-10.3009
作物	-10.301
重建	-10.3011
教研	-10.3011
人民币	-10.3013
工农	-10.3013
禽	-10.3019
新产品	-10.3021
回到	-10.3022
特点:	-10.3023
改编	-10.3026
浑	-10.3027
味道	-10.3028
是目前	-10.3028
棱	-10.3028
队长	-10.3035
活力	-10.3035
一段	-10.3036
古城	-10.3037
器材	-10.3039
供电	-10.3044
专业生产	-10.3046
苹果	-10.3058
手动	-10.3062
雕塑	-10.3065
▁学校	-10.3065
勺	-10.3066
欣	-10.3068
服务的	-10.3072
。她	-10.3074
体积	-10.3074
。”《	-10.3074
笼	-10.3075
商场	-10.309
普及	-10.3098
一体	-10.3098
6-	-10.3103
的精神	-10.3104
栗	-10.3105
风光	-10.3105
倡导	-10.311
大量的	-10.311
昆明	-10.3118
基本参数	-10.312
命名为	-10.3121
游击	-10.3121
加入中国共产党。	-10.3122
修改	-10.3123
总数	-10.3124
极为	-10.3126
总人口	-10.3135
若干	-10.3136
近代	-10.3137
越南	-10.3138
所有的	-10.3139
干事	-10.314
昆	-10.314
成立了	-10.3142
爷	-10.3142
役	-10.3142
内设	-10.3142
事物	-10.3143
疮	-10.3144
加盟	-10.3146
诞生	-10.3149
大气	-10.315
名誉	-10.3154
厂商	-10.3157
预测	-10.3157
联赛	-10.3165
米。	-10.3166
树立	-10.3166
实体	-10.3167
合作关系	-10.3168
公元前	-10.3169
辖区	-10.3169
管理和	-10.317
导弹	-10.3173
欧美	-10.3173
支付	-10.3174
颂	-10.3178
×2	-10.3183
的问题	-10.3183
专注于	-10.3184
永远	-10.3186
遇到	-10.3189
损失	-10.319
》、《中国	-10.3191
酥	-10.3196
▁5.	-10.32
牵	-10.32
和社会	-10.3201
般	-10.3203
精细	-10.3205
些	-10.3207
)和	-10.3207
1998	-10.3211
名字	-10.3211
,同年	-10.3214
密切	-10.3216
精神,	-10.3217
撤	-10.3219
净化	-10.322
完成了	-10.322
十余	-10.3222
空军	-10.3223
芝	-10.3223
添加	-10.3228
审核	-10.3229
让人	-10.3229
棚	-10.3232
源于	-10.3238
、白	-10.3239
绍兴	-10.3239
区政府	-10.3241
通知	-10.3243
▁中国	-10.3244
-20	-10.3245
。当	-10.3245
蟹	-10.3249
分布在	-10.326
组成,	-10.3261
号:	-10.3263
漂	-10.3267
甸	-10.3269
▁5、	-10.3271
高考	-10.3272
墩	-10.3274
查询	-10.3275
钠	-10.3276
铃	-10.3277
,积极	-10.3278
多数	-10.3283
""	-10.3284
容器	-10.3291
观念	-10.3291
接近	-10.3294
七年	-10.3296
出的	-10.3299
对方	-10.3301
”;	-10.3304
巾	-10.3305
叛	-10.3306
树脂	-10.3308
享	-10.3312
机,	-10.3312
信息技术	-10.3314
华南	-10.3314
流传	-10.3317
日期	-10.3318
硬化	-10.3325
”“	-10.3332
伤害	-10.3335
监管	-10.3335
乡政府	-10.3335
长约	-10.3336
椎	-10.3339
注册资金	-10.334
懂	-10.334
人力资源	-10.3341
冲击	-10.3342
的同时,	-10.3348
作出	-10.3348
油画	-10.3349
委副书记	-10.3349
吏	-10.335
调味	-10.3354
胡椒粉	-10.3354
_	-10.3354
为企业	-10.3366
上了	-10.3368
宁县	-10.337
方式:	-10.3371
招聘	-10.3372
▁支持	-10.3374
里面	-10.3374
尉	-10.3375
8人	-10.3383
予	-10.3388
一片	-10.3389
丧	-10.339
等领域	-10.3392
多样	-10.3399
税收	-10.34
起,	-10.34
痰	-10.3402
之地	-10.3403
职责	-10.3407
宪	-10.3408
员、	-10.3412
巨大	-10.3412
,学校	-10.3414
信赖	-10.3419
冷却	-10.3424
一只	-10.3426
81	-10.3426
感情	-10.3429
诉	-10.3434
▁*	-10.3434
是:	-10.3439
动脉	-10.3442
表彰	-10.3442
辆	-10.3446
省、市	-10.3446
▁·	-10.3449
敢	-10.3449
客运	-10.3449
散热	-10.345
内的	-10.3454
这样的	-10.3456
基部	-10.3456
的核心	-10.3457
前身为	-10.3458
由此	-10.3458
同一	-10.3458
问题,	-10.3459
平台。	-10.3459
提取	-10.3461
物业	-10.3462
新城	-10.3463
,就是	-10.3468
宇宙	-10.3468
1936年	-10.3469
▁目前	-10.347
挡	-10.3471
局、	-10.3471
选用	-10.3474
渣	-10.3474
万余	-10.3478
喝	-10.3484
隶属	-10.349
本着	-10.3492
06	-10.3494
很高	-10.3494
最低	-10.3499
浓度	-10.3503
相比	-10.3504
雀	-10.3504
称号。	-10.3506
无锡	-10.3506
完整的	-10.3509
,如果	-10.3513
帅	-10.3513
诏	-10.3519
。后	-10.352
碟	-10.3524
中国大陆	-10.3526
240	-10.3528
机床	-10.3529
2.4	-10.353
的关系	-10.3534
批发	-10.3534
尺寸:	-10.3534
亩,其中	-10.3536
03	-10.3536
偷	-10.3536
招生	-10.3536
环节	-10.3537
营造	-10.3538
便捷	-10.3539
现已	-10.354
工作人员	-10.3542
恨	-10.3545
驾驶	-10.3553
货运	-10.3554
硕	-10.3558
采集	-10.3559
相邻	-10.3559
(如	-10.3559
趋	-10.356
拖	-10.3573
叫做	-10.3573
拌	-10.3577
“”	-10.3577
相关的	-10.3581
少数民族	-10.3581
逻辑	-10.3582
妃	-10.3585
颗	-10.3586
生活的	-10.3587
1939年	-10.3587
溶液	-10.3589
分枝	-10.3591
艺人	-10.3591
公顷	-10.3591
专项	-10.3591
插槽	-10.3594
国立	-10.3596
|	-10.3596
后勤	-10.3596
五金	-10.3602
开业	-10.3603
之处	-10.3606
合作伙伴	-10.3607
领先的	-10.3611
每次	-10.3614
急性	-10.362
纳米	-10.3625
声音	-10.3626
霜	-10.3627
区内	-10.3628
曰:“	-10.3631
科技成果	-10.3633
生。	-10.3636
合法	-10.3639
处处长	-10.3643
路线	-10.3644
氮	-10.3648
自幼	-10.3653
法制	-10.3654
洛阳	-10.3656
等)	-10.3661
扮演	-10.3662
损伤	-10.3663
、上海	-10.3666
薛	-10.3667
傅	-10.3667
农民人均纯收入	-10.3669
。而	-10.3671
以上的	-10.3673
情报	-10.3681
狱	-10.3682
30余	-10.3688
名家	-10.3688
锅中	-10.3689
称之为	-10.3689
1999	-10.3691
海岸	-10.3693
压缩	-10.3694
朝阳	-10.3696
牺牲	-10.3698
男女	-10.3698
委员,	-10.3698
率先	-10.3701
象征	-10.3702
3公里	-10.3704
,占地面积	-10.3705
嫁	-10.3707
常见的	-10.3708
谦	-10.3708
。我们	-10.3709
无论	-10.3711
唯一的	-10.3713
拉丁	-10.3713
零售	-10.3717
生理	-10.3718
博士生导师	-10.3719
大地	-10.3724
市场的	-10.3725
其中农业人口	-10.3731
安全生产	-10.3734
副秘书长	-10.3734
-10	-10.3736
的理想	-10.3738
代表作	-10.374
第八	-10.3741
远程	-10.3742
主管部门	-10.3743
先进集体	-10.3745
後	-10.3745
最好的	-10.3748
太阳能	-10.3748
妇科	-10.3748
发动	-10.3749
榆	-10.375
援	-10.3751
凶	-10.3752
人大	-10.3758
广泛应用于	-10.376
10年	-10.3762
网页	-10.3763
港口	-10.3763
报警	-10.3765
尚书	-10.3765
协会会员	-10.3773
中小企业	-10.3773
0.6	-10.3774
、新	-10.3775
传递	-10.3777
蓄	-10.3777
相传	-10.3781
别人	-10.3781
学名	-10.3782
使用。	-10.3782
10-	-10.3782
雁	-10.3785
奋斗	-10.3787
授予“	-10.3789
、服务	-10.3791
分享	-10.3793
对比	-10.3795
2公里	-10.3796
讲述	-10.3796
仪表	-10.3797
题材	-10.3806
首家	-10.3808
学报	-10.3809
320	-10.3809
熙	-10.381
精彩	-10.3816
变种	-10.3818
忙	-10.3818
1940年	-10.3819
(原	-10.382
基础上	-10.3823
产于	-10.3825
成人	-10.3827
码头	-10.3828
技术人员	-10.3829
群岛	-10.383
全长	-10.3834
界面	-10.3838
轧	-10.384
指示	-10.3841
(简称	-10.3843
讲述了	-10.3843
夷	-10.3843
24小时	-10.3848
观测	-10.3848
区委	-10.3849
牡丹	-10.385
最小	-10.385
毛泽东	-10.3851
强调	-10.3852
首席	-10.3852
新区	-10.3855
提出了	-10.3857
终端	-10.3857
环境保护	-10.3859
0.4	-10.386
科普	-10.3865
差异	-10.3867
防水	-10.387
农产品	-10.3871
导师	-10.3871
(2)	-10.3873
-)	-10.388
泰国	-10.3882
深刻	-10.3883
。现为	-10.3886
削	-10.3888
1.3	-10.3888
饱	-10.3889
叹	-10.3892
振动	-10.3894
,采用	-10.3896
琳	-10.3897
太平洋	-10.39
了《	-10.39
2.2	-10.39
工会	-10.3903
峡	-10.3903
1人,	-10.3903
拆	-10.3904
,现有	-10.3907
响应	-10.3908
有关部门	-10.3908
盾	-10.391
大约	-10.3911
不再	-10.3912
斤	-10.3916
权利	-10.3919
财富	-10.392
()、	-10.3922
1935年	-10.3924
煤矿	-10.3927
锅炉	-10.3931
青岛市	-10.3936
搜	-10.3938
伞	-10.3939
设定	-10.3941
:支持	-10.3941
喀	-10.3941
有限公司是一家	-10.3941
,特别是	-10.3943
大酒店	-10.3943
学生的	-10.3944
0～	-10.3946
促	-10.3947
千米	-10.3947
水分	-10.3955
铅	-10.3956
,原	-10.3958
眼睛	-10.3961
失去	-10.3962
。这种	-10.3962
缴	-10.3962
两大	-10.3963
手册	-10.3965
科研项目	-10.3965
1.4	-10.3966
奋	-10.3966
发展,	-10.3972
设备、	-10.3972
,致力于	-10.3973
只要	-10.3973
物品	-10.3974
,只	-10.3974
攀	-10.3974
浇	-10.3975
警察	-10.3976
新颖	-10.3978
手法	-10.398
水果	-10.3982
一本	-10.3984
更为	-10.3988
练习	-10.3992
乃至	-10.3993
澳门	-10.3995
衬	-10.4
政协委员	-10.4002
公司。	-10.4002
和发展	-10.4004
共和国	-10.4004
”之	-10.4005
肌肤	-10.4009
研究》	-10.4012
薯	-10.4012
炎、	-10.4013
和管理	-10.4021
而言	-10.4024
是集	-10.4025
挑	-10.4026
出身	-10.4027
游客	-10.4032
宁夏	-10.4039
一天	-10.4044
礼品	-10.4047
无毛	-10.4057
允许	-10.4057
的目标	-10.4058
氟	-10.4059
橙	-10.4061
.06	-10.4068
专业委员会	-10.4068
瑶	-10.4068
,曾任	-10.4069
素质教育	-10.4069
注:“	-10.4076
审批	-10.4077
镇政府	-10.4078
伦敦	-10.4081
悠	-10.4092
胺	-10.4092
真空	-10.4093
赢得	-10.4096
呈现	-10.4097
解放军	-10.41
深受	-10.4101
内有	-10.4105
脾	-10.4105
竞争力	-10.4118
铸造	-10.4119
县人。	-10.412
暨	-10.4121
全新的	-10.4123
艇	-10.4125
考古	-10.4127
桂林	-10.413
矩	-10.4139
观赏	-10.414
百余	-10.414
皖	-10.4141
长安	-10.415
1934年	-10.4154
7.5	-10.4157
扑	-10.4158
依靠	-10.4159
体内	-10.416
释义	-10.4161
市政	-10.4162
发展成为	-10.4163
支队	-10.4167
社科	-10.4167
》中的	-10.417
(.)	-10.417
合作,	-10.4171
平米	-10.4172
美观	-10.4174
发送	-10.4176
一块	-10.4181
定期	-10.4181
补充	-10.4182
氛围	-10.4183
1933年	-10.4191
设计,	-10.4192
是美国	-10.4193
中西医结合	-10.4194
华北	-10.4194
十九	-10.4196
排水	-10.4196
疗效	-10.4198
战国	-10.4199
拓	-10.4201
水中	-10.4204
产品。	-10.4204
研究工作	-10.4207
禹	-10.4209
和其他	-10.4213
厨	-10.4214
局部	-10.4217
机会	-10.4219
县人,	-10.4226
清朝	-10.4227
竟	-10.4228
一百	-10.423
沿海	-10.4232
100克	-10.4233
东莞	-10.4234
南昌	-10.4235
江县	-10.4243
实业	-10.4246
滞	-10.4248
ˇ	-10.4249
一层	-10.425
则是	-10.425
腊	-10.4252
的研发	-10.4252
收费	-10.4255
旅行	-10.4256
疼痛	-10.4259
全日制	-10.4264
教育教学	-10.4264
用地	-10.4265
人群	-10.4267
是我们	-10.427
鳍	-10.427
工艺美术	-10.4272
目录	-10.4276
伟大	-10.4277
当然	-10.4282
厚度	-10.4284
搅拌	-10.4284
教学工作	-10.4286
释放	-10.4287
斯坦	-10.4288
史上	-10.4288
技术和	-10.4295
总线	-10.4297
半岛	-10.4299
随后	-10.4304
灌木	-10.4305
上述	-10.4305
淳	-10.4307
的形式	-10.4307
2014年	-10.4308
消除	-10.4309
〔	-10.431
行政管理	-10.4312
孢子	-10.4314
韧	-10.4315
来说	-10.4316
中原	-10.4317
问题的	-10.432
网友	-10.4324
邮件	-10.4325
工业大学	-10.4327
(公元	-10.4329
利润	-10.4333
匠	-10.4334
东南部	-10.4335
广泛的	-10.4336
草原	-10.4336
在这	-10.4337
工作室	-10.4339
法律法规	-10.4339
做出了	-10.4339
四季	-10.434
禾	-10.4344
的需要	-10.4346
1997	-10.4346
披	-10.4348
西北部	-10.4349
融资	-10.4351
,是中国	-10.4354
睿	-10.4355
转变	-10.4355
突然	-10.4356
责	-10.4358
最好	-10.4359
怡	-10.4365
那么	-10.4365
内涵	-10.4365
危机	-10.4367
法人	-10.4371
带动	-10.4372
奥运会	-10.4373
真诚	-10.4376
-7	-10.4376
弹性	-10.4377
模特	-10.4383
取出	-10.4389
还可以	-10.4393
好评。	-10.4396
著有《	-10.4397
140	-10.4399
历代	-10.4401
螺旋	-10.4402
使其	-10.4411
违	-10.4411
讨	-10.4414
男人	-10.4416
组长	-10.4417
知识产权	-10.4418
。宋	-10.4419
ー	-10.442
的目的	-10.4421
研究方向	-10.4431
香味	-10.4434
1/	-10.4438
剥	-10.4442
扭	-10.4444
杂交	-10.4444
邵	-10.4446
挖	-10.4448
烫	-10.4449
咏	-10.4451
而成。	-10.4453
1人	-10.4453
入党	-10.4456
处,	-10.4459
虞	-10.4459
温馨	-10.446
1996	-10.446
管理人员	-10.446
≤	-10.4466
协作	-10.4468
注射	-10.4469
携	-10.447
8-	-10.4472
包括:	-10.4472
饰演	-10.4473
汉字	-10.4476
±	-10.4476
十佳	-10.448
景点	-10.4483
风情	-10.4483
直立	-10.4484
市民	-10.4487
、西	-10.4492
开创	-10.4495
族自治县	-10.4495
商会	-10.4496
怨	-10.4496
权益	-10.4497
1941年	-10.4499
又有	-10.4502
国有	-10.4505
弟子	-10.4506
1942年	-10.4507
方针	-10.4509
,这是	-10.451
一类	-10.4511
箭	-10.4511
4.	-10.4511
9787	-10.4514
便于	-10.4515
消息	-10.4518
爪	-10.4519
恰	-10.452
不但	-10.4522
综	-10.4522
颁发的	-10.4526
怎么	-10.4527
四十	-10.4528
音乐学院	-10.4529
成型	-10.453
性强	-10.4532
而成的	-10.4535
1600	-10.454
大专	-10.4543
农作物	-10.4546
新兴	-10.4546
遍布	-10.4547
洒	-10.455
搭	-10.4552
文明单位	-10.4553
8000	-10.4556
一首	-10.4557
光绪	-10.456
1967年	-10.4563
巴西	-10.4571
微生物	-10.4572
高等学校	-10.4574
也称	-10.4579
(学名:)	-10.4589
,而是	-10.4589
长春	-10.4592
馅	-10.4594
传承	-10.4595
企业家	-10.4596
戏曲	-10.4598
细菌	-10.4598
1930年	-10.46
加速	-10.4601
的内容	-10.4601
及其他	-10.4604
时期的	-10.4605
起到	-10.4607
览	-10.4608
丑	-10.4609
观点	-10.4609
浪漫	-10.4611
1.1	-10.4611
,努力	-10.4612
纤	-10.4612
,甚至	-10.4616
热爱	-10.4617
主要用于	-10.4617
精选	-10.4618
!”	-10.4622
官方	-10.4624
办公室、	-10.4627
预算	-10.4627
纬	-10.4629
尸	-10.4634
砌	-10.4634
色泽	-10.4636
上升	-10.4639
亨	-10.4642
东莞市	-10.4642
中国共产党	-10.4642
历经	-10.4642
:1.	-10.4647
鲍	-10.465
矣	-10.465
2号	-10.4658
面积1	-10.4663
必要	-10.467
的基础	-10.467
神话	-10.4675
身高	-10.4676
夫人	-10.4678
劳动模范	-10.4678
姑	-10.4679
捞出	-10.468
作用,	-10.4681
繁荣	-10.4681
观光	-10.4683
优异	-10.4687
家乡	-10.4687
三种	-10.4687
有时	-10.4689
显示屏	-10.469
骨干教师	-10.469
7人	-10.4693
宋代	-10.4698
5.5	-10.4699
难以	-10.47
海内外	-10.4703
疫	-10.4707
岁的	-10.4707
绒	-10.471
350	-10.4716
河流	-10.4719
伙	-10.4719
劫	-10.4721
哀	-10.4724
体重	-10.4725
胡萝卜	-10.4725
法院	-10.473
人间	-10.4732
。因	-10.4735
发病	-10.4736
荣誉称号	-10.4736
总局	-10.4738
痕	-10.4739
途径	-10.4745
总体	-10.4747
商家	-10.4748
1944年	-10.4748
多少	-10.4749
财经	-10.4751
克斯	-10.4751
能力,	-10.4751
、小	-10.4753
精湛	-10.4753
男性	-10.4754
总裁	-10.4754
相应的	-10.4757
典型的	-10.4759
固体	-10.476
矿物	-10.476
弓	-10.476
使得	-10.4761
锂电池	-10.4761
管理系统	-10.4762
3.0	-10.4763
之外	-10.4769
)人。	-10.4771
滋	-10.4771
洗净,	-10.4772
等行业	-10.4773
酮	-10.4774
的意思	-10.4775
王朝	-10.4778
笔名	-10.4783
较多	-10.4786
籍贯	-10.4787
米,年平均气温	-10.4787
之乡	-10.4788
为宗旨	-10.4789
扩	-10.4792
炖	-10.4793
姬	-10.4802
物资	-10.4806
农场	-10.4809
最近	-10.4809
涵盖	-10.4811
绩	-10.4812
文化艺术	-10.4814
.04	-10.4816
起点	-10.4817
博士后	-10.4817
业界	-10.4818
航天	-10.482
两人	-10.482
教研室	-10.4823
灰色	-10.4823
、电子	-10.4826
精度	-10.4826
。历任	-10.4829
为主要	-10.4833
跌	-10.4836
穿越	-10.4836
实时	-10.4836
太子	-10.4837
篮	-10.4839
前往	-10.4839
灾害	-10.4845
尹	-10.4845
精美	-10.4846
球场	-10.485
。自	-10.4851
鲜明	-10.4853
委员会副主任	-10.4853
肯定	-10.4866
谜	-10.4867
服务于	-10.4872
积累	-10.4876
昏	-10.4877
处。	-10.4877
繁殖	-10.488
怪兽	-10.4884
户外	-10.4887
拉斯	-10.4888
祖国	-10.4888
,最后	-10.4894
外交	-10.4901
国王	-10.4906
2项	-10.4907
秉承“	-10.4908
甫	-10.4909
机构。	-10.491
该书	-10.491
系数	-10.4913
属性	-10.4913
随机	-10.4914
去皮	-10.4916
剿	-10.4916
携手	-10.4917
今年	-10.4925
徐州	-10.4925
常规	-10.4928
》杂志	-10.4929
》一书	-10.4929
的变化	-10.493
企事业单位	-10.4933
执法	-10.4938
能力。	-10.4938
活动的	-10.4939
规范化	-10.4939
。为了	-10.4943
,负责	-10.4945
个村民小组,	-10.4947
菩萨	-10.4952
作曲	-10.4953
计划生育	-10.4955
商城	-10.4958
妻子	-10.4958
相结合	-10.4958
德育	-10.4959
篮球	-10.4964
疗法	-10.4965
。同时	-10.4969
帆	-10.497
中国当代	-10.4972
框	-10.4974
捐	-10.4976
主力	-10.4976
桶	-10.4976
少数	-10.4978
矿山	-10.498
菱	-10.498
于一体	-10.4981
重要参数	-10.4982
(即	-10.4983
资助	-10.4986
实习	-10.4988
学位	-10.4989
的管理	-10.4989
两岸	-10.4991
科室	-10.4992
爱国	-10.4992
生产设备	-10.4994
失败	-10.4994
东北部	-10.4995
等职	-10.4996
喻	-10.4996
划分	-10.4999
腹部	-10.5003
心灵	-10.5005
也可	-10.5008
有了	-10.5008
竭	-10.5008
辟	-10.5009
光滑	-10.5009
科研成果	-10.5009
民营企业	-10.501
15克	-10.501
,这种	-10.5011
▁(2)	-10.5011
理学	-10.5015
英文名	-10.5016
90%	-10.5017
多元化	-10.5019
正是	-10.5021
狐	-10.5021
去世	-10.5024
割	-10.503
身上	-10.5038
吻	-10.504
账	-10.5043
陇	-10.5044
书院	-10.5044
理想	-10.5045
第4	-10.5046
▁5	-10.5046
村庄	-10.5046
,原名	-10.5047
颖	-10.5049
平方米,建筑面积	-10.5052
科科长	-10.5054
注入	-10.5054
斩	-10.5055
元件	-10.5062
活跃	-10.5062
互相	-10.5062
大夫	-10.5063
现状	-10.5067
趋势	-10.5071
评选	-10.5071
网卡	-10.5071
科学家	-10.5073
康熙	-10.5073
,是一家	-10.5074
扰	-10.5077
是一本	-10.5078
场地	-10.5079
的话	-10.5079
在上海	-10.5079
事实	-10.5081
西南部	-10.5082
栽	-10.5083
即将	-10.5085
高品质	-10.5085
街道办事处	-10.5086
列入	-10.5091
文联	-10.5094
厂、	-10.5094
生产、	-10.51
火山	-10.51
中等	-10.5102
宣布	-10.5111
家园	-10.5112
潮流	-10.5113
鞘	-10.5115
建筑物	-10.5116
:5	-10.5122
360	-10.5125
蜡	-10.5126
一道	-10.5127
贫困	-10.5127
观音	-10.5128
竞	-10.5129
燃烧	-10.5129
。2006年	-10.5129
纽	-10.513
生物学	-10.5131
可爱	-10.5135
剧团	-10.514
说,	-10.5143
,为了	-10.5144
常务	-10.5145
模范	-10.5148
挤	-10.5148
昔	-10.515
返回	-10.515
坎	-10.5153
务实	-10.5154
前沿	-10.5155
新鲜	-10.5155
生产企业	-10.5157
研究成果	-10.5162
防御	-10.5165
报》、《	-10.5165
危害	-10.5166
另有	-10.5166
的综合	-10.5172
停车场	-10.5173
一期	-10.5175
0.7	-10.5177
副局长	-10.5178
口味	-10.518
力求	-10.5185
屡	-10.5186
物体	-10.5189
口径	-10.519
经》	-10.5192
院士	-10.5192
组成部分	-10.5192
国际化	-10.5192
游击队	-10.5193
引领	-10.5195
下面	-10.5196
向上	-10.5198
十字	-10.5199
光泽	-10.5199
(16	-10.52
太原	-10.52
区、	-10.5206
原有	-10.5208
成功的	-10.5213
验收	-10.5215
审判	-10.5216
▁我们	-10.5218
仍然	-10.5219
都能	-10.5221
,同时也	-10.5222
分校	-10.5223
联邦	-10.5228
定点	-10.5228
水产	-10.5229
历史悠久	-10.5229
彻底	-10.5234
为本	-10.5236
男汉族	-10.5238
结晶	-10.5238
让你	-10.5239
枢	-10.524
定制	-10.5244
二次	-10.5245
长城	-10.5249
的时候,	-10.525
、文化	-10.5254
-9	-10.5254
竖	-10.5255
诊治	-10.5255
主营	-10.5255
▁-	-10.526
黔	-10.5263
鼠标	-10.5268
部部长	-10.5271
曲线	-10.5271
地段	-10.5272
1/2	-10.5273
紫色	-10.5275
方言	-10.5278
中国古代	-10.5279
检察	-10.5286
司马	-10.5286
谐	-10.5287
应急	-10.5289
南京市	-10.5289
问题。	-10.5289
管理体系	-10.529
-12	-10.529
剧院	-10.5291
精华	-10.5294
2.8	-10.5299
化妆品	-10.5299
巨大的	-10.5299
殷	-10.5301
承包	-10.5301
石化	-10.5304
因其	-10.5305
始终坚持	-10.5305
优势,	-10.5306
拌匀	-10.5308
谭	-10.531
下降	-10.531
就读于	-10.5312
经贸	-10.5315
绥	-10.5317
1%	-10.5321
2.3	-10.533
锅内	-10.533
▁我	-10.5333
光电	-10.5333
设备,	-10.5337
/3	-10.534
生殖	-10.5341
6.5	-10.5342
得以	-10.5346
地域	-10.5347
起了	-10.5347
杭州市	-10.535
教学楼	-10.535
美好	-10.5351
个性化	-10.5353
陕	-10.5353
卜	-10.5353
当今	-10.5364
师从	-10.5368
的价格	-10.5369
作品《	-10.5371
错误	-10.5373
,支持	-10.5374
山地	-10.5374
通过了	-10.5376
1943年	-10.5379
▁2008年	-10.5379
恭	-10.538
强大	-10.5383
片,	-10.5383
》,《	-10.5384
▁最大	-10.5385
辩	-10.5386
170	-10.5389
的音乐	-10.5392
华侨	-10.5395
有人	-10.5398
把握	-10.5399
化石	-10.54
疆	-10.5402
选手	-10.5403
基金会	-10.5405
申报	-10.5408
山脉	-10.5408
猴	-10.5412
匪	-10.5415
主持人	-10.5415
低温	-10.5415
宽度	-10.5416
天文	-10.5418
历程	-10.5418
疾病的	-10.5419
临时	-10.5419
为人	-10.542
瑞士	-10.5423
遮	-10.5426
地理位置优越	-10.5426
即使	-10.5427
南海	-10.5427
坚持“	-10.543
等方面的	-10.5432
沧	-10.5432
工作中	-10.5434
中南	-10.5437
世界上	-10.5438
贪	-10.5439
枫	-10.5441
生育	-10.5442
的生产	-10.5442
许可证	-10.5444
,便	-10.5447
服务、	-10.5448
的综合性	-10.545
治安	-10.5451
足球运动员,	-10.5451
第三届	-10.5452
命运	-10.5455
专职	-10.5456
的学生	-10.5456
确	-10.5463
仪式	-10.5463
怎样	-10.5464
海南省	-10.5464
函授	-10.5466
少量	-10.5466
管理,	-10.5467
年来,	-10.5472
大理	-10.5472
友好	-10.5473
的宗旨	-10.5473
顶端	-10.5474
()。	-10.5476
技术服务	-10.5476
制冷	-10.5478
保温	-10.5481
副校长	-10.5481
10个	-10.5483
乐器	-10.5484
渗	-10.5485
全镇	-10.5489
研究室	-10.5492
分解	-10.5495
.02	-10.5495
可选	-10.5498
牛肉	-10.5498
8%	-10.5498
工程学院	-10.5499
大大	-10.55
方法。	-10.55
,你	-10.5502
稳定性	-10.5505
任中共	-10.5508
处长	-10.5509
立即	-10.5512
适当	-10.5513
莲花	-10.5514
吞	-10.5515
经济效益	-10.5516
1995	-10.5516
80%	-10.5517
民俗	-10.552
2%	-10.5523
の	-10.5523
四周	-10.5523
相应	-10.5525
。此外,	-10.5527
说:“	-10.5528
5分钟	-10.5529
承诺	-10.5532
盐业	-10.5532
铁道	-10.5532
,简称	-10.5532
日军	-10.5536
设备的	-10.5538
籽	-10.5539
加以	-10.554
奖”	-10.554
和技术	-10.5541
了大量	-10.5541
经营管理	-10.5542
见于	-10.5543
优良的	-10.5544
较大的	-10.5545
。如果	-10.5547
显存	-10.5548
杉	-10.5551
兼职	-10.5551
委员、	-10.5552
轨道	-10.5553
,遂	-10.5557
麟	-10.5562
渗透	-10.5563
应用于	-10.5563
匹	-10.5565
经济开发区	-10.5565
判断	-10.5565
电台	-10.5565
气息	-10.5573
顽	-10.5573
会展	-10.5574
内存容量	-10.5575
筛	-10.5577
个村民小组	-10.5578
白云	-10.5581
妮	-10.5583
面上	-10.5586
1931年	-10.5586
第九	-10.5589
187	-10.559
冶	-10.5592
1929年	-10.5594
级别	-10.5595
选举	-10.56
足球俱乐部。	-10.56
晶体	-10.5601
欣赏	-10.5602
。现有	-10.5604
锌	-10.5604
旨	-10.5605
2人,	-10.561
路,	-10.561
发展战略	-10.561
1932年	-10.5612
出场	-10.5613
投影	-10.5617
罩	-10.5617
256	-10.5617
数百	-10.5618
皱	-10.5618
的一部	-10.5618
总是	-10.5619
术语	-10.5619
抹	-10.5621
工业园区	-10.5621
,又名	-10.5621
木材	-10.5622
,分别	-10.5623
隧道	-10.5624
工程、	-10.5624
南通	-10.5628
挖掘	-10.5631
使命	-10.5634
省教育厅	-10.5636
通风	-10.5636
并在	-10.564
30克	-10.5641
获取	-10.5641
地上	-10.5642
的应用	-10.5642
用水	-10.5645
泻	-10.5647
复制	-10.5647
大多数	-10.5648
由中国	-10.5652
六十	-10.5652
后任	-10.5652
皇家	-10.5654
10分钟	-10.5659
细腻	-10.5662
冀	-10.5664
国画	-10.5665
贝尔	-10.5666
研究生学历	-10.5667
王国	-10.5673
国产	-10.5674
值得	-10.568
交界	-10.5682
杏	-10.5682
经验丰富	-10.5684
2人	-10.5688
风湿	-10.5689
遣	-10.5689
个自然村	-10.569
社会各界	-10.5695
此外	-10.5697
那个	-10.57
典雅	-10.5701
对应	-10.5701
本科学历	-10.5702
器,	-10.5703
发展规划	-10.5703
.05	-10.5703
渝	-10.5706
腐蚀	-10.5709
?”	-10.571
科学研究	-10.5711
寿命	-10.5719
交叉	-10.5721
著有	-10.5725
卵形	-10.5727
性。	-10.5728
浓郁	-10.5729
学专业	-10.5729
调研	-10.5733
同时也	-10.5734
一张	-10.5735
龙头	-10.5735
推出的	-10.5739
专业技术人员	-10.574
隶	-10.5742
诉讼	-10.5742
外部	-10.5749
沸	-10.5758
时代的	-10.576
擦	-10.5762
锈	-10.5762
脏	-10.5765
褐	-10.5767
态度	-10.5768
事迹	-10.5768
擅	-10.5768
蓝牙	-10.5768
钝	-10.577
,既	-10.5771
▁2009年	-10.5774
主流	-10.5774
紧邻	-10.5776
变得	-10.5776
整形	-10.5777
进取	-10.5777
消失	-10.5782
对照	-10.5785
全自动	-10.5786
186	-10.579
顶级	-10.5791
党委委员	-10.5791
版)	-10.5792
过程中,	-10.5792
规模最大	-10.5793
苔	-10.5794
,占地	-10.5798
间的	-10.5799
举办的	-10.5801
东邻	-10.5802
木马	-10.5803
剧情	-10.5804
丰富,	-10.5805
房产	-10.5805
作者:	-10.5809
,因而	-10.581
胶囊	-10.5811
办公厅	-10.5812
焉	-10.5815
小火	-10.582
书画家	-10.5825
20年	-10.5825
有力	-10.5826
遵循	-10.5827
投资者	-10.5829
鱼类	-10.5832
丈	-10.5836
居委会	-10.5838
优惠	-10.584
马来西亚	-10.5841
笔记本	-10.5842
某一	-10.5844
点击	-10.5848
财产	-10.5853
形势	-10.5854
....	-10.5855
研讨会	-10.5856
。同时,	-10.5856
家协会会员	-10.5856
三星	-10.5857
主任,	-10.5865
萝卜	-10.5865
祛	-10.5868
高原	-10.5869
停止	-10.5869
各国	-10.5872
人民法院	-10.5873
的基础上,	-10.5874
糖尿病	-10.5874
职业教育	-10.5875
研究和	-10.5876
某种	-10.5878
也就是	-10.5881
,向	-10.5882
▁中文	-10.5886
中西	-10.5889
递	-10.5894
卤	-10.5896
队员	-10.5897
国家自然科学基金	-10.5898
发酵	-10.5899
家。	-10.5899
香菇	-10.5899
为一体	-10.5899
大专学历	-10.59
邱	-10.5901
芝麻	-10.5902
无数	-10.5903
是经	-10.5904
福利	-10.5904
的艺术	-10.5905
曰:‘	-10.5908
一颗	-10.5911
★	-10.5912
珠海	-10.5913
为基础	-10.5916
大门	-10.5918
玩具	-10.5923
、北京	-10.5923
反对	-10.5926
最早的	-10.5927
绝缘	-10.5928
,这些	-10.5931
隙	-10.5932
饮料	-10.5932
红外	-10.5933
105	-10.5935
麦克风	-10.5936
聚集	-10.5937
为您	-10.5938
蹄	-10.5938
指南	-10.594
平安	-10.5941
表明	-10.5942
女,	-10.5943
厢	-10.5946
面积约	-10.595
家用	-10.595
的一所	-10.595
干扰	-10.595
的办学	-10.5951
精致	-10.5951
劝	-10.5951
客人	-10.5953
改革开放	-10.5953
,现为	-10.5954
债	-10.5956
第一届	-10.5958
省政府	-10.5959
超越	-10.5961
贯穿	-10.5962
一对	-10.5974
办公室副主任	-10.5975
竣工	-10.5977
丞	-10.5981
轰	-10.5981
省部级	-10.5981
导航	-10.5982
尧	-10.5983
霉	-10.5983
全世界	-10.5985
不用	-10.5987
神奇	-10.5991
路、	-10.5992
房、	-10.5993
很快	-10.5995
视角	-10.5998
更高	-10.6
(包括	-10.6001
分局	-10.6003
地理位置	-10.6003
是一位	-10.6003
维持	-10.6004
(,)	-10.6005
描写	-10.6006
研究,	-10.6007
坤	-10.6012
和服务	-10.6012
儿子	-10.6014
当选为	-10.6014
的发展,	-10.6014
撞	-10.6025
,现在	-10.6027
宗旨,	-10.6029
子公司	-10.6029
,深受	-10.6031
▁二	-10.6034
可用	-10.6034
型企业	-10.6034
奖项	-10.6036
扎实	-10.6037
例如	-10.6038
部件	-10.6038
檐	-10.604
部副部长	-10.6041
一份	-10.6047
婚姻	-10.6048
恐	-10.6048
设计的	-10.605
提高了	-10.6051
日益	-10.6051
同类	-10.6052
艺术学院	-10.6056
切割	-10.6057
阿拉伯	-10.6058
的经营理念	-10.6058
实际上	-10.606
游戏中	-10.6065
消耗	-10.6066
延长	-10.6066
μ	-10.6066
开水	-10.6069
的名字	-10.6072
美味	-10.6073
一日	-10.6074
上部	-10.6078
入口	-10.6078
马克思主义	-10.608
妹	-10.608
此时	-10.608
让您	-10.608
及相关	-10.6083
栓	-10.6083
租赁	-10.6087
跟踪	-10.6089
毕业,	-10.609
▁2006年	-10.609
体长	-10.6091
的社会	-10.6091
成品	-10.6092
共青团	-10.6093
纠错	-10.6094
全身	-10.6095
领导的	-10.6097
歇	-10.6097
,形成了	-10.6102
实例	-10.6102
客户提供	-10.6105
初,	-10.6107
澳	-10.611
剂、	-10.6111
萍	-10.6111
2)	-10.6113
健全	-10.6115
▁用法	-10.6118
与管理	-10.6123
,总	-10.6128
彼	-10.613
等等。	-10.6131
初步	-10.6132
移民	-10.6133
祖籍	-10.6135
别名	-10.6136
博览会	-10.6136
卓越	-10.6139
同行	-10.6139
有林地	-10.6139
而成,	-10.6141
本人	-10.6142
框架	-10.6146
熟悉	-10.6146
光盘	-10.6147
公众	-10.6147
被授予	-10.6148
相继	-10.6149
大于	-10.6151
1公里	-10.6154
出血	-10.6154
更好的	-10.6154
#	-10.6159
堪	-10.6164
主任、	-10.6166
要素	-10.6168
后又	-10.6169
暑	-10.617
人大代表	-10.6175
分钟车程	-10.6177
▁二、	-10.6178
高清	-10.618
〉	-10.6181
外壳	-10.6182
奎	-10.6184
敦	-10.6185
物业管理	-10.6188
收购	-10.6188
配方	-10.6189
衍	-10.6189
80年代	-10.6192
宿舍	-10.6194
。同年	-10.6197
枕	-10.6201
物种	-10.6202
电阻	-10.6203
栖息	-10.6205
功能:	-10.6205
妈妈	-10.621
效果。	-10.6213
初级	-10.6214
罢	-10.6215
自行	-10.6216
,是一所	-10.6219
吟	-10.6219
点,	-10.6221
经费	-10.6222
,不仅	-10.6222
潜力	-10.6223
住房	-10.6225
业余	-10.6226
、南	-10.6229
早年	-10.623
进攻	-10.6234
县人	-10.6241
矮	-10.6244
用作	-10.6246
125	-10.6247
坦克	-10.6247
事。	-10.625
亦称	-10.625
3.2	-10.6253
喉	-10.6258
是日本	-10.6259
卫生部	-10.6262
缺乏	-10.6263
灌溉	-10.6263
残疾人	-10.6264
教程	-10.6268
下游	-10.6269
初级中学	-10.627
庸	-10.6273
备用	-10.6276
专业毕业	-10.6277
,后来	-10.6277
张家	-10.6278
涵	-10.6279
东路	-10.628
,又称	-10.6281
寓	-10.6282
优秀奖	-10.6283
生产销售	-10.6285
香油	-10.6292
主张	-10.6292
胀	-10.6293
▁(3)	-10.6295
台北	-10.6298
主角	-10.6299
代替	-10.6299
沉积	-10.6299
埠	-10.6302
瑞典	-10.6302
工资	-10.6305
细节	-10.6305
9个	-10.6306
”,“	-10.6307
肃	-10.6307
。目前,	-10.6308
封闭	-10.6308
1993	-10.6309
好,	-10.6311
空中	-10.6313
1)	-10.6313
广阔	-10.6314
恐怖	-10.6315
抛	-10.6317
祸	-10.6321
藏书	-10.6321
岁时	-10.6323
一线	-10.6327
宏观	-10.6333
、盐	-10.6333
研究。	-10.6334
(或	-10.6335
〈	-10.6335
一处	-10.6336
以此	-10.6336
建筑工程	-10.6339
。但是	-10.634
所致	-10.6345
膝	-10.6346
3人	-10.6353
增值	-10.6354
产地	-10.6354
攻关	-10.6355
稳定的	-10.6355
钾	-10.6359
的第一	-10.6361
先后任	-10.6361
线,	-10.6362
笔画	-10.6362
调入	-10.6364
德·	-10.6367
▁电源	-10.6368
工程技术	-10.6368
民办	-10.6371
185	-10.6372
爆发	-10.6372
垃圾	-10.6374
高山	-10.6376
参编	-10.6377
阜	-10.6382
▁2007年	-10.6385
512	-10.6385
教堂	-10.6387
5克	-10.639
反射	-10.6391
珍贵	-10.6396
礼仪	-10.6398
,以“	-10.6399
模式,	-10.64
履行	-10.6405
粥	-10.6405
金刚	-10.6409
录》	-10.6409
弘扬	-10.6409
语:	-10.6409
况	-10.6412
简介:	-10.642
攻读	-10.6421
政务	-10.6422
临沂	-10.6422
鼓励	-10.6426
糕	-10.6428
塑造	-10.6429
有限	-10.6432
(15	-10.6433
一贯	-10.6433
灵魂	-10.6436
地址:	-10.6438
确认	-10.644
,作为	-10.644
肚	-10.6442
编著	-10.6442
畅销	-10.6442
电影《	-10.6443
108	-10.6445
学科带头人	-10.6451
将会	-10.6452
代谢	-10.6453
ン	-10.6456
民营	-10.6457
万字	-10.6458
厘米。	-10.6459
回国	-10.6461
法》	-10.6464
吉他	-10.6464
。这些	-10.6465
它是	-10.6471
监理	-10.6474
人大常委会	-10.6475
再生	-10.6475
爬	-10.6477
。因此,	-10.6483
1800	-10.6483
烷	-10.6483
打击	-10.6484
于此	-10.6492
教授、	-10.65
也会	-10.6501
元年	-10.6501
疹	-10.6503
荫	-10.6505
山镇	-10.6505
国际机场	-10.6505
450	-10.6505
新世纪	-10.6505
全力	-10.6507
采用了	-10.6507
渭	-10.6509
文化的	-10.651
分散	-10.6511
他人	-10.6512
青海	-10.6513
8号	-10.6514
。2008年	-10.6515
南县	-10.6526
保卫	-10.653
搞	-10.6536
存在的	-10.6536
的不同	-10.6536
280	-10.654
村。	-10.654
襄	-10.6542
随时	-10.6543
黏	-10.6545
为客户	-10.6545
控制系统	-10.6546
主人	-10.6548
明朝	-10.6549
那里	-10.655
是为了	-10.6552
引入	-10.6554
担保	-10.6554
翻炒	-10.6556
,是一个	-10.6557
千克	-10.6558
,于是	-10.656
可分为	-10.6561
花椒	-10.6563
15年	-10.6563
09	-10.6564
拾	-10.6564
1992	-10.6567
总理	-10.6568
配送	-10.6568
选育	-10.6571
刑事	-10.6572
畜	-10.6573
节约	-10.6575
肌肉	-10.6575
金山	-10.6578
累计	-10.658
黄山	-10.6581
可以在	-10.6583
现存	-10.6584
镁	-10.6587
特点是	-10.6588
哪	-10.6594
光明	-10.6597
时期,	-10.6598
梵	-10.6599
他是	-10.66
精盐	-10.6602
流体	-10.6602
,坚持	-10.6603
臭	-10.6606
上游	-10.6609
南路	-10.6609
山坡	-10.661
相当于	-10.6611
做了	-10.6614
▁(1)	-10.6615
外,还	-10.6618
于2010年	-10.6618
描述:	-10.6619
遵	-10.6619
设施齐全	-10.662
支部	-10.6621
海关	-10.6621
编剧	-10.6623
严格的	-10.6623
精确	-10.6628
1994	-10.6632
。2005年	-10.6633
的能力	-10.6634
组织的	-10.6637
孔子	-10.6637
预计	-10.6639
,全面	-10.664
华中	-10.664
几十	-10.664
管理的	-10.6643
平县	-10.6644
3%	-10.6644
青睐	-10.6647
▁2010年	-10.6649
心脏	-10.665
%%	-10.6651
命令	-10.6652
大臣	-10.6653
编号	-10.6654
晴	-10.6657
多部	-10.6659
加大	-10.6663
棕	-10.6664
委员。	-10.6669
赢	-10.667
本科生	-10.6673
组织实施	-10.6674
搭配	-10.6674
惯	-10.6682
就有	-10.6684
饮用	-10.6686
面临	-10.669
;负责	-10.6691
发掘	-10.6692
烦	-10.6694
桔	-10.6697
机身	-10.6697
清新	-10.6698
巫	-10.6699
一步	-10.67
粉末	-10.6702
:9	-10.6703
鞍	-10.6704
纠	-10.671
蚀	-10.671
。位于	-10.6713
。”清	-10.6716
测绘	-10.6716
内地	-10.6717
书法家	-10.6719
会议室	-10.6723
龙头企业	-10.6725
声誉	-10.6728
弯曲	-10.6728
告诉	-10.6732
我校	-10.6733
矛盾	-10.6734
育人	-10.6734
病、	-10.6735
稠	-10.6736
邹	-10.6737
的功能	-10.6739
类别	-10.6744
住宿	-10.6745
畏	-10.6746
5人	-10.6749
3.3	-10.675
播出	-10.6755
农业部	-10.6756
单位。	-10.6758
公务员	-10.676
之子	-10.6764
为1	-10.6764
草本	-10.6765
对称	-10.6766
峻	-10.6767
应当	-10.6773
阶级	-10.6773
、李	-10.6775
旭	-10.6777
棘	-10.6779
传动	-10.6781
化合物	-10.6782
之称	-10.6782
于2009年	-10.6786
纳税	-10.6788
体制	-10.6789
润滑	-10.6792
在校学生	-10.6796
这就是	-10.6796
北宋	-10.6799
惑	-10.6802
啊	-10.6806
描绘	-10.681
叙	-10.6812
。”宋	-10.6817
三维	-10.6819
附件	-10.682
球形	-10.6821
,结合	-10.6826
480	-10.6827
4公里	-10.683
董事	-10.6831
涨	-10.6833
联络	-10.6833
反复	-10.6844
5～	-10.6845
3号	-10.6846
10%	-10.6851
陪	-10.6852
党支部书记	-10.6853
一款	-10.6853
1.7	-10.6854
南宋	-10.6854
手工	-10.6854
产业化	-10.6854
爆炸	-10.6855
。2007年	-10.6857
西路	-10.6858
知名度	-10.6858
激烈	-10.686
,乃	-10.6861
盲	-10.6861
客观	-10.6861
。根据	-10.6863
业内	-10.6864
鲁迅	-10.6864
元年(	-10.6865
第一家	-10.6865
腌	-10.6869
邢	-10.687
政委	-10.6871
环绕	-10.6871
承接	-10.6871
直到	-10.6873
视野	-10.6873
各自	-10.6875
很好的	-10.6877
全程	-10.688
签约	-10.6883
本土	-10.6883
冒险	-10.6884
,皆	-10.6886
补偿	-10.6889
红旗	-10.6891
冒	-10.6892
几年	-10.6896
泳	-10.6896
0.9	-10.6898
在国内外	-10.69
建校	-10.69
湛	-10.6902
重复	-10.6903
珍珠	-10.6905
▁出处	-10.6905
师资	-10.6906
公交	-10.6909
招商	-10.6909
放射	-10.691
改制	-10.6912
葡萄酒	-10.6913
,受到	-10.6914
主要以	-10.6914
感到	-10.6916
从小	-10.6916
开启	-10.6922
当中	-10.6924
报纸	-10.6926
全乡	-10.6927
抗战	-10.693
镀	-10.6934
左右。	-10.6936
3人,	-10.694
(含	-10.694
总监	-10.6943
经纪	-10.6944
试点	-10.6946
刮	-10.6953
瑟	-10.6955
教导	-10.6956
大多	-10.6956
现有员工	-10.6958
应力	-10.6958
海上	-10.6959
创作的	-10.696
论述	-10.6961
代表性	-10.6964
百货	-10.6966
都可以	-10.6967
峪	-10.6967
,获得	-10.6977
中国画	-10.6977
待机	-10.6977
兼容	-10.6978
供水	-10.6983
设计与	-10.6984
意外	-10.6984
5米	-10.6986
心血管	-10.6991
铁路局	-10.6992
口感	-10.6992
披针形	-10.6993
游泳	-10.6993
贵族	-10.6994
政治部	-10.6995
其间	-10.6996
年级	-10.6997
下部	-10.6998
旅客	-10.7
目前已	-10.7
函	-10.7002
关闭	-10.7006
;1	-10.7007
效力	-10.7014
。一般	-10.7015
棉花	-10.7016
收益	-10.7016
回收	-10.7017
花鸟	-10.7019
1名	-10.702
口服	-10.7021
20克	-10.7024
爱好	-10.7025
-11	-10.703
大批	-10.703
设在	-10.703
花序	-10.7031
。先后	-10.7035
生活中	-10.7036
创造了	-10.7037
桩	-10.7038
掩	-10.704
审查	-10.7048
成为了	-10.7049
任意	-10.705
浙江大学	-10.7051
工委	-10.7053
卸	-10.7055
常年	-10.7056
多为	-10.7056
事项	-10.7059
障	-10.7059
酬	-10.7062
就能	-10.7063
为什么	-10.7067
帘	-10.7068
来说,	-10.7072
礁	-10.7072
刹	-10.7073
为一	-10.7074
参加革命	-10.7075
玫瑰	-10.7077
出席	-10.7078
锤	-10.7079
纵横	-10.708
公司在	-10.7081
40余	-10.7083
常常	-10.7084
副书记	-10.7084
涡	-10.7087
。民国	-10.7087
时刻	-10.7089
乏	-10.7089
▁6、	-10.709
房地产开发	-10.709
择	-10.7091
生姜	-10.7096
猪肉	-10.7096
共分	-10.7098
万历	-10.7099
控制器	-10.71
优雅	-10.71
押	-10.7105
一件	-10.7106
官员	-10.7107
奸	-10.7107
电梯	-10.711
募	-10.7115
婴	-10.7115
一面	-10.7118
咨询服务	-10.7121
广大客户	-10.7125
她们	-10.7126
1927年	-10.7128
均可	-10.7131
8公里	-10.7131
烹	-10.7133
浏览	-10.7133
艰苦	-10.7136
面板	-10.7141
感应	-10.7149
真正的	-10.715
提示	-10.7152
。2009年	-10.7154
明清	-10.7154
大规模	-10.7156
中青年	-10.716
北海	-10.7162
质量管理	-10.7163
新生	-10.7167
无需	-10.7167
地形	-10.717
可用于	-10.7173
2.6	-10.7176
诊疗	-10.7177
牢	-10.7179
线上	-10.7179
硬度	-10.718
县长	-10.718
单曲	-10.718
),字	-10.7181
突出贡献	-10.7184
大学文化	-10.7185
善于	-10.7186
、创新	-10.7186
大同	-10.7188
信息系统	-10.719
仓储	-10.7193
长达	-10.7203
截止	-10.7203
摇滚	-10.7204
直流	-10.7207
负荷	-10.7207
药材	-10.7208
歌舞	-10.7211
缠	-10.7212
朔	-10.7214
惨	-10.7218
不断提高	-10.722
、旅游	-10.722
。经过	-10.7221
高等院校	-10.7224
,确保	-10.7226
项目的	-10.7227
饲养	-10.7228
仆	-10.7229
合作社	-10.723
中文名:	-10.723
,通常	-10.7235
窄	-10.7235
强烈	-10.7237
人才培养	-10.7243
工程建设	-10.7246
(2	-10.7248
崩	-10.725
1990	-10.725
外,	-10.7251
我市	-10.7254
对手	-10.7258
还原	-10.7259
结婚	-10.7259
塑胶	-10.7259
全村经济总收入	-10.726
板块	-10.7263
多元	-10.7268
祁	-10.7269
蕊	-10.727
过的	-10.7271
该公司	-10.7271
砚	-10.7273
的世界	-10.7273
南阳	-10.7274
泉州	-10.7276
华夏	-10.7277
敏感	-10.7277
季节	-10.7281
,除	-10.7282
薪	-10.7282
班主任	-10.7286
场景	-10.7289
为:	-10.7294
会计师	-10.7295
屑	-10.7296
主板	-10.7296
科技进步二等奖	-10.7296
中心小学	-10.7299
。2004年	-10.7305
邮政	-10.7306
藩	-10.7308
独具	-10.7309
湿地	-10.7313
党组织	-10.7314
学校。	-10.7314
赞誉	-10.7316
推行	-10.7318
中级	-10.7319
协会理事	-10.7319
达标	-10.732
等各种	-10.7321
病理	-10.7325
股份	-10.7325
梧	-10.7326
移植	-10.733
,美国	-10.7331
宁波市	-10.7331
简单的	-10.7335
燃料	-10.7338
西侧	-10.7338
艘	-10.7341
杆菌	-10.7341
寇	-10.7344
王子	-10.7344
进展	-10.7345
转向	-10.7349
书画院	-10.7349
美学	-10.7351
为其	-10.7353
增加了	-10.7353
萌	-10.7359
颠	-10.7363
副会长	-10.7364
亲自	-10.7365
前进	-10.7366
价值。	-10.7368
不易	-10.7371
厉	-10.7371
融入	-10.7371
编程	-10.7372
拘	-10.7373
世界各地	-10.7377
党政	-10.7379
小吃	-10.7379
风景秀丽	-10.7382
的行为	-10.7382
湿度	-10.7382
保定	-10.7383
尤其是	-10.7384
▁其它	-10.7384
主讲	-10.7385
说法	-10.7386
煲	-10.7388
的经营	-10.7388
放心	-10.7389
汾	-10.739
后卫	-10.7393
风雨	-10.7396
生产、销售	-10.7397
拍卖	-10.7397
蒸汽	-10.7398
储存	-10.7399
,是指	-10.7403
葫芦	-10.7406
名词	-10.7407
奴	-10.7407
之间,	-10.7409
单位:	-10.741
中文系	-10.741
企业文化	-10.7412
法律、法规	-10.7415
播种	-10.7416
9-	-10.7417
评为“	-10.7417
充分发挥	-10.7417
作了	-10.7419
是国家	-10.7419
人在	-10.742
天使	-10.7421
理论与	-10.7423
指的是	-10.7423
消毒	-10.7426
景色	-10.7426
培训中心	-10.7427
生活在	-10.7431
搏	-10.7433
市场上	-10.7436
4人	-10.7437
汇集	-10.7439
海峡	-10.744
冬季	-10.744
实战	-10.7441
考生	-10.7442
1928年	-10.7443
高血压	-10.7444
地势	-10.7446
身边	-10.7447
尽管	-10.7447
单独	-10.7448
词汇	-10.7454
石家庄	-10.7454
出租	-10.7455
宝石	-10.7457
国家一级	-10.7457
逼	-10.7459
联合国	-10.7459
北路	-10.746
连载	-10.7464
▁6.	-10.7469
馀	-10.747
钉	-10.7471
觉得	-10.7471
喜剧	-10.7472
芋	-10.7473
参谋	-10.7474
剩	-10.7475
编入	-10.7477
条例	-10.7477
以后,	-10.7479
分辨率:	-10.7479
庄村	-10.7482
村人	-10.7484
设备有限公司	-10.7484
究	-10.7486
傲	-10.7487
、全国	-10.7488
替代	-10.749
坚持以	-10.7493
学博士学位	-10.7493
特约	-10.7498
实训	-10.7498
并组织实施	-10.7499
『	-10.7502
～19	-10.7512
鞭	-10.7513
百万	-10.7514
产物	-10.7516
载体	-10.7517
汤匙	-10.7518
有利于	-10.752
副教授,	-10.7523
此后	-10.7524
司令部	-10.7535
花期	-10.7536
敷	-10.7537
宝宝	-10.7537
不变	-10.7542
5人,	-10.7543
中华医学会	-10.7544
规定的	-10.7548
,是一种	-10.755
保修	-10.755
设立的	-10.7553
细致	-10.7555
万像素	-10.7555
古老的	-10.7557
。现在	-10.7559
自治	-10.7561
畔	-10.7561
的同时	-10.7562
获全国	-10.7562
水面	-10.7566
优质的服务	-10.7566
拟任	-10.7569
济南市	-10.7573
东海	-10.7573
是因为	-10.7573
带着	-10.7574
出现在	-10.7574
于2011年	-10.7575
名师	-10.7576
12个	-10.7577
甘草	-10.7579
中央党校	-10.758
建国	-10.758
农药	-10.7583
防腐	-10.7584
:6	-10.7587
偿	-10.7591
,,,,	-10.7593
的思想	-10.7594
编码	-10.7594
秩序	-10.7598
千万	-10.7598
菜系	-10.7602
音箱	-10.7603
绞	-10.7604
就在	-10.7609
能力的	-10.7609
较小	-10.7609
长途	-10.7611
道教	-10.7611
工业园	-10.7612
,没有	-10.7613
▁(2).	-10.7614
6人,	-10.7615
3.6	-10.7615
耐磨	-10.7615
主任。	-10.7617
(1).	-10.7626
烟台	-10.7626
钢管	-10.7627
乐园	-10.7628
人均耕地	-10.7628
中期	-10.7634
7月毕业于	-10.7635
回归	-10.7637
3克	-10.7638
第四届	-10.7639
出任	-10.7645
溶解	-10.765
儿科	-10.765
可持续发展	-10.7651
2.7	-10.7651
虑	-10.7652
,2006年	-10.7653
约2	-10.766
政权	-10.7661
10000	-10.7667
≥	-10.7669
扩建	-10.7669
可口	-10.767
尤其	-10.7671
6%	-10.7673
星级	-10.7673
由原	-10.7678
式的	-10.7679
呢?	-10.7683
呢	-10.7683
词典	-10.7686
,2004年	-10.7688
优质的	-10.7688
水晶	-10.7691
委组织部	-10.7693
哭	-10.7694
物理学	-10.7695
晋升为	-10.7696
门户	-10.7697
、汽车	-10.7697
户型	-10.7699
咽	-10.7703
解释:	-10.7704
党组成员、	-10.7704
涅	-10.7708
勋章	-10.7711
调试	-10.7712
较好	-10.7715
很少	-10.7717
第5	-10.7717
皇后	-10.772
6人	-10.7723
旅行社	-10.7724
夏季	-10.7727
沁	-10.7728
自学	-10.773
葵	-10.7732
评定	-10.7732
零件	-10.7733
川县	-10.7733
梭	-10.7733
8.5	-10.7734
讲解	-10.7736
物料	-10.7739
1～	-10.7741
雄厚的	-10.7743
–	-10.7744
步行	-10.7749
爱的	-10.7755
系主任	-10.7757
林地	-10.7757
北美	-10.7758
义务	-10.776
、社会	-10.7762
中文名称:	-10.7763
音效	-10.7764
7月参加工作,	-10.7765
人气	-10.7767
内容包括	-10.7776
要点	-10.7776
情节	-10.778
排名	-10.7781
国语	-10.7782
出现的	-10.7782
主要经营	-10.7783
球员	-10.7783
特聘	-10.7784
厌	-10.7784
50%	-10.7785
展出	-10.7786
南朝	-10.7787
场合	-10.7787
至少	-10.7788
平均亩产	-10.779
隐藏	-10.779
也叫	-10.7793
孢	-10.7799
二年(	-10.7799
之作	-10.7799
似乎	-10.78
的现代化	-10.7801
矢	-10.7801
。他们	-10.7801
竭诚	-10.7803
美誉	-10.7807
奢	-10.7809
-18	-10.7809
符号	-10.7809
,从事	-10.781
学硕士学位	-10.7811
复印	-10.7812
按摩	-10.7815
号码	-10.7818
出品	-10.7818
诵	-10.7819
6公里	-10.782
特殊的	-10.7821
校舍	-10.7821
北纬	-10.7822
独立的	-10.7823
切片	-10.7823
尊重	-10.7826
,2005年	-10.7827
投产	-10.7827
教委	-10.7829
信任	-10.7829
前锋	-10.783
分别为	-10.7833
汀	-10.7835
衡阳	-10.7837
长沙市	-10.784
自治州	-10.7845
西安市	-10.7845
:10	-10.7845
办事	-10.7849
性好	-10.785
逾	-10.7852
齿轮	-10.7858
殊	-10.7859
曾多次	-10.786
静脉	-10.7861
意为	-10.7862
清·	-10.7863
主要研究方向	-10.7865
勤奋	-10.7866
头部	-10.7867
,对于	-10.7868
瀑布	-10.7868
前景	-10.7869
调料	-10.7869
东侧	-10.7871
人。中共党员。	-10.7872
扬声器	-10.7874
市场营销	-10.7876
方针,	-10.7878
工程有限公司	-10.788
同行业	-10.7881
单一	-10.7883
▁2011年	-10.7883
人心	-10.7884
参谋长	-10.7885
烘	-10.7889
师范学校	-10.7892
可作为	-10.7892
卫视	-10.7894
5.0	-10.7895
副主编	-10.7896
国民	-10.7897
等多个	-10.7898
座椅	-10.7899
于2008年	-10.7899
这部	-10.7899
另一个	-10.7901
比如	-10.7906
极其	-10.7909
等人	-10.7911
附加	-10.7913
核桃	-10.7915
放大	-10.7918
墨西哥	-10.7919
主人公	-10.7921
乐团	-10.7923
炳	-10.7924
产生了	-10.7929
开工	-10.793
兮	-10.793
骗	-10.793
30年	-10.7931
橘	-10.7933
全校	-10.7934
起草	-10.7934
携带	-10.7935
距离村委会	-10.7937
依然	-10.7938
的东西	-10.7941
是从	-10.7943
嘉兴	-10.7946
延安	-10.7948
尼斯	-10.795
全面的	-10.7951
。2010年	-10.7952
三次	-10.7954
、美国	-10.7955
蕨	-10.7956
1次	-10.7962
垒	-10.7963
合资	-10.7963
50余	-10.7966
天然气	-10.7967
,提供	-10.7968
亮度	-10.7969
丘陵	-10.7971
器官	-10.7971
激情	-10.7972
3次	-10.7972
作风	-10.7972
寄生	-10.7973
,现已	-10.7975
肤	-10.7976
的感觉	-10.7978
中国书画	-10.798
、金	-10.7982
晕	-10.7983
变压器	-10.7983
因子	-10.7983
-16	-10.7984
出演	-10.7985
五大	-10.7985
等;	-10.7987
;《	-10.7991
坐标	-10.7993
人性化	-10.7994
书法家协会会员	-10.7998
日报》	-10.7999
主要生产	-10.7999
余人,	-10.7999
成语	-10.7999
黑白	-10.8
十余年	-10.8
大豆	-10.8003
共创	-10.8004
慈善	-10.8005
河口	-10.8006
所作	-10.8006
对其	-10.8007
功率:	-10.8014
橄榄	-10.8015
于2006年	-10.8016
的概念	-10.8016
格局	-10.8018
21世纪	-10.8022
,它是	-10.8022
电工	-10.8026
а	-10.8027
颌	-10.8028
所得	-10.8028
圩	-10.8028
名牌	-10.8028
情绪	-10.803
套房	-10.803
常州	-10.8031
大火	-10.8035
电厂	-10.8041
书画艺术	-10.8043
浸泡	-10.8043
英文名称	-10.8044
芜湖	-10.8046
温暖	-10.8046
玲	-10.8048
。作为	-10.8048
珠宝	-10.805
外贸	-10.805
2次	-10.8051
解决了	-10.8051
甲基	-10.8052
(以下简称	-10.8055
活动中	-10.8055
佑	-10.8056
地板	-10.8057
获国家	-10.8058
提出的	-10.8059
,基部	-10.8062
世家	-10.8063
印象	-10.8064
:00	-10.8065
学士学位	-10.8067
家人	-10.8069
技术研究	-10.8071
中央电视台	-10.8072
蓉	-10.8076
抄	-10.8076
发生的	-10.8077
丈夫	-10.8078
科主任	-10.8078
町	-10.8081
拥有一支	-10.8083
水处理	-10.8083
提名	-10.8084
爱心	-10.8085
参观	-10.8087
拟订	-10.8089
森林公园	-10.809
,尤其是	-10.8096
引发	-10.8098
公民	-10.81
方面,	-10.8101
清楚	-10.8101
植株	-10.8102
氨酸	-10.8103
九龙	-10.8105
堵	-10.8106
悠久	-10.8106
妇产科	-10.811
浓厚	-10.811
科技创新	-10.8112
愁	-10.8115
现在的	-10.8116
,均	-10.8117
团长	-10.8117
篆	-10.8118
与发展	-10.8118
器件	-10.8122
▁◆	-10.8123
1988	-10.8124
渔业	-10.8126
唐山	-10.8127
苏区	-10.8129
庚	-10.813
记·	-10.813
极具	-10.8132
类别:	-10.8133
的一部分	-10.8133
精灵	-10.8133
1991	-10.8135
用药	-10.8135
邮政编码	-10.8136
最重要的	-10.8136
安置	-10.814
敬业	-10.8142
终身	-10.8142
晒	-10.8143
淑	-10.8144
比赛中	-10.8146
理想的	-10.8146
锻	-10.8147
龙岩	-10.8148
油田	-10.815
▁一、	-10.815
光纤	-10.815
斥	-10.8151
。因为	-10.8156
漠	-10.8159
▁2005年	-10.8161
斌	-10.8161
跨越	-10.8163
温州市	-10.8166
192	-10.8167
开办	-10.8168
海水	-10.817
交通运输	-10.8172
溶剂	-10.8173
韶	-10.8174
低于	-10.8176
民用	-10.818
教育工作	-10.818
新一代	-10.8181
布置	-10.8181
范围:	-10.8182
友谊	-10.8183
背面	-10.8183
武帝	-10.8184
道光	-10.8184
门户网站	-10.8185
工程系	-10.8185
野生	-10.8186
窦	-10.8186
已经成为	-10.8187
于2007年	-10.8187
复旦大学	-10.8188
演变	-10.8189
集合	-10.8192
嵌	-10.8195
委党校	-10.8199
作出了	-10.8199
学术论文	-10.8199
小于	-10.82
,最终	-10.8201
1984	-10.8202
特长	-10.8206
-15	-10.8206
检索	-10.8207
3)	-10.8207
节奏	-10.821
一个人	-10.8211
张专辑	-10.8211
埃及	-10.8216
鸽	-10.8221
等产品	-10.8223
一路	-10.8223
过敏	-10.8223
(3)	-10.8225
御史	-10.8225
的位置	-10.8227
首府	-10.8227
沂	-10.8229
起任	-10.8229
流畅	-10.823
镇位于	-10.8231
庶	-10.8232
,也可	-10.8233
闷	-10.8234
宠	-10.8234
搭建	-10.8237
天气	-10.8238
措	-10.8239
幽默	-10.8239
×4	-10.824
寡	-10.8241
中心主任	-10.8241
西湖	-10.8243
魁	-10.825
次会议	-10.825
。2003年	-10.8251
指出	-10.8251
履	-10.8253
技法	-10.8255
音响	-10.826
1989	-10.8261
分裂	-10.8261
,交通便利,	-10.8263
品位	-10.8264
,那	-10.8265
据说	-10.8267
宛	-10.8267
期货	-10.8269
私人	-10.8269
教育学院	-10.8271
钢板	-10.8271
、陈	-10.8271
赛事	-10.8273
珊瑚	-10.8274
逝世	-10.8275
在日本	-10.8276
工程设计	-10.8279
中心。	-10.8284
都在	-10.8293
法兰	-10.8295
5°C	-10.8298
树木	-10.83
体现了	-10.83
日语	-10.8303
就像	-10.8308
网络游戏	-10.8311
吗?	-10.8312
立方米	-10.8312
棕色	-10.8313
明天	-10.8313
痴	-10.8315
说明书	-10.8321
凝聚	-10.8321
保安	-10.8322
一部分	-10.8323
额定	-10.8325
土豆	-10.8326
半导体	-10.8326
中毒	-10.8329
这次	-10.8333
现代化的	-10.8333
生涯	-10.8333
啤酒	-10.8335
卑	-10.8337
3.1	-10.8338
宠物	-10.8338
又是	-10.8339
美女	-10.8341
波兰	-10.8341
教育、	-10.8342
无线电	-10.8343
于2005年	-10.8345
番茄	-10.8349
专辑《	-10.8349
高级职称	-10.835
渴	-10.8353
想象	-10.8353
主导	-10.8355
燥	-10.8355
硫酸	-10.8356
几何	-10.8356
次年	-10.8357
乔木	-10.8361
勋	-10.8361
岛屿	-10.8363
生产能力	-10.8367
是一家专业从事	-10.8368
仓库	-10.8369
常用的	-10.837
常务理事	-10.837
刊物上发表	-10.8372
一旦	-10.8372
前身	-10.8373
上映	-10.8374
重点实验室	-10.8374
出版时间:	-10.8378
主要原料	-10.8379
灶	-10.838
高效的	-10.838
9001	-10.8386
濒	-10.8388
筹建	-10.8388
等特点	-10.8392
亿元。	-10.8394
日照	-10.8394
,隶属	-10.8396
足球运动员	-10.8396
,有时	-10.8398
诸多	-10.8398
畜牧	-10.84
内心	-10.8402
技术的	-10.8404
路面	-10.8404
大展	-10.8404
椅	-10.8409
股东	-10.841
既有	-10.841
"="	-10.8414
平行	-10.8414
活泼	-10.8415
约为	-10.8416
蔓	-10.8416
洼	-10.8416
磷酸	-10.8417
实用性	-10.8418
门诊	-10.8418
开通	-10.8418
一样,	-10.8423
20%	-10.8423
全称	-10.8424
尝试	-10.8424
报社	-10.8427
风机	-10.8429
村委会,属于山区。	-10.8429
兑	-10.843
,帮助	-10.8433
多年生草本	-10.8435
《》	-10.8436
产品类型:	-10.8438
予以	-10.8439
经销商	-10.8439
裸	-10.8441
内蒙古自治区	-10.8443
,这里	-10.8443
人称	-10.8443
史·	-10.8446
缩写	-10.8449
发行的	-10.8454
算法	-10.8455
步骤	-10.8456
杯”	-10.8458
商务中心	-10.846
只需	-10.8464
农历	-10.8465
,按	-10.8465
氨	-10.8465
至今,	-10.8465
1-2	-10.8466
仪、	-10.8467
的所有	-10.8468
二人	-10.847
机组	-10.847
豹	-10.8471
叶柄	-10.8473
干净	-10.8474
医学会	-10.8475
射击	-10.8479
勐	-10.8479
少将	-10.848
104	-10.8484
本科毕业	-10.8486
杀害	-10.8487
1900	-10.8487
两面	-10.849
如下	-10.8491
梳	-10.8497
水电	-10.8498
朝廷	-10.8499
第五届	-10.8501
\\	-10.8502
欺	-10.8503
高分子	-10.8503
建设项目	-10.8504
1985	-10.8507
燃气	-10.8507
牛奶	-10.8508
美术馆	-10.8508
特产	-10.8509
聪	-10.851
篆刻	-10.851
那样	-10.8516
职业技术学院	-10.8518
、张	-10.8519
公里处,	-10.8522
一群	-10.8523
贯彻执行	-10.8527
第一部	-10.8528
棠	-10.8529
而又	-10.853
先锋	-10.8531
埔	-10.8534
别名:	-10.8543
确立	-10.8545
违法	-10.8545
仅有	-10.8546
制备	-10.8547
,尤其	-10.8548
发生在	-10.855
很有	-10.855
智能化	-10.855
本书是	-10.8551
明珠	-10.8552
国际贸易	-10.8552
梓	-10.8553
演绎	-10.8556
两条	-10.8557
同意	-10.8559
特有的	-10.8559
茸	-10.8559
机器人	-10.856
孜	-10.856
沈阳市	-10.8562
标准的	-10.8564
战斗中	-10.8565
瘀	-10.8569
绿色,	-10.8569
自成立以来	-10.8569
机体	-10.8572
肋	-10.8573
,只有	-10.8574
遍及	-10.8577
辖区内	-10.8578
设计和	-10.858
宾客	-10.8581
百度	-10.8585
至今已	-10.8587
,汉族,	-10.8587
工商管理	-10.8587
大学毕业	-10.8588
青海省	-10.8593
研究、	-10.8597
▁此	-10.8598
回忆	-10.8599
总部位于	-10.8604
书写	-10.8607
1987	-10.8608
国家队	-10.8611
▁三	-10.8611
获省	-10.8611
多层	-10.8612
总会	-10.8615
我们将	-10.8615
教学质量	-10.8616
基础设施	-10.8617
工业区	-10.8618
空白	-10.8618
开封	-10.8619
技艺	-10.8623
4.0	-10.8623
桓	-10.8624
、国家	-10.8624
(现	-10.8625
大专文化	-10.8627
溯	-10.863
委宣传部	-10.8632
不幸	-10.8632
一中	-10.8632
分配到	-10.8633
公顷,	-10.8637
白菜	-10.8637
顺序	-10.8637
”字	-10.8638
,共有	-10.8639
薄膜	-10.864
直线	-10.8646
科技进步三等奖	-10.8648
智力	-10.8648
同名	-10.8649
制造商	-10.8649
势力	-10.865
1986	-10.8651
取代	-10.8651
引擎	-10.8653
。2002年	-10.8653
甲级	-10.8655
亏	-10.8656
,使得	-10.8661
漳	-10.8661
种种	-10.8662
锻炼	-10.8663
六个	-10.8663
眠	-10.8664
前期	-10.8666
正面	-10.8666
,一个	-10.8667
。后来	-10.8668
菜单	-10.8669
晚期	-10.8669
室外	-10.867
7%	-10.867
搬	-10.867
水量	-10.867
收缩	-10.867
慰	-10.8672
澜	-10.8674
是一座	-10.8675
简洁	-10.8676
火箭	-10.8677
处副处长	-10.8678
柴油	-10.8679
行政村	-10.8684
在校	-10.8684
圭	-10.8687
腕	-10.8694
努	-10.8696
趾	-10.8696
针灸	-10.8697
诗集	-10.8703
花瓣	-10.8706
肉质	-10.8712
扶贫	-10.8713
时间内	-10.8716
文书	-10.8716
含义	-10.8717
古今	-10.8719
权力	-10.872
,辖	-10.8726
阅览室	-10.8727
了许多	-10.8728
武汉大学	-10.8729
聘请	-10.8729
以南	-10.8731
鸟类	-10.8734
允	-10.8735
).	-10.8736
不受	-10.8736
争取	-10.8737
,总人口	-10.8738
青铜	-10.8741
组组长	-10.8743
微波	-10.8747
本质	-10.8747
分支	-10.8749
淮南	-10.8751
。随着	-10.8758
-40	-10.8759
农机	-10.876
涩	-10.876
指令	-10.8762
,也有	-10.8764
创立于	-10.8765
沛	-10.8765
凿	-10.8765
邓小平	-10.8766
京剧	-10.8769
倚	-10.8771
联想	-10.8773
4.2	-10.8775
,2003年	-10.8777
自然村隶属于	-10.8781
○	-10.8783
发表学术论文	-10.8783
雷达	-10.8784
删除	-10.8785
节日	-10.8786
用以	-10.8787
邀	-10.8791
借助	-10.8792
今日	-10.8792
,每年	-10.8794
学学士学位	-10.8795
建设和	-10.8796
4人,	-10.8797
洋葱	-10.8798
刃	-10.88
头,	-10.88
成套	-10.88
知县	-10.8802
钢结构	-10.8802
规章	-10.8803
面积2	-10.8804
谓之	-10.8805
变焦	-10.8805
理论研究	-10.8809
氨基酸	-10.881
在今	-10.8811
о	-10.8812
1×	-10.8815
台,	-10.8816
方针政策	-10.8819
风扇	-10.8819
作文	-10.8823
彻	-10.8824
基督教	-10.8826
交通便捷	-10.8828
的一家	-10.8829
矫	-10.883
工学院	-10.8831
平方	-10.8831
总额	-10.8831
烈士	-10.8832
缺陷	-10.8833
制剂	-10.8838
锦标赛	-10.884
5号	-10.8841
市场经济	-10.8841
人均	-10.8842
奥运	-10.8845
娇	-10.8848
106	-10.8849
驿	-10.8849
造纸	-10.8856
始于	-10.8857
小姐	-10.8859
学院教授	-10.8861
姐	-10.8861
泗	-10.8861
祈	-10.8862
崎	-10.8863
十多年	-10.8864
泾	-10.8866
滇	-10.8866
催	-10.8867
损害	-10.8871
,也可以	-10.8871
,是由	-10.8873
2-3	-10.8876
滨海	-10.8876
家电	-10.8876
科技进步奖	-10.8879
黑暗	-10.888
青山	-10.8881
烧热	-10.8881
工艺品	-10.8883
蚁	-10.8885
主办的	-10.8885
高尔夫	-10.8886
酒吧	-10.8887
很大的	-10.8887
服用	-10.8888
面前	-10.889
文本	-10.889
盆地	-10.8891
登场	-10.8893
总工程师	-10.8894
。通过	-10.8895
期待	-10.8895
男,汉族,	-10.8897
完美的	-10.8898
妆	-10.8899
蕾	-10.8901
村隶属于云南省	-10.8901
无人	-10.8903
金牌	-10.8905
知名品牌	-10.8906
传统文化	-10.8907
概	-10.8911
复杂的	-10.8913
]	-10.8913
共计	-10.8918
糯米	-10.8919
重组	-10.8919
流域	-10.8928
东汉	-10.8928
行政村,属于山区。	-10.8929
防爆	-10.8931
,请	-10.8931
▁本书	-10.8933
信仰	-10.8933
激发	-10.8935
,毗邻	-10.8936
理事会	-10.8936
9号	-10.8939
机箱	-10.8941
并入	-10.8943
产值	-10.8945
烹饪	-10.8946
的角度	-10.8951
是全国	-10.8951
不详	-10.8952
的朋友	-10.8953
这款	-10.8955
二期	-10.8955
理财	-10.8957
机械设备	-10.8958
头痛	-10.8962
成果奖	-10.8962
核算	-10.897
团购	-10.8975
▁出处:	-10.8976
硕士研究生导师	-10.8977
的一款	-10.8978
领袖	-10.8978
可根据	-10.8978
大奖	-10.8983
稽	-10.8984
清除	-10.8986
储备	-10.8989
。它是	-10.899
性疾病	-10.8993
吉祥	-10.8993
▁2004年	-10.8994
分泌	-10.8997
与其	-10.8997
槐	-10.8997
。辖	-10.9002
()的	-10.9004
深化	-10.9004
泰山	-10.9005
场上	-10.9006
养殖业	-10.9008
,这样	-10.9009
4)	-10.901
史》	-10.9011
质量管理体系	-10.9012
边界	-10.9014
淘	-10.9019
信访	-10.9019
主要内容	-10.902
技术开发	-10.902
9%	-10.9021
郑州市	-10.9023
演艺	-10.9024
毕业于北京	-10.9026
,要	-10.9026
脓	-10.9027
尔斯	-10.9027
最新的	-10.9027
发扬	-10.9028
无论是	-10.9028
原为	-10.903
复兴	-10.9033
放弃	-10.9035
水电站	-10.9036
学术交流	-10.9037
新农村建设	-10.9041
半年	-10.9041
朋	-10.9042
”称号。	-10.9042
生态环境	-10.9042
2500	-10.9049
经济技术开发区	-10.9049
原本	-10.9051
出资	-10.9054
嗣	-10.9056
科研工作	-10.9057
回报	-10.9058
侣	-10.906
棵	-10.9062
本着“	-10.9062
体制改革	-10.9062
名学生	-10.9064
质量第一	-10.9064
▁6	-10.9064
颁发	-10.9065
毫米,适宜种植	-10.9066
供销	-10.9068
早在	-10.9069
3～	-10.9069
100多	-10.9071
窟	-10.9072
任务。	-10.9073
机遇	-10.9075
相望	-10.9079
。这是	-10.9079
捣	-10.9081
裙	-10.9081
1926年	-10.9081
签订	-10.9081
少儿	-10.9083
高级中学	-10.9083
以太网	-10.9084
。”唐	-10.9088
线条	-10.9092
县委常委	-10.9092
的情况	-10.9093
的建设	-10.9097
生产工艺	-10.9097
规划、	-10.9099
就读	-10.91
株高	-10.91
洽谈	-10.9101
6号	-10.9101
屠	-10.9105
拟定	-10.9106
班级	-10.9115
4%	-10.9115
发热	-10.9117
着力	-10.9117
95%	-10.9118
卓越的	-10.9118
机械制造	-10.9119
学会常务理事	-10.912
廖	-10.9124
500克	-10.9124
基础知识	-10.9127
回族	-10.9127
寂	-10.9128
(其中	-10.9132
借鉴	-10.9132
科委	-10.9133
准则	-10.9135
地层	-10.9139
便是	-10.9139
生产经营	-10.9141
激励	-10.9145
前来	-10.9146
山上	-10.9146
技术创新	-10.9146
い	-10.9147
带来的	-10.9147
彝族	-10.9148
第一名	-10.9148
三角形	-10.9148
捧	-10.915
沾	-10.915
科植物	-10.9152
厦	-10.9153
,始建于	-10.9153
药用	-10.9154
法师	-10.9156
无机	-10.9158
研究领域	-10.9163
好友	-10.9166
窃	-10.9166
景德镇	-10.9168
秉	-10.9171
笛	-10.9174
部署	-10.9176
,这个	-10.9177
般的	-10.9179
矿业	-10.918
黄瓜	-10.9182
纪录	-10.9183
列车	-10.9183
112	-10.9187
相机	-10.9188
剧本	-10.9188
金银	-10.919
堪称	-10.9191
,指	-10.9193
已被	-10.9194
有效地	-10.9198
勘探	-10.9201
切实	-10.9204
烯	-10.9205
诗文	-10.9211
宰	-10.9213
技术力量雄厚	-10.9214
,全村	-10.9216
显得	-10.9219
也能	-10.9221
方程	-10.9224
东风	-10.9226
底部	-10.9228
水质	-10.923
录制	-10.9234
病变	-10.9234
与其他	-10.9235
意思	-10.9236
и	-10.9236
衢	-10.924
业主	-10.924
文史	-10.9241
转速	-10.9241
纠纷	-10.9242
宝贝	-10.9246
或是	-10.9248
迅	-10.9249
溪县	-10.9251
的原因	-10.9254
▁三、	-10.9257
膨胀	-10.926
阴阳	-10.9261
自愿	-10.9261
情景	-10.9263
全国性	-10.9265
,能够	-10.9267
征收	-10.9267
沙漠	-10.927
山顶	-10.9271
原材料	-10.9271
高级教师	-10.9272
被评为“	-10.9272
可谓	-10.9275
,不过	-10.9277
中国国际	-10.9278
之道	-10.9279
可靠性	-10.9279
决赛	-10.928
柠檬	-10.9282
生日	-10.9282
较好的	-10.9283
仿真	-10.9286
战场	-10.9287
实业有限公司	-10.9289
独到	-10.929
精良	-10.9291
这位	-10.9292
慢慢	-10.9292
的理念	-10.9293
3.8	-10.9293
制订	-10.9294
萼	-10.9296
不需要	-10.9296
垣	-10.9298
省委	-10.9299
改名为	-10.93
列为	-10.9305
主要包括	-10.9306
定居	-10.9306
膳	-10.9308
苏州市	-10.9309
克拉	-10.9311
90年代	-10.9312
是一道	-10.9312
▁地址:	-10.9313
有一定	-10.9313
750	-10.9315
枢纽	-10.9316
九五	-10.9317
技术支持	-10.932
又叫	-10.9321
人次	-10.9321
还要	-10.9323
民众	-10.9324
持有	-10.9325
河畔	-10.9326
对话	-10.9326
企业。公司	-10.9327
市教育局	-10.9334
水准	-10.9334
戚	-10.9335
▁◎	-10.9335
江湖	-10.9337
字母	-10.9339
同时还	-10.9339
,具	-10.9341
充足	-10.9341
-30	-10.9341
欧阳	-10.9344
论》	-10.9345
领导人	-10.9346
备用。	-10.9346
摄像机	-10.9346
陈列	-10.9347
轮胎	-10.9348
咬	-10.935
当选	-10.9351
等多项	-10.9351
熟练	-10.9354
生化	-10.9359
辅料	-10.9363
板、	-10.9364
雍	-10.9368
数值	-10.9368
坠	-10.9368
买卖	-10.9369
涧	-10.937
3项	-10.9372
正式成立	-10.9373
交界处	-10.9374
一方	-10.9374
等荣誉称号	-10.9375
姓名	-10.9381
平方千米	-10.9382
更有	-10.9385
想要	-10.9387
骑士	-10.9387
质保	-10.9389
修订	-10.9391
,加强	-10.9395
出现了	-10.9397
占有	-10.9398
召唤	-10.9399
估	-10.94
华丽	-10.9401
。由	-10.9408
梅花	-10.9408
阐述	-10.941
事情	-10.941
狄	-10.9413
▁据	-10.9414
难度	-10.9416
会所	-10.9418
在这个	-10.9419
扩张	-10.9423
研究所所长	-10.9424
260	-10.9425
佛山	-10.9426
许可	-10.9426
合肥市	-10.9426
部落	-10.9427
誓	-10.9428
带头人	-10.943
歌唱	-10.9431
上世纪	-10.9432
风云	-10.9433
受到了	-10.9437
液晶	-10.9438
无色	-10.9438
15分钟	-10.9439
聪明	-10.944
路与	-10.944
遭到	-10.9441
反映了	-10.9441
优秀共产党员	-10.9443
数字化	-10.9446
师大	-10.9449
漂亮	-10.9451
片、	-10.9452
一人	-10.9455
屏幕尺寸:	-10.9457
科研课题	-10.9458
莹	-10.9459
邯郸	-10.946
管理模式	-10.9461
文集	-10.9462
受欢迎	-10.9465
▁(二)	-10.9465
山村	-10.9465
讲座	-10.9466
代表大会	-10.9468
自然村	-10.9468
谊	-10.9469
生产厂家	-10.9469
省内	-10.9469
三峡	-10.947
20分钟	-10.9472
招收	-10.9474
执业	-10.9474
10公里	-10.9475
探测	-10.9475
樟	-10.9477
班长	-10.948
交通十分便利	-10.9481
更换	-10.9481
,2002年	-10.9482
密集	-10.9483
嘉靖	-10.9483
三月	-10.9485
;在	-10.9486
重修	-10.9486
7公里	-10.9488
么	-10.9488
皂	-10.9488
柔毛	-10.949
一站式	-10.9491
胃肠	-10.9493
中国人民大学	-10.9494
一时	-10.9495
,终	-10.9495
时空	-10.9497
关怀	-10.9497
来源于	-10.9498
铝合金	-10.9498
支流	-10.95
做成	-10.9503
西汉	-10.9504
眼科	-10.9507
钞	-10.9508
滕	-10.9508
与应用	-10.9511
婚礼	-10.9512
办公楼	-10.9513
于2004年	-10.9513
博士研究生	-10.9514
桃花	-10.9518
为您提供	-10.9519
激素	-10.9521
英格兰	-10.9522
靠近	-10.9523
颅	-10.9523
在其	-10.9526
一组	-10.9527
樱	-10.9527
淡水	-10.9528
事务所	-10.9531
5.2	-10.9532
200余	-10.9532
蛮	-10.9533
500米	-10.9533
椰	-10.9535
、商务	-10.9538
性别	-10.9538
在一个	-10.9539
,它们	-10.954
,1984年	-10.9541
新人	-10.9541
自身的	-10.9541
软件开发	-10.9543
200米	-10.9544
志愿者	-10.9544
愚	-10.9545
岐	-10.9547
茫	-10.9547
描	-10.9547
显示器	-10.9548
开采	-10.9548
陆续	-10.9549
有一定的	-10.955
了一批	-10.9551
都要	-10.9553
嗜	-10.9554
菲律宾	-10.9554
贯彻落实	-10.9555
颁	-10.9556
可以通过	-10.956
逝	-10.956
兵团	-10.956
改称	-10.9561
减轻	-10.9561
最先进的	-10.9562
高峰	-10.9563
,利用	-10.9565
竞技	-10.957
鲤	-10.957
讲授	-10.957
书》	-10.9574
方形	-10.9579
备案	-10.958
信息服务	-10.9582
摸	-10.9582
-60	-10.9582
冰箱	-10.9585
北侧	-10.9596
以北	-10.9597
方针、政策	-10.9599
多次参加	-10.96
坯	-10.9601
腻	-10.9608
可靠的	-10.9609
、王	-10.9609
堰	-10.961
编号:	-10.9611
安防	-10.9613
:30	-10.9613
钓	-10.9614
这类	-10.9615
城关	-10.9618
商圈	-10.9619
。这里	-10.962
大胆	-10.9621
四方	-10.9622
莫斯科	-10.9622
。所以	-10.9627
电网	-10.9627
可容纳	-10.9628
括	-10.9628
副总经理	-10.963
伙伴	-10.9632
国家标准	-10.9632
很好	-10.9634
花纹	-10.9635
舜	-10.9635
歌词	-10.9636
。用于	-10.9639
全面发展	-10.964
夸	-10.9641
的一些	-10.9641
熬	-10.9642
烟草	-10.9644
架构	-10.9645
历史文化	-10.9647
邮票	-10.9649
可视	-10.965
一幅	-10.9652
劳务	-10.9653
后在	-10.9655
海域	-10.9656
社会学	-10.9657
柏林	-10.9659
厨房	-10.966
上市公司	-10.9663
115	-10.9667
商学院	-10.9668
《中华人民共和国	-10.9672
,例如	-10.9672
,那么	-10.9673
5.6	-10.9675
握	-10.9678
30%	-10.9681
短期	-10.9681
十一年	-10.9684
不见	-10.9684
于2003年	-10.9687
教研室主任	-10.9689
罕见	-10.9692
粒子	-10.9695
可能是	-10.9697
经国家	-10.9698
绪	-10.9698
▁『	-10.97
舱	-10.9702
狮子	-10.9703
而得名。	-10.9706
威胁	-10.9711
纪检	-10.9711
,或者	-10.9712
一度	-10.9712
依赖	-10.9712
,比对照	-10.9718
力度	-10.9723
市公安局	-10.9724
发现了	-10.9726
70年代	-10.9727
学硕士	-10.9729
的作用。	-10.9733
剖	-10.9735
石头	-10.9735
袖	-10.9736
姑娘	-10.9737
渤海	-10.9738
招标	-10.9739
之星	-10.9741
副市长	-10.9743
型号:	-10.9743
184	-10.9745
课堂	-10.9745
杖	-10.9746
配套设施	-10.9749
,尤	-10.9751
审美	-10.9752
千里	-10.9754
冲突	-10.9754
境界	-10.9757
噪音	-10.9757
运动会	-10.976
达到了	-10.976
所需	-10.9761
不宜	-10.9762
136	-10.9766
发电机	-10.9767
钛	-10.9768
鳞片	-10.9768
实务	-10.9769
国际标准	-10.9772
岂	-10.9773
横向	-10.9774
系统中	-10.9779
挥	-10.9781
当时的	-10.9781
纪委	-10.9781
开始了	-10.9784
死后	-10.9784
五代	-10.9785
冥	-10.9787
语言学	-10.9787
所用	-10.9792
石灰	-10.9794
防火	-10.9794
岛上	-10.9797
浏览器	-10.9798
2×	-10.9801
路口	-10.9801
啦	-10.9803
第6	-10.9803
面包	-10.9804
为己任	-10.9808
途中	-10.9808
作词	-10.9808
经销	-10.9808
体会	-10.9808
调控	-10.9813
心中	-10.9813
′′	-10.9818
α	-10.9818
村镇	-10.982
纷	-10.982
清热	-10.9821
首创	-10.9821
谨	-10.9822
"、"	-10.9823
坟	-10.9824
178	-10.9825
天堂	-10.9827
》)	-10.9827
对策	-10.983
序列	-10.9834
临床工作	-10.9835
▁.	-10.9836
相同的	-10.9836
面貌	-10.9837
拼音	-10.9839
风水	-10.984
科员	-10.9843
北大	-10.9844
券	-10.9844
国家重点	-10.9845
建筑设计	-10.9845
向前	-10.9847
公里,距	-10.9853
封建	-10.9855
开辟	-10.9856
峡谷	-10.9856
优质服务	-10.9859
135	-10.9859
威尔	-10.9862
网络营销	-10.9863
电视剧《	-10.9864
打破	-10.9865
醛	-10.9866
文物保护单位	-10.9869
酿	-10.9872
的事情	-10.9876
省道	-10.988
裴	-10.9881
被称为“	-10.9882
认知	-10.9882
棍	-10.9884
还能	-10.9885
摊	-10.9885
,隶属于	-10.9885
柔软	-10.9886
双重	-10.989
白色,	-10.9892
果树	-10.9893
明亮	-10.9894
桥镇	-10.9898
一号	-10.9901
(约	-10.9902
质量管理体系认证	-10.9902
,随着	-10.9903
排放	-10.9906
大厅	-10.9907
政协副主席	-10.9908
^	-10.991
芹	-10.991
彼此	-10.991
邮电	-10.9911
鸡精	-10.9912
配料	-10.9914
近百	-10.9917
长征	-10.9917
乡位于	-10.9917
碰	-10.9918
并非	-10.992
210	-10.9923
感动	-10.9923
十几	-10.9923
。’”	-10.9923
村内	-10.9924
一大批	-10.9926
食盐	-10.9927
中学高级教师	-10.9927
解放后	-10.9927
组成员	-10.9928
厄	-10.9928
犀	-10.9929
各有	-10.993
。近年来,	-10.9932
珠江	-10.9934
专任教师	-10.9935
气质	-10.9936
较低	-10.9937
8月参加工作,	-10.9939
工程项目	-10.9944
火车	-10.9946
应用程序	-10.9946
展会	-10.9946
心情	-10.9946
低压	-10.9949
延续	-10.9951
学堂	-10.9952
摩擦	-10.9954
剧《	-10.9961
勇于	-10.9964
。另外,	-10.9965
4.8	-10.9966
整齐	-10.9966
一边	-10.9969
伦理	-10.997
平时	-10.997
胡同	-10.997
佛山市	-10.997
南侧	-10.9973
故乡	-10.9973
今后	-10.9973
公正	-10.9974
骨科	-10.9974
1.9	-10.9974
保养	-10.9975
总资产	-10.9976
的力量	-10.9976
人家	-10.9979
振兴	-10.9981
能力和	-10.9983
进化	-10.9984
8.0	-10.9984
眼镜	-10.9985
的最新	-10.9988
瞬间	-10.9991
第十二	-10.9991
厥	-10.9993
俞	-10.9995
还可	-10.9997
走出	-11.0004
铣	-11.0004
病逝	-11.0006
著称	-11.0012
种植业	-11.0013
麻醉	-11.0014
立法	-11.0015
永久	-11.0016
。2001年	-11.0018
常务副	-11.0019
冷水	-11.002
1两,	-11.002
汶	-11.0021
更好地	-11.0022
研究会理事	-11.0023
平板	-11.0023
百家	-11.0025
路上	-11.0026
对面	-11.0026
画院	-11.0029
230	-11.0029
酚	-11.003
100余	-11.0031
支持下,	-11.0033
占领	-11.0034
千余	-11.0035
拼搏	-11.0035
流水	-11.0037
是一家专业	-11.0038
莆田	-11.0038
叙述	-11.0039
紧张	-11.0039
芥	-11.0039
9.5	-11.004
涉外	-11.004
五月	-11.0042
交往	-11.0044
阮	-11.0048
隔离	-11.0048
口碑	-11.0049
2013	-11.005
是指在	-11.005
时任	-11.0051
1024	-11.0051
姓氏	-11.0053
旋律	-11.0056
园艺	-11.0058
乞	-11.0059
琪	-11.006
千瓦	-11.0061
系统集成	-11.0062
遵守	-11.0063
老年人	-11.0063
。2011年	-11.0066
清末	-11.0066
育种	-11.0068
标签	-11.007
,称为	-11.0072
军官	-11.0072
,有的	-11.0073
唤	-11.0074
争议	-11.0078
,擅长	-11.0079
率领	-11.0081
休息	-11.0082
会会长	-11.0084
通过对	-11.0084
优先	-11.0084
3.7	-11.0085
拒绝	-11.0086
明·	-11.0087
年轻人	-11.0088
蛙	-11.0088
收获	-11.0088
遥控	-11.009
柑	-11.0094
气氛	-11.0094
9000	-11.0098
求实	-11.0099
谣	-11.0099
等待	-11.01
总户数	-11.0101
淹	-11.0105
102	-11.0107
新品种	-11.0108
男孩	-11.0109
致富	-11.0111
十月	-11.0113
一半	-11.0116
天空	-11.0118
之中,	-11.0118
领导小组	-11.0119
生日:	-11.0119
娄	-11.012
茵	-11.0122
西亚	-11.0123
社会发展	-11.0125
卡拉	-11.0128
抢救	-11.0129
强烈的	-11.013
4.3	-11.0131
牺牲。	-11.0131
站在	-11.0132
1/3	-11.0134
是根据	-11.0134
极限	-11.0136
歌剧	-11.0138
勿	-11.0139
祭祀	-11.0139
代理商	-11.0142
瓷器	-11.0143
改建	-11.0144
第六届	-11.0145
高素质的	-11.0148
充电器	-11.0148
被捕	-11.0149
湖泊	-11.0149
公平	-11.0153
焕	-11.0154
室主任	-11.0155
一直从事	-11.0155
光驱	-11.0155
栅	-11.0156
婴儿	-11.0156
俯	-11.0157
的新型	-11.0158
楷	-11.0158
、休闲	-11.0161
人参	-11.0163
7号	-11.0163
龙门	-11.0167
苗族	-11.0167
二十年	-11.0168
目的是	-11.0171
跋	-11.0173
回家	-11.0173
在内的	-11.0173
北面	-11.0174
地貌	-11.0182
年间,	-11.0183
声乐	-11.0184
大战	-11.0185
高于	-11.0185
大连市	-11.0187
通俗	-11.0188
专科学校	-11.0191
荐	-11.0191
校级	-11.0194
十二年	-11.0196
脉冲	-11.0198
省委党校	-11.0199
农田	-11.0199
,用于	-11.0201
抑	-11.0203
装甲	-11.0203
十五年	-11.0204
打印机	-11.0207
有益	-11.021
概论	-11.0211
3.4	-11.0216
文体	-11.0217
呆	-11.0219
技师	-11.0223
中共中央	-11.0225
趣味	-11.0227
样品	-11.0227
水资源	-11.023
揉	-11.0231
这么	-11.0232
优秀论文	-11.0236
无穷	-11.0236
表现出	-11.0238
地名	-11.0238
合一	-11.0239
正规	-11.0239
顶部	-11.0242
监督检查	-11.0243
第二次	-11.0244
乳腺	-11.0246
子女	-11.0247
卫浴	-11.0248
新四军	-11.0248
勘察	-11.025
水上	-11.0251
这座	-11.0255
管理制度	-11.0259
骏	-11.0264
5.1	-11.0264
胚	-11.0269
的一首	-11.0278
工作温度	-11.0281
遵义	-11.0281
裔	-11.0282
纷纷	-11.0282
说话	-11.0283
成熟的	-11.0284
赋予	-11.0284
私立	-11.0285
党校	-11.0285
裤	-11.0285
也许	-11.0286
家庄	-11.0288
切换	-11.0288
意义。	-11.0288
,距县城	-11.0292
管理办法	-11.0292
宪法	-11.0292
产权	-11.0294
的关键	-11.0295
如下:	-11.0295
秧	-11.0296
零部件	-11.0299
后者	-11.0301
婉	-11.0302
闽东	-11.0304
10万	-11.0304
工程技术人员	-11.0307
添加剂	-11.0308
节省	-11.0309
邻近	-11.031
解析	-11.0311
让我们	-11.0313
单纯	-11.0314
有许多	-11.0319
田径	-11.0323
透过	-11.0325
致力	-11.0325
委员会主任	-11.0326
科学发展观	-11.0328
合唱	-11.0329
公式	-11.0332
自然科学	-11.0332
改良	-11.0333
循	-11.0337
不敢	-11.0342
鲜美	-11.0344
自然保护区	-11.0344
切除	-11.0345
现金	-11.0345
发生了	-11.0345
衷	-11.0347
,只要	-11.0347
副研究员	-11.0353
蔚	-11.0356
II	-11.0357
社会团体	-11.0357
哺	-11.0358
均衡	-11.0362
肝炎	-11.0365
写字楼	-11.0369
南山	-11.0369
垦	-11.037
木质	-11.0373
不懈	-11.0374
123	-11.0376
新闻出版	-11.0377
[	-11.0378
评委	-11.0379
制造业	-11.0381
特·	-11.0384
专注	-11.0384
亚热带	-11.0384
在校生	-11.0386
企业集团	-11.0388
火腿	-11.0391
藕	-11.0396
敛	-11.0397
有很多	-11.04
重点文物保护单位	-11.04
偶像	-11.04
行业协会	-11.0403
学校占地面积	-11.0406
管委会	-11.0409
铃声	-11.0411
学院院长	-11.0411
等内容	-11.0411
参加革命斗争	-11.0414
中华民族	-11.0417
菜肴	-11.0417
.....	-11.0418
源自	-11.0421
6.0	-11.0422
的故事。	-11.0422
南宁	-11.0425
30分钟	-11.0426
协同	-11.0428
在香港	-11.0428
罕	-11.043
实践中	-11.0431
色素	-11.0433
烤烟	-11.0433
标兵	-11.0433
秀丽	-11.0435
部主任	-11.0436
一门	-11.0437
国土资源	-11.0441
选拔	-11.0442
101	-11.0443
嵩	-11.0447
过渡	-11.0449
冷冻	-11.045
小说《	-11.0451
童话	-11.0452
统筹	-11.0453
溶于	-11.0455
尚未	-11.0458
纪念馆	-11.0458
烧开	-11.0459
发展有限公司	-11.0461
产品开发	-11.0461
高性能	-11.0462
置于	-11.0464
禁止	-11.0465
有害	-11.0465
亦有	-11.0467
宫廷	-11.0468
农林	-11.0468
文档	-11.047
策划、	-11.0471
表现为	-11.0472
1月1日	-11.0473
的具体	-11.0475
书法家协会	-11.0478
南宁市	-11.0478
文化部	-11.0482
人,中共党员,	-11.0483
造诣	-11.0485
开展了	-11.0485
200克	-11.0488
湘潭	-11.0488
5厘米	-11.0492
5400	-11.0492
并没有	-11.0494
批评	-11.0495
壹	-11.0496
家协会理事	-11.0499
高尚	-11.0499
的声音	-11.05
浊	-11.0502
痛苦	-11.0503
晋升	-11.0506
强制	-11.0506
藏族	-11.0507
专业委员会委员	-11.0507
场上位置	-11.0508
,西与	-11.0509
钧	-11.0512
剧目	-11.0514
不知道	-11.0514
热量	-11.0515
赛季	-11.0515
醚	-11.0515
登陆	-11.0516
衣服	-11.0516
书法作品	-11.0516
168	-11.0517
养护	-11.0519
,虽然	-11.052
秆	-11.052
簇	-11.0521
常绿	-11.0521
培训班	-11.0522
▁从	-11.0526
时装	-11.0528
面料	-11.0532
50米	-11.0533
2克	-11.0537
造成的	-11.0537
无所	-11.0537
演讲	-11.0538
全民	-11.0538
用量	-11.0542
女主角	-11.0542
,并将	-11.0543
100米	-11.0545
筹备	-11.0546
等功能	-11.0548
活血	-11.0555
三层	-11.0555
支援	-11.0556
歧	-11.0558
步兵	-11.056
1925年	-11.0563
将成为	-11.0567
矿产	-11.0567
。分布于	-11.0568
仲裁	-11.0572
走进	-11.0574
孩子们	-11.0575
草地	-11.0575
研究会会员	-11.0575
每一位	-11.0578
名医	-11.0579
咒	-11.058
前列	-11.058
于2002年	-11.058
毗	-11.0581
先进技术	-11.0583
出生在	-11.0584
而得名	-11.0584
鸦	-11.0585
元代	-11.0587
,直到	-11.0588
,北与	-11.059
弊	-11.0592
不断创新	-11.0595
乐趣	-11.0595
550	-11.0596
八角	-11.0597
充电	-11.0598
秋季	-11.0598
镍	-11.0598
长篇小说	-11.0599
正义	-11.0599
7000	-11.0601
并不是	-11.0601
痒	-11.0604
班子	-11.0605
晚会	-11.0606
实践经验	-11.0607
武昌	-11.0607
靡	-11.0608
更好	-11.0612
成效	-11.0616
难题	-11.0623
洗干净	-11.0623
之家	-11.0623
在我国	-11.0624
我省	-11.0625
主频	-11.0626
中山大学	-11.0626
翘	-11.0627
该项目	-11.0627
人格	-11.063
谥	-11.0632
外表	-11.0633
综合征	-11.0636
▁所属分类:图书>	-11.0641
傍	-11.0641
三年(	-11.0647
园内	-11.0649
财经大学	-11.0649
1983	-11.065
组件	-11.0652
的规定	-11.0652
航空公司	-11.0653
伽	-11.0655
比利时	-11.0657
。1949年	-11.0657
科学与工程	-11.066
标识	-11.0661
。”明	-11.0661
绘制	-11.0661
得天独厚	-11.0663
仅仅	-11.0663
抗日战争	-11.0665
主任医师,	-11.0666
撤销	-11.0666
抓住	-11.0671
绑	-11.0672
5平方公里	-11.0675
化妆	-11.0676
破碎	-11.0679
扮	-11.0681
缅甸	-11.0681
矿床	-11.0682
厂长	-11.0682
粹	-11.0682
纹饰	-11.0684
主要产品有	-11.0686
卡通	-11.0688
立体声	-11.0689
足够	-11.0689
语法	-11.0689
(5)	-11.0692
三亚	-11.0695
古迹	-11.0695
的认可	-11.0696
开拓创新	-11.0697
奥地利	-11.0699
调任	-11.0699
卒于	-11.07
水域	-11.07
新西兰	-11.0703
画展	-11.0705
2名	-11.0705
正科级	-11.0706
民事	-11.0707
不含	-11.0711
生产加工	-11.0711
医疗器械	-11.0716
浮雕	-11.0717
∶	-11.0718
金黄色	-11.0718
屿	-11.0723
不规则	-11.0723
近几年	-11.0724
站点	-11.0726
语言文学	-11.0727
陂	-11.0727
宋·	-11.0727
妄	-11.0728
有序	-11.0729
颇有	-11.0729
论证	-11.0729
农牧	-11.073
规划设计	-11.073
运河	-11.0732
加水	-11.0732
却是	-11.0735
唐朝	-11.0736
,南与	-11.074
09年	-11.074
访问学者	-11.0741
原料:	-11.0742
创刊	-11.0745
5.4	-11.0746
”牌	-11.0749
招商引资	-11.0751
月刊	-11.0751
监狱	-11.0753
高质量	-11.0753
杀菌	-11.0755
并获	-11.0755
嘎	-11.0756
嘉庆	-11.0757
溃	-11.0759
概述	-11.0761
热点	-11.0762
发明专利	-11.0762
世博	-11.0762
侍郎	-11.0764
蝴蝶	-11.0768
山庄	-11.0772
闯	-11.0772
衫	-11.0775
6.7	-11.0777
教务	-11.0777
细长	-11.0778
褶	-11.0779
清理	-11.0782
办主任	-11.0782
欠	-11.0783
后再	-11.0783
经济建设	-11.0786
惠州	-11.0787
劣	-11.0789
大米	-11.079
粉丝	-11.0791
建设工程	-11.0793
双向	-11.0797
—)	-11.0799
发光	-11.0799
年(17	-11.08
总队	-11.0804
,中共党员。	-11.0806
教员	-11.0811
溃疡	-11.0813
光谱	-11.0813
雇	-11.0816
体型	-11.0818
缆	-11.0818
气动	-11.082
字符	-11.0822
下午	-11.0822
人民检察院	-11.0824
璧	-11.0826
百合	-11.0828
抬	-11.0828
手续	-11.0834
每服	-11.0834
民生	-11.0834
1400	-11.0835
科协	-11.0835
微软	-11.0835
。例如	-11.0836
荣获“	-11.0841
网点	-11.0843
耿	-11.0844
共赢	-11.0847
平等	-11.0852
俘	-11.0852
哥哥	-11.0853
各部门	-11.0854
200多	-11.0857
贮	-11.0862
机理	-11.0864
畜牧业	-11.0867
鸡肉	-11.0867
还在	-11.087
断裂	-11.087
昆山	-11.0873
往来	-11.0874
于2012年	-11.0874
东经1	-11.0874
紧凑	-11.0875
大典	-11.0875
史料	-11.0877
待遇	-11.0879
岁月	-11.0879
枸杞	-11.0882
即时	-11.0884
中科院	-11.0885
积累了	-11.0888
贵阳	-11.089
教会	-11.0893
装配	-11.0894
先后获得	-11.0894
焚	-11.0896
10人	-11.0898
>>	-11.0898
109	-11.0899
粟	-11.0899
直达	-11.09
生物技术	-11.0907
建制	-11.0911
快速发展	-11.0915
并获得	-11.0915
检测设备	-11.0915
噪声	-11.0918
附录	-11.0918
寺院	-11.092
女生	-11.092
遗迹	-11.0921
+1	-11.0924
纵队	-11.0924
最强	-11.0925
得名	-11.0927
衍生	-11.0928
获得者	-11.0929
9001:2000	-11.0929
容纳	-11.093
评比	-11.0932
必备	-11.0939
铬	-11.0939
学报》	-11.0941
你们	-11.0941
6.2	-11.0942
占据	-11.0942
▁第二节	-11.0942
服务体系	-11.0944
南面	-11.0945
肆	-11.0951
挂牌	-11.0953
卡片	-11.0958
星期	-11.0958
妹妹	-11.096
平滑	-11.0961
输入法	-11.0961
俭	-11.0961
产业发展	-11.0963
独资	-11.0965
面团	-11.0966
质地	-11.0968
的机会	-11.0968
相结合的	-11.097
政府特殊津贴	-11.0972
揭示	-11.0975
,比如	-11.0976
转型	-11.0976
成份	-11.0976
独家	-11.0978
提前	-11.0978
5克,	-11.0982
巍	-11.0984
经营理念	-11.0986
交通方便	-11.0987
高科技企业	-11.0989
远销	-11.0989
天主教	-11.0991
最后一	-11.0994
木耳	-11.0995
核心期刊	-11.0996
图书室	-11.0997
中介	-11.0998
当归	-11.1001
用途:	-11.1002
烛	-11.1009
商店	-11.1009
大使	-11.101
销售收入	-11.1011
壁画	-11.1012
收到	-11.1012
扶持	-11.1017
介入	-11.1018
到底	-11.1021
__	-11.1021
巩固	-11.1021
微型	-11.1022
戊	-11.1026
寅	-11.1028
沥	-11.1028
前卫	-11.1028
嫌	-11.1029
某个	-11.103
挽	-11.1034
饥	-11.1034
市委、市政府	-11.1037
膨	-11.1038
▁7、	-11.1039
人造	-11.1039
一定要	-11.104
总部设在	-11.1041
辊	-11.1042
”,是	-11.1042
太空	-11.1043
石油化工	-11.1045
随意	-11.1046
专业学习	-11.1046
帧	-11.1048
主任委员	-11.1049
精通	-11.1054
迦	-11.1055
曾先后	-11.1056
碳酸	-11.1059
176	-11.1062
年降水量	-11.1063
分院	-11.1063
剂量	-11.1063
微米	-11.1064
布拉	-11.1065
70%	-11.1065
潜心	-11.1067
奥林匹克	-11.1068
1300	-11.1072
晚上	-11.1072
巩	-11.1073
参赛	-11.1074
丹麦	-11.1082
是一家以	-11.1084
至今任	-11.1086
辱	-11.1087
即成。	-11.1087
服务机构	-11.1089
座落于	-11.109
咳嗽	-11.1093
自助	-11.1096
万里	-11.1096
性价比	-11.1098
验证	-11.11
入侵	-11.1101
文化交流	-11.1102
肽	-11.1104
酒店位于	-11.1105
自行车	-11.1105
厘米,宽	-11.1106
。擅长	-11.111
650	-11.1113
岚	-11.1116
19世纪	-11.1118
汉代	-11.1121
安全性	-11.1131
塌	-11.1133
苏轼	-11.1133
分别是	-11.1135
钻石	-11.1137
采访	-11.1137
观看	-11.1138
的态度	-11.1139
州刺史	-11.114
域名	-11.114
专业人才	-11.1142
纶	-11.1143
部首:	-11.1145
高标准	-11.1145
祀	-11.1145
农业产业化	-11.1145
亚种	-11.1146
背后	-11.1147
白酒	-11.1147
酰	-11.1147
服役	-11.1148
两者	-11.1149
蛾	-11.115
南京大学	-11.115
他还	-11.1151
彝	-11.1152
各方面	-11.1157
承受	-11.1157
敲	-11.1158
躯	-11.116
多次被评为	-11.1164
院院长	-11.1173
保证了	-11.1177
品味	-11.1181
荆州	-11.1183
清乾隆	-11.1187
近年	-11.1188
静电	-11.1194
对抗	-11.1195
为用户提供	-11.1195
奇特	-11.1197
理性	-11.1199
生产技术	-11.12
市委常委	-11.12
舆	-11.1202
不断地	-11.1206
六月	-11.1207
疯狂	-11.1207
放置	-11.1208
苷	-11.121
上方	-11.1212
战术	-11.1213
相接	-11.1214
多万元	-11.1214
绩效	-11.1218
内分泌	-11.1218
炙	-11.1221
局面	-11.1221
顶尖	-11.1222
戎	-11.1222
恋爱	-11.1223
农家	-11.1224
氯化	-11.1224
镶	-11.1225
龚	-11.1225
机动	-11.1225
美术家协会	-11.1227
一直在	-11.1228
妈	-11.1228
减肥	-11.123
大蒜	-11.123
悔	-11.1232
土耳其	-11.1232
山林	-11.1232
阎	-11.1235
羌	-11.1235
商务酒店	-11.1237
腋	-11.1237
造价	-11.1239
蝉	-11.1241
标本	-11.1244
妥	-11.1244
贬	-11.1248
石刻	-11.1248
后面	-11.125
潍坊	-11.1251
高素质	-11.1251
0毫升	-11.1252
7.2	-11.1253
有助于	-11.1256
簿	-11.1257
一同	-11.126
兵器	-11.1261
转让	-11.1262
热处理	-11.1262
十三年	-11.1263
清光绪	-11.1264
守护	-11.1266
河道	-11.1267
来电	-11.1268
彬	-11.127
陡	-11.1271
身心	-11.1271
380	-11.1273
▁7.	-11.1276
富含	-11.1277
皮革	-11.1277
入学	-11.1278
杀死	-11.128
指导员	-11.1283
奖章	-11.129
出售	-11.129
布鲁	-11.1291
诀	-11.1292
痹	-11.1292
集镇	-11.1294
研发、生产、销售	-11.1295
1982	-11.1295
海滨	-11.1295
弹簧	-11.1296
数千	-11.1298
日常生活	-11.13
气势	-11.1305
克服	-11.1306
入门	-11.1307
该品种	-11.1308
生产和销售	-11.1311
皋	-11.1312
3米	-11.1313
揽	-11.1314
全村有	-11.1314
石材	-11.1315
如同	-11.1316
深厚	-11.1316
133	-11.1317
摩托车	-11.1317
外汇	-11.1319
为基础,	-11.132
充分利用	-11.1322
剧场	-11.1324
福州市	-11.1326
普查	-11.1326
渍	-11.1328
射线	-11.1329
意思是	-11.1329
哉	-11.133
服务业	-11.133
志愿	-11.1332
720	-11.1332
条例》	-11.1333
使用寿命	-11.1335
等相关	-11.1335
经历了	-11.1335
270	-11.1336
晚年	-11.1337
5.8	-11.134
人均收入	-11.1343
这时	-11.1343
匾	-11.1347
步枪	-11.1347
此书	-11.1347
自信	-11.1348
达成	-11.1349
保密	-11.1352
▁出版社:	-11.1353
起源	-11.1354
起伏	-11.1354
勉	-11.1358
食品有限公司	-11.136
司职	-11.1361
吸附	-11.1362
全体员工	-11.1365
精益求精	-11.1365
区人民政府	-11.1369
设计院	-11.1369
▁(三)	-11.137
无锡市	-11.1373
广泛用于	-11.1374
香菜	-11.1377
为社会	-11.1377
的儿子	-11.1377
体育场	-11.1378
面部	-11.1378
误差	-11.1379
拦	-11.1381
前端	-11.1381
分成	-11.1383
二十四	-11.1383
教师队伍	-11.1383
暮	-11.1384
乒乓球	-11.1389
众生	-11.1389
附属医院	-11.1394
雍正	-11.1394
桌面	-11.1394
农业生产	-11.1399
健脾	-11.1402
商业银行	-11.1403
议会	-11.1403
奠定了	-11.1403
推出了	-11.1404
檀	-11.1405
壮观	-11.1408
见到	-11.1409
贩	-11.1413
易于	-11.1414
渐渐	-11.1416
备注	-11.1419
实物	-11.1419
泛指	-11.142
求职	-11.142
变量	-11.142
状元	-11.1421
接着	-11.1422
大自然	-11.1424
超声	-11.1424
十四年	-11.1425
研究开发	-11.1426
25克	-11.1427
斧	-11.1434
见解	-11.1435
灯光	-11.1435
▁第一节	-11.1436
各项工作	-11.1437
遗产	-11.1437
300余	-11.1437
幻想	-11.144
娃	-11.1441
喙	-11.1442
中医学院	-11.1446
结算	-11.1448
各界	-11.1449
焯	-11.145
,西邻	-11.1455
10月生,	-11.1455
疲劳	-11.1455
冤	-11.1458
建成后	-11.1459
网游	-11.1462
愿意	-11.1463
离休	-11.1464
国民经济	-11.1464
环境中	-11.1465
主治医师	-11.1465
南非	-11.1467
油气	-11.147
海底	-11.1471
??	-11.1475
永恒	-11.1475
钢材	-11.1479
楼盘	-11.1479
忆	-11.148
龙泉	-11.148
《关于	-11.1484
出色的	-11.1488
总督	-11.1492
大庆	-11.1492
优质的产品	-11.1493
,交通便利。	-11.1494
办学理念	-11.1494
缓解	-11.1494
2.9	-11.1496
家里	-11.1498
反馈	-11.1499
现为中国	-11.15
职能部门	-11.1501
被列为	-11.1501
产品研发	-11.1502
60年代	-11.1504
е	-11.1508
姜片	-11.1509
士兵	-11.1512
颐	-11.1513
殖民	-11.1514
成像	-11.1514
7.6	-11.1515
盏	-11.1519
游览	-11.1519
东至	-11.1521
七月	-11.1521
馨	-11.1521
淘宝	-11.1526
三百	-11.1526
接入	-11.1528
澳洲	-11.1528
新村	-11.1528
艺术品	-11.1529
m	-11.153
高雅	-11.1531
截至	-11.1533
名叫	-11.1533
沥干	-11.1535
纪委书记	-11.1536
图》	-11.1536
驼	-11.1537
浓缩	-11.1538
通过9001	-11.1538
承认	-11.1538
微博	-11.1539
瓯	-11.154
传送	-11.1541
最长	-11.1541
4.1	-11.1543
中级职称	-11.1546
以往	-11.1547
是一道美食	-11.1547
动力学	-11.1548
荚	-11.1551
赌	-11.1551
商用	-11.1552
学术会议	-11.1554
学院副院长	-11.1556
》是由	-11.1558
因而	-11.1558
较少	-11.1559
总工会	-11.156
春天	-11.1561
债券	-11.1561
应对	-11.1563
旧址	-11.1563
撕	-11.1565
300多	-11.1565
所需的	-11.1567
相反	-11.1569
稳步	-11.157
媒介	-11.1572
科技进步	-11.1576
有名的	-11.1576
县委书记	-11.1577
八路军	-11.1579
通往	-11.1579
锰	-11.1579
重力	-11.1581
学校现有	-11.1582
几年来	-11.1583
第十三	-11.1584
墓地	-11.1584
阙	-11.1587
第八届	-11.1594
定量	-11.1594
教育培训	-11.1595
这是一个	-11.1595
第七届	-11.1595
简约	-11.1596
――	-11.1597
共产党	-11.1599
葱姜	-11.1603
国有资产	-11.1604
(/)	-11.1605
总量	-11.1607
楠	-11.1607
阿根廷	-11.1607
学说	-11.1607
詹	-11.1608
金额	-11.161
绿地	-11.161
贷	-11.1611
11个	-11.1613
青花	-11.1614
20公里	-11.1616
四肢	-11.1617
甲状腺	-11.1618
炫	-11.1618
律师事务所	-11.1619
名录	-11.162
此次	-11.1621
理论与实践	-11.1629
太湖	-11.1629
赚	-11.163
猜	-11.1635
胰	-11.1638
两项	-11.1638
间隔	-11.164
出道	-11.164
解读	-11.1641
落叶	-11.1645
副理事长	-11.1646
各式	-11.1647
工商局	-11.1651
开阔	-11.1652
前列腺	-11.1655
诠释	-11.1661
背光	-11.1662
老板	-11.1662
乙醇	-11.1663
硝	-11.1665
缺点	-11.1666
用户提供	-11.1666
性状	-11.1667
榕	-11.1667
н	-11.1669
仗	-11.1669
位于广东省	-11.167
不如	-11.1672
预报	-11.1675
出版社:	-11.1676
银奖	-11.1677
防盗	-11.1679
星系	-11.168
大中型	-11.1683
改名	-11.1684
802.3	-11.1685
聚合	-11.1686
现有职工	-11.1686
积累了丰富的	-11.1687
美好的	-11.1687
绅	-11.1689
4.6	-11.1691
▁(一)	-11.1693
妇联	-11.1694
食谱	-11.1696
特邀	-11.1696
2米	-11.1697
止痛	-11.17
β	-11.17
于2001年	-11.1704
喘	-11.1705
钻研	-11.1708
泡沫	-11.1708
生抽	-11.1708
帝王	-11.171
自来水	-11.1711
大致	-11.1713
重点项目	-11.1717
巧妙	-11.1717
工作;负责	-11.172
参见	-11.1721
价值观	-11.1723
60余	-11.1725
岔	-11.1725
包围	-11.1729
150克	-11.173
崛起	-11.1731
紧急	-11.1732
属植物	-11.1734
”的经营理念,	-11.1735
耸	-11.1737
脐	-11.174
荧光	-11.1741
万平米	-11.1742
水源	-11.1745
爵士	-11.1745
增大	-11.1747
古老	-11.1748
起源于	-11.1752
不管	-11.1753
黄褐色	-11.1754
展览会	-11.1754
沥青	-11.1755
委委员	-11.1755
读物	-11.1756
网球	-11.1759
公办	-11.1759
同仁	-11.1761
服务理念	-11.1761
1979	-11.1763
为止	-11.1764
君子	-11.1767
宽敞	-11.1775
专门从事	-11.1778
石英	-11.1781
20000	-11.1781
营养丰富	-11.1783
躲	-11.1783
分类:	-11.1784
接头	-11.1785
很难	-11.1786
熏	-11.1787
工程施工	-11.1788
樊	-11.179
十六年	-11.179
毒性	-11.1793
斐	-11.1796
交互	-11.1797
杂志》	-11.1798
突起	-11.1805
风采	-11.1805
军分区	-11.1806
话剧	-11.1806
疑难	-11.1806
薇	-11.1808
锯	-11.181
执导	-11.1812
着重	-11.1812
笔顺编号	-11.1813
阿拉	-11.1819
15公里	-11.1821
自卫	-11.1824
高品质的	-11.1824
广西壮族自治区	-11.1825
歼	-11.1826
ㄣ	-11.183
静态	-11.1833
毯	-11.1833
8平方公里	-11.1836
欢乐	-11.1836
ス	-11.1838
穿过	-11.1842
卡尔	-11.1844
永乐	-11.1848
倦	-11.185
亦作“	-11.185
40%	-11.185
第一位	-11.1852
很强	-11.1853
850	-11.1853
等一系列	-11.1854
功夫	-11.1858
圃	-11.1858
电极	-11.1859
沉淀	-11.186
肛	-11.1862
总产值	-11.1863
工序	-11.1863
开发商	-11.1864
请求	-11.1864
1980	-11.1866
博览	-11.1868
遭遇	-11.187
用书	-11.1875
焖	-11.1878
幼虫	-11.1878
急救	-11.1879
粉碎	-11.1882
等各类	-11.1883
升降	-11.1884
硬笔书法	-11.1885
意志	-11.1885
倾向	-11.1889
下去	-11.189
长圆形	-11.189
广大用户	-11.1892
农学院	-11.1893
汇聚	-11.1894
刊登	-11.1896
深得	-11.1897
呵	-11.1897
火焰	-11.1897
无毒	-11.1898
罗斯	-11.1899
利税	-11.19
电解	-11.1904
注音:	-11.1909
聊	-11.1916
饮水	-11.1917
火灾	-11.1919
依次	-11.1921
一千	-11.1923
踪	-11.1925
及其它	-11.1926
沼	-11.1926
专业性	-11.1928
光源	-11.1928
愤	-11.1928
统称	-11.1931
米,宽	-11.1931
也就	-11.1931
人中共党员	-11.1938
机车	-11.1939
曾被	-11.194
旬	-11.1942
环球	-11.1945
党建	-11.1949
垢	-11.1949
结业	-11.1949
风俗	-11.195
浦东	-11.1952
油菜	-11.1952
肇	-11.1953
骄	-11.1954
社区居委会	-11.1957
札	-11.1958
第一批	-11.196
犹如	-11.1963
加密	-11.1963
姿态	-11.1965
三十年	-11.1966
几种	-11.1971
长时间	-11.1971
名校	-11.1971
知名企业	-11.1975
犁	-11.1975
5.3	-11.1975
洗净切	-11.1976
变更	-11.1977
的一致好评	-11.1978
县委副书记	-11.1981
设立了	-11.1983
洁净	-11.1984
6.8	-11.1984
中的应用	-11.1986
迄今	-11.1988
基本上	-11.1992
修理	-11.1993
沸水	-11.1995
寻求	-11.1996
倾斜	-11.1999
出色	-11.2
ル	-11.2002
外包	-11.2002
研究”	-11.2006
亿元人民币	-11.2006
城堡	-11.2007
北魏	-11.2008
太祖	-11.2009
款式	-11.2011
葡萄牙	-11.2011
6.3	-11.2014
1080	-11.2019
党组副书记	-11.202
曲折	-11.2022
财务管理	-11.2022
依照	-11.2027
末端	-11.2028
开花	-11.2028
*2	-11.2033
搬迁	-11.2035
机械工业	-11.2038
客座教授	-11.204
名为“	-11.2041
う	-11.2044
乙烯	-11.2048
深厚的	-11.2048
公分	-11.2053
五百	-11.2054
前面	-11.2054
企业之一	-11.2055
榨	-11.2056
乌鲁木齐	-11.206
分行	-11.2061
拒	-11.2061
门窗	-11.2061
ㄥ	-11.2061
杂质	-11.2063
四月	-11.2064
不好	-11.2064
主要由	-11.2064
▁★	-11.2066
世界杯	-11.2069
机械有限公司	-11.2069
博客	-11.2071
峨	-11.2071
(4)	-11.2072
离心	-11.2072
网站建设	-11.2074
睡眠	-11.2074
销往	-11.2074
村里	-11.208
排长	-11.208
6平方公里	-11.208
跟随	-11.2083
袍	-11.2084
交汇处	-11.2084
应邀	-11.2084
污水处理	-11.2085
科学研究院	-11.2085
▁用法用量	-11.2086
为一体的综合性	-11.2087
正月	-11.209
塞尔	-11.209
175	-11.209
岭南	-11.2091
芙蓉	-11.2092
欧盟	-11.2095
吗	-11.2095
峭	-11.2096
女士	-11.2096
供给	-11.2099
徙	-11.2099
信心	-11.2102
毫克	-11.2103
发表了	-11.2104
提倡	-11.2105
▁外形尺寸	-11.2106
两位	-11.2107
用房	-11.2108
油脂	-11.2109
受理	-11.2113
纳入	-11.2118
建国后	-11.2121
厦门市	-11.2121
迭	-11.2123
定时	-11.2124
时钟	-11.2125
行政执法	-11.2126
饰)	-11.2126
恐龙	-11.2126
口岸	-11.213
产品重量:	-11.2131
长方形	-11.2133
奇迹	-11.2135
防范	-11.2135
共建	-11.2139
三等功	-11.2141
琅	-11.2144
发放	-11.2144
亦可	-11.2146
山药	-11.2148
领先水平	-11.2149
格尔	-11.2149
霉素	-11.2149
各异	-11.2151
电源适配器	-11.2152
真菌	-11.2154
4.4	-11.2154
腥	-11.2154
股权	-11.2155
魄	-11.2161
高低	-11.2164
十八年	-11.2165
3平方公里	-11.2165
骚	-11.2166
摔	-11.2168
项目位于	-11.2168
本村	-11.2171
山谷	-11.2173
沃尔	-11.2173
高质量的	-11.2176
蕉	-11.2177
示范学校	-11.2181
重型	-11.2182
骆	-11.2185
从业人员	-11.2186
冢	-11.2187
青年教师	-11.2188
提供优质	-11.219
4.7	-11.2192
村级	-11.2196
代号	-11.2198
名单	-11.2198
贯彻执行国家	-11.2199
科副科长	-11.2199
的样子	-11.2203
篇论文	-11.2207
慨	-11.2208
军团	-11.2208
之旅	-11.2211
有色金属	-11.2212
磺	-11.2213
授课	-11.2213
两端	-11.2216
气温	-11.2217
财政部	-11.2219
大脑	-11.2219
考证	-11.2219
占地面积1	-11.2221
计生	-11.2222
扩散	-11.2222
示范性	-11.2223
革命烈士	-11.2225
益气	-11.2228
边境	-11.223
运转	-11.2231
房型	-11.2232
精神文明建设	-11.2233
标记	-11.2234
广电	-11.2236
阐述了	-11.2236
红枣	-11.2236
孵化	-11.2241
1981	-11.2242
客家	-11.2242
淫	-11.2249
质量体系认证	-11.225
看见	-11.2251
带来了	-11.2252
电容	-11.2255
剔	-11.2255
し	-11.2256
变动	-11.2258
录取	-11.2261
宦	-11.2262
能力强	-11.2262
铁矿	-11.2266
立足于	-11.2269
去除	-11.2276
存放	-11.2278
不论	-11.2281
深加工	-11.2281
剁	-11.2286
子弟	-11.2289
必然	-11.2289
灵敏度	-11.2289
夫妻	-11.229
触摸	-11.229
工作委员会	-11.2291
夺得	-11.2291
庆祝	-11.2293
橡	-11.2295
▁(4)	-11.2298
掠	-11.2299
体育馆	-11.23
惩	-11.23
酪	-11.23
1924年	-11.2301
二手	-11.2301
粗壮	-11.2301
试图	-11.2301
询	-11.2302
祖父	-11.2302
弟弟	-11.2303
被迫	-11.2304
差别	-11.2305
藉	-11.2305
袭击	-11.2311
其父	-11.2313
科教	-11.2314
估计	-11.2316
听到	-11.2318
哩	-11.2319
回来	-11.232
古朴	-11.2323
经济师	-11.2323
解剖	-11.2323
人民政府批准	-11.2324
林场	-11.2326
金融机构	-11.2327
7.0	-11.2327
城市规划	-11.2329
手指	-11.2331
窥	-11.2332
四面	-11.2333
人均纯收入	-11.2334
抵抗	-11.2334
发展壮大	-11.2335
曝光	-11.2336
微机	-11.2337
诸侯	-11.2337
维尔	-11.2338
满族	-11.2338
早熟	-11.234
60%	-11.2344
当事人	-11.2345
门外	-11.2347
一直致力于	-11.2347
曾担任	-11.2349
焙	-11.2358
诈	-11.2369
捞	-11.2375
笃	-11.2397
糯	-11.2398
茄	-11.24
莽	-11.2406
撇	-11.2432
筝	-11.2457
锣	-11.2473
霖	-11.2475
绢	-11.2482
媚	-11.2496
搅	-11.2524
苞	-11.2535
芭	-11.2536
I	-11.2555
粪	-11.2556
蕃	-11.2559
谏	-11.2565
か	-11.2568
碍	-11.2573
捉	-11.2573
挚	-11.2597
坂	-11.2602
峦	-11.2635
髓	-11.2638
р	-11.2644
イ	-11.2684
芍	-11.2686
殖	-11.271
怜	-11.2735
砾	-11.2742
闵	-11.2751
臀	-11.2755
疲	-11.2763
钳	-11.2792
〗	-11.2805
〖	-11.2816
沦	-11.2827
羟	-11.2834
啸	-11.2843
喂	-11.2871
鳃	-11.2909
琢	-11.2927
讽	-11.2938
瘫	-11.2938
黛	-11.2949
倪	-11.2955
咀	-11.2957
倡	-11.2959
蛤	-11.2961
咳	-11.2969
牟	-11.2975
禧	-11.2981
娶	-11.2983
瞻	-11.3002
旷	-11.302
惧	-11.3024
晖	-11.3026
雏	-11.3039
岱	-11.3045
荔	-11.3047
碘	-11.3073
侦	-11.3107
裹	-11.3108
哨	-11.3115
郝	-11.3132
¥	-11.3166
汲	-11.3168
仑	-11.3172
壤	-11.3176
躁	-11.3186
寝	-11.3193
巅	-11.3199
鲸	-11.3212
霄	-11.3216
眺	-11.3219
灼	-11.3228
悄	-11.325
酉	-11.3264
琐	-11.3287
侈	-11.3299
媒	-11.33
衙	-11.334
馈	-11.3349
昧	-11.3351
杠	-11.3365
涯	-11.3391
驳	-11.3418
溜	-11.3434
淄	-11.3451
摧	-11.3461
锚	-11.3469
钮	-11.3481
掘	-11.3488
蔬	-11.3495
隅	-11.3504
靓	-11.351
砍	-11.3516
绰	-11.3526
驴	-11.3534
瘟	-11.354
趁	-11.355
棺	-11.3563
踢	-11.357
晏	-11.3574
珊	-11.361
喇	-11.3616
滥	-11.3617
朽	-11.368
眷	-11.368
聂	-11.3684
沫	-11.3695
缀	-11.3704
挫	-11.3704
徵	-11.372
柿	-11.3738
瀑	-11.3739
摹	-11.3768
沽	-11.3773
娱	-11.3789
抒	-11.3803
骂	-11.3807
蒿	-11.3811
ㄌ	-11.3813
曙	-11.3821
诛	-11.3826
伺	-11.3832
诡	-11.3836
糟	-11.3838
哦	-11.3866
た	-11.3876
泣	-11.3901
羞	-11.3907
な	-11.3919
痢	-11.3928
褒	-11.3994
】	-11.3994
兜	-11.4002
潼	-11.4002
蛛	-11.4005
奠	-11.4061
荀	-11.4079
丢	-11.4088
敞	-11.4102
亢	-11.4153
梢	-11.4176
恪	-11.4182
阪	-11.4183
芸	-11.4183
с	-11.419
咪	-11.4193
萎	-11.4207
Ω	-11.4235
觅	-11.424
坞	-11.4242
钵	-11.425
鲨	-11.4251
酌	-11.4259
喊	-11.4265
盼	-11.4269
陋	-11.4302
•	-11.431
【	-11.4314
芡	-11.432
卦	-11.4332
}	-11.4366
铲	-11.4372
ㄙ	-11.4379
ん	-11.4381
践	-11.4383
淤	-11.4385
彪	-11.44
忱	-11.4407
痘	-11.4418
娟	-11.4426
靶	-11.4431
竿	-11.445
桦	-11.4452
厕	-11.4457
械	-11.4462
匡	-11.4476
恤	-11.4476
ㄠ	-11.4478
苇	-11.4479
悍	-11.4481
琦	-11.4494
@	-11.4502
噬	-11.4513
в	-11.4518
萝	-11.452
晾	-11.452
勘	-11.4523
―	-11.4535
祐	-11.4538
峙	-11.4551
缔	-11.4557
{	-11.4559
臻	-11.4566
岑	-11.4579
磅	-11.459
掀	-11.4606
央	-11.461
榴	-11.4633
擢	-11.4639
焰	-11.4672
稚	-11.4683
藓	-11.4683
凄	-11.4699
恢	-11.472
佣	-11.4728
鳌	-11.4743
蔽	-11.4755
宵	-11.4757
箔	-11.4763
汕	-11.4769
蚊	-11.4777
缚	-11.4784
壬	-11.4788
と	-11.4794
聋	-11.4799
懒	-11.4808
愧	-11.481
阐	-11.4815
忻	-11.4824
捏	-11.4826
哑	-11.4856
硒	-11.486
ト	-11.4887
劈	-11.4887
囚	-11.4906
烃	-11.4906
拙	-11.491
僚	-11.4937
硼	-11.494
谍	-11.4949
侗	-11.4956
奕	-11.4965
耻	-11.4976
辍	-11.4978
玻	-11.5041
唑	-11.5056
拐	-11.5068
昨	-11.5077
谕	-11.5098
贱	-11.5119
粳	-11.5126
铎	-11.5128
к	-11.5132
ㄢ	-11.5134
癸	-11.5135
リ	-11.5149
诞	-11.5162
搓	-11.5177
铵	-11.5182
敕	-11.5189
颉	-11.5208
亥	-11.5215
墟	-11.5217
娥	-11.5226
・	-11.5231
饿	-11.5269
莒	-11.529
狸	-11.5309
蘖	-11.5316
ラ	-11.5318
拂	-11.5332
卯	-11.5342
虏	-11.5352
镂	-11.5356
□	-11.5358
颍	-11.5361
熹	-11.5373
缅	-11.538
昊	-11.5382
睹	-11.5385
娴	-11.5389
鹭	-11.5394
瞬	-11.5406
贿	-11.5421
胁	-11.5426
ア	-11.5432
碾	-11.544
颤	-11.5442
拷	-11.5457
窖	-11.547
虐	-11.5471
僻	-11.5478
励	-11.549
き	-11.5492
侄	-11.5493
傣	-11.5498
癣	-11.5512
孚	-11.5521
疼	-11.5522
鳄	-11.5524
彰	-11.5533
溴	-11.5551
绮	-11.5558
蝇	-11.556
洱	-11.5567
钨	-11.5568
肘	-11.558
娅	-11.5582
谛	-11.5589
弛	-11.559
敖	-11.5592
槟	-11.5602
刨	-11.5607
窍	-11.5607
抖	-11.5609
俩	-11.5614
茹	-11.5655
噶	-11.5663
ㄏ	-11.5665
喧	-11.5678
蜥	-11.568
萃	-11.5689
瑜	-11.5697
呀	-11.5699
樵	-11.5702
掺	-11.5717
胖	-11.5735
蜗	-11.5751
狠	-11.5756
灿	-11.5759
戟	-11.5761
豉	-11.5771
猿	-11.5786
顷	-11.5829
涤	-11.5839
$	-11.5845
眩	-11.5875
л	-11.5881
絮	-11.5888
洽	-11.589
饺	-11.5898
赔	-11.5906
睦	-11.5906
惹	-11.5923
楞	-11.5926
ク	-11.5931
蓟	-11.5939
噪	-11.5957
ま	-11.5963
ㄤ	-11.5964
傻	-11.5966
悼	-11.5971
暇	-11.5984
嚼	-11.5994
沐	-11.6018
鹊	-11.6027
镌	-11.6045
瀚	-11.6045
耆	-11.605
铀	-11.6055
颊	-11.6058
毓	-11.6083
堕	-11.6104
翟	-11.6114
够	-11.6124
柚	-11.6132
腑	-11.6142
磊	-11.615
茗	-11.6153
秃	-11.6173
泸	-11.6176
淬	-11.6176
痔	-11.6191
缕	-11.6199
脯	-11.6209
匿	-11.6248
莺	-11.6253
涪	-11.6261
粱	-11.6264
灸	-11.6265
晃	-11.6277
垩	-11.6298
豚	-11.6298
缉	-11.63
鸠	-11.6305
饵	-11.6308
锭	-11.6319
汛	-11.6324
茧	-11.6326
驯	-11.6326
ㄕ	-11.6326
袜	-11.6371
吓	-11.6389
戌	-11.6397
滁	-11.64
筷	-11.6426
缪	-11.644
芷	-11.6455
甬	-11.6464
讳	-11.6466
嘛	-11.6469
笺	-11.6471
榻	-11.648
纂	-11.6506
橱	-11.6517
懿	-11.6517
篷	-11.6527
栈	-11.6538
婷	-11.6557
ㄉ	-11.6559
厝	-11.6562
扼	-11.657
祺	-11.6578
る	-11.6586
绛	-11.6595
踞	-11.6605
羡	-11.6608
羲	-11.6621
疣	-11.6646
掖	-11.6656
浚	-11.6662
畲	-11.6686
苟	-11.67
鸾	-11.67
贰	-11.6702
佰	-11.6722
薰	-11.6741
丫	-11.6752
り	-11.6776
耍	-11.6801
漕	-11.6804
椿	-11.6834
茜	-11.6845
笨	-11.6845
☆	-11.685
挠	-11.6851
玺	-11.6851
沅	-11.687
捆	-11.6873
嘱	-11.6878
擒	-11.6878
佚	-11.6878
g	-11.6886
〇	-11.6886
痈	-11.6889
掷	-11.6896
舅	-11.6897
妾	-11.69
涟	-11.6911
乖	-11.6914
盔	-11.6922
柘	-11.6923
ㄟ	-11.6936
芙	-11.6942
憾	-11.6956
帛	-11.6959
锂	-11.6961
冕	-11.6962
壑	-11.699
矾	-11.6995
芪	-11.7026
靴	-11.7057
氰	-11.7068
毙	-11.7076
т	-11.7081
ㄚ	-11.7082
巳	-11.7093
疯	-11.7099
啶	-11.7099
挣	-11.7116
邸	-11.7116
楂	-11.7116
浒	-11.713
泼	-11.7132
瞳	-11.7136
襟	-11.7139
妓	-11.7144
羁	-11.7167
荞	-11.7176
厘	-11.7192
嚣	-11.7196
挛	-11.7202
嫡	-11.7204
釜	-11.7216
蝎	-11.7219
匣	-11.7224
辕	-11.7245
弈	-11.7253
瑰	-11.7256
毡	-11.7265
涝	-11.7268
擀	-11.727
甄	-11.7293
蟠	-11.7294
龛	-11.7296
辄	-11.7302
妨	-11.7305
み	-11.7308
镰	-11.7311
に	-11.7325
祷	-11.7349
遐	-11.7351
亳	-11.7357
殉	-11.7369
夯	-11.7369
羹	-11.7375
矛	-11.7418
蚌	-11.7424
酋	-11.7427
跻	-11.7462
铂	-11.7471
桨	-11.748
豁	-11.7483
裳	-11.7488
撑	-11.7506
烽	-11.7506
瑙	-11.7506
韬	-11.7507
滔	-11.7515
稷	-11.7518
ッ	-11.7521
冉	-11.7521
鱿	-11.7545
皓	-11.7545
渚	-11.7545
陨	-11.7566
漓	-11.7592
旌	-11.7613
闺	-11.7616
芎	-11.7643
歪	-11.7658
倭	-11.7658
窜	-11.7676
哇	-11.7688
踩	-11.7694
皿	-11.7703
淀	-11.7714
■	-11.7724
く	-11.7724
瀛	-11.7766
寮	-11.7772
磐	-11.7781
盎	-11.7781
廓	-11.7787
恳	-11.779
笙	-11.779
盂	-11.7805
晦	-11.7809
こ	-11.7814
烁	-11.7815
箐	-11.7824
钼	-11.7827
ㄓ	-11.7833
兀	-11.7842
糜	-11.7854
遁	-11.7857
ㄩ	-11.7866
恬	-11.7873
乍	-11.7882
墅	-11.7895
倩	-11.7903
蟾	-11.7909
蔗	-11.7914
霹	-11.7928
鄞	-11.7928
偃	-11.7934
潞	-11.794
鳝	-11.7952
潺	-11.7955
ㄛ	-11.7961
臼	-11.7962
竺	-11.798
慌	-11.8011
穹	-11.8026
憩	-11.8026
俏	-11.8027
寰	-11.8029
疽	-11.8036
秤	-11.8042
邕	-11.8067
胥	-11.8073
歙	-11.8095
谒	-11.8101
烙	-11.8136
颚	-11.8149
蘸	-11.8151
蛟	-11.8155
雳	-11.8161
迥	-11.8161
琉	-11.8164
さ	-11.8167
紊	-11.8177
兖	-11.818
碌	-11.818
魅	-11.8181
孩	-11.8194
虔	-11.8243
胫	-11.825
蚂	-11.8259
殡	-11.8271
妍	-11.8272
嫂	-11.8278
ㄍ	-11.8278
ㄅ	-11.8291
婺	-11.8297
鲈	-11.8316
痉	-11.8316
侏	-11.8319
疱	-11.8322
炽	-11.8326
陛	-11.8329
帷	-11.8351
赎	-11.8355
吡	-11.8368
潇	-11.8386
芜	-11.839
麝	-11.8413
昵	-11.8442
夔	-11.8448
捻	-11.8458
裘	-11.8461
艰	-11.8467
苛	-11.85
糙	-11.8535
躬	-11.8552
珀	-11.8552
V	-11.8572
ㄊ	-11.8575
ら	-11.8578
澧	-11.8582
汞	-11.8582
睾	-11.8595
鄙	-11.8618
剌	-11.8621
茴	-11.8631
耦	-11.8631
瓮	-11.8634
瞰	-11.8651
翩	-11.8651
逗	-11.8661
帼	-11.8663
濑	-11.8677
宕	-11.8721
漾	-11.8721
褚	-11.8724
簧	-11.8726
媳	-11.8727
滦	-11.8727
嬉	-11.8727
ド	-11.8734
筠	-11.8747
膛	-11.8764
溅	-11.8767
溧	-11.8771
弼	-11.8774
诬	-11.8827
戍	-11.8828
潍	-11.8834
ㄇ	-11.8834
沭	-11.8854
煨	-11.8855
锉	-11.8855
は	-11.8894
鸥	-11.8895
缮	-11.8905
恺	-11.8912
晟	-11.8929
廿	-11.8949
恼	-11.8956
驭	-11.8956
钤	-11.8963
鳖	-11.8977
扒	-11.9007
沱	-11.9018
て	-11.902
杞	-11.9025
芩	-11.9038
榔	-11.9042
辙	-11.9055
Φ	-11.9066
璞	-11.9069
邃	-11.9076
氽	-11.9083
瞿	-11.9083
伶	-11.9083
轿	-11.9089
啼	-11.909
诰	-11.911
シ	-11.9128
ㄝ	-11.9142
煞	-11.9149
咖	-11.9149
嘲	-11.9149
璋	-11.9159
溺	-11.9159
扯	-11.917
菁	-11.9191
悸	-11.9198
诃	-11.9212
葡	-11.9236
莘	-11.9243
膺	-11.9246
あ	-11.9264
绽	-11.9268
仄	-11.9271
孺	-11.9285
荟	-11.9288
怠	-11.9292
赈	-11.9307
媛	-11.9341
隘	-11.9349
髻	-11.9352
荠	-11.9352
羚	-11.9359
僵	-11.937
`	-11.9381
γ	-11.9381
螟	-11.9384
谟	-11.9388
萤	-11.9391
拣	-11.9391
嵊	-11.9395
骤	-11.9396
隽	-11.9406
枳	-11.9434
瘾	-11.9438
婿	-11.9441
辐	-11.945
炊	-11.9463
レ	-11.948
茉	-11.9484
挨	-11.9484
莓	-11.9506
饲	-11.9507
虱	-11.9513
屹	-11.952
戮	-11.9535
挟	-11.9535
怎	-11.9547
庇	-11.9557
稼	-11.956
骇	-11.956
鲫	-11.9585
凋	-11.9589
棣	-11.9593
篱	-11.9593
拇	-11.9596
聆	-11.9644
镖	-11.9658
驹	-11.9658
叁	-11.9658
崂	-11.9673
岷	-11.9673
昼	-11.9685
蹲	-11.9731
栾	-11.9735
煌	-11.9756
蔻	-11.9765
疤	-11.9776
沌	-11.9779
扳	-11.9783
淞	-11.9821
熄	-11.9824
秽	-11.9842
狙	-11.9846
漱	-11.9846
谬	-11.985
牡	-11.9852
跪	-11.9857
咱	-11.9873
奚	-11.9876
羣	-11.988
删	-11.9886
辜	-11.9887
榭	-11.9902
が	-11.9913
匆	-11.9921
浜	-11.994
タ	-11.9951
钥	-11.9973
箕	-11.9981
谅	-11.9989
涕	-11.9992
疟	-11.9992
拢	-11.9996
绸	-12.0001
鄱	-12.0004
瑾	-12.0011
睢	-12.0023
涎	-12.0091
渺	-12.0091
闫	-12.0107
ロ	-12.0129
ㄔ	-12.0133
煸	-12.0147
雯	-12.0149
譬	-12.0164
凳	-12.0164
呐	-12.0164
胤	-12.0176
嗅	-12.0179
刁	-12.018
郧	-12.0183
寥	-12.0187
笠	-12.0187
曳	-12.0191
甩	-12.0203
瑛	-12.0222
凑	-12.0225
闾	-12.0229
お	-12.0241
湄	-12.0241
雉	-12.0253
マ	-12.026
钗	-12.0261
睑	-12.028
φ	-12.0288
谎	-12.0307
腱	-12.0307
坳	-12.0311
箫	-12.0315
钴	-12.0319
丕	-12.0331
炯	-12.0331
冗	-12.0338
耒	-12.0346
糠	-12.035
曦	-12.0362
赦	-12.0366
妒	-12.037
缭	-12.0382
讷	-12.0393
蠕	-12.0396
悚	-12.0421
臧	-12.0424
秩	-12.0432
浔	-12.0437
辗	-12.0445
砸	-12.046
肄	-12.0472
诲	-12.0476
禀	-12.0492
媲	-12.0508
滓	-12.0512
鹑	-12.0512
俑	-12.052
鳗	-12.0528
叟	-12.0532
裱	-12.0544
缎	-12.0556
斛	-12.0556
翎	-12.0568
羧	-12.0572
姻	-12.0625
庾	-12.0628
蜕	-12.0648
汴	-12.0649
铠	-12.0653
剃	-12.0657
呕	-12.0684
筱	-12.0693
脖	-12.0709
醴	-12.0721
曝	-12.073
ジ	-12.0741
砺	-12.0766
猩	-12.0766
隍	-12.0771
畸	-12.0772
毋	-12.0774
阑	-12.0795
弋	-12.0819
叮	-12.0832
ち	-12.084
曜	-12.0844
σ	-12.0848
澎	-12.0865
湍	-12.0873
膈	-12.0898
侃	-12.0902
彤	-12.0927
霓	-12.0935
茱	-12.0943
渎	-12.0956
睛	-12.0962
痿	-12.0968
も	-12.0976
フ	-12.0993
珂	-12.1023
挝	-12.1052
恕	-12.1056
耽	-12.1081
矗	-12.1081
贻	-12.1086
溥	-12.109
莅	-12.1098
颓	-12.1123
濂	-12.1124
唾	-12.1136
咯	-12.1153
瑕	-12.1157
祯	-12.1178
蘑	-12.1195
薏	-12.1196
呎	-12.123
苣	-12.126
栀	-12.126
葆	-12.1264
匮	-12.1281
缙	-12.1281
纫	-12.1303
隧	-12.1316
绶	-12.132
嶂	-12.1337
诙	-12.1342
覃	-12.1346
嫉	-12.1346
慷	-12.135
宙	-12.1354
彗	-12.1363
洮	-12.1363
癜	-12.1364
钊	-12.1367
跤	-12.1372
淇	-12.1372
澡	-12.1398
睫	-12.1398
M	-12.1437
孽	-12.1442
槛	-12.1446
漯	-12.1446
朕	-12.145
攒	-12.145
佬	-12.1477
瘙	-12.1477
懋	-12.1485
吵	-12.1507
爹	-12.1551
螨	-12.1551
粽	-12.1556
淌	-12.1556
垛	-12.156
カ	-12.1587
й	-12.1589
偕	-12.1596
郫	-12.16
搁	-12.1604
啮	-12.1605
姨	-12.1605
绫	-12.1613
钰	-12.1631
铰	-12.1631
栉	-12.1636
祚	-12.164
眶	-12.164
邳	-12.1645
劾	-12.165
僳	-12.169
桢	-12.1694
祜	-12.1712
甙	-12.1716
惕	-12.1734
霆	-12.1734
攸	-12.1739
昙	-12.1752
缨	-12.1752
荼	-12.1783
鞠	-12.1784
疝	-12.1788
惰	-12.1793
荥	-12.1807
擂	-12.1824
坷	-12.1829
诅	-12.1834
蛎	-12.1842
褪	-12.1843
萸	-12.1865
萱	-12.1866
ا	-12.187
咨	-12.1883
畴	-12.1883
枉	-12.1902
跗	-12.1907
瓢	-12.1925
叩	-12.1957
つ	-12.1966
铆	-12.1971
ㄡ	-12.198
骸	-12.1985
濠	-12.1994
谚	-12.2003
殆	-12.2008
螯	-12.2008
д	-12.2039
璜	-12.2045
拭	-12.2045
を	-12.2053
盅	-12.2054
诫	-12.2077
馒	-12.2077
楔	-12.2081
疸	-12.2082
腮	-12.2087
泓	-12.2087
吁	-12.21
畿	-12.2105
黍	-12.2105
琛	-12.211
у	-12.2118
扔	-12.2119
憎	-12.2133
喱	-12.2152
舵	-12.2152
泌	-12.2159
邛	-12.2161
歹	-12.2165
吼	-12.2171
捺	-12.2171
鲷	-12.2175
骥	-12.218
ㄜ	-12.2185
痞	-12.2194
T	-12.2213
貂	-12.2222
躺	-12.2232
痪	-12.2232
夭	-12.2241
ㄗ	-12.2251
戳	-12.2256
轶	-12.226
凛	-12.2265
斡	-12.227
遏	-12.2279
秸	-12.228
蟒	-12.2284
逛	-12.2293
筵	-12.2298
煅	-12.2303
榄	-12.2313
撮	-12.2327
テ	-12.2351
铨	-12.236
す	-12.2365
蚜	-12.2399
瘠	-12.2404
氓	-12.2423
弩	-12.2428
籼	-12.2432
俨	-12.2447
岙	-12.2447
陌	-12.246
蚓	-12.2467
莴	-12.2471
朐	-12.2505
簪	-12.252
迂	-12.2524
俸	-12.2525
诣	-12.2564
戛	-12.2568
捡	-12.2588
佥	-12.2598
娓	-12.2613
瓤	-12.2617
藜	-12.2642
苓	-12.2657
锄	-12.2662
△	-12.2671
骋	-12.2672
笈	-12.2681
陲	-12.2686
啄	-12.2711
驶	-12.2723
浣	-12.2731
で	-12.2735
闰	-12.2756
蝠	-12.2756
迤	-12.2761
宸	-12.2776
癖	-12.2781
郢	-12.2781
矶	-12.2786
嘻	-12.2786
栎	-12.2786
娩	-12.2791
靳	-12.2796
狡	-12.2831
蓼	-12.2831
蠡	-12.2836
骈	-12.2841
赭	-12.2846
梆	-12.2846
昕	-12.2876
赂	-12.2881
饷	-12.2882
疃	-12.2886
怯	-12.2902
ィ	-12.2942
蕲	-12.2947
阆	-12.2962
酣	-12.2962
讼	-12.2987
牲	-12.3046
м	-12.3048
篡	-12.3049
ㄞ	-12.3054
鹌	-12.3054
─	-12.3085
じ	-12.3095
れ	-12.3105
肴	-12.3105
螂	-12.3121
炜	-12.3142
脘	-12.3142
葺	-12.3147
嗪	-12.3168
燮	-12.3173
砼	-12.3173
蛀	-12.3189
擎	-12.3191
涿	-12.321
翳	-12.3236
や	-12.3246
徊	-12.3251
葩	-12.3267
讹	-12.3277
恍	-12.3277
岫	-12.3288
芮	-12.3293
镭	-12.3293
瘘	-12.3309
婢	-12.3346
憨	-12.3362
孰	-12.3383
邺	-12.3388
粑	-12.3399
煜	-12.3415
揣	-12.3431
喃	-12.3447
蕙	-12.3452
蝗	-12.3474
钣	-12.3484
锆	-12.3501
恣	-12.3522
刍	-12.3543
淆	-12.3549
稹	-12.3565
遴	-12.3565
绯	-12.357
恃	-12.3576
爸	-12.3581
螃	-12.3581
泠	-12.3586
犷	-12.3587
壕	-12.3587
腭	-12.3593
牍	-12.3603
僖	-12.3625
苋	-12.363
旖	-12.3646
睁	-12.3668
谧	-12.3668
惶	-12.3668
麾	-12.3679
旎	-12.369
垄	-12.3699
亘	-12.3712
恽	-12.3723
俺	-12.3723
箍	-12.3723
莞	-12.3724
だ	-12.3728
玮	-12.3734
郯	-12.3734
逅	-12.3734
骁	-12.375
伎	-12.3755
螭	-12.3756
濮	-12.3771
祇	-12.3772
邂	-12.3772
畈	-12.3778
薨	-12.3778
袂	-12.3778
惬	-12.3789
眸	-12.3794
捍	-12.3795
璐	-12.3795
※	-12.3805
ㄈ	-12.3805
镗	-12.3822
沮	-12.3828
コ	-12.3855
馥	-12.3861
徘	-12.3866
寐	-12.3878
佘	-12.3878
飙	-12.3905
腓	-12.3911
杷	-12.3922
芾	-12.3933
镑	-12.3939
淖	-12.3945
箴	-12.395
朦	-12.3962
罹	-12.3967
濡	-12.3973
キ	-12.3984
屉	-12.4012
瞒	-12.4012
苄	-12.4012
荧	-12.4042
胄	-12.4063
砷	-12.4064
г	-12.4082
侮	-12.4109
柞	-12.4114
崭	-12.4125
匕	-12.4126
坨	-12.4148
扉	-12.4149
荪	-12.4166
蛹	-12.4177
エ	-12.4177
蠢	-12.4178
趟	-12.4178
∼	-12.4178
琊	-12.4183
钜	-12.4189
玖	-12.42
け	-12.42
倘	-12.42
搪	-12.4212
枭	-12.4229
塾	-12.4234
扛	-12.4241
掐	-12.4241
贲	-12.4258
垭	-12.4258
疡	-12.427
え	-12.427
オ	-12.4281
卞	-12.4287
荃	-12.4287
蜚	-12.4311
◎	-12.4317
猷	-12.4328
δ	-12.4328
汹	-12.4334
儋	-12.4345
枇	-12.4351
デ	-12.4357
幔	-12.4357
钒	-12.4363
炀	-12.4369
咫	-12.4375
姊	-12.4391
郦	-12.4416
讥	-12.4439
舫	-12.4439
胧	-12.4463
赘	-12.4475
っ	-12.448
幡	-12.4481
髋	-12.4481
鬓	-12.4492
谯	-12.4499
昱	-12.4504
嫔	-12.451
哗	-12.4522
茬	-12.4522
骅	-12.4528
腈	-12.4528
蜴	-12.4558
壅	-12.457
噻	-12.4582
c	-12.4594
痤	-12.4594
λ	-12.463
ウ	-12.4642
逮	-12.4647
堇	-12.4648
佗	-12.4653
桧	-12.4684
膀	-12.4689
矜	-12.4696
逵	-12.4708
ㄆ	-12.4708
龈	-12.472
バ	-12.4732
踵	-12.4738
獒	-12.4738
碣	-12.4738
踝	-12.4745
藿	-12.4756
忏	-12.4757
薹	-12.4757
涓	-12.4757
槃	-12.4775
磋	-12.4793
荤	-12.4799
遒	-12.4818
扈	-12.483
蔺	-12.483
汐	-12.4836
佤	-12.4842
璇	-12.4848
蛊	-12.4849
漩	-12.4879
塬	-12.4879
皎	-12.4885
咎	-12.4904
崮	-12.4922
俾	-12.4941
涸	-12.4941
サ	-12.4947
§	-12.4953
钎	-12.496
诘	-12.4972
榛	-12.4978
驮	-12.5003
佟	-12.5015
丐	-12.5041
烩	-12.5053
皴	-12.5053
籁	-12.5053
挪	-12.5064
枋	-12.5065
ナ	-12.5078
谙	-12.5078
呜	-12.5084
迩	-12.5084
萦	-12.5084
韭	-12.51
讶	-12.5103
晤	-12.511
纣	-12.5122
珞	-12.5122
黜	-12.5122
ч	-12.5144
熠	-12.516
谪	-12.516
ミ	-12.5173
翊	-12.5173
蹦	-12.5173
亟	-12.5198
掏	-12.5205
悖	-12.5205
抉	-12.5211
グ	-12.523
熨	-12.5237
杵	-12.5243
酵	-12.5244
葶	-12.5256
爻	-12.5281
澹	-12.53
蜓	-12.53
я	-12.5311
わ	-12.532
峒	-12.5326
谤	-12.5358
姥	-12.5365
铢	-12.5397
衮	-12.5404
荨	-12.541
黯	-12.5417
阡	-12.5417
贽	-12.543
ل	-12.543
埭	-12.5462
憧	-12.5462
‧	-12.5482
脲	-12.5495
歉	-12.5495
谴	-12.5502
よ	-12.5508
鬃	-12.5508
鳅	-12.5508
耙	-12.5515
萘	-12.5521
鳕	-12.5521
馏	-12.5534
ニ	-12.5561
锑	-12.5561
祉	-12.5574
疳	-12.5587
荸	-12.5587
叱	-12.5587
憬	-12.5594
蹈	-12.5599
诂	-12.562
ム	-12.5633
拧	-12.564
郓	-12.564
稃	-12.5646
燎	-12.5667
蜈	-12.5667
褥	-12.5667
惭	-12.568
磕	-12.568
蚣	-12.5687
菖	-12.5687
蟆	-12.5694
斓	-12.57
偈	-12.5707
忒	-12.5734
吋	-12.5741
俎	-12.5747
ひ	-12.5754
ρ	-12.5754
捶	-12.576
‰	-12.5774
屁	-12.5781
蜻	-12.5781
攘	-12.5781
拈	-12.5801
崧	-12.5801
鎏	-12.5801
垮	-12.5828
殁	-12.5828
腩	-12.5828
霁	-12.5835
蚤	-12.5835
哆	-12.5842
π	-12.5849
砧	-12.5862
甾	-12.5862
瞎	-12.5876
虬	-12.5876
娑	-12.5882
晁	-12.5883
绷	-12.5883
羔	-12.5896
翱	-12.5896
惫	-12.5903
砥	-12.591
筏	-12.591
侬	-12.5917
毂	-12.5924
鸢	-12.593
蔑	-12.5937
窘	-12.5951
艮	-12.5958
苴	-12.5972
殴	-12.5978
酐	-12.5978
馍	-12.5979
娲	-12.5985
枞	-12.5992
プ	-12.6006
檄	-12.6006
磬	-12.6006
夙	-12.6033
ㄎ	-12.604
ガ	-12.6047
啉	-12.6047
慑	-12.6061
嗟	-12.6068
痊	-12.6082
绊	-12.6103
ブ	-12.611
胭	-12.6138
罔	-12.6151
锺	-12.6152
廪	-12.6159
ャ	-12.6159
佃	-12.6166
俐	-12.6187
槎	-12.6194
敝	-12.6222
茭	-12.6222
碉	-12.6243
モ	-12.6257
麸	-12.6257
赡	-12.6257
怅	-12.6264
嘧	-12.6264
匝	-12.6264
箨	-12.6268
筐	-12.6292
湟	-12.63
芫	-12.6314
袅	-12.6321
疵	-12.6328
骊	-12.6335
泮	-12.6343
弁	-12.6357
厮	-12.6357
跖	-12.6371
仟	-12.6385
沔	-12.6421
銮	-12.6428
麒	-12.6428
陟	-12.6443
谗	-12.6457
赃	-12.6493
烨	-12.6493
С	-12.6501
⊙	-12.6515
殇	-12.6515
汨	-12.6522
ゆ	-12.6529
阈	-12.6529
肱	-12.6544
珪	-12.6545
罂	-12.6551
鲑	-12.6551
桡	-12.6559
汆	-12.6566
崃	-12.6566
俟	-12.658
巽	-12.658
綦	-12.6595
潢	-12.6597
晰	-12.6603
噩	-12.661
彷	-12.6624
藁	-12.6632
ュ	-12.6646
晔	-12.6646
メ	-12.6668
ь	-12.6686
邯	-12.6691
榫	-12.6698
嵇	-12.6698
辫	-12.6698
ろ	-12.6713
呤	-12.6728
漪	-12.6742
奄	-12.6742
桁	-12.675
阖	-12.6765
蹬	-12.6772
镐	-12.6772
劭	-12.6787
暧	-12.6794
尬	-12.6795
痣	-12.6802
嵘	-12.681
ㄘ	-12.6817
氩	-12.6817
蹊	-12.6832
铮	-12.6832
ょ	-12.6832
盱	-12.6854
犊	-12.6854
酝	-12.6854
悯	-12.6854
啥	-12.6862
鹫	-12.6884
坍	-12.6885
蓓	-12.6907
撷	-12.6929
́	-12.693
鲶	-12.693
≈	-12.6937
乒	-12.6945
绚	-12.6966
燧	-12.6975
チ	-12.6975
邨	-12.6983
淼	-12.699
钺	-12.6998
蔼	-12.6998
槌	-12.7006
粲	-12.7006
囱	-12.7006
◆	-12.701
ε	-12.702
羸	-12.7021
渥	-12.7029
尴	-12.7044
ㄖ	-12.7051
屎	-12.7067
懦	-12.7082
濯	-12.7082
帚	-12.7105
踊	-12.7113
牒	-12.7113
ㄒ	-12.712
蒡	-12.7121
婪	-12.7121
戾	-12.7128
癫	-12.7167
獭	-12.7183
苕	-12.719
猗	-12.7198
蚝	-12.7232
镉	-12.7245
饯	-12.7253
妞	-12.726
搐	-12.7268
觐	-12.7284
镬	-12.7307
髦	-12.7315
窒	-12.7315
绦	-12.7323
觞	-12.7323
鬲	-12.7323
俪	-12.7331
皈	-12.7339
鹄	-12.7379
苎	-12.7418
哄	-12.7426
嘟	-12.7426
疙	-12.7433
ダ	-12.7442
奂	-12.745
桀	-12.7458
螳	-12.7466
裨	-12.7481
懈	-12.7483
佞	-12.749
樽	-12.7498
淅	-12.7505
峥	-12.7506
庠	-12.7521
徕	-12.7521
蛭	-12.7545
咕	-12.7545
垅	-12.7546
嘿	-12.7546
尕	-12.7546
玫	-12.7553
苡	-12.7554
骞	-12.7569
哌	-12.7585
迄	-12.7592
镯	-12.7594
拮	-12.7602
钡	-12.761
砀	-12.7611
粕	-12.7618
摒	-12.7651
琮	-12.7667
б	-12.767
邬	-12.7675
蒴	-12.7688
玑	-12.77
嘶	-12.7716
昀	-12.7716
髯	-12.7716
痧	-12.7732
碛	-12.7741
逻	-12.7748
惮	-12.7757
祗	-12.7773
盯	-12.7773
め	-12.7773
猾	-12.779
瘩	-12.7798
垠	-12.7798
骡	-12.7798
髅	-12.7815
孵	-12.7821
猝	-12.7831
嗓	-12.7838
俚	-12.7839
圻	-12.7897
檗	-12.7906
峤	-12.7906
炔	-12.7914
坻	-12.7922
洵	-12.7931
鲉	-12.7931
邈	-12.794
赉	-12.7948
牦	-12.7948
湮	-12.7948
鄢	-12.7964
濉	-12.7964
忿	-12.7981
讴	-12.7981
虢	-12.7982
桉	-12.7998
琶	-12.7998
吝	-12.8015
隼	-12.8015
椽	-12.804
奘	-12.804
逞	-12.8057
遽	-12.8057
菟	-12.8074
傩	-12.8082
瓒	-12.81
缢	-12.8109
蹇	-12.8125
缜	-12.8176
К	-12.8177
禺	-12.8184
А	-12.8193
粼	-12.8194
衅	-12.8202
ビ	-12.8211
轭	-12.8211
頫	-12.8219
铿	-12.8219
傀	-12.8236
埕	-12.8245
楹	-12.8258
羯	-12.8262
簸	-12.8263
跷	-12.8271
脩	-12.828
沓	-12.8288
斟	-12.8297
缥	-12.8306
拽	-12.8323
澈	-12.8325
蜊	-12.8332
诠	-12.8339
嗽	-12.8345
煦	-12.8358
ズ	-12.8367
潦	-12.8384
茁	-12.8402
錾	-12.8402
苹	-12.8404
徇	-12.8428
荽	-12.8437
舷	-12.8445
畦	-12.8453
灞	-12.8454
蛰	-12.8463
蚯	-12.8463
П	-12.8463
炬	-12.8477
扦	-12.8489
碚	-12.8534
骷	-12.8543
舀	-12.8551
嫣	-12.8569
焘	-12.857
瞧	-12.8587
湃	-12.8587
胪	-12.8596
豇	-12.8596
甥	-12.8596
膘	-12.8605
暹	-12.8605
眙	-12.8614
桅	-12.8614
焗	-12.8623
掇	-12.8623
辇	-12.8623
狩	-12.8631
堑	-12.8632
珈	-12.865
飓	-12.865
氦	-12.8667
幌	-12.8668
疖	-12.8668
飨	-12.8677
蠹	-12.8677
М	-12.8686
嘌	-12.8686
埂	-12.8713
驸	-12.8722
鞣	-12.8722
觚	-12.8731
嶙	-12.874
颞	-12.8749
炕	-12.8749
铛	-12.8749
岖	-12.8768
篾	-12.8777
茏	-12.8786
搽	-12.8794
愍	-12.8812
稔	-12.8813
愉	-12.8828
楣	-12.8831
煽	-12.884
瘿	-12.8868
撩	-12.8886
凫	-12.8895
疔	-12.8914
哎	-12.8923
颏	-12.8923
爰	-12.8932
ㄐ	-12.8941
陉	-12.8941
霭	-12.8942
吠	-12.896
せ	-12.896
岘	-12.896
笏	-12.8988
ェ	-12.8997
溏	-12.9006
儡	-12.9006
舂	-12.9006
θ	-12.9016
垌	-12.9016
骰	-12.9081
圪	-12.9081
钯	-12.909
钿	-12.9099
X	-12.9108
锵	-12.9109
臆	-12.9128
冽	-12.9128
琰	-12.9128
揆	-12.9156
楝	-12.9175
泷	-12.9176
喹	-12.9204
矽	-12.9204
巖	-12.9223
ο	-12.9223
呋	-12.9233
瘢	-12.9271
飒	-12.929
礴	-12.929
挞	-12.929
胱	-12.929
阕	-12.9309
绎	-12.9316
荻	-12.9328
そ	-12.9328
砭	-12.9328
涣	-12.9338
矸	-12.9348
峋	-12.9357
庑	-12.9366
浠	-12.9385
诒	-12.9386
疥	-12.9386
袤	-12.9395
袒	-12.9395
喔	-12.9396
莪	-12.9425
汰	-12.9454
淙	-12.9464
卅	-12.9482
叨	-12.9493
唢	-12.9493
鸪	-12.9502
倔	-12.9503
窠	-12.9503
洙	-12.9522
饨	-12.9522
宥	-12.9542
锢	-12.9542
Δ	-12.9551
妩	-12.9561
讫	-12.9581
薮	-12.9581
雹	-12.9591
靛	-12.9601
馄	-12.9601
犍	-12.961
瓠	-12.961
鼬	-12.964
珲	-12.965
孪	-12.965
缇	-12.965
榷	-12.967
丶	-12.967
蜇	-12.969
哟	-12.969
п	-12.9705
溟	-12.972
腴	-12.972
悴	-12.973
琨	-12.973
麋	-12.973
揖	-12.974
ㄋ	-12.975
苻	-12.9751
涞	-12.976
掳	-12.976
嫦	-12.976
鲛	-12.977
傈	-12.978
黟	-12.979
猥	-12.979
嗔	-12.982
镛	-12.982
蚩	-12.9831
哮	-12.9871
拗	-12.9871
迳	-12.9871
ي	-12.9891
鹧	-12.9901
枷	-12.9912
铉	-12.9922
浏	-12.9928
ы	-12.9937
昶	-12.9942
拯	-12.9951
仞	-12.9963
ど	-12.9973
滘	-12.9973
歆	-12.9983
哼	-13.0003
噜	-13.0004
鹘	-13.0004
醪	-13.0004
蓖	-13.0014
骠	-13.0014
昉	-13.0014
徨	-13.0024
珩	-13.0045
醮	-13.0045
驷	-13.0065
ω	-13.0076
鬣	-13.0076
抨	-13.0086
啃	-13.0107
茛	-13.0107
髹	-13.0107
苁	-13.0107
迸	-13.0117
م	-13.0118
烬	-13.0128
忤	-13.0128
稞	-13.0139
拴	-13.0159
簋	-13.017
勰	-13.018
纨	-13.018
蹼	-13.0181
颛	-13.0191
τ	-13.0191
皙	-13.0222
鹳	-13.0222
伫	-13.0232
鞅	-13.0233
饬	-13.0264
础	-13.0271
峄	-13.0275
掰	-13.0275
ョ	-13.0317
卉	-13.0318
骶	-13.0328
谑	-13.0328
ハ	-13.0338
遨	-13.0339
瞭	-13.0349
闇	-13.037
菀	-13.037
羿	-13.0392
咚	-13.0413
炝	-13.0413
В	-13.0413
罡	-13.0435
録	-13.0445
冼	-13.0456
呱	-13.0456
椁	-13.0476
痨	-13.0477
兢	-13.0478
汊	-13.0478
璟	-13.0488
莆	-13.0496
翦	-13.0499
弑	-13.0521
饕	-13.0521
闱	-13.0531
鹗	-13.0542
铍	-13.0542
撼	-13.0559
衄	-13.0575
凰	-13.0607
パ	-13.0619
迢	-13.063
鲀	-13.064
鼐	-13.0641
啰	-13.0641
ず	-13.0651
霏	-13.0663
轲	-13.0696
Ф	-13.0707
	-13.0707
楫	-13.0718
苜	-13.0729
鲢	-13.074
翌	-13.0744
ر	-13.0751
柩	-13.0762
咐	-13.0773
孛	-13.0795
杳	-13.0817
膊	-13.0828
饴	-13.0829
姗	-13.0829
幺	-13.0829
ノ	-13.084
蓿	-13.084
馔	-13.0862
ネ	-13.0862
蚧	-13.0862
圜	-13.0885
琏	-13.0896
秭	-13.0896
幄	-13.0907
锗	-13.0918
蟋	-13.0918
ば	-13.0929
骐	-13.0952
箇	-13.0952
猬	-13.0952
泯	-13.0986
涮	-13.0998
稗	-13.1009
逶	-13.1066
蝽	-13.1089
樾	-13.11
嬴	-13.11
惚	-13.1112
恻	-13.1123
擘	-13.1123
惘	-13.1135
鹦	-13.1146
铋	-13.1147
繇	-13.1181
铌	-13.1193
糅	-13.1204
沣	-13.1204
鸮	-13.1216
氙	-13.1224
揪	-13.1239
吩	-13.125
η	-13.1251
阉	-13.1251
啤	-13.1265
臾	-13.1274
堀	-13.1286
訇	-13.1297
墉	-13.1297
嘘	-13.1297
澍	-13.1321
蛔	-13.1333
х	-13.1335
殃	-13.1344
釐	-13.1344
瞪	-13.1368
甑	-13.1368
鞑	-13.1379
皑	-13.1392
馗	-13.1392
舶	-13.14
缂	-13.1415
岬	-13.1415
聿	-13.1427
嘈	-13.1439
鸵	-13.1439
惺	-13.1462
羰	-13.1499
이	-13.1499
吒	-13.151
楸	-13.1522
佯	-13.1522
嵋	-13.1522
囿	-13.1522
啡	-13.1534
咲	-13.1534
饧	-13.1546
鹃	-13.1557
鬻	-13.1618
l	-13.163
溆	-13.1631
咤	-13.1643
厩	-13.1643
傥	-13.1655
剽	-13.1667
疎	-13.1667
淦	-13.1667
稜	-13.1703
锶	-13.1715
埚	-13.1728
豕	-13.1752
ς	-13.1753
胳	-13.1764
Б	-13.1766
箩	-13.1777
ν	-13.1789
郴	-13.1802
槭	-13.1802
轸	-13.1813
囧	-13.1814
雒	-13.1814
邾	-13.1838
圳	-13.1847
姣	-13.1863
鲲	-13.1863
嚏	-13.1875
氡	-13.1876
®	-13.1887
潟	-13.1901
掾	-13.1912
セ	-13.1925
萜	-13.1925
Р	-13.1926
痫	-13.1938
幂	-13.1938
猖	-13.195
蓑	-13.195
肫	-13.1962
鳜	-13.1963
峯	-13.1963
囤	-13.1975
趴	-13.1987
绀	-13.1988
з	-13.1992
坩	-13.2
钹	-13.2001
氛	-13.2005
帙	-13.2013
蜍	-13.2013
柬	-13.2013
━	-13.2025
檩	-13.2025
筮	-13.2025
茔	-13.2038
彊	-13.2038
斫	-13.2051
旻	-13.2114
锲	-13.2114
蟑	-13.2114
螈	-13.2126
灏	-13.214
婕	-13.2152
ι	-13.2165
窿	-13.2178
ن	-13.219
逋	-13.2203
裟	-13.2203
龋	-13.2203
啬	-13.2216
硐	-13.2241
祟	-13.2242
瘰	-13.2242
瞩	-13.2255
骧	-13.2281
椭	-13.2297
钽	-13.2319
锷	-13.2332
篁	-13.2332
谄	-13.2345
谌	-13.2371
菅	-13.2384
趺	-13.2397
邡	-13.2397
疚	-13.2397
鸱	-13.2398
ァ	-13.241
喆	-13.241
辋	-13.2427
蟀	-13.2436
獐	-13.2437
砻	-13.2449
谲	-13.245
蚬	-13.245
餮	-13.245
▲	-13.2462
阇	-13.2462
诋	-13.2463
鲟	-13.2463
ワ	-13.2463
汩	-13.2476
芗	-13.2503
憔	-13.2515
咙	-13.2515
蜃	-13.2515
醌	-13.2529
鬟	-13.2529
匈	-13.2555
钕	-13.2555
盥	-13.2555
愫	-13.2569
篦	-13.2582
و	-13.2608
寳	-13.2622
娆	-13.2622
臊	-13.2622
埼	-13.2635
仡	-13.2649
阗	-13.2649
杲	-13.2649
颢	-13.2649
禛	-13.2662
肼	-13.2662
袈	-13.2662
顼	-13.2688
怖	-13.2702
牀	-13.2702
渤	-13.2714
耘	-13.2715
悌	-13.2716
糍	-13.2729
惆	-13.2743
痂	-13.2743
纥	-13.2743
偎	-13.2756
碓	-13.277
咧	-13.2783
袱	-13.2797
娣	-13.2797
赓	-13.2797
蚪	-13.2797
邝	-13.2797
钏	-13.2811
霰	-13.2811
岌	-13.2824
箧	-13.2824
蝌	-13.2852
鄄	-13.2879
楮	-13.2879
搔	-13.2892
铳	-13.2893
窈	-13.2893
戦	-13.2906
瘁	-13.2906
罘	-13.2933
偁	-13.2947
ツ	-13.2948
ㄑ	-13.2961
洄	-13.2961
掣	-13.2961
熵	-13.2962
珙	-13.2962
猕	-13.2989
麼	-13.2989
↓	-13.2989
咆	-13.299
珉	-13.3003
闳	-13.3003
ゅ	-13.3003
瑄	-13.3003
豺	-13.3016
镞	-13.3016
乓	-13.3017
ほ	-13.3017
谘	-13.3031
蛱	-13.3031
膑	-13.3044
÷	-13.3044
k	-13.3045
篝	-13.3059
垸	-13.3059
胛	-13.3059
缈	-13.3087
懵	-13.31
蛏	-13.3101
圮	-13.3115
笆	-13.3115
徭	-13.3115
崴	-13.3128
谔	-13.3129
A	-13.3129
崆	-13.3156
〞	-13.3156
杓	-13.3157
槿	-13.317
蒌	-13.3171
诔	-13.3171
蕈	-13.3171
瘴	-13.3185
竣	-13.3191
鼹	-13.3214
跛	-13.3241
莜	-13.3242
箸	-13.3256
琬	-13.3256
膦	-13.327
焱	-13.327
罄	-13.327
厣	-13.3299
枸	-13.3313
瞄	-13.3321
o	-13.3328
僭	-13.3328
缄	-13.3342
氵	-13.3342
疬	-13.3342
侥	-13.3356
辔	-13.3356
颔	-13.3357
邗	-13.337
徉	-13.3414
闿	-13.3414
鲵	-13.3443
Н	-13.3457
ふ	-13.3472
僮	-13.3486
柒	-13.3486
髂	-13.3501
鹟	-13.3501
ね	-13.3516
诩	-13.3516
穰	-13.3516
И	-13.3531
忡	-13.3545
眨	-13.3559
珏	-13.356
牺	-13.3603
榉	-13.3604
镊	-13.3604
玳	-13.3618
唆	-13.3618
挈	-13.3619
棂	-13.3619
璃	-13.3633
n	-13.3633
抟	-13.3647
狎	-13.3662
篓	-13.3663
茌	-13.3663
偻	-13.3663
赊	-13.3678
亵	-13.3692
茯	-13.3692
蛉	-13.3707
摭	-13.3722
暄	-13.3722
癞	-13.3722
嵴	-13.3722
粿	-13.3737
獠	-13.3737
颧	-13.3752
吮	-13.3767
嶷	-13.3782
眇	-13.3797
倜	-13.3797
鬭	-13.3797
牯	-13.3797
褂	-13.3827
魇	-13.3827
慵	-13.3827
膻	-13.3842
谆	-13.3842
徜	-13.3842
恙	-13.3842
鸫	-13.3858
阊	-13.3872
鹬	-13.3873
ケ	-13.3887
怆	-13.3887
濞	-13.3888
辂	-13.3903
鲇	-13.3933
橐	-13.3948
滹	-13.3949
诽	-13.3963
←	-13.3964
璠	-13.3964
纭	-13.3979
渑	-13.3994
蛳	-13.3994
ゴ	-13.401
ب	-13.401
瑚	-13.401
О	-13.4025
秣	-13.4025
胯	-13.404
仝	-13.4056
谀	-13.4056
剡	-13.4056
潴	-13.4071
濬	-13.4071
吲	-13.4072
垟	-13.4087
椹	-13.4102
镕	-13.4102
恸	-13.4118
婀	-13.4118
沢	-13.4118
靼	-13.4133
恂	-13.4133
袄	-13.4133
Т	-13.4134
眦	-13.4149
鹞	-13.4149
霾	-13.4164
葭	-13.418
瑁	-13.418
郗	-13.418
奁	-13.418
缫	-13.4195
舛	-13.4195
蓥	-13.4196
ゃ	-13.4227
飚	-13.4243
墀	-13.4258
孑	-13.4259
磴	-13.4259
绾	-13.4259
殓	-13.4274
裆	-13.4322
珑	-13.4322
俳	-13.4322
哚	-13.4338
蒺	-13.4353
Д	-13.4353
翕	-13.4369
撬	-13.4385
氐	-13.4401
浄	-13.4417
燹	-13.4433
箬	-13.4465
芊	-13.4465
د	-13.4481
ぎ	-13.4529
啖	-13.453
娼	-13.453
砦	-13.4545
惇	-13.4546
惋	-13.4546
隗	-13.4562
挹	-13.4578
ф	-13.458
佶	-13.461
蛆	-13.4627
漉	-13.4676
炷	-13.4693
煊	-13.4707
濛	-13.4709
栝	-13.4709
蹙	-13.4709
赅	-13.4725
咄	-13.4726
琇	-13.4726
狈	-13.4742
蹠	-13.4743
谶	-13.4758
喋	-13.4758
刈	-13.4759
棹	-13.4759
腧	-13.4775
噎	-13.4791
ボ	-13.4825
箓	-13.4825
柠	-13.4825
旃	-13.4826
む	-13.4841
窕	-13.4842
赀	-13.4858
襞	-13.4858
蹶	-13.4858
耄	-13.4908
捌	-13.4909
ヴ	-13.4925
婶	-13.4925
碁	-13.4925
塍	-13.4942
湫	-13.4942
诤	-13.4959
Г	-13.4976
郸	-13.4976
锹	-13.4976
硖	-13.4976
↑	-13.4976
咔	-13.4992
蚶	-13.4992
滂	-13.4993
觊	-13.501
弭	-13.501
ザ	-13.501
馋	-13.501
珥	-13.5027
辘	-13.506
婵	-13.506
謇	-13.5061
笞	-13.5061
杈	-13.5077
蒽	-13.5078
纡	-13.5095
摈	-13.5095
啪	-13.5095
ソ	-13.5112
鳔	-13.5112
谠	-13.5129
爨	-13.5146
麂	-13.5147
帜	-13.518
崛	-13.519
徂	-13.5198
摺	-13.5198
S	-13.5215
倮	-13.5216
谩	-13.5216
琥	-13.525
眯	-13.5267
铡	-13.5285
渌	-13.5302
胍	-13.5302
椴	-13.5303
蝮	-13.5319
邙	-13.532
酢	-13.5337
酗	-13.5354
搂	-13.5355
嗳	-13.5355
喵	-13.5355
橼	-13.5372
掬	-13.5372
攫	-13.5372
砜	-13.5373
咋	-13.539
朓	-13.539
欤	-13.5407
狞	-13.5425
隰	-13.5425
乂	-13.5443
牖	-13.5443
泱	-13.5461
蛸	-13.5461
呃	-13.5461
菽	-13.5461
蕤	-13.5461
鹀	-13.5461
晷	-13.5479
槁	-13.5496
萋	-13.5515
黠	-13.5532
嵯	-13.555
蚴	-13.555
ぶ	-13.5568
俦	-13.5568
俶	-13.5568
阚	-13.5604
愆	-13.5604
觑	-13.5622
螽	-13.5622
庖	-13.564
√	-13.5658
ぐ	-13.5658
淝	-13.5658
辎	-13.5676
κ	-13.5676
曷	-13.5694
缟	-13.5694
畹	-13.5712
蹴	-13.5731
ц	-13.5732
鸳	-13.5749
跏	-13.5766
ψ	-13.5767
宓	-13.5767
纾	-13.5785
殚	-13.5785
栲	-13.5804
唔	-13.5823
嬗	-13.5841
郤	-13.5841
ベ	-13.5859
酞	-13.5859
妲	-13.5896
黝	-13.5896
瘕	-13.5897
篙	-13.5933
讪	-13.5933
铄	-13.5933
睽	-13.5952
眈	-13.5952
夼	-13.5952
缶	-13.597
鲳	-13.5971
彧	-13.5971
缯	-13.5989
C	-13.6025
郏	-13.6027
肮	-13.6046
圹	-13.6064
琯	-13.6064
衾	-13.6083
榧	-13.6083
璎	-13.6102
吱	-13.6102
艽	-13.6121
桷	-13.6121
拄	-13.6139
ヒ	-13.614
鲅	-13.614
磡	-13.614
ご	-13.6159
栱	-13.6159
橇	-13.6178
泔	-13.6197
剞	-13.6197
蘅	-13.6197
莨	-13.6197
姒	-13.6197
髁	-13.6216
铙	-13.6216
瑗	-13.6235
馁	-13.6254
跸	-13.6254
垓	-13.6254
姝	-13.6254
鼾	-13.6312
缰	-13.6331
竦	-13.6331
橹	-13.6351
蜱	-13.6389
嗨	-13.6409
钍	-13.6409
苌	-13.641
裾	-13.641
颡	-13.6449
哒	-13.6468
浯	-13.6468
啾	-13.6469
P	-13.6487
伉	-13.6487
豢	-13.6488
蹑	-13.6488
勖	-13.6488
殒	-13.6507
缛	-13.6508
镓	-13.6508
杼	-13.6526
酊	-13.6527
黒	-13.6547
顗	-13.6567
ヤ	-13.6587
葳	-13.6587
屐	-13.6587
玥	-13.6607
璘	-13.6607
饽	-13.6607
胴	-13.6607
轼	-13.6624
堍	-13.6627
蜷	-13.6627
鲮	-13.6646
嚷	-13.6646
尻	-13.6646
旄	-13.6667
硚	-13.6686
虺	-13.6687
椤	-13.6687
蒯	-13.6706
翥	-13.6707
掸	-13.6726
卍	-13.6726
ة	-13.6727
郾	-13.6727
ピ	-13.6746
恚	-13.6746
醍	-13.6747
匏	-13.6747
缬	-13.6747
嘹	-13.6747
垤	-13.6787
囯	-13.6787
徼	-13.6807
O	-13.6808
缗	-13.6827
诜	-13.6828
舔	-13.6848
蠲	-13.6849
唧	-13.6868
鹜	-13.6868
疠	-13.6869
竜	-13.6889
佝	-13.6889
捅	-13.6909
瞽	-13.6909
胗	-13.691
翚	-13.691
铗	-13.6931
芨	-13.6951
蜢	-13.6971
骜	-13.6971
鄯	-13.6971
籀	-13.6992
艹	-13.6992
佺	-13.6992
笄	-13.6992
坭	-13.6992
溱	-13.6993
裏	-13.7012
蚱	-13.7013
懊	-13.7033
扪	-13.7033
縻	-13.7033
呗	-13.7054
漈	-13.7054
胨	-13.7055
楯	-13.7075
潋	-13.7096
镳	-13.7096
襦	-13.7117
枧	-13.7117
铑	-13.7138
菰	-13.7159
県	-13.7159
鹩	-13.7179
徧	-13.718
滏	-13.718
啜	-13.7201
蹂	-13.7201
巯	-13.7201
樗	-13.7222
藐	-13.7222
氲	-13.7222
า	-13.7222
埙	-13.7243
欹	-13.7243
蓣	-13.7264
抠	-13.7265
闼	-13.7286
晗	-13.7286
蓍	-13.7286
缁	-13.7307
婧	-13.7307
噢	-13.7307
莼	-13.7307
嗡	-13.7307
瑀	-13.7308
铤	-13.7328
ギ	-13.7328
愣	-13.7349
ㄦ	-13.735
铧	-13.735
貉	-13.735
鲎	-13.735
愕	-13.7372
獗	-13.7414
戗	-13.7414
瞑	-13.7436
ш	-13.7441
曩	-13.7457
枨	-13.7458
阂	-13.7479
桠	-13.7479
憋	-13.7501
蓦	-13.7501
琚	-13.7501
嵬	-13.7523
呻	-13.7523
遑	-13.7544
崽	-13.7566
苈	-13.7566
妫	-13.7567
邠	-13.7588
ォ	-13.7588
̇	-13.7588
戢	-13.7589
س	-13.7589
铱	-13.7589
怙	-13.761
铟	-13.7611
鹂	-13.7632
怔	-13.7632
ポ	-13.7632
墒	-13.7633
瞥	-13.7633
F	-13.7655
訾	-13.7677
戡	-13.7677
泞	-13.7677
ร	-13.7677
韫	-13.7699
豸	-13.7699
砝	-13.7699
郜	-13.7699
糸	-13.7721
刎	-13.7721
堃	-13.7743
鳟	-13.7744
笳	-13.7744
蹿	-13.7765
衽	-13.7766
唉	-13.7766
Л	-13.7766
獾	-13.7788
∈	-13.7788
蹭	-13.781
螫	-13.7811
樨	-13.7811
呷	-13.7811
赝	-13.7833
叽	-13.7833
蝈	-13.7833
栩	-13.7833
忝	-13.7855
嗯	-13.7855
祢	-13.7855
孳	-13.7855
茼	-13.7856
菔	-13.7878
邰	-13.7878
呛	-13.7878
溉	-13.79
Đ	-13.79
晞	-13.7901
卟	-13.7901
菘	-13.7923
纔	-13.7923
锟	-13.7924
げ	-13.7946
旸	-13.7946
鏊	-13.7968
D	-13.7969
垴	-13.7969
螅	-13.797
恁	-13.7991
び	-13.8014
盦	-13.8015
鳢	-13.806
昴	-13.8084
i	-13.8084
泺	-13.8129
汜	-13.8131
ж	-13.8132
浃	-13.8153
锛	-13.8153
沤	-13.8176
怛	-13.8176
啧	-13.8176
舸	-13.8176
铯	-13.8199
睨	-13.8199
滗	-13.82
搀	-13.8223
櫆	-13.8246
胝	-13.8269
へ	-13.8269
衲	-13.8269
峁	-13.827
槲	-13.8293
噤	-13.8293
徳	-13.8293
豳	-13.8317
菴	-13.8317
妪	-13.8317
鏖	-13.8341
蛄	-13.8341
醐	-13.8364
寤	-13.8364
嬷	-13.8388
詈	-13.8412
孀	-13.8412
磻	-13.8412
麴	-13.8412
骛	-13.8412
薤	-13.8436
觎	-13.8436
妤	-13.8436
肟	-13.8436
蔸	-13.8437
蕻	-13.846
荜	-13.846
绡	-13.846
禳	-13.8484
ع	-13.8532
ɡ	-13.8532
鼩	-13.8533
莠	-13.8556
雎	-13.8556
嚎	-13.8578
瘪	-13.8604
碲	-13.8605
蔫	-13.8653
〜	-13.8653
茆	-13.8677
姫	-13.8678
诧	-13.8678
蹋	-13.8678
桫	-13.8678
帏	-13.8702
蝼	-13.8702
鲂	-13.8702
瓘	-13.8702
ざ	-13.8702
腆	-13.8702
璨	-13.8726
駅	-13.8727
鄣	-13.8727
洹	-13.8727
枥	-13.8751
鹈	-13.8751
笥	-13.8751
葫	-13.8776
抡	-13.8776
¢	-13.88
骖	-13.8801
鲩	-13.8801
玠	-13.8801
钇	-13.8802
鹪	-13.8823
镫	-13.8824
鷟	-13.8825
迨	-13.8825
躇	-13.8825
蜉	-13.8826
鸨	-13.8826
绂	-13.885
倏	-13.885
燔	-13.885
璩	-13.885
鳐	-13.885
蹉	-13.8875
霎	-13.8875
玷	-13.8876
驽	-13.89
鞫	-13.8901
衿	-13.8925
莳	-13.8925
滟	-13.8925
悫	-13.8925
仃	-13.895
阱	-13.895
虻	-13.8975
砣	-13.8976
鲠	-13.8976
鲭	-13.9001
诳	-13.9001
氤	-13.9001
爿	-13.9002
躏	-13.9026
挎	-13.9077
碴	-13.9077
犒	-13.9077
拏	-13.9102
拚	-13.9103
镦	-13.9103
翮	-13.9128
麽	-13.9128
垡	-13.9153
黼	-13.9154
拎	-13.9154
绉	-13.9154
诟	-13.9154
a	-13.9154
珣	-13.9179
瓿	-13.9179
趸	-13.918
阏	-13.918
螵	-13.9205
唠	-13.9206
缦	-13.9206
踌	-13.9231
揩	-13.9257
狰	-13.9257
菏	-13.9282
卣	-13.9283
圉	-13.9309
锴	-13.9309
捂	-13.9334
ゲ	-13.9335
∞	-13.9335
颦	-13.9335
覩	-13.9335
铈	-13.9336
溲	-13.9361
ユ	-13.9361
駰	-13.9361
浐	-13.9388
υ	-13.9388
B	-13.9414
卮	-13.9414
啭	-13.9415
瘗	-13.944
蝾	-13.944
嫖	-13.944
叼	-13.944
沩	-13.944
谵	-13.944
도	-13.9441
ح	-13.9467
蒗	-13.9493
嬛	-13.9519
埗	-13.952
呦	-13.952
噫	-13.9546
赧	-13.9546
侪	-13.9547
熘	-13.9547
媪	-13.9573
鹛	-13.9574
柰	-13.9599
狒	-13.96
蜒	-13.96
雩	-13.9627
屦	-13.9627
浍	-13.9627
叻	-13.9627
閤	-13.9627
觥	-13.9627
焓	-13.9628
唬	-13.9654
鲱	-13.9654
N	-13.9654
鼋	-13.9681
髌	-13.9707
寞	-13.9708
罍	-13.9708
唛	-13.9708
隈	-13.9735
昺	-13.9735
아	-13.9737
◇	-13.9761
喳	-13.9762
べ	-13.979
霈	-13.979
靥	-13.9818
지	-13.9819
颙	-13.9845
┇	-13.9872
嗦	-13.9872
凼	-13.9872
驺	-13.9872
氘	-13.9874
垱	-13.99
荏	-13.99
仫	-13.9927
臬	-13.9927
帑	-13.9928
น	-13.9928
洺	-13.9928
趵	-13.9928
窨	-13.9955
鰕	-13.9955
戸	-13.9983
魟	-13.9983
嗤	-13.9983
拊	-14.0011
鳊	-14.0011
〝	-14.0039
奭	-14.0039
祎	-14.0067
玟	-14.0068
鸬	-14.0068
蝰	-14.0095
荑	-14.0096
葑	-14.0096
犄	-14.0123
苫	-14.0123
洌	-14.0124
郛	-14.0124
赍	-14.0124
鸰	-14.0151
鋬	-14.0152
叭	-14.018
暝	-14.018
대	-14.0181
绔	-14.0181
耨	-14.0208
垵	-14.0208
镝	-14.0208
絜	-14.0209
扃	-14.0209
捎	-14.0209
殄	-14.0209
懑	-14.0209
筌	-14.0237
缵	-14.0238
堌	-14.0295
郄	-14.0295
亓	-14.0323
逄	-14.0324
蘇	-14.0324
嗒	-14.0352
誊	-14.0353
嬅	-14.0353
秕	-14.0353
铊	-14.0381
遯	-14.0381
聒	-14.0382
骢	-14.0382
薷	-14.0382
髀	-14.041
倞	-14.0411
菡	-14.0411
骺	-14.0411
糗	-14.044
镒	-14.044
洎	-14.0469
耋	-14.0469
砒	-14.0469
遘	-14.0498
h	-14.0498
悱	-14.0498
∕	-14.0498
缍	-14.0498
鮨	-14.0498
唏	-14.0498
鹚	-14.0499
怂	-14.0499
屌	-14.0528
晌	-14.0528
佻	-14.0528
萆	-14.0528
嗷	-14.0528
诹	-14.0528
贶	-14.0557
穑	-14.0557
淛	-14.0557
吆	-14.0557
ت	-14.0557
抃	-14.0558
哙	-14.0558
喽	-14.0586
竑	-14.0586
寔	-14.0586
寃	-14.0587
∠	-14.0587
埤	-14.0587
髭	-14.0616
妣	-14.0646
荦	-14.0646
̊	-14.0646
讎	-14.0646
噱	-14.0646
籴	-14.0646
麈	-14.0647
槊	-14.0647
儁	-14.0676
埵	-14.0706
黻	-14.0706
鳙	-14.0706
牝	-14.0706
毽	-14.0706
孱	-14.0706
膂	-14.0706
淠	-14.0735
黉	-14.0735
囗	-14.0736
砰	-14.0736
鲽	-14.0736
痱	-14.0736
한	-14.0737
骝	-14.0766
沆	-14.0766
噌	-14.0766
阃	-14.0766
嘀	-14.0767
陔	-14.0795
瀬	-14.0796
−	-14.0796
涑	-14.0796
廨	-14.0797
侑	-14.0826
滢	-14.0826
芈	-14.0827
耜	-14.0827
钲	-14.0857
湜	-14.0857
炅	-14.0857
悭	-14.0886
逖	-14.0887
匍	-14.0888
亻	-14.0888
讵	-14.0918
雠	-14.0918
碶	-14.0918
捋	-14.0948
陬	-14.0949
筲	-14.0949
轫	-14.0949
≠	-14.0979
鳉	-14.0979
瞠	-14.098
榖	-14.101
埝	-14.1011
碇	-14.1011
罴	-14.1011
跺	-14.1072
廝	-14.1072
燊	-14.1073
躅	-14.1073
│	-14.1073
鲆	-14.1103
袴	-14.1103
ホ	-14.1103
樯	-14.1104
어	-14.1105
鹡	-14.1134
唁	-14.1135
甪	-14.1135
砬	-14.1135
나	-14.1136
▪	-14.1166
柽	-14.1166
ˉ	-14.1198
襁	-14.1198
钚	-14.1198
裒	-14.1229
蘧	-14.1229
桎	-14.1229
粧	-14.1229
岢	-14.1229
髡	-14.1229
笕	-14.123
埒	-14.123
脍	-14.126
蝥	-14.1261
妊	-14.1292
鼯	-14.1293
고	-14.1293
锏	-14.1293
Х	-14.1293
亶	-14.1325
褓	-14.1325
蓇	-14.1325
埇	-14.1356
簟	-14.1356
凪	-14.1356
煇	-14.1356
艏	-14.1356
倬	-14.1357
堞	-14.1389
惦	-14.142
ư	-14.1421
사	-14.1421
葖	-14.1421
鬯	-14.1452
L	-14.1453
玕	-14.1453
喟	-14.1485
炱	-14.1486
癔	-14.1518
蓊	-14.1518
喾	-14.155
洸	-14.155
∮	-14.155
藨	-14.1583
愔	-14.1583
逦	-14.1615
焜	-14.1615
颀	-14.1616
ペ	-14.1616
廛	-14.1616
珅	-14.1616
∑	-14.1648
踹	-14.1648
菪	-14.1648
郇	-14.1648
肓	-14.1649
烝	-14.1649
毘	-14.1649
绌	-14.1681
貘	-14.1682
偓	-14.1682
蚵	-14.1682
赜	-14.1714
慝	-14.1715
岿	-14.1748
蠖	-14.1748
가	-14.1749
粜	-14.1781
怏	-14.1782
э	-14.179
洧	-14.1815
賸	-14.1815
u	-14.1815
啻	-14.1815
і	-14.1815
珺	-14.1815
劼	-14.1815
酆	-14.1815
G	-14.1847
김	-14.1848
畋	-14.1849
鸻	-14.1849
恿	-14.1849
劵	-14.1849
睬	-14.1881
ぼ	-14.1882
訄	-14.1882
旒	-14.1882
苒	-14.1882
崤	-14.1882
炁	-14.1883
梏	-14.1916
缣	-14.1916
跣	-14.1916
凇	-14.1916
姹	-14.195
袪	-14.195
嘏	-14.195
咩	-14.1984
氚	-14.1984
ั	-14.1984
檬	-14.1984
趼	-14.2017
跚	-14.2018
翡	-14.2052
痼	-14.2052
镧	-14.2052
聃	-14.2052
沏	-14.2052
诮	-14.2052
อ	-14.2052
吭	-14.2052
苾	-14.2084
跎	-14.2086
逍	-14.2086
정	-14.2087
鳏	-14.2121
磙	-14.2121
筚	-14.2121
銎	-14.2121
ی	-14.2156
棻	-14.2156
棨	-14.2156
覈	-14.2156
聩	-14.2156
鍊	-14.219
偌	-14.219
畑	-14.219
哽	-14.219
龊	-14.219
‖	-14.219
狍	-14.219
炆	-14.2191
铐	-14.2225
臃	-14.2225
刽	-14.2259
鲡	-14.226
湎	-14.226
澶	-14.2261
缑	-14.2295
竽	-14.2296
讦	-14.233
梿	-14.233
鞮	-14.2331
다	-14.2331
褫	-14.2331
箅	-14.2366
毬	-14.2366
泐	-14.2401
粄	-14.2401
磔	-14.2401
讧	-14.2401
郃	-14.2401
楽	-14.2436
厍	-14.2436
彘	-14.2437
桴	-14.2437
捭	-14.2437
氾	-14.2472
狷	-14.2472
々	-14.2472
ệ	-14.2473
逯	-14.2473
箜	-14.2508
闩	-14.2508
倨	-14.2508
ί	-14.2509
弇	-14.2509
弢	-14.2509
邴	-14.2509
浈	-14.2509
瓌	-14.2542
怿	-14.2544
腼	-14.2544
恵	-14.258
咿	-14.258
帔	-14.258
埽	-14.2583
伝	-14.2616
ゼ	-14.2616
ف	-14.2617
e	-14.2617
篌	-14.2652
彖	-14.2653
叡	-14.2653
鄜	-14.2654
胼	-14.2689
畊	-14.2689
鲔	-14.2689
硇	-14.269
醅	-14.269
罅	-14.269
瑭	-14.269
桕	-14.2726
椋	-14.2727
瑷	-14.2762
腠	-14.2762
匐	-14.2763
蔷	-14.2763
齎	-14.2763
龌	-14.2763
菩	-14.2797
溷	-14.2799
愠	-14.2799
喫	-14.28
铖	-14.28
戬	-14.28
睇	-14.28
鸶	-14.28
ö	-14.2801
骘	-14.2834
墘	-14.2837
瓴	-14.2837
哏	-14.2837
嘤	-14.2873
媾	-14.2874
榘	-14.2874
涔	-14.2874
리	-14.2874
芟	-14.2874
조	-14.2875
缃	-14.2911
鸩	-14.2911
桄	-14.2912
嵛	-14.2912
栌	-14.2949
づ	-14.2949
의	-14.2949
盉	-14.295
儆	-14.2986
夤	-14.2986
揍	-14.2986
蒾	-14.2986
鹎	-14.2987
堠	-14.2987
ł	-14.3024
倌	-14.3025
夥	-14.3025
帻	-14.3061
跄	-14.3062
嶝	-14.3062
艿	-14.3062
蓁	-14.3062
崞	-14.3062
疴	-14.31
瞌	-14.31
荛	-14.31
剜	-14.31
杪	-14.31
诨	-14.31
岜	-14.31
鳚	-14.3138
籥	-14.3138
禊	-14.3138
蹒	-14.3138
绗	-14.3139
蒐	-14.3139
睥	-14.3176
疋	-14.3177
R	-14.3215
犭	-14.3216
啫	-14.3253
E	-14.3253
撅	-14.3292
♂	-14.3292
̈	-14.3292
袢	-14.3292
糁	-14.3293
惴	-14.3331
喑	-14.3331
耷	-14.3331
ю	-14.3348
巉	-14.3369
鸲	-14.337
煖	-14.337
黥	-14.337
芘	-14.337
驩	-14.337
觇	-14.3409
郅	-14.3409
萁	-14.341
시	-14.341
缤	-14.3447
罽	-14.3448
氖	-14.3448
泚	-14.3448
搦	-14.3449
赟	-14.3449
辻	-14.3449
鵟	-14.345
襃	-14.3488
巻	-14.3488
桯	-14.3488
犸	-14.3488
刳	-14.3488
洩	-14.3489
醺	-14.3527
ม	-14.3528
圯	-14.3528
気	-14.3567
慙	-14.3568
愦	-14.3568
圄	-14.3568
罟	-14.3568
菝	-14.3568
镏	-14.3608
酃	-14.3609
匜	-14.3648
Σ	-14.3648
하	-14.3649
烊	-14.3688
皲	-14.3688
甓	-14.3689
胙	-14.3689
哔	-14.3728
脿	-14.3729
เ	-14.3729
戕	-14.3729
牂	-14.3769
ه	-14.377
馑	-14.377
氹	-14.377
葚	-14.381
鲻	-14.381
蛐	-14.381
摅	-14.3811
翫	-14.3811
醯	-14.3811
Е	-14.3812
実	-14.3851
〃	-14.3851
褊	-14.3851
≦	-14.3851
舐	-14.3851
У	-14.3852
赁	-14.3892
猇	-14.3892
囡	-14.3892
绺	-14.3892
甗	-14.3892
棰	-14.3893
秫	-14.3893
屺	-14.3893
ย	-14.3893
玦	-14.3893
暐	-14.3934
蚺	-14.3934
璀	-14.3934
蝣	-14.3934
舄	-14.3934
萩	-14.3934
ヨ	-14.3975
ก	-14.3975
黩	-14.4016
効	-14.4017
娉	-14.4017
泫	-14.4017
χ	-14.4017
铷	-14.4057
纍	-14.4058
笪	-14.4059
朊	-14.4059
楩	-14.41
♀	-14.4101
蔹	-14.4101
ج	-14.4101
ش	-14.4101
俣	-14.4101
讣	-14.4102
貔	-14.4102
愎	-14.4142
邋	-14.4143
〓	-14.4143
荩	-14.4143
孖	-14.4143
鳎	-14.4143
蕖	-14.4143
H	-14.4184
谮	-14.4185
緜	-14.4185
盤	-14.4228
镲	-14.4228
璿	-14.4228
埴	-14.4228
瞋	-14.4228
纛	-14.4229
箪	-14.427
漭	-14.4271
茈	-14.4271
성	-14.4271
遛	-14.4271
杌	-14.4271
窅	-14.4271
邶	-14.4313
垆	-14.4314
逡	-14.4314
哕	-14.4314
醢	-14.4314
주	-14.4314
坼	-14.4314
诿	-14.4357
癃	-14.4357
佾	-14.4401
觌	-14.4443
毳	-14.4443
劬	-14.4443
ə	-14.4443
鲃	-14.4443
ё	-14.4444
畀	-14.4444
簕	-14.4487
笮	-14.4487
燿	-14.4487
군	-14.4488
는	-14.4488
怦	-14.4531
垕	-14.4531
葜	-14.4531
黾	-14.4531
薜	-14.4574
盍	-14.4574
≧	-14.4575
珧	-14.4575
蜿	-14.4575
畠	-14.4575
撂	-14.4575
旂	-14.4575
怵	-14.4619
岽	-14.4619
丨	-14.4619
鲣	-14.4619
인	-14.462
橛	-14.462
伋	-14.4663
勅	-14.4663
Α	-14.4664
薢	-14.4664
ά	-14.4664
泅	-14.4664
扆	-14.4664
忐	-14.4708
喈	-14.4708
叵	-14.4708
唳	-14.4708
畚	-14.4708
	-14.4708
嗑	-14.4708
瘵	-14.4708
囹	-14.4709
선	-14.4709
髫	-14.4753
̄	-14.4753
Ο	-14.4753
彀	-14.4797
锜	-14.4798
斝	-14.4798
鹨	-14.4798
揄	-14.4798
酩	-14.4798
刖	-14.4843
忑	-14.4843
仵	-14.4843
З	-14.4843
踯	-14.4844
珽	-14.4844
蛴	-14.4889
畛	-14.4889
桤	-14.4889
飧	-14.4889
t	-14.489
様	-14.4934
発	-14.4934
祔	-14.4934
沚	-14.4935
窣	-14.4935
ق	-14.498
鬘	-14.498
柃	-14.498
蒟	-14.4981
艸	-14.4981
侩	-14.4981
ζ	-14.5026
浉	-14.5026
疒	-14.5026
泖	-14.5026
眄	-14.5027
坌	-14.5027
咛	-14.5027
茕	-14.5073
篠	-14.5073
ı	-14.5073
瘸	-14.5073
鴷	-14.5073
撵	-14.5119
烜	-14.5119
屍	-14.512
轳	-14.5165
関	-14.5165
蹻	-14.5165
牋	-14.5166
ạ	-14.5166
汧	-14.5166
攥	-14.5166
畤	-14.5166
笊	-14.5166
饸	-14.5167
擞	-14.5213
饩	-14.5213
憍	-14.5213
瘥	-14.5213
U	-14.5213
铼	-14.5213
椪	-14.5214
靺	-14.5214
을	-14.5214
遢	-14.526
s	-14.526
茇	-14.5261
忄	-14.5307
蜩	-14.5307
ゾ	-14.5307
幛	-14.5308
潸	-14.5308
捱	-14.5308
荇	-14.5308
鲹	-14.5308
薙	-14.5308
饹	-14.5308
谳	-14.5308
ä	-14.5309
扌	-14.5355
阍	-14.5355
幞	-14.5355
扞	-14.5355
ز	-14.5355
逑	-14.5355
蒹	-14.5355
蠃	-14.5355
서	-14.5355
珐	-14.5402
篑	-14.5403
剣	-14.5403
厓	-14.5403
傒	-14.5403
寘	-14.5403
冏	-14.5403
乜	-14.5451
僰	-14.5451
י	-14.5451
鞨	-14.5452
佉	-14.5498
筼	-14.5499
屣	-14.5499
绻	-14.5499
悒	-14.5499
š	-14.5499
柝	-14.5499
일	-14.55
蝓	-14.55
琵	-14.55
鵙	-14.55
煳	-14.5548
殳	-14.5548
瑠	-14.5548
椟	-14.5549
龢	-14.5596
栃	-14.5597
铫	-14.5597
게	-14.5597
囟	-14.5597
閟	-14.5597
吖	-14.5645
晳	-14.5646
桜	-14.5646
壻	-14.5646
復	-14.5646
坜	-14.5646
국	-14.5646
佼	-14.5646
蒨	-14.5646
兕	-14.5695
蛲	-14.5695
窳	-14.5695
噗	-14.5695
炘	-14.5696
円	-14.5744
缱	-14.5744
説	-14.5745
衞	-14.5745
瞀	-14.5745
矧	-14.5745
団	-14.5745
亹	-14.5745
舾	-14.5745
搴	-14.5793
嬖	-14.5794
鲥	-14.5794
ิ	-14.5795
腘	-14.5795
瀍	-14.5795
咂	-14.5844
礽	-14.5844
镣	-14.5844
∽	-14.5844
민	-14.5844
玢	-14.5844
蒻	-14.5844
禋	-14.5844
기	-14.5844
猊	-14.5844
ό	-14.5845
慊	-14.5893
邽	-14.5894
轵	-14.5894
喏	-14.5895
纮	-14.5895
豊	-14.5895
珰	-14.5895
巿	-14.5895
艉	-14.5895
抿	-14.5944
谰	-14.5945
悛	-14.5945
枰	-14.5945
遹	-14.5945
廻	-14.5945
査	-14.5945
鳇	-14.5946
勗	-14.5996
鴈	-14.5996
瞅	-14.5996
嗝	-14.5996
褛	-14.5996
鲕	-14.5997
赳	-14.6046
崀	-14.6046
勑	-14.6047
侔	-14.6047
馓	-14.6047
塆	-14.6047
ố	-14.6047
俛	-14.6047
翀	-14.6047
鹕	-14.6047
蚨	-14.6047
祧	-14.6097
阝	-14.6098
飏	-14.6098
栒	-14.6098
抻	-14.6098
馐	-14.6098
摁	-14.6098
掂	-14.6099
恫	-14.6099
脷	-14.6099
우	-14.6104
楦	-14.615
내	-14.6151
鉄	-14.6201
ơ	-14.6201
诎	-14.6201
懔	-14.6202
絷	-14.6202
摞	-14.6202
ヘ	-14.6253
酺	-14.6254
骀	-14.6254
溇	-14.6254
俅	-14.6254
埏	-14.6304
堙	-14.6306
対	-14.6306
醣	-14.6306
湓	-14.6306
飕	-14.6358
鸷	-14.6358
鹇	-14.6359
ง	-14.6359
해	-14.6359
蛞	-14.6359
豨	-14.6359
栳	-14.6359
嫘	-14.6359
라	-14.636
貊	-14.6411
踉	-14.6411
炤	-14.6411
梶	-14.6411
鉏	-14.6412
澥	-14.6463
獣	-14.6465
ぬ	-14.6465
辏	-14.6465
鹱	-14.6465
藦	-14.6465
哂	-14.6465
椠	-14.6465
攟	-14.6465
신	-14.6465
祓	-14.6465
孥	-14.6465
滉	-14.6518
郪	-14.6518
锝	-14.6518
髎	-14.6518
伢	-14.6518
燠	-14.6518
睐	-14.6569
筜	-14.6571
隹	-14.6572
峇	-14.6572
檎	-14.6572
ท	-14.6572
镠	-14.6574
酹	-14.6626
觏	-14.6626
斲	-14.6626
ć	-14.6626
栢	-14.6626
噙	-14.6626
r	-14.6626
锔	-14.6626
菑	-14.6626
痍	-14.668
讌	-14.668
柢	-14.668
氪	-14.6681
K	-14.6681
茀	-14.6681
迓	-14.6735
ă	-14.6735
槠	-14.6735
犰	-14.6735
Я	-14.6736
铪	-14.6736
簌	-14.6789
讙	-14.6789
渲	-14.6789
영	-14.679
Π	-14.679
狳	-14.679
수	-14.679
黧	-14.679
蠊	-14.679
獬	-14.679
鲧	-14.6791
眞	-14.6832
钐	-14.6844
囷	-14.6845
鲌	-14.6845
嗲	-14.6845
蜞	-14.6845
嶋	-14.6845
゚	-14.6845
饔	-14.6846
皞	-14.6846
踬	-14.69
氅	-14.69
媵	-14.69
ぞ	-14.6901
鼍	-14.6901
ξ	-14.6956
鲊	-14.6956
魑	-14.6956
酽	-14.6957
	-14.6957
원	-14.6957
笹	-14.6957
茚	-14.6957
은	-14.6959
Ч	-14.6959
钅	-14.7012
褰	-14.7013
菉	-14.7013
呓	-14.7013
溼	-14.7013
縠	-14.7013
瀹	-14.7013
壎	-14.7013
倅	-14.7013
栊	-14.7013
蛩	-14.7013
衩	-14.7013
浞	-14.7014
嗉	-14.7069
脒	-14.7069
溘	-14.7069
纁	-14.7069
颋	-14.707
隳	-14.707
昝	-14.707
貅	-14.707
讬	-14.707
沄	-14.7126
歛	-14.7126
戆	-14.7126
涠	-14.7126
ว	-14.7126
蕺	-14.7126
에	-14.7127
翈	-14.7128
篪	-14.7183
麤	-14.7183
ế	-14.7183
阼	-14.7183
脣	-14.7183
狨	-14.7184
妬	-14.7184
로	-14.7184
棼	-14.724
鸊	-14.7241
燋	-14.7241
魉	-14.7241
蓐	-14.7241
觜	-14.7298
嫚	-14.7298
撝	-14.7298
Ш	-14.7298
螬	-14.7298
磜	-14.7298
擿	-14.7299
埸	-14.7299
捩	-14.7299
魍	-14.7299
纰	-14.7356
薳	-14.7357
ậ	-14.7357
栻	-14.7357
∩	-14.7357
鑪	-14.7357
搆	-14.7357
昃	-14.7357
่	-14.7357
缋	-14.7357
漶	-14.7415
檠	-14.7415
湔	-14.7415
ط	-14.7415
穂	-14.7415
旰	-14.7415
闘	-14.7473
搢	-14.7474
猁	-14.7474
樘	-14.7474
忉	-14.7532
洫	-14.7532
鱇	-14.7533
矍	-14.7533
蔵	-14.7533
摛	-14.7533
č	-14.7533
▼	-14.7533
鮰	-14.7533
ộ	-14.7533
Κ	-14.7533
掼	-14.7533
鮀	-14.7534
諲	-14.7534
钫	-14.7534
甍	-14.7592
ו	-14.7593
钆	-14.7593
ả	-14.7593
犴	-14.7593
보	-14.7593
너	-14.7593
∧	-14.7593
晡	-14.7652
≡	-14.7652
鹮	-14.7652
忖	-14.7652
絵	-14.7652
颃	-14.7652
潆	-14.7653
ส	-14.7653
↘	-14.7653
勣	-14.7653
纻	-14.7713
颺	-14.7713
柊	-14.7713
簠	-14.7713
芑	-14.7713
玎	-14.7713
랑	-14.7713
菠	-14.7768
蜣	-14.7773
歩	-14.7773
遶	-14.7773
愬	-14.7773
豔	-14.7773
悝	-14.7773
鎔	-14.7773
挲	-14.7774
笫	-14.7774
嚓	-14.7833
郞	-14.7834
庹	-14.7834
貍	-14.7834
橄	-14.7837
饫	-14.7895
枹	-14.7895
萄	-14.7896
皁	-14.7896
鹁	-14.7896
眚	-14.7896
甃	-14.7896
鷉	-14.7957
揿	-14.7957
ห	-14.7957
ô	-14.7957
暠	-14.7958
绐	-14.7958
冴	-14.7958
乩	-14.7959
旆	-14.8019
鮟	-14.8019
湉	-14.8019
隣	-14.8019
寖	-14.8019
Ø	-14.802
蚰	-14.802
猞	-14.802
濩	-14.802
慥	-14.8079
広	-14.8081
犟	-14.8082
啁	-14.8082
菓	-14.8082
墻	-14.8082
旮	-14.8145
舁	-14.8145
b	-14.8145
昇	-14.8146
馘	-14.8208
遄	-14.8208
鲐	-14.8208
忪	-14.8208
挢	-14.8208
岞	-14.8208
跂	-14.8208
廕	-14.8208
스	-14.8208
馕	-14.8208
洑	-14.8209
芃	-14.8209
疍	-14.8209
瑱	-14.8271
餘	-14.8272
諡	-14.8272
钌	-14.8272
絺	-14.8272
蕹	-14.8272
蹩	-14.8272
喁	-14.8272
忾	-14.8272
鲋	-14.8273
谡	-14.8336
変	-14.8336
鲚	-14.8336
敍	-14.8336
韪	-14.8336
그	-14.8338
砗	-14.84
紘	-14.84
禘	-14.8401
ễ	-14.8401
鎓	-14.8401
筇	-14.8401
辺	-14.8401
纩	-14.8401
垚	-14.8401
侂	-14.8465
簃	-14.8465
ぽ	-14.8465
棊	-14.8465
翙	-14.8465
舢	-14.8465
瓞	-14.8465
藭	-14.8465
酤	-14.8466
洊	-14.8466
菈	-14.8466
槅	-14.8466
동	-14.8466
籙	-14.8466
齑	-14.8466
蠓	-14.8466
巘	-14.8466
魃	-14.8466
耧	-14.8466
瀼	-14.8531
唵	-14.8531
梣	-14.8531
殛	-14.8531
睺	-14.8533
赙	-14.8596
♦	-14.8596
蚋	-14.8597
悃	-14.8597
澪	-14.8597
痠	-14.8597
梃	-14.8597
馃	-14.8597
ा	-14.8613
肪	-14.8661
咻	-14.8662
紵	-14.8662
癯	-14.8663
伧	-14.8663
硎	-14.8663
ล	-14.8663
轺	-14.8729
塱	-14.8729
歃	-14.8729
檫	-14.873
锇	-14.873
疰	-14.873
안	-14.873
踽	-14.873
榊	-14.8797
躄	-14.8797
绠	-14.8797
殂	-14.8863
∣	-14.8863
霊	-14.8864
滠	-14.8864
穉	-14.8864
蹀	-14.8864
竝	-14.8864
褡	-14.8864
庋	-14.8865
翃	-14.8865
闍	-14.8931
渫	-14.8932
皤	-14.8932
盹	-14.8932
犇	-14.8932
榇	-14.8932
瘖	-14.8933
陴	-14.8933
畎	-14.9
锱	-14.9
脔	-14.9
鹖	-14.9
呪	-14.9001
躔	-14.9001
仮	-14.9001
鹓	-14.9001
橦	-14.9001
踱	-14.9001
睚	-14.9069
臌	-14.9069
麿	-14.9069
丿	-14.9069
僇	-14.9069
歳	-14.907
ş	-14.907
磲	-14.907
櫂	-14.907
燄	-14.907
衎	-14.907
藠	-14.9071
僦	-14.9138
伛	-14.9139
吽	-14.9139
飡	-14.9139
輶	-14.9139
ç	-14.9139
鲞	-14.9139
箝	-14.9139
䓖	-14.9139
구	-14.914
仉	-14.9209
旯	-14.9209
筭	-14.9209
堽	-14.9209
澌	-14.9209
岵	-14.9209
褴	-14.9209
脞	-14.9209
ี	-14.9209
悻	-14.9209
ด	-14.9209
镈	-14.921
상	-14.921
자	-14.921
绲	-14.9279
祲	-14.928
踣	-14.928
έ	-14.928
燐	-14.928
鲴	-14.9281
咭	-14.935
瘅	-14.935
菹	-14.935
ầ	-14.935
偲	-14.9351
倕	-14.9351
俤	-14.9351
ɑ	-14.9351
罾	-14.9351
ゥ	-14.9421
卽	-14.9422
ك	-14.9422
诶	-14.9422
焞	-14.9422
진	-14.9422
鳾	-14.9422
ุ	-14.9422
裥	-14.9422
甯	-14.9491
堉	-14.9493
瘳	-14.9493
钋	-14.9494
晧	-14.9494
้	-14.9494
壸	-14.9494
経	-14.9565
蘼	-14.9566
躭	-14.9566
喦	-14.9566
경	-14.9566
्	-14.9586
咦	-14.9639
懽	-14.9639
酎	-14.9639
砟	-14.9639
璫	-14.9639
譌	-14.9639
眊	-14.9639
铏	-14.9713
媿	-14.9713
莶	-14.9713
廑	-14.9713
暾	-14.9713
樫	-14.9713
胬	-14.9713
釿	-14.9786
褙	-14.9787
خ	-14.9787
撃	-14.986
続	-14.9861
绨	-14.9861
أ	-14.9861
鯙	-14.9861
汭	-14.9861
俬	-14.9862
墬	-14.9862
郿	-14.9862
娈	-14.9936
鼉	-14.9936
蜮	-14.9936
罨	-14.9937
鮈	-14.9937
龕	-14.9937
啕	-14.9937
柁	-14.9937
剐	-14.9937
鞞	-14.9937
餽	-14.9937
殍	-14.9937
卺	-15.0012
伥	-15.0012
舣	-15.0012
W	-15.0012
ˈ	-15.0012
〒	-15.0012
佢	-15.0012
釒	-15.0012
盩	-15.0013
湣	-15.0013
현	-15.0013
嵎	-15.0013
栿	-15.0013
錡	-15.0013
榦	-15.0088
噼	-15.0088
贳	-15.0088
鷙	-15.0089
袷	-15.0089
槻	-15.0089
塅	-15.0089
艋	-15.0089
烺	-15.0089
骓	-15.0089
鹾	-15.0089
劢	-15.0089
跬	-15.0089
요	-15.0089
欷	-15.0165
墁	-15.0165
鄘	-15.0165
亜	-15.0166
왕	-15.0166
祼	-15.0166
骃	-15.0166
簏	-15.0166
曛	-15.0166
锨	-15.0166
宄	-15.0242
嶮	-15.0243
総	-15.0243
钬	-15.0243
鸹	-15.0243
讐	-15.0243
鲼	-15.0243
笤	-15.0243
蜺	-15.0243
d	-15.0243
니	-15.0243
囵	-15.0243
จ	-15.0244
厔	-15.0244
嵒	-15.0244
廆	-15.0245
娌	-15.032
埶	-15.0321
偾	-15.0321
蘩	-15.0321
甿	-15.0321
沴	-15.0321
嘅	-15.0321
莛	-15.0321
礐	-15.0322
岈	-15.0322
濆	-15.0322
鼷	-15.0322
毎	-15.0322
狲	-15.0322
鸸	-15.0322
鼱	-15.0322
⁄	-15.033
跹	-15.0399
芴	-15.0399
ה	-15.04
踮	-15.04
강	-15.04
窊	-15.04
窭	-15.04
마	-15.04
磾	-15.0401
龉	-15.0401
籓	-15.0401
蔟	-15.0479
髑	-15.0479
蕰	-15.0479
猱	-15.0479
紬	-15.0479
鼙	-15.0479
榎	-15.0479
秾	-15.0479
顒	-15.0479
瑒	-15.0479
囍	-15.0479
부	-15.0479
嗖	-15.048
镡	-15.0559
제	-15.0559
羶	-15.0559
苘	-15.056
崐	-15.056
虿	-15.056
朥	-15.0561
钪	-15.0561
र	-15.0573
廒	-15.0635
寀	-15.064
陁	-15.064
暘	-15.064
驤	-15.064
ή	-15.064
ヌ	-15.064
铒	-15.064
爇	-15.064
踔	-15.0641
垞	-15.0641
庥	-15.0641
미	-15.0641
Ц	-15.0648
嫠	-15.072
圬	-15.0721
溍	-15.0721
甏	-15.0721
蓠	-15.0721
卬	-15.0721
鳋	-15.0721
阯	-15.0721
渟	-15.0721
蝨	-15.0722
娠	-15.0722
楙	-15.0723
骼	-15.0801
粝	-15.0802
宀	-15.0803
嵝	-15.0803
鎌	-15.0803
増	-15.0803
锕	-15.0803
箠	-15.0803
讞	-15.0803
砑	-15.0803
丏	-15.0804
鷲	-15.0804
襜	-15.0804
薅	-15.0804
肜	-15.0804
蟥	-15.0804
痃	-15.0804
褔	-15.0885
莩	-15.0885
ñ	-15.0886
粢	-15.0886
呶	-15.0886
舘	-15.0886
暌	-15.0886
劓	-15.0886
晫	-15.0886
산	-15.0886
¤	-15.0886
祆	-15.0886
纚	-15.0886
龃	-15.0886
揶	-15.0887
鹋	-15.0887
玙	-15.0888
觯	-15.0969
澉	-15.0969
Μ	-15.0969
殪	-15.0969
椐	-15.0969
襕	-15.0969
艄	-15.097
妯	-15.1052
苤	-15.1053
咢	-15.1053
柟	-15.1053
만	-15.1053
怳	-15.1053
晬	-15.1053
牁	-15.1053
枵	-15.1053
ぜ	-15.1053
洿	-15.1054
獴	-15.1054
糌	-15.1054
訏	-15.1054
莸	-15.1054
焮	-15.1054
狻	-15.1054
悪	-15.1054
繖	-15.1054
怫	-15.1137
筩	-15.1138
闉	-15.1138
妁	-15.1138
酲	-15.1138
昪	-15.1138
仨	-15.1138
尪	-15.1138
琱	-15.1138
篥	-15.1138
芰	-15.1139
镨	-15.1222
蟌	-15.1223
ś	-15.1223
臞	-15.1223
א	-15.1223
堺	-15.1223
滃	-15.1224
飈	-15.1224
樋	-15.1224
揲	-15.1224
璆	-15.1224
夬	-15.1225
硗	-15.1309
荬	-15.1309
臁	-15.1309
朏	-15.131
巵	-15.131
연	-15.131
綮	-15.131
박	-15.131
翛	-15.131
鹣	-15.131
์	-15.131
檝	-15.131
유	-15.131
학	-15.131
倓	-15.1311
鈇	-15.1396
ى	-15.1397
飇	-15.1397
蜑	-15.1397
茺	-15.1397
พ	-15.1397
ไ	-15.1397
ต	-15.1397
匦	-15.1397
傕	-15.1398
纟	-15.1483
哧	-15.1484
裼	-15.1484
臑	-15.1484
ž	-15.1484
迕	-15.1484
	-15.1484
輈	-15.1484
∙	-15.1484
ช	-15.1485
歴	-15.1485
Ε	-15.1485
踈	-15.1485
囫	-15.1485
湲	-15.1485
璁	-15.1572
剗	-15.1573
淯	-15.1573
阨	-15.1573
鸯	-15.1573
蟳	-15.1573
茑	-15.1573
祊	-15.1573
跼	-15.1573
鱲	-15.1573
鶲	-15.1573
眭	-15.1574
摽	-15.1662
榈	-15.1662
鎗	-15.1662
崟	-15.1662
灊	-15.1662
嗌	-15.1662
餗	-15.1662
铕	-15.1662
鳀	-15.1662
昰	-15.1662
峩	-15.1662
전	-15.1662
锸	-15.1663
镢	-15.1663
鹆	-15.175
欒	-15.1751
嬾	-15.1752
Γ	-15.1752
騃	-15.1752
ヶ	-15.1752
镔	-15.1753
剀	-15.1754
滧	-15.1842
缌	-15.1842
蕡	-15.1842
醲	-15.1843
唷	-15.1843
髴	-15.1843
暱	-15.1843
谖	-15.1843
ค	-15.1843
踟	-15.1843
소	-15.1843
嫱	-15.1843
ύ	-15.1844
舻	-15.1844
湴	-15.1845
诌	-15.1934
蒎	-15.1935
斎	-15.1935
曈	-15.1935
廋	-15.1935
辚	-15.1935
捃	-15.1935
镘	-15.1935
É	-15.1935
韡	-15.1935
刼	-15.1935
Э	-15.1936
鰲	-15.1936
∨	-15.1936
髙	-15.2025
槚	-15.2026
擗	-15.2027
襻	-15.2027
霤	-15.2027
縢	-15.2027
夐	-15.2027
篚	-15.2027
傧	-15.2028
畯	-15.2028
泝	-15.2028
羇	-15.2028
↙	-15.2028
晻	-15.2028
枘	-15.2028
餍	-15.2028
冇	-15.2119
仂	-15.2121
哓	-15.2121
腙	-15.2121
ぷ	-15.2121
擣	-15.2121
轱	-15.2121
飱	-15.2121
鋆	-15.2121
溽	-15.2121
嗄	-15.2121
祏	-15.2122
를	-15.2122
豌	-15.2212
鲘	-15.2215
椀	-15.2215
歊	-15.2215
彳	-15.2215
Ж	-15.2215
郕	-15.2215
x	-15.2215
嗥	-15.2215
萏	-15.2215
绁	-15.2215
焐	-15.2215
絶	-15.2215
倻	-15.2215
화	-15.2215
毖	-15.2215
鏐	-15.2216
â	-15.2216
嶲	-15.2216
鱓	-15.2216
漷	-15.2309
勍	-15.231
聱	-15.231
綝	-15.2311
忭	-15.2311
Θ	-15.2311
บ	-15.2311
Q	-15.2311
瓖	-15.2311
癀	-15.2311
糹	-15.2406
売	-15.2406
絰	-15.2407
ר	-15.2407
∫	-15.2407
鼇	-15.2407
嘭	-15.2407
郐	-15.2407
荘	-15.2407
伾	-15.2407
교	-15.2407
鞬	-15.2408
筴	-15.2503
洣	-15.2503
诓	-15.2503
撄	-15.2503
専	-15.2504
恹	-15.2504
跽	-15.2504
辶	-15.2504
坫	-15.2504
釭	-15.2504
旛	-15.2504
悰	-15.2504
ص	-15.2504
濊	-15.2504
筯	-15.2504
남	-15.2504
鞶	-15.2504
浬	-15.2504
軿	-15.2504
Ю	-15.2601
髣	-15.2602
怼	-15.2602
寛	-15.2602
崦	-15.2602
褭	-15.2602
魈	-15.2602
裢	-15.2602
勔	-15.2602
箦	-15.27
皦	-15.27
岀	-15.27
龠	-15.2701
埜	-15.2701
灋	-15.2701
虓	-15.2701
跆	-15.2701
礅	-15.2701
掴	-15.2701
蝤	-15.2701
崁	-15.2701
棐	-15.2701
筦	-15.2701
収	-15.2701
장	-15.2701
舲	-15.2701
骕	-15.2701
撙	-15.2702
硷	-15.2702
玘	-15.2702
巂	-15.2702
嗬	-15.2702
觿	-15.2702
惛	-15.2798
劒	-15.28
蟊	-15.28
坰	-15.2801
锒	-15.2801
澣	-15.2801
铩	-15.2801
赕	-15.2801
曌	-15.2801
ظ	-15.2801
đ	-15.2801
阌	-15.2801
尅	-15.2801
馊	-15.2801
Β	-15.2801
ị	-15.2801
牤	-15.2801
噍	-15.2801
p	-15.2801
憙	-15.2892
込	-15.2901
鄠	-15.2901
堦	-15.2902
塄	-15.2902
啷	-15.2902
浿	-15.2902
翬	-15.2902
淜	-15.2902
澒	-15.2902
奓	-15.2902
枌	-15.2902
筘	-15.2902
尢	-15.2902
籺	-15.3003
掊	-15.3003
狁	-15.3003
礤	-15.3003
粦	-15.3004
嫫	-15.3004
鵷	-15.3004
雫	-15.3004
孓	-15.3004
谇	-15.3004
珌	-15.3004
為	-15.3004
眵	-15.3004
矬	-15.3004
楤	-15.3004
斾	-15.3004
蓂	-15.3004
甦	-15.3004
천	-15.3004
荭	-15.3007
戽	-15.3106
弨	-15.3107
牻	-15.3107
暍	-15.3107
閈	-15.3107
厖	-15.3107
刓	-15.3107
최	-15.3107
鮓	-15.3107
惣	-15.3107
錞	-15.3107
瀞	-15.3107
呴	-15.3107
敎	-15.3107
䜣	-15.3109
侉	-15.3207
缧	-15.3209
秬	-15.3211
	-15.3211
鄚	-15.3211
纘	-15.3211
胠	-15.3211
翣	-15.3211
杻	-15.3211
儇	-15.3211
蠔	-15.3211
烔	-15.3211
皝	-15.3212
무	-15.3212
오	-15.3212
Λ	-15.3213
瀣	-15.3316
礮	-15.3316
╳	-15.3316
菸	-15.3316
澔	-15.3316
麇	-15.3316
稣	-15.3316
廌	-15.3316
蠧	-15.3316
양	-15.3316
ぱ	-15.3316
ぃ	-15.3317
皐	-15.3317
蹰	-15.3317
铚	-15.3317
Ψ	-15.3317
鄩	-15.3317
嘣	-15.3317
谂	-15.3317
말	-15.3318
瘐	-15.3318
紥	-15.3319
蔴	-15.3421
憺	-15.3421
嫒	-15.3422
詧	-15.3422
倧	-15.3422
哝	-15.3423
揸	-15.3423
舺	-15.3423
稲	-15.3423
幷	-15.3423
噉	-15.3423
蓺	-15.3423
윤	-15.3423
阒	-15.3423
脬	-15.3423
觋	-15.3424
榼	-15.3527
珝	-15.3528
刂	-15.353
転	-15.353
穠	-15.353
棫	-15.353
錂	-15.353
牓	-15.353
刿	-15.353
皃	-15.353
瘼	-15.353
怍	-15.353
琤	-15.353
湑	-15.353
葙	-15.353
咁	-15.353
訢	-15.3531
橚	-15.3531
嫄	-15.3531
頠	-15.3531
毌	-15.3531
隤	-15.3636
栴	-15.3638
瑊	-15.3638
岣	-15.3638
羼	-15.3639
貙	-15.3639
辵	-15.3639
沬	-15.3639
螋	-15.3639
耇	-15.3639
ض	-15.3639
騑	-15.3639
褧	-15.3639
胂	-15.3639
繻	-15.3639
희	-15.3639
礻	-15.3639
満	-15.3639
撺	-15.3639
垧	-15.3639
淏	-15.3639
騄	-15.3639
榱	-15.3639
邅	-15.364
嚚	-15.3748
尜	-15.3748
畧	-15.3749
攽	-15.3749
琍	-15.3749
廙	-15.3749
耈	-15.3749
宬	-15.3749
搌	-15.3749
煣	-15.3749
埌	-15.3749
椇	-15.3749
呲	-15.3749
捽	-15.3749
煚	-15.375
苳	-15.375
鹍	-15.375
搠	-15.375
들	-15.3751
재	-15.3751
щ	-15.3773
雝	-15.3857
狴	-15.3859
屃	-15.3859
児	-15.386
榃	-15.386
脇	-15.386
國	-15.386
犨	-15.386
麄	-15.386
茝	-15.386
酂	-15.386
蹐	-15.386
镪	-15.3861
牾	-15.3861
镆	-15.3861
岕	-15.3861
蒍	-15.3862
繸	-15.3954
垲	-15.3971
頔	-15.3972
熲	-15.3972
鷁	-15.3972
媞	-15.3972
崚	-15.3972
∴	-15.3972
ב	-15.3972
糵	-15.3972
赇	-15.3972
薫	-15.3972
痾	-15.3973
蜾	-15.3973
樛	-15.3973
醑	-15.3973
鞯	-15.3973
潏	-15.3973
惔	-15.3973
려	-15.3973
渖	-15.4076
讠	-15.4081
衤	-15.4085
呸	-15.4086
Χ	-15.4086
郷	-15.4086
钖	-15.4086
穽	-15.4086
祅	-15.4086
骎	-15.4086
蝟	-15.4086
媟	-15.4086
琎	-15.4086
┼	-15.4086
睒	-15.4086
枲	-15.4086
瓛	-15.4086
鋐	-15.4087
་	-15.4199
鬐	-15.42
嘞	-15.4201
釆	-15.4201
ј	-15.4201
姱	-15.4201
ל	-15.4201
饣	-15.4201
勷	-15.4201
痄	-15.4201
Ι	-15.4201
甭	-15.4201
庳	-15.4201
涢	-15.4201
锓	-15.4202
垃	-15.4202
屮	-15.4202
咝	-15.4315
া	-15.4316
蠵	-15.4316
睠	-15.4317
熛	-15.4317
嘢	-15.4317
甡	-15.4317
袵	-15.4317
鼢	-15.4317
霅	-15.4317
浥	-15.4317
磉	-15.4317
喰	-15.4317
呙	-15.4317
敫	-15.4318
碥	-15.4318
踅	-15.4318
蠋	-15.4318
锼	-15.4318
ธ	-15.4318
塩	-15.4318
ि	-15.4345
‚	-15.4431
窬	-15.4433
罥	-15.4434
崿	-15.4434
禔	-15.4434
鬬	-15.4434
鮠	-15.4434
賫	-15.4434
鱵	-15.4435
蟛	-15.4435
髽	-15.4435
►	-15.4435
櫜	-15.4435
齧	-15.4435
荄	-15.4435
ะ	-15.4435
猢	-15.4435
玡	-15.4435
鮄	-15.4436
祫	-15.4437
犂	-15.4551
鞾	-15.4554
斵	-15.4554
糺	-15.4554
觭	-15.4554
礞	-15.4554
공	-15.4554
跱	-15.4554
ờ	-15.4554
惝	-15.4554
旐	-15.4554
嶒	-15.4554
	-15.4554
脰	-15.4554
贠	-15.4554
堎	-15.4554
崾	-15.4554
掞	-15.4554
陜	-15.4555
戋	-15.4555
鸺	-15.4673
訚	-15.4674
∪	-15.4674
赑	-15.4674
礓	-15.4674
ğ	-15.4674
蝴	-15.4674
犽	-15.4674
癍	-15.4674
唰	-15.4674
緼	-15.4674
撸	-15.4674
蚍	-15.4674
鴞	-15.4675
轢	-15.4675
矞	-15.4675
狯	-15.4675
虒	-15.4675
盝	-15.4675
煺	-15.4796
蟮	-15.4796
醂	-15.4796
慴	-15.4796
啵	-15.4796
↔	-15.4797
嬿	-15.4797
欵	-15.4797
태	-15.4797
문	-15.4797
荖	-15.4797
있	-15.4797
忮	-15.4918
禩	-15.4918
珵	-15.4918
┳	-15.4919
弾	-15.4919
颎	-15.4919
洳	-15.4919
­	-15.4919
蕞	-15.4919
絅	-15.492
儗	-15.492
欬	-15.492
踭	-15.492
珦	-15.492
呾	-15.492
麕	-15.492
怃	-15.492
晩	-15.492
鵄	-15.492
巇	-15.492
蚡	-15.492
浼	-15.4921
璈	-15.4921
渼	-15.5044
罃	-15.5044
熳	-15.5044
眴	-15.5045
鑊	-15.5045
隩	-15.5045
蟓	-15.5045
颻	-15.5045
璹	-15.5045
帨	-15.5045
搨	-15.5045
蕗	-15.5045
埑	-15.5045
碜	-15.5045
笱	-15.5045
醵	-15.5045
绹	-15.5045
柙	-15.5045
غ	-15.5045
瞢	-15.5045
肸	-15.5045
暻	-15.5046
면	-15.5046
穸	-15.5168
掎	-15.5171
ã	-15.5171
峣	-15.5171
卐	-15.5171
氷	-15.5171
玭	-15.5171
氊	-15.5171
揜	-15.5171
穨	-15.5171
炻	-15.5171
滝	-15.5171
殢	-15.5171
尫	-15.5171
賔	-15.5171
鵩	-15.5172
糨	-15.5172
绋	-15.5172
세	-15.5172
嚭	-15.5172
渋	-15.5172
螗	-15.5172
驎	-15.5172
鳣	-15.5172
洨	-15.5173
垾	-15.5298
梼	-15.5299
阋	-15.5299
髠	-15.5299
舳	-15.5299
韘	-15.5299
宂	-15.5299
ћ	-15.53
罝	-15.53
鲗	-15.53
鳓	-15.53
盻	-15.53
雰	-15.53
逈	-15.53
驵	-15.53
擐	-15.53
旟	-15.53
熜	-15.53
棓	-15.53
萑	-15.53
鄫	-15.5301
唎	-15.5302
庀	-15.5428
劻	-15.5429
Y	-15.5429
瘈	-15.5429
幰	-15.5429
滆	-15.5429
┃	-15.5429
哞	-15.5429
飜	-15.543
塲	-15.543
猋	-15.543
锍	-15.543
缒	-15.543
氿	-15.543
㖞	-15.543
楛	-15.543
鲙	-15.543
瑢	-15.543
戥	-15.543
塝	-15.543
谝	-15.543
壖	-15.543
狃	-15.543
래	-15.5431
銙	-15.556
墕	-15.5561
応	-15.5561
劘	-15.5561
芶	-15.5561
儵	-15.5561
생	-15.5561
중	-15.5561
趄	-15.5561
谞	-15.5561
硌	-15.5561
순	-15.5561
孼	-15.5561
羑	-15.5561
仏	-15.5562
毐	-15.5562
臺	-15.5562
惓	-15.5562
糈	-15.5693
鲿	-15.5694
旼	-15.5694
忸	-15.5694
嚬	-15.5694
阄	-15.5694
杧	-15.5694
曽	-15.5694
虵	-15.5694
憯	-15.5694
⊕	-15.5695
砠	-15.5695
磵	-15.5695
犛	-15.5695
諴	-15.5695
臿	-15.5695
锃	-15.5695
蟜	-15.5695
垍	-15.5695
倢	-15.5695
矻	-15.5696
奡	-15.5696
氍	-15.5826
挼	-15.5827
愀	-15.5827
黹	-15.5828
髪	-15.5828
頵	-15.5829
敔	-15.5829
荅	-15.5829
翾	-15.5829
耵	-15.5829
饘	-15.5829
斿	-15.583
朞	-15.583
恧	-15.583
澁	-15.583
호	-15.583
聍	-15.583
鉨	-15.583
╱	-15.583
鎞	-15.583
稾	-15.583
踧	-15.583
黴	-15.583
Τ	-15.583
圌	-15.583
煴	-15.5831
모	-15.5832
飑	-15.5832
拶	-15.5964
逌	-15.5965
Z	-15.5966
ɪ	-15.5966
虀	-15.5966
詔	-15.5966
璵	-15.5966
幙	-15.5966
覊	-15.5966
嵓	-15.5967
삼	-15.5967
槖	-15.5967
Ν	-15.5967
帱	-15.5967
栟	-15.5967
迍	-15.5967
야	-15.5967
鶡	-15.5967
澚	-15.5967
鄗	-15.5968
न	-15.5982
歔	-15.6105
屙	-15.6105
종	-15.6105
鶒	-15.6105
┅	-15.6105
ә	-15.6105
魨	-15.6105
阬	-15.6105
ø	-15.6105
踦	-15.6105
觔	-15.6105
▽	-15.6106
疢	-15.6106
沇	-15.6106
鍱	-15.6106
斠	-15.6106
ک	-15.6106
铓	-15.6106
賨	-15.6106
锾	-15.6107
없	-15.6107
त	-15.6132
鍪	-15.6243
龀	-15.6244
袀	-15.6244
鞴	-15.6245
涘	-15.6245
J	-15.6245
疭	-15.6246
裀	-15.6246
猡	-15.6246
猨	-15.6246
帯	-15.6246
涙	-15.6246
嗛	-15.6246
ː	-15.6246
ồ	-15.6246
佽	-15.6246
旳	-15.6246
崒	-15.6247
ป	-15.6247
당	-15.6247
謦	-15.6247
捴	-15.6248
璪	-15.6385
觳	-15.6388
咣	-15.6388
酡	-15.6388
ヲ	-15.6389
熇	-15.6389
洇	-15.6389
靦	-15.6389
מ	-15.6389
麪	-15.6389
姘	-15.6389
燚	-15.6389
遡	-15.6389
觱	-15.6389
y	-15.6389
饟	-15.6389
炟	-15.6389
ą	-15.6389
轘	-15.6389
帀	-15.6389
거	-15.6389
囓	-15.6389
砵	-15.6389
鷸	-15.639
缊	-15.639
鄮	-15.6529
躐	-15.6533
妘	-15.6533
営	-15.6534
髩	-15.6534
鲖	-15.6534
瓟	-15.6534
敉	-15.6534
浡	-15.6534
蜘	-15.6534
輙	-15.6534
匄	-15.6534
镅	-15.6534
禨	-15.6534
鎛	-15.6534
毵	-15.6534
姮	-15.6535
鬶	-15.6535
울	-15.6535
杙	-15.6535
嫪	-15.6535
碹	-15.6537
偬	-15.6679
腚	-15.668
昬	-15.6681
ż	-15.6681
涖	-15.6681
缾	-15.6681
汫	-15.6681
剸	-15.6681
斁	-15.6681
盨	-15.6681
鸂	-15.6681
	-15.6681
≮	-15.6681
筊	-15.6681
袆	-15.6681
姉	-15.6681
镟	-15.6681
閦	-15.6682
躞	-15.6682
∏	-15.6683
猃	-15.6828
禖	-15.6829
鍚	-15.6829
峧	-15.6829
蠙	-15.683
贇	-15.683
癎	-15.683
姤	-15.683
蹯	-15.683
掮	-15.683
僎	-15.683
葅	-15.683
蠭	-15.683
跞	-15.683
蹏	-15.683
闚	-15.683
광	-15.683
溁	-15.6831
蹷	-15.6831
ę	-15.6831
矰	-15.6831
莰	-15.6831
愒	-15.6831
轾	-15.6831
鮡	-15.6831
獍	-15.6831
壄	-15.6831
郚	-15.6832
여	-15.6832
镱	-15.6981
會	-15.6981
嗢	-15.6982
駸	-15.6982
鷇	-15.6982
熺	-15.6982
廼	-15.6982
泂	-15.6982
袗	-15.6982
麐	-15.6982
缲	-15.6982
袠	-15.6982
ู	-15.6982
綖	-15.6982
刭	-15.6982
靑	-15.6982
바	-15.6982
菼	-15.6983
淸	-15.6983
骟	-15.6983
碡	-15.6983
鸑	-15.6984
े	-15.7015
酴	-15.7135
旉	-15.7135
罛	-15.7135
爝	-15.7135
悮	-15.7136
牕	-15.7136
ώ	-15.7136
槙	-15.7136
╠	-15.7136
梈	-15.7136
踳	-15.7136
緌	-15.7136
繙	-15.7136
佷	-15.7136
ë	-15.7136
叚	-15.7136
楗	-15.7136
鬈	-15.7136
璲	-15.7136
แ	-15.7136
罏	-15.7136
旴	-15.7136
學	-15.7137
노	-15.7137
紞	-15.7139
粃	-15.7289
窓	-15.7292
螣	-15.7292
豭	-15.7292
刲	-15.7292
榅	-15.7292
媸	-15.7292
逴	-15.7292
丌	-15.7292
준	-15.7292
饪	-15.7292
諕	-15.7292
嶢	-15.7292
輋	-15.7292
鱚	-15.7292
灝	-15.7292
尓	-15.7292
暕	-15.7292
ề	-15.7292
時	-15.7292
æ	-15.7292
尒	-15.7292
歷	-15.7292
ぴ	-15.7292
噏	-15.7292
虡	-15.7293
昞	-15.7293
명	-15.7293
诇	-15.7294
क	-15.7319
瞟	-15.7447
瀁	-15.745
笾	-15.745
硪	-15.745
麹	-15.745
姞	-15.745
트	-15.745
‐	-15.7451
遝	-15.7451
婼	-15.7451
窰	-15.7451
罇	-15.7451
圐	-15.7451
瑑	-15.7451
舃	-15.7451
碏	-15.7451
肭	-15.7451
朘	-15.7451
ת	-15.7451
嚅	-15.7451
暎	-15.7451
膴	-15.7451
비	-15.7451
麑	-15.7451
勲	-15.7451
嚐	-15.7451
═	-15.7452
沍	-15.7452
倥	-15.761
搋	-15.7611
惸	-15.7611
葢	-15.7611
乗	-15.7611
┄	-15.7612
赪	-15.7612
敻	-15.7612
頞	-15.7612
啐	-15.7612
抔	-15.7612
蘂	-15.7612
嵫	-15.7612
ぁ	-15.7612
匽	-15.7612
ד	-15.7612
產	-15.7612
蕚	-15.7612
読	-15.7612
舡	-15.7612
蚖	-15.7612
鑱	-15.7612
ъ	-15.7612
饦	-15.7612
철	-15.7612
孬	-15.7612
ი	-15.7613
攧	-15.7613
貤	-15.7613
飐	-15.7613
ა	-15.7613
眥	-15.7613
窀	-15.7771
圊	-15.7774
窆	-15.7775
砉	-15.7775
従	-15.7775
鷃	-15.7775
纆	-15.7775
诖	-15.7775
蜋	-15.7776
禇	-15.7776
咗	-15.7776
尃	-15.7776
琫	-15.7776
絓	-15.7776
盫	-15.7776
鞲	-15.7776
螘	-15.7776
龆	-15.7776
ש	-15.7776
羝	-15.7776
窾	-15.7776
滍	-15.7776
丼	-15.7776
镋	-15.7776
鸝	-15.7776
宍	-15.7776
戯	-15.7776
淩	-15.7776
銛	-15.7776
█	-15.7776
褕	-15.7777
»	-15.7777
粬	-15.7777
난	-15.7778
迮	-15.7941
呖	-15.7942
図	-15.7942
龇	-15.7942
笸	-15.7942
壠	-15.7942
嘒	-15.7942
镃	-15.7942
啗	-15.7942
鍠	-15.7942
씨	-15.7942
z	-15.7943
鮋	-15.7943
帰	-15.7943
嫋	-15.7943
橿	-15.7943
瘛	-15.7943
蔕	-15.7943
◢	-15.7943
渀	-15.7943
銶	-15.7943
丱	-15.7943
帟	-15.7943
棁	-15.7943
䴙	-15.7943
圏	-15.7943
缳	-15.7943
晊	-15.7944
ी	-15.7971
囔	-15.8111
慓	-15.8111
與	-15.8112
魋	-15.8112
ָ	-15.8112
伬	-15.8112
籩	-15.8112
鏁	-15.8112
鳑	-15.8112
闓	-15.8112
ぇ	-15.8112
搊	-15.8112
懃	-15.8112
창	-15.8112
傉	-15.8112
Ÿ	-15.8112
葎	-15.8112
鉟	-15.8112
锽	-15.8112
瑨	-15.8112
葸	-15.8112
憝	-15.8112
揾	-15.8112
송	-15.8112
鳽	-15.8112
謏	-15.8112
臛	-15.8112
蹁	-15.8113
哐	-15.8113
郳	-15.8113
날	-15.8113
속	-15.8113
業	-15.8284
ŋ	-15.8284
媢	-15.8284
鞚	-15.8284
鮍	-15.8284
抜	-15.8284
髟	-15.8284
َ	-15.8284
咈	-15.8284
崱	-15.8284
鼗	-15.8284
尨	-15.8284
剅	-15.8285
嶓	-15.8285
嶔	-15.8285
戣	-15.8285
癥	-15.8285
塭	-15.8285
氇	-15.8285
憸	-15.8285
涴	-15.8285
箒	-15.8285
嘽	-15.8285
捜	-15.8285
£	-15.8285
劂	-15.8285
蔌	-15.8285
珖	-15.8285
瑆	-15.8285
운	-15.8285
眜	-15.8285
위	-15.8286
埆	-15.8459
嗾	-15.8459
柅	-15.8459
瞍	-15.846
נ	-15.846
戇	-15.846
黮	-15.846
≯	-15.846
勦	-15.846
瞤	-15.846
圙	-15.846
籛	-15.846
籞	-15.846
ใ	-15.846
伃	-15.846
璮	-15.846
음	-15.846
昫	-15.846
憇	-15.846
堨	-15.846
罣	-15.846
搥	-15.846
皛	-15.846
噘	-15.846
壊	-15.846
畇	-15.846
埯	-15.8461
晢	-15.8461
년	-15.8461
沕	-15.8461
崄	-15.8461
仳	-15.8461
眛	-15.8464
爌	-15.8627
欸	-15.8637
碕	-15.8637
蒉	-15.8638
穀	-15.8638
繦	-15.8638
矟	-15.8638
鼃	-15.8638
呒	-15.8638
瘌	-15.8638
蔊	-15.8639
鱠	-15.8639
喒	-15.8639
梾	-15.8639
唶	-15.8639
예	-15.8639
謩	-15.8639
봐	-15.8639
槜	-15.8639
媮	-15.8639
漖	-15.8639
踡	-15.8639
晙	-15.8639
箎	-15.8639
靸	-15.8639
赩	-15.8639
청	-15.8639
攵	-15.8639
栞	-15.8639
挏	-15.8639
攞	-15.864
窋	-15.864
継	-15.8812
伲	-15.8819
絪	-15.8819
脢	-15.8819
铽	-15.8819
發	-15.882
浛	-15.882
讁	-15.882
砢	-15.882
鳡	-15.882
鼽	-15.882
棬	-15.882
焼	-15.882
隠	-15.882
娀	-15.882
藋	-15.882
敧	-15.882
ỉ	-15.882
ן	-15.882
┓	-15.882
挐	-15.882
藳	-15.882
鳂	-15.882
籤	-15.882
鉥	-15.882
枿	-15.882
舨	-15.882
灩	-15.882
蹚	-15.882
蟪	-15.882
闒	-15.882
岨	-15.8821
糶	-15.8821
戞	-15.8821
棡	-15.8821
간	-15.8821
綯	-15.8821
酾	-15.8821
ศ	-15.8821
漼	-15.8821
鲺	-15.8821
朶	-15.8821
顇	-15.8821
건	-15.8821
두	-15.8822
砩	-15.8822
य	-15.8854
ĩ	-15.9005
栄	-15.9005
ɛ	-15.9005
藂	-15.9005
湋	-15.9005
菫	-15.9005
ө	-15.9005
欻	-15.9005
ß	-15.9005
鄀	-15.9005
苶	-15.9005
亀	-15.9005
佴	-15.9005
蔘	-15.9006
貮	-15.9006
용	-15.9006
稙	-15.9006
牸	-15.9006
襴	-15.9006
f	-15.9006
泆	-15.9006
璺	-15.9006
竻	-15.9006
搡	-15.9006
ณ	-15.9006
裛	-15.9006
麞	-15.9006
榀	-15.9006
鋈	-15.9007
방	-15.9007
荈	-15.9192
稊	-15.9193
j	-15.9193
镎	-15.9193
機	-15.9193
譞	-15.9193
蒭	-15.9194
蚘	-15.9194
鲦	-15.9194
丂	-15.9194
단	-15.9194
╬	-15.9194
妗	-15.9194
금	-15.9194
ぺ	-15.9194
滈	-15.9194
耰	-15.9194
┆	-15.9194
鼕	-15.9194
과	-15.9194
鎚	-15.9194
痏	-15.9194
惙	-15.9194
璚	-15.9194
斅	-15.9194
輗	-15.9194
溎	-15.9194
輴	-15.9195
柲	-15.9195
沘	-15.9195
臠	-15.9195
艚	-15.9198
⋯	-15.9385
锪	-15.9385
嵚	-15.9386
棃	-15.9386
缐	-15.9386
韁	-15.9386
揑	-15.9386
ئ	-15.9386
ổ	-15.9386
娭	-15.9386
桲	-15.9386
ự	-15.9386
埫	-15.9386
석	-15.9386
漻	-15.9387
泬	-15.9387
渰	-15.9387
달	-15.9387
ắ	-15.9387
후	-15.9387
玚	-15.9387
ա	-15.9387
踆	-15.9387
踘	-15.9387
圧	-15.9387
喣	-15.9387
镙	-15.9387
溞	-15.9387
簰	-15.9387
蒇	-15.9387
锳	-15.9387
徬	-15.9387
绖	-15.9387
↗	-15.9388
व	-15.9402
म	-15.9404
沲	-15.958
扺	-15.9581
讟	-15.9582
ứ	-15.9582
噔	-15.9582
悁	-15.9582
骭	-15.9582
幪	-15.9582
飣	-15.9582
柎	-15.9582
阸	-15.9582
徯	-15.9582
黐	-15.9582
까	-15.9582
승	-15.9582
آ	-15.9582
蠼	-15.9583
琲	-15.9583
穟	-15.9583
狖	-15.9583
箙	-15.9583
淲	-15.9583
糬	-15.9583
氂	-15.9583
峠	-15.9583
慆	-15.9583
ấ	-15.9583
厶	-15.9583
홍	-15.9583
濈	-15.9583
觖	-15.9583
骱	-15.9583
楢	-15.9583
瑇	-15.9583
苊	-15.9583
腯	-15.9583
禤	-15.9583
伷	-15.9583
恇	-15.9584
枏	-15.9584
珫	-15.9584
네	-15.9584
逭	-15.9585
눈	-15.9585
鹠	-15.978
叆	-15.9781
済	-15.9782
Š	-15.9782
趍	-15.9782
栐	-15.9782
琭	-15.9782
鷫	-15.9782
圾	-15.9782
轝	-15.9782
郈	-15.9782
來	-15.9782
暦	-15.9782
藟	-15.9782
璏	-15.9782
盬	-15.9782
鰌	-15.9782
鲬	-15.9783
锖	-15.9783
嫲	-15.9783
鮎	-15.9783
鋹	-15.9783
齕	-15.9783
桱	-15.9783
咍	-15.9783
釴	-15.9783
嗞	-15.9783
姁	-15.9783
寧	-15.9783
枻	-15.9783
靬	-15.9783
형	-15.9783
痓	-15.9783
파	-15.9783
嘚	-15.9783
데	-15.9783
匚	-15.9783
潲	-15.9783
揔	-15.9783
«	-15.9784
墼	-15.9984
慠	-15.9985
嗫	-15.9986
簦	-15.9986
闕	-15.9986
莙	-15.9986
鷩	-15.9986
囝	-15.9986
茳	-15.9986
駞	-15.9986
澨	-15.9987
舎	-15.9987
鬅	-15.9987
♥	-15.9987
歠	-15.9987
覇	-15.9987
媺	-15.9987
嵖	-15.9987
와	-15.9987
蓴	-15.9987
槱	-15.9987
跕	-15.9987
鶱	-15.9987
灬	-15.9987
缡	-15.9987
玹	-15.9987
餵	-15.9987
牣	-15.9987
耎	-15.9987
赬	-15.9987
통	-15.9987
禫	-15.9987
趲	-15.9987
斮	-15.9987
権	-15.9987
泇	-15.9987
蚳	-15.9987
瘊	-15.9987
趯	-15.9987
骦	-15.9987
盭	-15.9988
敭	-15.9988
鉷	-15.9988
द	-16.0002
婞	-16.0193
縗	-16.0194
袛	-16.0194
柷	-16.0194
橑	-16.0194
犏	-16.0194
趫	-16.0195
鐏	-16.0195
凖	-16.0195
硁	-16.0195
峃	-16.0195
⊥	-16.0195
鲰	-16.0195
韝	-16.0195
鹢	-16.0195
憹	-16.0195
闤	-16.0195
∵	-16.0195
☉	-16.0195
胾	-16.0195
槔	-16.0195
함	-16.0195
腽	-16.0195
噭	-16.0195
騂	-16.0195
靉	-16.0195
卲	-16.0195
♪	-16.0195
矴	-16.0195
虖	-16.0195
齢	-16.0195
揎	-16.0195
婊	-16.0195
氆	-16.0195
昜	-16.0195
虮	-16.0195
塉	-16.0195
嗵	-16.0195
攴	-16.0195
舯	-16.0195
渞	-16.0196
奤	-16.0196
鱬	-16.0196
爚	-16.0196
筰	-16.0196
钷	-16.0197
치	-16.0197
锿	-16.0198
ब	-16.0223
嚩	-16.0402
曀	-16.0403
佀	-16.0407
験	-16.0407
揵	-16.0407
嫺	-16.0407
椓	-16.0407
鵾	-16.0407
噀	-16.0407
甎	-16.0407
硠	-16.0407
観	-16.0407
庁	-16.0408
砮	-16.0408
嘁	-16.0408
Ἀ	-16.0408
栘	-16.0408
愊	-16.0408
燏	-16.0408
迆	-16.0408
雑	-16.0408
褘	-16.0408
轓	-16.0408
ɔ	-16.0408
袿	-16.0408
濇	-16.0408
諟	-16.0408
険	-16.0408
墠	-16.0408
龑	-16.0408
掤	-16.0408
綵	-16.0408
러	-16.0408
嚥	-16.0408
琁	-16.0408
冚	-16.0408
鯈	-16.0408
驒	-16.0408
드	-16.0409
侘	-16.0409
晄	-16.0409
르	-16.0411
별	-16.0411
심	-16.0412
ं	-16.0442
迻	-16.0622
鋋	-16.0623
掲	-16.0624
東	-16.0624
筅	-16.0625
饾	-16.0625
ũ	-16.0625
捲	-16.0625
務	-16.0625
髃	-16.0625
檇	-16.0625
焌	-16.0625
謌	-16.0625
喎	-16.0625
황	-16.0625
鳯	-16.0625
厎	-16.0625
鬰	-16.0625
屧	-16.0625
ụ	-16.0625
إ	-16.0625
讋	-16.0625
گ	-16.0625
旵	-16.0625
湳	-16.0625
亍	-16.0625
燀	-16.0625
疐	-16.0625
โ	-16.0625
盌	-16.0626
墝	-16.0626
람	-16.0626
綍	-16.0626
≪	-16.0636
स	-16.0653
羮	-16.0846
頼	-16.0846
怩	-16.0846
є	-16.0847
両	-16.0847
珓	-16.0847
禡	-16.0847
狌	-16.0847
夨	-16.0847
鳆	-16.0847
摐	-16.0847
恓	-16.0847
儛	-16.0847
ủ	-16.0847
屩	-16.0847
罳	-16.0847
鋩	-16.0847
馇	-16.0847
胔	-16.0847
霪	-16.0847
飠	-16.0847
仚	-16.0847
歘	-16.0847
驊	-16.0847
尙	-16.0847
玼	-16.0847
絙	-16.0847
輮	-16.0847
単	-16.0847
怊	-16.0848
觝	-16.0848
邲	-16.0848
绱	-16.0848
회	-16.0848
坣	-16.0848
巟	-16.0848
甕	-16.0848
晈	-16.0848
悢	-16.0848
譓	-16.0849
்	-16.0849
≫	-16.0858
質	-16.1072
銍	-16.1073
毹	-16.1073
糒	-16.1074
倶	-16.1074
瑮	-16.1074
廞	-16.1074
暸	-16.1074
鶬	-16.1074
刬	-16.1074
託	-16.1074
唼	-16.1074
罒	-16.1074
蔀	-16.1074
喺	-16.1074
岊	-16.1074
憀	-16.1074
壼	-16.1075
渕	-16.1075
澴	-16.1075
瀵	-16.1075
繄	-16.1075
亊	-16.1075
懞	-16.1075
薬	-16.1075
锫	-16.1075
喤	-16.1075
	-16.1075
鋗	-16.1075
赆	-16.1075
籐	-16.1075
韂	-16.1075
骙	-16.1075
唫	-16.1075
朅	-16.1075
沨	-16.1075
물	-16.1075
硿	-16.1075
岠	-16.1075
蘗	-16.1075
杅	-16.1075
毦	-16.1075
더	-16.1075
腨	-16.1075
頮	-16.1075
旿	-16.1075
髢	-16.1075
牴	-16.1076
醁	-16.1076
[...]
