[UNK]	0
[PAD]	0
[CLS]	0
[SEP]	0
[MASK]	0
pszhhpzn쎯	-3.80226
,	-4.61677
.	-4.72081
、	-5.02807
phspnszh1쎯	-5.23886
szhhhshpn쎯	-5.31238
sz	-5.49565
nnpnzzzh쎯	-5.55401
hpshsh쎯	-5.68907
szhhshnh쎯	-5.70727
hhshszhhhsh쎯	-5.74403
npzn0쎯	-5.74765
nnzhpzpppn쎯	-5.76998
hppzhh쎯	-5.79609
phnphnhshhzn쎯	-5.87629
hshpzzhphpn쎯	-5.90473
szhs쎯	-5.92624
nhszhszszh쎯	-5.93177
szhs쎯szhhshnh쎯	-5.96102
szhszhszh0쎯	-5.97924
nhnphszhzzs쎯	-6.0086
zzhznhsh쎯	-6.0604
phspnnnhs쎯	-6.07708
nhnphhspnpphs쎯	-6.11612
hpn1쎯	-6.12519
(	-6.13745
szhhhzn2쎯	-6.16825
hszh0쎯	-6.17535
zhhhhszzn쎯	-6.184
phhszssz1쎯	-6.20454
znpznnhzhz쎯	-6.23089
phnphnnnzszhzh쎯	-6.23945
hhz1쎯	-6.26265
;	-6.26885
znpzhhsnzzn쎯	-6.27615
hpszsshhh쎯	-6.27728
psphshh1쎯	-6.28518
pnzn0쎯zhszh1쎯	-6.30614
hssznphhs쎯	-6.32722
pshspnh0쎯	-6.33028
nsnphhsh쎯	-6.33318
hshzsz쎯	-6.33942
)	-6.34656
pznszh1쎯	-6.34895
pn2쎯	-6.37061
zzsnnzhhpz쎯	-6.39616
:	-6.42404
szhhhsshhhzn0쎯	-6.44381
zhphsshzpn쎯	-6.44972
hpsn0쎯	-6.47301
shh쎯	-6.48001
zpnpszhhh쎯	-6.48011
phshhshhzn쎯	-6.48419
nhpn0쎯	-6.495
nphzpnzphphpn쎯	-6.50232
zz2쎯	-6.50621
《	-6.51267
hznhshsz쎯	-6.51694
hspnpz2쎯	-6.52937
hpzznp쎯	-6.53147
pnhszh쎯	-6.53357
hsshhhpnhsh쎯	-6.54718
pzzn3쎯	-6.54879
phszhhhsh쎯	-6.54997
szhhhszhhhsh0쎯	-6.55284
zpznn쎯	-6.56902
pzznzpn쎯	-6.57718
szhhhshspnhszs	-6.58058
nnpzpnszpn쎯	-6.59071
phspnszhphsh쎯	-6.60302
nnnhshzn쎯	-6.60361
hznnzzn쎯	-6.60955
phspnszhs쎯	-6.61512
shnpn쎯	-6.61738
szszs0쎯	-6.63076
szhshshpznszh0쎯	-6.64147
pphszh쎯	-6.64426
phhsh1쎯	-6.64681
zzhszhhh0쎯	-6.654
psnhhhshhspn쎯	-6.65587
nphpszhhhnzzn쎯	-6.66126
nhphsshzn쎯	-6.66544
hshshphpn쎯	-6.66547
nnnphzznnh쎯	-6.67263
hshpszhh쎯	-6.67692
hspnszhhh4쎯	-6.68594
nnzhshpn0쎯	-6.68827
phshpzpp쎯	-6.69529
pzhhs0쎯	-6.69529
nhszs쎯	-6.70633
nnznnhpn쎯	-6.71864
nphhshhpn쎯	-6.72242
zzpn0쎯	-6.72515
pshhsh0쎯	-6.73464
hszsshzph쎯	-6.73572
nhnphp쎯	-6.73848
nphpzhhsz쎯	-6.73934
phspnzph쎯	-6.7407
znhzn0쎯	-6.7446
ppsszhhhhzn쎯	-6.74855
pshhzn1쎯	-6.76606
hzhszhhhshpn쎯	-6.76742
hspnh0쎯	-6.76941
”	-6.76942
nhnpszpzszh쎯	-6.77128
hspnnhpnpn쎯	-6.77835
pnhhsnph0쎯	-6.78759
szhhhzn0쎯	-6.8015
pznpzn0쎯	-6.81182
hsshhhpnpzhh1쎯	-6.8186
hsh2쎯psphshh1쎯	-6.82052
hpszhhhps0쎯nnzpz	-6.8262
h	-6.82631
nhpspnpzszn쎯	-6.8306
hspnhzn0쎯	-6.83609
psnhhhszh쎯	-6.83862
hpn1쎯nnpnzzzh쎯	-6.84065
hhpsszhsh쎯	-6.8433
ppshhz쎯	-6.84362
“	-6.84988
nnnhznpsz0쎯	-6.8659
npszhnznn쎯	-6.8673
szhhz2쎯	-6.86772
psszhhspn쎯	-6.87042
hznpznn0쎯	-6.87596
phhhzhsszhhhhpn쎯	-6.88195
snpnzszhszs쎯	-6.88412
shh쎯nnnphzznnh쎯	-6.88796
hszhzhhz0쎯	-6.89015
szpn1쎯	-6.89186
phspnpzzpn쎯	-6.89234
hsn쎯	-6.89236
hzzpn0쎯	-6.89741
pphsszpn쎯	-6.90474
nnnnhzpphzzh쎯	-6.90497
ppzhpphs쎯	-6.90498
hppszhhzpn쎯	-6.90784
pnshsh쎯ssnph쎯	-6.91441
pnzp쎯	-6.91479
hzhnhnphzph쎯	-6.91522
hzhhszn쎯hspnn쎯	-6.91966
snnpnnphzn쎯	-6.92672
snpnzszhpz쎯	-6.92698
hnphspn쎯	-6.92965
hspnhhspn3쎯	-6.93144
szhhhhpn1쎯	-6.93195
hzhhzszhh쎯	-6.93307
nzpzzn쎯	-6.93628
nhhsh쎯hszsshzph쎯	-6.93646
pszhhh0쎯	-6.9408
hpnz0쎯	-6.94236
hszhhpnnszhszh쎯	-6.95319
hhzn0쎯ssnph쎯	-6.9652
hszhhznp쎯	-6.96536
shszhnnnn쎯	-6.96973
zzhhshszh0쎯	-6.97142
nnshshnhpzpn쎯	-6.9747
쎃	-6.97693
nphzpnhpn0쎯	-6.97761
nhpnpn0쎯	-6.98623
hszhszhshsz쎯	-6.98815
szpnpn0쎯	-6.99391
pnhhzn쎯	-6.99558
zzhpzzn쎯	-7.00153
zhppszhszshn쎯	-7.00175
szhhpzhh2쎯	-7.00904
hshpszhhzzs쎯	-7.01174
hssnzszhszh쎯	-7.01216
hsh2쎯	-7.01402
hpszss쎯	-7.01453
·	-7.01806
hhshzn3쎯	-7.01855
hsshhhpn0쎯	-7.01977
zzhnhznpz쎯	-7.02281
pnhhsh쎯	-7.03241
nhszhzpnhpzn쎯	-7.03335
nphzpnhhshpzhh쎯	-7.03425
szhsh2쎯	-7.03778
hshshpnzhz0쎯	-7.03811
pshz1쎯	-7.04376
pznszh0쎯	-7.04533
psnhnph쎯	-7.04916
nnnhppszhhzpn쎯	-7.0497
쎂	-7.04994
pzzshz쎯	-7.05133
p	-7.05221
phzn쎯	-7.05922
zzh0쎯	-7.06013
pzpzhshzpphhs쎯	-7.06098
szs1쎯	-7.06147
pznnhpnnnnnn쎯	-7.06582
phshszhnzzn쎯	-7.07277
hpszhhhps0쎯	-7.07621
-	-7.08171
szhhnhszhzpnppp쎯	-7.09654
nhnphszhhnznn쎯	-7.09678
hhpsppp0쎯	-7.10576
hspnpznszh쎯	-7.11883
nnnhhshpzhh쎯	-7.12072
nnnnhpnps쎯	-7.12337
psnhnph쎯hhz1쎯	-7.12457
szhszh1쎯	-7.12706
hhshszpz쎯	-7.12719
/	-7.12902
hsshhhnphhpn쎯	-7.13061
ppshsszsshhnznn쎯	-7.13102
zzhnzhpszhss쎯	-7.13584
zpn3쎯	-7.13844
nphzpnnnhs쎯	-7.14053
hsshhhszhpn쎯	-7.14149
hszpzh쎯	-7.14218
hszhz1쎯	-7.14577
hhh쎯	-7.15663
hsshhhpnpphs쎯	-7.15931
nsnhhshpzhh쎯	-7.16036
쎁	-7.16149
zhzhzn0쎯	-7.16562
szhshpnps0쎯	-7.17003
hhpz1쎯	-7.17176
nphszs쎯	-7.1791
h쎯	-7.18049
hhshpzpn1쎯	-7.18214
pzhhzszn쎯pznzp쎯	-7.18622
zzhhhznp0쎯	-7.19335
szh0쎯	-7.19574
ssnph쎯	-7.19864
hhshhznnpnn쎯	-7.19876
nnpsnhhhsh쎯	-7.19909
hhpsnzn쎯	-7.20009
snzszhh쎯	-7.20221
zhzszhszhshn쎯	-7.20253
hsshz0쎯	-7.20561
shhspzphpnn쎯	-7.20639
nhnphszhh쎯	-7.20645
npszhhhs쎯	-7.2076
hphhpnz쎯	-7.21077
pnhznhpszpn쎯	-7.21194
ppzhh쎯zzszhhzpn쎯	-7.21246
nphhhsszhhh0쎯	-7.21346
szhhhsh1쎯	-7.21465
hhpn0쎯	-7.21826
nzpzhshszh쎯	-7.22284
hshhpzznp쎯	-7.22364
nhpn2쎯	-7.2237
pznpn쎯	-7.22643
pzpn2쎯	-7.24217
pshzn1쎯	-7.24272
nhhsh쎯	-7.2432
nznn쎯	-7.26231
hspnshhsszhhhpn쎯	-7.26545
nzhzhs쎯	-7.2725
쎄	-7.27416
hznhsh쎯	-7.27956
hhshhpsn쎯	-7.27958
nhpn2쎯pshz1쎯	-7.28341
hzhzhphsszh쎯	-7.28364
pshsshpn쎯	-7.29377
nhpnnhszpn쎯	-7.29545
shhspshz쎯	-7.30156
szszs0쎯pshzhpzn쎯	-7.30278
nnnhszhz0쎯	-7.30412
szhhhshpnhpszpn쎯	-7.31387
nhpsnszpz쎯	-7.31458
phhshs쎯	-7.32025
zphzzh0쎯	-7.32268
hspnpzzn2쎯	-7.32276
nhpsnszhhs쎯	-7.32391
shszhhznp쎯	-7.33562
hhpnszpz쎯	-7.33599
nnnnnzhszhshpn쎯	-7.33853
zhpzszh쎯	-7.33904
zhzphpn0쎯	-7.34215
,szhhhshpn쎯	-7.34273
phhsh1쎯nhnphp쎯	-7.34576
zpszh0쎯	-7.34892
nhpnzsszshn쎯	-7.34918
nzpzzn쎯nzhs쎯	-7.35287
nhpnpnphpn쎯	-7.35388
szhhhspn3쎯	-7.35501
nnnszhsh0쎯	-7.35507
pnpn1쎯	-7.35642
pnhzhhzpn쎯	-7.363
nhpnnzzn쎯	-7.36425
hsshszhshpn쎯	-7.36504
nhpsnhsh쎯pnhhzn쎯	-7.36522
》	-7.36922
hpszh1쎯	-7.37108
hhps2쎯	-7.38149
hhznzp쎯	-7.38231
hshnhnphszhhpz쎯	-7.38305
hspnhspn쎯	-7.39681
szhzph쎯	-7.39841
hshzp2쎯	-7.40083
hhhshspnhszs93쎯	-7.40318
nnnznszh쎯	-7.40546
쎅	-7.40733
szsshhsszhhhh쎯	-7.40959
hszpnpn쎯	-7.41146
hzhpznnnnn쎯	-7.41463
hspnhzp0쎯	-7.4192
shhs	-7.4275
pnhhsh쎯szhhshnh쎯	-7.4276
nnnphsszh쎯	-7.42999
nnhpn쎯	-7.43114
nnzzph쎯	-7.43273
nphpszhhh쎯	-7.43282
shhshshpszhh쎯	-7.4337
phshpznzzn쎯	-7.4361
szhh3쎯	-7.44002
nnzpnpnszh쎯	-7.44048
hpssnzszs쎯	-7.44723
nnnhsszhpznn쎯	-7.44805
pznszhsh0쎯	-7.44844
szpzh0쎯	-7.44848
hshsh0쎯	-7.45194
pnnpnzzn쎯	-7.45318
szhszpn3쎯	-7.45547
phspnszhpn1쎯	-7.45635
snphpz쎯	-7.45795
nhnphshszh쎯	-7.45928
pssphpnppp쎯	-7.46166
"	-7.46282
hpnnzzn쎯	-7.46888
pn3쎯	-7.47161
hszh1쎯	-7.48013
pznsn쎯	-7.48133
pnnpnzhpzn쎯	-7.48472
n	-7.4851
hszhshzs쎯	-7.48687
nzhszhszh쎯	-7.48707
szhhnhszhzpn0쎯	-7.49292
zp1쎯	-7.49346
zhzhz0쎯	-7.50509
phhhzsnppzhh쎯	-7.50793
hszpzhhzhz쎯	-7.50824
pnzn0쎯	-7.50921
zzp쎯	-7.51045
phspnsz쎯	-7.51154
szhhh2쎯	-7.51466
nnzpzhsh0쎯	-7.51696
nphzpn쎯	-7.51725
nhpnnph0쎯	-7.51754
phspnszhh쎯	-7.52224
pnzzsz쎯	-7.52294
hzhsnzn쎯	-7.5266
nnnszhhszssh쎯	-7.52862
nphhps쎯	-7.53022
zsz0쎯	-7.53023
hphszhnznnznp쎯	-7.53084
szhhz1쎯	-7.53329
hhshpzhh1쎯	-7.53364
pnhhpn0쎯	-7.53499
쎆	-7.53691
hhpsnzn쎯ppshhz쎯	-7.53779
hzhs0쎯	-7.5396
hsshhhzn0쎯	-7.54328
zzhszhpn0쎯	-7.54345
hzhhszn쎯	-7.54546
hshpzhhsnhzn쎯	-7.54699
hszhspnnzzn쎯	-7.54729
pszhh0쎯	-7.54798
phhhshhh쎯	-7.54878
hnzsnnpnhpszss쎯	-7.54959
phzhznp쎯	-7.55005
hhznnzzn쎯	-7.55387
phhz0쎯	-7.55518
phsszhnzzn쎯	-7.55542
phnphnzhzsp쎯h쎯	-7.55824
nhzpphphhpn쎯	-7.55902
hpzznp쎯nhnph쎯	-7.56093
nnnhszpzhh쎯	-7.56458
hszhz1쎯shnpn쎯	-7.56469
hh0쎯	-7.56688
pspzszshpzpppn쎯	-7.56872
h쎯pns쎯	-7.57188
hsszhhhh0쎯	-7.57522
znszh0쎯	-7.57962
hhhshspnhszs247쎯	-7.58327
.”	-7.58447
phnphnhshpzn0쎯	-7.58474
shhsszhpn쎯	-7.5885
nznpszhpz쎯	-7.59503
쎁쎀	-7.59508
hsszhhhhpn0쎯	-7.59873
hhsh1쎯	-7.60055
szhspnphpnhshsh쎯	-7.61124
hszsn쎯	-7.6116
zpnzhh0쎯	-7.61372
pszhhhp쎯	-7.61562
pnhszhzs0쎯	-7.61836
쎈	-7.61903
hzshpnhpzhhsz쎯	-7.62232
phhz2쎯	-7.62694
pzzpn0쎯	-7.62734
()	-7.62927
nnznznnpszs쎯	-7.62969
nnnszpnsz쎯	-7.63079
npnsns쎯	-7.63307
nnnnzpzhspn쎯	-7.63528
zzhpnhnnph쎯	-7.6369
ppzhnhzp0쎯	-7.63749
hhshzznzpn쎯	-7.63901
hsszzhpzn쎯	-7.63948
hznnpnn쎯	-7.64165
hhhshspnhszs153쎯	-7.64394
szhhphhsh0쎯	-7.64588
hsszhpz쎯	-7.64607
shhhz쎯	-7.64633
pszszh쎯	-7.647
shhsnnnzz쎯	-7.65087
szhshnznn쎯	-7.65386
hhzn0쎯	-7.655
szhs쎯nznn쎯	-7.656
hzhz1쎯	-7.65718
pz0쎯	-7.6583
pzzpn1쎯	-7.66058
nnnhsh쎯	-7.66598
nphhhpnps쎯	-7.66834
snz쎯	-7.67013
nnzhhsshpnszpn쎯	-7.67151
,hpshsh쎯	-7.67289
》:“	-7.67367
hshzzpp쎯	-7.67433
pshszhpn쎯pzhhs0쎯	-7.67456
szhpnh쎯	-7.67624
ssphnszsh쎯	-7.6764
nzpnpz쎯	-7.67654
pphsnzzn쎯	-7.68202
hshhszhhznp쎯	-7.68545
nnzhznhsh쎯	-7.6889
hssnph쎯	-7.69129
hzhnnzpzhsh쎯	-7.69165
nhzznnnpnhs쎯	-7.69195
hspnszhhhnznn쎯	-7.69511
shhhz쎯nhszhzpn쎯	-7.69769
szhhpzpp1쎯	-7.69771
hszhshszhzpzpn쎯	-7.70295
hssz0쎯hspnn쎯	-7.7054
nhpzpnzn쎯	-7.70767
쎇	-7.70794
zzh5쎯	-7.70876
pshzpszhhphs쎯	-7.71189
zphszh1쎯	-7.71346
nhppshzn쎯	-7.71369
hhhshspnhszs197쎯	-7.71788
szhhpzh쎯	-7.7179
phnphnzhzsp쎯	-7.71917
hszn0쎯hzhhshhzn쎯	-7.71951
h쎯phspnszhs쎯	-7.72185
shshspphpszpn쎯	-7.72248
hszpnn쎯pnhhzn쎯	-7.72682
zzsszhh0쎯	-7.72726
phszhhpzn쎯	-7.72741
ssphnszssh쎯	-7.72828
nhzpphpn쎯	-7.72869
hzhzhs0쎯ssnph쎯	-7.73274
szpznnnh쎯	-7.73436
znszpz쎯	-7.7384
hzhpzzn2쎯	-7.73881
znhpnppp쎯zpszh0쎯	-7.74328
pzszshpzpppn쎯	-7.7451
nhpsnhsh쎯	-7.7529
hhpz0쎯	-7.75292
hhhshspnhszs173쎯	-7.75395
hsszhphpn쎯	-7.7621
pshsszhphpn쎯	-7.77807
snnhpnn쎯	-7.77862
zzhpsnhhhsh0쎯	-7.78207
phhpnszh쎯	-7.7821
hspnzhhzpn쎯	-7.78484
phhhzphhpn쎯	-7.78509
nhzpphpzpn쎯	-7.78696
pshpzn2쎯	-7.79218
hnphs쎯	-7.79422
sznphhshnnnn쎯	-7.79549
nhpshszh쎯	-7.79679
zzhhsh쎯	-7.8006
szhszpn3쎯pnhhzn쎯	-7.80079
pnpn1쎯hszhzhhz0쎯	-7.80484
hhpzpn0쎯	-7.80935
hsszh쎯	-7.80983
npszsnphszhh쎯	-7.81445
pszhhhnznn쎯	-7.81547
psphhs1쎯	-7.81684
nhpsnhszhszhsh쎯	-7.82001
nhnphszshpszss쎯	-7.82366
nnspznhpn쎯	-7.82627
znhznp쎯	-7.83121
hsszs쎯	-7.83443
hshzsz쎯hpnz0쎯	-7.83607
pszhhhhszzn쎯	-7.83983
nnzpznszh쎯	-7.84196
hhps2쎯zpznn쎯	-7.8455
nphzpnzpphs쎯	-7.84556
pshz2쎯	-7.84587
hzshnhpnpn쎯	-7.84926
nzhsznnhpn쎯	-7.84977
phnphnsnzszhh쎯	-7.85144
nzhhshzn쎯	-7.85171
zhhpszhnphhhs1쎯	-7.85207
hzhpsnhhhsh쎯	-7.85313
hsszhhhspzhh쎯	-7.85329
hshnpszsnphszhh쎯	-7.85603
znhpnppp쎯	-7.85634
hhzn1쎯	-7.85635
zsphpn쎯	-7.85678
”.	-7.85786
zzsnhzp쎯	-7.85884
ppshhz쎯ssnph쎯	-7.85887
hshshpnzpszh쎯	-7.85956
szhshpn1쎯	-7.86174
hshphz2쎯	-7.86243
hzhpnphspnszhsh쎯	-7.86671
zhphsszhsz쎯	-7.8689
zhphsszh쎯	-7.86912
hhshnh쎯zzshhspn쎯	-7.86955
nznhzppn쎯	-7.86961
,nphhps쎯	-7.87486
hspnhsszhhhh쎯	-7.87697
szpnsz0쎯	-7.87812
hsh2쎯ssnph쎯	-7.87946
hspnpnhnnph쎯	-7.87997
nhpzhhznnpn쎯	-7.88125
hspnpzzn1쎯	-7.88158
pszhhh0쎯zhz0쎯	-7.8824
nnzzzh0쎯	-7.88241
》、《	-7.8833
pszhzps쎯	-7.88628
shnpn쎯pzzn3쎯	-7.89032
snzszh쎯	-7.89524
hpsnnzzn쎯	-7.89561
zzshhspn쎯	-7.89653
pshszhpn쎯	-7.90126
hpz0쎯	-7.90553
nphssnphszhh쎯	-7.90579
hhshspnhszs123쎯	-7.90654
nhzp쎯	-7.90745
zhzphzn쎯	-7.9078
szhssh0쎯	-7.90809
nhzpphzsz쎯	-7.91092
hzshhhzn쎯	-7.91251
shhpszpn쎯szhhh2쎯	-7.91581
pn2쎯zhzhz0쎯	-7.91613
),	-7.91905
pspzzpn쎯	-7.92218
hzhnhnph쎯	-7.92681
pszsz쎯	-7.93017
nnzhpn0쎯	-7.93306
nzpzpn0쎯	-7.93359
nhszs쎯hshzzpp쎯	-7.93823
hshnznn0쎯	-7.93828
쎁쎂	-7.94282
hzhpzhhs쎯hppzhh쎯	-7.94678
zzhszhsh1쎯	-7.94707
hszpzhhznpzpzn쎯	-7.94851
shhsszhhhs쎯	-7.95071
쎉	-7.95094
hpszs0쎯	-7.9533
szhhs0쎯	-7.95454
nhpspnzp쎯	-7.95498
hzhzszn쎯	-7.95713
phhhzszpn2쎯	-7.95877
hszhhpn쎯	-7.95962
hshphz3쎯	-7.95978
ppshshhshhhz쎯	-7.96056
pzznnzszhzh쎯	-7.96135
szszhh0쎯	-7.96303
nnphpn1쎯	-7.96992
!	-7.97106
szpz0쎯	-7.97494
hshshpnhzznp쎯	-7.97509
nnn	-7.97587
ppsszshpzphpn쎯	-7.9771
phshpz쎯	-7.97733
zzhhhzpn쎯	-7.97896
szhhzpszhnnnn쎯	-7.98019
pzszhshh쎯	-7.98091
hhhshspnhszs215쎯	-7.98347
nhpnnph0쎯pzhhs0쎯	-7.9867
hshzshp쎯	-7.98713
nnzhszhszhsh쎯	-7.98788
hpszzh쎯	-7.98883
nnnhsshpnzhz0쎯	-7.98928
nphhshnphszh쎯	-7.99082
hzhhz0쎯	-7.99218
phnphnhszspn쎯	-7.99232
zzhhsznnhpn쎯	-7.99707
phhhzzhhzpn쎯	-7.99727
nnpnzzzh쎯phhsh1쎯	-8.00042
hshzn0쎯	-8.0005
pshsszhhhh쎯	-8.00231
hshhpszpn쎯	-8.0064
,shnpn쎯	-8.0081
zhphhzn쎯	-8.00821
hshhpzznp쎯nhszs쎯	-8.00869
phnphnppzhszhss쎯	-8.01096
hpzznp쎯npzn0쎯	-8.01133
psnhhhshszh쎯	-8.01214
hzhpnnpnzzn쎯	-8.01233
pzhshszh쎯	-8.01832
nhnphszhhhs쎯	-8.01919
pspnps쎯	-8.01973
shhsn쎯	-8.02022
zhz1쎯	-8.02124
zzhnnzhhspn1쎯	-8.02677
pszhshpzzn쎯	-8.02773
shphpn쎯nhppshzn쎯	-8.02793
hspnhpzn0쎯	-8.0318
pspzhzh쎯	-8.03368
zzhz0쎯hzhphsszh쎯	-8.03631
쎁쎅	-8.0373
nhhhszh0쎯	-8.03957
쎂쎀	-8.04238
zhhznnpn0쎯	-8.04333
pznhspn쎯	-8.04364
hzhhsshhhznzn쎯	-8.04483
hhshshzn1쎯	-8.0456
hzhzshz쎯	-8.04736
pznzp쎯	-8.0487
hspnphpnps쎯	-8.04889
hsshszhhs쎯	-8.05097
szhhhzp0쎯	-8.05392
pszhhhphzn쎯	-8.0554
ppszhhzpn쎯	-8.05744
～	-8.05891
szhzpsz쎯	-8.0597
hspnnphhhs쎯	-8.06127
nhpn1쎯	-8.06177
hzhphhhshhh쎯	-8.06181
nzhshsh쎯	-8.06263
hzhhshhzn쎯	-8.06454
hhshszpz쎯pshzn1쎯	-8.0648
zzshppzhhnzzn쎯	-8.07306
nnzhhshn쎯	-8.07578
hspnnphzpnzph쎯	-8.07584
hspnszhhh1쎯	-8.07924
szh	-8.07935
nphzpnpnzp쎯	-8.0796
nnnhsshszpnpn0쎯	-8.08023
nhszhzpn쎯	-8.08598
쎁쎆	-8.08603
hsh1쎯	-8.08844
shhspnnphspn쎯	-8.09047
szhshshhszhh쎯	-8.09354
pz1쎯	-8.09393
nphpnszssh쎯	-8.09509
zhhznzs쎯	-8.09718
nzhshhzn쎯	-8.09727
zzspn쎯	-8.09757
nhhsh쎯pshhsh0쎯	-8.10072
shhsnnnpznszh쎯	-8.10113
psnhpzpn1쎯	-8.10425
szhhssnph1쎯	-8.10539
쎁쎁	-8.107
znzn3쎯	-8.11433
hsshhhpn0쎯pszsz쎯	-8.11434
szhsshpn쎯	-8.12307
hhspn2쎯	-8.1265
pshszhhpn쎯	-8.1296
nzszhhhspn쎯	-8.13124
szhsznphsszhshn쎯	-8.13167
snzhsshhh쎯	-8.13218
phspnzph쎯pnhhzn쎯	-8.1328
psphshh1쎯npzn0쎯	-8.13464
hspn0쎯	-8.13512
szhhhspn1쎯	-8.13548
szhhshnh쎯szpn1쎯	-8.13562
hzhhzhz0쎯	-8.14582
phhpszhhh쎯	-8.14641
hhps2쎯zphznszh쎯	-8.14722
pn4쎯	-8.14747
nppn쎯	-8.14829
nphzpn쎯,	-8.14989
nnzszhzh쎯	-8.1504
nnpnzzzh쎯pnhhzn쎯	-8.15303
hpnhszhz1쎯	-8.15306
zpnzzn쎯	-8.15358
hsshpn쎯	-8.1536
shshhz0쎯	-8.15444
pzhhzszn쎯	-8.15494
szhh3쎯hspnh0쎯	-8.15727
pszssh0쎯	-8.15746
zhzpsszpn쎯	-8.15778
hs	-8.15837
pzpszhshn쎯	-8.1585
szhs쎯szhpn4쎯	-8.16027
쎁.	-8.16032
쎃쎀	-8.16658
nsnzhpn쎯	-8.16784
hshsnszssh쎯	-8.16808
nnzpznnznhhspn쎯	-8.16846
nhpzhhsszh쎯	-8.16849
nnzzph쎯pnhhsh쎯	-8.17079
pzhhs0쎯hhz1쎯	-8.17241
szhshpznszh0쎯	-8.17358
nhp쎯	-8.17407
phnphn	-8.17444
hhzn1쎯hssznphhs쎯	-8.17524
hz2쎯	-8.17558
nnnsnppznn쎯	-8.17581
ppszhhhhs쎯	-8.17804
hpzp쎯szhpn3쎯	-8.18121
pzznzpn쎯hpznsz쎯	-8.18132
phhpnhszhnph쎯	-8.18193
zzhzhhznnpn0쎯	-8.18195
pnnphspn쎯pzhhs0쎯	-8.1827
pzpzhsh쎯	-8.18747
nzhzh쎯	-8.18769
hpsn0쎯szhszh1쎯	-8.18894
pnn0쎯	-8.18923
nnzhszhhh쎯	-8.19052
zzspnhnnph쎯	-8.19301
zzhpzn0쎯	-8.19502
phhs0쎯	-8.19557
pn2쎯,	-8.19633
pnnphspnppp쎯	-8.19859
).	-8.19872
ppznnhnhpz쎯	-8.19949
psszhhspn쎯szh	-8.20015
nnzzphhspn쎯	-8.2007
phhpnszhszhh쎯	-8.2022
쎅쎀	-8.20351
hshszhnphszh쎯	-8.20541
nnnnhpspznn쎯	-8.20694
nzpzpn0쎯ssnph쎯	-8.20896
hnzsnnpn	-8.21349
nnnnpnsns쎯	-8.21559
hhhpnszhh쎯	-8.21634
nnnnhpzpnzhz쎯	-8.21771
nhppnpnhsh쎯	-8.21934
zph쎯	-8.2198
pnhszh쎯psphshh1쎯	-8.22024
pzzhz0쎯	-8.22078
쎁쎇	-8.22166
hzhszhhh1쎯	-8.2279
hpszhpzpzhsh쎯	-8.22976
hhs쎯	-8.23275
nhzp쎯hpszsshhh쎯	-8.2328
nhnphp쎯ssnph쎯	-8.23281
phnphnzhzsp쎯hh0쎯	-8.23301
pnhhzn쎯szhszpn3쎯	-8.23506
hhznnzzn쎯hhznzp쎯	-8.2385
zzhpnhszh쎯	-8.23895
hssnzhspn쎯	-8.24286
nnzhhspn쎯	-8.24289
%	-8.24338
nnnnhhsh쎯	-8.24456
pshhhpzzn쎯	-8.24704
pnhhspn1쎯	-8.24728
zhszhszhszhhspn쎯	-8.25011
?	-8.25373
shpzn2쎯phspnpz2쎯	-8.25741
쎁쎃	-8.25841
——	-8.25881
쎁쎈	-8.26273
hszn0쎯	-8.26301
pns쎯	-8.26909
szszhszpnh쎯	-8.26978
szhsh1쎯	-8.27035
pshhzs1쎯	-8.27138
phshpz쎯hhpsnzn쎯	-8.27209
phnphnphhz쎯	-8.27229
pn2쎯.	-8.27362
hshnhnphszh쎯	-8.27464
znppnhszhnph쎯	-8.27559
hpnshhhhzn쎯	-8.27604
nhppzhzh쎯	-8.27713
zhznpszhhhs쎯	-8.27746
nnphpnhhs쎯	-8.27811
pshzhpzn쎯	-8.28009
hspznnzzn쎯	-8.28197
zzspshzn쎯	-8.28205
pn2쎯szhszpn3쎯	-8.28393
nnnnphhhs쎯	-8.28592
szhpn1쎯	-8.28628
zpnn1쎯pnzn0쎯	-8.28739
nnzpznszh쎯nzhp쎯	-8.29278
zhhnppn쎯	-8.29287
nnzhssszpz쎯	-8.29343
pznzpszhsh쎯	-8.29755
hspnpnzn0쎯	-8.29871
nhzppnsz0쎯	-8.29908
hspnzzh1쎯	-8.29987
zshz0쎯	-8.30104
hhpnszpz쎯hznpsz쎯	-8.30323
szhhzsh쎯	-8.30781
nppn	-8.31198
szhs쎯nhpn2쎯	-8.31404
hzshznhsh쎯	-8.31427
,psszhhh1쎯	-8.31733
hphshn쎯	-8.31736
szhs쎯pszhhpzn쎯	-8.31848
szhpn3쎯	-8.32329
nnnzpnp쎯	-8.32366
szhhs2쎯	-8.3256
nphhshhpn쎯hspnn쎯	-8.3257
szhhhsshpnznnpn쎯	-8.32654
nhpn2쎯nnpnzzzh쎯	-8.32723
zzspnhhspn쎯	-8.32761
nnpnzzzh쎯znn0쎯	-8.32838
szpnpn1쎯	-8.32956
hhshzzph쎯	-8.33098
zhpnphhps쎯	-8.33296
ppsnhhsh쎯	-8.3368
zpszh0쎯pn3쎯	-8.33683
hpzn2쎯	-8.33807
nzzhz쎯	-8.33818
zhpszhsh1쎯	-8.34264
hzh	-8.34359
,npzn0쎯	-8.3444
쎂쎅	-8.34444
shpzhphszhszznp쎯	-8.34591
szhshszpnnzn쎯	-8.346
hhhshspnhszs235쎯	-8.34602
szhhhzhhzpn쎯	-8.34602
pzszhshhnphhhs쎯	-8.34923
hspnzn쎯	-8.35102
nnnpzszn쎯	-8.35104
.hpshsh쎯	-8.35312
쎁쎄	-8.35331
nhnpnzszs쎯	-8.354
hsshhhznpspnpn쎯	-8.35418
nhszhzzhpznnnnn쎯	-8.35612
hznhshpzn쎯	-8.35718
nnzpz1쎯	-8.35769
nhnph쎯	-8.3578
hhhshspnhszs134쎯	-8.35877
hspn	-8.35881
phspnnznnp쎯	-8.3603
shshhzhh쎯	-8.36294
nhzpznnphsh쎯	-8.3633
hspnnhzppn쎯	-8.36499
snpnzszhhsh쎯	-8.36509
pnhznznn쎯	-8.36613
pznzszs쎯	-8.36793
phzhznp쎯pssnz쎯	-8.36858
psnhhhszh쎯pszhhh	-8.37005
pshszhz쎯	-8.37089
phhhzszhszpn쎯	-8.3717
hsznhszn쎯	-8.37325
nphzhhsspn쎯	-8.37386
szhpszszh쎯	-8.37452
hzhshhsszhsh쎯	-8.37475
szpnpn0쎯zzhpzn	-8.37603
psnhhsh쎯	-8.37664
szhhhs0쎯	-8.37937
zhzhps쎯	-8.38198
zn2쎯	-8.38268
쎄쎀	-8.3833
pzszn쎯	-8.38465
nnnpppzpn쎯	-8.38485
hhshnphhsh쎯	-8.38488
nzphsszh쎯	-8.38662
zhhpzzs쎯	-8.38697
nhpzpn0쎯	-8.38906
hp1쎯	-8.3893
zshpzpn쎯psphhs1쎯	-8.38957
psznphspnhpn쎯	-8.38971
pshshhsh0쎯	-8.39001
zzhpznszh0쎯	-8.39023
hsh0쎯	-8.3911
nnnpzzn3쎯hppzhh쎯	-8.39116
×	-8.39423
ppshshsh쎯	-8.39431
nnzpzhpnn쎯	-8.3949
pshshpn0쎯	-8.39595
쎆쎀	-8.39934
.《	-8.4006
szs1쎯hzzpn0쎯	-8.40079
zhzs1쎯	-8.40158
hssnphp쎯	-8.40177
znzzhpszpn쎯	-8.40492
psphshh1쎯pzhhs0쎯	-8.40536
”pszhhpzn쎯	-8.40571
hshhzshznp쎯	-8.4059
phnphnhshhzn쎯.	-8.40855
szhs쎯hsshpn쎯	-8.40957
+	-8.41202
pszhhp쎯	-8.41278
hsshpznnphpn쎯	-8.41333
hpznpsnhhhsh0쎯	-8.41345
hhpsppp0쎯hpzznp쎯	-8.41408
phspnpznpzn쎯	-8.41685
shhzpnznszhhh쎯	-8.41899
hzzp0쎯	-8.41912
pznnnhpnpn쎯	-8.41921
hppzhh쎯pnhhpn0쎯	-8.41995
zpnp쎯	-8.42073
zphznszh쎯	-8.42362
szhs쎯nnpnzzzh쎯	-8.42388
hpszhzzh1쎯	-8.4253
”,	-8.42754
hpnnnznn쎯	-8.42786
nhpznzz쎯	-8.4279
pzzphszs쎯	-8.42797
hzhnnzzph쎯	-8.42873
zzhpznnn쎯	-8.42992
ps	-8.43099
zzshszhz0쎯	-8.43326
hsnzzznzpn쎯	-8.4355
nnzhhpz쎯	-8.43608
hpszhh쎯	-8.43722
nnpnzzzh쎯hspnn쎯	-8.43829
zzzzh쎯	-8.4386
zhhhshspnhszs93쎯	-8.43898
hszhzhhz0쎯ssnph쎯	-8.4423
zpznn쎯hhshpzpn1쎯	-8.44246
pz2쎯	-8.44298
nzzhszh쎯	-8.44396
psszpnsz0쎯	-8.44459
pnzn0쎯szhhhsh1쎯,	-8.44501
szhszhhhsshpzpn쎯	-8.44535
nhphspzhspz	-8.44646
hshhzn쎯	-8.44753
hshshhspnhszh쎯	-8.45049
szhsszhh쎯	-8.4507
nphhh쎯	-8.45188
hpszhhzzh쎯	-8.45359
nphhpnnzzn쎯	-8.45634
szhhz2쎯zzh0쎯	-8.45663
hzhphz0쎯	-8.45709
pszhhhhsh쎯	-8.45809
hzshszhhsshhh쎯	-8.45873
nphhs0쎯	-8.45875
,hsshhhpn0쎯	-8.45887
phnphnszhhhhps쎯	-8.46071
szpnhzp쎯	-8.46198
*	-8.46466
shhhzpznn쎯	-8.46568
zzhszpn1쎯	-8.46765
shzn1쎯hhshpzpn1쎯	-8.46878
pphs0쎯	-8.471
szhszhhszhh쎯	-8.47215
nphhshszssh쎯	-8.47289
zszpn쎯hhshszpn0쎯	-8.47318
ssnph쎯pznzp쎯	-8.47329
shhsszhhhpnszs쎯	-8.47343
shshspp쎯	-8.4771
zhhhhszzn쎯nhnph쎯	-8.47791
szhsnzpznn쎯	-8.48191
nhnphszhzzs쎯snz쎯	-8.48211
nzhs쎯	-8.48292
hpnn0쎯	-8.48474
zzshzzpn쎯	-8.48527
zzhzzhpzpppn쎯	-8.48728
쎂쎄	-8.48798
shhspnhspn쎯	-8.48821
ppszhszshn쎯hhz1쎯	-8.49219
szhshzp1쎯	-8.4969
znpznzh쎯	-8.49779
hsszppn쎯	-8.4987
nnzhz0쎯	-8.50015
shhsszhpn쎯nhpn2쎯	-8.50132
zzh	-8.50177
hzhnzpzhspn쎯	-8.50237
zpzzn쎯pznszhsh0쎯	-8.50355
nzpnpz쎯nhpn2쎯	-8.50379
nphhpnzz쎯	-8.50517
phhsssshpznhzs쎯	-8.50703
,nhpnnzzn쎯	-8.50986
pznzpszpn쎯	-8.51338
pszhhh0쎯hhznzp쎯	-8.51393
ppshshhzn쎯	-8.51543
zpnn1쎯	-8.51769
hzhpzszhpn쎯	-8.51845
hz0쎯	-8.51863
snpszszh쎯	-8.52104
psphzp쎯	-8.52298
hshsh0쎯hhshzn3쎯	-8.52323
hspnhhpsznp쎯	-8.525
hnzsnnpnszhsh쎯	-8.52806
pzhhs0쎯nzhp쎯	-8.52832
zzhnphspnz쎯	-8.52844
nzhp쎯	-8.52895
h쎯nnzhpzpppn쎯	-8.53051
psnzhshpszhh쎯	-8.53115
nnnhzhpphs쎯nnnhs	-8.53399
shz0쎯szhshpnps0쎯	-8.53433
,hppzhh쎯	-8.5359
hsszhpznn쎯	-8.53613
pns쎯pn2쎯	-8.53792
pzzh쎯	-8.53854
pphszh쎯,	-8.53887
hszpnn쎯	-8.53964
zpznn쎯phhsh1쎯	-8.53974
szhszpn3쎯,	-8.54046
hshhhspnpzpn쎯	-8.54137
hhshn0쎯	-8.54215
psszs쎯	-8.54299
pnpnpn0쎯	-8.54304
szhhhshznzz쎯	-8.54328
zpn4쎯	-8.54483
hpn1쎯hhpsszhsh쎯	-8.54624
쎈쎀	-8.54653
nzhshpszhh쎯	-8.5493
nzszhshpzhh쎯	-8.55068
hszhsh0쎯	-8.55147
hpzznpszssh쎯	-8.55168
pnhhzn쎯nzpnn쎯	-8.55174
hhspn1쎯	-8.55192
szhshszpn0쎯	-8.5527
pznnphhsh쎯	-8.55417
psshpszpn쎯	-8.55502
pzhh1쎯	-8.55701
pnhhpn0쎯pzznzpn쎯	-8.55706
nhpnsz쎯	-8.55985
hhpnszh쎯nzszhpn쎯	-8.56185
nhzp쎯nnnhshzn쎯	-8.56395
pszhshhzhzn쎯	-8.56554
phhsh1쎯phshpzpp쎯	-8.56576
phspnnpszhpz쎯	-8.56635
nhpnpssz쎯	-8.56777
nhnphhspn쎯	-8.56961
nhpphshzzn쎯	-8.57054
szszs0쎯phhsh1쎯	-8.57103
nhp쎯hzzpn0쎯	-8.57116
pnnphspn쎯	-8.57171
hhszs0쎯	-8.57252
hhsh1쎯nnnphsszh쎯	-8.57549
nphzsppzhhhsh쎯	-8.57574
,hpszss쎯	-8.57604
nhzpphhsshhhpn쎯	-8.57639
ssznhsh쎯	-8.57908
nnnnhhsh쎯szszh1쎯	-8.5799
znhsh0쎯	-8.58075
nzhhps쎯	-8.58162
쎃쎂	-8.58259
hpszhhhpzn쎯	-8.58259
zsh0쎯phhsh1쎯	-8.58363
hpzshhpszpn쎯	-8.58562
nhphpn쎯	-8.58577
pzhz0쎯	-8.58868
nnphpnnhhhszh쎯	-8.58873
hzhpszpn0쎯	-8.58881
pnhzn쎯	-8.58924
......	-8.58952
zhphz0쎯	-8.59147
phhpn0쎯	-8.59238
nhpsnz0쎯	-8.5934
nhzp쎯hhshzn3쎯	-8.59344
zshpnszhshn쎯	-8.59559
zzszhhzpn쎯	-8.59748
hsshhhpn0쎯szhs쎯	-8.59773
nzshh쎯	-8.59941
phshszhphhhshhh쎯	-8.60133
hshhshhzn쎯	-8.60217
hhspn0쎯	-8.60305
shhsszphspnh쎯	-8.60374
nhhsh쎯pnn0쎯	-8.6042
hhhshspnhszs129쎯	-8.60521
.nhpnnzzn쎯	-8.60848
hhshpzhhpzzhhz쎯	-8.6093
hzshnnzphshszh쎯	-8.61142
hzhnhpz쎯	-8.61174
szhhhshpn쎯h쎯pns쎯	-8.61346
znpznnhzhz쎯zp1쎯	-8.61462
,hpsn0쎯	-8.61697
pshpznsz쎯	-8.61789
pss쎯	-8.61872
szspznhhhs1쎯	-8.61929
h쎯ppznnhpzzn1쎯	-8.62535
nnnphshpz쎯	-8.62641
,hsshhhpn0쎯szhs쎯	-8.62676
pznnpzzn1쎯	-8.62698
szshpszh0쎯	-8.6291
—	-8.62975
nhpsnszhhh0쎯	-8.63133
nnzszhszh쎯	-8.63186
phhhz	-8.63334
pzzhhz쎯	-8.63455
zszhphpnnhhhszh쎯	-8.63644
nnnzpnnhspn쎯	-8.6372
szhhhzn2쎯,	-8.63775
nhphzhs쎯	-8.63775
hpnzpzpn쎯	-8.63832
hphzphznp쎯	-8.64345
hshszh0쎯	-8.64416
hssznphhshpnn쎯	-8.64779
hnzsnnpnhphhzpn쎯	-8.64803
hshzhpn1쎯	-8.64871
hnhnphszh쎯nzpss쎯	-8.65036
pnzp쎯hspnpphs0쎯	-8.65078
쎁쎀쎀	-8.65594
nnnszhhssnph쎯	-8.65619
pszhhpzn쎯p	-8.65642
hpznsz쎯	-8.65822
hzzppsnhhhsh쎯	-8.66528
nhpn0쎯snzszhh쎯	-8.66565
ppznnhpzszh1쎯	-8.6659
zphhsshhhspn쎯	-8.66593
pn2쎯hzp0쎯	-8.66668
쎂쎂	-8.66754
nzzpn1쎯	-8.66837
phnphnzhzsp쎯hhh쎯	-8.66867
hzhpszhh쎯	-8.66907
zzspzhh쎯	-8.66928
szhshzzs0쎯	-8.6702
hs1쎯	-8.67063
hsshpn쎯nhnphp쎯	-8.6707
ppzhpphs쎯hppzhh쎯	-8.67128
nnnpzhspn0쎯	-8.67209
nhnphp쎯szhszh	-8.67281
pshz1쎯nnpnzzzh쎯	-8.67433
phhhzzhhhhszzn쎯	-8.67633
hspnnhzppn쎯nznn쎯	-8.6765
hhshphhspn쎯	-8.67653
nnnzzpp쎯	-8.67665
hpszhpzszn쎯	-8.67834
zhhznnpn1쎯zh	-8.67884
pshzszpn쎯	-8.68015
psszhphhpn1쎯	-8.68043
nzhnphs쎯	-8.68162
zphzsz쎯	-8.68277
phhz1쎯	-8.68293
phhs2쎯	-8.68468
pnphspnszhsh	-8.68638
zpszhhspn쎯	-8.68725
nnnphhz쎯hzhs0쎯	-8.68765
szhs쎯,	-8.69077
hpszhszszs쎯	-8.69091
hsh2쎯hssz0쎯	-8.6911
nnnpnnpzznhpn쎯	-8.69121
hzshpzpn쎯	-8.69248
,szhshshhszhh쎯	-8.6927
nhzppnnn쎯	-8.69496
pnzzsz쎯psphshh1쎯	-8.69859
pn2쎯szh0쎯	-8.69867
hpzhphszhszznp쎯	-8.69934
szhshn	-8.70071
szhs쎯hphhpnz쎯	-8.7013
phhspnhsshszhh쎯	-8.70187
nhpn0쎯h쎯.	-8.70249
nnnnnzpnpnszh쎯	-8.70266
pnhzszh쎯	-8.70316
zpszh0쎯hsh2쎯	-8.70349
nhpnnphhpn쎯	-8.70451
phspnnppn0쎯	-8.70653
hzshpnpz쎯	-8.70907
hshpzhh0쎯	-8.70924
hpszhhszhhpn쎯	-8.70928
hpn1쎯pszhhpzn쎯	-8.71245
zzhpzzshz쎯	-8.71343
nphhshphsh쎯	-8.71357
npzn0쎯zz2쎯	-8.71407
pznzh쎯	-8.71445
zzsnhnphszhhhs쎯	-8.71448
phs0쎯	-8.71505
zpznn쎯hhshszpz쎯	-8.7155
nnzhspn쎯	-8.71573
pszsz쎯pssnz쎯	-8.71827
pszhhzzpn쎯	-8.71836
nzhs쎯hznpsz쎯	-8.71989
nhpn2쎯psphhs1쎯	-8.72268
=	-8.72276
nhpspnsn쎯	-8.72322
hzhzpszh1쎯	-8.72484
szhhpzhhszssh쎯	-8.72535
hhps1쎯	-8.7262
,szhsh2쎯	-8.72651
nnzszhhs쎯	-8.72747
hszsshhhspn쎯	-8.7278
hspnhsshszhshpn쎯	-8.72787
pn2쎯zhzhz0쎯hsh	-8.72823
szhshn쎯	-8.72941
ssphnszpz쎯	-8.72973
pz0쎯ppzhpphs쎯	-8.73033
hsszhhhshhzs쎯	-8.73037
pnhznzzs쎯	-8.73044
nhnphszhhhsh1쎯	-8.7312
psnhhhshnnnn쎯	-8.73123
hszhhshnnznn쎯	-8.73198
npzn0쎯nhhsh쎯	-8.73369
nnzphshszh0쎯	-8.73569
hzzpn0쎯shhhz쎯	-8.73805
nhphsh쎯	-8.74025
zzspznhphhsh쎯	-8.74044
hzshhpzhhsn쎯	-8.74057
nnnszhhszsshzn쎯	-8.74103
nhszhnzpz쎯	-8.74123
zhz1쎯zzhznhsh쎯	-8.74278
zhpszhnhnphhs	-8.74409
nnphsszh쎯hhznzp쎯	-8.74519
hpszhnhp쎯	-8.74536
hssnphszhh쎯	-8.74654
nhpspznn쎯	-8.74707
pnphspnznhhs쎯	-8.74724
nnzpznszhhpszpn쎯	-8.7482
sszshzznzpnphpn쎯	-8.75052
zsphpn쎯pn3쎯	-8.7507
zpn3쎯nnpnzzzh쎯	-8.75269
psshnpn쎯	-8.75303
pzszhshhszhh쎯	-8.75306
hznnpnnphpn쎯	-8.75391
zzhz0쎯	-8.75409
pspnpz쎯	-8.75438
hpzznp쎯szhszpn3쎯	-8.75733
.nznhzppn쎯	-8.75762
hspnphzznnh쎯	-8.75773
>	-8.75837
nhpsnhsh쎯hpnz0쎯	-8.75845
'	-8.75852
”、“	-8.75876
znnznn쎯	-8.75937
--	-8.75987
nhpnnzzn쎯pns쎯	-8.76005
shpn쎯phspnszh1쎯	-8.76048
szhphsh0쎯	-8.76352
hspnshhzpnzn쎯	-8.76563
nppnhzphpz쎯	-8.76608
hsshz0쎯zzhzhz쎯	-8.76658
hzhznhhs쎯	-8.7671
쎄쎅	-8.7672
hhshhhpz쎯	-8.76759
pszhhpzn쎯h쎯pns쎯	-8.76836
hhshshzn1쎯sz	-8.76976
szszs0쎯hhshszpz쎯	-8.77217
hhhshspnhszs128쎯	-8.77225
hshszhnphzpszh쎯	-8.77275
phspnsz쎯pzhhs0쎯	-8.77285
hssssphnszssh쎯	-8.77451
pzszhpz쎯	-8.77485
pnzp쎯zzh0쎯	-8.7749
shhsnzhhpzpppn쎯	-8.77787
pzpszhshn쎯nhnph쎯	-8.78041
nnpszhhnhzpphpn쎯	-8.78067
쎃쎅	-8.78253
hspnpnzz쎯	-8.78279
nnznszh쎯nhpnnzz쎯	-8.78371
nnzpzhzzp0쎯	-8.7838
hshzsz쎯nhzp쎯	-8.78395
hszpnpn쎯pns쎯	-8.78397
쎂쎃	-8.78484
pnhhsnph0쎯h	-8.78505
zhpnnn쎯	-8.78522
phnphnhspnszhhh쎯	-8.7863
szhhhzn2쎯pshzn1쎯	-8.78688
nnnszhszh0쎯	-8.78689
pnhpszs쎯	-8.7876
93쎯pn2쎯zhzhz0쎯hs	-8.78816
쎁쎉	-8.78831
hszhnph쎯	-8.78962
phzznnh쎯	-8.79106
pspnpnszh0쎯	-8.79177
nnzhhpz쎯hpzznp쎯	-8.79231
hhpn1쎯	-8.79265
hspnhspnhspn0쎯	-8.79297
pzszhshh	-8.79336
zzhzhz쎯	-8.79342
hnphs쎯znszh0쎯	-8.79344
nsn	-8.79382
:“	-8.79391
hspnzzpp쎯	-8.79411
nzhs쎯phnphnszh	-8.7948
nnnpzzn2쎯	-8.79496
nnpnzszpz쎯	-8.79579
nnnpznszh0쎯	-8.79946
nzszhpn쎯	-8.80125
nhpnps쎯	-8.80158
npnsns쎯nhszs쎯	-8.80205
phspnpznzzn쎯	-8.80208
pspzzpnnznn쎯	-8.80265
nhphspn쎯	-8.80328
nnnhsh쎯hsszppn쎯	-8.80424
zzhnhpn0쎯	-8.809
ssznzznzpn쎯	-8.81028
hzshszhsh쎯	-8.81106
hhhpnznnpn쎯	-8.81147
hpzznp쎯hshzp2쎯	-8.81274
pzszpn쎯	-8.81367
nhpn0쎯h쎯	-8.81413
pzpzhshszhshn쎯	-8.81436
zzshhszs쎯	-8.81662
hzhpznzp쎯	-8.8191
hphhpnz쎯nhpnnzz쎯	-8.81955
nzhhzpn쎯	-8.82009
pszhzhnzzn쎯	-8.82113
hpznhz1쎯	-8.82132
hhshszpn0쎯	-8.82232
szhs쎯nhpn2쎯pzns	-8.82238
hszsn쎯nnnhshzn쎯	-8.8248
쎂쎆	-8.82484
psszhshpn쎯	-8.82506
pzzpzpn쎯	-8.82714
pshh0쎯	-8.8273
zzhpzhz쎯	-8.82778
nnzpzpz0쎯phhsh1쎯	-8.82919
hppszhhzpnnznn쎯	-8.83069
hpszh	-8.83102
phspnpz2쎯	-8.83106
pnhz0쎯	-8.83158
hshznzs쎯	-8.83306
szpzh0쎯pss쎯	-8.83333
nnnhpzhhsn쎯	-8.83544
hzphhpnznzshpn쎯	-8.83639
쎇쎀	-8.83874
nnnhz2쎯	-8.83894
szhhpzszhpz1쎯	-8.83924
hspnhspnpzn0쎯	-8.83937
npzhh쎯	-8.84146
hhznzp쎯phshpzpp쎯	-8.84416
pnps쎯zzhzpszh0쎯	-8.84421
pszhhpzn쎯“	-8.84443
hpzn1쎯	-8.84486
phhpzzsszs쎯	-8.84582
hspnsnpzhh쎯	-8.84598
phhhzhsshszhh쎯	-8.84725
hhshszpz쎯hpshsh쎯	-8.84779
pszhhpzn쎯zpznn쎯	-8.84956
zhhzpnnzzn쎯	-8.85208
~	-8.85309
pznh쎯	-8.85314
shhsszhhhpnhsh쎯	-8.85326
hhhshspnhszs115쎯	-8.85395
zpn3쎯nznpszhpz쎯	-8.8548
쎉쎀	-8.85496
hszsn쎯hszhshzs쎯	-8.85557
nhphspzhspz0쎯	-8.85625
hzhhppnn쎯	-8.85683
쎂.	-8.85703
nnpnhzn쎯	-8.85719
nppnszhpnh쎯	-8.85802
hznhshsz쎯zz2쎯	-8.85838
nhnphpppphpszpn쎯	-8.85873
szhhszhh0쎯	-8.86109
nnzszhhh쎯	-8.8612
hzhhhspshzhh0쎯	-8.86177
phhhzhhznp쎯	-8.86217
,hszhz1쎯	-8.8629
쎇pzhh1쎯	-8.86413
ppsznhsh쎯	-8.86471
pnpnszh0쎯	-8.86533
,pshszhpn쎯	-8.86538
zzspznhzs쎯	-8.86636
pnzn0쎯szhhhsh1쎯	-8.86638
szhhhpn0쎯	-8.86648
hhshszpz쎯hppzhh쎯	-8.86841
pznpzn0쎯phhshs쎯	-8.86934
nnnpzszh0쎯	-8.87253
hshshpn쎯	-8.87264
szpn1쎯pznsn쎯	-8.87284
pspszhh쎯	-8.87544
pnhhspnnzzn쎯	-8.87667
pz3쎯	-8.87777
hzp0쎯	-8.87893
nhpzpn1쎯	-8.87914
szhpphs0쎯	-8.88078
h쎯hhpzpn0쎯	-8.8812
쎂쎈	-8.88221
pzszhpznpzn쎯	-8.88303
,zhhznzs쎯	-8.88389
phspnzzh0쎯	-8.88522
nhnphp쎯phhsh1쎯	-8.88527
hzhpzn1쎯ppshhz쎯	-8.88633
pznnpzzhz쎯	-8.88661
npzn0쎯“	-8.88678
쎂쎁	-8.88708
쎃쎆	-8.8902
zzhnnzpshpszhh쎯	-8.89172
h쎯nnzhshpn0쎯	-8.89243
hphz0쎯	-8.89368
shhsp	-8.89426
pzzhhnznn쎯	-8.89461
pznnshhsszhhhpn쎯	-8.8952
hsszzsnhnphp쎯	-8.89724
h쎯shshhzhh쎯	-8.89835
hhssz쎯	-8.89899
zzshshpzpzn쎯	-8.90024
pnnpzzhz1쎯	-8.90028
shnpn쎯shh쎯	-8.90084
pszhphhpn쎯	-8.90168
zzspzphhszs쎯	-8.90201
hszsnnpn쎯	-8.9043
zph	-8.90493
hhshszshpszss쎯	-8.90694
nnzhzn쎯	-8.90717
zhshszhpsnhhhsh쎯	-8.91075
pshshzzn쎯	-8.91138
hnzsnnpnzhh쎯	-8.91175
hnphhsnpnhnphhs쎯	-8.91183
zznnh쎯	-8.91215
hhhps쎯hspnpz2쎯	-8.91244
pnhhzn쎯nzhs쎯	-8.91375
zzpn0쎯hnphs쎯	-8.91493
pznnnzzpn쎯	-8.91645
phshpz쎯pphszh쎯	-8.91705
hspnzhhznhzpz쎯	-8.91736
nzhpzznp쎯	-8.9181
hnzsnnpnpnhzn쎯	-8.91841
szhhhshpn쎯h쎯	-8.9203
nphszpzhhhzn쎯	-8.92106
shhshsszh쎯	-8.92345
hsh2쎯psphshh1쎯,	-8.92548
hpzpppnnzzn쎯	-8.92598
szhhszhhszhh0쎯	-8.92628
zhpphhz쎯	-8.92702
shszh1쎯	-8.92706
nzszh쎯	-8.92725
zzhzpn쎯	-8.92767
shhsphszhhhsh쎯	-8.92941
nhpnnhshsh쎯	-8.93313
)、	-8.93514
nnzhhsshpnhsh쎯	-8.93637
...	-8.93701
hszsn쎯nzzhz쎯	-8.93965
szhpnhnznn쎯	-8.93972
nnhphszhznp쎯	-8.94116
hsshpn쎯szhszh1쎯	-8.94179
pszhhpzn쎯n	-8.94683
pznnnpszhpz쎯	-8.94928
pnpnhsh쎯	-8.95099
hpzp쎯	-8.95107
phhsh1쎯hhz1쎯	-8.95108
nsnznhsh쎯	-8.95109
nppnhz쎯	-8.9521
szpnpzzn쎯	-8.95358
zzhhzsz쎯	-8.95407
hsshhhspn쎯	-8.95431
pshsshszhh쎯	-8.95645
phsphz쎯	-8.95878
pz	-8.9591
shsh쎯	-8.95935
zhhpszh쎯	-8.95983
쎃.	-8.96056
nhp쎯nnnpnhpn쎯	-8.96095
sszhh쎯	-8.96307
nnnsnzhhsh쎯	-8.96326
hhhznhnphszhhpz쎯	-8.96448
pszhhhs쎯psnhnph쎯	-8.967
psszhhh1쎯	-8.96771
zzhpnhhzn쎯	-8.96827
npszhshhszh쎯	-8.96916
phzpnnhpzhhsszh쎯	-8.96945
nhhsh쎯hzhhshhzn쎯	-8.97048
hshzn1쎯	-8.97085
szsshhshpszhh쎯	-8.97163
nnnszhsnzpznn쎯	-8.97218
,hsszhphpn쎯	-8.97314
szhshshpznszh쎯	-8.97723
snpnzszhphhz쎯	-8.97744
쎂쎇	-8.97851
szpznnnh쎯hszsn쎯	-8.97911
psnhszhnzhz쎯	-8.98416
nsnhpsn쎯	-8.98436
zhszh1쎯	-8.98455
hssnphnznn쎯	-8.98617
hpszhhpszpn쎯	-8.98734
nzhhzpn쎯zphzzh0쎯	-8.99064
nzhnphs쎯npzn0쎯	-8.99177
pznnphszhhpzn쎯	-8.99346
hspnhzn0쎯zhzhz0쎯	-8.9958
nnnhszhz0쎯shhhz쎯	-8.99586
hsh1쎯nnpnzzzh쎯	-8.99695
nhzpphpn쎯pn3쎯	-8.9972
zpznn쎯ppshhz쎯	-8.99952
129쎯hshnznn0쎯	-9.00266
nphhshnnnnhsh0쎯	-9.00296
nnszhs쎯	-9.00511
hsh2쎯psphshh1쎯.	-9.00541
쎃쎃	-9.00553
hhs쎯nhnphszhzzs쎯	-9.00585
pnhhsh쎯hspnhzn0쎯	-9.00607
pznpzn0쎯hhpzpn0쎯	-9.00786
nphzpnnhnph쎯	-9.00854
nzhsshpszh쎯	-9.00957
pnzp쎯szhzpsz쎯	-9.0104
szspnhzn0쎯	-9.01163
nnnhpzhhsnhzn쎯	-9.01244
szshphhs1쎯	-9.01309
phhznphhhs쎯	-9.01407
nnhsszhhhspzhh0쎯	-9.0147
pn2쎯phshpzpp쎯	-9.01686
쎄쎈	-9.01848
,zphszh1쎯	-9.0191
pzhhnhpnzs쎯	-9.0196
zpznn쎯hpszs0쎯	-9.02016
hshphpn1쎯	-9.02061
pszhhpzn쎯h	-9.02379
szhhz2쎯nnnzsz쎯	-9.02412
zsz0쎯szhhhshpn쎯	-9.02544
szhpnhszh쎯	-9.02586
pn0쎯nhnphszhzzs쎯	-9.02652
pzn1쎯	-9.02716
zpnszh쎯nzpzszhh쎯	-9.02723
nnnhzshpphs쎯	-9.02826
shhspzppnnznn쎯	-9.02895
hznpsz쎯	-9.0295
hhpsnzn쎯pn3쎯	-9.02978
nzpzpn0쎯zhzhz0쎯	-9.03018
szhszpn3쎯.	-9.03129
zzshszhsznphs쎯	-9.03162
hzhpphs1쎯	-9.03186
hhshpzn3쎯	-9.03338
hhsszhnhnphhs0쎯	-9.03341
hnphszhh쎯pzzpn0쎯	-9.03416
h쎯hshshpnzhz0쎯	-9.03444
nnnszhhhzhz쎯	-9.03468
hsshhh쎯	-9.03557
shzphzssnph쎯	-9.03611
pnzp쎯hpszs0쎯	-9.03615
pn2쎯pszhhpzn쎯	-9.03619
phhhzsnpszpn쎯	-9.03643
hszhshszhz쎯	-9.03654
shshhzzznzpn쎯	-9.04
h쎯hsszhhhh0쎯	-9.04233
pznhspn쎯psphhs1쎯	-9.04339
szhshshhhznp쎯	-9.04411
pnhhsszh쎯	-9.045
nphzpnnzzn쎯	-9.04674
nnphpnhhs쎯zpnn1쎯	-9.04713
hssz0쎯	-9.04733
pshspn쎯	-9.04833
hshshpnhsshhhzn쎯	-9.04933
shhshpszh쎯	-9.0502
zznnhphpnzznzpn쎯	-9.05053
szhhszshnnzzn쎯	-9.0515
shszh1쎯hshzsz쎯	-9.05158
nzznhhs쎯	-9.0538
phhsh1쎯hpnnnznn쎯	-9.05404
쎂-	-9.05466
pshznhshsz쎯	-9.0548
znhpnppp쎯hszh0쎯	-9.05562
hhhpnhhs쎯	-9.05671
pspzszhshhpnhhz쎯	-9.05698
zzhhhshszpn쎯	-9.05818
,pszsz쎯	-9.05883
hphspzhspzhpszh쎯	-9.05938
pznnhshznzs쎯	-9.06124
,snnpnnphzn쎯	-9.0625
zhphznhsh쎯	-9.06253
nnnhhpnhhpnszhh쎯	-9.06266
hhhphzn0쎯	-9.06288
hspnhpsn쎯	-9.064
pn2쎯pssnz쎯	-9.06447
hshpszhh쎯,	-9.06471
nphzpnnnhs쎯:	-9.06551
phhhzszhszh쎯	-9.06564
zhhznhzpz쎯	-9.06615
nzhhpzhzn쎯	-9.06654
hspnpz2쎯pnhhpn0쎯	-9.0668
phhhzpszhhszs쎯	-9.06684
nhzpphzshpn쎯	-9.0687
pzzn3쎯hsshhhpn0쎯	-9.06919
nnzpzpz0쎯	-9.07
쎆쎄	-9.07023
pn2쎯nphzpnhpn0쎯	-9.07091
nhszhzzh쎯	-9.07234
nnszhpz쎯	-9.07242
쎉pzhh1쎯	-9.07285
phnphnpshzn0쎯	-9.07295
hzhpphsszh쎯	-9.07327
pznszh1쎯.	-9.07373
szszs0쎯zz2쎯	-9.07435
hhhshspnhszs104쎯	-9.07527
ppspnhhspn쎯	-9.07617
hssnzzp쎯hhznzp쎯	-9.07667
nhphsshszs쎯	-9.0767
hpszzh쎯hpshsh쎯	-9.07686
》(	-9.07822
,szhszh1쎯	-9.07844
pnhhpn0쎯hhz1쎯	-9.07944
hpsnnzzn쎯hppzhh쎯	-9.07974
szhszhszhhspn쎯	-9.08006
,znhzn0쎯	-9.08022
phsshhhzpn쎯	-9.08048
hzhpzn1쎯	-9.08177
쎂쎀쎁쎀phhshs쎯	-9.08312
hhznnzzn쎯ppshhz쎯	-9.08459
hzhszhszpn쎯	-9.08502
hpznhhhznp쎯	-9.08579
nppnpzzhz쎯	-9.0869
hpznphhspn쎯	-9.08726
nnnhsshpn쎯	-9.08809
hszpzh쎯shhhz쎯	-9.08927
hpn1쎯pnhhzn쎯	-9.08945
hhpsszhsh쎯:	-9.08984
zsh0쎯	-9.09108
hzhshnpn쎯	-9.09125
nhp쎯npnsns쎯	-9.09163
pzphshpnszhh쎯	-9.09286
nnzhhsshpnnn쎯	-9.09371
nnzzpn쎯	-9.09566
nhzp쎯nnzzphhspn쎯	-9.09616
nh	-9.09645
nphzpnnzhhzpn쎯	-9.0975
》,	-9.09967
nhpspnszhhpzpnz쎯	-9.09985
nnpzzhhz쎯	-9.10002
nhnphszhpz쎯	-9.10074
hsszh쎯pshzn1쎯	-9.10084
hhhshspnhszs123쎯	-9.10101
쎃쎈	-9.10113
nhpn2쎯szhhpzhh2쎯	-9.10195
h쎯nhnphszhzzs쎯	-9.10349
nnnnzpzpn쎯	-9.10452
hzzpn0쎯nhzp쎯	-9.10525
nhpszhsh0쎯	-9.10753
szhhshnh쎯zhzhz0쎯	-9.10776
zzhnhhsh쎯	-9.10849
《szhs쎯szhhshnh쎯	-9.10856
nhppshznszpnpn쎯	-9.11055
쎈pzhh1쎯	-9.1146
phhspn0쎯	-9.1146
nnnhsh쎯hszpzh쎯	-9.11626
pspnn쎯	-9.11722
szhzs1쎯	-9.1175
hshpszhhnnnn쎯	-9.11819
쎁pns쎯	-9.12009
szhphz0쎯	-9.1206
nhszhnzhz쎯	-9.12083
(쎁).	-9.12109
hspnnhhsh쎯	-9.12875
nnzzph쎯pp	-9.12879
hhsh	-9.13091
hzzp1쎯	-9.13206
쎂쎀쎀쎈phhshs쎯	-9.13216
nphhpnzzs쎯	-9.1331
zh1쎯phspnpzzpn쎯:	-9.13328
shzphzpz쎯	-9.13418
h2쎯phspnszhphsh쎯	-9.13847
nnnnppnnppn쎯	-9.14192
nnnhshszh쎯	-9.14433
hzhzpszhh쎯	-9.1448
쎂쎀쎀쎉phhshs쎯	-9.14491
hshshsh쎯	-9.14506
nhp쎯hpn1쎯	-9.14519
》szhhhshpn쎯	-9.146
nsnszhhszsshzn쎯	-9.14614
nhpnn	-9.14637
쎅쎅	-9.14644
phshpz쎯phhsh1쎯	-9.14705
hznhsh쎯pnhz0쎯	-9.14868
,nnzpz1쎯	-9.15282
zhhhhszzn쎯hhz1쎯	-9.15289
sshppsphszhhpzn쎯	-9.15372
nphszs쎯shhsnnnz	-9.15636
nznppnnppn쎯	-9.15651
shhsszhhhpn0쎯	-9.15716
hpszhpszhhphs쎯	-9.15723
hsshszhhszp쎯	-9.16041
,p	-9.16095
nhpnnzz쎯	-9.16158
hphsh1쎯	-9.16196
shhszzzpnhnnnn쎯	-9.16244
hpznsznnnn쎯	-9.16292
pnhnnphsz쎯	-9.16302
hhshpnppp쎯	-9.16412
hzhpsnhhhsh쎯nhp쎯	-9.16499
nzphhs쎯pznpzn0쎯	-9.16503
nppnhsshhhspn쎯	-9.16608
nhpnnznpzhhs쎯	-9.16659
pzzn0쎯	-9.16692
쎁쎂pzhh1쎯	-9.16749
nppnzpnp쎯	-9.16787
pnzn0쎯szhhpzh쎯	-9.17113
h쎯hshhhspnpzpn쎯	-9.17178
,npszsnphszhh쎯	-9.1748
hhssnph1쎯hhspn2쎯	-9.17486
hshszpn2쎯	-9.17524
hspnpnnzpn쎯	-9.17568
phsnzzn쎯	-9.1773
hsshszhhhshzp쎯	-9.17752
nphhhs쎯	-9.17776
182쎯nnzhshpn0쎯	-9.17886
쎂쎉	-9.17937
zzspnps쎯	-9.17945
pznnn0쎯	-9.1804
zzspzzhhnznn쎯	-9.18121
’	-9.18265
쎃쎄	-9.18309
nhpn0쎯h쎯,	-9.18325
zpnhpn쎯	-9.18418
nppnnppn0쎯	-9.18459
pznnhhs쎯	-9.18471
쎀%	-9.18494
nnnnzpz0쎯	-9.18497
psppzhszhss쎯	-9.1852
》nzhshhzn쎯:“	-9.18526
쎄-	-9.18576
hhpn0쎯nnnzhhhhs쎯	-9.18603
szhpsnhhhsh0쎯h쎯	-9.18627
szhnzzn쎯	-9.18714
szs1쎯hszpzh쎯	-9.18736
,szhhhhpn1쎯	-9.18753
쎃쎇	-9.18833
szpn1쎯hpszzh쎯	-9.18849
pshpnn1쎯	-9.19007
pzhpzz0쎯	-9.19012
hshhsnphszszhh쎯	-9.19104
hshszhnphhszn쎯	-9.19308
hsshnphspn쎯	-9.19614
hssnzzp쎯	-9.1965
sznphhpnzzh쎯	-9.1968
pzzshz쎯,	-9.19904
nhszs쎯hshshphpn쎯	-9.19948
snznpszhpz쎯	-9.20057
nnhs쎯	-9.20059
쎂쎀쎀쎇phhshs쎯	-9.20134
쎂쎀쎀쎆phhshs쎯	-9.20178
hpszpn쎯	-9.20244
szhszhsnznn쎯	-9.20323
phhhzszhs쎯	-9.20411
znpzpn쎯	-9.20484
nhpzpnnzzn쎯	-9.20609
.hsshhhpn0쎯	-9.2093
nznnp쎯	-9.2095
szhhshnh쎯pznzp쎯	-9.21005
쎁쎀pzhh1쎯	-9.21066
nphzpn쎯.	-9.21073
쎆쎅	-9.21239
pshhzn1쎯》:“	-9.21282
phhz0쎯hspnpz2쎯	-9.21438
hhhpnphspn쎯	-9.21517
쎅쎆	-9.21539
nnnpnhhspn0쎯	-9.21586
szhhh0쎯	-9.21606
psphzhznp쎯sz	-9.21648
szszs0쎯phhsh1쎯,	-9.21693
snnzhhpz쎯nhszs쎯	-9.21723
zzhzhz쎯pnhznznn쎯	-9.21868
pszn0쎯	-9.22197
pnzp쎯npzn0쎯	-9.22202
hsshhhszhshhz쎯	-9.22378
nnnnzpz1쎯	-9.22408
szhhnhnphszhh쎯	-9.22496
hzzpn0쎯shh	-9.22608
hshnhpzhhsszh쎯	-9.22669
hsh0쎯hshzsz쎯	-9.22702
nnpszpnphzpnhpn쎯	-9.22708
hhshhhshpnhz쎯	-9.22754
hzhhshhsh쎯	-9.22803
h쎯zzhpzzn쎯	-9.22804
hzhhzhhshpn쎯	-9.2284
phnphnpnhnnph쎯	-9.22887
pshsh0쎯	-9.22953
szhhszsshzn쎯	-9.22954
nzhhshpzhh쎯	-9.23059
hpszhnphzznzzn쎯	-9.23255
쎂쎀쎀	-9.23294
hpznsznhpzpn쎯	-9.23522
hpsn0쎯hszhz1쎯	-9.23593
h쎯hzzp0쎯	-9.23717
쎇쎅	-9.23745
nzpzzn쎯nhnph쎯	-9.23875
shhszhshhszhshh쎯	-9.23899
ppznn쎯	-9.24084
ppznnhszpz쎯	-9.24084
hshzsz쎯nhnphp쎯	-9.24118
shshpnzs쎯	-9.24123
zphpzhzszhh쎯	-9.24175
szhszpn3쎯hsh2쎯	-9.24201
hszhsz0쎯	-9.24301
phsshhshh쎯	-9.24318
nzpszhhhphzn쎯	-9.24417
.npszsnphszhh쎯	-9.24456
hpszsshzn쎯	-9.2459
nppnphshh쎯	-9.2473
shhshspnh쎯	-9.24731
°	-9.24863
쎃-	-9.24886
153쎯nhzpphphhpn쎯	-9.25108
zp0쎯	-9.2525
hznpz쎯	-9.25332
pshs쎯pzn2쎯	-9.25409
hpznhsszhhhh쎯	-9.25479
zsphpn쎯shh	-9.25501
쎄쎂	-9.25524
,pnpn1쎯	-9.25555
szhh	-9.25581
》phnphnhshhzn쎯	-9.25661
hhshszhhhsh쎯、	-9.25665
shnpn쎯hnphspn쎯	-9.25834
nnnhhhznp0쎯	-9.25854
hhhshhhszhhnznn쎯	-9.25891
.쎇	-9.25916
shpznzn	-9.2607
nnnshshspp쎯	-9.26125
쎄.	-9.26179
hshshpnpn0쎯	-9.26333
.쎄	-9.26458
szhshsh	-9.26495
nnspznhszpzhh쎯	-9.26503
zhzh	-9.26541
zhphsshpnpzzn쎯	-9.26552
hspnhshhsh쎯	-9.26581
쎀.	-9.26728
hszhspn쎯	-9.26743
nnnnzhhzpn쎯	-9.26817
-쎂	-9.26928
ppzhszhssnzzn쎯	-9.27097
pznszh1쎯npzn0쎯	-9.27343
쎄쎃	-9.27418
hpnppn0쎯	-9.27468
znn0쎯	-9.2748
쎆pzhh1쎯	-9.27524
hpszhhszhhpn쎯sz	-9.27578
hshnzhpz쎯	-9.2758
szhsh2쎯hhz1쎯	-9.27581
hzhzhphznhsh쎯	-9.27658
phhspnhhps쎯	-9.27809
pnpnszhpzpn쎯	-9.27817
pssnz쎯	-9.2788
,szhs쎯szhhshnh쎯	-9.27913
、sz	-9.27931
ppsphhshzzs쎯	-9.28001
nnnpzzhz쎯	-9.2813
,nhszhzpnhpzn쎯	-9.28137
szhshshhpnhhz쎯	-9.28147
nnnhszhzpn쎯	-9.28181
hhpz1쎯zzhhhznp0쎯	-9.28301
,zsz0쎯	-9.28423
hzszhpszpn쎯	-9.28618
zpnp쎯phhshs쎯	-9.28642
pnps쎯	-9.28657
hnphspn쎯pszhhh0쎯	-9.28753
szhzph쎯pshspnh0쎯	-9.28791
ppsszhhhhzn쎯zz2쎯	-9.28798
szhpnh쎯npzn0쎯	-9.28852
shh쎯pszhhpzn쎯	-9.28939
szhszpn3쎯、	-9.28954
hhhshspnhszs113쎯	-9.29166
-쎁	-9.29206
쎂쎀쎀쎅phhshs쎯	-9.29246
pnzzsz쎯zpnn1쎯	-9.29261
쎄쎄	-9.29268
쎅쎀쎀	-9.293
psszhhhhpn0쎯pzz	-9.29302
,szhhhsshhhzn0쎯	-9.29494
pszsz쎯pszhhpzn쎯	-9.29708
pnzp쎯nphzpnhpn0쎯	-9.29815
nhp쎯phshszh0쎯	-9.29854
hsh2쎯szhhhhpn1쎯	-9.29906
ssznszpn쎯	-9.2999
szpnshszh쎯	-9.30088
hzhnhp쎯	-9.30094
pzn3쎯	-9.30351
phzznnhphpn쎯	-9.30398
psnhnphszh쎯	-9.30406
hphsh1쎯hpszh0쎯	-9.30421
.쎆	-9.30472
hnppn쎯	-9.30548
zphzznnh쎯	-9.30637
szpn4쎯	-9.30638
szpnsz1쎯	-9.30666
szhhh2쎯pszhhpzn쎯	-9.3072
nnnzsz쎯	-9.3072
nphhshzph쎯	-9.30759
zphszh1쎯pshszhz쎯	-9.30902
<	-9.30929
phnphnzhzsp쎯hs1쎯	-9.30939
nnnnhpnznpzpn쎯	-9.31014
zzhnhzppn0쎯zzh0쎯	-9.31032
.쎂.	-9.31043
hshszhhh1쎯	-9.31369
hpzznp쎯pszhhpzn쎯	-9.31467
nhpn2쎯phshpzpp쎯	-9.31469
zphphhsh쎯	-9.31549
nnnznhhs쎯	-9.31602
phhhzhs쎯	-9.31625
hsznnhpn쎯	-9.3164
phhhzphspnpz쎯	-9.31751
.nnzpz1쎯	-9.31826
zhzhz0쎯snzszhh쎯	-9.31856
zzhpnpn0쎯	-9.31975
pn2쎯phhsh1쎯	-9.32177
shhhz쎯zpnpszhhh쎯	-9.32182
hhpsnzn쎯shshspp쎯	-9.32239
쎅-	-9.32418
nnzpshpszhh쎯	-9.3244
zzhhzzpn쎯	-9.32452
,hszh0쎯	-9.32506
hznhshpzn쎯zp1쎯	-9.32625
nnnzhphz쎯	-9.32669
.pszsz쎯	-9.32685
pnpnpn0쎯pznpzn0쎯	-9.32724
nzhhznzzs쎯	-9.32789
hpszhszshpnppn쎯	-9.32792
쎃쎁	-9.32848
shszhhznp쎯nnhs쎯	-9.32852
hzhhznp0쎯	-9.32857
phspnpzzpn쎯“	-9.32892
nzzn쎯	-9.32905
nnzhhpz쎯pnhhsh쎯	-9.32921
snzszhh쎯,	-9.33006
nphhssz쎯	-9.33057
pz0쎯zzsnnzhhpz쎯	-9.33059
쎆쎈	-9.33124
hshnphhs1쎯	-9.33566
zzhphs쎯	-9.33611
nhpn2쎯pznszh1쎯:	-9.33722
쎃쎀쎀	-9.33748
,psnhnph쎯hhz1쎯	-9.33788
쎁、	-9.338
pnzz쎯	-9.33824
,nhpspnpzszn쎯	-9.33851
nzpn0쎯nzhshsh쎯	-9.33991
hshpzpn1쎯	-9.34083
쎀°C	-9.3427
hsshh쎯	-9.34279
pnpn2쎯	-9.34682
nnznnhpn쎯pzhhs0쎯	-9.34695
hpszh0쎯	-9.34785
szszs0쎯pszhhpzn쎯	-9.34856
nzhhznpzhh쎯	-9.34918
h쎯shshspp쎯	-9.35003
hzhhphhzpn쎯	-9.35005
zphzhh쎯	-9.35007
hshpszhh쎯:	-9.35011
쎂쎀쎀쎄phhshs쎯	-9.35135
szhshnzzn0쎯	-9.35248
쎃쎉	-9.35297
pshz1쎯hsh2쎯	-9.35347
pnhszh쎯nsnphhsh쎯	-9.35398
쎅pzhh1쎯	-9.35425
nzhsshhhspn쎯	-9.35507
쎅쎂	-9.35585
pnzp쎯n	-9.35604
nhzp쎯pshszhhpn쎯	-9.35798
.”《	-9.35884
phspnzn0쎯	-9.36172
pspnzp쎯	-9.36275
hpn1쎯zpn3쎯	-9.36324
pnhhsszhznzz쎯	-9.36413
szszs0쎯szh0쎯	-9.36429
zzsszhh0쎯nhszs쎯	-9.36496
hpsnszh쎯	-9.36537
ppshhz쎯npzn0쎯	-9.36568
hzshpz쎯	-9.36613
zzsnnzhhpz쎯phzn쎯	-9.36649
phhpzzs쎯	-9.36802
hhznzp쎯zp1쎯	-9.36876
nnnpnnpzzh쎯	-9.36899
쎂쎀쎀쎀	-9.37029
nhzp쎯pszszh쎯	-9.37038
pzszh0쎯	-9.37056
쎅.	-9.37077
쎇쎆	-9.37108
nzpnppp쎯	-9.37178
phnphnphpn쎯	-9.37279
zzhnhznpz쎯h쎯	-9.37373
psszhhspnhsh쎯	-9.37419
snpnzszhszpn쎯	-9.37582
z쎯hpn1쎯nnpnzzzh쎯	-9.37669
nzpn0쎯npzn0쎯	-9.37683
pszhhpzn쎯sz	-9.37685
hshhpzznp쎯hpnz0쎯	-9.37714
쎃pzhh1쎯	-9.37736
pshzhhzhhzhhz쎯	-9.37974
zhznnzhznn쎯	-9.38074
nhnpnznhzp쎯	-9.38113
hhpssz1쎯	-9.38114
hhhpnhhpn쎯	-9.38168
hspnhszn쎯	-9.38199
hspnpzpzs쎯	-9.38204
pspz2쎯	-9.3826
pspnn쎯sz	-9.38284
phsszhphpn쎯	-9.3831
zpnzhh0쎯pshzn1쎯	-9.38434
pshhsh0쎯pznzp쎯	-9.3848
hspnnnnn쎯	-9.38482
h쎯pshspnh0쎯	-9.38504
zphszhhhpn1쎯p	-9.38507
nsnhszhhh쎯	-9.38595
hzzh쎯hsshhh	-9.38658
hspnhspnzshpn쎯	-9.38672
phhszszhpn쎯	-9.38678
hzhzhzzhzhsshpn쎯	-9.38715
nzhhspn쎯hzszhh0쎯	-9.3872
pszhhh0쎯szhsh2쎯	-9.38765
pnzn0쎯szhhhsh1쎯.	-9.38857
szsnnzhhspn0쎯	-9.38873
nzpn0쎯	-9.38963
쎆쎆	-9.39016
hhhzn2쎯snzszhh쎯	-9.39105
:쎁	-9.39131
szhhhspnhpszpn쎯	-9.39252
hnphs쎯hshpzhh0쎯	-9.39368
nznphssnphszhh쎯	-9.39434
hzhhszn쎯h	-9.39442
psszhhszshn쎯	-9.39501
쎆쎀쎀	-9.39679
nphhpn쎯szpnpn0쎯	-9.39684
nhzpphzsz쎯hsh2쎯	-9.39789
nphzpnshszh쎯	-9.39791
phpnps쎯	-9.39792
_	-9.39908
phsszhz쎯	-9.40087
znzpn쎯zzhnhznpz쎯	-9.40114
nhpzpnzn쎯pshz1쎯	-9.40133
hsshzhsnzn쎯	-9.40146
쎁쎁pzhh1쎯	-9.40321
nppnhzzpn쎯	-9.4042
nnnnnzhshpn쎯	-9.40567
nnnpzzn3쎯	-9.40587
szhh4쎯	-9.40741
pszhh0쎯pzzshz쎯	-9.40802
nnpzzn1쎯pspnzp쎯h	-9.40818
hs1쎯pnzp쎯	-9.40841
nzpzzn쎯hppzhh쎯	-9.40863
szs	-9.40883
쎅쎇	-9.40935
.쎅	-9.40955
nhpsnnphhhs쎯	-9.4096
phnphnhhhphzn쎯	-9.40999
shphz3쎯nzhhshzn쎯	-9.41008
.pnzn0쎯zhszh1쎯	-9.41012
쎁쎀쎀쎀	-9.41093
nnzpzpszppnh쎯	-9.41169
ppspzzn1쎯	-9.41251
szhpnphz0쎯	-9.41302
zshshhznpsz쎯	-9.41304
》.	-9.41308
zzhnhznpz쎯nzhs쎯	-9.41586
nhszs쎯phspnzph쎯	-9.41587
hhh쎯pns쎯	-9.41667
nzphhs쎯	-9.41674
hszpn0쎯	-9.41765
쎆쎂	-9.41802
h쎯zpnpszhhh쎯	-9.41823
hspnpz2쎯hshzzpp쎯	-9.41856
hspnhsh0쎯	-9.42006
hnphpn쎯	-9.42064
nzpnn쎯	-9.42098
쎈쎅	-9.42197
psphzhznp쎯	-9.42201
shnpn쎯hsn쎯	-9.42252
nhp쎯hszpzh쎯	-9.42396
snphpznzhzhs쎯	-9.42456
hszpzhhnhszhzzh쎯	-9.42457
hsshhhpzz쎯	-9.42472
쎀	-9.42473
hspnh0쎯hszsn쎯	-9.42494
shhspzszhphpn쎯	-9.4261
hshzsz쎯pphsszpn쎯	-9.42647
zzshszpn0쎯	-9.42671
pzhhpzhh쎯hpzn1쎯	-9.42783
hshnhpzpnznp쎯	-9.42795
hpn1쎯zzshhszs쎯	-9.42852
phhhzszhhpzpp쎯	-9.42869
nz	-9.42897
nphzpnpznhzs쎯	-9.42912
pszhhpzn쎯pn2쎯	-9.42927
hpn1쎯phspnsz쎯	-9.42974
hphzpzp쎯	-9.42976
hszhsnz	-9.42978
psnpszsnphszhh쎯	-9.42983
hzhzzpp쎯	-9.42997
pznnpzpnzs쎯	-9.43017
쎄쎆	-9.4304
znzzphspn쎯	-9.43101
phhhzhpzhhsn쎯	-9.43102
hhhshspnhszs116쎯	-9.43237
psz쎯	-9.43253
zhphsszh쎯zhzhz0쎯	-9.43344
phhphhhhs쎯	-9.43411
hpszhnhpnpnhs쎯	-9.43489
szhszhshn쎯	-9.43508
nhszhnzhpzpppn쎯	-9.43543
ppshshshpn쎯	-9.4357
nnnznszh쎯hpnz0쎯	-9.43653
szhszhszh0쎯.	-9.43673
hszhspnpzszpn쎯	-9.43789
hpzn2쎯nhpnnph0쎯	-9.4383
nnzpzpz0쎯pnhhzn쎯	-9.44038
zhhpszhzzs쎯	-9.44068
쎂쎀쎁쎁phhshs쎯	-9.44072
phhhzhzhsnzn쎯	-9.44118
,nznhzppn쎯	-9.44139
쎇쎂	-9.44193
nhpnnzzn쎯h쎯	-9.44249
szhpzzn0쎯	-9.44275
-쎆	-9.44279
hpz0쎯hnphs쎯nhzp쎯	-9.44349
pznnzshz쎯	-9.44419
shhspshszhz쎯	-9.44423
nhpn2쎯hssz0쎯	-9.44522
pnzp쎯phhhzszhs쎯	-9.44575
hshzsz쎯pznpn쎯	-9.44599
nnnhs쎯	-9.44621
,zsz0쎯szhhhshpn쎯	-9.44636
nhnphhs1쎯	-9.44657
pshspn쎯snzhspn쎯	-9.44667
hszhshhsshpnznp쎯	-9.44775
쎂.쎀	-9.44812
hsn쎯,	-9.44898
pzhhzzpp쎯	-9.44952
,hzhszhhhshpn쎯	-9.45069
hhshnhpnhhsh쎯	-9.45077
szshszhszhsh쎯	-9.45119
hhpzpnhshzn쎯	-9.45128
szhshzznzpn쎯	-9.45168
);	-9.45211
nzszhhhpn0쎯	-9.45232
쎄pzhh1쎯	-9.45261
.쎈	-9.45397
-쎄	-9.45432
nzhzhzpszhh쎯	-9.4563
hphpszhhhpzn쎯	-9.4572
shszhhhs쎯	-9.45802
pznszh0쎯hshzsz쎯	-9.45847
zznzn0쎯nnzhz0쎯	-9.46008
nnzhhsshpnhspn쎯	-9.46045
,hhshszpz쎯	-9.46226
hzzpn0쎯hszpzh쎯	-9.46233
pnzn0쎯hsshpn쎯	-9.46238
hhps2쎯nhzpphpn쎯	-9.46286
.쎂	-9.46295
hszpzhhphshszh쎯	-9.46298
hspnhhs쎯	-9.46361
ppspphsszhhh쎯	-9.46387
szhs쎯szs1쎯	-9.46479
hspnhspnhhspn1쎯	-9.46695
hszhhpnnszhszh쎯,	-9.46705
szhzshz0쎯	-9.46892
psszhs쎯	-9.46899
zznzp1쎯pz2쎯	-9.46925
nnnshhsszh	-9.46973
szhs쎯sz	-9.47029
nhpnphzhhsspn쎯	-9.47031
znpzhhszp0쎯	-9.47041
pshzn0쎯	-9.47101
.쎉	-9.47142
nznnp쎯ppphpszpn쎯	-9.47173
szhsnznn쎯	-9.47174
phnphnpnhszh쎯	-9.47259
nppnppzh쎯	-9.47277
nnznppn쎯	-9.47333
zzhhzphpz0쎯	-9.47375
ppzhpphs쎯hpshsh쎯	-9.47377
.hhshszpz쎯	-9.47378
쎂쎀쎀쎃phhshs쎯	-9.47445
pshhsh0쎯pshszhz쎯	-9.47511
szhshshzhhzpn쎯	-9.47514
zpzzn쎯nhzpphzsz쎯	-9.47534
쎈쎀쎀	-9.47652
shshpnzspnnzn쎯	-9.47677
-쎃	-9.47703
hsszhhhsphz쎯	-9.47777
pnshsh쎯ssnph쎯.	-9.47867
,npszhnznn쎯	-9.47886
ppzhszh쎯	-9.47941
nhp쎯hshzzpp쎯	-9.47954
‘	-9.47958
hspnn쎯	-9.47969
pznpzn0쎯pns쎯	-9.48004
hhspn0쎯hnphspn쎯	-9.48012
hpszhzpnp쎯	-9.48021
zzhszpn0쎯	-9.48065
pszhhpszpn쎯hsh1쎯	-9.48185
szhzph쎯zzspn쎯	-9.48231
pznsn쎯phspnnnhs쎯	-9.48234
zszhszpnpzhhpzn쎯	-9.48248
쎁-	-9.48349
,shnpn쎯pzzn3쎯	-9.48362
、nhszhszszh쎯	-9.48456
z2쎯	-9.48501
hszspnsz쎯	-9.48503
nhpzpznn쎯	-9.48637
zphznzp쎯zp1쎯	-9.48724
hhz2쎯pzhhnhpnzs쎯	-9.48954
hhz1쎯h쎯pshspnh0쎯	-9.49035
쎄쎇	-9.49059
nzpzhshszh쎯h	-9.4911
hszhsshszhh쎯	-9.49349
nphzpnszhhh쎯	-9.49387
zzhnhzp쎯	-9.49478
nhszhnzphhz쎯	-9.49506
hspnnhpz쎯npnsns쎯	-9.49568
phspnsz쎯hssnph쎯	-9.49585
쎄쎀쎀	-9.49691
phszhhhsh쎯hpn1쎯	-9.49771
hhpnhhpnszhh쎯	-9.49801
pzpnzsn쎯	-9.49899
shhsszhsh2쎯	-9.49926
shhsnznn쎯pshz2쎯	-9.50101
pznn쎯zhphsshzpn쎯	-9.50134
pnnpzpppszhhpz쎯	-9.50167
phspnpzppnznnpn쎯	-9.50167
hzhpshhzhhszn쎯	-9.50317
pzhhzszn쎯pznzp쎯.	-9.50317
nzzhz쎯zhhznnpn0쎯	-9.50325
ssznpzhh쎯	-9.50433
pznn	-9.50566
,szhshzp1쎯,	-9.50676
pshz1쎯pszhhpzn쎯	-9.50679
nzpss쎯	-9.50682
szhhz2쎯nzphsszh쎯	-9.50873
phspnpnnppshzhh쎯	-9.50892
쎇.	-9.50896
,ppzhpphs쎯shnpn쎯	-9.50899
phhznnzzph쎯	-9.50983
쎉쎈	-9.51079
pnhzhpszpn쎯	-9.51103
nhpn2쎯nnzzzh0쎯	-9.51105
nhzpphpn쎯nzhzhs쎯	-9.51213
nhszhszszh쎯szhs쎯	-9.51223
nnnnnzpshshpn쎯	-9.51268
psnhzp쎯	-9.51361
hshpzszn쎯	-9.5138
szs1쎯hpnz0쎯	-9.51395
psnhhsh쎯nnzphz쎯	-9.51475
\	-9.51516
247쎯nnnhsh쎯	-9.51609
,pnhhsh쎯	-9.51894
nnzszhhszshn쎯	-9.52066
,pszhhh0쎯	-9.52124
쎅쎈	-9.52124
psnhnph쎯.	-9.52159
phspnpzzpn쎯:	-9.52225
nnnnzpzhspn쎯pn3쎯	-9.52307
zhpn2쎯hzn0쎯	-9.525
hspnphhspn쎯	-9.52503
nnzhpnhszhz쎯	-9.52533
shhsnnzhhpz쎯	-9.52552
°C	-9.52666
zhzszn쎯phshszh0쎯	-9.52763
zpnn1쎯hszhzhhz0쎯	-9.52798
nnpnzzzh쎯hpzp쎯	-9.52804
쎂쎀쎀쎂phhshs쎯	-9.5284
hszhh0쎯	-9.52884
zhhznzs쎯hszhz1쎯	-9.52951
phshszh0쎯	-9.53006
쎂pns쎯	-9.53057
,zn2쎯	-9.53066
hpshsh쎯nhpnnzzn쎯	-9.53122
쎅쎁	-9.5313
hhpsppp0쎯,	-9.53181
h쎯ppzhpphs쎯	-9.53187
hpzznp쎯phzn쎯	-9.53237
hzzh쎯	-9.53241
phhs0쎯nnzhszhsz	-9.53366
〕	-9.53392
szhhhzhz쎯	-9.53565
,hszhsh0쎯	-9.53573
pn2쎯hsh1쎯	-9.53685
nnnnhphsshzn쎯	-9.53788
hsznznnznn쎯	-9.53829
szhshpznn0쎯	-9.53829
h쎯pznhspn쎯	-9.53995
(쎁	-9.54065
zznnpnzs쎯	-9.54084
,shhspzphpnn쎯	-9.54142
hhh쎯pzpzhsh쎯	-9.5415
nhpsnnpszhhhs쎯	-9.54164
nhnphhshszhspn쎯	-9.54172
pnphpnhshsh쎯pns쎯	-9.54225
쎂쎀쎀쎀phhshs쎯	-9.54255
hzshhszpnpn쎯	-9.54285
szhpnhpzhhsz쎯	-9.54295
nzpss쎯zzhhzzpn쎯	-9.54325
nnzhznhsh쎯、	-9.54444
쎈쎈	-9.54551
쎅쎃	-9.54701
pshhshpz쎯	-9.54726
szhhszzpp쎯	-9.54792
pnpnhsh쎯shhsnnn	-9.54818
hhzn0쎯snz쎯	-9.5492
zhhhzn쎯	-9.54933
hhshpzszn쎯hhsh	-9.55071
szhhz1쎯:	-9.55096
hhsszhhsshh쎯	-9.55197
-쎉	-9.55209
nhpn0쎯pphszh쎯	-9.55225
nsnnhszhzpn쎯	-9.55226
nhszhzzhphpn쎯	-9.55485
nnnzhhhhs쎯	-9.55591
hshpzzh1쎯	-9.55765
쎯zpnpszhhh쎯	-9.55849
hhshzzh1쎯	-9.55867
쎈쎆	-9.55899
snnhsh0쎯	-9.56016
pnhhspnnnhs쎯	-9.56016
pszhhpzn쎯nhnphp쎯	-9.56029
,sz	-9.56052
szpnhhshshzn쎯	-9.56055
pszhzps쎯szs1쎯	-9.56078
hhznnzzn쎯pzhhs0쎯	-9.56337
hszhsshszhhnzzn쎯	-9.56338
pshhzs0쎯	-9.56372
nnnpsnhhhsh쎯	-9.56377
hzhpsnhhhshpz쎯	-9.56539
phspnzph	-9.56679
szhhhshpn쎯shnpn쎯	-9.56715
hshnszhshzznzpn쎯	-9.56771
nhzzn쎯	-9.56779
-쎈	-9.5682
nnzhhz0쎯	-9.56952
hshshpnsn쎯	-9.57018
phhspnphhz쎯	-9.57127
hssznphhs쎯shhhz쎯	-9.57155
zpnzhh0쎯hshzsz쎯	-9.57183
hszhzhhz0쎯,	-9.57192
쎂쎀쎁쎂phhshs쎯	-9.57288
nhhsh쎯pshhsh0쎯、	-9.57373
hzhnphhs쎯	-9.57432
,pzhhs0쎯	-9.57546
pshhshszpn쎯	-9.57555
hhsh쎯nhphsshszs쎯	-9.57603
shnpn쎯hnphspn쎯,	-9.57645
hzhpnnphhpzn쎯	-9.57666
zzshszpn0쎯ppsh	-9.57671
zsz0쎯.”	-9.57675
h쎯nhppnpnhsh쎯	-9.5769
phhhzphhphzn쎯	-9.57801
phhsh1쎯,	-9.57841
,zhppszhszshn쎯	-9.57888
nhszhsh쎯,	-9.57947
phspnszhhh쎯	-9.57993
pznszh1쎯:	-9.58027
sshszhshhhznnnn쎯	-9.58082
pzszn쎯pznnhhpn쎯	-9.58097
pszhhpzn쎯zpn3쎯	-9.58194
szpnpn0쎯shhsn쎯	-9.58247
shh쎯,	-9.58285
shh쎯nhszs쎯	-9.58296
pznsn쎯hhpsppp0쎯	-9.583
쎅쎄	-9.58337
nnspznhpn쎯.	-9.58347
nnnznpsnhhhsh쎯	-9.58494
hzhshhspnhszh쎯	-9.58596
h쎯pznszh1쎯	-9.58611
phshzzn쎯	-9.58635
szh0쎯nphzpnhpn0쎯	-9.58642
zpn3쎯hpnz0쎯	-9.58643
zznzp1쎯	-9.58728
nznnszhshhsshpn쎯	-9.58777
zhzhz0쎯szhhshnh쎯	-9.58813
.hspnh0쎯	-9.58868
phhzzzhznnpn쎯	-9.58961
szhhz2쎯zp1쎯	-9.59011
쎁pzhh1쎯	-9.59046
,hpsnnzzn쎯	-9.59054
nhpzsshhzhz쎯	-9.5931
pnhszhphhz1쎯	-9.59321
psphshh1쎯“	-9.59422
hzhszhsh1쎯	-9.5958
,zzhznhsh쎯	-9.59748
znznznhspn1쎯	-9.59792
psszhhs0쎯	-9.59818
hspnnhpnpn쎯phzn쎯	-9.59844
hspnhszhsshszhh쎯	-9.59857
h쎯hspnnphhhs쎯	-9.60076
hnphs쎯nhzp쎯	-9.60094
hszsn쎯nzzhz쎯、	-9.60169
psnphhs쎯	-9.60244
phspnpnhpszs쎯	-9.60317
pn2쎯zhzhz0쎯p	-9.60489
,nzshh쎯	-9.60497
hshphpn1쎯hhszs0쎯	-9.60527
,hszhz1쎯shnpn쎯	-9.60615
hzhhsshszhh쎯	-9.60637
hzhnzhzhs쎯	-9.60691
쎆쎃	-9.60724
nhpsnhsh쎯:	-9.60923
nnnzznnpnzs쎯	-9.61036
szhpn1쎯hppzhh쎯	-9.61056
zzshnphpn쎯hszpzh	-9.61096
zhpszhnhnphhshs	-9.61144
쎃pns쎯	-9.61151
zpnn1쎯nnnhshzn쎯	-9.61388
,hpzznp쎯npzn0쎯	-9.61419
szsshphhhshhh쎯	-9.61438
phshphpn쎯	-9.61463
npszpzszh쎯pznzp쎯	-9.61499
hhh쎯szhhphhsh0쎯	-9.61517
(쎁)	-9.61543
zpznn쎯hhznzp쎯	-9.61628
zzhpnnphhpzn쎯	-9.61695
hhpn0쎯hsn쎯	-9.61701
nphhpnzp0쎯	-9.61715
쎄쎉	-9.61735
hppzhh쎯hspnpz2쎯	-9.61763
nphhshnnnnhpnn0쎯	-9.6179
h쎯psnhnph쎯	-9.61808
hshszpn1쎯	-9.61857
hsszs쎯szhhh2쎯	-9.61879
nphpzpppnnzzn쎯	-9.61889
znnhpn쎯	-9.61961
hzhpnnzpn쎯	-9.61966
nhz쎯	-9.61982
ppphpszpn쎯	-9.62057
hshznphhpn쎯	-9.62059
hshsshhhphpn쎯	-9.6216
쎁쎉쎉쎇phhshs쎯	-9.62247
쎁쎉쎉쎈phhshs쎯	-9.62345
쎆.	-9.62431
szhhshssszpn쎯	-9.62566
)szhhhshpn쎯	-9.62582
zph쎯nsnphhsh쎯	-9.62612
shhspn1쎯	-9.62632
hhshszpz쎯zz2쎯	-9.62665
zpnhsh0쎯	-9.6282
zphzpnp쎯	-9.62822
znhzn0쎯hhz1쎯	-9.62917
pznsn쎯znszpz쎯	-9.62923
pshshszs쎯	-9.63047
hsh1쎯phhsh1쎯	-9.63084
nnnhhpnznnn쎯	-9.63203
nphzpn	-9.63225
,hszhhznp쎯	-9.63329
zsz0쎯.	-9.63357
zhpzszh쎯phzn쎯	-9.6336
zpznn쎯hzhnzhzhs쎯	-9.63452
쎉쎉	-9.6346
pn2쎯pshspnh0쎯	-9.63539
zn	-9.63597
,znpzhhsnzzn쎯	-9.63739
nppnhshphz쎯	-9.63852
pznnhzszhh쎯	-9.6386
pnzn0쎯nnzzph쎯	-9.63925
쎀쎆	-9.64074
쎆-	-9.64103
h쎯phnphnhshhzn쎯	-9.64183
hhshszhhhsh쎯sz	-9.64252
nnznszh쎯	-9.64282
nhhsh쎯pshhsh0쎯,	-9.64375
nnpnpnpznn쎯	-9.64471
szhhhzshpshsz쎯	-9.64587
nnnpzszhshh쎯	-9.64636
hs1쎯hh0쎯	-9.64642
쎄쎁	-9.64647
쎂쎀쎀쎁phhshs쎯	-9.64658
hszsn쎯·	-9.64663
nznphhhs쎯zzh	-9.64669
pzhshszh쎯zpnzzn쎯	-9.64705
hpnn0쎯hnphs쎯	-9.64735
nzhz쎯	-9.6476
hhzs쎯	-9.64776
hspnpszhh쎯	-9.64782
szhhhzphpz쎯	-9.6479
nhnphszhhpzhh쎯	-9.64843
.nhpzhhsszh쎯	-9.65176
nsnhpnppn쎯	-9.65277
nnznnhpn쎯zzhpnh	-9.6528
hshnhzp쎯	-9.65311
hshzsz쎯szpznnnh쎯	-9.65316
쎄pns쎯	-9.65327
nzhzn쎯	-9.65438
hshhnphs쎯	-9.65584
pszhhhszhshhps0쎯	-9.6564
pznnzhhzpnnzzn쎯	-9.65644
):	-9.65726
szh0쎯,	-9.65745
쎈쎂	-9.65753
,hhpz1쎯	-9.65803
hpzznp쎯zz2쎯	-9.65877
nnnhszhhhspn쎯	-9.659
,zpnzhh0쎯	-9.65909
pzzhpzn쎯	-9.65963
hszpzh쎯nnzzph쎯	-9.6598
.“	-9.66224
쎇쎈	-9.66312
hhhshspnhszs202쎯	-9.66353
shzhp쎯	-9.6636
hphshn쎯zp1쎯	-9.66467
hpszhhznpsz쎯	-9.66471
쎅%	-9.66504
shpzn2쎯hzhpznzp쎯	-9.6686
zhszhhpnnszhszh쎯	-9.67033
pzhppznhhhszh쎯	-9.67142
zzhhsh쎯pzzshz쎯	-9.67156
,pphszh쎯	-9.67218
쎆쎇	-9.67268
.psszhhh1쎯	-9.67288
nhpzpnnznn0쎯	-9.67329
hszhhpn쎯pznpzn0쎯	-9.67339
hzhhpzhhsn쎯	-9.67455
「	-9.67565
pshznszpn쎯	-9.67577
zpn3쎯szhhhzn2쎯	-9.67697
》《	-9.67722
phhhzshszh쎯	-9.67723
h쎯nnnhznpsz0쎯	-9.67776
szznzznzs쎯	-9.6779
,szpnsz0쎯	-9.67795
pzhhnphhpnzzh쎯	-9.67808
szhs쎯snzszhh쎯	-9.67873
,hssznphhs쎯	-9.68045
pnzzsz쎯nhnph쎯	-9.68097
ph	-9.68106
zph쎯zzh0쎯	-9.68157
hhzn0쎯phspnsz쎯	-9.68251
pznnhszsshzph쎯	-9.68283
szhshshpznszh0쎯,	-9.68283
hspnhsshhhpn쎯	-9.68308
hpsn0쎯pszn0쎯	-9.6832
.쎃	-9.68365
zzsszhhh쎯	-9.68378
nphszs쎯,	-9.68386
,hpszss쎯szhhh0쎯	-9.68459
pshphsh쎯	-9.68539
hppzhhzzs쎯	-9.68548
,h	-9.68722
snzpznszh쎯	-9.68832
nhpnnpzzn1쎯	-9.6886
zzshzhs쎯	-9.68874
쎁쎉쎉쎉phhshs쎯	-9.68964
szhhpnnphhpzn1쎯	-9.69195
hhznzp쎯hszhshzs쎯	-9.6924
shhspzhpzhhsn쎯	-9.69284
nnnsnppznn쎯zhzp	-9.69319
shhsphhhshhh쎯	-9.69383
sszpn쎯hshpszhh쎯	-9.69403
shszhnnnn쎯:	-9.69444
phspnsnppznn쎯	-9.6946
szhhhshpnhz쎯	-9.69515
phzn쎯,	-9.69522
zhzhz0쎯nhhsh쎯	-9.69564
zhhznnpn1쎯	-9.69734
shhsznhsh쎯	-9.69767
′	-9.69937
、szhs쎯szhhshnh쎯	-9.69967
쎅쎉	-9.69995
hhh쎯phhshs쎯	-9.70095
hsshpn쎯hppzhh쎯	-9.7015
pszhhnzzn0쎯	-9.7041
hphhpnz쎯nphszs쎯	-9.70462
shhsnhzp쎯	-9.70576
szszh1쎯	-9.70592
nnzhhpz쎯h	-9.7062
nnpnzzzh쎯、	-9.70629
hszhzhhz0쎯pznzp쎯	-9.7069
psnhnph쎯,	-9.70793
pnhhsh쎯szhhhzn0쎯	-9.70856
nnnhspnszhhh1쎯	-9.70864
shhzs1쎯zhpszssz쎯	-9.70875
pz0쎯szhs쎯nznn쎯	-9.71011
hpsnszpz쎯znszh0쎯	-9.71031
쎀쎄	-9.71058
szhhh	-9.71061
hppzhh쎯《	-9.71075
pnzn0쎯zhszh1쎯,	-9.71105
pshznnhpzpn쎯	-9.7114
.”nnnhhshpzhh쎯	-9.71141
hszhzhhz0쎯.	-9.71154
shszhnnnn쎯,	-9.71171
pnhszh쎯hpzznp쎯	-9.71175
hh0쎯zzhpzzn쎯	-9.7132
zzhppznn쎯	-9.71348
phhhzhs쎯znhzn0쎯	-9.71397
쎇쎃	-9.71425
.”(쎂).	-9.71448
szhpznzh쎯	-9.71486
hpsn0쎯szhhhshpn쎯	-9.715
쎁쎉쎉쎆phhshs쎯	-9.71554
hspnpszhhszs쎯	-9.71571
nhnphszh	-9.71661
zzhhpnhszhz1쎯	-9.71698
szszhzpz쎯	-9.71765
zpn3쎯zzhszhhh0쎯	-9.71767
hznpz쎯pnzp쎯	-9.71792
pnzpszssh쎯	-9.71862
szhhz1쎯.	-9.71921
szhhz2쎯zzh0쎯nh	-9.71971
pszhhpzn쎯pnhhsh쎯	-9.72046
nnzhpzn0쎯	-9.72047
hpnn0쎯zzsszhh0쎯	-9.72216
nzpshshzzn쎯	-9.72233
h쎯phhshs쎯	-9.72265
szhhhznnznn쎯	-9.72266
(pnhz0쎯	-9.72382
hsshszhhs쎯pnhszh	-9.72519
hh0쎯hs1쎯	-9.7257
phspnnhszhszszh쎯	-9.72689
쎁.쎅	-9.7273
쎉쎅	-9.72794
hshzsz쎯hsn쎯	-9.72973
pnshsh쎯	-9.73114
nhphsshzn쎯:	-9.7316
shhszphhsszh쎯	-9.73176
pnzzsz쎯ssnph쎯	-9.73197
pzphpzn쎯	-9.73202
shhsnhpn0쎯	-9.73314
hsz	-9.7334
pnnszhszhszhszs쎯	-9.73512
szhzpsz쎯pznszh1쎯	-9.73557
hshpszhh쎯.	-9.73578
hpnhshps쎯	-9.73625
hzzp0쎯hpzznp쎯	-9.73632
hphszhznp쎯	-9.73683
pnhhsh쎯nhszs쎯	-9.73857
phspn	-9.73893
szhshnhsh0쎯	-9.73896
hsh쎯pszhhpzn쎯	-9.73901
,szhpnh쎯	-9.73961
153쎯hszsn쎯·	-9.73964
-쎇	-9.74033
hszpzhhhzszhh쎯	-9.74164
zzhznhsh쎯hpzp쎯	-9.74271
phhhzszhpszh쎯	-9.74367
nphszs쎯.	-9.74582
shhsnhzpsz쎯	-9.74599
nnznnhpn쎯zp1쎯	-9.74792
쎁쎉쎉쎅phhshs쎯	-9.74802
-쎅	-9.7481
nnnnhhsh쎯:“	-9.74859
pznnszhhh1쎯	-9.74889
nznhzp쎯	-9.74908
nhszhhpzpn쎯	-9.74975
zzhpsnhhhsh0쎯szh	-9.75112
.shshhz0쎯	-9.75183
zphpz0쎯	-9.75196
pzpzz0쎯	-9.75243
i	-9.75264
zsz0쎯hppzhh쎯	-9.75284
nhhsh쎯zpnn1쎯	-9.75452
pzzpn0쎯zzspn쎯	-9.75625
szhhpzh쎯hpnz0쎯	-9.75644
zzznzzn쎯	-9.75746
nnnzhhnzzn0쎯	-9.75887
nppnszhhhhs쎯	-9.75914
szpnhzp쎯pznzp쎯	-9.75942
snzpshznp쎯	-9.76048
szhshshpnnzpn쎯	-9.76061
pzzshz쎯pszhhpzn쎯	-9.76069
zzspznhzs쎯zzpn0쎯	-9.76203
hszhhpn쎯zpszh0쎯	-9.76226
shhshpszzh쎯	-9.76253
phspnzpnp쎯	-9.76433
szpznnnh쎯pshz2쎯	-9.76533
hpszhhhzn0쎯	-9.76553
hpszss쎯hpzznp쎯	-9.76574
hhp	-9.76692
hpzn3쎯hsshhhpn0쎯	-9.76708
hzhshszhhhs쎯	-9.76712
」	-9.76736
phhhzpznhhhs쎯	-9.76742
pnzn0쎯hpszs0쎯	-9.76762
nhznhps쎯	-9.76777
zzspzpshzhh쎯	-9.76818
szhhszhhh쎯phzn쎯	-9.76885
,szhs쎯hsshpn쎯	-9.76904
nhnphszhzzs쎯,	-9.7697
쎂쎀쎁쎀	-9.7708
nnpzpnszssh쎯	-9.77106
pznnznhhspn쎯	-9.77113
phhshs쎯pshzn1쎯	-9.77166
hshpzpnhshpzpn쎯	-9.77309
hpzznp쎯hspnh0쎯	-9.77364
hhznpszhshpzzn1쎯	-9.77426
pznnnphhpnznnpn쎯	-9.77429
zpnp쎯nzphhs쎯	-9.77511
znpzpn쎯pzzsnzzn쎯	-9.77513
쎇쎇	-9.77548
phhsh1쎯phzn쎯	-9.77643
〔	-9.777
hpnhzn쎯	-9.77751
pnzp쎯pnhhzn쎯	-9.7776
phhshs쎯hnphspn쎯	-9.77788
shshpznn쎯	-9.778
nzhnphs쎯pspnps쎯	-9.77835
pshzhhhshpzzn1쎯	-9.77853
hhshspnhszs115쎯	-9.77858
nnph쎯nnzhznhsh쎯	-9.77883
zhzps쎯	-9.78059
.’	-9.78086
shhshhspnhhspn쎯	-9.78168
쎁/	-9.78224
nnnzhphszsnnpn쎯	-9.78371
hshsh0쎯hpshsh쎯	-9.78381
nnzpzhsh0쎯phhz2쎯	-9.78399
pnphspnnznn쎯	-9.78445
nhpzsshhzhz	-9.78515
nhpnpnphpn쎯zp1쎯	-9.78531
szhhhszhhhsh0쎯:	-9.78542
shhspznzz쎯	-9.78612
쎀쎃	-9.78624
hszhhpnnszhszh쎯、	-9.78676
hspnnpzhzsp쎯	-9.78694
pshsshpn쎯zz2쎯	-9.78807
hpszhszszs쎯shh쎯	-9.78814
pznszh1쎯nnzzzh0쎯	-9.78845
,phzznnh쎯	-9.78872
pnnzpnnzzn쎯	-9.78901
nnznnhpn쎯ppshhz쎯	-9.79041
쎀쎅	-9.79046
znhzn0쎯pznsn쎯	-9.79073
szhhzpszh0쎯	-9.79096
zhphsshzpn쎯,	-9.79109
zpn4쎯hspnpz2쎯	-9.79136
,szhpnh쎯shshhz0쎯	-9.79232
snpnzhhzn쎯	-9.79322
pn2쎯nhpn2쎯	-9.79367
pnnpszsnphszhh0쎯	-9.79375
hpszss쎯hpsn0쎯	-9.7941
nzhzhs쎯hpnz0쎯	-9.79571
pzzsnzzn쎯	-9.79592
zpnn1쎯nnpnzzzh쎯	-9.79667
nppnnnzpnpnszh쎯	-9.79681
hpszhhphszhznp쎯	-9.7976
쎀×	-9.79777
hzhpzzn2쎯pn3쎯	-9.79806
hhpzpppn쎯hsszh쎯	-9.79827
hshshhzpzpzhsh쎯	-9.79913
nphhpnphhz0쎯	-9.7993
zzhzs쎯	-9.79984
nnspznzzpn쎯	-9.79987
hsh	-9.80105
snznnnphsszh쎯	-9.80133
쎂pzhh1쎯	-9.80178
.쎂、	-9.80182
nzpzhspn쎯hshpss쎯	-9.80202
szhhh1쎯	-9.80216
hzshpphsszhh쎯	-9.80245
hshshpnpzzhh쎯	-9.8027
hshhsszhhhhpn쎯	-9.80273
쎆쎁	-9.80319
pns쎯nsnphhsh쎯	-9.8034
pnnpphhszsnzn쎯	-9.80375
hzhpnnpnzzn쎯,	-9.80476
shhsnhnpnzszs쎯	-9.80482
zhpzzpn쎯	-9.80494
,szhpn1쎯	-9.80559
phhhshhhnznn쎯	-9.80622
nnnshzphznznn쎯	-9.8065
pspzzs쎯	-9.80838
zhshhzhzn쎯	-9.8093
hspnn쎯nzhszhszh쎯	-9.81025
쎀pnzn0쎯szhhhsh1쎯	-9.81143
hhshzn3쎯:	-9.81271
nhszhzzhzzs쎯	-9.81319
nnnpnphspnszhsh쎯	-9.8132
,szhhhshpn쎯h쎯	-9.81336
h쎯hspnh0쎯	-9.81346
snzhspn쎯	-9.81388
hspnhzzpn쎯	-9.81389
zzhpznhhhsnzn쎯	-9.81405
znnznnpsnhhhsh쎯	-9.81416
zzp쎯hspnhzn0쎯	-9.81462
hhzn0쎯phspnnnhs쎯	-9.81469
쎆쎉	-9.81507
쎁쎅쎀	-9.81513
hzhzhh쎯	-9.81592
hzhhpszh0쎯	-9.81635
쎂.쎅	-9.81676
.(	-9.81705
hshpsnhhhshznp쎯	-9.81731
hpszhnnzpznzz쎯	-9.81834
snzhzp쎯	-9.81861
hszpnn쎯nzpnn쎯	-9.8189
nhzphhpnznzshpn쎯	-9.81903
nhzznszhsh쎯	-9.8196
쎁쎉쎉쎄phhshs쎯	-9.82015
nnzpz1쎯pszhhpzn쎯	-9.82038
szszs0쎯hnphspn쎯	-9.82065
snzszhshn쎯	-9.82094
pzphhsh쎯	-9.82105
nphzznzznnznn쎯	-9.82108
pznnznszh쎯	-9.82135
pshzhpzn쎯hspnh0쎯	-9.82151
쎁쎉쎈쎄phhshs쎯	-9.8216
nhznznn쎯	-9.82212
쎁쎉쎉쎃phhshs쎯	-9.82218
pnzn0쎯zhszh1쎯.	-9.82428
zn2쎯phspnpzzpn쎯	-9.82474
pnhszh쎯nphhps쎯	-9.82476
nhnphszhzzs쎯、	-9.82494
nhnphszhhpz쎯	-9.8253
hsshszhhshshhsh쎯	-9.82554
hzhnnpnzszpz쎯	-9.82661
pszhhh0쎯pszhhhp쎯	-9.82671
&	-9.8271
hzzpn0쎯nhszhzpn쎯	-9.82819
hspnnhnpnznhzp쎯	-9.82906
hsn쎯pszhhpzn쎯	-9.82935
zznz1쎯	-9.82995
hzzpzzs쎯	-9.83008
nznphhhs쎯	-9.83118
hzshnhpnpn쎯hpn1쎯	-9.83167
znznznnzszhhh쎯	-9.83172
hszhs	-9.83215
hpznpnhpzpn쎯	-9.83261
hzhszhhpzpnz쎯	-9.83298
szhpsnhhhsh쎯	-9.83305
hhzn0쎯pzhhs0쎯	-9.83348
(쎂	-9.83383
hhznzp쎯hpnnnznn쎯	-9.83444
nzhszhszh쎯nhh	-9.83531
znzz0쎯	-9.83619
pznszh1쎯,	-9.83648
hshzsz쎯.	-9.83657
hpn1쎯nphszs쎯	-9.83716
nnpnzzzh쎯hszh0쎯	-9.83928
hhpsznp쎯	-9.83966
(쎃)	-9.84093
pspzhszs쎯	-9.84186
hzhz0쎯	-9.84223
쎇-	-9.84266
쎀쎂	-9.84357
hsshh쎯zhhspspn쎯	-9.84411
nzhp쎯,	-9.84435
zz2쎯h쎯pns쎯	-9.84507
szhshhzhz0쎯	-9.84587
nnzhpzpppn쎯,	-9.84605
、h	-9.84842
hsh2쎯hp1쎯	-9.84864
쎁쎉쎉쎂phhshs쎯	-9.84877
hhznzp쎯psphshh1쎯	-9.84885
hpn1쎯nnzhpzpppn쎯	-9.84888
pnzn0쎯hhps2쎯	-9.8498
phhhznh	-9.85008
pznnhszs쎯	-9.85012
pnhszhszssh쎯	-9.85028
shhsszhhpzpnz쎯	-9.85037
szhshpnps0쎯shh쎯	-9.85042
hsszppn쎯npnsns쎯	-9.85064
쎅pnzn0쎯szhhhsh1쎯	-9.85108
hpznznpnhzhhzpn쎯	-9.85276
zhhhhszzn쎯nzpnn쎯	-9.85292
hspznnzzn쎯zz2쎯	-9.85343
hshszhpzpn1쎯	-9.85382
hspnpszhhzpnppp쎯	-9.85451
,hszhhpn쎯	-9.85515
szpn1쎯shhsnz	-9.85588
pshshhzn쎯	-9.85597
,zphzsz쎯	-9.85634
pzpnzhpnn쎯	-9.8571
hzhhz0쎯pshhzs1쎯	-9.8575
hznp쎯	-9.85762
shhshpznp쎯	-9.85828
szhspnh쎯	-9.85878
hszhszh쎯	-9.85894
pszhhnzzn1쎯	-9.85904
hpznnzzn0쎯	-9.86013
,pnpn1쎯hpszss쎯	-9.86019
,pznnhpnnnnnn쎯	-9.86022
nphpszhhhnzzn쎯,	-9.86041
hhhzn2쎯snzszhh쎯:	-9.86108
.szhhh2쎯	-9.86148
szhshshphpn0쎯	-9.86212
,hszpzh쎯	-9.86254
쎉쎆	-9.86263
h쎯pshzn1쎯	-9.86285
shnpn쎯“	-9.86386
pznnpszhhzzpn쎯	-9.86394
/쎃	-9.86414
nppn쎯hzhs0쎯	-9.86505
쎂쎀hsshz0쎯zzhzhz쎯	-9.86509
hhssz쎯phshpzpp쎯	-9.86604
0쎯	-9.86628
,phzhznp쎯	-9.86635
쎁쎂쎀	-9.86708
szshpnppn0쎯	-9.86731
pnhznznn쎯,	-9.86743
쎇쎉	-9.8678
nzpsnhhhsh0쎯	-9.86844
pnhszh쎯pnhhzn쎯	-9.86893
』『	-9.86958
hsppznnnhnphhs쎯	-9.86971
nnnhszsshszhhhs쎯	-9.87017
pznszh쎯hhz1쎯	-9.87053
,zpszh0쎯	-9.87077
(),	-9.87121
hzp0쎯znpznnhzhz쎯	-9.87259
shhshpznhzhps쎯	-9.87295
hhpz1쎯nnnhshzn쎯	-9.87309
szhszh2쎯	-9.87395
nphhpshshzn쎯	-9.87425
hzhpnnpphhszs쎯	-9.87429
pnpn2쎯nhnphhspn쎯	-9.87465
,hzzpn0쎯	-9.87583
hshpzhh0쎯pznn0쎯	-9.87612
.nnnhhshpzhh쎯	-9.87715
hzhnphhps쎯	-9.87717
pznnnnzpzhsh쎯	-9.8778
(쎂)	-9.87802
:쎁.	-9.87896
쎀.쎀	-9.88019
szhs쎯zpn3쎯	-9.88118
hshhspnznp쎯	-9.88147
zzhszhhh0쎯zzhszh	-9.88158
hshshpnnppshzhh쎯	-9.88205
pzznzpn쎯.	-9.88222
쎀.쎅	-9.88324
,psszhshpn쎯	-9.88455
-쎂-	-9.88499
zhzs1쎯hhpsnzn쎯	-9.88526
nnnphhz쎯	-9.88533
쎂쎀쎁쎃phhshs쎯	-9.88644
zzhszssh0쎯	-9.88717
zhhpzhzn쎯nzhzhs쎯	-9.88742
shszhnnnn쎯.	-9.88835
2	-9.88835
pnphz0쎯	-9.88835
szhshshpzzhz0쎯	-9.88884
pshs쎯	-9.88886
hspnhspn쎯ssnph쎯	-9.88898
szpzhhszhhphhsh쎯	-9.88954
zp1쎯nnpzpnszpn쎯	-9.88973
shhszshshhznpsz쎯	-9.89002
쎁쎉쎉쎀phhshs쎯	-9.89085
pshszh0쎯	-9.89139
pnpnh쎯hszsn쎯	-9.89193
nnzphshszhsz0쎯	-9.89339
nnzszhhs쎯nzhs쎯	-9.89375
hpnz0쎯,	-9.89484
npzhzspnzzn쎯	-9.89495
szhhz2쎯hphshn쎯	-9.89555
쎈.	-9.89576
hzhzszn쎯》	-9.896
.szhsh2쎯hhz1쎯	-9.8961
hhznnzzn쎯pnhhzn쎯	-9.89637
nhszs쎯hpnz0쎯	-9.89752
znnznnnhpnpnhs쎯	-9.89765
hzhzhpszszs쎯	-9.89785
hspnszhhh4쎯hzzh쎯	-9.89893
nhnph쎯pshspnh0쎯	-9.89957
zh1쎯phspnpzzpn쎯	-9.8999
hzhhsshpznnphpn쎯	-9.90049
pznszh0쎯pns쎯	-9.90063
z	-9.90073
nhpnzhhznzzs쎯	-9.90119
nzpn0쎯nzszhpn쎯	-9.90144
szhhz2쎯sz	-9.90169
pzzszhshn쎯	-9.90217
szhszhszh0쎯,	-9.90226
nnzhpzpppn쎯、	-9.90241
psshszpn쎯	-9.90255
hhshpszhhhpszh쎯	-9.90453
phhhzszhhhsh쎯	-9.90474
쎇쎄	-9.90494
hshszpn0쎯npnsns쎯	-9.90515
pnshsh쎯ssnph쎯,	-9.90516
nphzpnnnhs쎯,	-9.90534
hhz2쎯nhpsnszpz쎯	-9.90606
pnzphpszpn쎯	-9.9061
hhshszhhhsh쎯,	-9.90665
쎂쎀쎁쎁	-9.90679
hpszhzzpn0쎯	-9.90704
nphpzhhsznnnn쎯	-9.90781
nznhzp쎯snzszh쎯	-9.90784
szpnpn0쎯shh쎯	-9.90839
shhsn쎯sz	-9.9084
ppshhz쎯hhznzp쎯	-9.90849
hspnphpn1쎯	-9.90854
pznnnnzzph쎯	-9.9086
phzznnh쎯phhshs쎯	-9.90927
ppspzszn쎯	-9.90934
,“	-9.90977
nnnphshszh쎯	-9.90986
zzpn0쎯phspnsz쎯	-9.91
pshnphpn쎯	-9.91027
쎀쎇	-9.91173
hshszh0쎯hspnhspn	-9.91213
hshphz2쎯nphszs쎯	-9.91231
쎉쎂	-9.9124
nhhsh쎯pshhsh0쎯.	-9.91294
phnphnpznnzp쎯	-9.91301
pznpn쎯,	-9.91322
nhpnhpszss쎯	-9.91509
,nphhps쎯szhhh0쎯	-9.91567
szhshshpznszh0쎯、	-9.91684
nhpzpnzhz쎯	-9.91695
hszhhznp쎯pzzhhz쎯	-9.9189
psszhhszhh1쎯	-9.92074
psnpzn쎯	-9.92078
phspnpzzpn쎯.	-9.92122
pzszhpznnzzn쎯	-9.92144
쎁쎂쎈	-9.92203
hs쎯hspnhsszhhhh쎯	-9.92269
쎁쎉쎈쎆phhshs쎯	-9.92298
pszs1쎯	-9.92338
nphpzhhszzp쎯	-9.92338
hpzznp쎯pnzp쎯	-9.92414
pzsznhpszpn쎯	-9.92442
nnzhznhsh쎯szpn1쎯	-9.92454
.zphszh1쎯	-9.92463
nnzszhhh쎯phspnsz	-9.92465
쎁쎉쎈쎈phhshs쎯	-9.92471
hpszhhshhsh쎯	-9.92531
szhhszhhh1쎯	-9.92587
zzhpszhhszs쎯	-9.92676
shhsnhnphszh쎯	-9.92754
,hppszhhzpn쎯	-9.92783
phzn쎯nnnhsh쎯	-9.92798
hzhpnzz쎯	-9.92799
쎄)	-9.92801
ppzhpphs쎯shnpn쎯	-9.92832
nnnhshpznzh쎯	-9.92899
pznsn쎯szhhshnh쎯	-9.92988
(쎁쎉	-9.93026
pzphspnhpszpn쎯	-9.93029
hspnhszpzh쎯	-9.93068
쎆pns쎯	-9.93126
nnnzhzps쎯	-9.93142
&;	-9.9324
hzhhhpz1쎯	-9.93285
phhhznpszhpz쎯	-9.93331
hszhhpn쎯pznszh1쎯	-9.93365
쎁쎉쎈쎅phhshs쎯	-9.935
hppzhh쎯h쎯	-9.93524
nzzhz쎯hshpszhh쎯	-9.93583
zphzzh0쎯nzhnphs쎯	-9.93726
,phzhznp쎯pssnz쎯	-9.9374
zzhhsh쎯nzhzhs쎯	-9.93762
szhhhshpn쎯“	-9.93787
nhpnpnzzs쎯	-9.93797
nnnppzh쎯	-9.93808
hsszhszzhznnnn쎯	-9.93836
nhzznnnpnhs쎯:	-9.93851
snzpn0쎯	-9.9386
szszhh0쎯:“	-9.93896
hhpsnzn쎯szh0쎯	-9.93906
znnznn쎯nzznhhs쎯	-9.93935
pn1쎯nnzpnpnszh쎯	-9.93938
zphnzhhzpn쎯	-9.93944
snppznn쎯	-9.93961
hssszsshpzn쎯sn쎯	-9.94227
.hspnh0쎯hszsn쎯	-9.94233
.”nnzhspn쎯	-9.94283
hspnnphhh쎯	-9.94287
ppzhszh쎯hhznzp쎯	-9.94313
hsshpn쎯nhszhzzh쎯	-9.94316
npszsshzhhznhzn쎯	-9.94322
phszhhpzn쎯sz	-9.94336
phnphnszhszh쎯	-9.94346
hpnszhsh0쎯	-9.94417
×쎁	-9.94543
hzhpzzs쎯	-9.94675
ppznnhphshzzn쎯	-9.94791
hsn쎯hshhzshznp쎯	-9.94824
%,	-9.94839
nnzphz쎯	-9.9484
쎈쎁	-9.94908
nzpsnhhhshpznzh쎯	-9.94956
쎀쎉	-9.95006
hspnpzzn2쎯,	-9.95048
nphzznzzn쎯	-9.95049
pnhszh쎯szhszh1쎯	-9.95188
쎀쎈	-9.95189
.쎃.	-9.95235
npzn0쎯nhhsh쎯,	-9.95237
,shshhz0쎯	-9.95255
nhphpn쎯nhszs쎯	-9.95271
nhphsshzn쎯,	-9.95372
113쎯pzznnzszhzh쎯	-9.9539
pnzn0쎯hzhpszpn1쎯	-9.95466
phhz0쎯hspnn쎯	-9.95476
pphspzpn쎯	-9.95573
hszpzh쎯nhzp쎯	-9.95597
×쎂	-9.95648
(쎄	-9.95651
hzhzpn쎯	-9.95697
pzpzhhznzs쎯	-9.95718
zhz1쎯hzshnhpnpn쎯	-9.95731
hsshhhpzzzp쎯	-9.9574
nphzspnzzn쎯	-9.95773
hpn1쎯hzhsnzn쎯	-9.95787
hsshhhzzs쎯	-9.95836
쎈쎄	-9.95899
hsshhh쎯hspnpz2쎯	-9.95909
hshphz2쎯phhshs쎯	-9.95915
hzhszsshhshzn쎯	-9.95947
zhzhzn0쎯nphszs쎯	-9.95973
nzpnpz쎯sz	-9.95996
,h쎯	-9.96006
hs1쎯hszh1쎯	-9.96023
spnzn쎯hphzphznp쎯	-9.96039
쎁,	-9.96081
pn	-9.96084
szhhszhpn0쎯	-9.96129
zzh0쎯,	-9.96192
hhps0쎯nnzpzpz0쎯	-9.96214
hhhshspnhszs182쎯	-9.96225
szhpzzn0쎯zsphpn쎯	-9.96238
pszhhh0쎯pznnhp	-9.96239
nnnnnn쎯hspnhzn0쎯	-9.9624
shhspznnznhhspn쎯	-9.96286
phhz0쎯pshhhpzzn쎯	-9.96294
znhshhpszpn쎯	-9.96352
nnzphshpz쎯	-9.96364
쎁쎉쎉쎁phhshs쎯	-9.96382
,phshpz쎯pphszh쎯	-9.96453
ssphnszsh쎯nhphsp	-9.96592
쎅pns쎯	-9.96626
nhnphhhshpzhh쎯	-9.96654
nnnpnpnszh쎯	-9.96673
zhszh1쎯nnnhshzn쎯	-9.96705
shhspzphhszs쎯	-9.96716
nzzhz쎯hspnh0쎯	-9.96741
szhhshnh쎯pznsn쎯	-9.96742
zzs	-9.96809
hzshhszhszhsh쎯	-9.96885
hshpsnhhhsh0쎯	-9.96917
pzhhszhs쎯	-9.96937
hshpzphshpzszpn쎯	-9.96998
hzhshhsszhhhpn쎯	-9.97075
szpnphpn쎯	-9.97075
hsshpnzhz쎯	-9.97093
pnzp쎯hszpzhhzhz쎯	-9.9714
.zpnzhh0쎯	-9.97167
szhshnnnzpz0쎯	-9.97174
,hsszhhhh0쎯	-9.9719
pznnpz0쎯	-9.97372
nnnnhpnsz쎯	-9.97413
.nnzhspn쎯	-9.97415
쎁쎉쎈쎇phhshs쎯	-9.97434
szhhspznzh쎯	-9.9747
zpszh1쎯hhps2쎯	-9.97492
szhpnhszh쎯pzzpn	-9.97527
쎈쎉	-9.97535
pzpshhsszhsh쎯	-9.97589
snpnzszhszs쎯pznz	-9.97611
szhh4쎯:‘	-9.97669
pshpzn2쎯nzhhzpn쎯	-9.97731
szhs쎯hsszzhpzn쎯	-9.97771
쎂쎀쎁쎂	-9.97787
pzp	-9.97847
nzpzzn쎯nzhs쎯、	-9.97987
pnhszh쎯phshpzpp쎯	-9.98048
pnpnh쎯	-9.98233
nnnpnhpn쎯	-9.98234
zzhhshpszhh쎯	-9.98254
쎂쎀쎀쎆	-9.98254
pzzzhszh쎯	-9.98259
hszpzhhphzznnh쎯	-9.98321
hzhnhp쎯hpn1쎯	-9.98342
nzhshhzn쎯pn2쎯	-9.98428
hpsn0쎯phhpnszh쎯	-9.986
hzsz쎯	-9.986
zhszh1쎯pnhzn쎯	-9.98641
쎈쎇	-9.98688
.pnpn1쎯	-9.98699
hspnpz2쎯sz	-9.98756
pn2쎯hpn1쎯	-9.98781
pznpn쎯hhz1쎯	-9.98798
hhhshspnhszs198쎯	-9.98865
szhhs3쎯	-9.98892
pzn2쎯szhhszhpn0쎯	-9.98995
/쎂	-9.98995
szpzh0쎯pns쎯	-9.99042
,szhhh2쎯	-9.99165
hsspnzz쎯	-9.99198
pszhhh0쎯phzhznp쎯	-9.99233
hzhhssnzzp쎯	-9.99243
nzhzhs쎯zzspn쎯	-9.99314
szhhz2쎯n	-9.99459
hzhhznpznnphpn쎯	-9.99463
shnpn쎯pphszh쎯	-9.99463
pzn0쎯	-9.99463
nzhnphs쎯pshsszh쎯	-9.99476
pnphspnszhsh쎯	-9.99528
zhpszszs쎯	-9.99555
h쎯hshhpszpn쎯	-9.99697
pshz1쎯、	-9.99716
ppznnhpzzn1쎯	-9.99738
nsnhszhszh쎯	-9.9974
;쎂	-9.99781
nnnnhpnps쎯zpznn쎯	-9.99785
zpn3쎯hhpsszhsh쎯	-9.99787
nnhshpzpzn쎯	-9.99789
hshphzszhh쎯	-9.99795
ppshhz쎯hshshp	-9.99822
zznzn0쎯	-9.99898
1쎯nnnnnzpshshpn쎯	-9.9992
.”쎂.	-9.9993
쎂쎀쎀쎇	-9.99938
nnzhpzpppn쎯.	-9.99996
zpn4쎯ppshhz쎯	-10.0008
zhphz0쎯hssnph쎯	-10.0015
nhpspn	-10.002
nnznznnpszhshn쎯	-10.002
쎁쎉쎈쎉phhshs쎯	-10.0029
219쎯nnzhshpn0쎯	-10.0034
szs1쎯zzpn0쎯	-10.0037
ssnph쎯nnnnpnsns쎯	-10.0041
pnhhspnzn0쎯	-10.0046
hhh쎯szhhshnh쎯	-10.0048
hhh쎯hssnph쎯	-10.0049
hppzhh쎯“	-10.0051
snphpz쎯zzhhpnz쎯	-10.0054
-쎀	-10.0057
,hshznzs쎯	-10.0059
szhhhphhzpn쎯	-10.0063
shzphznznn쎯	-10.0073
szhs쎯pznsn쎯	-10.0074
,zzshppzhhnzzn쎯	-10.008
snznpszhhhs쎯	-10.0081
pn2쎯hsh2쎯	-10.0088
hshzzpp쎯shh쎯	-10.0089
""	-10.009
hsshszhhspzhh쎯	-10.0091
hssnnnzzpp쎯	-10.0093
pzhhs0쎯.	-10.0094
:쎂	-10.0095
psznpzpzn쎯	-10.0096
hszsshszpn쎯	-10.0102
nhnphp쎯hspnzn쎯	-10.0113
.쎁	-10.0125
hshpznnznn쎯	-10.0126
nzhzh쎯psphshh1쎯	-10.0134
ppzhznnznn쎯	-10.0136
nppnpszhhhhsh쎯	-10.0137
hpzp쎯pshhsh0쎯	-10.0137
,pszsz쎯pssnz쎯	-10.014
phzznnh쎯pns쎯	-10.0144
nnnnhnpszhsszh쎯	-10.0151
m	-10.0151
szhhshnh쎯hsh0쎯	-10.0157
phnphnzhzsp쎯쎁	-10.0158
pzzshz쎯.	-10.0163
hs1쎯phhshs쎯	-10.0163
pssnpnzhhzn쎯	-10.0167
ㄧ	-10.017
shh쎯hsn쎯	-10.0175
hszhhpn쎯zphzzh0쎯	-10.0176
pshznhshsz쎯pn3쎯	-10.0179
szhshshnnzhhspn쎯	-10.0184
pznnhsshszhh쎯	-10.0186
nnnhspnpnznnpn쎯	-10.0189
쎁쎉쎈쎂phhshs쎯	-10.019
nnnhhz2쎯	-10.0193
,hzhzshz쎯	-10.0199
hzhppsn쎯	-10.0204
pzn0쎯h쎯pshspnh0쎯	-10.0213
,nhpnpn0쎯	-10.0214
hhhshspnhszs214쎯	-10.0221
----------------	-10.0224
zphhszhspnphpn쎯	-10.0229
쎀쎁	-10.0249
hnzshhhhpznzp쎯	-10.0258
hzzh쎯hhznzp쎯	-10.0262
zzhzpszh0쎯	-10.0264
(쎁쎈	-10.0269
nphhps쎯hpsn0쎯	-10.027
pzhhpnhnnph쎯	-10.0272
szspszhh1쎯	-10.0276
zhpszhnhnphhs쎯	-10.028
szhpnh쎯shshhz0쎯	-10.0285
pzhhszhs쎯nhpnn	-10.0285
h쎯hszn0쎯	-10.0292
szhhhsh1쎯,	-10.0293
sszhhhspnznnznn쎯	-10.03
pzszhsh0쎯	-10.0301
nznpszhpz쎯,	-10.0301
pznn쎯	-10.0309
shhshhshhssz쎯	-10.031
,nhpzpn0쎯	-10.0317
nnnnphzznzzn쎯	-10.0334
pphszh쎯pszhhpzn쎯	-10.0339
쎇쎁	-10.0349
hzhpphsnzzn쎯	-10.0362
nsnzhpn쎯pzzpn0쎯	-10.0364
szhhshnh쎯hppzhh쎯	-10.0379
hshzsz쎯psnhnph쎯	-10.038
nnzhshpn0쎯pnn0쎯	-10.0384
쎀쎀	-10.0385
hszpzhhhsshszhh쎯	-10.0391
hshnhpz쎯	-10.0393
szszs0쎯,	-10.0398
zphzhh쎯zph쎯	-10.04
쎂,	-10.0423
hszpzhhnhpnpnhs쎯	-10.0431
쎀pnzp쎯phhhzszhs쎯	-10.0436
nhpsn	-10.0439
hspnhszpn쎯	-10.0441
、n	-10.0444
pnzpszpn쎯	-10.0449
zphzsz쎯pszhhpzn쎯	-10.0455
쎈-	-10.046
zsh0쎯szhhphhsh0쎯	-10.0466
pzzhz0쎯pnhzszh쎯	-10.047
hpsn0쎯pnhhzn쎯	-10.0471
hpzznp쎯.	-10.0477
pzpzhsh쎯pzzshz쎯	-10.0482
hshpzpn1쎯hhspn2쎯	-10.0482
hzhpzzhz0쎯	-10.0486
nhzp쎯psnhnph쎯	-10.0489
pn2쎯hszhzhhz0쎯	-10.0489
zhznhzzn쎯	-10.049
shshhzhspn쎯	-10.0492
psszhhhhpn0쎯	-10.0494
pszhhpzn쎯《	-10.0498
ppzhpznn쎯	-10.051
pnnzpn쎯	-10.0515
hpshsh쎯shshhz0쎯	-10.0522
hpn1쎯hhzn0쎯	-10.0524
phzn쎯、	-10.0532
szpznnnh쎯hszsn쎯>	-10.0534
,쎂	-10.0537
zhzphpn0쎯npzn0쎯	-10.0538
pzn4쎯	-10.0542
pnhpzhhsznznn쎯	-10.0542
szhhhzn2쎯zsz0쎯	-10.0542
h쎯nphpszhhh쎯	-10.0557
sphnszpz쎯pnhhzn쎯	-10.0558
npzn0쎯nhhsh쎯.	-10.0561
쎁쎉쎄쎉phhshs쎯	-10.0564
pszhhhps0쎯zpznn쎯	-10.0566
nphzpnhsszhpznn쎯	-10.0581
pznzp쎯phspnzph쎯	-10.0593
nhpn0쎯nphpzhhsz쎯	-10.061
szhzp0쎯h쎯	-10.0621
hzhzpznn쎯	-10.0621
nhhsh쎯pshspnh0쎯	-10.0622
쎈쎃	-10.0637
、nhnphhspnpphs쎯	-10.0638
hpnz0쎯szpn1쎯	-10.0643
snphpz쎯nnpnzzzh쎯	-10.0657
zhzpzzpn쎯	-10.0667
hspnpz2쎯、	-10.0672
hhps2쎯hzhhpszh0쎯	-10.0675
phhz쎯	-10.0678
쎂쎀쎀쎉	-10.0679
hhshn0쎯nphzpn쎯	-10.068
zpszh1쎯	-10.0688
hsh2쎯nnpnzzzh쎯	-10.069
hspnhszhh쎯	-10.0697
(phnphnsnzszhh쎯	-10.0701
쎂쎀쎀쎈	-10.0701
nhhsh쎯pzpzhsh쎯	-10.0703
pznnpszhhphs쎯	-10.0705
szhsnzpznn	-10.071
pzppzszh쎯	-10.0716
pshpzn2쎯pshz1쎯	-10.0717
hspnnnzhhspn쎯	-10.0717
phnphnzhzsp쎯쎂	-10.0722
szhszhs0쎯	-10.0725
hspnpphs0쎯	-10.0727
zhz0쎯	-10.0733
hzhpzhzh쎯	-10.0738
.쎁쎂	-10.0742
쎅pnzp쎯phhhzszhs쎯	-10.0748
pzznphhps쎯	-10.0749
쎉쎄	-10.0754
,nhzpphpn쎯pn3쎯	-10.0757
hszhh0쎯hpn1쎯	-10.076
nznn쎯pshz1쎯	-10.0761
phhshs쎯hnphspn쎯,	-10.0773
szhhhspnpphs쎯	-10.078
pznszh1쎯pn2쎯	-10.0783
hspnpzzn2쎯.	-10.0796
hh0쎯phnphnhs	-10.0799
hsh1쎯hpszhhhps0쎯	-10.0811
≤	-10.0812
hzhhhpn쎯	-10.0812
hspnhspn쎯hshzsz쎯	-10.0814
hhh쎯hpn1쎯	-10.0817
zhphhzn쎯hhpzpn0쎯	-10.082
nhnphshszh쎯,	-10.0823
nnnhszsshhhspn쎯	-10.0825
,쎃	-10.0827
hphszhnphhzn쎯	-10.0831
》szhs쎯	-10.0841
hzhnnzpzz쎯	-10.0848
hshnphhsh쎯hzzp1쎯	-10.0851
hszpzhhszhszh쎯	-10.0862
hspn0쎯zzh5쎯	-10.0867
nnzzh쎯	-10.0877
shhzpnzn쎯	-10.0881
phzhhspn쎯	-10.0881
phspnzph쎯、	-10.0885
hspnhhhshz쎯	-10.0888
.szhhhshpn쎯	-10.0894
hspnhhhpnhhs쎯	-10.0906
hnphs쎯znszh0쎯.	-10.0928
hhh쎯hs1쎯	-10.0944
nhpzpnzn쎯hpzznp쎯	-10.0945
phspnszh1쎯hnphs쎯	-10.0947
szshphshhsh1쎯	-10.0947
ppzhszhss쎯	-10.0958
nsnphhsh쎯、	-10.0961
hss	-10.0963
hznnzzn쎯hshzn0쎯	-10.0963
hzhszh2쎯	-10.0963
hpz0쎯hhpz0쎯,	-10.0963
zhpppsphszhhpzn쎯	-10.097
,shszh1쎯hshzsz쎯	-10.0972
hpszhszhhhhzn쎯	-10.0983
zhz1쎯hppzhh쎯	-10.0985
hszhszsn쎯	-10.0994
쎉.	-10.1002
hhshhps0쎯	-10.1011
hhshszhhhsh쎯h	-10.1012
szhhhshznzzhsh쎯	-10.1027
nhzpphpn쎯hpshsh쎯	-10.1027
zn2쎯pznszh1쎯	-10.1031
hszh1쎯phhshs쎯	-10.1031
,nnznnhpn쎯	-10.1032
phnphnzhzsp쎯hz2쎯	-10.1034
쎉-	-10.1037
쎉쎇	-10.1042
zzhpzzn쎯hsh2쎯	-10.1051
hpzn3쎯	-10.1053
hsh2쎯pn2쎯	-10.1058
”szhhhshpn쎯	-10.1067
zphzhhpzzs쎯	-10.1078
nhshzn쎯hhpnszpz쎯	-10.1095
znpznnhzhznnnn쎯	-10.1097
hszpzhh	-10.11
hshhz1쎯	-10.1105
hhps2쎯pnhhpn0쎯	-10.1105
sszhszhpsnhhhsh쎯	-10.1105
szsshpzszhshn쎯	-10.1108
hpszhpzszn쎯hsh	-10.1109
hhpzpnzph쎯	-10.1109
zph쎯pn2쎯	-10.1113
±	-10.1122
쎀hnphs쎯nhzp쎯	-10.1126
zpnnznn0쎯	-10.113
pzphsshszhh쎯	-10.113
pszhhhp쎯pspnzp쎯	-10.1139
phhzznhsh쎯	-10.1146
pzhshszh쎯phhshs쎯	-10.1146
hzsz쎯zsphpn쎯pn3쎯	-10.1163
nphhhsznnznn쎯	-10.1163
szhpz1쎯npzhzsp쎯	-10.1168
szpnpn0쎯hpzn1쎯	-10.1169
hshshpnzhz0쎯,	-10.1182
쎁)	-10.1194
pszhhpzn쎯hs	-10.1199
hshszhnphppp쎯	-10.12
쎂쎂쎀	-10.1204
nphzpnzphphpn쎯:	-10.1216
znhshzp0쎯	-10.1218
phnphnhshhzn쎯,	-10.122
pshpzhhsnhzn쎯	-10.1221
hphspzhspzphhz0쎯	-10.1225
nnzpz1쎯pssnz쎯	-10.1227
npzhzsp쎯	-10.1229
hszsn쎯phnphn	-10.1235
snnhpnn쎯,	-10.1235
szhzph쎯h	-10.1235
pnhz0쎯hhpn0쎯	-10.1236
쎂)	-10.1237
shhsppzh쎯	-10.1239
pzphnphpn쎯	-10.1241
hszh1쎯hs1쎯	-10.1243
pnpn2쎯zznnh쎯	-10.1253
pznhhhsnzzn쎯	-10.1253
zpszhszpn쎯	-10.1255
hphszhnznnznp쎯sz	-10.1256
nphzpn쎯pszhhpzn쎯	-10.1257
phshpzphshpzszpn	-10.1258
pn2쎯hshpzhh0쎯zzh	-10.1263
.”nhpzhhsszh쎯	-10.1267
hphhzpn쎯	-10.1268
쎁쎉쎈쎃phhshs쎯	-10.1268
zzhssshnszpz쎯	-10.1272
hshhpsn0쎯	-10.1275
szhhz2쎯nhpsnsz	-10.1279
phspnszhpn1쎯쎂	-10.1282
zzspn쎯pshszh0쎯	-10.1284
hzhz1쎯pshpznsz쎯	-10.1291
zpznn쎯szhhpzhh2쎯	-10.1294
pnhhzn쎯phzn쎯	-10.1298
pznnhpnszhhz쎯	-10.1301
hzhpnnpnzzn쎯.	-10.1303
szhs쎯s	-10.1305
%.	-10.1307
pzhhnhphsh쎯	-10.1308
hpnphzsppzpn쎯	-10.131
nphhps쎯szhhh0쎯	-10.1312
psphhs1쎯,	-10.1317
snphpz쎯sz	-10.132
nhpn0쎯pphszh쎯,	-10.1323
hsszhhspspn쎯	-10.1334
hznnpnn쎯,	-10.1342
hs1쎯nhpn1쎯	-10.1344
zpn3쎯zzhszhhh0쎯,	-10.1346
szhsnzpznn쎯hhs쎯	-10.1349
nnzszhhzph쎯	-10.1357
pz1쎯sz	-10.1362
-쎁쎀	-10.1363
nsnhpzn1쎯	-10.1364
쎁쎉쎇쎈phhshs쎯	-10.1367
phshpz쎯nnpzzhhz쎯	-10.137
szhshzp1쎯zzh0쎯	-10.137
pnhpzhhsz쎯	-10.1373
hnphs쎯znszh0쎯,	-10.1373
、p	-10.1375
hzhhszn쎯hshhz1쎯	-10.1383
nzsnnpnpsnhhhsh쎯	-10.1384
nnnhhs쎯	-10.1385
zzhpnhnnph쎯,	-10.1389
szpn1쎯phspnnnhs쎯	-10.139
hzhnhpz쎯szhh3쎯	-10.1392
쎁쎀-	-10.1398
93쎯hzzpn0쎯	-10.1409
hzhpnzp0쎯	-10.1413
쎈pns쎯	-10.1415
hzphpz쎯	-10.1417
shnpn쎯npzn0쎯	-10.1419
hshpzhh1쎯phhshs쎯	-10.1422
nnzpzphhszs쎯	-10.1425
hpn1쎯pznpzn0쎯	-10.1426
shpzn2쎯pphsszpn쎯	-10.1427
phspnszhphsh쎯.	-10.143
nnnhspnhspn쎯	-10.1436
hszpnn쎯szhhhzp0쎯	-10.1439
szhhhhsh0쎯	-10.144
>>	-10.1443
nnnpzsznzph쎯	-10.1446
쎅)	-10.1447
pphs0쎯zzhpzzn쎯	-10.1452
nnnpszhh쎯	-10.1454
znszpz쎯pnpnpn0쎯	-10.1454
szhzshz1쎯	-10.146
.”szhhpzhh2쎯	-10.1464
.szhszh1쎯	-10.1467
nhnphszhhhsppp쎯	-10.1469
zzpn0쎯nhphzhs쎯	-10.1475
,shhhz쎯	-10.1476
,szhhh0쎯	-10.1483
phnphnzhhp쎯	-10.1485
pz0쎯szhszpn3쎯	-10.1491
pzznszssh쎯	-10.1507
hzzpn0쎯sz	-10.151
쎉쎁	-10.1522
szs1쎯szhhhzn0쎯	-10.1526
hhs3쎯nzhhshpzhh쎯	-10.1546
쎇쎀쎀	-10.1548
nsnpsnhhhsh쎯	-10.1565
//	-10.1573
szhpsnhhhsh0쎯	-10.1591
szhpszszh쎯zp1쎯	-10.1597
pnhzszh쎯hppzhh쎯	-10.1599
szhpzpn0쎯	-10.1602
hhzsnzn쎯	-10.1606
hsshhszhshpn쎯	-10.1608
szhhhszhhhsh0쎯:쎁	-10.1609
pnzn0쎯hhpz0쎯	-10.1623
쎁쎉쎈쎁phhshs쎯	-10.1628
shhsznzzp쎯	-10.1635
.szhs쎯szhhshnh쎯	-10.1635
hnphs쎯hpszsshhh쎯	-10.1638
phshpzpp쎯.	-10.1657
hpnz0쎯.	-10.1659
nsnnpszhpz쎯	-10.1663
쎁.쎀	-10.1666
pzhhzszn쎯pznzp쎯,	-10.1668
snnhpnn쎯nnszhpz쎯	-10.1671
pzhhs0쎯hnphspn쎯	-10.1685
,szhpnh쎯npzn0쎯	-10.1687
zznnh쎯nhnphhspn쎯	-10.1695
phhsh1쎯hpszzh쎯	-10.1697
pz3쎯pns쎯	-10.1701
hh0쎯phhshs쎯	-10.1703
hspznnzzn쎯:	-10.1714
snz	-10.172
pn3쎯phshpznzzn쎯	-10.1721
nnzhz0쎯nnnpzszn쎯	-10.1733
ppznnh쎯	-10.1738
szhhz2쎯phhz2쎯	-10.1738
,zpszh0쎯pn3쎯	-10.1745
hzshz쎯	-10.1747
zzshhszs쎯nzhzhs쎯	-10.1747
쎆)	-10.1757
hhshszpz쎯npzn0쎯	-10.1757
pnzs쎯	-10.1769
-쎃-	-10.1773
pzpzzhszssh쎯	-10.1777
hs1쎯pn4쎯	-10.1779
.쎃、	-10.1779
nhpsnszhpz쎯	-10.1785
hpszhhhsh0쎯	-10.1786
nnnpphs쎯	-10.1788
phzn쎯nnnzpnp쎯	-10.1799
szpzh0쎯hpn1쎯	-10.1801
hszh1쎯pnhhsnph0쎯	-10.1802
hnphs쎯p	-10.1815
h쎯hznhshpzn쎯	-10.1817
nnnhhshpzhh쎯sz	-10.1824
hspnhzn0쎯,	-10.1831
szhszhszh0쎯、	-10.1831
shhshzzp쎯	-10.1831
nhzp쎯phhhzhs쎯	-10.1832
phhhzpznszh1쎯	-10.1834
,nhszhszszh쎯	-10.1836
zzshnphpn쎯	-10.184
znn1쎯	-10.1846
hshzsz쎯hshshsh쎯	-10.1852
nzzhz쎯nsnz0쎯	-10.1859
nppnnnzhhpz쎯	-10.1865
phhszsshh	-10.1866
szhhhphsshhshh쎯	-10.1883
szhhhzn0쎯hsh	-10.1883
nphspnpznhshs쎯	-10.1887
nnzpn0쎯	-10.1891
“szhs쎯szhhshnh쎯	-10.1891
hhhszphpn쎯	-10.1892
nppnhpszpn쎯	-10.1895
hpszs0쎯zhpzszh쎯	-10.1899
.hsshhhpn0쎯szhs쎯	-10.1901
znhzn0쎯nhzp쎯	-10.1901
szshnphpn쎯	-10.1905
hsnzzzhzp쎯	-10.1909
h쎯hpnshhhhzn쎯	-10.1911
쎯hshpzhh0쎯phhz2쎯	-10.1911
hsszh쎯szhsshpn쎯	-10.1919
pzszhhz쎯	-10.192
nzszhpn쎯szhzpsz쎯	-10.1926
hzhzszn쎯hhssz쎯	-10.1928
nphszpzhh	-10.1933
hpnz0쎯phspnzph쎯	-10.1938
hshzsz쎯,	-10.1952
szhs쎯hssznphhs쎯	-10.1956
nhnphshszh쎯.	-10.1956
쎃.쎅	-10.1966
nhpnnpshhzhhszn쎯	-10.1969
쎃쎂쎀	-10.198
”phnphnhshhzn쎯	-10.1981
pzszhpzn쎯	-10.1984
shszpn0쎯	-10.1992
phhsh1쎯hznpznn0쎯	-10.1994
hhspznhshszpn쎯	-10.2001
pspnn쎯hhshpzpn1쎯	-10.2001
nhszhnzhpzpppn쎯s	-10.2002
shhspznphzpn쎯	-10.2002
szpzh0쎯phhshs쎯	-10.2005
hhsszh쎯	-10.2006
,hsshpn쎯	-10.2008
hpzp쎯szhpn3쎯shh쎯	-10.2009
zzhhpnz쎯	-10.2011
pnhzn쎯pn2쎯	-10.2017
szhshshzzpnszhh쎯	-10.2029
hpszhh쎯phhshs쎯	-10.2037
hpnpnpnpnpn0쎯	-10.2042
szhszhszh0쎯h	-10.2047
nhpsnhsh쎯szhzph쎯	-10.2051
hzhpphsn쎯	-10.2056
》phnphnhshhzn쎯.	-10.2064
―	-10.2068
nnzpnzp0쎯	-10.2072
zphszh1쎯shshhz0쎯	-10.2072
hszspnsz쎯n	-10.208
zsz0쎯hpsn0쎯	-10.2084
hznnzzn쎯zz2쎯	-10.2084
쎁쎈쎀	-10.2089
---	-10.2093
shhsnnnzpnp쎯	-10.2095
hssznphhs쎯nhzp쎯	-10.2099
hpsn0쎯hszsshzph쎯	-10.2102
,쎄	-10.2117
nzpzpn0쎯nzhp쎯	-10.2117
hpn1쎯pnpnpn0쎯	-10.2119
szpnszhhpzpp쎯	-10.2133
zzs쎯	-10.2135
pzn7쎯	-10.2138
hszhsh0쎯hhpzpn0쎯	-10.214
pszhhnhzpphpn쎯	-10.2149
shnpn쎯nphpzhhsz쎯	-10.2164
zzhspnp쎯	-10.2165
pszzh1쎯	-10.2167
nnnnzzpn쎯	-10.2169
szhhz2쎯hspnpz2쎯	-10.2172
pshz2쎯,	-10.2177
153쎯nzhszhszh쎯	-10.2178
hshshpn쎯pszszh쎯	-10.2179
쎃쎀쎀쎀	-10.218
pszhhp쎯hsshhhpn	-10.2182
hzhhppnn쎯쎁	-10.2183
szhszs0쎯	-10.2187
shszhhhspn쎯	-10.2189
zsz0쎯hszhz1쎯	-10.2196
pnznznnznn쎯	-10.22
nzhsshszhhhsh쎯	-10.2204
nhpspnzp쎯szhs쎯	-10.2205
zzhnhhsh쎯hshzsz쎯	-10.2208
pszpnphspnhhz0쎯	-10.2221
hpz0쎯hhpz0쎯	-10.2226
ppsphhhzhhz쎯	-10.2227
pzppnznn쎯	-10.223
쎀쎀hnphs쎯nhzp쎯	-10.2233
shhhz쎯nhzp쎯	-10.2235
sshhhpn0쎯nnzpz1쎯	-10.2235
.szhhpzhh2쎯	-10.2237
hszpzh쎯hssnph쎯	-10.2238
쎃.쎀	-10.2241
nhpnps쎯pnhhsh쎯	-10.2243
》phnphnzhzsp쎯	-10.2245
pszhhphs쎯	-10.225
h쎯pshhhpzzn쎯	-10.226
쎁쎉쎇쎉phhshs쎯	-10.2274
hshnznn0쎯》	-10.2286
szhhhshpn쎯pns쎯	-10.2291
-쎄-	-10.2291
●	-10.2299
:쎃	-10.2303
nnnphpn1쎯	-10.2307
shnpn쎯hpnn0쎯	-10.2316
nhszs쎯zzhpzzn쎯	-10.2317
h쎯shszhnnnn쎯	-10.2317
nzhzh쎯pszhhpzn쎯	-10.2327
nzhshsh쎯hszsn쎯	-10.2331
zphpnnzpn쎯	-10.2333
pszhhpzn쎯hshzp2쎯	-10.2336
phs0쎯phhshs쎯	-10.234
pzzn3쎯szhhhzn2쎯	-10.2349
zpszhzzh쎯	-10.235
-)	-10.236
hsszhpz쎯pzpn2쎯	-10.2363
hshnpzpn쎯	-10.2371
hzshhhs쎯	-10.2371
hhhspn쎯pshspnh0쎯	-10.2373
zphznnznn0쎯	-10.2373
nhpsnzhszh쎯	-10.2379
szhhzsh쎯szpn1쎯	-10.2384
pznpzn0쎯zphhss	-10.2385
pszhshpzznhhspn쎯	-10.2393
pszhhhp쎯npzn0쎯	-10.2395
pzhspn1쎯	-10.2398
hspnsn쎯	-10.2403
nhszhsh쎯	-10.2405
nnhs쎯pzzhhz쎯	-10.2415
phnphnzhzsp쎯pn4쎯	-10.2415
pnnpnzzn쎯znzz0쎯	-10.2419
szhshnpznhhhs쎯	-10.2428
pznszh쎯hpshsh쎯	-10.2432
pnzzsz쎯zphznszh쎯	-10.2434
hzhhzhz0쎯zpznn쎯	-10.2436
hsshhhpzpzs쎯	-10.2441
znphhpn쎯	-10.2447
hzhnhnphszhhhsh쎯	-10.2453
hpznhz1쎯nhz쎯	-10.2464
szhshnhsshzhspn쎯	-10.2464
hshnzssnph쎯	-10.2469
nppnnphhh쎯	-10.2479
쎀쎀쎀hnphs쎯nhzp쎯	-10.2482
hpnn1쎯	-10.2484
ppszhhzpn쎯hpn1쎯	-10.2487
hs1쎯h쎯	-10.2488
hsshhhpnpzhh1쎯:	-10.2489
nnnhshzn쎯pn2쎯	-10.2489
nhhpn0쎯nnnnhhsh쎯	-10.2493
zzsszhh0쎯snphpz쎯	-10.2493
psnphs쎯	-10.2495
szszs0쎯hsh0쎯	-10.2496
ppshhz쎯pszhhpzn쎯	-10.2497
、hshpzzhphpn쎯	-10.2498
pnzn0쎯nhpnpn0쎯	-10.2499
nhnphszhsz쎯	-10.2507
hhps2쎯nzpzzn쎯	-10.2516
pznszh0쎯zzhpzzn쎯	-10.2518
쎂쎅쎀	-10.2523
nphszs쎯、	-10.2523
,hsshhhzn0쎯	-10.2528
hpszhh쎯zphphhsh쎯	-10.253
、nhnpszpzszh쎯	-10.2531
,hpn1쎯	-10.2535
zzhpzn0쎯쎁	-10.2535
pzzpn0쎯sz	-10.2547
h쎯phhsh1쎯	-10.2549
znpzhhsnzzn쎯psh	-10.2549
,phnphnsnzszhh쎯	-10.2552
nzzhz쎯》	-10.2553
zzhhhznp0쎯,	-10.2553
nnzhshpn0쎯zz2쎯	-10.2556
zzp쎯hsh	-10.256
zzsnnzhhpz쎯、	-10.2569
hhzn0쎯nnnnhhsh쎯	-10.2571
hs1쎯pnhhspn1쎯	-10.2583
ppsnnnhhz쎯	-10.2584
hs1쎯hpn1쎯	-10.2585
szhpzzn0쎯zhzs1쎯	-10.2588
pzhhs0쎯pszhhpzn쎯	-10.2609
쎂、	-10.261
hshzshppzzn	-10.2612
zpnn1쎯nnnhshzn쎯》	-10.2616
zhpn2쎯	-10.2622
hsszzhszhhszssh쎯	-10.2622
hszspnnn쎯	-10.2625
hspnzzshppzhh쎯	-10.2626
znpznnhzhz쎯:	-10.2642
～쎁	-10.2644
zph쎯zzhnhzppn0쎯	-10.2647
hsh1쎯,	-10.2652
zsz0쎯phspnpzzpn쎯	-10.2657
pspphpnps쎯	-10.2658
:《	-10.2659
hzhhszph쎯	-10.2661
szhszpnzp쎯	-10.2668
pszhh쎯nhphsshzn쎯	-10.2668
h쎯hshzzpp쎯	-10.2678
phhhzszpn0쎯	-10.268
phhz2쎯pshspnh0쎯	-10.2686
“hhh쎯	-10.2688
쎂쎄쎀	-10.2691
zzhzshh쎯zzhpzn0쎯	-10.2695
nnnhsshhhpzz쎯	-10.27
pns쎯pshspnh0쎯	-10.2702
phhsh1쎯hhznzp쎯	-10.2705
nsnphhsh쎯.	-10.2716
pphs쎯nphhh쎯	-10.2726
hpn1쎯zzspn쎯	-10.2733
zzhhpnz쎯hhznzp쎯	-10.2734
쎀.쎁	-10.2735
,zph쎯,	-10.2748
nnnpnzz쎯	-10.2752
쎁쎆쎀	-10.2753
szhhssnph1쎯shhsn	-10.2759
hsznhszn쎯nnnhsh쎯	-10.2761
hhzn쎯nnspznhpn쎯	-10.2761
shshspp쎯ppshhz쎯	-10.2761
а	-10.2763
pnnhpnzsszshn쎯	-10.2767
shhsnnn	-10.2771
nzp쎯nphzpnhpn0쎯:	-10.2774
ー	-10.2787
zhhhzn쎯hzhhznp0쎯	-10.2789
hhhzszhshhsshpn쎯	-10.2789
()szhhhshpn쎯	-10.2789
hphsshzn쎯hshzsz쎯	-10.2792
nhszhnzszhpznn쎯	-10.2794
nzphspnpz쎯	-10.2797
hshznzp1쎯	-10.2797
pspz0쎯	-10.2799
szpnhhpznp쎯	-10.2801
hszhhznpnznn쎯	-10.2802
pszhhh0쎯ppshhz쎯	-10.2806
nzpzzn쎯hpshsh쎯	-10.2817
zpnp쎯zph쎯	-10.2823
npzn0쎯h쎯	-10.2827
pznpzn0쎯hhpz0쎯	-10.2838
》pszhhpzn쎯	-10.2839
zzsnnzhhpz쎯,	-10.2841
phnphnzzhpzpppn쎯	-10.2842
hzhnhsz	-10.2845
]	-10.2846
szs1쎯hpnz0쎯.	-10.2848
zhhznzs쎯hszhz1쎯.	-10.2859
쎁szhhz1쎯	-10.2866
pphszh쎯hnphspn쎯	-10.2868
nhhsh쎯nnnznszh쎯	-10.287
zpnpsnhhhsh쎯	-10.2871
hhshnhszhzpn쎯	-10.2874
hspnnhpz쎯	-10.2881
hhshzn3쎯,	-10.2882
phhzzhzps쎯	-10.2884
szpn1쎯,	-10.2887
pz0쎯nhzp쎯pszszh쎯	-10.2889
zn쎯	-10.2896
h쎯hzhhzhz0쎯	-10.29
szsshszh1쎯	-10.29
shhsnhzznszhsh쎯	-10.2901
nhszhnzphhz쎯nphz	-10.2902
hhs쎯nppn	-10.2908
nnznhnphhs쎯	-10.2917
pznzp쎯zhpzszh쎯	-10.2923
○	-10.2931
ㄨ	-10.2936
、hsshszhshpn쎯	-10.2936
pnpzzn쎯phshpzpp쎯	-10.2936
;쎃	-10.2942
pszhhpzn쎯h쎯	-10.2944
zhphsshzpn쎯.	-10.2946
phspnszh1쎯zpznn쎯	-10.2951
hszhzhhz0쎯phzn쎯	-10.2957
pzznzpn쎯,	-10.2961
pznnpzhpzz쎯	-10.2965
hsszh쎯hshhpzznp쎯	-10.2966
zhpszssz쎯	-10.2967
szpzh0쎯hs1쎯	-10.2973
hppzhh쎯h쎯pns쎯	-10.2978
zhzzn0쎯	-10.2983
”npzn0쎯	-10.2984
,phsszhnzzn쎯	-10.2986
nhpspnpnpnszh쎯	-10.299
phspnszhspn쎯	-10.3009
nzhszhszh쎯nhpn2쎯	-10.301
zzpn0쎯nnnzhphz쎯	-10.3018
zhzphzn쎯)	-10.3026
nnnznpzhhs쎯	-10.3029
→	-10.303
쎀-	-10.303
hppzhh쎯shshhzhh쎯	-10.3031
쎁쎉쎀	-10.3041
zz2쎯.	-10.3044
szhhpzpnzpzpn쎯	-10.3045
zzspnhhspn쎯zz2쎯	-10.3046
phshpzpp쎯ssnph쎯	-10.3046
,szhsh2쎯hhz1쎯	-10.3047
、hszhszhshsz쎯	-10.3053
phnphnnphpzhhsz쎯	-10.3064
nhszhphhz1쎯hpn1쎯	-10.3072
pnhz1쎯	-10.3072
pshz1쎯snnzph쎯	-10.3075
pnhzhhzpn쎯hphz0쎯	-10.3078
pspnhpzhhsz쎯	-10.308
,znpznnhzhz쎯	-10.3081
zzhszhszhhz쎯	-10.3083
ˋ	-10.3086
”nhpn0쎯	-10.3095
zzh5쎯hsszhpz쎯	-10.3098
phzn쎯.	-10.3115
hszhz1쎯hpnnzzn쎯	-10.3116
zz2쎯“	-10.3118
쎁쎉쎈쎀phhshs쎯	-10.3121
ppznnhpszhh쎯	-10.3121
pshzszpn쎯pszs1쎯	-10.3123
(-)	-10.3132
shhsn쎯pshz2쎯	-10.3134
pphsnzzn쎯pshzn1쎯	-10.3136
zzshphshpznn쎯	-10.314
hhz2쎯nnnpzhspn0쎯	-10.3142
pnzn0쎯nhpsnhsh쎯	-10.3144
zz2쎯h쎯	-10.3144
,nphhps쎯hpshsh쎯	-10.3147
psszspsnhhhsh쎯	-10.3151
zzhphspnpz쎯	-10.3157
nzhnphs쎯nzpnpz쎯	-10.3163
hspnpz2쎯,	-10.3169
phspnszh1쎯h	-10.3171
hnzsnnpnphzznnh쎯	-10.3171
nnnznhpnppp쎯	-10.3173
nhszs쎯szhs쎯nznn쎯	-10.3173
nppnpnhpszs쎯	-10.3173
pnps쎯pphsszpn쎯	-10.3175
쎅hsszhpz쎯	-10.3175
hspnszhszh쎯	-10.3175
hsshhhpnpphs쎯·	-10.3182
쎯	-10.3182
nphszhhpz쎯nnhpn쎯	-10.3183
hspn2쎯shhsnnnzz쎯	-10.3198
)、《	-10.3203
nzzn쎯pzszhpz쎯	-10.3206
pszhhh0쎯nhhsh쎯	-10.3209
shshhzpsnhhhsh쎯	-10.3212
phshhnznn쎯	-10.3217
shszhhznp쎯hsh1쎯	-10.3232
,zzhhshszh0쎯	-10.3233
pshhzn1쎯》	-10.3236
nzhzn쎯nzpnpz쎯	-10.3237
pszhhpzn쎯pspnps쎯	-10.3241
nhszhzzh쎯hppzhh쎯	-10.3248
hzhpzhhs쎯	-10.3252
pnpnpn0쎯phhsh1쎯	-10.3262
nnnshhsszhhhpn쎯	-10.3277
szhh3쎯hzhzszn쎯	-10.3278
,pznpzn0쎯	-10.3279
nnzhpznp쎯	-10.3284
snzszhhs쎯	-10.3289
szhhhzhzhz쎯	-10.3289
nhnphpppp쎯	-10.3294
nnzpzszhszpn쎯	-10.3294
phhshs쎯snzszhh쎯	-10.3295
hs1쎯hhh쎯	-10.3303
pznzpszhsh쎯hsn쎯	-10.3305
zphhsszh쎯	-10.3307
hphsh1쎯hpszh0쎯,	-10.3316
zhhznhzpzszhhh쎯	-10.332
、phspnnnhs쎯	-10.332
hpznp쎯	-10.3324
쎂쎀쎀쎃	-10.333
hszsshhspn쎯	-10.333
phspnszhs쎯zzh0쎯	-10.3331
hpn1쎯hspnphpnps쎯	-10.3332
zpszh0쎯hshpzszn쎯	-10.3335
szhhpzzs쎯	-10.3339
snphpz	-10.3345
hhznzp쎯,	-10.3356
szhszhhhzzzs쎯	-10.3357
hnphhsnznhnphhs쎯	-10.3361
hhh쎯phnphnhs	-10.3363
pshznp쎯	-10.3372
쎉쎃	-10.3376
hhz1쎯쎂쎀쎀쎉phhshs쎯	-10.3382
hzhhsshpn쎯	-10.3385
nzpzzn쎯nzhs쎯,	-10.3387
hzshszhsh쎯zzhhhz	-10.3391
pszhhnhzpphpn	-10.3393
nhnph	-10.3396
hszhzhhz0쎯、	-10.3399
/쎁	-10.3401
、shh쎯nnnphzznnh쎯	-10.3418
zhppszhszshn쎯p	-10.3421
쎂쎀쎀쎅	-10.3422
hsshhhpn0쎯szhs쎯p	-10.3425
쎇pns쎯	-10.343
hhhshspnhszs107쎯	-10.3439
hhpn0쎯hshzsz쎯	-10.3445
pnhhsnph쎯	-10.3446
hzpsz쎯pznszh1쎯:	-10.3447
1쎯	-10.3451
znzn3쎯nhzp쎯	-10.3452
szhshszhzhnzzn쎯	-10.3461
hzhzzpp쎯hshzshp쎯	-10.3462
hsshhhpnpzhh1쎯,	-10.3466
hspnhszhz쎯	-10.3469
zzsnnzhhpz쎯.	-10.3469
hszhpn쎯	-10.3471
,쎁	-10.3472
hphhzpnszh쎯	-10.3476
zzpn0쎯szhhz2쎯	-10.3479
、szhhz2쎯	-10.3483
(,	-10.3484
nnzhshpn0쎯,	-10.3491
pz3쎯pnphz0쎯	-10.3494
shh쎯hppzhh쎯	-10.3499
phhhshhhhzhs쎯	-10.3514
nzhhps쎯nphszs쎯	-10.3515
phzn쎯nhphsshzn쎯	-10.3518
hs1쎯szpzh0쎯	-10.3523
hpshsh쎯sz	-10.3523
hszsn쎯nzzhz쎯.	-10.3528
psphshh1쎯ssnph쎯	-10.353
nnnhhhphzn쎯	-10.353
hsn쎯nzpzzn쎯	-10.3538
zpznn쎯szhhz2쎯	-10.3539
,h쎯ppznnhpzzn1쎯	-10.3539
pznszhsh0쎯,	-10.3541
shhsnnnhpzhhsn쎯	-10.3544
nnnhzhpphs쎯	-10.3545
쎉쎀쎀	-10.3547
szhhhhhshpzhh쎯	-10.3551
nsnzhhzpn쎯	-10.3551
hzhsnpnzszhphhz쎯	-10.3551
shhsnhz쎯	-10.3567
pznpzn0쎯hshzp2쎯	-10.357
,zsz0쎯hszhz1쎯	-10.357
nsznhszs쎯	-10.3571
pzhhs0쎯psphshh1쎯	-10.3575
hspnpsnhhhsh1쎯	-10.3578
phnphnzhzsp쎯쎃	-10.3579
znzzs쎯	-10.3581
szpnpzzn쎯znnhpn쎯	-10.3584
phspnszhpn1쎯쎃	-10.3584
pn2쎯szh0쎯쎁	-10.359
hhhshspnhszs219쎯	-10.3592
zzhhhzpn쎯pzzhz0쎯	-10.3592
phspnszhphsh쎯h	-10.3594
shhsnznn쎯	-10.3596
-;	-10.3602
hszsn쎯nzzhz쎯,	-10.361
szhhz1쎯,	-10.361
hszsshhhspnpzpn쎯	-10.3613
hszpzh쎯shh	-10.3616
hpnhhspn1쎯	-10.3617
zpnzhh0쎯phhshs쎯	-10.3618
phsszhphpn쎯pn2쎯	-10.3619
nnzszhzh쎯nhzp쎯	-10.3621
nnnhsshz쎯	-10.3624
hsh2쎯psphshh1쎯;	-10.3625
hspnszhhh쎯	-10.3627
phhszshsh쎯	-10.3635
hpszhhsshzhspn쎯	-10.3635
nhpnnhszpn쎯、	-10.3643
szhhhshpn쎯:	-10.3644
pznsn쎯hshnzhpz쎯	-10.3651
》shhspzphpnn쎯	-10.3652
nphzpnnnhs쎯、	-10.3656
szhhz2쎯znszh0쎯	-10.3658
zp1쎯pszhhpzn쎯	-10.3665
ppshhz쎯.	-10.367
123쎯hhshszhhhsh쎯	-10.3671
hphhpnz쎯phhsh1쎯	-10.3675
nnzshhzpnzn쎯	-10.3676
nzphhs쎯hszhz1쎯	-10.3681
hpsn0쎯szhshpn1쎯	-10.3682
hszpzhhzhz쎯sz	-10.3689
hpszhzzh1쎯:	-10.369
쎁쎉쎆쎃phhshs쎯	-10.3693
nnhzzpn쎯	-10.3695
shzphzszhzhpn쎯	-10.3698
쎁.쎂	-10.3702
shhsszhhhpnznnn쎯	-10.3704
pszhhpzn쎯nznn쎯	-10.3705
nnnszhhh1쎯	-10.3706
pz0쎯nnzhznhsh쎯	-10.3711
hshhsshhhpzz쎯	-10.3714
pszhhpzn쎯snzszh쎯	-10.3719
szhzp0쎯	-10.3721
쎁쎉쎅쎇phhshs쎯	-10.3731
、phspnszhh쎯	-10.3732
nsnzzshszpn쎯	-10.3733
hpn쎯hspnhzn0쎯,zh	-10.3735
쎃,	-10.3736
pnhhpn0쎯hsszs쎯	-10.3752
nhszs쎯zhzhz0쎯	-10.3762
szhs쎯nznn쎯、	-10.3764
hszpzh쎯h	-10.3765
szpnpn0쎯hpszpn쎯	-10.3768
∶	-10.3769
pzhh1쎯쎂쎈szhh3쎯	-10.377
nnhpn쎯,	-10.3773
(shnpn쎯hsn쎯	-10.3775
hspnnnnn쎯szszs0쎯	-10.3777
hshphz3쎯pn3쎯	-10.378
쎁쎉쎆쎄phhshs쎯	-10.3782
hhshszpz쎯szszs0쎯	-10.3782
z2쎯hszpzhh	-10.3783
,hspnzhhzpn쎯	-10.3783
..("	-10.3783
hzhnhszhszszh쎯	-10.3783
pshsh1쎯	-10.3795
().	-10.3797
,n	-10.3809
nnnszhsh0쎯、	-10.3813
,psszhhspn쎯	-10.382
phzhznppznzh쎯	-10.3823
hpszh1쎯sz	-10.3824
phhsh1쎯hpzznp쎯	-10.3827
/////.",(){(	-10.3828
-쎂쎀	-10.3833
hhhspn3쎯shnpn쎯h	-10.3834
szhhzsz쎯	-10.3835
pz2쎯zzh0쎯	-10.3837
hpszss쎯szhhh0쎯	-10.3838
쎁쎀쎀쎀쎀쎈쎀쎁);});	-10.3839
szpznnnh쎯,szhh	-10.3841
》nphhpnzz쎯	-10.3841
hhz1쎯hpszhh쎯n	-10.3843
hssnnspznhzn쎯	-10.3844
pnhszh쎯szhhshnh쎯	-10.3845
nhpspnszhsh0쎯	-10.385
nn쎯zzhhshszh0쎯sz	-10.3855
hsshhhzn0쎯zzhpzn	-10.3855
pzzn1쎯	-10.3859
nnnhshzn쎯》	-10.3859
hzsh	-10.3864
”(	-10.3869
shhspznhhhsnzzn쎯	-10.3869
쎁쎉쎆쎀phhshs쎯	-10.3881
pshhzs0쎯hpn1쎯	-10.3882
-쎂쎀쎀	-10.3885
psnppn쎯psnphhs쎯	-10.3889
szhhz2쎯hhznzp쎯	-10.3894
h쎯hsn쎯	-10.39
shnpn쎯hsshhhpn0쎯	-10.3901
szhh3쎯nzhzhs쎯	-10.3903
hzhppznnhpzzn쎯	-10.3905
,hshpszhhzzs쎯	-10.3905
zzpn0쎯,	-10.3906
pspshzhhpz쎯	-10.3908
nhpsnzhhzzpn쎯	-10.391
hshpzhh0쎯npzn0쎯	-10.3915
nhhsh쎯hspnhpzn0쎯	-10.3919
,zhppszhszshn쎯h	-10.3919
,《	-10.3928
hppszhhzpn쎯zzh0쎯	-10.3949
hzn0쎯	-10.3951
pnzn0쎯zhszh1쎯、	-10.3955
phhhzpshhhpzzn쎯	-10.3957
、hpn1쎯	-10.3958
쎁쎁쎀	-10.3959
pznszh1쎯npzn0쎯“	-10.3962
szhhhspn3쎯.	-10.3963
hhz1쎯쎂쎀쎀쎅phhshs쎯	-10.3972
《szhs쎯	-10.3981
,hpzznp쎯nhnph쎯	-10.3982
zzsnhzp쎯szh	-10.3989
shzsz쎯hpszsshhh쎯	-10.399
『	-10.3994
hszpnpn쎯phhshs쎯	-10.4
nzhshsh쎯nphhpnzp	-10.4001
pshsshpn쎯szhhz2쎯	-10.4005
hshphz3쎯hsszh쎯	-10.4007
zhpzszh쎯、	-10.4012
pszhhhhpnn쎯	-10.4014
hzhzhs0쎯	-10.4016
pznzznznn쎯	-10.4021
쎄、	-10.4023
hszsn쎯,	-10.4026
zzzszhhhspn쎯	-10.4033
쎁쎉쎅쎉phhshs쎯	-10.4038
hppzhh쎯:	-10.404
hpsn0쎯zpnp쎯	-10.4053
pszhzhhs쎯	-10.4055
hpnz0쎯、	-10.406
zph쎯pz2쎯	-10.4068
쎁/쎂	-10.4069
,hzhhzszhh쎯	-10.4069
hpzznp쎯,	-10.4071
nphpzhhsz쎯,	-10.4074
쎅°C	-10.4075
shnzhpnpnszhhh쎯	-10.4076
nnnzph쎯	-10.4076
szhs쎯hppzhh쎯	-10.4077
ppszznpzn쎯	-10.4081
zhhnhzpphpnnzzn쎯	-10.4082
szhshzp1쎯pn2쎯	-10.4084
pszhhpzn쎯nhhsh쎯	-10.4085
°C,phhshs쎯	-10.4089
nnzzph쎯szhhhzn0쎯	-10.409
zphphpn쎯	-10.4091
zshpszhhh0쎯	-10.4091
phhhzhshz쎯	-10.4091
,nhhsh쎯	-10.4093
、nphhshhpn쎯	-10.41
zzhhhzpn쎯zpnn1쎯	-10.4106
nnnpsnphzpn쎯	-10.4107
shnpn쎯phspnszhs쎯	-10.4108
psphshh1쎯pz	-10.4109
shhsphspnsz쎯	-10.4114
hshpss쎯nhszs쎯	-10.4119
hpnzpzpn쎯nnn	-10.4122
hshshpnzhz0쎯zz2쎯	-10.4124
쎁쎉쎅쎈phhshs쎯	-10.4125
,hsn쎯	-10.4127
,hzhpsnhhhsh쎯	-10.4128
hzhnhnpszhsszh쎯	-10.4136
nznphzhhsspn쎯	-10.4137
phhhzpsnhhhsh쎯	-10.4144
zzhzpnnzn쎯	-10.4146
hshshpnhhs쎯	-10.4148
phsshhhzpnsz0쎯	-10.4148
쎂쎀쎀쎄	-10.4152
phhpnhszhh쎯	-10.4153
,hshzsz쎯pznpn쎯	-10.416
hzhszhpznn쎯	-10.4161
”phspnszh1쎯“	-10.4161
nzzn쎯nzhhshpzhh쎯	-10.4164
zs0쎯nnhs쎯pzzhhz쎯	-10.4169
.쎀쎇	-10.4175
쎃)	-10.4177
hszh1쎯pns쎯	-10.4177
zzsnnzpz쎯	-10.4179
nsnhsshszhh쎯	-10.4179
hhz1쎯쎂쎀쎁쎀phhshs쎯	-10.4182
hzhhz0쎯hhps2쎯	-10.4184
쎁쎉쎅쎄phhshs쎯	-10.4186
hnphspn쎯,	-10.4192
phzznnh쎯h쎯	-10.4193
,zhz1쎯	-10.4195
szhszh1쎯shshspp쎯	-10.42
pnpnzs0쎯	-10.4206
szhzpszh0쎯szh	-10.4211
pnzp쎯.	-10.4222
hszpzh쎯hphhpnz쎯	-10.4229
shhshpszh쎯hhs쎯	-10.4229
,hszpnpn쎯	-10.4233
pszhhpzn쎯pzpn2쎯	-10.4237
の	-10.4239
.szhpnh쎯	-10.4242
zzhzhz쎯phspnzph쎯	-10.4242
nsnpszhh쎯	-10.4245
npszhhhs쎯hhpz0쎯	-10.4254
szhhssnph1쎯hhspn	-10.4257
szhssh0쎯,	-10.4257
phhhzpzzn1쎯	-10.4257
hhz1쎯쎂쎀쎀쎆phhshs쎯	-10.4258
(h쎯)	-10.4261
nhzpphphhpn쎯p	-10.4262
nnnhphshhsh쎯	-10.4272
pszhhpzn쎯szhhz2쎯	-10.4277
nhnphszhhpzpnz쎯	-10.4278
hpn1쎯zp1쎯	-10.4284
nhphszhznp쎯zpnp쎯	-10.4284
phspnphhpn쎯	-10.4285
hpsn0쎯pzn1쎯	-10.4289
hpn1쎯shszhhznp쎯	-10.4299
szhpn3쎯shh쎯	-10.43
쎃、	-10.4305
szpnszpnzph쎯	-10.4305
sszhhhhpnhpszpn쎯	-10.4306
》phspnszh1쎯《	-10.4307
hhz1쎯쎂쎀쎀쎈phhshs쎯	-10.4311
pphszh쎯hpshsh쎯	-10.4317
szs1쎯nhszs쎯	-10.4318
nzpphsn쎯	-10.4319
hpshsh쎯《	-10.4321
pznszh0쎯hpn1쎯	-10.4322
nphszpzhhhpn쎯	-10.4325
hpznsznnnn쎯hsh1쎯	-10.4326
ssnph쎯h	-10.433
hspnpz2쎯pszhhhp쎯	-10.4332
zphszhhh1쎯	-10.4336
쎃쎆쎀	-10.4342
nhphpnszhhz쎯	-10.4343
pzzpnhhzpn쎯	-10.4346
nhpnnpznzpszhsh쎯	-10.4347
,pnzp쎯szhzpsz쎯	-10.4365
nhphsshzn쎯.	-10.4369
szhspnh쎯sz	-10.4377
phz1쎯	-10.4379
,pshhsh0쎯	-10.4385
szhzhhpzzs쎯	-10.4397
pzhh1쎯쎁쎅szhh3쎯	-10.4403
ppshhz쎯,	-10.4405
쎁쎉쎅쎂phhshs쎯	-10.4406
szhhhhs1쎯	-10.4406
pzzpzzhz쎯	-10.4407
hshnznn0쎯·	-10.4408
쎀.쎂	-10.4412
hpsn0쎯hznhshsz쎯	-10.4418
hspnhszhhpn쎯	-10.442
hhshszhhhsh쎯.	-10.4421
phspnszhphsh쎯,	-10.4421
szsshpznnzzn쎯	-10.4422
、hszpzh쎯	-10.4423
pzpzhshzpphhs	-10.4428
hzhphzsz쎯	-10.4429
pzpnzhhzpn쎯	-10.4432
phhhzpnhzn쎯	-10.4436
zshh쎯	-10.4442
≥	-10.4445
nnpnzzzh쎯hsh1쎯	-10.4445
nnpnzzzh쎯hpzp쎯,	-10.4453
nhszhpzpn쎯	-10.4456
pzhh	-10.4459
zhznznn0쎯	-10.4462
pzhh1쎯쎂쎀szhh3쎯	-10.4462
hssznphhshpnn쎯.	-10.4464
쎀～	-10.4464
hspnhshpzpzn쎯	-10.447
2쎯zhpnphhps쎯	-10.447
pshspnh0쎯phzn쎯	-10.4474
hszhszhshnzzn쎯	-10.4479
쎁쎉쎁	-10.4479
phspnszhs쎯.	-10.4482
nphzpnzznzpnhps쎯	-10.4491
szhs쎯szs1쎯nhszs쎯	-10.4492
phz	-10.4494
hspnhspnpzn1쎯	-10.4506
쎁쎉쎄쎅phhshs쎯	-10.4506
-쎀쎁	-10.4508
shhshhpzpn쎯	-10.4509
.hpzp쎯pshhsh0쎯	-10.451
쎁쎉쎅쎅phhshs쎯	-10.4512
....	-10.4512
pzhpzz0쎯hspnpz2쎯	-10.4515
zhp0쎯	-10.4516
zhpszhnhnphhshsh	-10.4516
zp1쎯nnpnzzzh쎯	-10.4516
、zpn3쎯	-10.4521
szh0쎯、	-10.4525
134쎯pznnhzszhh쎯	-10.4526
nnspznhpn쎯,	-10.4528
nphpszhhhnzzn쎯.	-10.4529
、szhs쎯	-10.4532
.쎁쎀	-10.454
hz1쎯szs1쎯hpnz0쎯.	-10.4555
zzsnhzp쎯shsh쎯	-10.4559
(쎃	-10.456
shhspnzp쎯	-10.4562
hhz1쎯쎂쎀쎀쎃phhshs쎯	-10.4566
pnhhsh쎯hszsn쎯	-10.4572
nhpnnzhhzpn1쎯	-10.4572
쎁쎉쎆쎅phhshs쎯	-10.4576
nnnszhsh0쎯,	-10.4583
znnznn쎯nppnzpnp쎯	-10.4585
pszsz쎯szhhhshpn쎯	-10.4585
hhshspnhszs123쎯n	-10.4592
nzzhz쎯·	-10.4593
쎄쎈쎀	-10.4599
hhh쎯zzhpzzn쎯	-10.4599
hppzhh쎯ppzhpphs쎯	-10.4603
hsh2쎯nzpzpn0쎯	-10.4609
znnhphpnzznzpn쎯s	-10.4612
hhznzp쎯.	-10.462
phnphnhpzpn쎯	-10.462
pznsn쎯nhpnpn0쎯	-10.4622
쎈)	-10.4623
nzpzszhh쎯	-10.4625
,hpzp쎯pshhsh0쎯	-10.4626
phhz1쎯nnnznhhs쎯h	-10.463
szszh2쎯	-10.4638
nhpnpnhs쎯	-10.4639
nhpsnzhz쎯	-10.4644
zpznn쎯hpnnzzn쎯	-10.4647
》szhhhshspnhszs	-10.465
hsshhhnpszhnznn쎯	-10.4652
szshsshhpzpn쎯	-10.4653
nnpsnhhhsh쎯,	-10.4655
zzpn0쎯、	-10.4656
zhzs1쎯zhzhzn0쎯	-10.4661
쎁쎉쎇쎀phhshs쎯	-10.4662
spszs쎯	-10.4667
nhhsh쎯hhznzp쎯	-10.4671
,szhszhshn쎯	-10.4677
hpshsh쎯szhhshnh쎯	-10.4683
.hzhzhphsszh쎯	-10.4683
hszpnpn쎯hhpzpn0쎯	-10.4683
ˊ	-10.4685
zhhpzzs쎯pns쎯	-10.4699
phshszhnzzn쎯zz2쎯	-10.4704
nnnhszpzh쎯	-10.4704
nnnzzppnppn쎯	-10.4708
,psnhpzpn1쎯	-10.4708
pnzp쎯,	-10.471
pshhhpzzn쎯,	-10.4711
쎂쎀pnhhspn1쎯	-10.4719
nhzpphphhpn쎯,	-10.472
hpnz0쎯szhzpsz쎯	-10.472
pnznhpszpn쎯	-10.4724
shh쎯szpnpn0쎯	-10.4724
hszsn쎯phzn쎯	-10.4726
zpznn쎯szszs0쎯	-10.4727
pznsn쎯nzhszhszh쎯	-10.4728
hpnnzphhs쎯	-10.4728
hzhhszn쎯hspnn쎯h	-10.473
,phzn쎯	-10.4732
쎁쎉쎇쎇phhshs쎯	-10.4738
pspnn쎯hhshzn3쎯	-10.4739
nhpnpn0쎯znn1쎯	-10.474
hzhphshzzn쎯	-10.4748
.sz	-10.4749
쎃쎂.	-10.4752
shhhhznppp	-10.4756
,쎅	-10.4759
.hhshszpz쎯npzn0쎯	-10.4759
shhshnphs0쎯	-10.4761
hzhzszn쎯shhsp	-10.4768
쎈쎀쎂.쎃	-10.4771
nphhh쎯npnsns쎯	-10.4778
,pspzzpn쎯	-10.4788
쎁쎀hsszhpz쎯	-10.479
szhs쎯hppszhhzpn쎯	-10.4793
nhpzhhpzhhs쎯	-10.4794
.쎀쎉	-10.4803
phhhzpzpn쎯	-10.4811
ssphpnnznn쎯pzn1쎯	-10.4819
hszpzhhhshpzzh쎯	-10.4821
hhpz1쎯zzszhhzpn쎯	-10.4821
shszpn0쎯pshhsh0쎯	-10.4824
hhhhszzn쎯nzpzzn쎯	-10.4826
nzzpszh쎯	-10.4827
쎁쎉쎇쎂phhshs쎯	-10.4829
,nnnhhshpzhh쎯	-10.483
쎀쎀nhszhnzphhz쎯	-10.4833
197쎯zzh5쎯	-10.4833
hh0쎯hhpzpn0쎯	-10.4834
zpnpszhhh쎯nhszs쎯	-10.4837
nhnphhspnpphs쎯sz	-10.4841
ン	-10.4845
쎅、	-10.4847
hhpn0쎯nhpn2쎯	-10.4847
,hzhnnzzph쎯	-10.485
nzhzh쎯zz2쎯	-10.4852
szpn1쎯pszhhpzn쎯	-10.4859
pp	-10.4873
pzzzh쎯	-10.4873
)phspnszh1쎯	-10.4876
hshpzhhsnhzn쎯s	-10.4877
szhhs0쎯pshz2쎯	-10.4879
szsszhhszhhh0쎯	-10.4881
hspnh0쎯hshzsz쎯	-10.4885
pnn0쎯pznzp쎯	-10.4886
phnphnzhzsp쎯pz1쎯	-10.4887
zphhhspn0쎯	-10.4889
hspzszhphpnphhz쎯	-10.4897
shhspshz쎯phhsh1쎯	-10.4897
hszpzhhphshpz쎯	-10.49
쎂쎀쎁쎄phhshs쎯	-10.4905
hsh0쎯hshnh	-10.4906
hhshspnhszs219쎯	-10.4908
쎁쎉쎅쎃phhshs쎯	-10.4908
zphzzh0쎯,	-10.4911
hszsn쎯szhs쎯	-10.4917
pz1쎯phhshs쎯	-10.4918
hsn쎯hnphspn쎯	-10.4918
psz쎯hhpz0쎯,	-10.4938
hpszhsnppznn쎯	-10.4939
zpszhzzh쎯zzhsz	-10.4946
|	-10.4948
zzpn0쎯szhs쎯	-10.4948
zpszh0쎯p	-10.495
[	-10.4954
hspnh0쎯pszhhhp쎯	-10.496
쎅°	-10.4961
pznnhszn쎯	-10.4964
nsnhsszhhhhpn0쎯	-10.4964
pn3쎯nnnhshzn쎯	-10.4973
hzhpnnpnzzn쎯、	-10.4974
zhphhspnhzn쎯	-10.4974
szhpzpp쎯	-10.4976
hsszh쎯hshphz2쎯	-10.4977
쎀.쎀쎀	-10.4981
szhshnphhs0쎯	-10.4982
nppnnppn0쎯、	-10.4982
szhs쎯nznn쎯,	-10.499
,h쎯pns쎯	-10.5007
zhzs1쎯sh	-10.5014
쎁쎉쎅쎀phhshs쎯	-10.5015
nhnphpzpppnpzzn쎯	-10.5015
h쎯szhpn1쎯	-10.5015
zpn3쎯nppn쎯	-10.5017
zphhshhsh쎯	-10.5022
hznnpnn쎯.	-10.5024
◇	-10.5027
hhhshspnhszs216쎯	-10.503
pnzn0쎯pphs1쎯	-10.503
nppnhzsz쎯	-10.5031
nnnhhsh쎯	-10.5032
.쎁쎁	-10.5032
ppzhnhzp0쎯、	-10.5039
.hpszss쎯	-10.5045
phhs1쎯	-10.5047
psphshh1쎯szszs0쎯	-10.5051
,hzhzpszhh쎯	-10.5056
hp1쎯ppzhnhzp0쎯	-10.5063
pzhh1쎯쎃쎀szhh3쎯	-10.5067
hsh2쎯pnhhzn쎯	-10.5069
nzshh쎯pn2쎯	-10.5073
쎆hnphs쎯nhzp쎯	-10.5074
.zphzsz쎯	-10.5077
hspnnhpnpn쎯.	-10.5084
쎅쎀쎀쎀	-10.5085
hpsn0쎯nzhhzpn쎯	-10.5086
zhzhzn0쎯nphszs쎯.	-10.5091
pzhzszhh쎯	-10.5092
nzzpn1쎯sz	-10.5099
、hpszh1쎯	-10.51
hhz1쎯쎂쎀쎀쎄phhshs쎯	-10.5103
쎉pns쎯	-10.511
phzn쎯hhhpnszhh쎯	-10.511
pznnhzszhh쎯pznn	-10.5111
zzhnhznpz쎯,	-10.5112
hszsn쎯.	-10.5115
о	-10.5122
hshzn0쎯pzszn쎯	-10.5125
pznpn쎯.	-10.5131
쎃phhshs쎯	-10.5146
szhzpsz쎯pn2쎯	-10.5148
,nnnnzpzhspn쎯	-10.515
nnzpz	-10.5155
nzpnpz쎯hszh0쎯	-10.5157
snzszhh쎯pnps쎯:	-10.5161
쎂hnphs쎯nhzp쎯	-10.5169
,snpnzszhszs쎯	-10.5172
pzhh1쎯쎂쎆szhh3쎯	-10.5178
쎁쎉쎅쎆phhshs쎯	-10.518
szhs쎯szhhshnh쎯sz	-10.5186
hzhhszn쎯hspnn쎯、	-10.5188
hpzp쎯pshzn1쎯	-10.5195
pphsszhhh쎯	-10.5202
zpphzsz쎯ppshhz쎯.	-10.5204
hspnhsszh쎯	-10.5209
zzshhspn쎯shh쎯	-10.5212
《sz	-10.5212
nhpn1쎯phhshs쎯	-10.5214
hppzhh쎯szhhhzn2쎯	-10.5228
hshszhhhsh1쎯	-10.5229
쎁쎉쎆쎁phhshs쎯	-10.5231
szhhhzn0쎯phzn쎯	-10.5233
pnhzp쎯hshshphpn쎯	-10.5243
znhzn0쎯hzhz1쎯	-10.5244
szspsnhhhsh0쎯	-10.5248
115쎯pszhhpzn쎯	-10.5252
nnzhhz0쎯nnzsz	-10.5254
szhshzp1쎯zph쎯	-10.5258
zhzppznn쎯	-10.5264
hspnznpzhhs쎯	-10.527
、hssznphhs쎯	-10.5274
szhnzzpn쎯	-10.5275
hphhhshhhz쎯	-10.5276
zphzhz0쎯	-10.5276
쎁쎉쎇쎅phhshs쎯	-10.5276
szhpz1쎯	-10.5277
pshz1쎯hpszh1쎯	-10.5279
szhpn3쎯·	-10.528
----	-10.5283
szhzpsz쎯:	-10.5284
hhznzp쎯pszhhpzn쎯	-10.529
hpzn	-10.529
zhnhnphzph쎯hshnh	-10.5294
szpn1쎯hppzhh쎯	-10.5298
.쎁쎈	-10.5302
szpnhzp쎯nhnphp쎯	-10.5306
h쎯、	-10.5321
shh쎯zzhpzzn쎯	-10.5323
phspnnnhs쎯phzn쎯	-10.5324
.쎀쎀	-10.5325
и	-10.5328
hhz1쎯쎂쎀쎀쎇phhshs쎯	-10.533
,szpn1쎯	-10.5331
nzpn0쎯hszhz1쎯	-10.534
nhszs쎯phzn쎯	-10.5343
nhpnpn0쎯nnnhz2쎯	-10.5348
hzzpn0쎯pzpn2쎯	-10.5349
hhz1쎯쎂쎀쎁쎁phhshs쎯	-10.5354
、phhsh1쎯nhnphp쎯、	-10.5354
-쎁-	-10.5356
hshnhszhzzhphpn쎯	-10.5359
,hznhshpzn쎯zp1쎯	-10.5363
hspnzn쎯phspnsz쎯	-10.5364
쎅hnphs쎯nhzp쎯	-10.5364
hpzznp쎯pn2쎯	-10.5369
phshpz쎯hhpsnzn쎯n	-10.5369
szhs쎯hszpzh쎯	-10.5372
zhzphzn쎯shhsn쎯	-10.5374
★	-10.5376
쎁쎉쎆쎂phhshs쎯	-10.5378
psnhhhshhspn쎯》	-10.538
hpsn0쎯nsn	-10.5395
pz0쎯phspnszh1쎯	-10.5396
zhszh1쎯zzh5쎯	-10.54
h쎯hshzhpn1쎯	-10.5401
hphshpznnnzzn쎯	-10.5402
pnzp쎯nhszhzzh쎯	-10.5404
szhhpzhh2쎯hszsn쎯	-10.5407
hhpnszhshn0쎯	-10.5408
hpszhszszs쎯shh쎯,	-10.5408
pnhhsh쎯pshspnh0쎯	-10.5408
hshshpnzhz0쎯nh	-10.5413
hszhz1쎯szpz0쎯	-10.5415
zhhspspn쎯	-10.5416
pzz	-10.5417
쎁쎉쎇쎆phhshs쎯	-10.5419
szpz0쎯pszhhpzn쎯	-10.5425
、zzpn0쎯	-10.5425
psnhnph쎯:	-10.5427
쎂pnzn0쎯szhhhsh1쎯	-10.5429
nnzhshpn쎯	-10.5436
hhshhspnhspn쎯	-10.544
pnzn0쎯zhszh1쎯(	-10.5445
zphzn쎯	-10.5447
hpszhhhps0쎯h	-10.5452
nhphspzhspzphhz	-10.5457
hs1쎯hz2쎯	-10.5469
zpznn쎯hznpznn0쎯	-10.547
hpsn0쎯hznnzzn쎯	-10.5471
pnhszh쎯pznnzshz쎯	-10.5471
phhhzpzn1쎯	-10.5472
szhhhszhhhsh0쎯,	-10.5478
nhszhszszh쎯hs	-10.5486
nnzhshpn0쎯npzn0쎯	-10.549
hspnhzn0쎯、	-10.549
pnhszhpznzh쎯	-10.5492
、pszhh0쎯	-10.5492
쎁쎀쎀hsszhpz쎯	-10.5498
hhz1쎯쎂쎀쎀쎂phhshs쎯	-10.5503
nphhphpzn쎯	-10.5504
nhszhzz쎯	-10.5509
nhpnnpznnn쎯	-10.5516
szhhsh1쎯	-10.5521
phsznphhshnnnn쎯	-10.5529
hpz0쎯pn2쎯	-10.5531
hpszsshhh쎯shh쎯	-10.5532
,szhshzp1쎯,sz	-10.5533
szhhh0쎯nnnznszh쎯	-10.5535
hshzzpp쎯,	-10.5538
phhshs쎯,	-10.554
nnnhpzp쎯	-10.5543
npzn0쎯:	-10.5545
pzzpn1쎯·	-10.5547
pzhh1쎯쎁쎀szhh3쎯	-10.555
hhzn0쎯hshhpszpn쎯	-10.555
nnzhz0쎯szhhhzn0쎯	-10.5554
nhnph쎯szhshpn1쎯	-10.5555
zzhpnhnnph쎯.	-10.5557
nnnnphpnszssh쎯	-10.5561
psszhphhpn1쎯,	-10.5566
pzzpzpshzhh쎯	-10.5567
zphhhs쎯	-10.5578
shpnhpzhhsz쎯pn3쎯	-10.558
hzhnhpnps쎯	-10.5589
nnnnzhzh쎯	-10.5593
pszhh0쎯pphsszpn쎯	-10.5595
pznnhpshhzhhszn쎯	-10.5595
hhshshzn1쎯hspnn쎯	-10.5598
hhz1쎯szs1쎯hpnz0쎯	-10.5601
hhssnph1쎯shhsn쎯	-10.5602
hzshpphs쎯	-10.5605
zzhpzzhz쎯	-10.5606
nnnpszhh	-10.5608
szhszhhpzpnz쎯	-10.5613
pzpn2쎯snphpz쎯	-10.5615
쎁쎈쎈	-10.5624
pzhh1쎯쎂쎉szhh3쎯	-10.5631
쎁쎉쎇쎃phhshs쎯	-10.5631
hpnnnznn쎯pzszpn쎯	-10.5638
쎀hpszhhhsh0쎯	-10.5642
,pznszh0쎯	-10.5646
hspnpzzn1쎯npzn0쎯	-10.5652
hpszss쎯hpzznp쎯.	-10.5652
hpsn0쎯hszhsh0쎯	-10.5655
nsnnhz쎯	-10.5656
pzzpn0쎯szhzph쎯	-10.5657
zhspnnzzn쎯pnzn0쎯	-10.5659
phhpn0쎯hshzn0쎯	-10.566
쎄hnphs쎯nhzp쎯	-10.5661
nzszhhnhpn쎯	-10.5666
phshhnznn쎯pzn2쎯	-10.5666
nhhsh쎯zp1쎯	-10.5668
쎃/	-10.5669
pshzpszhhphs쎯.	-10.5674
szszs0쎯pszhhh0쎯	-10.5676
hshpzhh0쎯hppzhh쎯	-10.5678
hpszss쎯nhhhszh0쎯	-10.568
pzpzz0쎯szssh	-10.5685
쎀쎀쎀	-10.5685
hpshsh쎯hhz1쎯	-10.5688
)(	-10.5689
znnpzzn1쎯pspnzp쎯	-10.569
znszpz쎯pnhznznn쎯	-10.5691
hszn0쎯pshzn0쎯	-10.5695
hszpnpn쎯hpn1쎯	-10.5696
phspnszh1쎯n	-10.5697
hshzsz쎯hshshsh쎯:	-10.5699
hpzhhsn쎯	-10.57
,szhszh1쎯phhshs쎯	-10.5702
phspnszh1쎯sz	-10.5702
phzznnh쎯hhpn0쎯	-10.5706
znhzn0쎯nhpnnph0쎯	-10.5707
hpnz0쎯pszhhpzn쎯	-10.5716
:쎅	-10.5717
pns쎯pzhh1쎯	-10.5724
nnzhznhsh쎯,	-10.5725
hsshhhpn쎯	-10.5726
pshspnh0쎯szpn1쎯	-10.5728
hzhnphhs쎯pznn0쎯	-10.5731
phzznnh쎯hhpzpn0쎯	-10.5733
szpn1쎯nzpzzn쎯	-10.5736
zhhznnpnsz쎯	-10.5738
szsphzn쎯	-10.574
pnpnhspnhspnhpn	-10.5744
nhppspsnhhhsh	-10.5755
nnzpzphshh쎯	-10.5757
pszhszshn쎯	-10.5759
hzzh쎯hspnszhhh4쎯	-10.5764
hpn1쎯nnnhszpzhh쎯	-10.5768
phspnszh1쎯p	-10.5769
hpzznp쎯nhnph쎯,	-10.577
pznsn쎯pznzpszpn쎯	-10.5776
쎁쎉쎉쎉	-10.5778
hspnhpznhzszhh0쎯	-10.5787
쎁쎉쎇쎁phhshs쎯	-10.5788
zhphsshzpn쎯h	-10.5789
쎇)	-10.579
zzh0쎯.	-10.5794
쎃pnzn0쎯szhhhsh1쎯	-10.5796
szhszh1쎯phhshs쎯	-10.5799
pz1쎯nnnhsh쎯	-10.5799
h쎯hpszhh쎯	-10.58
pszhhpzn쎯hhzn0쎯	-10.5806
hpszsshhh쎯phspn	-10.5812
shhsnpszspnphpn쎯	-10.5816
pzhh1쎯쎃szhh3쎯	-10.5818
hszh1쎯pshzn1쎯	-10.582
szhsh1쎯psnhhhs	-10.5823
pzhh1쎯쎁쎄szhh3쎯	-10.5827
zpzh쎯phshphhsh쎯	-10.5829
hpssnzszs쎯nnhpn쎯	-10.5829
hp1쎯nnzhpzpppn쎯	-10.5831
h쎯pshz2쎯	-10.5832
pznhspn쎯,	-10.5835
zh쎯pszhhhnznn쎯--	-10.5842
nsnphhsh쎯,	-10.5844
1	-10.5844
쎁쎈쎉	-10.5856
,zphznszh쎯	-10.586
pz쎯pzzhhz쎯zp1쎯	-10.5862
z2쎯nppnpnhpszs쎯	-10.5865
pn2쎯szh0쎯쎂	-10.5865
116쎯psnhnph쎯	-10.5867
nnnpzphhszs쎯	-10.5874
hspnpz2쎯hzhs0쎯	-10.5874
zp1쎯,	-10.5874
nnnszhhhzhz쎯nn	-10.5876
쎁pzhh1쎯쎁szhh3쎯	-10.5876
zzshszhz0쎯h	-10.5876
znhznp쎯szhssh0쎯	-10.5885
:쎄	-10.5889
s	-10.5889
phhhzhhznp쎯,	-10.5889
zzhnhpszhhhsh쎯	-10.5897
hzhsn쎯	-10.5898
phhhznhphsshzn쎯	-10.5901
phzn쎯nnzzph쎯	-10.5902
、psszhhspn쎯	-10.5905
pnzphpszhshpzzn쎯	-10.5911
sshszhhssnppznn쎯	-10.5912
zzhhzzpn쎯znn0쎯	-10.5913
hspnpz2쎯szhhz2쎯	-10.5915
pphsszpn쎯,	-10.5916
zhhznnpn0쎯》	-10.5921
pssphpnnznn쎯	-10.5921
#	-10.5924
쎁쎉쎃쎈phhshs쎯	-10.5925
hzhpznzp쎯,	-10.5929
szhs쎯hhzn0쎯	-10.5937
쎁쎉쎄쎈phhshs쎯	-10.594
hspnpz2쎯nhphspn쎯	-10.5945
pzszhshhpzzhz쎯	-10.5946
,zhhznhzpz쎯	-10.5948
hzhhszph쎯zzh0쎯	-10.5952
(쎂쎀쎀	-10.5955
nnnhsh쎯szhhhzn0쎯	-10.5956
pshzhpzn쎯)	-10.5958
hsh2쎯phspnzph쎯	-10.5961
h쎯nphpszhhhnzzn쎯	-10.597
phhspnhhps쎯h	-10.5975
hszhz1쎯pshsshpn쎯	-10.598
쎀.쎃	-10.5982
쎀쎀쎀쎀	-10.5984
szpnhhshshzn쎯》:“	-10.5987
zz2쎯《	-10.5997
phhpn0쎯szpnphpn쎯	-10.5997
;(	-10.6001
szhhszhhszhh0쎯sz	-10.6001
-쎁쎂	-10.6002
nnzphhs쎯	-10.6005
znpz쎯nzphhs쎯	-10.6013
hz2쎯phhshs쎯	-10.6016
szhhhszhhhsh0쎯:쎂	-10.6018
nphszs쎯phhsh1쎯	-10.6022
snz쎯nzhp쎯	-10.6026
nhp	-10.6029
zhnhnph쎯pspszhh쎯	-10.6038
nhpsnszhszpn쎯	-10.6039
pzppszhphhpn쎯	-10.6042
szhhpn쎯phspnsz쎯,	-10.6043
pzhh1쎯쎈szhh3쎯	-10.6044
쎂쎀쎀쎂	-10.6046
nphzpnnnhs쎯.	-10.6046
쎃hnphs쎯nhzp쎯	-10.605
hshpszhzhhs쎯	-10.6052
(p	-10.6052
pshhzs1쎯zpznn쎯	-10.6057
pzpsphszs쎯	-10.6059
nnzzph쎯nhszs쎯	-10.606
쎅쎀hsszhpz쎯	-10.6061
pnzn0쎯nhhsh쎯	-10.6061
,zhzphpn0쎯	-10.6064
nnnznppnhszhnph쎯	-10.6064
pphsszpn쎯:	-10.6065
nhzp쎯nhhhszh0쎯	-10.6069
,pnnpnzzn쎯	-10.6071
znpznnhzhz쎯zp1쎯,	-10.6075
pnn0쎯.	-10.6077
szpn4쎯pzzpn1쎯	-10.6081
pzhhhhhszpnzn쎯	-10.6085
npzn0쎯pshs쎯pzn2쎯	-10.6086
,pshszhhpn쎯	-10.6093
nnzhz0쎯nhszs쎯	-10.6097
,nnzzzh0쎯	-10.6101
snppznnsz쎯	-10.6101
szpnphzn쎯	-10.6101
znhznp쎯szhs쎯	-10.6104
szhzn0쎯	-10.6108
szhhshnh쎯nhnph쎯	-10.6111
hspnpznzpszhsh쎯	-10.6121
,ssznhsh쎯	-10.6122
쎂쎀hsszhpz쎯	-10.6124
npzn0쎯szhs쎯nznn쎯	-10.6131
쎀*	-10.6133
pn2쎯、	-10.6138
zpszhzzs0쎯	-10.6141
.h	-10.6143
h쎯hpssnzszs쎯	-10.6147
hshhpzznp쎯zzp쎯	-10.6147
hzhnhnph쎯hz0쎯	-10.6148
snzpshznp쎯snz쎯	-10.615
phshhs	-10.6158
pzhhpzhhpznzh쎯	-10.6162
nhpn2쎯pznszh1쎯	-10.6163
zzhpznnn쎯hhz1쎯	-10.6165
nznphspnnzn쎯	-10.6168
쎁쎉쎅쎁phhshs쎯	-10.6169
zhhpzzs쎯pzn2쎯	-10.6171
(hppszhhzpn쎯	-10.6175
.phzhznp쎯pssnz쎯	-10.6181
쎁쎉쎆쎇phhshs쎯	-10.6181
hzszhh0쎯hpshsh쎯	-10.6182
247쎯nnhpn쎯	-10.6186
shh쎯hpszsshhh쎯	-10.6186
pzhh1쎯쎁쎉szhh3쎯	-10.6188
hhpn1쎯pn2쎯	-10.6191
pzhh1쎯쎁쎆szhh3쎯	-10.6191
hszhhpn쎯npzn0쎯	-10.6194
pns쎯szhhshnh쎯	-10.6196
zhphsszhsz쎯《	-10.62
hhz1쎯쎂쎀쎀쎀phhshs쎯	-10.6203
hhshhhshnznnp쎯	-10.6203
ppszhhhhs쎯nn	-10.6213
zzhzsz쎯	-10.6215
pzhhzppn쎯	-10.6216
nhpnnhszpn쎯pn2쎯	-10.6222
,pnzn0쎯zhszh1쎯	-10.6228
phzznnh쎯h쎯pns쎯	-10.623
hhh쎯phspnszhs쎯	-10.6234
nhzp쎯hhshzn3쎯:	-10.6234
nnnnzhzhs쎯	-10.6235
nnzpnpnszh쎯sz	-10.6236
》h쎯hszsn쎯	-10.6247
pzhh1쎯쎂쎇szhh3쎯	-10.6248
쎈쎀phhshs쎯pshzn1쎯	-10.6249
szsshhshzn쎯	-10.6251
psz쎯hhpz0쎯	-10.6255
hshphz2쎯pn2쎯	-10.6255
hshszhhhshpn쎯	-10.6257
nhzp쎯nnnhshzn쎯.	-10.6257
hssz0쎯pn2쎯	-10.6261
shh쎯zz2쎯	-10.6261
』	-10.6264
.)	-10.6268
hzshszhhsshhh쎯《	-10.6268
pzhh1쎯쎂szhh3쎯	-10.6268
nhpn1쎯hs1쎯	-10.6268
nhpnpssz쎯,	-10.6269
npzhzsp쎯zzh0쎯	-10.627
zz2쎯nhpnnzzn쎯	-10.6271
zhz3쎯	-10.6271
hzhhpzhhsnhzn쎯	-10.6273
쎃hsszhpz쎯	-10.6273
hszhszhshsz쎯nh	-10.6276
hhpz1쎯nzpnpz쎯	-10.6276
hpn1쎯phhz2쎯	-10.628
snpszszh쎯hszsn쎯	-10.6281
zhhhhszzn쎯zz2쎯	-10.6281
쎂pnzp쎯zzh0쎯	-10.6281
nhpnnpzpn0쎯	-10.6282
hzhspshhzhhhpn쎯	-10.6285
pzhh1쎯쎂쎅szhh3쎯	-10.6288
hsh1쎯pphszh쎯	-10.6291
szs1쎯,	-10.6291
쎁쎃쎀	-10.6295
phnphnhshhzn쎯n	-10.6317
szszhsz쎯	-10.6334
h쎯pz1쎯	-10.6335
-쎅-	-10.6338
:쎉	-10.634
shhspshz쎯hshps쎯	-10.6349
hzhhhspn0쎯	-10.6349
pzhh1쎯쎁쎂szhh3쎯	-10.6354
pn2쎯hpn1쎯pshzn1쎯	-10.6357
hszpzhhphspn쎯	-10.6362
pszhzhnhnphhs쎯	-10.6366
nnszhs쎯hhszs0쎯	-10.6367
z쎯nnpnzzzh쎯	-10.637
szhnnzpznszh쎯	-10.6371
,nzszhshpzhh쎯	-10.6372
ppshzzp쎯	-10.6375
hhz1쎯shshhz0쎯	-10.6375
ppsn쎯	-10.6378
pzszshpzpppn쎯.	-10.6383
hszhhpnnszhszh쎯.	-10.6391
,hshsh0쎯	-10.6393
nznn쎯zhhnppn쎯	-10.6393
nphhshhpn쎯hhpz0쎯	-10.6397
zhzhzn0쎯hsn쎯	-10.6399
szh0쎯ppsznhsh쎯	-10.6401
zhpn2쎯hzn0쎯:	-10.6406
쎁쎉쎃쎇phhshs쎯	-10.6412
쎁쎂쎀쎀	-10.6416
shhspphs쎯	-10.6417
zsz0쎯szhzs1쎯	-10.6418
zshz0쎯hszpzh쎯	-10.6418
pn쎯,phsszhnzzn쎯	-10.6423
hzhhpzn0쎯	-10.6424
hpzz0쎯	-10.6434
hpnz0쎯hshshphpn쎯	-10.6436
pnhhsnph0쎯szs1쎯	-10.6437
,nphpzhhsz쎯	-10.6437
hp1쎯nhnpszpzszh쎯	-10.6438
쎁쎉쎆쎈phhshs쎯	-10.6444
hzhhszn쎯hspnn쎯,	-10.6448
phhhzzhphsszh쎯	-10.6457
쎁쎀쎈	-10.6458
zzh0쎯、	-10.646
nnzhhpzshzn쎯	-10.6461
.npzn0쎯zz2쎯	-10.6462
hzhpnhszh쎯	-10.6463
szhsshpn쎯》	-10.6463
szhshshpznszh0쎯.	-10.6464
hspnssphnszpz쎯	-10.6465
phhznppnnppn1쎯	-10.6468
zzhhsh쎯pznsn쎯	-10.6474
hppspsnhhhsh쎯	-10.6482
zzszhhzpn쎯hh	-10.6483
쎁쎉쎄쎆phhshs쎯	-10.6489
쎄.쎅	-10.6489
hhpz0쎯phhshs쎯	-10.6491
zn0쎯pzpszhhhhsh쎯	-10.6491
pzpppznn0쎯	-10.6496
nsnznhpnhhh쎯	-10.6496
pnnzszpn쎯	-10.6503
(zphszh1쎯	-10.6504
nn0쎯nsnzzshszpn쎯	-10.6509
npzn0쎯nhp쎯hpn1쎯	-10.6516
psnppn쎯	-10.6516
nzpn0쎯nnzhshpn0쎯	-10.6516
znzp쎯	-10.6517
zhzzn0쎯hzhzzpp쎯	-10.6528
nphhs0쎯pznzszs쎯	-10.6528
szhshshphhpn쎯	-10.6534
쎃쎀pnhhspn1쎯	-10.6536
h쎯hhpn0쎯	-10.6538
쎁쎉쎄쎇phhshs쎯	-10.6539
nhzp쎯nnnhshzn쎯,	-10.654
nhpsnszhhs쎯,	-10.654
、nphzpnhhshpzhh쎯	-10.6542
snz쎯nzhp쎯szpn	-10.6543
hshshphpn쎯hpnz0쎯	-10.6545
szhhhzn0쎯pn2쎯	-10.6561
hspnszh1쎯	-10.6563
쎁쎀pns쎯	-10.6564
hhps2쎯ppzhpphs쎯	-10.6571
쎈hnphs쎯nhzp쎯	-10.6572
pzhh1쎯쎂쎂szhh3쎯	-10.6573
."	-10.6574
,pnzzsz쎯	-10.6575
h쎯pspnzp쎯	-10.6581
szhh4쎯:“	-10.6581
쎉)	-10.6582
zzhpzzn쎯szhzpsz쎯	-10.6582
hshhszhhznp쎯.	-10.6585
쎂/	-10.6585
쎂쎁hsshz0쎯zzhzhz쎯	-10.6586
szhpszhphhpn쎯	-10.6586
n2쎯hshpzhh0쎯phhs	-10.6587
pnhppznn쎯	-10.6589
szhzp0쎯pznsn쎯	-10.659
hszn0쎯zzspn쎯	-10.6593
szs1쎯、	-10.6594
pzhh1쎯쎄szhh3쎯	-10.6595
pznpzn0쎯zpnp쎯	-10.6601
、szhhhshspnhszs	-10.6603
nhnphszhzzs쎯.	-10.6607
nppn쎯phnphn	-10.6611
hpnppn0쎯pzzshz쎯	-10.6614
nhzzppsnhhhsh쎯	-10.6617
hpn1쎯nnspznhpn쎯	-10.6618
hzshhhzn쎯pshz1쎯	-10.6621
phspnszhpn1쎯쎄	-10.6624
pphsnzzn쎯phhshs쎯	-10.6624
nhpn0쎯szhh3쎯	-10.6627
nhpspnsn쎯hznpz쎯	-10.663
,nnnhsszhpznn쎯	-10.6631
nnnszhhhsh1쎯	-10.6632
hpznsz쎯npzn0쎯	-10.6633
(쎅	-10.6639
쎂쎀쎀쎁	-10.6641
쎁.쎈	-10.6644
hhpz0쎯psphhs1쎯	-10.6647
ppzhhzpzzn쎯	-10.6654
pz0쎯hznhsh쎯	-10.6654
zzzpnh쎯	-10.6655
、hhshhpsn쎯	-10.6657
pzhh1쎯쎂쎁szhh3쎯	-10.6657
hhpz1쎯pzzshz쎯	-10.6657
쎃쎀hsszhpz쎯	-10.6658
pszhhhp쎯shh쎯	-10.6662
;쎄	-10.6664
zphpzhzszhh쎯zph	-10.6667
hspnhhznp0쎯	-10.6668
zzhzshh쎯	-10.6679
szhhhszhhhsh0쎯.	-10.668
、zzhznhsh쎯	-10.6681
pzhh1쎯쎁쎈szhh3쎯	-10.6687
쎁쎄쎀	-10.669
hnphspn쎯zz2쎯	-10.6691
hhszs0쎯zzspn쎯	-10.6703
hphhzpnhzn쎯	-10.6704
nnzpznzz쎯	-10.6706
pshsszhhhh쎯.	-10.671
phzpnnphhshnnnn쎯	-10.671
-쎁쎁	-10.6711
pzhh1쎯쎂쎃szhh3쎯	-10.6711
nhphsshzn쎯、	-10.6714
pnpn1쎯hpszss쎯	-10.6717
zhzs1쎯zpznn쎯	-10.6717
hphpnn쎯	-10.6719
hhshpnnpphhszs쎯	-10.6719
znpznnhzhz쎯zp1쎯.	-10.6724
hszsn쎯》:“	-10.6724
szspzn2쎯	-10.6728
.쎂쎀쎀쎆phhshs쎯	-10.6729
.szhsh2쎯	-10.673
pznpn쎯phzn쎯	-10.6732
zzhhhznp0쎯、	-10.6735
nhpznzz쎯》:“	-10.6737
psphhs1쎯.	-10.6744
nsnpnhszh쎯	-10.6744
()、	-10.6746
nhhsh쎯hspnpz2쎯	-10.6752
pn2쎯snzszhh쎯	-10.6757
hszh1쎯zhpszhsh1쎯	-10.6761
쎁쎉쎉쎈	-10.6761
pnhz0쎯phhshs쎯	-10.6768
phhhzpzszh쎯	-10.677
pnhhpn0쎯nznn쎯	-10.6771
hhshszpz쎯zhz1쎯	-10.6776
szhs쎯zzhpzzn쎯	-10.6781
hzszhh0쎯	-10.6785
nnnhpssnzszs쎯	-10.6787
zz2쎯hpn1쎯	-10.679
nnnhzphpz쎯	-10.679
α	-10.6799
hpszhnphssnph쎯	-10.6799
nnszhpz쎯hsn쎯	-10.68
쎄.쎀	-10.6801
pzhh1쎯쎇szhh3쎯	-10.6802
szhs쎯nhpn2쎯sz	-10.6806
shszh0쎯	-10.6808
pnzp쎯zhpzszh쎯	-10.681
pzhh1쎯쎂쎄szhh3쎯	-10.6811
pn2쎯hpshsh쎯	-10.6814
phhhznhnphhs쎯	-10.6814
nhpn0쎯szhs쎯	-10.6817
,zhhpzzs쎯	-10.6819
pzzpn0쎯nnpnzzzh쎯	-10.6819
쎁쎀pnhhspn1쎯	-10.6822
쎁쎀쎅	-10.6826
szh0쎯znhpnppp쎯	-10.6826
,hsshhhpzz쎯	-10.6826
pnhpn쎯	-10.6827
szsznpzpzn쎯	-10.6829
hhpzhpszpn쎯	-10.6833
hpszhzzh1쎯nnhpn쎯	-10.6836
phzn쎯nphzhhsspn쎯	-10.6846
nnnnhhsh쎯pn3쎯	-10.6847
h쎯szhh3쎯	-10.6849
n2쎯zhzhz0쎯pszs1쎯	-10.6854
shhspzszhphpn	-10.6857
,hspnzhhzpn쎯hzh	-10.6859
쎀nhszhsh쎯,	-10.686
phhhzhzsz쎯	-10.6865
.phzznnh쎯	-10.6866
pznn0쎯	-10.6871
h쎯zhphhzn쎯	-10.6873
nzhszhszh쎯,	-10.6876
、szhhhsshhhzn0쎯	-10.6877
phspnszhpn1쎯쎅	-10.6881
pzhh1쎯쎅szhh3쎯	-10.6881
szsshhsszhhhh쎯,	-10.6895
pn4쎯phhshs쎯	-10.6896
hpszhhzzh쎯,	-10.6898
pzhh1쎯쎉szhh3쎯	-10.6899
쎁쎉쎆쎉phhshs쎯	-10.6901
hszhszhshsz쎯n	-10.6904
szs2쎯	-10.6906
zzhpnhszh쎯znzz0쎯	-10.6907
pnpz2쎯hspnpzzn2쎯	-10.6909
쎂szhhz1쎯	-10.6909
pnhszhhpszpn쎯	-10.6913
hzhzhs0쎯ssnph쎯,	-10.6914
pssphpnppp쎯nzhz쎯	-10.6921
р	-10.6921
hpszh1쎯pshz1쎯	-10.6924
nnnnhszhzzh쎯	-10.6926
nhhsh쎯zhzphzn쎯	-10.6926
hsszzspzhh쎯	-10.6928
hhs쎯nnpzzhhz쎯	-10.6931
zphnnzhpzpppn쎯	-10.6931
,hzhhz0쎯	-10.6931
nhzpphzsz쎯.	-10.6934
hhspn1쎯,	-10.6935
(zhhznzs쎯	-10.694
pzznnzszhzh쎯、	-10.6942
н	-10.6944
phspn0쎯	-10.6951
hspnpnh쎯	-10.6952
h쎯zhzphzn쎯	-10.6954
,nphhshhpn쎯	-10.6958
zzhhpszsshhh쎯	-10.6963
nnnszhhpzpnz쎯	-10.6965
zhphhzn쎯,	-10.6966
zzh5쎯hnphspn쎯	-10.697
szs1쎯hshzsz쎯	-10.6973
hhps2쎯pnzzsz쎯	-10.6977
nsnznszh쎯	-10.698
nnzpzhsh0쎯szhs쎯	-10.6982
szs1쎯pznnnzzpn쎯	-10.6982
nhpnnpnzz쎯	-10.6989
zpsz쎯szhhhshpn쎯	-10.6994
pnhhspnnzzn쎯:	-10.6994
szhnhzppn쎯	-10.6994
hzhpzszn쎯	-10.6998
hhpn0쎯,	-10.7003
nppn쎯szs1쎯	-10.7003
,phshhshhzn쎯szh	-10.7006
,phhshs쎯hnphs	-10.7009
szhzzh1쎯?	-10.7014
zzhnhzppn0쎯	-10.7018
、hhshpzhh1쎯	-10.7024
hspnpzhhpzhh쎯	-10.7028
hsshpnznnn쎯	-10.7028
phnphnsphszs쎯	-10.7028
pnhszh쎯,	-10.7031
shh쎯szhhszhpn0쎯	-10.7033
pnzn0쎯pnpnpn0쎯	-10.7034
hpn1쎯hhpn1쎯	-10.7035
.phshpz쎯pphszh쎯	-10.7035
ssnph쎯、	-10.7036
phhz0쎯,	-10.7039
nphzpnhpn0쎯,	-10.7042
szhhhshpn쎯pnpn1쎯	-10.7046
h쎯pns쎯pn2쎯	-10.7048
쎁쎉쎄쎀phhshs쎯	-10.7049
쎇hnphs쎯nhzp쎯	-10.7049
pphs0쎯npzn0쎯	-10.7056
hhshzznzpn쎯,	-10.7056
pphs1쎯	-10.7057
pnhz0쎯szhh3쎯	-10.7061
hpszpn쎯,	-10.7063
hpzn2쎯znhzn0쎯	-10.7066
hhz1쎯쎂쎀쎀쎁phhshs쎯	-10.7073
hpzn1쎯zphzzh0쎯	-10.7075
pzhhzszn쎯pznzp쎯n	-10.7075
쎁쎉쎂	-10.708
shh쎯pphs0쎯	-10.7081
nzhszhszh쎯:	-10.7082
nphhhs	-10.709
zpn3쎯pz2쎯	-10.7092
phshpzpp쎯,	-10.7096
shhshshpzpzn쎯	-10.7097
쎀쎁hpszpn쎯	-10.7097
hpznsz쎯hzhs0쎯	-10.7099
pszhhpzn쎯szhhh2쎯	-10.7104
,npzn0쎯zz2쎯	-10.7106
zzsnhzp쎯nppn쎯	-10.7106
,nzpzpn0쎯zhzhz0쎯	-10.7107
、hzzpn0쎯	-10.7107
nhpnpn쎯	-10.7109
hhshpnhzn쎯	-10.7115
nzpzpn0쎯hpzp쎯	-10.712
pz3쎯phhshs쎯	-10.7121
pzzpn1쎯hhpn1쎯	-10.7122
쎁쎉쎆쎆phhshs쎯	-10.7124
、hspnzzh1쎯	-10.7125
.pszsz쎯pssnz쎯	-10.7126
szhhhzhz쎯szhshn쎯	-10.7126
pshshnhzpphpn쎯	-10.7128
nnnphsszh쎯zp1쎯	-10.7129
zzhnhznpz쎯、	-10.7129
npzn0쎯szhhh2쎯	-10.714
phzznnh쎯szhh3쎯	-10.7143
nnpnhzn쎯hshznzs쎯	-10.7143
nphzpnnhpnpnhs쎯	-10.7148
zpszh0쎯zz2쎯	-10.7151
쎈szhhz1쎯	-10.7162
pnnpnzzn쎯psphzp쎯	-10.7167
hs1쎯pz1쎯	-10.7167
hpszhh쎯hpz0쎯	-10.7169
hznhsh쎯shh쎯	-10.717
szhhszshnnznn쎯	-10.7171
.psphshh1쎯npzn0쎯	-10.7173
:szszs0쎯hshzzpp쎯	-10.7175
쎀.쎈	-10.7175
hhshhpsn쎯hsszs쎯	-10.719
hnphspn쎯szhhz2쎯	-10.7192
hshzsz쎯shh쎯	-10.7193
hszpnn쎯phspnzph쎯	-10.7199
nphzpnpnzp쎯、	-10.7203
pzhhs0쎯hshzsz쎯	-10.7206
쎁쎇쎀	-10.721
pssn쎯	-10.7213
쎉쎀쎀/쎁쎈쎀쎀	-10.7214
pzzh쎯pzszhshhszh	-10.7221
、nnnhshzn쎯	-10.7226
pshpnhszhz쎯	-10.7228
nhzppn1쎯	-10.7234
npszhnznn쎯hszn0쎯	-10.7236
h쎯znhzn0쎯	-10.7237
쎁쎉쎃쎉phhshs쎯	-10.7238
nnzpshshpn쎯	-10.7239
hshshhznnnn쎯	-10.7239
nhpspnhzn1쎯	-10.724
.(쎂)	-10.724
zzsnnzhhpz쎯hsh1쎯	-10.7243
hznpz쎯nnnhssh	-10.7248
pszhhpzn쎯szpn1쎯	-10.7252
hpsn0쎯szhhpzhh2쎯	-10.7253
쎁.쎄	-10.7265
hphspnszhhh쎯	-10.7266
.쎀쎈	-10.7268
(hszhhznp쎯	-10.727
zzhznhhs0쎯	-10.727
nznn쎯pzhhnhphsh쎯	-10.7272
쎁쎉쎄쎁phhshs쎯	-10.7278
pznszh1쎯nzzhszh쎯	-10.7279
pszhhhnznn쎯,	-10.728
nzhp쎯pznsn쎯	-10.7281
npzn0쎯n	-10.7284
phspnszhpn1쎯쎆	-10.7286
pzzhzphpz쎯	-10.7287
pznszhsh0쎯h	-10.7305
pzzn3쎯pznszh0쎯	-10.7307
hszsn쎯pznszh1쎯:	-10.7312
hzhhz0쎯hhszs0쎯	-10.7314
,psphshh1쎯npzn0쎯	-10.7315
zzhpzn0쎯쎂	-10.7328
nhpn0쎯,	-10.7329
hs1쎯nnzzzh0쎯	-10.7331
pnhhsnph	-10.7331
nhpzpnszpzszh쎯	-10.7332
szhs쎯hhpsszhsh쎯	-10.7332
hphpn쎯zhzhz0쎯	-10.7335
nhnph쎯zhhznzs쎯	-10.7337
nhpnpssz쎯、	-10.7339
npszhpz쎯	-10.734
.hzzpn0쎯	-10.7343
^	-10.7347
zpnp쎯nphzpnzp	-10.735
znszpz쎯snphpz쎯	-10.7351
、zhzphzn쎯	-10.7351
psszhhspnnppn쎯	-10.7355
.shshhz0쎯pznsn쎯,	-10.7359
zzshhspn쎯pshz1쎯	-10.7363
hpphsz쎯	-10.7363
nphhshhpn쎯zph쎯	-10.7367
쎅쎁쎂	-10.7372
phshpz쎯pszhhpzn쎯	-10.7377
.zzshppzhhnzzn쎯	-10.7386
,zn2쎯phspnpzzpn쎯	-10.7394
hppzhh쎯pznpzn0쎯	-10.7394
nhzpphpn쎯snphpz쎯	-10.7395
hspnpz2쎯pnhhzn쎯	-10.7401
zzh0쎯·	-10.7404
hpszhh쎯pnhhspn1쎯	-10.7405
pznsn쎯,	-10.7406
pzhhzszn쎯pznzp쎯、	-10.7416
hpnshhhhzn쎯n	-10.7417
pnphz0쎯szhpzzn0쎯	-10.7418
pn2쎯phhz2쎯	-10.7425
hppzhh쎯zz2쎯	-10.7426
zhhp쎯	-10.7432
szsshshszhhhs쎯	-10.7433
szhsh2쎯shshhz0쎯	-10.7439
hzhsnpzhh쎯	-10.7439
hpnn0쎯zzh0쎯	-10.744
zpnzhh0쎯pnhz0쎯	-10.744
szpzh0쎯pzhshszh쎯	-10.7442
hhps2쎯ssnph쎯	-10.7444
、shhhz쎯nhszhzpn쎯	-10.7447
nnpnzzzh쎯h	-10.7448
zzsspnpszhhzpn0쎯	-10.7448
hshnh	-10.7458
pz0쎯hpzznp쎯	-10.7464
p쎯hhshszhhhsh쎯	-10.747
pnhhsh쎯hpnz0쎯	-10.7477
phhsh1쎯.	-10.748
nhhhszh	-10.748
nnpzzhhz쎯,	-10.7483
.phzhznp쎯	-10.7486
nhpn2쎯pshz1쎯,	-10.7488
,nphpzpppnnzzn쎯	-10.7491
psszhhspn쎯zsh0쎯	-10.7492
》szhs쎯pszhhpzn쎯	-10.7493
nhpnps쎯pnhhsh쎯,	-10.7494
、nnnphzznnh쎯	-10.7497
h쎯zzhhhznp0쎯	-10.7499
hpz0쎯pnhhspn1쎯	-10.7505
zpnpszhhh쎯hsh	-10.7511
hpn1쎯hshzsz쎯	-10.7515
hhps2쎯zpznn쎯h	-10.7517
쎂쎀phhshs쎯	-10.7519
nnzpzhzzp1쎯	-10.752
쎁.쎆	-10.7522
hszpzhhpnzp쎯	-10.7525
쎁쎂쎅	-10.7527
hhps2쎯zzpn0쎯	-10.7528
h쎯hsshhhpnpzhh1쎯	-10.7531
hpn1쎯zzhpzn0쎯	-10.7534
zzhpzn0쎯npzn0쎯	-10.7537
nphhps쎯hpshsh쎯	-10.7537
《hsshz0쎯	-10.7539
phspnnnhs쎯、	-10.7539
phshhsh쎯pznh쎯	-10.7539
ssnph쎯pnhhspn1쎯	-10.7541
hzhzzpp쎯npnsns쎯	-10.7543
nn	-10.7546
hsshszhh쎯	-10.7548
szhs쎯szhhhshs	-10.7553
shnpn쎯pznsn쎯	-10.7555
pnhszs93쎯zhzhz0쎯	-10.7557
pzhh1쎯쎆szhh3쎯	-10.7558
phnphnzhzsp쎯쎄	-10.756
zzzszhhhspnsz0쎯”	-10.7562
hshszh0쎯pszsz쎯	-10.7565
pnpn1쎯shshhz0쎯	-10.7567
、pszhhh0쎯	-10.7568
hphhpnz쎯nphszs쎯,	-10.7571
,hspnh0쎯	-10.7574
,hhshszpz쎯npzn0쎯	-10.7585
hz2쎯hs1쎯	-10.7589
hhhzn2쎯snpszszh쎯	-10.759
nhzp쎯hhshzn3쎯,	-10.7592
nnnhsh쎯nhszs쎯	-10.7592
szhhz2쎯zzsszhhh쎯	-10.7595
szhshhzpn0쎯	-10.7597
nppnhsshpn0쎯	-10.7597
pzhh1쎯쎁쎃szhh3쎯	-10.7598
nhphsshnnnnnzzn쎯	-10.7599
znhznp쎯,	-10.7601
nnnphzznnh쎯shh쎯	-10.7601
쎁쎉쎇쎄phhshs쎯	-10.7603
nhpn0쎯ppzhpphs쎯	-10.7605
snphpz쎯nnnznhhs쎯	-10.7607
.쎀쎃	-10.7608
.shnpn쎯	-10.7612
hpszhnhp쎯ssnph쎯	-10.7612
pn0쎯nnznnhpn쎯	-10.7612
szhszh1쎯h쎯	-10.7615
phzn쎯pszhhpzn쎯	-10.7615
.pphszh쎯	-10.7615
hspnhzn0쎯nhphsh쎯	-10.7616
hpzznp쎯nhnph쎯.	-10.7618
hshhpszpn쎯.	-10.7618
pnhhpn0쎯snzhzp쎯	-10.7619
pshspnh0쎯.	-10.7619
쎀/	-10.7621
.hppszhhzpn쎯	-10.7621
hphpz쎯	-10.7621
pszhh0쎯nphzpn	-10.7625
pz쎯zhphsszhsz쎯	-10.7626
nnnzzzszhsh쎯	-10.7637
phshh쎯	-10.7642
hszh1쎯hpn1쎯	-10.7647
235쎯shnpn쎯	-10.7648
pnhszhzs0쎯pnhzn쎯	-10.7648
hzhs0쎯snzszhh쎯	-10.7649
hsszhhhh0쎯nhnph쎯	-10.7649
,phhhshhh쎯	-10.7651
zzp쎯snpnzszhpz쎯	-10.7652
hznpznn0쎯、	-10.7653
znpzpn쎯pszhhpzn쎯	-10.7654
zzhpnnpzph쎯	-10.7654
zpn3쎯hhshpzn3쎯	-10.7678
nznnp쎯hszsshzph쎯	-10.7679
zzhhhznp0쎯shh쎯	-10.7679
nnzhspn쎯pshzn1쎯	-10.768
-쎄쎀	-10.7682
h쎯hspn0쎯nhpnps쎯	-10.7683
szszhz1쎯	-10.7685
hzzpn0쎯pnhznzzs쎯	-10.7687
zzspnps쎯zzhpzzn쎯	-10.7688
hzzp0쎯pshz2쎯	-10.7689
zzhpzzhz쎯zzh0쎯	-10.7691
hhshzn3쎯.	-10.7693
hznpsz쎯pnzp쎯	-10.7694
hshhpzhhsn쎯	-10.7695
hzhszhhs1쎯	-10.7705
zzspzzhhnznn쎯shh	-10.7707
nhpnnpzszn쎯	-10.7708
-(	-10.771
szhs쎯nhpn2쎯zzhsz	-10.771
pszssh0쎯hphshn쎯	-10.7713
nnzhpzn0쎯znszpz쎯	-10.7715
shszpnh0쎯	-10.7716
zpn3쎯nznpszhpz쎯《	-10.7719
쎃쎅쎀	-10.7721
.쎀쎁	-10.7721
hspnpnhpzhhsz쎯	-10.7722
.szhpnh쎯shshhz0쎯	-10.7722
zzpn0쎯nhnphp쎯	-10.7723
szhpzszhpn쎯	-10.7729
pzhh1쎯쎁쎇szhh3쎯	-10.7733
hhzszpn쎯	-10.7734
쎁쎀쎂	-10.7736
hspnpzpn1쎯	-10.7741
β	-10.7741
nnnszhshn쎯	-10.7749
:‘	-10.7749
pnzp쎯ppshhz쎯	-10.7753
pzn2쎯	-10.7754
hhhpnnpnzpznhzs쎯	-10.7757
pnzp쎯nnnnznnp쎯	-10.776
쎂쎄zpn3쎯szhhhzn2쎯	-10.7761
nnspznhpn쎯”	-10.7765
phhs2쎯szpnpn1쎯	-10.7765
zp1쎯.	-10.7769
phhshs쎯pszhhpzn쎯	-10.7771
hhshszpz쎯hpszzh쎯	-10.7773
hppzhh쎯hszpnpn쎯	-10.7777
zzspn쎯phzn쎯	-10.7778
hshsnszssh쎯、	-10.7792
hpszhhzzp0쎯	-10.7796
-쎁쎈	-10.78
с	-10.78
zpszh0쎯nsnzhpn쎯	-10.7801
hzhhzszhh쎯pnhzn쎯	-10.7803
,쎀쎀쎀	-10.7812
snz쎯,	-10.7813
pn2쎯nsnphhsh쎯	-10.7813
,phspnpzzpn쎯	-10.7816
93쎯shhhz쎯	-10.7821
pzszshpzpppn쎯,	-10.7822
hzhzszn쎯zzhpzhz쎯	-10.7822
(쎆	-10.7825
쎁쎉쎄쎄phhshs쎯	-10.7837
npzn0쎯shsh쎯	-10.7839
hpnszhsh0쎯nnhs쎯	-10.7851
phhszssz1쎯,	-10.7854
snzszhh쎯szpn1쎯	-10.7858
zhzhzn0쎯nphszs쎯,	-10.7858
nhpn0쎯pznpn쎯	-10.7858
쎀쎉-	-10.7859
szhs쎯nznn쎯.	-10.7862
hppzhh쎯pn2쎯	-10.7865
nhszhsh쎯.	-10.7869
nhpn0쎯npzn0쎯	-10.7872
hsshhhszhpn쎯.	-10.7872
szszs0쎯pzzshz쎯	-10.7879
nnznnhpn쎯ssnph쎯h	-10.7879
nzznpzhhs쎯	-10.788
psphhs1쎯、	-10.7881
hpszh쎯	-10.7883
、nnnhsszhpznn쎯	-10.7884
-쎁쎅	-10.7884
pn2쎯,hssnzzp쎯	-10.7889
phhz0쎯hhznzp쎯	-10.7892
pznszh0쎯pszhhh0쎯	-10.79
szhhhshpn쎯pszsz쎯	-10.7903
nhszhhhspnpzpn쎯	-10.7903
szhhpn쎯phspnsz쎯.	-10.7905
pnnphspnszhsh0쎯	-10.7911
(쎂).	-10.7916
nhpnnnppnnppn쎯	-10.792
,hhps2쎯	-10.7928
zzpn0쎯sz	-10.7932
nhpn0쎯zzp쎯	-10.7933
쎁쎀phhshs쎯	-10.7934
zhpnphzpnzph쎯	-10.7936
h쎯szhs쎯	-10.7939
zzpn0쎯szhhhspn3쎯	-10.7939
,,,	-10.7941
、hhsh1쎯	-10.7942
hppzhh쎯phhs0쎯	-10.7944
hspnszpnszpnzph쎯	-10.7947
zzhszhhh0쎯phzn쎯	-10.7948
nzhp쎯hhpsszhsh쎯	-10.7949
pshzpszhhphs쎯,	-10.7951
zzhznhsh쎯》	-10.7952
pn2쎯znhpnppp쎯	-10.796
hpszss쎯hpzznp쎯,	-10.7963
pnhhsnphpnhhsnph	-10.7969
hshphz3쎯phhsh1쎯	-10.797
쎁쎉쎉쎇	-10.7971
szszs0쎯.	-10.7972
nhpspnzp쎯,	-10.7972
,szhhz1쎯	-10.7975
쎂.쎄	-10.7977
.hhh쎯	-10.7977
hspnpzzn1쎯hpn1쎯	-10.798
hspnnphzpnzph쎯、	-10.7982
szpn	-10.7983
hpn1쎯snz쎯	-10.7986
hspnhzhzpszhh쎯	-10.7987
pnzzsz쎯hhssz쎯	-10.7987
hpnhhz쎯	-10.799
쎃szhhz1쎯	-10.7991
hshszhhs쎯	-10.7993
shhsn	-10.7993
쎁쎅쎀쎀	-10.7998
쎅hpszhhhsh0쎯	-10.8
hhps2쎯ppzhszh쎯	-10.8001
nnzhszhszhsh쎯,	-10.8004
zzshpznp쎯	-10.8008
nzhsznnhpn쎯hhz1쎯	-10.8011
nhzzph쎯	-10.8011
쎄쎀쎀쎀	-10.8012
hhshn쎯	-10.8015
phhshzzs0쎯	-10.8018
nhnphznpzpzn쎯	-10.8019
hspnhzn0쎯.	-10.8024
μ	-10.8026
phhszspnp쎯	-10.8026
szpz0쎯hhz1쎯	-10.803
pzpn1쎯	-10.8031
nnnhppszhhzpn쎯,	-10.8033
ppsnzshz쎯	-10.8035
szhhszhh0쎯nhszs쎯	-10.8035
、hsszhpznn쎯	-10.8036
zzpn0쎯szhhhzn0쎯	-10.804
szhssh0쎯.	-10.8043
.h쎯ppznnhpzzn1쎯	-10.805
hszspnhszspn1쎯	-10.8053
hhshszpn0쎯pn2쎯	-10.8053
hspnhpnhszhz쎯	-10.8054
(psnhhhshhspn쎯	-10.8054
hshszh0쎯nzpphsn쎯	-10.8059
쎁-쎂	-10.8071
pzpp쎯	-10.8071
nphzpnzzh쎯	-10.8076
nnznnhpn쎯ssnph쎯	-10.8079
zphnphzhhsspn쎯	-10.8079
zphzhphz쎯	-10.808
.쎂쎀쎀쎇phhshs쎯	-10.8084
szhpszszh쎯.	-10.8084
쎅.쎅	-10.8086
nhpn1쎯zhpszhsh1쎯	-10.8087
nsnphhsh쎯:	-10.8089
pszhhhnznn쎯:	-10.8098
znzzhpszpn쎯nzhs쎯	-10.8101
zpnzhh0쎯hhz1쎯	-10.8101
-쎁쎆	-10.8101
.pszhhh0쎯	-10.8102
pshhzn1쎯hhznzp쎯	-10.8109
,hzhsnzn쎯	-10.8115
szsshnzsz쎯	-10.8118
hszpzhhnpnsns0쎯	-10.8118
pznnhpsnh쎯	-10.8118
nhphsh쎯hspnhzn0쎯	-10.8122
쎀nhszhnzphhz쎯	-10.8126
pzhhpzhh쎯	-10.8129
zhzhzn0쎯hsn쎯,	-10.8134
hzhpzszn쎯phhhzhs	-10.8136
spnhpnz쎯zzhzshh쎯	-10.8136
zhpn2쎯hzn0쎯쎁	-10.8142
hspnpznszh쎯:	-10.8144
、hhpz1쎯	-10.8144
pshshzzn쎯phzn쎯	-10.8148
zphzsz쎯pssnz쎯	-10.8152
hshhhshphzszhh쎯	-10.8154
、pnhhsnph0쎯	-10.8158
nhpn0쎯hsn쎯	-10.8161
hzhzshh쎯	-10.8169
npzn0쎯pn2쎯	-10.8171
hsshszhhsnnzzph쎯	-10.8173
pphszh쎯pshhsh0쎯	-10.8175
szhhhspn3쎯:	-10.8175
nzpnpz쎯》	-10.8177
hzhszhshpn쎯	-10.818
hszpzhhnzhhzpn쎯	-10.818
hzhhpnszhhz쎯	-10.8184
hppzhh쎯zp1쎯	-10.8186
쎁쎉쎄쎂phhshs쎯	-10.8192
zzsnhnphszh쎯	-10.8193
hhs쎯hzhhpzn0쎯	-10.8198
쎁쎆쎀쎀	-10.8201
nphpzhhsz쎯zhz1쎯	-10.8207
znpznnhzhz쎯.	-10.8211
nzpzpn0쎯hshzzpp쎯	-10.8217
nhpzhhpn쎯	-10.8219
szhzhphz쎯?	-10.8221
nphpszhhhnzzn쎯、	-10.8222
zzhznhsh쎯zzhzhz쎯	-10.8224
zzpn0쎯pnzp쎯	-10.8225
pszsz쎯pn2쎯	-10.8233
snz쎯nhszs쎯	-10.8234
hhps2쎯zpznn쎯、	-10.8236
phpnps쎯nnnznszh쎯	-10.8246
szpn1쎯hshzsz쎯	-10.8252
pnpn1쎯zpn3쎯	-10.8253
nzhzn쎯pnhhzn쎯	-10.8256
.쎂쎀쎀쎅phhshs쎯	-10.8258
shshspphpszpn쎯hz	-10.8259
hpszhnhp쎯nhnphp쎯	-10.8259
、nhpnpn0쎯	-10.8263
.쎂쎀쎀쎈phhshs쎯	-10.8269
hpn1쎯hhpnszpz쎯	-10.8269
、zzhhsh쎯	-10.8271
hshzzpp쎯hshzsz쎯	-10.8279
nnnsnzhsznphspn쎯	-10.8282
snzszhh쎯.	-10.8283
szhs쎯phspnnnhs쎯	-10.8283
nhhhszh쎯	-10.8284
hhshszssh쎯hhsh	-10.8286
),szhhhshpn쎯	-10.8289
,쎆	-10.8295
nphhhsszhhh0쎯“	-10.8295
hhz1쎯hssznphhs쎯	-10.8296
pzpn2쎯szhhhspn1쎯	-10.8299
nzhszsshszhhhs쎯	-10.8303
nzpszpn쎯szhspnh쎯	-10.8305
pznnhsh0쎯	-10.8308
phs0쎯nphzpn쎯	-10.8309
zphzzh1쎯zphzzh1쎯	-10.8311
spnnphhh쎯szhhh2쎯	-10.8312
phspnnppnnznn쎯	-10.8312
hshpszhh쎯hpshsh쎯	-10.8314
shnpn쎯pphszh쎯,	-10.8314
hsshhhspn쎯h쎯	-10.832
hpnhshhsh쎯	-10.8323
쎁hnphs쎯nhzp쎯	-10.8328
hpz0쎯szhhzsz쎯	-10.833
hsszhpz쎯,	-10.8333
nzpzhshszh쎯pn3쎯	-10.8336
153쎯nnzzzh0쎯	-10.8336
snhnphszhhhsh1쎯	-10.8339
쎀쎀nhszhsh쎯,	-10.834
pzhhs0쎯nnnhshzn쎯	-10.8341
szhshzznzpn쎯zz2쎯	-10.8341
szhhhhpnzznzpn쎯	-10.8344
pszszh쎯shh쎯	-10.8347
nppnpzpshzhh쎯	-10.8352
:쎈	-10.8353
szspzhhpzhh0쎯	-10.8354
ppzhphpnzhhhhs쎯	-10.8355
hnphs쎯nphzpn쎯	-10.8355
pnzp쎯phhhzszhs쎯,	-10.8359
phspnpzhshszh쎯	-10.8371
szszs0쎯pszhhhp쎯	-10.8376
-,	-10.8379
zphhsszhsz0쎯	-10.838
hsshpn쎯pnzp쎯	-10.8383
hpshsh쎯phzhznp쎯	-10.8387
npzn0쎯쎁	-10.8391
,ssznzznzpn쎯	-10.8393
hhsh1쎯szhhshnh쎯	-10.8397
nnzzzh0쎯zznnh쎯	-10.8399
nhhsh쎯pn2쎯pnzn0쎯	-10.84
zzhpnzp쎯	-10.8415
쎁쎉쎉쎆	-10.8417
nhpppzh쎯	-10.8418
pnhzn쎯hshzshp쎯』『	-10.842
쎁쎁-	-10.8421
,pphszh쎯hnphspn쎯	-10.8422
、hsh2쎯	-10.8422
hhh쎯szshnphpn쎯	-10.8424
szhs쎯szhhshnh쎯h	-10.8426
pphszh쎯zn2쎯	-10.8426
hsszppn쎯hpnz0쎯	-10.843
nsnnhpnzs쎯	-10.843
pshsszhphpn쎯zz2쎯	-10.8431
hpshsh쎯szpn1쎯	-10.8431
szpnsz0쎯,	-10.8431
”nhpzpnzn쎯	-10.8433
쎁pn2쎯	-10.8435
pznzszs쎯nhszs쎯	-10.8435
zzspnhsh쎯	-10.844
shhsszhhhpnzp0쎯	-10.8441
h쎯szhhhzn2쎯	-10.8442
shshhz0쎯hhpzpn0쎯	-10.8442
hszsn쎯nzzhz쎯;	-10.8446
pshpzn2쎯zhzhps쎯	-10.8448
hshpzpn0쎯	-10.8453
ssznnhnph쎯	-10.8457
,nnnphzznnh쎯	-10.846
쎁.쎁	-10.8461
hhzpnzp쎯szhhzsh쎯	-10.8464
쎉pzhh1쎯,	-10.8467
szhhhhshpzhh쎯	-10.847
》.nznhzppn쎯《	-10.8472
pznh쎯hhshpzn3쎯	-10.8476
pnzp쎯hpnz0쎯	-10.8481
szhshhz1쎯	-10.8487
szhzph쎯phspnzph쎯	-10.8488
pshsshpn쎯nhpnnph	-10.8488
pnzp쎯hspnnhpnpn쎯	-10.849
《pnhhpn0쎯hhz1쎯	-10.8491
zpszhnzzn1쎯	-10.8492
shh쎯hspznnzzn쎯	-10.8494
hspnppp쎯	-10.8501
쎁쎉쎃쎆phhshs쎯	-10.8501
hsszh쎯pnhz0쎯	-10.8505
znszh0쎯shhhz쎯	-10.8507
hhspn2쎯zz2쎯	-10.8508
nhszs쎯phspnnnhs쎯	-10.8514
hzhzhphsszh쎯《	-10.8516
hsshszhhs	-10.8516
pzzshz쎯nnnznhhs쎯	-10.8518
,hhh쎯	-10.8522
szszs0쎯hshszpn2쎯	-10.8523
е	-10.8526
hznhsh쎯zpnp쎯	-10.8527
shhshsshhh쎯	-10.8531
,phszhhhsh쎯	-10.8531
shhsszhszhhhz쎯	-10.8532
nnnhshzn쎯,	-10.8534
szhpnhz0쎯	-10.8534
hzhpphsnhhhszh쎯	-10.8535
szh0쎯.	-10.8546
shhhz쎯nphhshhpn쎯	-10.8546
hshphz3쎯nhpn2쎯	-10.8548
nzshh쎯pspzzpn쎯	-10.8549
nzhszhszh쎯、	-10.8551
hspnnhpnpn쎯、	-10.8552
zzhhhzs쎯	-10.8555
hpn0쎯hhpn1쎯	-10.856
pszhhhp쎯zpnzzn쎯	-10.8561
.szhhshnh쎯hsh0쎯	-10.8563
.zhhznzs쎯	-10.8564
hsszhpz쎯nphhh쎯	-10.8564
쎁쎅hsszhpz쎯	-10.8565
hszhz1쎯pzhhs0쎯	-10.8569
szhszhhpnn쎯	-10.857
nnnszhshszpn쎯	-10.857
snpszszhphpn쎯	-10.8571
pzzshz쎯hszhhznp쎯	-10.8576
znnpz0쎯pznnhhpn쎯	-10.858
znszh쎯	-10.8581
phhhznphhshhpn쎯	-10.8582
szhhhzn0쎯pn2쎯.	-10.8586
zphzhh쎯nhnphp쎯	-10.8586
pznpzn0쎯pn2쎯	-10.8594
)-	-10.86
nhpspnpzszn쎯hzh	-10.8603
nnzpzzhpszszs쎯	-10.8608
phs0쎯hpz0쎯	-10.8609
pshz1쎯nhpnpssz쎯	-10.8609
pn2쎯phspnpzzpn쎯	-10.8609
hhshszhhhsh쎯hhp	-10.861
:쎇	-10.8611
pnzn0쎯zhzhz0쎯	-10.8611
pnhszh쎯nnnhshzn쎯	-10.8613
쎀쎀(	-10.8613
szhhnzhzhs0쎯	-10.8614
.psnhnph쎯hhz1쎯	-10.8615
쎅szhhz1쎯	-10.8615
phznzzn0쎯pnhz0쎯	-10.8618
pzhh1쎯쎁쎁szhh3쎯	-10.8622
ˇ	-10.8623
szhhz1쎯)	-10.8624
szssh쎯	-10.8625
nhpnnphhpnszh쎯	-10.8625
pnhzn쎯hshzshp쎯	-10.8627
93쎯pspphpnps쎯	-10.8633
szhhhszhhhsh0쎯쎂	-10.8642
zp쎯	-10.8644
:쎆	-10.8649
.hspnzhhzpn쎯	-10.865
hhz1쎯쎁쎉쎉쎉phhshs쎯	-10.8656
nzhzh쎯nnzzzh0쎯	-10.8656
nzpzpn0쎯nhnphp쎯	-10.8657
shh쎯nhnphszhzzs쎯	-10.8658
hzhzszn쎯》、《	-10.866
szhhhzn0쎯pn2쎯,	-10.8665
nnzhpszhhhpnzp쎯	-10.8667
zzhz0쎯zzh0쎯	-10.867
,phspnszhpn1쎯	-10.8671
h쎯nphzpnhpn0쎯	-10.8673
hzhpzzp쎯	-10.8676
zhz0쎯hzhphsszh쎯:	-10.8676
쎁쎉쎃쎃phhshs쎯	-10.8677
zz2쎯pszsz쎯	-10.8678
h쎯pn2쎯	-10.8679
nhszs쎯、	-10.8681
hpn1쎯nppn쎯	-10.8686
spnpnznnpnshszh쎯	-10.869
zzsnhzp쎯zzpn0쎯	-10.8693
쎁쎈쎆	-10.8694
zpn3쎯zphszhhh1쎯	-10.8695
phspnszhs쎯,	-10.8696
ppzhpphs쎯phzn쎯	-10.8699
hshpszhh쎯npzn0쎯	-10.8703
nhspn쎯pshpznsz쎯》	-10.8704
nphzpnhpn0쎯:	-10.8708
쎁쎉쎄쎃phhshs쎯	-10.8709
zzhnzhpszssh쎯	-10.8711
hszhhpnnszhszh쎯:	-10.8712
zzspn쎯,	-10.8713
pzszhh1쎯	-10.8714
hhps2쎯zz2쎯	-10.872
shh쎯phhs1쎯	-10.8722
szpzh0쎯nhzp쎯	-10.8724
,szhpnh쎯hpszss쎯	-10.8725
nnnhpnszhhz쎯	-10.8726
pnhhzn쎯hpshsh쎯	-10.8727
zpzh쎯phshphhsh쎯.	-10.8728
zpszh0쎯shnpn쎯	-10.8732
pznpzn0쎯,	-10.8732
hhshn0쎯sz	-10.8732
nppnshszhhhs쎯	-10.8732
,hpsn0쎯pszn0쎯	-10.8733
pszhhpzn쎯pnzzsz쎯	-10.8735
,zn2쎯pznszh1쎯	-10.8738
.쎂쎀쎀쎉phhshs쎯	-10.8739
hzhhppnn쎯쎂	-10.8739
szhzph쎯phzn쎯	-10.8742
nsnszhhhhpn쎯	-10.8742
szhsh2쎯szhhshnh쎯	-10.8745
nhpnnznpzhhs쎯,	-10.8754
pss쎯szhhhzn0쎯	-10.8755
(pnhzszh쎯	-10.8758
쎁pnzn0쎯szhhhsh1쎯	-10.8764
szhhhspn3쎯,	-10.8765
nzzpzszshpzpppn쎯	-10.8772
hhshnphhsh쎯,	-10.8772
hshhszhhznp쎯,	-10.8772
nnnnhnphszhhhs쎯	-10.8777
szhshnhsshszhh쎯	-10.8777
nhzp쎯hhpsppp0쎯	-10.8778
쎁쎂-	-10.8781
snpnzszhpz쎯phspn	-10.8785
:쎁쎀	-10.8787
npzn0쎯szhhshnh쎯	-10.8789
nznn쎯pszssh0쎯	-10.8789
쎃hhpzpn0쎯	-10.8789
pz0쎯pszhhpzn쎯	-10.879
nsnhhshpzhh쎯,	-10.8791
nnpzpnszpn쎯h	-10.8791
쎈pnzn0쎯szhhhsh1쎯	-10.8791
쎄pnzn0쎯szhhhsh1쎯	-10.8791
hpznsz쎯pn3쎯	-10.8792
szhhz1쎯:쎂	-10.88
hshzzpp쎯、	-10.8805
,szpzh0쎯pss쎯	-10.8808
zphszhhhpn1쎯	-10.881
쎁hhpzpn0쎯	-10.8811
hphz0쎯、	-10.8813
phhz0쎯szszh1쎯	-10.8814
nhnphszhhhs쎯,	-10.8815
sn쎯	-10.882
hzhhszn쎯hpzznp쎯	-10.882
쎁쎀pzhh1쎯,	-10.8821
nppnppzhszhss쎯	-10.8821
nnzhpzpppn쎯phzn쎯	-10.8828
hshhsh0쎯	-10.883
,shhshpszh쎯	-10.8834
hshzsz쎯hpnz0쎯.	-10.8835
hszpnpn쎯pn2쎯	-10.8837
hpszhh쎯pshzszpn쎯	-10.8846
nhpn0쎯snzszhh쎯,	-10.8852
hspnnhpnpn쎯,	-10.8856
hzhs0쎯hshzzpp쎯	-10.8864
,hzshnnzphshszh쎯	-10.8865
hsn쎯zzspznhzs쎯	-10.8868
hshzhpn1쎯,	-10.8874
pshshzzn쎯nnzzph쎯	-10.8877
pphsn쎯	-10.8877
nhphsshnnnn0쎯	-10.888
nhphsshzn쎯npzn0쎯	-10.889
nnz	-10.889
,쎁쎈	-10.8895
◎	-10.8898
pnhpzhhsznzzn쎯	-10.8902
pzhh1쎯쎃쎁szhh3쎯	-10.8908
hhh쎯hhpzpn0쎯	-10.8908
npszhnznn쎯hsh2쎯	-10.8914
nnnpnhszh쎯	-10.8917
hzhphsszh쎯	-10.8921
szhhzhz0쎯szh	-10.8921
쎅pzhh1쎯,	-10.8935
pn2쎯zp1쎯	-10.8938
pshspnh0쎯,	-10.8941
szs1쎯hspnhzn0쎯	-10.8943
쎅phhshs쎯	-10.8946
nhpznzz쎯,	-10.8947
hpsn0쎯nznphhhs쎯	-10.8949
phhsh1쎯nhnphp쎯n	-10.8951
,nphzhhsspn쎯	-10.8953
nnnnnzhszhshpn쎯:	-10.8954
、pzhhzszn쎯pznzp쎯	-10.8959
psnhhsh쎯hpshsh쎯	-10.8959
szhpn3쎯》	-10.8964
,hhz1쎯szhhhshpn쎯	-10.8965
쎆pzhh1쎯,	-10.8972
pszhhnnzhhpz쎯	-10.8972
nphzpn쎯;	-10.8973
nhhsh쎯zhzhzn0쎯	-10.8982
szhhhshspnhszs2	-10.8987
hpsn0쎯pzhhs0쎯	-10.8995
szhhhshpszhh쎯	-10.8996
128쎯nnzphshszh0쎯	-10.8997
zph쎯hszsn쎯nzzhz쎯	-10.8998
pszpszh0쎯	-10.9001
93쎯hssznphhs쎯	-10.9002
nhzpph	-10.9002
zsh0쎯nhpsnszpz쎯	-10.9007
szhhshnh쎯hhsh1쎯	-10.9017
)pn2쎯.	-10.9017
쎁쎂pns쎯	-10.9018
)h	-10.9019
hshnhpn0쎯	-10.902
쎁쎉쎂쎈phhshs쎯	-10.9023
,hsshpn쎯hppzhh쎯	-10.9023
nnpzzhhz쎯pshz1쎯	-10.9023
hszh0쎯hsshhhpn0쎯	-10.9025
hsn쎯hpszsshhh쎯	-10.9027
nhzpphphhpn쎯zzp쎯	-10.9035
nsnhpszs쎯	-10.904
hhpz1쎯ppzhpphs쎯	-10.9046
hssnph쎯hpnn0쎯	-10.9048
zhzphzn쎯hhzn0쎯	-10.9052
nzpzpn0쎯psp	-10.9053
nzhp쎯,hppzhh쎯	-10.9053
nhzszhhh쎯	-10.9053
hpshsh쎯pnhhsh쎯	-10.9054
znzzphspn쎯phhz1쎯	-10.9054
hhpn0쎯phhz2쎯	-10.9055
hszhz쎯	-10.9055
nhnphshszh쎯、	-10.9057
hshh1쎯phshpzpp쎯.	-10.9059
shhsnnnhnphs쎯	-10.9059
phzn쎯hshhpzznp쎯	-10.9061
zhzszhszhshn쎯,	-10.9061
hszh1쎯shhspshz쎯	-10.9069
hszsshnphzpn쎯	-10.907
pnhhsh쎯szhh3쎯	-10.907
nhpsnhshzn0쎯	-10.9074
nnphpnnhhhszh쎯.	-10.9081
.szhszh1쎯phhshs쎯	-10.9082
,hhshpzpn1쎯	-10.909
nhpnnphhpn쎯pn2쎯	-10.909
h0쎯pznnnnzpzhsh쎯	-10.9091
쎉pzhh1쎯hznhsh쎯	-10.9093
nnnhsszhhhhpn쎯	-10.9096
쎆pnzn0쎯szhhhsh1쎯	-10.9096
hhshpzhh쎯	-10.9099
nzpnpz쎯szh	-10.9105
nphzsppzhh쎯	-10.9105
nhszhzznnnn쎯	-10.9107
hpz0쎯hpzp쎯	-10.9108
hhpz0쎯.	-10.9109
nphhps쎯pn3쎯	-10.911
hspnh0쎯hsh0쎯	-10.9113
nznnzszhhh쎯	-10.9114
쎂.쎂	-10.9114
nnnhspnszhhh0쎯	-10.9118
znzz0쎯shnpn쎯	-10.9119
nzszh쎯zhhznnpn0쎯	-10.912
pphszh쎯hszhsh0쎯	-10.9121
쎁쎉쎉쎅	-10.9124
hhshs쎯hzshznhsh쎯	-10.9124
nnzhshpn0쎯.	-10.9124
szhzhphz쎯	-10.9126
snphpz쎯szhhz2쎯	-10.9126
hsn쎯phhs1쎯	-10.9131
hszh0쎯zpznn쎯	-10.9134
nhpsnz0쎯pspnn쎯	-10.9134
szpnnhnphszh쎯	-10.9136
hpsn0쎯nhpzpnzn쎯	-10.9136
쎁쎉쎃쎅phhshs쎯	-10.9143
pznszh1쎯“	-10.9145
쎁szhpn1쎯	-10.9147
szspnpnszh0쎯	-10.9148
h쎯pznpn쎯	-10.9154
hszsn쎯nzhzh쎯	-10.9155
129쎯nhpnpn0쎯	-10.9156
pnnpzpppszhhpz쎯.	-10.9156
shhhz쎯nnzhspn쎯	-10.9162
쎇쎂쎀	-10.9162
2쎯nhnphszhhhsh1쎯	-10.9163
hhs쎯hszhzhhz0쎯	-10.917
쎇pzhh1쎯,	-10.9174
hshzn0쎯hsshz0쎯	-10.9175
,hpssnzszs쎯	-10.9178
쎉hnphs쎯nhzp쎯	-10.918
hpsnnzzn쎯hszhz1쎯	-10.9184
hsh0쎯hszhnph쎯	-10.9185
szhszpn3쎯;	-10.9189
phnphnhshpzn0쎯hs	-10.9191
〈	-10.9192
shnpn쎯pn2쎯npzn0쎯	-10.9193
쎂쎀쎁쎃	-10.9196
hszhhh1쎯hsszhpz쎯	-10.9199
zs0쎯hspnzhhzpn쎯	-10.9201
¥	-10.9201
hpszhnhp쎯szs1쎯	-10.9207
nhpnpnphpn쎯.	-10.9208
pzhhzszn쎯pznzp쎯h	-10.921
pszhh0쎯hhzn1쎯	-10.921
,hhshszpz쎯zhz1쎯	-10.921
、szhhz2쎯zzh0쎯	-10.9211
い	-10.9212
쎈pzhh1쎯,	-10.9212
szhhhshpn쎯hpsn0쎯	-10.9216
nppnhszpn쎯	-10.9219
nnnpszhhhhpnn쎯	-10.922
snpszszh쎯hhspn0쎯	-10.9223
hspnzn쎯pszhhpzn쎯	-10.9225
、shhspzppnnznn쎯	-10.9227
〉	-10.9229
pn2쎯nhpn0쎯	-10.9234
znzhhzpn쎯	-10.9236
nnpnzzzh쎯hpszh	-10.9237
znnznn쎯phhz1쎯	-10.924
.p	-10.924
쎄pzhh1쎯,	-10.9241
pnhhsh쎯phzn쎯	-10.9243
nzhnphs쎯npzn0쎯“	-10.9247
hzhpzszh쎯	-10.9249
pnhszh쎯hspnhzp0쎯	-10.9255
szhh3쎯,	-10.9256
nzhszhszh쎯·	-10.9258
쎁쎉쎃쎄phhshs쎯	-10.9259
zznnnn	-10.926
pznnhspnpnznnpn쎯	-10.9261
pnhhsnph0쎯sz	-10.9262
к	-10.9265
phshphpn쎯ssnph쎯	-10.9268
.《pphszh쎯	-10.9269
nzzhszh쎯nnnhz2쎯	-10.9269
szh0쎯szhhhspn1쎯	-10.9272
쎄,	-10.9272
,szhh3쎯hspnh0쎯	-10.9273
szhhshnh쎯nhnphp쎯	-10.9274
쎉szhhz1쎯	-10.9276
nhszhsh쎯;hppzhh쎯	-10.9277
쎂hhpzpn0쎯	-10.9277
hshzsz쎯hpnz0쎯,	-10.9279
shzphzssnph쎯hzh	-10.9284
pnnpnzpznhzs쎯	-10.9285
nnnszhszpn0쎯	-10.9285
ssnph쎯nnpnzzzh쎯	-10.9291
,shhsszhpn쎯	-10.9292
nhzp쎯phhhzhs쎯、	-10.9295
nnnphsszh쎯szhs쎯	-10.9296
zhhznzs쎯hpzznp쎯.	-10.9296
、psnhhhszh쎯	-10.9298
phhz0쎯hspnpnzz쎯	-10.9299
zhpsnppznn쎯	-10.9303
zhpzszh쎯phzn쎯、	-10.9312
,nhnphp쎯	-10.9313
shhsnhpnpnhs쎯	-10.9313
hhhzhhznp쎯pszs1쎯	-10.9314
2쎯hszpzhhhzszhh쎯	-10.9314
psphshh1쎯zz2쎯	-10.9315
hh0쎯pn2쎯	-10.9316
zn2쎯hppzhh쎯	-10.9318
、nnnhhshpzhh쎯	-10.932
nzpnppp쎯nhpnnzz쎯	-10.9321
hnphs쎯nnzzph쎯	-10.9322
hpn1쎯,	-10.9323
-쎅쎀	-10.9326
nnnznszh쎯npnsns쎯	-10.9327
phhz0쎯nnnhshzn쎯	-10.9331
nnzhpzpppn쎯zzp쎯	-10.9334
134쎯nhnph쎯	-10.9335
szhsh	-10.9349
、zzshzzpn쎯	-10.9351
pz0쎯hszh0쎯	-10.9352
shpnznnpn쎯zpznn쎯	-10.9352
nppnszhhhs	-10.9352
phs0쎯hsszhpz쎯	-10.9355
、hhh쎯	-10.9358
phsszhsz쎯	-10.9358
szhshpn쎯hhpsnzn쎯	-10.9359
szhhpzh쎯、	-10.9363
shphpn쎯hspnhzn0쎯	-10.9364
pn2쎯hshpszhhzzs쎯	-10.9364
psshnpn쎯pnphz0쎯	-10.9366
phhspnszhhszshn쎯	-10.937
zzhznznznzn쎯	-10.9371
hszsn쎯pznszh1쎯	-10.9375
pnn0쎯pzzh쎯	-10.9376
znszh0쎯,	-10.9377
pns쎯ppshhz쎯hsh	-10.9378
,nnnhsh쎯hsszppn쎯	-10.9381
hspnnphzpnzph쎯,	-10.9385
hspnh0쎯,	-10.9387
nnnzhzphzn쎯	-10.9387
pzzshz쎯hpznsz쎯	-10.9388
szhzzshszhz쎯	-10.9389
znzz	-10.939
쎅쎀쎀hsszhpz쎯	-10.9393
pn2쎯hshpzhh0쎯	-10.9395
,hznpz쎯pnzp쎯	-10.9397
pn2쎯szh0쎯쎃	-10.9399
、hshshphpn쎯	-10.9402
hzhhshhzn쎯“	-10.9408
nnnznnp쎯zhpzzpn쎯	-10.9408
쎁쎈쎇	-10.941
hpn1쎯hszhsz0쎯	-10.941
psnhnpnznhzp쎯	-10.9411
hsshz0쎯snzszhh쎯	-10.9413
pshpszh0쎯	-10.9414
hpz0쎯phhshs쎯	-10.9417
nnzhshpn0쎯》	-10.9434
nhpzpnzn쎯npzn0쎯	-10.9435
zzhszhpn0쎯.	-10.9435
、phhhzsnppzhh쎯	-10.9438
szszs0쎯pn3쎯	-10.9444
phhhshhhnhpzpn쎯	-10.9445
zzhszhsh1쎯hsszs쎯	-10.9447
zhzhz0쎯zpnn1쎯	-10.9457
pnn0쎯pszhhpzn쎯	-10.9458
pznsn쎯,hpsnnzzn쎯	-10.946
hhshphpn쎯hhsh	-10.9462
pzszhh0쎯	-10.9466
쎀쎈-	-10.9467
zhnhszszhhszhhh쎯	-10.9468
hpn0쎯	-10.9468
쎀nhszhsh쎯	-10.9471
zhhzpnhsh쎯	-10.9474
pn1쎯nnzpnpnszh쎯p	-10.9476
nnnznszh쎯nnzzph쎯	-10.9477
hspn0쎯hspnhzp0쎯	-10.9477
pnhhspn1쎯phhshs쎯	-10.9482
pszhhpzn쎯zph쎯	-10.9483
hszsn쎯》	-10.9486
phhszssz1쎯sz	-10.949
phhsh1쎯hpznhz1쎯	-10.9493
.nhpnnzzn쎯pns쎯	-10.9494
hshnhnphszhhpz쎯,	-10.9494
pnhhsh쎯pszhhhp쎯	-10.9495
psnhhhshszh쎯、	-10.9496
snzszhh쎯:쎂쎀쎀	-10.95
.pnhhsh쎯hszsn쎯	-10.9501
ssnphnphhszs0쎯	-10.9502
nnnphpnhspn쎯	-10.9503
zpnp쎯snnpnnphzn쎯	-10.9505
hhz1쎯쎂쎀쎁쎂phhshs쎯	-10.9506
:szpn1쎯	-10.9507
pzhhphzn쎯	-10.9507
쎂쎀pznpzn0쎯	-10.9511
hszpnn쎯psphshh1쎯	-10.9514
pszhhpzn쎯zhzhz0쎯	-10.9514
nznn쎯,	-10.9516
shhsszhhpzhh0쎯	-10.9522
zzhszpn1쎯nphzpn쎯	-10.9528
pzhhsszh쎯hszsn쎯·	-10.953
szpnhhznp쎯	-10.9531
pn3쎯snz쎯	-10.9533
hh0쎯hs1쎯phhshs쎯	-10.9534
,szs1쎯hzzpn0쎯	-10.9535
,zpn3쎯	-10.9536
hh0쎯phhz0쎯	-10.9536
pnzn0쎯pznzp쎯	-10.9538
szhs쎯hhshzzph쎯	-10.9538
hspnnzpz0쎯	-10.9539
snznphzsppzpn쎯	-10.954
nnnzzhpsnhhhsh쎯	-10.9541
pzpn2쎯hhzn1쎯	-10.9544
hzhpznzp쎯zp1쎯	-10.9545
쎁쎈쎃	-10.9546
nhpshszh쎯、	-10.9549
ppnpznnhpnnnnnn쎯	-10.9549
szhs쎯nnnphzznnh쎯	-10.955
.pnhhsh쎯	-10.9552
pn3쎯szh0쎯	-10.9555
hszh1쎯pzhh1쎯	-10.9556
쎉쎀phhshs쎯pshzn1쎯	-10.9559
nzhzhs쎯nnzszhzh쎯	-10.9566
hpn1쎯zzhszpn0쎯	-10.9568
、nhzpphpzpn쎯	-10.9568
(쎁쎀	-10.9569
쎂쎀쎀nphzpn쎯	-10.9571
shszh1쎯hppzhh쎯	-10.9571
szhzp0쎯h쎯pns쎯	-10.9571
shhsznszh쎯	-10.9571
phnphnzhzsp쎯쎅	-10.9572
(쎁쎉쎀	-10.9573
pnzp쎯hspnhszn쎯	-10.9574
”nnzzzh0쎯	-10.9575
“hszh1쎯	-10.9575
zzhpzn0쎯쎃	-10.9579
psphshh1쎯nhpn2쎯	-10.958
shh쎯nhszs쎯sz	-10.9584
pnhhzn쎯hppzhh쎯	-10.9584
nsnhshssszpn쎯	-10.9584
psszs쎯pn2쎯	-10.9587
쎇쎀phhshs쎯pshzn1쎯	-10.9588
phnphnhszspn쎯,	-10.9592
hhz1쎯쎁쎈	-10.9594
hnphs쎯szhhhzn0쎯	-10.9595
,nphzpnhhshpzhh쎯	-10.9598
hshszpz쎯pshhsh0쎯	-10.9599
nhnphp쎯hshzsz쎯	-10.9601
hspnhszhhh쎯	-10.9601
npzn0쎯hsshhhpn0쎯	-10.9602
,hszpzhhzhz쎯	-10.9603
hszhhpnnszhszh쎯h	-10.9607
쎁쎀쎆	-10.9617
znppnhhpn쎯	-10.9618
psphshszpn쎯	-10.9619
nhppzhzh쎯,	-10.9623
szhhzsh쎯:	-10.9625
.쎂쎀쎀쎄phhshs쎯	-10.9625
、nphhshzph쎯	-10.9626
nnnshszh쎯	-10.9627
hpszhszszs쎯n	-10.963
zzzszhhhspnsz0쎯	-10.9634
phhshs쎯nhnphp쎯	-10.9638
쎅pn2쎯	-10.9641
hpshhzpnznp쎯	-10.9646
”,szhhhshpn쎯	-10.9647
.....	-10.9648
nphszpzhhhzn	-10.9652
pznnhhpn쎯	-10.9652
pszhhhnznn쎯.	-10.9654
hsszs쎯szhh3쎯	-10.9662
pzhhzszn쎯pznzp쎯s	-10.9662
szhs쎯nhszhszszh쎯	-10.9662
pshz1쎯,	-10.9662
쎉쎀쎀쎁	-10.9671
nhhsh쎯pshhsh0쎯;	-10.9673
—쎂쎀쎀	-10.9678
hzhnhpz쎯szhh3쎯s	-10.968
phhpnphspnzph쎯	-10.9682
znhzn0쎯phhz0쎯	-10.9684
zzhhhpznp쎯	-10.9687
hspnpzzn2쎯、	-10.969
pshz2쎯.	-10.9695
pnhspzsz쎯	-10.9696
shhshhpz0쎯	-10.9696
쎁쎀쎄	-10.9699
hhhshz쎯	-10.9701
nhszs쎯hzzpn0쎯	-10.9702
nzzhszh쎯:	-10.9704
zpszh0쎯hsh2쎯、	-10.9705
pznnpz0쎯szpnpn1쎯	-10.9715
,nhpnnzzn쎯pns쎯	-10.9716
hhpsszhsh쎯,	-10.9722
szhszhszh0쎯《	-10.9722
pshz2쎯、	-10.9723
pzhhs0쎯zzpn0쎯	-10.9725
hshszhznp쎯	-10.9726
h쎯zzshszpn0쎯	-10.9726
hhspn0쎯phhpnszh쎯	-10.9726
,szhhhshspnhszs	-10.9726
.szhpnh쎯npzn0쎯	-10.9726
、pnzzsz쎯	-10.9733
hnphs쎯ppshhz쎯	-10.9734
hs1쎯h쎯zhpszhsh1쎯	-10.974
shhsszphspnh쎯np	-10.9743
nnnhszhz0쎯szh0쎯	-10.9747
pnhszh쎯zz2쎯	-10.9747
szhnznn쎯nnnhz2쎯,	-10.9748
zzhphpnps쎯	-10.9749
hshnzhszhnph쎯	-10.975
hpsn0쎯pznpzn0쎯	-10.9751
nnnhshzn쎯nphszs쎯	-10.9755
pzzhhpzszn쎯	-10.9755
npzn0쎯p	-10.9758
zphszh1쎯:	-10.9761
nnpnzzzh쎯hsh1쎯nn	-10.9761
zpn3쎯nznpszhpz쎯,	-10.9761
szhhz2쎯hsh2쎯	-10.9763
szhszshpszss쎯	-10.9765
쎁쎉쎈쎇	-10.9768
pzzszhshszpn쎯	-10.9775
,zsz0쎯hppzhh쎯	-10.9775
、pshspn쎯snzhspn쎯	-10.9776
zhpnphhps쎯shhs	-10.9776
szh0쎯pzhhzszn쎯	-10.9776
hhz1쎯쎁쎉쎉쎈phhshs쎯	-10.9778
、pszhhhhszzn쎯	-10.978
쎁쎂pzhh1쎯,	-10.9783
쎀)	-10.9784
szpzh0쎯nzhzhs쎯	-10.9787
pnnpzph쎯	-10.9788
pnhhzn쎯,	-10.9788
nnzpznszh쎯hzhs0쎯	-10.979
nnnhsshpnzhz0쎯n	-10.98
쎁쎉쎀쎀	-10.9801
hhpn0쎯pshszhpn쎯	-10.9811
,shhspshz쎯	-10.9813
nnpnhzn쎯zzpn0쎯	-10.982
쎯shhszpszh1쎯	-10.982
nnnpzszn쎯nphhh쎯	-10.9821
、hspn	-10.9827
snphpz쎯nppnhz쎯	-10.9827
쎀쎆-	-10.9831
,hpszsshhh쎯	-10.9832
쎁쎉쎈쎆	-10.9832
hshhszhhzphz쎯	-10.9833
pnhzszh쎯pnn0쎯	-10.9836
-쎁쎉	-10.9842
zzhnhpnpn쎯	-10.9842
zpnzhh0쎯szhs쎯	-10.9845
nnspznhpn쎯;	-10.9847
쎁쎉쎈쎉	-10.9848
snznznn쎯	-10.985
hpz0쎯nnzzzh0쎯	-10.9851
.szhszhshn쎯	-10.9852
psnhhhshhspn쎯《	-10.9853
phshhshhzn쎯·	-10.9859
szs1쎯hshpzszn쎯	-10.9859
phzn쎯hpnnzzn쎯	-10.9859
hspnhznpsz쎯	-10.9861
hhznzp쎯hspnpz2쎯	-10.9864
hsshhhpnpzpn쎯	-10.9864
zzspn쎯szhszpn3쎯	-10.9866
psnhppshzn쎯	-10.987
쎃pzhh1쎯,	-10.9874
pzzpn0쎯szhhpzh쎯	-10.9874
nnzpzszs쎯	-10.9875
h쎯nhnphshszh쎯	-10.9876
shhsnhzp쎯nnn	-10.988
pnhhsh쎯hs	-10.988
hpznphhspn쎯nnnzh	-10.9881
ル	-10.9882
.hszhz1쎯	-10.9885
.pnzp쎯hpszs0쎯	-10.9893
pszsz쎯hpshsh쎯	-10.9897
쎁쎉쎃쎀phhshs쎯	-10.9899
pn1쎯nnzpnpnszh쎯.	-10.99
hh0쎯phhznphhhs쎯	-10.9902
szhhhpnszs쎯hzhz	-10.9904
nzhzhs쎯hphhpnz쎯	-10.9905
hhpn0쎯zzh0쎯	-10.9912
nzpzhhs쎯szpz0쎯	-10.9914
nzzhz쎯》:“	-10.992
pnzz쎯nhphzhs쎯	-10.992
psnhhhszh쎯』『	-10.9921
,nhzpphpn쎯	-10.9922
pnnphspn쎯psnhhhs	-10.9925
hpshsh쎯pnhz0쎯	-10.9926
hsszs쎯,	-10.9927
zpzhhshhspnhhsh쎯	-10.9929
hshhzshznp쎯,	-10.9929
nnnznhsh0쎯	-10.9931
szhhhsshhhzn0쎯p	-10.9937
쎃pn2쎯	-10.9942
nhpnpssz쎯.	-10.9944
ppshhz쎯nhpsnhsh쎯	-10.9945
nnszhpz쎯,	-10.9951
hhh2쎯nphpzhhsz쎯	-10.9951
hszpzhhzhz쎯nhzp쎯	-10.9955
,shhhz쎯nhszhzpn쎯	-10.9963
pznpzn0쎯zhphhzn쎯	-10.9964
phspnszhphsh쎯、	-10.9964
hzshnhpnpn쎯zpn3쎯	-10.9965
hspnhszhszh쎯	-10.9966
szhpsnhhhsh쎯nnn	-10.9967
hhpsnzn쎯hsh1쎯	-10.9967
pn2쎯nznn쎯	-10.9968
pznnzp쎯	-10.9968
szs1쎯shh쎯	-10.997
hhpz1쎯pn2쎯	-10.9974
zzpn0쎯hpszsshhh쎯	-10.9975
쎁pn2쎯,	-10.9978
szhhpzhh2쎯,	-10.9979
.쎀쎂	-10.998
hpnnpszhhzpn쎯	-10.998
쎅hsszhpz쎯,	-10.9982
nhnphp쎯hhz1쎯	-10.9983
szhs쎯hhshpzhh1쎯	-10.9983
hshzsz쎯hzhpznzp쎯	-10.9985
115쎯szhhhzn2쎯	-10.9986
hhz1쎯zzpn0쎯	-10.9987
쎁쎂쎃	-10.9988
hsn쎯nhnphszhzzs쎯	-10.9989
phhz0쎯.	-10.9989
hszhz1쎯hzhhshh	-10.9991
zzhnhznpz쎯.	-10.9993
hszhsh0쎯phhsh1쎯	-10.9995
hs1쎯pshshhsh0쎯	-10.9995
zzpn0쎯pznpn쎯	-10.9997
93쎯hpszhhhpzn쎯	-11
hhszszhpn쎯pnhpn쎯	-11.0005
zn쎯zzhhsznnhpn쎯z	-11.0012
phhhzszhhs쎯	-11.0016
쎁쎉쎈쎅	-11.0019
zsh0쎯nnnpnpnszh쎯	-11.002
szszhh0쎯zsphpn쎯	-11.002
쎁쎉hsshz0쎯zzhzhz쎯	-11.0021
,zphznzp쎯zp1쎯	-11.0021
pznszhsh0쎯zz2쎯	-11.0022
hpz0쎯szhhhsh1쎯	-11.0025
、nhpn2쎯pshz1쎯	-11.0026
hzhhhhpnhhs쎯	-11.0026
shshspp쎯zzh	-11.0028
,znhzn0쎯hhz1쎯	-11.0029
,hsszhhhhpn0쎯	-11.0031
1쎯hpn1쎯nnpnzzzh쎯	-11.0034
nhpspnszhhhspn쎯	-11.0034
hssznphhs쎯nhszs쎯	-11.0044
◆	-11.0045
nnnhshzn쎯:	-11.0047
イ	-11.0055
nzhzszhh쎯	-11.0055
hssznphhs쎯hszh0쎯	-11.0056
,pz0쎯	-11.0061
phhsh1쎯szhh3쎯	-11.0063
hhshspnhszs104쎯	-11.0063
zpszh0쎯shh쎯	-11.0064
hshzzpp쎯pnhszh쎯	-11.0067
snzhsznphspn쎯:	-11.0069
szhsh1쎯znhpnppp쎯	-11.007
,phshpz쎯	-11.0074
pz2쎯phspnnnhs쎯	-11.0074
znphhpn쎯.”	-11.0077
h쎯hspnnphhhs쎯,	-11.0078
zpnp쎯pz2쎯	-11.0078
nhpn0쎯pznsn쎯	-11.0083
쎁.쎃	-11.0086
zhpn2쎯hzn0쎯:쎁	-11.0087
nhhsh쎯pn2쎯	-11.0091
pnnpzpppzn쎯	-11.0095
hzhpzn1쎯ssnph쎯	-11.0096
zph쎯,	-11.0096
pssnz쎯pszhhpzn쎯	-11.0097
쎅쎀쎀nphzpn쎯	-11.0102
.쎁쎉	-11.0105
《nhnphhspnpphs쎯	-11.0108
,zhzs1쎯	-11.0112
psphshh1쎯phshpzp	-11.0123
nnnhppszhhzpn쎯:	-11.0129
nnzpznszh쎯pn2쎯	-11.013
,pszszh쎯	-11.0131
nhpnnznpzhhs쎯、	-11.0132
phspnszhpn1쎯쎈	-11.0132
hhpsnzn쎯zz2쎯	-11.0136
nzpphsn쎯nzpnzn0쎯	-11.0136
hpnn0쎯hspnpzzn1쎯	-11.0143
zzhnnzhhspn1쎯pnh	-11.0145
hzhznzz쎯	-11.0146
pshsshpn쎯pnhhsh쎯	-11.0147
nhnpnzszs쎯hhsh1쎯	-11.0149
phszhhpzn쎯szhhh	-11.0155
shnpn쎯shhhz쎯	-11.0161
쎄쎅쎀	-11.0173
.nhpzpn0쎯	-11.0175
pn0쎯pznszh1쎯	-11.0176
szsphzhznp0쎯	-11.0177
hzzpn0쎯szs1쎯	-11.0177
113쎯nnzpznszh쎯	-11.0179
ppznnh	-11.0183
szpn1쎯nznn쎯	-11.0183
hznpz쎯szhhz2쎯sz	-11.0189
,szhphsh0쎯	-11.0192
nnnhshzn쎯hspnzn쎯	-11.0193
·sz	-11.0196
zphpphpnps쎯	-11.0197
쎁쎉쎈쎈	-11.0201
pszhhpzn쎯hpszh	-11.0202
pzpn2쎯hszsnnpn쎯	-11.0206
쎁쎀쎁	-11.0211
pnpnhspnhspnhpn쎯	-11.0212
.쎀쎅	-11.0214
nnnhshzn쎯.	-11.0218
쎀°	-11.0218
hshhshsn쎯	-11.0219
zpnpszhhh쎯p	-11.022
szhzph쎯szpnpzzn쎯	-11.0226
hhps2쎯hspnh0쎯:쎁쎆	-11.0227
nznpszhpz쎯szhs쎯	-11.0233
쎅.쎀	-11.0234
nnnnhhsh쎯:	-11.0234
ssnph쎯szpn1쎯	-11.0236
zzhszsshzp쎯	-11.0239
,hshzn0쎯	-11.0242
nhpn0쎯szhs쎯,	-11.0244
.쎂쎀쎀쎂phhshs쎯	-11.0248
hpshsh쎯h쎯pns쎯	-11.0249
、znpznzh쎯	-11.0256
쎀nphzpn쎯,phhshs쎯	-11.0256
hshpszhh쎯、	-11.0258
hphsh1쎯hpszh0쎯.	-11.0259
hpzhhsnnhzpphpn쎯	-11.026
szssh	-11.0261
shhhz쎯hpn1쎯	-11.0261
,h쎯hsszhhhh0쎯	-11.0267
hspnpz2쎯h	-11.0268
nnnhz0쎯	-11.0271
pzznnzszhzh쎯.	-11.0273
nzzp0쎯pphsszhhh쎯	-11.0277
shhshsshh쎯	-11.0279
szhhs3쎯hzhzszn쎯	-11.0281
hszhhszhh쎯pshz2쎯	-11.0285
pzzh쎯hzhnhnph쎯	-11.0287
zhshszh쎯szhhzsh쎯	-11.0289
pznpn쎯pznpn쎯	-11.0291
shh쎯.	-11.0295
、pnhzhhzpn쎯	-11.0295
phspnsz쎯hhz1쎯	-11.0295
쎇쎅쎀	-11.0297
,hzh	-11.0299
sszhh쎯hshshsh쎯	-11.0301
phhz0쎯hsh2쎯	-11.0302
szznzznzs쎯sz	-11.0303
hszpzhhznpzpzn쎯z	-11.0303
hzhshnpn쎯nzhz쎯	-11.0308
쎁phhshs쎯	-11.0313
pz0쎯szhszpn3쎯,	-11.032
pzn1쎯nznnzszhhh쎯	-11.0322
phspnszhpn1쎯쎇	-11.0322
znhpnppp쎯znszpz쎯	-11.0326
szhpszszh쎯,	-11.0326
pn2쎯phshszhnzzn쎯	-11.0327
phspnszhpn1쎯쎀.	-11.0329
.hh0쎯	-11.033
phhz0쎯hzh	-11.0333
nphhshnnnnpnhz0쎯	-11.035
、zphszhhhpn1쎯p	-11.0351
phspnszphhs쎯	-11.0352
shhsnnnnhz쎯	-11.0355
npzn0쎯hspnh0쎯	-11.0356
szshpnhszhz쎯	-11.0356
nnnszhshpznn쎯	-11.0357
shhhz쎯psszpnsz0쎯	-11.036
hszpzh쎯pnhznzzs쎯	-11.0363
nzpnnpphhszs쎯	-11.0363
hh0쎯、	-11.0363
hpn1쎯hhz1쎯	-11.0365
zpn1쎯	-11.0365
-쎃쎀	-11.0367
,pnpnhsh쎯shhsnnn	-11.0368
phspnzn0쎯pn2쎯	-11.0368
,hhpsnzn쎯쎀	-11.037
쎈쎀쎂.쎁쎁//	-11.0371
shhshhz0쎯	-11.0371
h쎯phhshs쎯phhsh1쎯	-11.0373
в	-11.0373
쎀쎁ppzhpphs쎯	-11.0373
,zzspnhhspn쎯	-11.0378
쎁쎅phhshs쎯	-11.038
쎁쎉쎉쎄	-11.038
zhphsshzpn쎯s	-11.0382
phhhzhz쎯	-11.0383
pshzzp쎯nhppzhzh쎯	-11.0384
.npszhnznn쎯	-11.0385
쎁쎀쎀-쎂쎄쎀	-11.0386
nhhsh쎯hspnpz2쎯쎁	-11.0388
hpssnzszs쎯,	-11.0388
.쎂쎀쎁쎀phhshs쎯	-11.0388
zpnpzp쎯	-11.0388
phhpn1쎯	-11.0392
nnzpzhsznnhpn쎯	-11.0397
zhzs1쎯pn3쎯	-11.0399
쎂pn2쎯	-11.0401
,shnpn쎯“	-11.0403
szhhhshpn쎯npzn0쎯	-11.0404
hhps2쎯hsh2쎯	-11.0404
szsshszpn0쎯	-11.0408
nnnzhzps쎯zzpn0쎯	-11.0412
.”(쎃).	-11.0413
szpn2쎯	-11.0414
shhhhznzhhhhs쎯	-11.0415
hszh0쎯sz	-11.0417
nsznhszs쎯phhhz	-11.0417
hshhszhhh쎯	-11.0418
h쎯psphhs1쎯	-11.0419
pznhspn쎯zzhpzn0쎯	-11.042
hpshsh쎯hsshz0쎯	-11.0423
hpsn0쎯hshnphhs1쎯	-11.0424
hhsh1쎯zzh0쎯	-11.0425
shhsnhphsshnnnn쎯	-11.0425
zshpnpznn쎯	-11.0425
szhszhsszhszh쎯	-11.0426
zhznphzpnzhz쎯	-11.0426
hsznhszn쎯zzpn0쎯	-11.0426
hsh쎯	-11.0434
hh0쎯hs1쎯szpzh0쎯	-11.0435
hsh쎯nhphsshszs쎯、	-11.0437
phhz	-11.0438
う	-11.0438
hznhsh쎯pnhz0쎯,	-11.044
л	-11.0442
phnphnszhsh0쎯	-11.0444
hszhhpn쎯hppzhh쎯	-11.0445
zphszh1쎯pnhz0쎯	-11.0446
znhznp쎯.	-11.045
쎃쎀pznpzn0쎯	-11.0452
nhzp쎯hpszsshhh쎯,	-11.0453
zhphsszh쎯《szhs쎯	-11.0454
nzpzzn쎯h	-11.0455
nphhshzph쎯pshz2쎯	-11.0456
쎄szhhz1쎯	-11.0457
pnshsh쎯ssnph쎯、	-11.0458
npzn0쎯zpszh0쎯	-11.0461
pzznnzszhzh쎯,	-11.0462
,hpszhpzpzhsh쎯	-11.0464
hhh쎯nhnphszhzzs쎯	-11.0465
hshhpszpn쎯,	-11.0468
nzpnhhsh쎯	-11.0468
쎁쎀hsszhpz쎯,	-11.047
、pnshsh쎯ssnph쎯	-11.0471
쎂쎅hsszhpz쎯	-11.0472
、shhhz쎯	-11.0472
szszhh0쎯npzhh쎯	-11.0473
ssphnszsh쎯nnn	-11.0473
znznznhsh쎯	-11.0474
,hpsn0쎯hznnzzn쎯	-11.0474
hspnpznszh쎯h	-11.0481
.쎂쎀쎀쎃phhshs쎯	-11.0485
psphshh1쎯.	-11.0485
、szhhhspn1쎯	-11.0486
쎆szhhz1쎯	-11.0486
pszn0쎯hppzhh쎯	-11.0487
,hpzpppnnzzn쎯	-11.0487
zzhnhnpnzszs쎯	-11.0487
.쎁.	-11.049
hhshspnhszs197쎯·	-11.049
,phspnszhh쎯	-11.0493
pnzp쎯hszn0쎯	-11.0494
.쎁쎉쎈쎄phhshs쎯	-11.0498
pns쎯hshpzzhphpn쎯	-11.0499
phspnszhpn1쎯쎁쎀	-11.0504
phshszhnzzn쎯、	-11.0504
pnhhzn쎯ppzhpphs쎯	-11.0507
nzpnpz쎯、	-11.0507
znnhpn쎯hsznnhpn쎯	-11.0509
shnpn쎯hssznphhs쎯	-11.051
hspnz0쎯	-11.051
phs0쎯szhhhsh1쎯	-11.0511
shhspshz쎯pznzh쎯	-11.0514
,phzznnh쎯phhshs쎯	-11.0524
nnnhshhsh쎯	-11.0525
hnhnph쎯hshpzzn2쎯	-11.0531
hspnzn쎯zp1쎯	-11.0534
szhs쎯hzzpn0쎯	-11.0539
hpszss쎯zn2쎯	-11.0539
shh쎯pzzhzphpz쎯	-11.0541
phspnzzh0쎯hsszs쎯	-11.0543
znhpnppp쎯szpz0쎯“	-11.0546
쎁쎉쎉쎀	-11.0546
zsz0쎯pnhhzn쎯	-11.055
nhszhszszh쎯szs1쎯	-11.0551
zhznhzzn쎯phhhz	-11.0553
hspnpnhhsh0쎯	-11.0564
nhzpphzsz쎯,	-11.057
hhz1쎯sz	-11.057
hhpn0쎯zzhhhznp0쎯	-11.0571
hshpzhh0쎯hszhz1쎯	-11.0578
szhshpnps0쎯,	-11.0578
szhhz1쎯npzn0쎯	-11.0579
phhs2쎯zphpz0쎯	-11.058
,hspnszhhh4쎯	-11.058
쎁쎉쎃쎂phhshs쎯	-11.0582
hzhz1쎯phspnsz쎯	-11.0586
쎂.쎁	-11.0587
nnznnhpn쎯znn0쎯	-11.0587
쎁쎈쎅	-11.059
pspzhzh쎯hhz1쎯	-11.0591
p쎯hszhszhshsz쎯	-11.0593
nhpzpnnzzn쎯.	-11.0594
szhhpszhshpzzn0쎯	-11.0595
pszhshpzznnnhs쎯	-11.0595
.쎁쎉쎈쎂phhshs쎯	-11.0596
szpz쎯	-11.0603
shshhz0쎯pznsn쎯	-11.0603
쎂쎈쎀	-11.0605
쎁쎁쎅	-11.0609
,shh쎯	-11.061
phspnnnhs쎯phzn쎯、	-11.061
pnhhzn쎯.	-11.0613
zhz	-11.0613
snnhsh0쎯hpn1쎯	-11.0615
nnnpnhpzhhsz쎯	-11.0618
szhpn4쎯szhhz2쎯n	-11.0619
nnhhhpnhhpn쎯	-11.0621
nnnpzszn쎯sz	-11.0623
nnnnphzsppzhh쎯	-11.0623
zzspshzn쎯zpszh0쎯	-11.0627
phnphnhshhzn쎯)	-11.063
쎂쎃쎀	-11.063
pz0쎯szhszpn3쎯.	-11.0632
nnnhpzp쎯hhs쎯	-11.0633
hpzn2쎯phszhhpzn쎯	-11.0634
zpn3쎯hhz1쎯	-11.0634
쎅shhsszhpn쎯hzn0쎯	-11.0634
쎂쎀-	-11.0636
-쎁쎉쎉	-11.0637
nhnphszhhzpszh쎯	-11.0639
pszhhhz0쎯	-11.064
nnnshhzpnzn쎯	-11.064
hhshnphhsh쎯zzh0쎯	-11.0642
szhshpnps0쎯.	-11.0643
phhhzphsshhshh쎯	-11.0643
pphszh쎯szhpnh쎯	-11.0649
hsshpn쎯nzhs쎯	-11.065
hspnhsshhhzzs쎯	-11.065
pzznp쎯szhhhspn3쎯	-11.0652
쎅,	-11.0653
hhznphhhs쎯pshz1쎯	-11.0653
shhshsszhpznn쎯	-11.0655
nhnphshszh쎯phzn쎯	-11.066
.쎁쎉쎉쎈phhshs쎯	-11.0661
hpszhzpnp쎯nphzpn	-11.0661
hzhhszn쎯zpznn쎯	-11.0664
zhzhz0쎯pzhhs0쎯	-11.0665
pznpzn0쎯pznszh1쎯	-11.0665
《hhh쎯szhhshnh쎯	-11.0666
pshsshszhh쎯szh	-11.0668
pz0쎯》	-11.0671
hhz1쎯쎁쎉쎉쎇phhshs쎯	-11.0673
zsphpn쎯szpnpzzn쎯	-11.0673
znpz쎯	-11.0678
szhhhzhhzpn쎯p	-11.0679
hpn1쎯pshszhpn쎯	-11.0682
,pshsszhphpn쎯	-11.0684
hznpznn0쎯hs	-11.0685
쎁쎉쎉쎃	-11.0687
zsz0쎯nzphhs쎯	-11.0687
pnpn1쎯ssnph쎯	-11.0688
,szhshhzhz0쎯	-11.0688
ppzhnhzp0쎯,	-11.0693
nsnphzznnh쎯	-11.0695
hszhszh쎯pzzpn1쎯	-11.0697
hpzp쎯zzhznhsh쎯	-11.0706
hhh쎯pzhh1쎯	-11.0708
znphhs쎯	-11.0708
hnphnssphnszssh쎯	-11.071
pzzshz쎯;	-11.0714
.쎂쎀쎀쎁phhshs쎯	-11.0717
znzn3쎯zhphhzn쎯	-11.0718
、phhsh1쎯nhnphp쎯	-11.0721
nhpn0쎯zzh0쎯	-11.073
pznh쎯hzzpn0쎯	-11.0732
pshszhhpn쎯hhz1쎯	-11.0733
쎆.쎀	-11.0735
zph쎯phhsh1쎯	-11.0736
.pphszh쎯hnphspn쎯	-11.0737
shhspshszhz쎯쎀:	-11.0738
szszhh0쎯nsnz0쎯	-11.0739
,ppszhhzpn쎯	-11.0741
93쎯szhs쎯	-11.0743
nznpszhpz쎯:“	-11.0744
nnhpn쎯、	-11.0754
pznszh1쎯:)	-11.0754
hzhznzzphspn쎯	-11.0755
szhh3쎯hzhzszn쎯》	-11.0755
,nhnphszhhnznn쎯	-11.0756
,zzhpnhszh쎯	-11.0756
snnzph쎯	-11.0757
nhpn2쎯hspnh0쎯	-11.0761
、shhs	-11.0765
nnznnhpn쎯pznzp쎯	-11.0766
hzzppznzh쎯	-11.0768
쎁쎁쎂	-11.0774
zzhnhpn0쎯,	-11.0775
pnhznznn쎯.	-11.0778
pzpnppn쎯	-11.0779
nhszs쎯hssznphhs쎯	-11.0779
zzpn0쎯shh쎯	-11.0779
т	-11.0783
.hzhnhsz	-11.0786
shnpn쎯shshhz0쎯	-11.0789
쎁쎉쎈쎄	-11.079
zzspn쎯pszhhpzn쎯	-11.079
phzn쎯zzhpzn0쎯	-11.0791
szszs0쎯zpznn쎯	-11.0796
snpnzszhhspn쎯	-11.08
shhsznppnhhpn쎯	-11.0801
hshhhz0쎯	-11.0802
.hssnphszhh쎯	-11.0804
nznhzppn쎯hszsn쎯	-11.0811
szhhshnh쎯pn2쎯	-11.0813
,nzhhshpzhh쎯	-11.0817
h쎯zpnzzn쎯	-11.0818
nsnhhshpzhh쎯.	-11.0827
、nnn	-11.0836
쎂hsszhpz쎯	-11.0839
:쎀.	-11.084
pszn0쎯pszn0쎯	-11.0841
.쎅hpszhhhsh0쎯	-11.0843
–	-11.0844
hhpn0쎯nnzpzhsh0쎯	-11.0844
hspnhhpsznp쎯n	-11.0846
nnnhsh쎯hpnz0쎯	-11.085
shhspshszhz쎯nphh	-11.0854
)phnphnhshhzn쎯	-11.0855
hpszss쎯hnphspn쎯	-11.0857
쎁쎉쎃쎁phhshs쎯	-11.0857
szszs0쎯hshzzpp쎯	-11.0864
.쎁쎉쎈쎅phhshs쎯	-11.0868
szhszh1쎯pznszh1쎯	-11.0868
szhhhszhhhsh0쎯()	-11.0871
nphzpnhhshpzhh쎯s	-11.0872
、hpszsshzn쎯	-11.0872
hhzn쎯nnspznhpn쎯.	-11.0874
hhh2쎯hspnhhspn3쎯	-11.0874
,szhpn1쎯hppzhh쎯	-11.0878
쎅쎄쎀쎀	-11.088
nhpsnzzs쎯	-11.088
쎃쎀hpz0쎯	-11.0881
nhpzpnzn쎯hphshn쎯	-11.0881
snphpz쎯zzhphs쎯	-11.0882
hspnhpn1쎯	-11.0887
hsszs쎯hhhpnhhpn쎯	-11.0896
snnhpnn쎯.	-11.0897
zzsszhh0쎯hpnz0쎯	-11.0897
nnshshnhpzpn쎯、	-11.0899
szhhhshhsszhsh쎯	-11.09
h쎯nphhs0쎯	-11.0903
pznpzn0쎯npzn0쎯	-11.0907
쎀쎄-	-11.0907
sshhhpzz쎯hznhsh쎯	-11.0908
nhpn2쎯hszsn쎯	-11.0913
pshsshpn쎯p	-11.0913
ssnph쎯pznzp쎯.	-11.0913
szh0쎯pphsszpn쎯	-11.0914
pshsszh쎯	-11.0915
,nnn	-11.0916
.쎁쎉쎉쎇phhshs쎯	-11.0918
zzp쎯,	-11.092
h쎯szhhz1쎯	-11.0921
hhpsppp0쎯.	-11.0921
hh0쎯szhhs2쎯	-11.0922
,nznnp쎯	-11.0923
.hzshnnzphshszh쎯	-11.0931
nphhshszssh쎯zz2쎯	-11.0934
phspnpzzpn쎯,	-11.0934
nhszhzpn쎯nhszs쎯	-11.0936
hshszhhznnznn쎯	-11.0938
znzn3쎯phszhhhsh쎯	-11.0941
쎀쎃-	-11.0941
nzpnpz쎯》:“	-11.0943
h쎯pn4쎯	-11.0947
nphhs0쎯phhshs쎯	-11.0948
hszpnpn쎯pznhspn쎯	-11.0952
phhz2쎯hhznzp쎯	-11.0954
ス	-11.0954
hsszs쎯zzhpzn0쎯	-11.0956
nhnphszhhhs쎯.	-11.0961
pz0쎯hspnpz2쎯	-11.0962
쎄pn2쎯	-11.0965
.szhhhsshhhzn0쎯	-11.0966
ppznnhpnzz쎯	-11.0966
szh0쎯:	-11.097
pn4쎯pzpzhsh쎯	-11.097
hpszhszszs쎯p	-11.097
hzshznhsh쎯pn2쎯	-11.0978
,pnhz0쎯	-11.0979
zzhpnzp쎯zzhpnzp쎯	-11.0979
,쎁쎉쎈쎄phhshs쎯	-11.0979
、zhzhz0쎯	-11.0979
,zhhznnpn1쎯	-11.098
,pszn0쎯	-11.098
,szhhpzhh2쎯	-11.0981
zphszh	-11.0982
hhps2쎯zpnn1쎯	-11.0983
쎁.snnpnnphzn쎯	-11.0984
psszpnsz0쎯,	-11.0992
psnhhhshhspn쎯·	-11.0998
ㄢ	-11.0999
▁	-11.1
hsn쎯zz2쎯	-11.1001
,zhpnnn쎯	-11.1002
pshhhpzzn쎯.	-11.1004
》szhhhshpn쎯h쎯	-11.1005
nhpzpnszhshn쎯	-11.1007
h쎯nhzp쎯	-11.1009
szszhpszszs0쎯	-11.101
hsshhhznzn쎯	-11.1017
、nhpnsz쎯	-11.1017
pnhszh쎯pshspnh0쎯	-11.1021
,shhhzpznn쎯	-11.1023
쎀쎇-	-11.1023
,hzszhh0쎯hpshsh쎯	-11.1026
hsszh쎯pn2쎯	-11.1028
nhhsh쎯hhs쎯	-11.1029
zphszh1쎯hnphspn쎯	-11.1029
zpznn쎯ppshhz쎯sz	-11.103
nhpnnpnppp쎯	-11.103
nznn쎯pszhhpzn쎯	-11.103
pnhhsh쎯zhzhz0쎯	-11.1032
nhpnnnhzppnnn쎯	-11.1038
쎇szhhz1쎯	-11.1039
hpsn0쎯psszhhh1쎯	-11.104
hzzpn0쎯hssnph쎯	-11.1041
hpn1쎯szhszh1쎯	-11.1043
hhshpzhh1쎯szhhh	-11.1043
pn2쎯hspnpznszh쎯	-11.105
hphhpnz쎯nphszs쎯.	-11.1051
3	-11.1058
nnzhznhsh쎯.	-11.1058
.쎁쎉쎄쎉phhshs쎯	-11.1062
pnn0쎯,	-11.1065
pnhnnphphpn쎯	-11.1066
zzshzzpn쎯hpznsz쎯	-11.1071
.쎁쎉쎈쎈phhshs쎯	-11.1071
쎀쎁-	-11.1076
shnpn쎯hzzpn0쎯	-11.1079
、hs	-11.1079
93쎯hsznhszn쎯	-11.1082
nhpz쎯	-11.1082
phhz2쎯,	-11.1083
쎇pnzn0쎯szhhhsh1쎯	-11.1085
nnzhz쎯hspn	-11.1088
nnnpphs쎯nhszs쎯	-11.1088
shhsnnzpnpnszh쎯	-11.109
zhhznnpn0쎯·	-11.1094
zhphshpszhh쎯	-11.1096
phhshs쎯hnphs	-11.1097
nhszszhhhhspn쎯	-11.11
zhzhz0쎯pnpnpn0쎯	-11.1102
pznszh0쎯hppzhh쎯	-11.1102
.(hh0쎯)	-11.1102
hhz2쎯	-11.1107
znhzn0쎯nzphsszh쎯	-11.1109
szszs0쎯pszssh0쎯	-11.1115
hpn1쎯sz	-11.1118
、nnnsnppznn쎯	-11.1121
hspnh0쎯pphsszpn쎯	-11.1121
쎁-쎁	-11.1122
pznzp쎯nnznnhpn쎯	-11.1123
nnzhszhsz쎯	-11.1126
hshpzpn	-11.1127
npzn0쎯pnhhsh쎯	-11.1131
쎆쎀쎀쎀	-11.1136
hspnhzn0쎯pn2쎯.	-11.1137
znhspn쎯pshpznsz쎯	-11.1143
hszpzh쎯sz	-11.1153
,phhpzzsszs쎯	-11.1156
szhshnpnn쎯	-11.1156
npzn0쎯psnhpzpn1쎯	-11.1157
pshshpn0쎯sz	-11.116
nzpzhhs쎯	-11.1164
hspnh0쎯pn2쎯	-11.1164
pshhsh0쎯pznzp쎯.	-11.1169
znnznnpnppp쎯	-11.1173
pshhzn1쎯·	-11.1175
szhhpzh쎯szpn1쎯	-11.1176
.《szhhhshspnhszs	-11.1177
쎃hpszhhhsh0쎯	-11.1179
zphszh1쎯hsn쎯	-11.1179
szhs쎯ppzhpphs쎯	-11.1179
쎂.쎃	-11.1182
hpn1쎯hpn1쎯	-11.1184
pz3쎯hs1쎯	-11.1185
nphhpnzz쎯,	-11.1193
phhsh1쎯nhnphp쎯、	-11.1195
hpzn2쎯“szhhzsh쎯	-11.1198
hp1쎯、	-11.1198
.nnnhszpzhh쎯	-11.1205
pszhhpzn쎯hpzn2쎯	-11.1205
nppnhsh1쎯	-11.1207
.쎁쎉쎉쎂phhshs쎯	-11.1209
hhz1쎯쎁쎉쎉쎃phhshs쎯	-11.1212
szhhhshpnhz쎯,	-11.1212
pnhhsh쎯zzp쎯	-11.1212
pshsshpn쎯zzpn0쎯	-11.1218
pnn0쎯shh쎯	-11.1219
szh1쎯szhpzszhpn쎯	-11.1226
pshpzn2쎯phshpz쎯	-11.1227
nhpsnhsh쎯:쎉쎇쎈쎇쎅	-11.1231
,hshpzhh0쎯	-11.1231
(shhsszhpn쎯	-11.1232
pzzshz쎯:	-11.1233
쎯nphzpnhpn0쎯	-11.1235
nnnzpnshsh쎯	-11.1235
nzpzzn쎯,	-11.1239
.쎁쎉쎉쎃phhshs쎯	-11.124
쎅쎀쎀zhzszhszhshn쎯	-11.124
szhszhhhz쎯	-11.1241
hzhs0쎯hhpsszhsh쎯	-11.1241
hhz1쎯nphhshhpn쎯	-11.1242
nnspznhpn쎯、	-11.1245
psnhnph쎯、	-11.1245
hspnhhps쎯hshzsz쎯	-11.1246
shhspnnphspn쎯、	-11.1247
shh쎯nhzp쎯	-11.1247
znzzp	-11.1247
,-	-11.1249
쎁쎀쎀nphzpn쎯	-11.1262
hznpznn0쎯hphz0쎯	-11.1263
nphhhsznhsh쎯	-11.1264
쎂hpszhhhsh0쎯	-11.1266
hspnpznszh쎯.	-11.127
.pzhhs0쎯hhz1쎯	-11.1273
szhshzp1쎯,	-11.1277
pnhhzn쎯shh쎯	-11.1277
szhszhpnh쎯	-11.128
nppn쎯nppnhzphpz쎯	-11.128
nnnpnnpphsh쎯	-11.1281
szhh4쎯:	-11.1284
쎀쎀쎀pnhhspn1쎯	-11.1285
hpsn0쎯szpz0쎯	-11.1286
nhzznnnpnhs쎯:쎁	-11.1286
,ppzhpphs쎯	-11.1287
nhpn0쎯.”	-11.1289
nppnsnznznn쎯	-11.1292
hpznphs쎯	-11.1293
zzh5쎯hzhnhnph쎯	-11.1294
nhpnhszhzzhzzs쎯	-11.1294
ppszhhhhs쎯、nn	-11.1296
、pnhhsh쎯	-11.1297
hspnznpzpzn쎯	-11.13
hhspn쎯zzhhhzpn쎯“	-11.1303
phs0쎯pnhhspn1쎯	-11.1304
snzzzh0쎯	-11.1306
hzhnnzzph쎯n	-11.1309
hzhz0쎯nnznnhpn쎯	-11.1314
hzzp0쎯nnznnhpn쎯	-11.1317
.nzszhshpzhh쎯	-11.1317
nhnph쎯nnnhshzn쎯	-11.1318
,szpzh0쎯	-11.1319
hspnhshszh쎯	-11.1323
pshshpn0쎯szhzph쎯	-11.1325
쎄shhsszhpn쎯hzn0쎯	-11.1326
hhz1쎯쎁쎉쎉쎄phhshs쎯	-11.1327
nhpnhhshshzn쎯	-11.1327
hzhzpnp쎯	-11.1333
zphzzh0쎯hpzn1쎯	-11.1338
hhps2쎯zphznszh쎯,	-11.1338
shhszpzpzp1쎯	-11.1339
nhzp쎯hhshzn3쎯.	-11.1346
nznhnpnzszs쎯	-11.1353
hhpzpn0쎯,	-11.1354
、szpzh0쎯pss쎯	-11.1356
shhspzphpnn쎯“	-11.1356
nnzszhhh쎯pn2쎯	-11.1357
szhhz2쎯szpnpn0쎯	-11.1359
pn2쎯phspnszh1쎯	-11.1363
hzsh쎯zzhhzphpz0쎯	-11.1365
hhz1쎯쎁쎉쎉쎅phhshs쎯	-11.1366
hh0쎯shszhhznp쎯	-11.137
nhpsnhsh쎯phzn쎯	-11.1373
nhpsnhsh쎯,쎁쎉쎇쎉.	-11.1375
pspzhzh쎯hphshn쎯	-11.1375
nhpn1쎯pns쎯	-11.1377
、nnnphhz쎯hzhs0쎯	-11.1378
szs1쎯hzhpszpn0쎯	-11.1383
phhhzhs쎯pznnppn쎯	-11.1385
nzhszhszh쎯.	-11.1386
;shhspshz쎯	-11.1387
pnzp쎯zzhszhhh0쎯	-11.139
,쎁쎉	-11.1391
쎁쎉쎉쎂	-11.1399
hshnhnphszhhpz쎯.	-11.1401
hspnpznszh쎯,	-11.1401
nhszhzpn쎯nphszs쎯	-11.1402
pznszhsh0쎯、	-11.1403
n쎯zzhznhsh쎯	-11.1408
,hhspn0쎯	-11.1411
nznn쎯szhs쎯	-11.1413
hpszhszpz쎯	-11.1416
szhshphhphzn쎯	-11.142
npszhhhs쎯h쎯	-11.1428
psszhszh1쎯	-11.143
hspnnphhhs쎯zzh0쎯	-11.1434
szhszh1쎯ppshhz쎯	-11.1436
,zpznn쎯	-11.1436
.shh쎯nnnphzznnh쎯	-11.1437
szhhpzh쎯,	-11.1438
hznnzzn쎯pznpzn0쎯	-11.1439
hsh2쎯nnpzpnszpn쎯	-11.1443
hspnhspn쎯szhs쎯	-11.1449
쎅-쎁	-11.1453
hpshsh쎯n	-11.146
zpn쎯	-11.1463
hspn쎯	-11.1463
쎅nhszhnzphhz쎯	-11.147
nphzpnnnhs쎯h	-11.1471
,phnphnphhz쎯	-11.1471
(-	-11.1472
zz2쎯pnhhsh쎯	-11.1472
hzhpzszhpz쎯	-11.1475
nphpszhhh쎯pns쎯	-11.1477
szhssh0쎯《	-11.1477
hshshphpn쎯pznzp쎯	-11.1479
szhhhzp0쎯hhz1쎯	-11.1481
phs0쎯nphzpn쎯,	-11.1481
nphhshhpn쎯,	-11.1483
znhzn0쎯hzhnhpz쎯	-11.149
hhpsnzn쎯pnhhzn쎯	-11.1491
pznnhsh1쎯	-11.1492
zhphhspnhznnznn쎯	-11.1494
zzhznpzpzn쎯	-11.1505
szszhz쎯	-11.1512
nhphsshzn쎯:쎁.	-11.1514
°Chsh2쎯psphshh1쎯	-11.1517
、nhp쎯hzzpn0쎯	-11.1519
szpn쎯	-11.152
쎃쎀phhshs쎯	-11.1523
pshshp쎯pshshn쎯	-11.1525
zhphsshpnpzzn	-11.1526
shhsh	-11.1528
nsnz0쎯	-11.153
nnzhszhshpn쎯	-11.1532
,pshszhz쎯	-11.1538
znpznzh쎯szpnpn1쎯	-11.1538
zhhznnpn0쎯zz2쎯	-11.154
쎁:	-11.1542
shshhszn쎯	-11.1542
npzn0쎯shshhz0쎯	-11.1543
szhs쎯phzn쎯	-11.1544
zsz0쎯znpznnhzhz쎯	-11.1545
hs1쎯pzhh1쎯	-11.1546
,pzhhs0쎯hhz1쎯	-11.1546
phspnszhpn1쎯쎁	-11.1546
nppnpzszhpn쎯	-11.155
shhsnnnhpzhhsn	-11.1552
zzshpszhh쎯	-11.1553
nnnsnzszhh쎯	-11.1555
hnzshhhh	-11.1555
pspnps쎯:	-11.1557
pshspnh0쎯h	-11.1559
pzzhhzzs쎯	-11.156
hspnnhphsh쎯	-11.1562
zzhphhpzzs쎯	-11.1562
pnnpnzzn쎯znzz0쎯“	-11.1562
ssnph쎯zpznn쎯	-11.1564
nnnhshzn쎯nphhh쎯	-11.1564
쎁쎀/쎁쎀쎀	-11.1567
pnhhspn0쎯	-11.157
hpsn0쎯pnnpnzzn쎯	-11.1572
nhzp쎯pshszhhpn쎯,	-11.1572
쎁쎉쎂쎆phhshs쎯	-11.1575
szhzph쎯)	-11.1576
hshzsz쎯psnhnph쎯.	-11.1577
hzhz1쎯zphszh1쎯	-11.1579
pzzpzpn쎯pzhhs0쎯	-11.1583
pzzpn0쎯szs1쎯	-11.1583
zzshhspn쎯,	-11.1589
.쎂쎀쎀쎀phhshs쎯	-11.1593
쎆pn2쎯	-11.1596
pszhhh0쎯zznzp1쎯	-11.1599
--쎁	-11.16
nhzp쎯nphzpn쎯,	-11.1601
쎁쎂쎂	-11.1604
hnphs쎯pzn3쎯	-11.1606
hhh쎯pn2쎯	-11.1609
쎁쎉쎂쎇phhshs쎯	-11.1613
hspnnhpzsshhzhz쎯	-11.1615
zshz쎯	-11.1615
hszh1쎯ppshhz쎯	-11.1618
nhpnnph0쎯znhzn0쎯	-11.1618
쎁쎉쎂쎉phhshs쎯	-11.1619
h쎯zhpszhsh1쎯	-11.162
,zzhnphspnz쎯	-11.162
pspzzpn쎯pssnz쎯	-11.1622
pznzszs쎯szshzh쎯	-11.1623
쎂쎀쎀hsszhpz쎯	-11.1624
h쎯nhphsshzn쎯	-11.1629
nppnnppn	-11.1635
nzhshhzn쎯nhpn2쎯	-11.1638
pznszh쎯	-11.1638
ppszhhzpn쎯zpnp쎯	-11.1638
hssszsshpzn쎯	-11.1639
pn3쎯szhhhspn1쎯	-11.1639
,hzhz1쎯	-11.1642
(쎁쎉쎁	-11.1643
,phhshs쎯	-11.1643
hpnz쎯	-11.1645
hhpznp쎯	-11.1647
nppn쎯nnznppn쎯	-11.1653
pshspnh0쎯pnhhzn쎯	-11.1654
nzpss쎯szhs쎯nznn쎯	-11.1654
szhzph쎯,	-11.1656
.쎁쎉쎅쎈phhshs쎯	-11.1658
zhzhzn0쎯pn2쎯	-11.1659
hhpsnzn쎯szszs0쎯	-11.1661
zzhpnpn0쎯zzspn쎯	-11.1669
,hznhsh쎯pnhz0쎯	-11.167
phshszhnzzn쎯h	-11.1674
hzhh	-11.1675
psz쎯hhpz0쎯.	-11.1676
szhh3쎯nzhszhszh쎯	-11.1677
nsnpnhpzhhsz쎯	-11.1681
pnhhzn쎯phzn쎯,	-11.1682
pzhspnsz1쎯	-11.1689
phhhzpzhh1쎯	-11.1691
.szhzp0쎯pznsn쎯,	-11.1691
szpnhshpszhh쎯	-11.1701
hhps2쎯hspnpz2쎯	-11.1701
hpz0쎯nhszhsh쎯	-11.1702
nhszhnzphz쎯	-11.1703
hhpnszh쎯	-11.1703
nhpspnnhphzhs쎯	-11.1709
hhz1쎯hsshz0쎯	-11.1711
hshshphpn쎯hsh2쎯	-11.1713
hhz1쎯쎁쎉쎉쎆phhshs쎯	-11.1714
hspnpz2쎯hhznzp쎯	-11.1714
.”(쎂).hzhhzszhh쎯	-11.1717
,shhs	-11.1717
nnpnzzzh쎯znn0쎯,	-11.1719
hshzzpp쎯.	-11.172
쎁쎀쎀pznpzn0쎯	-11.1724
phhszssz1쎯pshz2쎯	-11.1726
hpszhszhsshpn쎯	-11.1728
nhszszhhszhhh쎯	-11.1728
nnpnhzn쎯nnhzzpn쎯	-11.173
hspnhpnz쎯	-11.173
npzn0쎯쎂	-11.1732
쎈.쎀	-11.1736
psnphhpnzz쎯	-11.1737
pspnnpzzh쎯	-11.1743
:쎃쎀	-11.1745
hppzhh쎯pzzshz쎯	-11.1746
szhsszhh쎯pshz1쎯	-11.1749
hppzhh쎯pznszh1쎯	-11.175
、znszh0쎯	-11.1752
nnnhznpsz0쎯、	-11.1752
,hzhzhs0쎯ssnph쎯	-11.1757
nhhsh쎯zpnn1쎯,	-11.176
phnphnzhzsp쎯쎆	-11.1761
zhpsnnpnphhs쎯	-11.1762
hshzsz쎯hhpsppp0쎯	-11.1763
znpzhhs쎯	-11.1766
npzn0쎯쎃	-11.1767
shhsszssh	-11.1773
shszhhznp쎯hspnn쎯	-11.1774
nhpspnzhhpszh쎯	-11.1779
nhhsh쎯nzhhps쎯	-11.1781
pszhh0쎯pzzshz쎯,	-11.1784
znhznp쎯pszhhpzn쎯	-11.1785
쎁nzhsznnhpn쎯	-11.1785
shhsnnnpzszn쎯	-11.1786
pshshzzs쎯	-11.1786
snznpszhpz쎯nzhsz	-11.1787
.쎂쎀쎁쎃phhshs쎯	-11.1787
shzphz	-11.1789
hzzhhzpn쎯ppshhz쎯	-11.179
hhh쎯zhpszhsh1쎯	-11.1792
pszhhpzn쎯hshsh0쎯	-11.1793
.hsszhphpn쎯	-11.1799
shhsszhpn쎯hzn0쎯	-11.1803
nphhps쎯phhhshhh쎯	-11.1803
hpz0쎯hhpz0쎯.	-11.181
쎆쎀phhshs쎯pshzn1쎯	-11.1811
쎄쎀pnhhspn1쎯	-11.1815
phhszssz1쎯nzhz쎯	-11.1816
hpszhszszs쎯.	-11.1822
hpzp쎯szhpn3쎯p	-11.1824
hzhhszn쎯pnzzsz쎯	-11.1825
153쎯pshzn1쎯	-11.1829
hspnnhszs쎯	-11.1833
szhhhszhhhsh0쎯、	-11.1833
shh쎯》:“	-11.1835
zhhpszh쎯zzh0쎯	-11.1835
zzhszpn0쎯szhs쎯	-11.1836
hpnszhhz쎯	-11.184
pnpnpphs쎯	-11.1848
zphznzp쎯zp1쎯,	-11.1849
phzn쎯ppshshsh쎯	-11.1856
h쎯szhhh1쎯	-11.1858
.쎂쎀쎁쎁phhshs쎯	-11.1859
pzszhshhszhhhsh쎯	-11.1861
hpsn0쎯zphszh1쎯	-11.1869
phhz2쎯hzhpznzp쎯	-11.1872
pns쎯,	-11.1875
pzhhs0쎯shnpn쎯	-11.1875
,shh쎯nnnphzznnh쎯	-11.1876
,pn2쎯pssnz쎯	-11.1879
phhhzpznszh0쎯	-11.1879
쎁쎉쎉쎁	-11.188
쎂쎆쎀	-11.1882
hsh쎯nhphsshszs쎯.	-11.1884
pn2쎯npzn0쎯	-11.1885
ppshshsh쎯zsphpn쎯	-11.1888
zphszhhh1쎯zph	-11.1889
pznzszs쎯shh쎯	-11.1889
ppsszshphshphpn쎯	-11.1895
nhhhszh0쎯,	-11.1895
phzn쎯hhhphzn0쎯	-11.1899
szhh3쎯zzh0쎯	-11.1899
°C,	-11.1902
shhsszhhszsshzn쎯	-11.1902
nhppnpnhsh쎯,	-11.1903
,shhhz쎯hszh0쎯	-11.1905
sznphhshnnnn	-11.1906
hz2쎯pnnphspnppp쎯	-11.1906
hszh0쎯n	-11.1909
:쎂쎀	-11.192
hpssnzszs쎯h	-11.1922
.쎁쎉쎉쎀phhshs쎯	-11.1923
nhzpznnphsh쎯,	-11.1924
hshhshpszhh쎯	-11.193
nnzhpzpppn쎯pn2쎯	-11.193
h쎯pz1쎯pz1쎯	-11.1935
nhphpznp쎯hpn1쎯	-11.1939
nhhhszh0쎯:	-11.1941
phzn쎯szszhszpnh쎯	-11.1943
h쎯phs0쎯	-11.1944
szhhs2쎯zzhpzzn쎯	-11.1946
쎀쎀pznpzn0쎯hnphs쎯	-11.195
hshnhzpphpnnnnn쎯	-11.1956
szhhhszpzh쎯	-11.1956
pzzphszs쎯)	-11.1957
hpszss쎯zhz1쎯	-11.1958
hpszhnhnpnznhzp쎯	-11.1958
hzhhszhh쎯	-11.1958
pzzhhz쎯szhs쎯	-11.1962
》nzhshhzn쎯nhpn0쎯	-11.1966
hpsn0쎯hhpnszpz쎯	-11.1968
、sznphhshnnnn쎯	-11.1968
nnnhszs0쎯	-11.1969
()pszhhpzn쎯	-11.1969
hhhshspnhszs200쎯	-11.1971
,nnzpz1쎯pssnz쎯	-11.1973
szs1쎯hspnhspn	-11.1975
snzpn0쎯snphpz쎯	-11.1976
nphzpn쎯、	-11.198
pshzn1쎯szhhz1쎯	-11.1984
nnzhhshn쎯hpszh1쎯	-11.1984
.hhpz0쎯	-11.1991
쎀쎅-	-11.1997
snz쎯、	-11.1998
nphszs쎯pnpn1쎯	-11.1998
.쎁、	-11.1999
pshz1쎯phshpzpp쎯	-11.2
zzspn쎯.	-11.2007
zzsnnzhhpz쎯(	-11.2014
nzpzzn쎯、	-11.2015
nnnnhpn쎯	-11.2018
shnpn쎯ppsnhhsh쎯	-11.2018
nppnnhzzn쎯	-11.2018
phphhpn쎯pszhhh0쎯	-11.2022
shhhzpznn쎯pzsz	-11.2024
hshzsz쎯pznszh1쎯	-11.2028
phpszhhhpzn쎯snz쎯	-11.203
,hssnphp쎯	-11.2031
szhhhszhhhsh0쎯:쎃	-11.2033
hzshszhhsshhh쎯,	-11.2034
hppzhh쎯hpn1쎯	-11.2035
hhh쎯hpszhh쎯	-11.2036
shhszhphhspnhzn쎯	-11.2037
hpsn0쎯szhszh1쎯,	-11.2037
쎁쎂쎁	-11.2039
hspnpszhshpzzn0쎯	-11.2042
h쎯zzhszhhh0쎯	-11.2044
shhhz쎯zpnzzn쎯	-11.2044
nhpn0쎯shh쎯	-11.2045
pz0쎯pnhznhpszpn쎯	-11.2047
hpn1쎯hzhhzhz0쎯	-11.2054
hspnhspnpzn0쎯》	-11.2054
쎁쎀.	-11.2055
zphphhsh쎯pzhz0쎯	-11.2055
、phnphnnnzszhzh쎯	-11.2056
nnszhpz쎯hsn쎯,	-11.2057
pzzhhz쎯nzpnn쎯	-11.206
、ssphnszssh쎯	-11.2061
)nnzzzh0쎯	-11.2065
zphznzp쎯	-11.2067
z2쎯hsshhhpnhsh쎯	-11.2075
nzzhpn쎯	-11.2078
.hzhhzszhh쎯	-11.2078
、hzhhszn쎯hspnn쎯	-11.2078
zhpnszhhh쎯	-11.2079
hsh1쎯pshshpn0쎯	-11.208
szhshnphhspn쎯	-11.2081
szshszn쎯	-11.2084
zphnnzpznzz쎯	-11.2084
npszspnphpnhps쎯	-11.2092
hhhshspnhszs174쎯	-11.2092
zhzhzn0쎯pszszh쎯	-11.2092
hzshnnzphshszh쎯쎁	-11.2095
h쎯hzshhszpnpn쎯	-11.2098
pznsn쎯szszs0쎯	-11.2101
zzhszhpn0쎯、	-11.2103
nhphspn쎯hphhpnz쎯	-11.2107
shhspzpn0쎯	-11.2108
pznszh1쎯szhzs1쎯	-11.2113
、zzhzhhznnpn0쎯	-11.212
szhhpzpp1쎯h	-11.2123
hpnnzphhs쎯zhzs1쎯	-11.2124
h쎯hpszsshhh쎯	-11.2124
《szhs쎯s	-11.2128
pn2쎯ppzhpphs쎯	-11.213
hszh0쎯nnznnhpn쎯	-11.213
hshshpn쎯szszs0쎯	-11.2132
hhz1쎯쎁쎉쎉쎂phhshs쎯	-11.2134
szhhnhp쎯	-11.2135
nzszhhpzpnz쎯	-11.2136
hzhpznzszs쎯	-11.2136
hznpz쎯szhhz2쎯	-11.2141
psnhhhshszh쎯n	-11.2143
쎃pnzp쎯zzh0쎯	-11.2146
hshzsz쎯phspnzph쎯	-11.2146
nznn쎯szpnpn0쎯	-11.2147
nhpnpn0쎯hzzh쎯	-11.2147
hhsnznnnznnnznn쎯	-11.2149
szh0쎯pszhhpzn쎯	-11.2149
hpn1쎯nnpnzzzh쎯、	-11.2151
쎇pzhh1쎯hpshsh쎯	-11.2153
hzhs0쎯、	-11.2155
쎁쎃쎀hpz0쎯	-11.2157
.쎁쎉쎈쎃phhshs쎯	-11.216
hhz1쎯szpzh0쎯pss쎯	-11.2162
psphshh1쎯《	-11.2162
szhpszhhphs쎯	-11.2162
,쎂쎀쎀쎃phhshs쎯	-11.2168
ssphnszpz쎯s	-11.2168
hhpzpn0쎯phhshs쎯	-11.2169
phhshs쎯szh	-11.217
《hhh쎯	-11.217
hzhhszn쎯hssz0쎯	-11.2171
쎅쎀pnhhspn1쎯	-11.2176
hshsh0쎯pnn0쎯	-11.2177
phspnszhpn1쎯쎁.	-11.2179
°쎇쎆쎀snzpn0쎯s	-11.218
szhhszhpn0쎯zz2쎯	-11.2184
pnnpnzhpzn쎯nznn쎯	-11.2185
.쎁쎉쎈쎇phhshs쎯	-11.2185
쎅nphzpn쎯	-11.2187
,hhshhpsn쎯	-11.219
hzzppsnhhhsh쎯,	-11.219
phhhzpznszh1쎯》:“	-11.219
nzpzzn쎯hsh2쎯	-11.219
nphpszhhh쎯zpznn쎯	-11.2191
zpn3쎯szhphz0쎯	-11.2191
phhhzpszhhhhspn쎯	-11.2191
hsspzszhsh	-11.2191
ω	-11.2192
hpszh1쎯nnhpn쎯	-11.2194
hzhpznnnnn쎯,	-11.2194
hszh0쎯h	-11.2198
ppszhhhhs쎯sz	-11.2198
nzpzszhpzn쎯	-11.2199
、hpsn0쎯	-11.2202
hzhz1쎯hssnph쎯	-11.2203
pzpsphszs쎯zzh0쎯	-11.2204
pznzp쎯hsh2쎯	-11.2204
hsszppn쎯h	-11.2207
hsszhhhh0쎯pphs0쎯	-11.2208
hpszss쎯szszs0쎯	-11.2211
phspnszhpn1쎯쎁쎂	-11.2216
쎈-쎁	-11.2216
129쎯hshnznn0쎯》	-11.2219
hhpz1쎯nnzpnzp0쎯	-11.222
pnhszhzs0쎯,	-11.222
szhhshnh쎯phnphn	-11.2222
szhhhspn1쎯,	-11.2226
.pszsz쎯pszhhpzn쎯	-11.2228
szhhpzhhsn쎯	-11.2229
pzphhshpzhh쎯	-11.2229
,nnzhssszpz쎯	-11.223
hsh쎯nhphsshszs쎯,	-11.223
pnhhsh쎯phhshs쎯	-11.223
hspnnhnphszhhhs쎯	-11.2232
shhsnnnzz쎯pshz1쎯	-11.2232
hpzp쎯szhhhzn2쎯	-11.2234
nphzpnzphphpn쎯:쎁	-11.2236
snz쎯nzpnppp쎯	-11.2236
pznnhshznzs쎯hsn쎯	-11.2239
nhpznzz쎯hpznsz쎯	-11.224
phhhzpzhh0쎯	-11.2242
°Cphhshs쎯	-11.2244
hzhs0쎯,	-11.2247
zz2쎯,	-11.2249
.pznnhpnnnnnn쎯	-11.226
—쎁쎉쎉	-11.2261
pz0쎯.	-11.2261
hpsn0쎯pnhzszh쎯	-11.2262
hhzn0쎯hpnz0쎯	-11.2267
hhszs0쎯s	-11.2267
、hsszhhhshhzs쎯	-11.2267
·zzshszhz0쎯	-11.2269
nzphshh쎯	-11.2269
hsh0쎯hsshhh쎯	-11.2271
nhpzpn쎯	-11.2281
,쎂쎀쎀쎆phhshs쎯	-11.2281
hsszhpz쎯·	-11.2283
hpsn0쎯szhhpzpp1쎯	-11.2284
hspnszhhhzhz쎯	-11.2285
,hszpzh쎯hszh0쎯	-11.2285
nhzp쎯pshszhhpn쎯.	-11.2287
hspnhpzn0쎯、	-11.2295
zzhnhznpz쎯szhs쎯	-11.2298
szpnnnzh쎯	-11.2299
psszs쎯zph쎯	-11.2301
:(	-11.2304
h쎯szhszh1쎯	-11.2304
、phszhhhsh쎯	-11.2304
szhs쎯szhh3쎯	-11.2305
쎂쎁쎀	-11.2311
shhhz쎯phspnzph	-11.2312
.ppzhpphs쎯shnpn쎯	-11.2314
pszhhhphpnz쎯	-11.2317
nhszhzznnnn쎯p	-11.2319
쎁쎉쎂쎅phhshs쎯	-11.2319
nnpzpnszpn쎯zzh0쎯	-11.232
hshpzn1쎯	-11.2322
—쎁	-11.2323
hshhpzznp쎯shhhz쎯	-11.2324
zz2쎯ppszhhzpn쎯	-11.233
hszhsznphs쎯	-11.2332
,zzpn0쎯	-11.2335
.shhshshpszhh쎯	-11.2338
hh0쎯hs1쎯hszh1쎯	-11.2338
szpnszpnzph쎯pz2쎯	-11.2339
,pspnpnszh0쎯	-11.2341
hsszhpz쎯pzpn2쎯hz	-11.2341
pznnnppn쎯	-11.2343
pz3쎯pshszhz쎯	-11.2347
szhshshshsh쎯	-11.2352
ssnph쎯nhhsh쎯	-11.2356
hspnhhpsznp쎯h	-11.2356
h쎯hh0쎯	-11.2356
nhphsshzn쎯(	-11.2357
hz쎯	-11.2359
zn2쎯szhhhshpn쎯	-11.2366
hhh쎯hs1쎯phhshs쎯	-11.2366
pzhhs0쎯hszsn쎯	-11.2366
nzhpzppnpn0쎯	-11.2368
hspnnhnphhs쎯	-11.2369
shhsszhhhpnszhh쎯	-11.2372
nhpzpn0쎯hppzhh쎯	-11.2373
hpshsh쎯pszsz쎯	-11.2373
hpz0쎯phshpzpp쎯	-11.2375
hszpzh쎯nphhh쎯	-11.2376
hhznzp쎯hzhs0쎯	-11.2378
zzhznnszhshn쎯	-11.2381
hsh2쎯szhhhhpn1쎯,	-11.2381
.쎁쎉쎉쎅phhshs쎯	-11.2382
ppn쎯hzshhhshzn쎯《	-11.2384
nzhshpn0쎯pnn0쎯쎁:	-11.2389
nzszhhs쎯nphhssz쎯	-11.2393
zzhznhhs1쎯	-11.2394
pznnnnzpznzz쎯	-11.2396
hzhzhhpzzs쎯	-11.2401
hssznphhshpnn쎯hs	-11.2403
115쎯pzhh1쎯	-11.2404
hhshpzhh1쎯szs1쎯	-11.2404
.쎁쎉쎉쎄phhshs쎯	-11.2405
,쎂쎀쎀쎅phhshs쎯	-11.2406
phhpnphpnps0쎯	-11.2407
》nzzhszh쎯:“	-11.2408
ppzhpsnhhhsh쎯	-11.2409
pshsshpn쎯h쎯pns쎯	-11.241
、nnzzph쎯	-11.2412
phnphnzhzsp쎯쎁쎀	-11.2413
pn2쎯phshpzpp쎯,	-11.2413
hspnnphzpnzph쎯sz	-11.2415
hszh0쎯“	-11.2422
nhpshszh쎯,	-11.2426
쎂쎀쎀pznpzn0쎯	-11.2426
phnphnzhzsp쎯h쎯n	-11.243
szsnhszhszszh0쎯	-11.2432
zzhzs쎯zzhpnzp쎯	-11.2434
shhspshz쎯nhnph	-11.2435
hzzpn0쎯hznhsh쎯	-11.2436
hszhhpn쎯hpn1쎯	-11.2436
쎀쎀쎁	-11.2437
nnzpz1쎯hzh	-11.2437
szhshnszhshn쎯	-11.2444
pzpzhhzpn쎯	-11.2446
szhsh1쎯ppsznhsh쎯	-11.2447
zpn3쎯hshzhpn1쎯	-11.2449
,zhhpzzs쎯pzn2쎯	-11.2451
znhpnppp쎯szpz0쎯	-11.2453
n쎯hsh2쎯psphshh1쎯	-11.2453
nhszs쎯hszpzh쎯	-11.2455
pznnszhhphhsh쎯	-11.2459
pnhszh	-11.2459
hz2쎯pzhh1쎯	-11.2463
hnphp쎯ssnph쎯pn2쎯	-11.2468
hszhshzs쎯,	-11.2469
szszs0쎯pshhsh0쎯	-11.247
nhpn2쎯sz	-11.2472
hpnhszhz1쎯zznz1쎯	-11.2472
,zsphpn쎯	-11.2473
、zzsnhzp쎯	-11.2473
pnzn0쎯hnphs쎯	-11.2474
,psnhhhshhspn쎯	-11.2475
pszhhp쎯hzhnhnph쎯	-11.2476
szhzzh1쎯	-11.2478
zpn3쎯,	-11.248
nnnhhz2쎯zzpn0쎯	-11.2481
nhhsh쎯hzhhz0쎯	-11.2484
szhpnh쎯zzh0쎯	-11.2485
し	-11.2485
pszhhhpnhs쎯	-11.2486
zhz1쎯hpzznp쎯	-11.2491
nphhs쎯	-11.2493
zzhpzn0쎯쎄	-11.2499
szhhhsh1쎯pnhp	-11.25
szs쎯·hphzphznp쎯	-11.25
°shhszzzpnhnnnn쎯	-11.2501
nzzhszh쎯,	-11.2505
.쎁쎉쎈쎆phhshs쎯	-11.2506
쎁쎅쎀hsszhpz쎯	-11.2507
hpshsh쎯nznhzppn쎯	-11.2511
hshhpzznp쎯,	-11.2513
szhs쎯nnpnzzzh쎯,	-11.2513
,쎂쎀쎀쎄phhshs쎯	-11.2515
.zn2쎯	-11.2515
nnnhppszhhzpn쎯、	-11.2517
、nhpsnhszhszhsh쎯	-11.252
、szpzh0쎯	-11.252
,ppshshhzn쎯	-11.2526
hpszsshzn쎯n	-11.2526
zzpn0쎯hnphs쎯.	-11.2527
zpszh0쎯zzpn0쎯	-11.2528
hhshhsshhhpn쎯	-11.2528
hsn쎯pn3쎯	-11.2529
,쎁쎉쎈쎅phhshs쎯	-11.2529
zhzhz0쎯phhsh1쎯	-11.253
phhhzphshpz쎯	-11.253
pznh쎯zhphz0쎯	-11.253
hhh쎯zhphhzn쎯	-11.2531
zzhpnhszh쎯pn2쎯	-11.2533
hzhhshhzn쎯shnpn쎯	-11.2533
hpz0쎯pznpzn0쎯	-11.2533
pznpn쎯zzhpzzn쎯	-11.2534
h쎯szshszhszhsh쎯	-11.2537
shhsn쎯hzhnhnph쎯	-11.2538
(hsshhhpn0쎯szhs쎯	-11.254
.《szhpn3쎯nzzhz쎯·	-11.254
hhh쎯szhhshnh쎯phs	-11.2542
shhhz쎯hpszsshhh쎯	-11.2545
hzzpn0쎯zzhznhsh쎯	-11.2554
zpznn쎯〔쎂쎀	-11.2554
hsszhphpn쎯zzp쎯	-11.2557
hszhspnnzzn쎯z	-11.256
hzhznpsnhhhsh쎯	-11.2564
쎁hshhpszpn쎯	-11.2568
zsz0쎯,	-11.257
.pphsnzzn쎯	-11.2572
》:	-11.2576
npzn0쎯sz	-11.2581
szhhpzhh2쎯nhszs쎯	-11.2582
zpszh0쎯npnsns쎯	-11.2582
hsshszhhsps	-11.2586
쎁쎉쎈쎂	-11.2586
nnnhznpsz0쎯,	-11.2587
shnpn쎯hszpzh쎯	-11.2592
zhhhpn쎯pnzpszpn쎯	-11.2592
hhz1쎯쎁쎉	-11.2594
、shhsszhpn쎯	-11.2595
shhspshz쎯、	-11.2596
nhpnnzzn쎯pzn2쎯	-11.2598
spnpznszh쎯nphhh쎯	-11.2599
zphznszh쎯zzhpzn	-11.2603
pz2쎯zph쎯	-11.2605
szhs쎯nnphpn1쎯	-11.2607
128쎯pn2쎯	-11.2608
쎄pnzp쎯zzh0쎯	-11.261
;p	-11.261
hhshnphhsh쎯phzn쎯	-11.261
nzszhpn쎯,	-11.2615
snpnzszhszs쎯p	-11.2615
h쎯:“	-11.2618
phhhzhpnn쎯	-11.2625
—쎁쎉	-11.2625
、phhsh1쎯	-11.2627
pnnphspn쎯nznhzp쎯	-11.2632
hs1쎯pz3쎯	-11.2637
szpnpn0쎯zhzhz0쎯	-11.2637
hspnhzn0쎯szpn1쎯	-11.2643
쎈pn2쎯	-11.2647
zp1쎯hznnpnn쎯	-11.2651
szs1쎯hspnhspn쎯	-11.2652
hshzsz쎯phspnsz쎯	-11.2654
pnzp쎯hszn0쎯hs	-11.2654
hznnzzn쎯znhzn0쎯	-11.2656
pspnhnnph쎯	-11.2657
nnnnznn쎯	-11.2659
.쎁쎉쎉쎉phhshs쎯	-11.2661
nnzpzhhpnszpz쎯	-11.2663
.nznhzppn쎯hszsn쎯	-11.2665
szsshhsszhhhh쎯:	-11.2668
zzs쎯npszhhhszzs쎯	-11.267
(nnpnzzzh쎯	-11.267
쎁쎈쎄	-11.2671
szhs쎯nphhshhpn쎯	-11.2672
hhzn1쎯zzhnhznpz쎯	-11.2674
pnzn0쎯nnzhznhsh쎯	-11.2676
nphhs0쎯zhzhzn0쎯	-11.2683
.”hhpz0쎯	-11.2685
pznszh1쎯hpznsz쎯	-11.2687
pz1쎯hs1쎯	-11.2692
hh0쎯zhpszhsh1쎯	-11.2694
zzspzszn쎯	-11.2695
hppzhh쎯쎁	-11.2697
hzshhhzn쎯zpznn쎯	-11.2699
pzhz쎯	-11.2701
zsnphpzpppnnzzn쎯	-11.2701
zhhznzs쎯npzn0쎯	-11.2705
,쎂쎀쎀쎇phhshs쎯	-11.2705
nnnphhz쎯hphshn쎯:	-11.2706
phhsh쎯	-11.2707
szhhhzn0쎯、	-11.2716
shhshshpszhh쎯《	-11.2717
phspnszh1쎯hs	-11.2717
pszhhhppzhspn1쎯	-11.2719
szhhhspn3쎯sz	-11.2723
nnnhhshszpn쎯	-11.2724
,phspnsz쎯pzhhs0쎯	-11.2725
,쎁쎉쎉쎆phhshs쎯	-11.273
,nhp쎯hzzpn0쎯	-11.2731
nnpzzhhz쎯hzzp0쎯	-11.2733
쎅쎀nphzpn쎯	-11.2736
hhspn2쎯,	-11.2737
nhpzpnzn쎯pshz1쎯,	-11.2738
nhpnnhszpn쎯,	-11.2739
pszhhzzpn쎯zzpn0쎯	-11.274
hh0쎯hs1쎯h쎯	-11.2743
,hhpsnzn쎯	-11.2743
szhs쎯pnps쎯	-11.2746
쎇pn2쎯	-11.2749
hhhpnznnpn쎯szs1쎯	-11.2754
.nhhsh쎯	-11.2757
%shnpn쎯shh쎯	-11.2758
pn2쎯;	-11.2759
nhszhspzpn쎯	-11.2759
、hzhnhpz쎯	-11.276
zphzzh0쎯.	-11.2764
pnhszh쎯h쎯	-11.2764
zzhhhzpn쎯nzpn0쎯	-11.2765
zpnpszhhh쎯、	-11.2767
nzznhhs쎯pznszh1쎯	-11.2769
nhnphp쎯hshzsz쎯:	-11.2777
,hznhsh쎯	-11.2778
쎁쎂.	-11.2779
nppnszhshn쎯	-11.2783
nhhhszh쎯nhzp쎯	-11.2784
쎃pn2쎯,	-11.2784
shhhsznnnn	-11.2785
phszpzhhhznnzzn쎯	-11.279
npszhnznn쎯nzhp쎯	-11.2794
,pzpn2쎯	-11.2796
h쎯hpn1쎯nnpnzzzh쎯	-11.2796
쎁쎁pzhh1쎯,	-11.2797
phs0쎯hshzn1쎯	-11.2802
、nnnhszhz0쎯	-11.2809
、zhhhhszzn쎯	-11.281
hsszhszhpszpn쎯	-11.2811
nhpspnppp쎯	-11.2812
szhs쎯nnpnzzzh쎯.	-11.2819
nzpnn쎯pnhhzn쎯	-11.2821
h쎯snz쎯	-11.2822
,쎁쎉쎉쎈phhshs쎯	-11.2822
pszhhpzn쎯snphpz쎯	-11.2826
,pshznhshsz쎯pn3쎯	-11.2828
hshpzhh0쎯p	-11.2829
szhszhpz1쎯	-11.283
pzzh쎯nphhh쎯	-11.2831
nhphpznp쎯	-11.2836
zzpn0쎯hnphs쎯,	-11.2836
szhhhs0쎯hpshsh쎯	-11.2837
nphzpnzphphpn쎯:쎂	-11.2837
.쎀쎀hhpz0쎯	-11.2841
nphhpnzzs쎯nhzzn쎯	-11.2844
nnnhszpzhh쎯、	-11.2846
、zzh5쎯	-11.2848
szhpszh쎯	-11.2856
phhz2쎯pphsszpn쎯	-11.2856
szpnpn0쎯hshshsh쎯	-11.2856
쎂pn2쎯,	-11.2859
pn2쎯hzp0쎯.	-11.286
》pn2쎯phshpzpp쎯	-11.2861
szhzph쎯zzspn쎯,	-11.2862
hszh1쎯hpszhh쎯	-11.2863
.쎁쎉쎉쎆phhshs쎯	-11.2863
pzzhz쎯	-11.2863
、hzhpznnnnn쎯	-11.2866
nsnszhh	-11.2866
nnzpz쎯	-11.2867
szshzshpphs쎯	-11.2867
(쎁쎉쎉	-11.2868
쎀쎀pnhhspn1쎯	-11.2874
pnzp쎯zzsnnzhhpz쎯	-11.2877
,hzhnhsz	-11.2878
hsn쎯nhzp쎯	-11.2878
zp1쎯hhz1쎯npzn0쎯	-11.2881
zhpzszh쎯phzn쎯.	-11.2886
hhpz1쎯phhz1쎯	-11.2892
hpnn쎯	-11.2895
nnnpnpz쎯	-11.2896
hpsnszh쎯szpnsz0쎯	-11.2896
hpn1쎯pznnszhhh1쎯	-11.2898
“h쎯	-11.29
phsnzzn쎯hznhsh쎯	-11.29
szszs0쎯ppshhz쎯	-11.2903
zzhhhznp0쎯.	-11.2903
pn4쎯hs1쎯	-11.2905
hppzhh쎯hshzshp쎯	-11.2905
nhszhszszhshzn쎯	-11.2906
npnsns쎯、	-11.291
pnzn0쎯hshsh0쎯	-11.2912
hshzzs0쎯psphhs1쎯	-11.2913
nnzhhsshpnszpn쎯n	-11.2915
pznnnh쎯hhpsppp0쎯	-11.2916
pz1쎯pzhh1쎯	-11.292
g	-11.292
ssnph쎯szhs쎯nznn쎯	-11.2922
h쎯h쎯	-11.2923
nn쎯ssznhsh쎯	-11.2924
phhs0쎯szhhhzn0쎯	-11.2926
nphszs쎯hpn1쎯	-11.2929
npszhnznn쎯zzspn쎯	-11.293
hhpsppp0쎯,phzn쎯	-11.2931
pznpn쎯phzn쎯、	-11.2933
hzhnphhh쎯	-11.2936
pnhszh쎯nnnznszh쎯	-11.2937
pn3쎯pszhhnzzn0쎯	-11.2938
hpnz0쎯hznpsz쎯	-11.2941
hzhnhzznnnpnhs쎯	-11.2942
(shhhz쎯nhszhzpn쎯	-11.2942
hhzn0쎯hsznnhpn쎯	-11.2945
shhshpnnhps0쎯	-11.2947
쎃.쎁	-11.2952
pz1쎯npnsns쎯	-11.2954
hhhpnszhh쎯hhpn0쎯	-11.2955
nhpnnph0쎯zp1쎯	-11.2955
;쎁	-11.2958
hhz1쎯nnnphzznnh쎯	-11.296
,zhz1쎯zzhznhsh쎯	-11.2961
szpnpnhpn쎯	-11.2961
pnhhsnph0쎯、	-11.2965
zsz0쎯.”《	-11.2967
쎁pzhh1쎯,	-11.2968
zpnpszhhh쎯nhpn2쎯	-11.2969
.pshpznsz쎯	-11.297
hzhpsnhhhsh쎯zp1쎯	-11.2976
nhpn0쎯nznn쎯	-11.2982
pznsn쎯hhshpzpn1쎯	-11.2984
쎇pzhh1쎯쎁szhh3쎯	-11.2985
hhpsnzn쎯pshz1쎯	-11.2986
hpn1쎯hshzp2쎯	-11.2987
szshpszh0쎯、	-11.2988
hsszhpz쎯)	-11.2993
hszpnn쎯szhszh1쎯	-11.2993
nnnnhhsh쎯zhzs1쎯	-11.2994
szhhhzn0쎯hzzpn0쎯	-11.2994
hszpzh쎯zpnzzn쎯	-11.2997
nnpnzzzh쎯》	-11.2997
nnzszhhs쎯nzpnn쎯	-11.2999
szsshhsszhhhh쎯.	-11.2999
hpn1쎯hszhnph쎯	-11.2999
nznnp쎯pznszhsh0쎯	-11.3
hspnhhhszphpn쎯	-11.3
zpszh0쎯nhpnpssz쎯	-11.3001
pnhhzn쎯phzn쎯.	-11.3001
(hhshszpz쎯	-11.3006
hpznhz1쎯pphszh쎯	-11.3007
nphhs0쎯phhpnszh쎯	-11.3008
hzszhh0쎯,	-11.3009
nnnhhspn0쎯	-11.3012
h쎯hpn1쎯	-11.3012
hznpsz쎯npzhh쎯	-11.3013
zzhpzhz쎯zhzphzn쎯	-11.302
zp1쎯phspnszh1쎯	-11.302
,szh	-11.3022
szszhh0쎯pnhszh쎯	-11.3026
:szhs쎯szhhshnh쎯	-11.3029
ppshhz쎯、	-11.3029
phnphnzhzsp쎯쎇	-11.303
phzhznp쎯nhszs쎯	-11.3032
zphzzh1쎯	-11.3033
쎀hhpzpn0쎯	-11.3033
nnnhsshhh쎯	-11.3034
zzsnhzp쎯nppn	-11.3036
쎅쎀phhshs쎯pshzn1쎯	-11.3038
nhpshszh쎯)	-11.3039
zhhhpsnhhhshhhz쎯	-11.3041
,nphhps쎯shnpn쎯	-11.3042
134쎯hspn0쎯	-11.3042
shh	-11.3044
hzshnhpnpn쎯zpnp쎯	-11.3049
npzn0쎯phszhhhsh쎯	-11.3049
ppsszhhhs	-11.3049
,nnnhsshszpnpn0쎯	-11.3049
nsnpnhzn쎯	-11.3052
zzshhps0쎯	-11.3055
znzn3쎯pszszh쎯	-11.3056
nphzpnhpn0쎯、	-11.3059
(쎂쎀	-11.3063
nphhs0쎯pns쎯	-11.3064
nhpshszh쎯.	-11.3065
쎁쎉쎇쎈	-11.3069
snhszhnzhz쎯shsh쎯	-11.3069
,쎂쎀쎀쎂phhshs쎯	-11.3072
phs0쎯nphzpn쎯.	-11.3073
pnpz1쎯	-11.3074
zzpn0쎯n	-11.3075
、snpnzszhpz쎯	-11.3079
nnphpn1쎯nhszs쎯	-11.308
szhhshphzszhh쎯	-11.308
szhzhhspspn쎯	-11.308
hspnszhhhspn0쎯	-11.3081
pszszh쎯hzzpn0쎯	-11.3083
szhhhszhhhsh0쎯쎁	-11.3087
shnpn쎯pshszhhpn쎯	-11.3087
pnhhzn쎯p	-11.3092
hpzp쎯phhshs쎯	-11.3095
hnzsnnpnsnppznn쎯	-11.3096
shshhz0쎯hszsn쎯	-11.3099
》zzhnzhpszhss쎯	-11.31
hhz1쎯nnnhszhz0쎯	-11.3105
nzzpn1쎯pzn1쎯	-11.3106
pshpn1쎯	-11.3109
、phhpnszhszhh쎯	-11.311
pzszhpzzp쎯	-11.311
pszhzps쎯sz	-11.3115
shhspnps쎯	-11.3116
,pspz2쎯	-11.3116
)hpzznp쎯nhnph쎯	-11.3118
nhpshszh쎯(	-11.3122
pznzp쎯szhs쎯nznn쎯	-11.3122
znzn3쎯hsh2쎯	-11.3123
hppzhh쎯hszhz1쎯	-11.3124
、shhspshz쎯	-11.3126
z쎯	-11.3127
pnzn0쎯zhpn2쎯	-11.3128
:쎁쎆	-11.3128
hhshpzphpn	-11.3133
.znhzn0쎯	-11.3134
shhhshhhh쎯	-11.3138
nnnpnzp쎯	-11.3139
쎁hszpnpn쎯	-11.3142
～쎁쎉	-11.3145
hzhnhp쎯zhzphzn쎯	-11.3147
hhshspnhszs115쎯.	-11.3149
、nnzzph쎯pnhhsh쎯	-11.3153
nhpzpn0쎯hszhz1쎯	-11.3156
、nnnhsh쎯hsszppn쎯	-11.3164
hzhszspsnhhhsh쎯	-11.3165
nhzpphpn쎯hpn1쎯	-11.3165
nzn3쎯hspnnhzppn쎯	-11.3175
,zzhpsnhhhsh0쎯sz	-11.3178
hshshpn쎯hhpsnzn쎯	-11.3186
쎂쎀쎀hpz0쎯	-11.3187
szszs0쎯zpznn쎯,	-11.3196
szhhh2쎯.	-11.3196
phhshs쎯snzszhh쎯,	-11.3197
znpzhhsnzzn쎯szh	-11.3198
,hshnhnphszh쎯	-11.3201
쎁쎉쎈쎃	-11.3202
hszn0쎯ppshhz쎯	-11.3203
spnpzszshpzpppn쎯	-11.3204
zzshhpz쎯	-11.3206
szpnnnzh쎯hpszzh쎯	-11.3206
nhpn0쎯pznsn쎯,	-11.3207
szpnppzn쎯	-11.3207
phhzhhshpzhh쎯	-11.3208
szhnhpnpn쎯	-11.3208
nhpn0쎯hshzsz쎯	-11.3218
pnpnhsshhh쎯	-11.3221
pnps쎯pshsszhhhh쎯	-11.3223
쎅쎄쎀쎀hzshhhzn쎯	-11.3224
hpn1쎯nhzp쎯	-11.3226
쎁쎀hpz0쎯	-11.3226
hspnhhpsznp쎯、	-11.3232
,pnzp쎯	-11.3233
hspnhspnnppn쎯	-11.3234
hpnn0쎯nnzpzhsh0쎯	-11.3235
pspnps쎯hzhz1쎯	-11.3236
hspnpzzn2쎯:	-11.3238
phshpznzzn쎯phhhz	-11.3239
zpznn쎯hzhzzpp쎯	-11.324
zzh0쎯nnzszhszh쎯	-11.3241
phsshhhz쎯	-11.3241
hhpz0쎯pshzn1쎯	-11.3246
szhshshhppnn쎯	-11.3248
pznszhsh0쎯.	-11.3249
hpznphsshpn쎯	-11.325
hshpszhh쎯znhzn0쎯	-11.325
szhhpzhh2쎯zz2쎯	-11.3251
nhszs쎯hshzzpp쎯,	-11.3252
pzphpzn쎯zphszh1쎯	-11.3253
、pzhshszh쎯	-11.3254
szhhpzh쎯hssz0쎯	-11.3255
hzhnhszhzpn쎯	-11.3255
pnhhzn쎯phzn쎯、	-11.3257
nphpnszssh쎯,	-11.3261
.쎁쎉쎈쎉phhshs쎯	-11.3262
szhhpszhhhhznp쎯	-11.3262
szsphspnzph	-11.3264
nhszhzz쎯phspnsz쎯	-11.3265
npzn0쎯pspzzpn쎯	-11.3267
,pszhhhp쎯	-11.3268
phzn쎯;	-11.3269
pshpszhh쎯	-11.3272
nhzpphpn쎯sz	-11.3277
nnnhshzn쎯》、《	-11.3278
nhpn2쎯szhpn3쎯	-11.3278
hzshhhzn쎯pszszh쎯	-11.3281
pnhz0쎯pphszh쎯	-11.3281
szhhszhz0쎯	-11.3281
hpnz0쎯hzzpn0쎯	-11.3283
(zzhpzn0쎯	-11.3283
()phspnszh1쎯	-11.3285
nhpsnszpz쎯npzn0쎯	-11.3286
pn2쎯szh0쎯쎄	-11.3287
pznszh1쎯hphhpnz쎯	-11.3288
,hzhhssnzzp쎯	-11.3288
hspn0쎯hsshhh쎯	-11.3291
hszpzhhpznszh1쎯	-11.3291
szhshnhshhsh쎯	-11.3293
hz2쎯szhhphhsh0쎯	-11.3294
pznhspn쎯.	-11.3294
pshhzhhszn쎯	-11.3294
szhhz2쎯hp1쎯	-11.3295
h쎯nzzhszh쎯	-11.3298
npnsns쎯,	-11.3298
nhpn0쎯nnnhshzn쎯	-11.3303
hznhsh쎯hhz1쎯	-11.3305
hpnhszhz쎯	-11.3305
nhpzhhsszh쎯szs1쎯	-11.3305
hhpn0쎯hzp0쎯	-11.3306
nphhshnphszh쎯,	-11.3306
szhpnpnhsh쎯	-11.3307
nnnhsshhszhshpn쎯	-11.3307
zzspzpshzhh쎯pn3쎯	-11.3307
szhpn3쎯nnpnzzzh쎯	-11.3309
szszs0쎯pznpn쎯	-11.3311
shhsn쎯hzhnhp쎯	-11.3311
쎁쎁쎁	-11.3312
hspnhspn쎯、	-11.3314
phspnzn0쎯nhnph쎯	-11.3315
pphsszpn쎯、	-11.3316
쎀쎀hpz0쎯	-11.3318
zhhpszhnphhhs0쎯	-11.3319
hzhhzszhh쎯hzh	-11.3319
znszpz쎯,	-11.3319
zpznn쎯snphpz쎯	-11.332
、phhhz	-11.3324
、hspnzzpp쎯	-11.3325
hpsn0쎯hhznzp쎯	-11.3325
phzn쎯쎁	-11.3325
nppn쎯nppnpzzhz쎯	-11.3326
pznnnhpspznn쎯	-11.3327
pznnhshszhnph	-11.3328
phszhhpzn쎯znn0쎯	-11.3331
pnhhspn쎯	-11.3335
npzn0쎯nphpszhhh쎯	-11.3336
ppp쎯pzhhphzn쎯	-11.3338
,pphsnzzn쎯	-11.3338
nzzn쎯nnzhzn쎯	-11.3339
hzzpn0쎯zzsszhh0쎯	-11.3341
hzhznhhs쎯.	-11.3343
szhhzsz쎯,	-11.3343
,hsshszhshpn쎯	-11.3344
nhnphp쎯phshpzpp쎯	-11.3344
쎈쎀쎀쎀	-11.3346
szhs쎯psnhhhszh쎯	-11.3347
hpznsznhpzpn쎯,	-11.335
phnphnhshhzn쎯;	-11.335
pzhzh쎯	-11.3351
,nphpszhhh쎯	-11.3357
nhpn0쎯nhpspnzp쎯	-11.3358
,hszpzh쎯hznhsh쎯	-11.336
szhpnh쎯hpszss쎯	-11.3365
hhh쎯szhhs2쎯	-11.3365
hspnh0쎯shh쎯	-11.3366
pzzhhz쎯szhhhzn2쎯	-11.3366
hnphs쎯hspnhpzn0쎯	-11.3371
nsnsnppznn쎯	-11.3371
hsshhhspn쎯pns쎯	-11.3373
zpszh0쎯hpn1쎯	-11.3375
hzhpzzn2쎯nhnphp쎯	-11.3381
쎅pn2쎯,	-11.3382
nhzp쎯hpszsshhh쎯.	-11.3383
.znhzn0쎯hhz1쎯	-11.3383
pnzn0쎯phshszh0쎯	-11.3385
,hsshz0쎯	-11.3386
pn0쎯nhnphshszh쎯	-11.3386
hszh1쎯szhhhzn2쎯,	-11.339
shh쎯nhnpnzszs쎯	-11.339
pnhhpn0쎯nsnhpsn쎯	-11.3391
、szs1쎯hzzpn0쎯	-11.3391
(pnzn0쎯hhpz0쎯	-11.3392
pzzhsshhh쎯	-11.3393
phspnszhpn1쎯쎁쎁	-11.3395
pzhh1쎯,	-11.3398
znhznp쎯《	-11.3398
nhszs쎯pn2쎯hpn1쎯	-11.3401
zphzshpszhhh쎯	-11.3404
,hhpz1쎯nzpnpz쎯	-11.3409
zzh0쎯hhshzn3쎯:쎁	-11.3411
zzhphpn쎯	-11.3414
,쎁쎉쎉쎇phhshs쎯	-11.3414
pnhhzn쎯nhpsnhsh쎯	-11.3417
hzzpn0쎯pzhshszh쎯	-11.3417
nzpzpn0쎯hspnpz2쎯	-11.3417
phshpzpp쎯hppzhh쎯	-11.3422
쎀쎀hpz0쎯hhpz0쎯	-11.3425
pnzp쎯hpzznp쎯	-11.3427
,nhpnnph0쎯	-11.3429
pphszh쎯pzhhs0쎯	-11.3436
쎂pzhh1쎯,	-11.3436
pshz1쎯nsnphhsh쎯	-11.3437
hhshshzn1쎯shhsp	-11.3437
쎀쎀nhszhsh쎯	-11.344
nphpnszssh쎯.	-11.344
nppn쎯,	-11.3444
《zzhhsh쎯	-11.3445
hpz0쎯nhnph쎯nhzp쎯	-11.3455
zpnppp쎯nnnznszh쎯	-11.3457
hhz1쎯nphhs0쎯	-11.3458
쎁쎀pzhh1쎯phhsh1쎯,	-11.3465
nhpn0쎯hszhzhhz0쎯	-11.3469
,쎁쎉쎉쎂phhshs쎯	-11.3471
szhhpzpp1쎯nsn	-11.3472
hpnnnznn쎯,	-11.3476
pzszn쎯hsshszhhs쎯	-11.3478
phhz0쎯nzhzh쎯	-11.3479
pn2쎯pszhhhp쎯	-11.3481
szhhhzn0쎯hszpzh쎯	-11.3481
szhhz1쎯:쎁	-11.3483
쎄hpszhhhsh0쎯	-11.3488
shzphzzp쎯	-11.3488
zzhpzn0쎯쎅	-11.349
쎇쎆쎀	-11.3493
zpnzzn쎯hpnz0쎯	-11.3495
zhpn2쎯hzn0쎯쎃	-11.3496
zzhhsh쎯pzzshz쎯,	-11.3501
pn2쎯phshpzpp쎯.	-11.3503
szssnppznn0쎯	-11.3505
spnpz2쎯hsznhszn쎯	-11.3505
zphpnnzpn쎯nhszs쎯	-11.3506
hpnhshpszhh쎯	-11.3506
hpszss쎯hhpz1쎯	-11.3509
쎀hpz0쎯hhpz0쎯	-11.3511
nhnph쎯nhzp쎯	-11.3511
、hhpnszpz쎯	-11.3512
hssnph쎯nzhzhs쎯	-11.3513
phspnszhh쎯phhz2쎯	-11.3513
쎁쎂pzhh1쎯pshhsh0쎯	-11.3514
pshpznsz쎯,	-11.3515
hszhshzs쎯、	-11.3515
szhshhpnhszhz쎯	-11.3516
shhshhzn쎯snzhzp쎯	-11.3516
,pnpn1쎯shshhz0쎯	-11.3516
pshszhhzphz쎯	-11.3517
か	-11.3518
hhshnzhhzpn쎯	-11.3521
hhpzpnszh쎯	-11.3525
pzpzhsh쎯,	-11.3527
hzhhsshhhpnpphs쎯	-11.3531
hsshhhznzph쎯	-11.3531
pznnnphhs쎯	-11.3533
hpnnzzn쎯hpzznp쎯	-11.3536
hsszh쎯phnphn	-11.3537
phpnps쎯hspn0쎯	-11.3538
215쎯nhpnzsszshn쎯	-11.354
hhh쎯phs0쎯	-11.3542
nhnphszhhnznn쎯.	-11.3547
pzhhzszn쎯.	-11.3547
psszhhspn쎯sz	-11.3547
nzhs	-11.3548
hhshsnpszpn쎯	-11.355
hsh0쎯hpszsshhh쎯	-11.355
ppzhpphs쎯pzhhs0쎯	-11.3557
zhhznnpnnzzn0쎯	-11.3559
pzphpzn쎯hpnn0쎯	-11.3561
phzn쎯hpn1쎯	-11.3566
hnphspn쎯.	-11.3567
szhhszhspnpzpn쎯	-11.3569
hhshszhhhsh쎯pz	-11.3569
pzhhs쎯	-11.3573
hshzsz쎯zhphhzn쎯	-11.3574
hshhzn쎯,	-11.3575
hhps2쎯hshhshhzn쎯	-11.3576
,phzznnh쎯pns쎯	-11.3577
.nhnphp쎯	-11.3577
h쎯pns쎯zpn3쎯	-11.3577
,hpzn3쎯	-11.3578
npzn0쎯phzhznp쎯	-11.3578
nnnhsnzzzhzp쎯	-11.358
hzhznszh쎯	-11.3581
hpszss쎯phhsh1쎯	-11.3581
szsz쎯	-11.3584
,hzhz1쎯zphszh1쎯	-11.3584
hpszhh쎯pnzp쎯	-11.3586
pzszhshhnphs	-11.3586
pnpznhshs쎯pshz2쎯	-11.3586
,zzhpznnn쎯	-11.3598
hzhpznnnnn쎯snz쎯	-11.3598
pn3쎯zz2쎯	-11.3601
nhphspn쎯shh쎯	-11.3605
,hh0쎯	-11.3609
쎁쎈쎀쎀	-11.3611
、쎁	-11.3612
hssnzzp쎯pznzp쎯	-11.3613
,pszsz쎯pszhhpzn쎯	-11.3618
hpshsh쎯zhhpzzs쎯	-11.362
pzpn2쎯zzpn0쎯	-11.3625
hzzp0쎯hzhpzsz	-11.3626
nnzhhsshpnszpn쎯.	-11.3627
szhh3쎯nzzhz쎯	-11.3628
ラ	-11.3632
hszhhsz0쎯	-11.3632
hsn쎯hshzn0쎯	-11.3634
pn쎯	-11.3635
hs1쎯pznpzn0쎯	-11.3637
hhpn0쎯nhhsh쎯	-11.3642
szhs쎯phhhzphhpn쎯	-11.3642
쎁쎃.	-11.3644
hpn쎯hznhshsz쎯ps	-11.3648
pshhzn1쎯nzzhz쎯	-11.3649
snz쎯pznsn쎯	-11.3649
spnznzzpszpzszh쎯	-11.3649
hppzhh쎯phspnsz쎯	-11.3651
、phhhzzhhzpn쎯	-11.3657
szshzh쎯	-11.3657
phnphnhshhzn쎯h	-11.3662
nhpzpnzn쎯hhznzp쎯	-11.3662
쎅쎀hsszhpz쎯,	-11.3664
쎁쎀pzhh1쎯쎁szhh3쎯	-11.3666
쎂쎀쎂	-11.3672
⊙	-11.3673
、、、、	-11.3673
pz0쎯、	-11.3674
,pnhzn쎯	-11.3675
,znhpnppp쎯hszh0쎯	-11.3675
pphsnzzn쎯hpszhh쎯	-11.3676
pnzpszs0쎯	-11.3676
hszsn쎯nhpshszh쎯	-11.3676
szhhzhnhnph쎯	-11.3683
zznzpn쎯	-11.3683
pznnn쎯	-11.3683
pz1쎯zhpszhsh1쎯	-11.3685
hshpz	-11.3687
pszhhhp쎯nznn쎯	-11.3689
hhpzpnnznn쎯	-11.369
pzhh1쎯hhssz쎯	-11.369
nnnhznpznnphpn쎯	-11.369
hpnz0쎯phzn쎯	-11.3693
nnnzpznn쎯	-11.3696
pphszh쎯zhzphpn0쎯	-11.3697
phhz2쎯phhzpnzp쎯	-11.3707
phspnszhphsh쎯》	-11.3711
szpnnphzhhsspn쎯	-11.3711
zz2쎯h쎯shshhzhh쎯	-11.3712
,ps	-11.3714
pz쎯zhphsszhsz쎯《	-11.3716
nnzpzhpnn쎯zpznn쎯	-11.3717
snzszhh쎯쎂쎀쎀	-11.372
な	-11.3721
nhpnpn0쎯zpnn1쎯	-11.3723
phhpszhhh쎯,	-11.3723
szhshhzpn쎯	-11.3728
pn4쎯pzhh1쎯	-11.3728
ppsshshshpn쎯	-11.3734
、zpnpszhhh쎯	-11.3736
.shhshpszh쎯	-11.3736
hspnhzn0쎯pn2쎯	-11.3742
ssnph쎯,	-11.3742
hszh0쎯pn2쎯	-11.3742
nnzhspn쎯·	-11.3743
nhszhszszh쎯zz2쎯	-11.3746
nphszs쎯phzn쎯	-11.3747
ssnph쎯phh	-11.3747
zz2쎯phzhznp쎯	-11.3747
hpnz0쎯)	-11.3751
nnpnhzn쎯shh	-11.3754
szhshnhsszhpznn쎯	-11.3756
zn2쎯szhzs1쎯	-11.3757
pzpn쎯	-11.3757
hszpnpn쎯psnhnph쎯	-11.3758
nzpn0쎯phhpnszh쎯	-11.3758
hshphz3쎯.	-11.3759
pnnphhpzn쎯	-11.3759
hzshhhzn쎯nzshh쎯	-11.3761
《hszpzh쎯	-11.3765
nnshshnhpzpn쎯sz	-11.3766
nzznnznnpnppp쎯	-11.377
//.	-11.377
pzzpn	-11.3771
《hpn1쎯	-11.3772
nhp쎯szhhz2쎯	-11.3772
zzshszhz0쎯hspn	-11.3777
)쎂	-11.3779
znnn0쎯phspnzzh0쎯	-11.3783
zzhnhpn0쎯.	-11.3785
zzhpzn쎯nhpshszh쎯	-11.3785
hszhz1쎯szh0쎯	-11.3785
ppznnhnhpz쎯sz	-11.3788
hpzp쎯szhpn3쎯.	-11.3793
、nzpzzn쎯nzhs쎯、	-11.3793
szspzpn1쎯	-11.3796
hhpzpnhshzn쎯sz	-11.3799
nnnnhpnps쎯hszh0쎯	-11.3804
pn1쎯nnzpnpnszh쎯,	-11.3805
hhs쎯zzhhhznp0쎯	-11.3805
znpzpn쎯pzzpn0쎯	-11.3806
zzshszpnz쎯	-11.3807
shh쎯nhszs쎯szhh3쎯	-11.3808
nnnhshzn쎯、	-11.381
pznsn쎯hnphspn쎯	-11.381
pn2쎯phshpznzzn쎯·	-11.381
쎃쎀쎀pznpzn0쎯	-11.3812
hhz1쎯h쎯pszhhhp쎯	-11.3813
nnnszhsnzpznn쎯:	-11.3816
npnsns쎯hpnz0쎯	-11.3817
nphpzhhsz쎯zsh0쎯	-11.3818
pn2쎯hpznhz1쎯nhz쎯	-11.3819
hszhsshszhh쎯h	-11.3822
pzn	-11.3823
nphhshszssh쎯shh쎯	-11.3827
szhhhspn1쎯.	-11.3829
szpnsz0쎯、	-11.3829
szhshnphhs1쎯	-11.383
pshz2쎯《	-11.3833
pnzn0쎯szhhpzh쎯,	-11.3834
nhpsnpphs0쎯	-11.3835
nhnph쎯zz2쎯	-11.3835
nzhzhs쎯szhzph쎯	-11.3835
─	-11.3836
hpzznp쎯pspnzp쎯	-11.3837
、nhszs쎯	-11.3838
쎁쎀쎀-	-11.3839
hspnnnzpnpnszh쎯	-11.384
pspzhzh쎯,	-11.384
pshhsh0쎯pznzp쎯,	-11.3842
쎂hshhpszpn쎯	-11.3844
pnhhps쎯hshzsz쎯쎀.	-11.3846
szh0쎯nhszs쎯	-11.3847
pssphpn	-11.3848
nzhnphs쎯npzn0쎯p	-11.3849
phhs0쎯szhsh1쎯	-11.3849
zzhpnpn1쎯	-11.3849
,ppsszhhhhzn쎯	-11.3851
nphhpnszhhh쎯	-11.3852
szhszhzzh쎯	-11.3852
hpsnnzzn쎯hpshsh쎯	-11.3853
phhhzzzhszssh쎯	-11.3854
쎁쎉쎈쎀	-11.3857
pzzshz쎯、	-11.3858
zhphz0쎯sz	-11.3859
쎇-쎁	-11.3862
szhszhshhzpn쎯	-11.3867
)쎁	-11.3868
pnps쎯zzhzpszh0쎯:	-11.3874
pznsn쎯zzhhhznp0쎯	-11.3875
pshshhsh0쎯hspn0쎯	-11.3875
zhhzpn쎯phshzzn쎯	-11.3876
zzhzhz쎯》:“	-11.3879
snzszhh쎯:쎂쎀쎀쎈	-11.388
,쎁쎉쎈쎈phhshs쎯	-11.3881
쎁쎉쎈쎁	-11.3881
hshhpsnh쎯	-11.3882
pnhhsh쎯zp1쎯	-11.3882
h쎯hszsn쎯	-11.3882
zzsszhhszshn쎯	-11.3882
、pshhzs1쎯	-11.3883
nhpzpznn쎯shsh쎯	-11.3883
h쎯zpn3쎯	-11.3885
,hsshpn쎯szhszh1쎯	-11.3887
hzhnhnphzph쎯pn3쎯	-11.389
,hspnh0쎯hszsn쎯	-11.3892
pnhhzn쎯”	-11.3894
nzhsznphspn쎯	-11.3894
,pszhh0쎯	-11.3903
szpnsz1쎯szpnsz1쎯	-11.3904
247쎯szshpszh0쎯	-11.3904
hzhsznzn쎯	-11.3906
nnzszhzh쎯,	-11.3906
nhpn2쎯psphhs1쎯,	-11.3908
pznnphhsh쎯hpnz0쎯	-11.391
h쎯hspnphpn1쎯	-11.391
nhpn0쎯pn2쎯	-11.3911
nhpnnszhshhps쎯	-11.3912
zzhhhzpn쎯nhnphp쎯	-11.3912
;hpshsh쎯	-11.3913
hpszh1쎯hspnhzp0쎯	-11.3919
zhphsshzpn쎯zz2쎯	-11.3922
.hzhnnzzph쎯	-11.3923
h쎯hsshz0쎯	-11.3925
,쎁쎉쎈쎆phhshs쎯	-11.3925
hpnznp쎯	-11.3931
phhshs쎯zzhpzzn쎯	-11.3931
nnnszs쎯nnhpn쎯	-11.3931
pn쎯zhpn2쎯hzn0쎯	-11.3934
pshszhpn쎯pn2쎯	-11.394
szhhnhszhzpn1쎯	-11.394
szhpn4쎯	-11.3941
nzhzhs쎯,	-11.3941
,쎂쎀쎀쎁phhshs쎯	-11.3944
shpzn1쎯szhsszhh쎯	-11.3948
hspnhspn쎯nhszs쎯	-11.3948
hzhpzn1쎯zhzhzn0쎯	-11.3951
snzpzpshzhh쎯	-11.3956
.szhhs0쎯	-11.3959
phnphnzhzsp쎯쎈	-11.3962
hpnz0쎯psnhnph쎯	-11.3963
,쎁쎀	-11.3965
pznsn쎯nnnhz2쎯	-11.3967
h쎯znszh0쎯	-11.3967
、pnhhsnph0쎯h	-11.3968
phhz2쎯szhhhspn1쎯	-11.397
nhpn2쎯pshspnh0쎯	-11.3971
nhpn1쎯pzhh1쎯	-11.3972
hszsn쎯、	-11.3976
nnnszpzh0쎯	-11.3977
:쎉쎇쎈쎇	-11.3978
shhhpnpzhh1쎯:쎂쎀쎀	-11.3982
zhhhzn쎯hznnpnn쎯	-11.3983
hhps0쎯nnzpzpz0쎯,	-11.3983
,쎂쎀쎀쎀phhshs쎯	-11.3984
と	-11.3985
nnpzzhhz쎯hsh0쎯	-11.3987
•	-11.3987
hspnszhhhnznn쎯,	-11.3989
zzhszhsh1쎯phzn쎯	-11.3991
nphzpnpnzp쎯,	-11.3993
szhhspn1쎯	-11.3994
szhsh2쎯szhs쎯	-11.3995
nzpz0쎯	-11.3995
phspnszhpn1쎯쎁쎅	-11.3997
,szhhhspn1쎯	-11.4
,nzhhps쎯	-11.4001
hpszs0쎯hzhnhnph쎯	-11.4001
nzpzhpzz쎯	-11.4001
zhz1쎯hpshsh쎯	-11.4002
zzh0쎯zph쎯	-11.4008
pphs쎯	-11.4008
,hszsshzph쎯	-11.4009
shhsn쎯pzzpn1쎯	-11.4012
hshsh0쎯hhpnszpz쎯	-11.4015
psphshh1쎯pzpn2쎯	-11.4018
zsz0쎯hpshsh쎯	-11.4021
pnzp쎯hspnpphs0쎯、	-11.4023
hhzn0쎯npzn0쎯	-11.4025
hzzpn0쎯zpnzzn쎯	-11.4026
szhhz2쎯nnnzsz쎯,	-11.4026
psnhnph쎯;	-11.4027
nhpn0쎯hsh1쎯	-11.4027
phshzn0쎯	-11.4028
hszh0쎯hhshhpsn쎯	-11.403
psnhhhszh쎯、	-11.4035
》szhsh2쎯	-11.4036
《nphhpnnzzn쎯	-11.4037
nhszhzzh쎯phhshs쎯	-11.4038
hssznphhs쎯szs1쎯	-11.4044
,쎁쎉쎈쎇phhshs쎯	-11.4045
hhh쎯zpnpszhhh쎯	-11.4047
hszhz1쎯nhnph쎯	-11.4048
zzhpzn0쎯쎆	-11.4048
hshhz1쎯zphzpnp쎯	-11.4049
pzzhz0쎯szhhzsh쎯	-11.4049
hhpz0쎯/	-11.4052
szhhpzhh2쎯hhpn0쎯	-11.4052
쎁쎉쎂쎄phhshs쎯	-11.4055
hzhnhnph쎯hhpn1쎯	-11.4055
쎂쎅쎀쎀	-11.4056
ク	-11.406
nnzsnnzhhnzzn쎯	-11.4061
,pshhshpz쎯	-11.4063
쎃쎀쎀nphzpn쎯	-11.4063
hpz0쎯phspnnnhs쎯	-11.4064
쎂쎅쎀hsszhpz쎯	-11.4065
hnphs쎯szhhhzn2쎯	-11.4066
hzhhszhh쎯zzh	-11.4067
nphhshpz쎯	-11.4067
zzshshshpn쎯	-11.4067
쎇nphzpn쎯	-11.4069
szhzp0쎯hppzhh쎯	-11.4071
hhshszpz쎯shh	-11.4073
hs1쎯hpz0쎯	-11.4081
phhpszhhh쎯szpz0쎯	-11.4082
247쎯snz쎯	-11.4083
shszhnnnn쎯h	-11.4084
、zpznn쎯	-11.4085
phzznnh쎯pns쎯pn2쎯	-11.4086
szs1쎯zzp쎯	-11.4087
hphsh1쎯pshhzn1쎯·	-11.4087
hspnzn쎯,	-11.4089
shzhphpszpn쎯	-11.4091
ト	-11.4092
hhzn1쎯sz	-11.4093
,쎁쎉쎉쎃phhshs쎯	-11.4097
szs1쎯hsn쎯	-11.4098
、hshsnszssh쎯、	-11.4101
235쎯nhphsshzn쎯	-11.4104
pnhszh쎯nnznnhpn쎯	-11.4104
hpsn0쎯nnzszhhh쎯	-11.4109
pnpn1쎯szhs쎯	-11.411
쎯shhsnznn쎯pshz2쎯	-11.411
znszh0쎯、	-11.4111
pnhhzn쎯、	-11.4114
pn4쎯zhpszhsh1쎯	-11.4115
nhpn0쎯hshzp2쎯	-11.4116
nnnnhpnps쎯、	-11.4117
pz0쎯,	-11.4117
szhh3쎯hs	-11.4117
p쎯.hppzhh쎯phh	-11.4118
.쎂쎀쎁쎂phhshs쎯	-11.4118
hshzn쎯hhpnszpz쎯,	-11.412
,쎇	-11.4123
hhhs쎯szpnshszh쎯	-11.4129
zsphpn쎯hznhshsz쎯	-11.4129
hznpz쎯szhshpn1쎯	-11.4133
phhpnnzzn쎯	-11.4136
hzhssphnszpz쎯	-11.4138
zzpn0쎯pphsszpn쎯	-11.414
snnhsh0쎯znszpz쎯	-11.4142
pznpn쎯phzn쎯,	-11.4144
nnphhpzn쎯hpszzh쎯	-11.4144
쎀hsszhpz쎯)	-11.4145
hh0쎯zzhpzzn쎯zzhp	-11.4145
19쎯snpnzszhszpn쎯	-11.4145
pzhh1쎯pspnzp쎯	-11.4146
nhpzpnnzzn쎯,	-11.4147
hspnh0쎯p	-11.4147
phspnnnhs쎯zznz1쎯	-11.4149
nnzzzh0쎯hsszs쎯	-11.4151
zzhpzn0쎯쎁쎀	-11.4152
hzshszhhsshhh쎯.	-11.4153
szhhnhszhzpn0쎯ph	-11.4156
nnzhzn쎯szh	-11.4159
쎂nphzpn쎯	-11.416
hhps2쎯pnnphspn쎯	-11.416
pzpn2쎯pnnphspn쎯	-11.416
hhpn0쎯pzpszhshn쎯	-11.4161
pznnhzhzpn쎯	-11.4162
.쎁쎉쎉쎁phhshs쎯	-11.4162
hnphs쎯hshszhhh1쎯	-11.4162
、pzzhz0쎯	-11.4163
hszspnsz쎯szhpn3쎯	-11.4164
쎁쎈phhshs쎯	-11.4165
szhhhsh1쎯hppzhh쎯	-11.4166
szhhh2쎯,	-11.4167
nzhhps쎯nzphsszh쎯	-11.4169
nzzhszh쎯.	-11.417
psszhszh0쎯	-11.4173
,pzphpzn쎯	-11.4173
hhpn1쎯zphzhh쎯	-11.4174
hzhpphspzpn쎯	-11.4176
ppshhz쎯pshszhpn쎯	-11.4177
pnhpzhhsznznn쎯《	-11.4183
nhhsh쎯zhpnphhps쎯	-11.4189
hhshspnhszs219쎯·	-11.4191
.snnpnnphzn쎯	-11.4193
、hsn쎯	-11.4193
shhshshpszhh쎯,	-11.4194
hhznzp쎯szhszpn3쎯	-11.4197
hshhz1쎯hsszhpz쎯	-11.42
hsshszhshpn쎯sz	-11.4207
pphszh쎯,hpshsh쎯	-11.4207
shhsphzznnh쎯	-11.4209
pzhhs0쎯shhsn쎯	-11.421
h쎯nphhpnzz쎯	-11.4211
hszh1쎯sz	-11.4212
szshphhs1쎯,	-11.4213
pspznpzn쎯	-11.4214
nnzzzh0쎯pshz1쎯	-11.4216
쎁쎄.	-11.4217
hshzsz쎯hshzhpn1쎯	-11.4221
nnzhspn쎯szhpn3쎯·	-11.4222
pnzp쎯hhps2쎯	-11.4222
.hshpsnhhhshznp쎯	-11.4223
phshphhsh쎯	-11.4224
szpzh0쎯hhpzpn0쎯	-11.4227
,hpzn2쎯	-11.4229
0쎯hzhphz0쎯hzhs0쎯	-11.4231
hspnppp쎯sz	-11.4231
hpszss쎯hppzhh쎯	-11.4232
nzphpszpn쎯zpznn쎯	-11.4233
hsh1쎯.	-11.4235
hzhs0쎯nhphspn쎯	-11.4236
szszhh쎯	-11.4241
pzszh쎯hspnzhz1쎯	-11.4244
hzhhzhhshpn쎯,	-11.4244
shshhz0쎯hshzsz쎯	-11.4247
hhpn1쎯hzhhszph쎯	-11.4249
hzhszhh	-11.4253
hpn1쎯hznhshpzn쎯	-11.4256
」pszhhpzn쎯	-11.4258
zphznszh쎯hhz1쎯	-11.426
shh쎯hsszh쎯	-11.4267
pn2쎯”	-11.4268
nzpn0쎯nzhshsh쎯.	-11.4271
hhpsszhsh쎯.	-11.4273
szhshnnpszhhhs쎯	-11.4273
hshpznnznn쎯sz	-11.4275
た	-11.4278
nhzpphpn쎯pphszh쎯	-11.4279
hzhzzzpnh쎯	-11.4279
쎁쎃쎆	-11.428
hpszhh쎯pnhszh쎯	-11.4282
hznhsh쎯pnhz0쎯.	-11.4282
nnpnzzzh쎯》、《	-11.4282
hzhhppnn쎯쎁,	-11.4283
pnnpzpp	-11.4283
hppzhh쎯p	-11.4284
),nnzzzh0쎯	-11.4287
szszhh0쎯hnphspn쎯	-11.4288
hpszh1쎯、	-11.4291
hshpzzh0쎯	-11.4292
、hszh1쎯	-11.4293
nnnpnnpzzh쎯p	-11.4293
/phspnzpnp쎯	-11.4294
npnsns쎯hhh쎯hpn1쎯	-11.4295
hpshsh쎯pznszh0쎯	-11.4296
pznszh1쎯nphszs쎯	-11.4297
nppn쎯zp1쎯	-11.4297
hh0쎯hs1쎯pn4쎯	-11.4298
hspnh0쎯znhpnppp쎯	-11.4299
nphzpn쎯phzn쎯	-11.4299
szhszhszh0쎯pzns	-11.4301
ppshshhshhhz쎯,	-11.4301
쎉pn2쎯	-11.4303
,nnzzph쎯pp	-11.4304
、pznsn쎯	-11.4304
pnzn0쎯pnzp쎯	-11.4305
nnznnhpn쎯nzpss쎯	-11.4315
zphszhpnh쎯	-11.4317
hpn1쎯pzhhnhpnzs쎯	-11.432
hzhpznzp쎯.	-11.4321
pshsszh쎯nzhs쎯	-11.4323
hspnzzh1쎯pszhh0쎯	-11.4323
zzhnnzpz쎯	-11.4326
hsshhhnppn쎯	-11.4326
nhnphp쎯ssnph쎯z	-11.4328
、nzpzpn0쎯	-11.4334
nnzhpn0쎯zz2쎯	-11.4338
szhhhshpn쎯p	-11.4341
hszh1쎯hhpzpn0쎯	-11.4342
nznn쎯pzznzpn쎯	-11.4344
zhz0쎯pshhsh0쎯	-11.4345
hpznphsh쎯	-11.4353
szhsh쎯	-11.4355
.”hspnzzh1쎯	-11.4358
zzh0쎯npzhzsp쎯	-11.4359
phszhhhsh쎯zp1쎯	-11.4362
hssnzszhszh쎯n	-11.4364
pnnpzzh쎯	-11.4367
hhznzp쎯hsh2쎯	-11.4367
쎈hpszhhhsh0쎯	-11.4373
、pszhh0쎯nphzpn	-11.4374
nnnhszhz0쎯zzpn0쎯	-11.4377
hhpz1쎯hspnpz2쎯	-11.4378
hshszpn1쎯hpnz0쎯.	-11.4379
쎄쎀phhshs쎯	-11.438
hshshnhnpnzszs쎯	-11.438
,쎂쎀쎀쎈phhshs쎯	-11.4381
zzsszhhh쎯shsh쎯	-11.4382
hzphpzznnznn쎯	-11.4383
hszh1쎯h쎯	-11.4386
》nhpn0쎯	-11.4389
shpznznnphzpn쎯	-11.439
hzzpn0쎯hshpzszn쎯	-11.4391
szs1쎯nhphsh쎯	-11.4391
phhz0쎯hzhhzszhh쎯	-11.4392
nzpnpz쎯nzhshsh쎯	-11.4393
szhshnphhs0쎯,	-11.4396
hpnn0쎯pznpzn0쎯	-11.4397
ppzh	-11.4399
.쎁쎉쎇쎉phhshs쎯	-11.4401
pnn0쎯pzzh쎯nhszs쎯	-11.4404
snnhsh0쎯h	-11.4408
pphszh쎯zsh0쎯	-11.4409
nzshh쎯pszsz쎯	-11.4413
hspn0쎯shhshpszh쎯	-11.4413
szhhnnzzph1쎯	-11.4415
zhpzszh쎯phzn쎯,	-11.4418
nzphsszh쎯,	-11.4424
,쎁쎉쎉쎅phhshs쎯	-11.4424
hszh0쎯hs	-11.4425
nhszs쎯szhs쎯	-11.4428
hspnhpzn0쎯,	-11.4431
hspnhspn	-11.4431
pns쎯pszhhh0쎯	-11.4431
nnzpz1쎯znhpnppp쎯	-11.4432
pspsnhhhshpznzh쎯	-11.4437
nnnphzznnh쎯szh0쎯	-11.4439
hspnh0쎯hhpzpn0쎯	-11.4443
쎃pzhh1쎯pshhsh0쎯	-11.4443
hpszhpzhhpzhh쎯	-11.4444
pn2쎯nnzhpzpppn쎯	-11.4445
hspnhzp0쎯、	-11.4446
nnnshzhp쎯	-11.4446
zsz0쎯ppszhhzpn쎯	-11.4446
hhpz0쎯,	-11.4447
nhpzhhsszh쎯、	-11.4448
zzhszpn1쎯hszpzh쎯	-11.4448
nhzpznnphsh쎯.	-11.445
hspnh0쎯hhpnszpz쎯	-11.4455
pshz1쎯phspnszh1쎯	-11.4455
nhnpszhsszh쎯	-11.4457
snpnzszhhsh쎯,	-11.446
pshz1쎯zhhhhszzn쎯	-11.446
、shhshhspnhhspn쎯	-11.4462
pznsznnnn쎯phshhs	-11.4464
hh0쎯pzhh1쎯	-11.4466
,nphhps쎯hppzhh쎯	-11.4466
、nnnhszpzhh쎯	-11.447
zzhnhznpz쎯h	-11.447
znszh0쎯shh쎯	-11.4473
hzshszhhsshhh쎯、	-11.4475
,pznsn쎯	-11.4475
shszhnnnn쎯、	-11.4478
ㄥ	-11.4478
hppzhh쎯nhpznzz쎯	-11.4482
.쎁쎉쎈쎀phhshs쎯	-11.4482
zzhpnhszh쎯zz2쎯	-11.4484
ppshhz쎯hzhs0쎯	-11.4484
nnzzphhspn쎯,	-11.4485
szhhpzh쎯.	-11.4488
szhhpzpp1쎯hhz1쎯	-11.4492
pzhhzszn쎯pzhhs0쎯	-11.4493
nnshshspp쎯pzzn3쎯	-11.4493
zhpnszhpn쎯zhpn2쎯	-11.4494
pn2쎯hhpzpn0쎯	-11.4495
pn2쎯zhphsszh쎯	-11.4496
nhpnnzzpp쎯	-11.4498
zzhhhshszpn쎯.	-11.4499
hpszh1쎯hpnppn0쎯	-11.45
쎈쎀pphszh쎯	-11.4501
쎀.쎀쎀nphzpn쎯	-11.4503
.-	-11.4503
zphszh1쎯hsn쎯:	-11.4508
nhpzpnszs0쎯	-11.4509
pshzhpzn쎯hspnzn쎯	-11.451
zzhhpzhhsnhzn쎯	-11.451
hhshhznpsz쎯hhsh	-11.4512
nhszhzzhzzs쎯nnnh	-11.4513
쎁pznszh1쎯	-11.4515
pszsz쎯hpsnnzzn쎯	-11.4517
,phhsh1쎯hhz1쎯	-11.4517
h쎯hzhzshz쎯	-11.4517
szs1쎯pnpnszh0쎯	-11.4518
hpn1쎯hsshszhhs쎯	-11.4519
·hshpzpnhshpzpn쎯	-11.4521
ア	-11.4523
ppshshshnznn쎯	-11.4525
nnpnzzzh쎯znn0쎯.	-11.453
,nnnhszhz0쎯	-11.4532
zzhzpszh0쎯nnp	-11.4532
szhhz2쎯zzh0쎯h	-11.4533
,hzhnhpz쎯	-11.4534
pn2쎯hzp0쎯,	-11.4539
pszhhpzzhpz쎯	-11.454
szhpzhhsnh쎯	-11.4541
、nphzpnzphphpn쎯	-11.4542
szszh1쎯,	-11.4543
szpzh0쎯pzhh1쎯	-11.4544
hspnszhhh1쎯、	-11.4547
hpszhhhpn쎯	-11.4547
hnphs쎯sz	-11.4551
,쎁쎉쎈쎂phhshs쎯	-11.4552
hszn0쎯phhz2쎯	-11.4556
zzhszhpzhh쎯	-11.4557
hpnn0쎯nnzhzn쎯	-11.4558
zpszh0쎯phspnsz쎯	-11.4558
zzhz0쎯,	-11.4561
、phhhzphhpn쎯	-11.4561
hppzhh쎯sz	-11.4564
hzp0쎯szhhhshpn쎯	-11.4564
pzzn1쎯shhspzpn0쎯	-11.4573
pzpzhsh	-11.4575
nzpzpn0쎯szhsh1쎯	-11.4576
,phhpszhhh쎯	-11.4577
szpnh0쎯	-11.4578
h쎯nznpszhpz쎯	-11.4578
zn2쎯nhpspnpzszn쎯	-11.4579
phspnpzzpn쎯:;n	-11.4579
pzszhshnnnn	-11.458
npzn0쎯nhpn0쎯	-11.4582
hpn1쎯phsshhhzpn쎯	-11.4583
hphszhnznnznp쎯.	-11.4585
pn4쎯hpn1쎯	-11.4587
hppzhh쎯hhh쎯	-11.4587
pphszh쎯snz쎯	-11.4588
hspnpzpzh쎯	-11.4589
247쎯szs1쎯	-11.4592
hpzznp쎯h쎯pns쎯	-11.4604
hhz1쎯쎁쎉쎅쎈phhshs쎯	-11.4608
pn쎯znhpnppp쎯	-11.4614
szhhnhszhzpn0쎯,	-11.4616
nzpnpz쎯hpszh	-11.4618
,phshszhnzzn쎯	-11.4619
zzspn쎯pshszh0쎯,	-11.4619
szhshpn1쎯shnpn쎯	-11.462
hshzn0쎯zz2쎯	-11.4622
쎁쎁pzhh1쎯phhsh1쎯,	-11.4622
szhhhnhzzn쎯	-11.4625
쎅nphzpn쎯,	-11.4627
,hspnzzh1쎯	-11.4629
pnhhzn쎯szhszh1쎯	-11.4632
szhhhshpn쎯h	-11.4635
nnzhhshn쎯szpn4쎯	-11.4635
hpshsh쎯h	-11.4636
nnnnzzpn쎯nnnzsz쎯	-11.4641
pspnpz쎯hzhz1쎯	-11.4642
hshzshp쎯pzzpn0쎯	-11.4642
pznpzn0쎯pzhhs0쎯	-11.4642
phhhzhsshh쎯	-11.4643
nhphsshzn쎯:쎁	-11.4644
쎂nhszhnzphhz쎯	-11.4647
,zhpszhnhnphhs	-11.4648
pz0쎯h	-11.4648
,쎁쎉쎉쎉phhshs쎯	-11.4651
《nzpnpz쎯	-11.4653
hpn1쎯pnhhsh쎯	-11.4659
szs1쎯hsszzhpzn쎯	-11.4664
リ	-11.4667
shzphzpzppp쎯	-11.4668
,hhshpzhh1쎯	-11.4669
쎁、snnpnnphzn쎯	-11.4671
,쎁쎉쎉쎄phhshs쎯	-11.4672
hspnhzp0쎯,	-11.4676
hspn0쎯pphsszpn쎯	-11.4676
szhhz2쎯hphshn쎯:	-11.468
phhspnhsshszhh쎯,	-11.4683
、pznpzn0쎯	-11.4683
、znzzhpszpn쎯	-11.4684
szhsh2쎯sz	-11.4684
shhsnhnphhs쎯	-11.4685
nnzhznhsh쎯pznsn쎯	-11.4686
pnhhps쎯hshzsz쎯쎁.	-11.4686
pszhhh0쎯hsszh쎯	-11.4688
hsszs쎯zpnpszhhh쎯	-11.469
쎂쎀쎀pnhhspn1쎯	-11.4691
zzs쎯szhhhzn0쎯	-11.4692
szhhhpnnzpn쎯	-11.4693
hhz1쎯z2쎯hszpzhh	-11.4693
pszhhpzn쎯zn2쎯h쎯	-11.4695
zzshppzhhhsh쎯	-11.47
nhszs쎯pshpzn2쎯p	-11.4703
szhsh0쎯	-11.4707
zzznzzn쎯szszhh0쎯	-11.4707
zzhpznnn쎯shsh쎯	-11.471
ppshhz쎯zz2쎯	-11.471
hhpn0쎯pszhhhhsh쎯	-11.4714
pn2쎯pn2쎯	-11.4718
hpznpsnhhhsh0쎯s	-11.4721
hshzsz쎯nhzp쎯.	-11.4724
hsshz0쎯pshzn1쎯	-11.4725
shhsnnnpznszh쎯,	-11.4725
zp1쎯、	-11.4725
pzhhhpnn쎯	-11.4726
zzpn0쎯nsnphhsh쎯	-11.4727
phhszszhpn쎯zpnp쎯	-11.4728
shhhz쎯ssphnszsh쎯	-11.4729
hszh1쎯phspnszhs쎯	-11.4731
phspnszhpn1쎯쎉	-11.4731
hshznszssh쎯	-11.4733
phhhzhspnh쎯	-11.4734
snzszhh쎯、	-11.4734
nzhsshzhspn쎯	-11.4735
hshshpn쎯shh쎯	-11.4738
psphzp쎯nhz쎯	-11.4739
《nhpn2쎯	-11.4742
nnhzhhszph쎯	-11.4743
nhpn0쎯szpn1쎯	-11.4745
hpnnnznn쎯.	-11.4747
hhzn0쎯ssnph쎯p	-11.4748
hspnh0쎯h	-11.4748
pszhhpzn쎯hzhz1쎯	-11.4749
.쎁쎉쎈쎁phhshs쎯	-11.4751
.쎁쎉쎅쎆phhshs쎯	-11.4753
nnpsnhhhsh쎯.	-11.4756
nsnhhshpzhh쎯pn2쎯	-11.4756
szhhhs0쎯phhshs쎯	-11.4761
쎅쎀쎀hpz0쎯	-11.4762
hsshhhnphhpn쎯nz	-11.4764
hshshpnpnppp쎯	-11.4765
nhpnnhshsh쎯、	-11.4765
phhpnhszhnph쎯,	-11.4766
hpszhpzzpn1쎯	-11.4767
pshpznsz쎯.	-11.4767
szhsshhszhnph쎯	-11.4767
phspnszhpn1쎯쎁쎃	-11.4768
szh0쎯szshphhs1쎯	-11.4769
nhpn0쎯psphshh1쎯	-11.4769
hzhpzzp쎯snphpz쎯	-11.477
,zzhzhhznnpn0쎯	-11.4771
hpn1쎯hszhzhhz0쎯	-11.4772
hzshznhsh쎯hsh2쎯	-11.4777
.szhs쎯hsshpn쎯	-11.4778
hhshhhshzshz쎯	-11.4781
hppzhszhssz쎯	-11.4782
128쎯hpznhz1쎯	-11.4783
phhz0쎯szhs쎯	-11.4785
쎄phhshs쎯	-11.4785
shh쎯zzhhhznp0쎯	-11.479
、szpnhzp쎯pznzp쎯	-11.479
nnnphsszh쎯nnn	-11.4793
/.	-11.4793
nnpnzzzh쎯hpzp쎯.	-11.4796
hszhzhhz0쎯phzn쎯、	-11.4799
pszhhhphzn쎯sz	-11.4811
szhshnhszhszhsh쎯	-11.4814
zpnp쎯,	-11.4816
hshpszhh쎯nhpn0쎯	-11.4817
pshz1쎯phhhz	-11.4818
shhhz쎯nhpnps쎯	-11.4819
hpn1쎯hphz0쎯	-11.4821
,pnhpszs쎯	-11.4823
hhshpzpn1쎯hhz1쎯《	-11.4825
hssnz	-11.4826
쎃hpz0쎯	-11.4829
szhhpzppsz쎯	-11.4831
hhh쎯hhpz0쎯	-11.4833
nnnznszh쎯、	-11.4833
szhhpzpnz쎯	-11.4843
zpszh0쎯pn3쎯zz2쎯	-11.4844
쎁쎉쎂쎀	-11.4845
pzzn3쎯n	-11.4847
、hhshn0쎯nphzpn쎯	-11.4847
pn2쎯szhs쎯hsshpn쎯	-11.485
h쎯pz1쎯hhh쎯	-11.485
,pnzp쎯hpszs0쎯	-11.4851
,zzspnhhspn쎯zz2쎯	-11.4852
pn2쎯hszh0쎯	-11.4855
shhhz쎯hpnz0쎯	-11.4857
pznsn쎯pzzhz0쎯	-11.486
zpn3쎯nznpszhpz쎯.	-11.4866
hszhhpnnszhszh쎯(	-11.4866
npzn0쎯hsshz0쎯	-11.4868
ppzhnhzp0쎯zzh0쎯	-11.4868
szhs쎯hssnph쎯	-11.4868
hphhpnz쎯nphszs쎯、	-11.4871
.쎁쎉쎇쎈phhshs쎯	-11.4871
nzhhshzn쎯pspnn쎯	-11.4873
pn2쎯hpsn0쎯	-11.4874
pzn쎯	-11.4875
zhpnphhps쎯,	-11.4877
nhpn2쎯psphhs1쎯.	-11.4879
쎀-쎁	-11.4879
pzpnzsnpnnpzzh쎯	-11.488
zzh0쎯zzhzpn쎯	-11.4883
szpnpn0쎯shhsn쎯:	-11.4885
쎆pn2쎯,	-11.4887
hshhpzznp쎯、	-11.4888
hpznphhspn쎯zp	-11.4889
128쎯phhz0쎯	-11.489
//쎂쎀쎀쎀//쎂쎀쎀쎃	-11.4892
nhpn0쎯nphhshhpn쎯	-11.4892
nzhshhzn쎯·	-11.4893
hshszpn1쎯hpnz0쎯	-11.4894
hh0쎯hpszhh쎯	-11.4894
hzzh쎯szhhhzp0쎯	-11.4896
nhpsnshszpn쎯	-11.4897
쎇.쎀	-11.4898
pn3쎯pshszh0쎯	-11.4899
nhpnnhshsh쎯.	-11.4902
nnnnzpzhspn쎯sz	-11.4903
szhhhs0쎯s	-11.4903
shhszpszh1쎯	-11.4906
pnzn0쎯hhshzn3쎯	-11.4911
hpszhhhps0쎯n	-11.4911
,쎈	-11.4912
ppshszhszhhhz쎯	-11.4912
nphhshpzshh쎯	-11.4913
pznszh0쎯hhshzn3쎯	-11.4916
,nhpspnzp쎯	-11.4917
pphszh쎯hsshz0쎯	-11.4918
쎃nnnzhzps쎯	-11.4918
pnzp쎯szhhpzhh2쎯	-11.492
pz0쎯hhps2쎯zpznn쎯	-11.4922
쎀쎀nhszhsh쎯.	-11.4922
pphszh쎯hshpszhh쎯	-11.4922
pnhnnph쎯	-11.4926
hzzp1쎯shshpnzs쎯	-11.4928
zhhznzs쎯hpzznp쎯	-11.4932
、hpnzpzpn쎯	-11.4933
nhpsnhsh쎯쎉쎇쎈쎇	-11.4933
hszhspnphpn쎯	-11.4937
psnhhhsh쎯	-11.4937
hshhpzznp쎯szpn1쎯	-11.4946
phspnnnhs쎯phzn쎯,	-11.4947
nppnzpnp쎯hznhsh쎯	-11.4948
쎂phhshs쎯	-11.4951
쎃hshhpszpn쎯	-11.4952
phs0쎯pnnzpn쎯	-11.4952
nppnhz쎯snphpz쎯	-11.4952
hspnh0쎯hnphspn쎯	-11.4955
hpn1쎯snnpnnphzn쎯	-11.4958
、、、	-11.4959
zpnp쎯phhshs쎯pz2쎯	-11.4959
hhpnszh쎯pznszh1쎯	-11.496
znnznn쎯pshz2쎯	-11.496
hpsn0쎯zphzzh0쎯	-11.4962
szspsnhhhsh1쎯	-11.4963
hsszzhpzn쎯、	-11.4963
,쎁쎉쎈쎃phhshs쎯	-11.4965
zz2쎯pznpzn0쎯	-11.4969
쎉-쎁	-11.4971
nnnhszhsshszhh쎯	-11.4974
nhpsnhpszh1쎯	-11.4975
szszs0쎯“	-11.4975
쎅쎀pznpzn0쎯	-11.4976
nhzp쎯phhhzhs쎯,	-11.4977
쎉pnzn0쎯szhhhsh1쎯	-11.4978
hshpphszh쎯	-11.4979
hspnshhzpnzn쎯、	-11.498
zzshzhs쎯hshzsz쎯	-11.4984
phhznppnnppn0쎯	-11.4984
zzhpzn0쎯h	-11.4986
shhspnzp쎯nphhh쎯	-11.4987
hs1쎯h쎯phhshs쎯	-11.4988
nhpsnhsh쎯:쎉쎇쎈쎇	-11.4989
szpzh0쎯pznnhszn쎯	-11.4989
nhnphszhhhsh쎯	-11.4994
pzhhs0쎯zp0쎯	-11.4994
hzhpznphhz쎯	-11.4996
nhszhzzh쎯pnnpnz	-11.4997
--쎂	-11.5003
쎃shhsszhpn쎯hzn0쎯	-11.5004
hpshsh쎯hshzsz쎯	-11.5005
nhzpphpn쎯nznn쎯	-11.5006
%pszhhpzn쎯	-11.5008
zzp쎯phzn쎯	-11.5009
.《nh	-11.5013
zhphz쎯	-11.5013
hpznsz쎯szhhshnh쎯	-11.5017
phshszhnzzn쎯,	-11.5018
nhpnnnphhhs쎯	-11.502
쎂-쎁	-11.502
、nhp쎯hszpzh쎯	-11.502
pshspnh0쎯pzzshz쎯	-11.502
hspnhspnppp쎯	-11.5022
.phhsh1쎯hhz1쎯	-11.5023
hhshszhhhsh쎯p	-11.5024
zphszh1쎯szhszh1쎯	-11.5026
pnnpzznhpn쎯	-11.5031
nphhpnzz쎯.	-11.5032
hszh0쎯nhpn0쎯	-11.5037
쎆hpszhhhsh0쎯	-11.5038
,pszhzhnzzn쎯	-11.5039
szh쎯	-11.504
szhs쎯hspnhpnz쎯	-11.5042
ppszhhzpn쎯sz	-11.5044
《nzhshhzn쎯	-11.5045
pshz1쎯pzznzpn쎯	-11.5047
pshszhshhszhshh쎯	-11.5049
hp1쎯phzn쎯	-11.5049
nnnnhpnpnhs쎯	-11.5052
hpn1쎯pnhhzn쎯p	-11.5057
szhhhhpn1쎯h	-11.5062
쎄쎀쎀nphzpn쎯	-11.5062
zhhzpnnznn쎯	-11.5062
nnnzzpp쎯nnnhs쎯	-11.507
pszhpszhnhnphhs쎯	-11.507
nnzhhsshpnszpn쎯,	-11.5075
nzzs쎯zpn3쎯hnphs쎯	-11.5076
phspnnppn쎯	-11.5077
nsnpszssh쎯	-11.5079
202쎯pshh0쎯	-11.5081
zz2쎯h쎯hzhhzhz0쎯	-11.5081
nnzhhshn쎯szs1쎯	-11.5082
zzzsz	-11.5082
hhshn0쎯nphzpn쎯、	-11.5085
hppzhh쎯pns쎯	-11.5088
hpsn0쎯zz2쎯	-11.5089
pzznnzszhzh쎯shh	-11.5091
phshhshhzn쎯ps	-11.5093
쎃pnzp쎯phhhzszhs쎯	-11.5094
nphhhsznpzpzn쎯	-11.5095
pszhhh0쎯zsh0쎯	-11.51
zpnpszhhh쎯szpn1쎯	-11.51
hspnhpsn쎯”	-11.5102
hspnnnzszhzh쎯	-11.5102
pzhshszh쎯hhssz쎯	-11.5105
pznszh0쎯zhzhps쎯	-11.5106
sz쎯	-11.5107
hszhzhhz0쎯n	-11.5107
hphz0쎯phzn쎯	-11.511
hz2쎯zhpszhsh1쎯	-11.5113
zpnzhh0쎯npzhh쎯	-11.5115
nnzzphhspn쎯.	-11.5116
pzhhnhpnps쎯	-11.5117
nzhhshzn쎯ppshhz쎯	-11.5122
szhzs1쎯“	-11.5126
znn0쎯pspnpnszh0쎯	-11.5129
쎂zpn3쎯szhhhzn2쎯	-11.5129
zshshhznpsz쎯:“	-11.5133
hhszs0쎯shshspp쎯	-11.5136
snphpz쎯phhshs쎯	-11.5139
.zphszh1쎯:	-11.514
,nnnnhhsh쎯	-11.5141
hhzn0쎯phzn쎯	-11.5142
szhsnppznn쎯	-11.5143
zzhhhpznp쎯phhz1쎯	-11.5152
zphznszh쎯pnzzsz쎯	-11.5152
nnzszhhh쎯pnhhzn쎯	-11.516
zzpn0쎯szhsh1쎯	-11.5161
zhhznnpn0쎯pshz2쎯	-11.5161
nhpzpnhspn쎯	-11.5163
shszhnphszhnnnn쎯	-11.5164
zhzs1쎯szhhs3쎯	-11.5165
nnzzzh0쎯,	-11.5165
npzn0쎯shhhzpznn쎯	-11.5165
zzhpzzn쎯p	-11.5168
zzzzh쎯zzh	-11.5168
hszhz1쎯hpshsh쎯	-11.5169
pnhznzzs쎯,	-11.517
hsshhhshsh0쎯	-11.5171
、hphhpnz쎯	-11.5172
szhszhszh0쎯szhs쎯	-11.5174
zpznn쎯ppshhz쎯.	-11.5174
nhpnnph0쎯hppzhh쎯	-11.5181
hhhpnszhh쎯hsszs쎯	-11.5184
hhps2쎯pphszh쎯	-11.5185
zhznnzhznn쎯,	-11.5188
쎂hpz0쎯	-11.5188
hhh쎯pznhspn쎯	-11.5189
nnzhpn0쎯nzpnn쎯	-11.5191
.hpsn0쎯hznnzzn쎯	-11.5193
hzshhhzn쎯pn3쎯	-11.5193
phhz0쎯hzhhshhzn쎯	-11.5193
nphhshphspnhzznp	-11.5194
nhpznzz쎯.	-11.5194
phsh	-11.5194
phhsh1쎯pshzn1쎯	-11.5201
hhh쎯psnhnph쎯	-11.5204
nhppzhzh쎯sz	-11.5212
hpn1쎯nnpnzzzh쎯,	-11.5212
pszhhhnznn쎯、	-11.5212
pshzhh쎯	-11.5213
szhshnphzhznp쎯	-11.5213
pshznszs0쎯	-11.5213
phs쎯	-11.5213
hznzhshzn쎯	-11.5214
hhh쎯)	-11.5214
pznszh1쎯pnn0쎯	-11.5227
nzszh쎯、	-11.5228
、hshsnszssh쎯	-11.5228
zzzzh쎯ppznn쎯	-11.5229
쎁hsszhpz쎯	-11.5229
쎂쎆hpz0쎯pzzshz쎯	-11.523
hhshpzhhszpz쎯	-11.5231
,szhs쎯szhpn4쎯	-11.5234
szhhphshh쎯	-11.5234
nnnzpszh0쎯	-11.5237
zzspshzn쎯hppzhh쎯	-11.524
szhzzhpzpppn쎯	-11.524
zzsszhh0쎯、	-11.5244
h쎯pzszh0쎯	-11.5245
hpznhz1쎯,	-11.5248
hzhhshhzn쎯pzn1쎯	-11.5248
zph쎯hsh1쎯	-11.5253
psnhpzpn1쎯szs1쎯	-11.5255
쎈쎀쎀nphzpn쎯	-11.5255
nphzpn쎯)	-11.5257
nzpnpz쎯,	-11.5259
,쎁쎉쎉쎀phhshs쎯	-11.5259
/zzhhhznp0쎯	-11.5259
pzzhhz쎯hpnhzn쎯	-11.526
znzhhzpn쎯sz	-11.5261
zpnn1쎯nnnhshzn쎯.	-11.5262
nhpspnpzzhz쎯	-11.5262
szhs쎯nppn쎯	-11.5263
pshzhhpn쎯	-11.5263
pnzn0쎯zzh0쎯	-11.5263
nhzznnnpnhs쎯()	-11.5265
zhpphhz쎯pzszhshh	-11.5268
-hh0쎯	-11.5268
쎆-쎁	-11.5271
”hszhhznp쎯“	-11.5274
zpn3쎯zpn3쎯	-11.5274
nnzshhsszhhhpn쎯	-11.5277
szhhhhsh0쎯nppn쎯	-11.5281
hpsn0쎯pzzzh쎯	-11.5282
,nhszhzzh쎯	-11.5282
hzhpnpnhsh쎯	-11.5289
szpz0쎯nzhshsh쎯	-11.529
hh0쎯、hhh쎯	-11.5293
szhhhs0쎯zhz1쎯	-11.5294
ppshshhshhhz쎯、	-11.5297
쎁.nzszhshpzhh쎯	-11.5297
hzshnhpnpn쎯phzn쎯	-11.5298
、pspzhzh쎯	-11.5299
nhpznnznnpnppp쎯	-11.5299
szpz0쎯.	-11.53
pnzn0쎯nzpn0쎯	-11.5302
nhnphp쎯pphszh쎯	-11.5303
phnphnhspnpnh쎯	-11.5304
hzzp0쎯zzzzh쎯	-11.5306
hshphz3쎯nzhshsh쎯	-11.5306
hsshhhpnhsh쎯)	-11.5307
pn2쎯phhpnszh쎯	-11.531
、zzhnnzhhspn1쎯	-11.5311
znpzpzn쎯	-11.5311
,hnphs쎯hshpzhh0쎯	-11.5312
hhpsszhsh쎯、	-11.5314
》:“pnhz0쎯	-11.5315
hpszhh쎯shhspshz쎯	-11.5316
phnphnhszspn쎯、	-11.5319
д	-11.5323
hpzz	-11.5323
phhshs쎯)	-11.5325
nhpzpnzn쎯pshz1쎯.	-11.5326
hhzn1쎯:	-11.533
nnzhpzpppn쎯sz	-11.533
123쎯pznnhhpn쎯	-11.5333
0쎯phhhzhzhsnzn쎯	-11.5334
,쎂쎀쎀쎉phhshs쎯	-11.5335
hpshsh쎯“	-11.5338
nzhzhs쎯pn2쎯	-11.534
쎅nhszhsh쎯,	-11.5341
znhzn0쎯p	-11.5343
hsh0쎯hspn0쎯hsh2쎯	-11.5343
npzn0쎯《	-11.5346
,zpszh0쎯shh쎯	-11.535
hszpzhhznpzpzn쎯、	-11.5354
hssznphhs쎯hpnz0쎯	-11.5354
phhsh1쎯pshz1쎯	-11.5356
pshpnnpszhhzpn쎯	-11.5357
shhsn쎯pzzhz0쎯:	-11.5358
nhszs쎯phspnzph쎯、	-11.5358
zzh0쎯szhhhsh1쎯	-11.5359
szhhpnnszhszh쎯』『	-11.5365
hznnzzn쎯쎉쎀쎀쎁	-11.5365
pzzpn1쎯nphhh쎯	-11.537
116쎯szshpszh0쎯	-11.537
npzhzsp쎯npzhzsp쎯	-11.537
snnnzz쎯szhhzsh쎯	-11.5373
,쎁pns쎯	-11.5373
hzhhzhhshpn쎯.	-11.5374
.hszsn쎯szhs쎯	-11.5374
npzn0쎯"	-11.5375
、hshphz2쎯	-11.5375
zp1쎯pzzhhz쎯	-11.5375
hsszh쎯sz	-11.5378
phnphnzzh0쎯	-11.5381
hszhnphnnzpznzz쎯	-11.5384
shhspshz쎯sz	-11.5386
pzzshz쎯pshspnh0쎯	-11.5388
hsh1쎯、	-11.5388
hhz1쎯쎁쎉쎈쎈phhshs쎯	-11.5388
ppshhz쎯hshshpn쎯	-11.5389
hsshz0쎯pn2쎯	-11.5391
szpz0쎯hznhshsz쎯	-11.5394
、nhp쎯npnsns쎯	-11.5396
hz0쎯phspnszhh쎯	-11.5396
pszhhpzn쎯pn2쎯.	-11.5399
hhznzp쎯szhs쎯	-11.54
hphzphznp쎯zp1쎯	-11.5401
shnpn쎯shh쎯,	-11.5401
pznh쎯zzsszhh0쎯	-11.5401
ん	-11.5402
ㄐ	-11.5402
snnpnnphzn쎯hhz1쎯	-11.5403
nznn쎯szhhhsh1쎯	-11.5403
hphszhznp쎯phhs0쎯	-11.5403
.pzphpzn쎯	-11.5404
hzshszhhhzhz쎯	-11.5405
hzhs쎯	-11.5407
szhhszhspnsz쎯szh	-11.541
hpz0쎯nhszhsh쎯,	-11.541
pshz2쎯pnzp쎯n	-11.541
znhzn0쎯shshhz0쎯	-11.5415
、pznszh0쎯	-11.5415
nphzpnnhnph쎯,	-11.5416
,hszh1쎯	-11.5421
nnzzph쎯zzsnhzp쎯	-11.5424
,,,,	-11.5427
nzhzhs쎯phspnzph쎯	-11.5427
znznznzn쎯	-11.5427
ppshhz쎯hshpszhh쎯	-11.5429
hhznzp쎯zz2쎯	-11.5431
ppszhhhhs쎯、nnn	-11.5431
shszhhznp쎯,	-11.5436
nhphsshzn쎯:-	-11.5437
、szhh3쎯hspnh0쎯	-11.5438
쎇pzhh1쎯hznhsh쎯	-11.5439
쎈pn2쎯,	-11.5443
zhhznnpn쎯	-11.5447
szhhnzhzhs1쎯	-11.5447
hhpn0쎯znszh0쎯	-11.5448
쎁쎉쎂쎃phhshs쎯	-11.5449
pphszh쎯pn2쎯	-11.5452
쎅hpz0쎯	-11.5453
@	-11.5454
ppspzzn1쎯.	-11.5454
,nnzzph쎯	-11.5454
nhpzpnpznzh쎯	-11.5455
szh0쎯zhpn2쎯hzn0쎯	-11.5455
szhssh0쎯hssz0쎯	-11.5456
pn2쎯zsz0쎯	-11.5456
phhhzszhszh쎯sz	-11.5456
nzzpn1쎯pzzpn0쎯	-11.5462
hspnszhpn0쎯	-11.5464
nnnhsszhhspspn쎯	-11.5464
nphhhs쎯szpnpn1쎯	-11.5469
}	-11.5471
phnphnhhznp1쎯	-11.5471
pnn0쎯》	-11.5472
nnpnzzzh쎯hhzn0쎯	-11.5474
hzn쎯	-11.5474
hhshszhhhsh쎯n	-11.5475
、nnnhzhpphs쎯	-11.5475
pznsn쎯psszpnsz0쎯	-11.5477
nzpzpn0쎯hsh2쎯	-11.5479
pphszh쎯pshzn1쎯	-11.5481
hzhppsn쎯psnhhsh쎯	-11.5483
pnpnpn0쎯pn2쎯	-11.5485
м	-11.5491
pszhhpzn쎯z	-11.5492
zn쎯hhh쎯pzzhz0쎯	-11.5495
nhp쎯hshzzpp쎯、	-11.5497
phpn	-11.5497
hhz1쎯쎂쎀쎁쎃phhshs쎯	-11.5499
pnzp쎯hsh2쎯	-11.5502
、hnphs쎯	-11.5502
.hzhzhs0쎯ssnph쎯	-11.5503
・	-11.5506
zhpn쎯	-11.5515
nhszs쎯hshzzpp쎯.	-11.5515
h쎯snzszhh쎯	-11.5515
szhs쎯pshhhpzzn쎯	-11.5516
hzhpznnnnn쎯sz	-11.5517
hpnz0쎯hpszsshhh쎯	-11.5518
hspnh0쎯nhszs쎯	-11.5521
hzhhszn쎯szhhpzh쎯	-11.5521
ppshhz쎯npzn0쎯,	-11.5524
hsszhpz쎯、	-11.5526
nhszs쎯pn2쎯	-11.5526
쎄-쎁	-11.5527
szhsshpn쎯》、《	-11.5528
shhspzszh0쎯	-11.5528
pshhzs1쎯zpznn쎯《	-11.5528
ppzhszhss쎯hnphs쎯	-11.5528
szhhhhspn0쎯	-11.5531
쎁shhsszhpn쎯hzn0쎯	-11.5533
hzzpn0쎯hpnz0쎯	-11.5534
znzn3쎯hpszsshhh쎯	-11.5535
hszn0쎯hspnnhhsh쎯	-11.5535
szhhhpnzp0쎯	-11.5536
hzhz쎯	-11.5536
hsspnhhzn쎯	-11.5536
,nnnphshpz쎯	-11.5539
pnpz쎯	-11.5541
phzp쎯	-11.5542
hpszhh	-11.5544
、hhzn0쎯ssnph쎯	-11.5547
hh0쎯:“	-11.5551
snzszhh쎯npzn0쎯	-11.5551
쎁쎀쎀쎀쎀	-11.5554
snzpshznp쎯、	-11.5556
phspnsz쎯.	-11.5557
hhz1쎯쎁쎉쎈쎅phhshs쎯	-11.5557
hpszss쎯hznnzzn쎯	-11.5559
psnhhhsh	-11.5559
、hsszhhhh0쎯	-11.5563
nhphsh쎯、	-11.5565
hzhhszn쎯nphszs쎯	-11.5567
phhshs쎯pnhhzn쎯	-11.5568
hhshspnhszs115쎯,	-11.5569
nhpn2쎯nhnpnzszs쎯	-11.5569
、znzn3쎯	-11.5569
pznszhsh0쎯;	-11.557
nhzp쎯nnnhshzn쎯:	-11.5578
nhpn0쎯szhs쎯.	-11.558
snnhpnn쎯hhpz0쎯	-11.5582
쎅nhszhsh쎯	-11.5583
shhsphspnzph쎯	-11.559
hhpn0쎯pshspnh0쎯	-11.559
phspnszhphsh쎯:	-11.5591
szh0쎯nzhsznnhpn쎯	-11.5592
,hpszss쎯hpsn0쎯	-11.5593
pshz2쎯hpnz0쎯	-11.5594
pszhhhznnnn쎯	-11.5599
hshznzs쎯hpsn0쎯	-11.56
hspnnphhhs쎯,	-11.5601
,zzsnhzp쎯shsh쎯	-11.5603
hpszhpzszn쎯zz2쎯	-11.5605
shhspzphhszs쎯n	-11.5606
pn2쎯,phhspnhhps쎯	-11.5606
,hhps2쎯zphznszh쎯	-11.5607
쎯pshspnh0쎯pshz1쎯	-11.5608
nsnphhsh쎯h	-11.561
pszszh쎯hszpzh쎯	-11.5612
hspnhpzn0쎯shh쎯	-11.5612
znn0쎯nsnphhsh쎯	-11.5618
hpnz0쎯pnzp쎯	-11.5618
,hpszsshzn쎯	-11.5619
,nphhps쎯znhzn0쎯	-11.5621
nnnnhnphszhhhsh쎯	-11.5621
“sz	-11.5624
쎁쎁.	-11.5625
szpznnnh쎯》	-11.5628
hpsn0쎯sz	-11.5628
nnnszhsh0쎯phhz2쎯	-11.5629
hs1쎯pns쎯	-11.5629
hpz0쎯hhshzznzpn쎯	-11.5629
hpn1쎯nnpnzzzh쎯(	-11.563
phzn쎯쎂	-11.563
hp1쎯,	-11.5631
hspnpzznszssh쎯	-11.5631
znhsh0쎯hshzsz쎯	-11.5635
spnhshsshhhphpn쎯	-11.5637
”phspnpzzpn쎯	-11.5638
szs1쎯nnnphzznnh쎯	-11.5638
)..	-11.5638
쎁쎇phhshs쎯	-11.5639
쎂).	-11.564
pphs0쎯,	-11.5643
hsszh쎯szhhhzn2쎯	-11.5643
pszhhpzn쎯znzn3쎯	-11.5644
0쎯nhnpszpzszh쎯	-11.5645
hshszhhpszpn쎯	-11.5647
쎁쎀쎀pnhhspn1쎯	-11.5648
hpszzh쎯nhzpphpn쎯	-11.5649
nnpnzzzh쎯hpzznp쎯	-11.5649
zphszhpznn쎯	-11.5651
nphszs쎯hsszh쎯	-11.5651
h쎯nznn쎯	-11.5652
hpszss쎯hpshsh쎯	-11.5656
szh0쎯szhhz2쎯	-11.5656
、hsshh쎯	-11.5656
쎯hhpsppp0쎯	-11.5657
pzpn2쎯hspnpz2쎯	-11.566
zzhhsh쎯hszspnnn쎯	-11.5664
pzszhh쎯	-11.5665
pspnznnznnpszhh쎯	-11.5665
nsnzhhznhzpz쎯	-11.5667
znhzn0쎯nhpnnzzn쎯	-11.567
nnnszpnsz쎯sz	-11.5672
phnphnzhzsp쎯쎉	-11.5672
szhhhzn2쎯snphpz쎯	-11.5673
nhpn2쎯hsshszhhs쎯	-11.5674
szpn1쎯nhpzpn1쎯	-11.5674
zzshhspn쎯h	-11.5676
szshnphpn쎯pnpn	-11.5677
hspnzn쎯.	-11.5679
snzszhh쎯(	-11.568
nhnphzph쎯	-11.5683
nphzpnzph0쎯	-11.5683
szhsnzpznn쎯sz	-11.5683
szhh3쎯nhpn2쎯	-11.5684
hpszhpzpn0쎯	-11.5684
nzhshhzn쎯》	-11.5687
,phhz2쎯	-11.5687
zzhnhznpz쎯szpn1쎯	-11.5691
(pnzn0쎯hhpz0쎯쎁	-11.5693
hpshsh쎯nnn	-11.5695
γ	-11.5699
쎁.hzhhzszhh쎯	-11.57
zhpn2쎯hzn0쎯/	-11.5704
zzhpzn0쎯쎃쎀	-11.5706
쎅쎀hpz0쎯	-11.5706
hh0쎯zhphhzn쎯	-11.5708
zpnzhh0쎯hhpn0쎯	-11.571
pspzszn쎯shshhz0쎯	-11.5712
hspnnnzpzphshh쎯	-11.5715
zphhhspn0쎯zphh	-11.5717
ssnph쎯pznzp쎯,	-11.5717
hsshszhhhsh쎯	-11.5721
psnhnph쎯npzn0쎯	-11.5721
nnzszhzh쎯hszhpn쎯	-11.5726
zhphsshzpn쎯、	-11.5726
hzhphz0쎯sz	-11.5726
.”쎂.hzhhzszhh쎯	-11.5728
쎁쎅.	-11.5733
,쎂쎀쎁쎀phhshs쎯	-11.5734
nnzhshpn0쎯nhszs쎯	-11.5734
쎀쎀쎀nphzpn쎯	-11.5734
pnzp쎯hspnpphs0쎯,	-11.5736
,쎁쎉쎈쎉phhshs쎯	-11.5737
쎈쎀쎂.쎁	-11.574
쎆phhshs쎯	-11.5741
szhzph쎯)h	-11.5743
nznphhhs쎯zhpnnn쎯	-11.5745
hzshszhhsshhh쎯:	-11.5746
쎃쎀쎀hsszhpz쎯	-11.5752
snz쎯szh0쎯	-11.5754
nnzphshszh0쎯.	-11.5755
szhhhsh1쎯.	-11.5755
szhhhzn0쎯(	-11.5756
nnnn쎯	-11.5758
nnpzzhhz쎯zzpn0쎯	-11.5759
쎀shhsszhpn쎯hzn0쎯	-11.5762
phspnszhh쎯,	-11.5765
(hshsh0쎯	-11.5765
shhspnnphspn쎯,	-11.5766
h쎯hspnzhhzpn쎯	-11.5769
hpnz0쎯hsh	-11.577
shhshszpn쎯pznzp쎯	-11.577
hhh쎯hs1쎯nhpn1쎯	-11.5771
zzhpzn0쎯쎈	-11.5771
[...]
