[UNK]	0
[PAD]	0
[CLS]	0
[SEP]	0
[MASK]	0
,	-3.60001
r쎯	-3.99221
.	-4.05535
zzbd3쎯	-4.07712
t쎯	-5.01247
d쎯	-5.4403
o쎯	-5.56032
j쎯	-5.65023
k쎯	-5.76036
gn쎯	-5.76094
(	-5.80237
:	-5.82946
e쎯	-5.9327
tffu쎯	-5.93431
;	-5.9708
)	-6.05594
w쎯	-6.07499
《	-6.10879
dd쎯	-6.15478
ey쎯	-6.19089
h쎯	-6.21899
“	-6.24018
c쎯	-6.25406
b쎯	-6.34943
pp쎯	-6.39676
”	-6.43344
g쎯	-6.46361
gf쎯	-6.5508
i쎯	-6.57315
ak쎯	-6.67586
cf쎯	-6.68154
rg쎯	-6.69454
egc쎯	-6.69584
ii쎯	-6.71712
k쎯l쎯	-6.75435
f쎯	-6.77135
wc쎯ngk쎯	-6.7717
쎂	-6.77214
ymhj0쎯	-6.77367
mmm쎯	-6.79056
ym쎯	-6.7924
ih쎯	-6.798
》	-6.80231
dg쎯	-6.80902
zzbd10쎯	-6.81542
쎁	-6.84386
dmj1쎯	-6.84517
bb쎯	-6.84746
쎃	-6.86692
jf쎯	-6.86697
gc쎯	-6.87495
usr쎯	-6.88103
aq쎯	-6.88777
et쎯	-6.89051
ntg쎯	-6.93104
gh쎯	-6.95074
puhc쎯	-6.96386
uqf쎯	-6.97353
ta쎯	-6.97458
gcf쎯	-7.00015
pe쎯	-7.00083
rn쎯	-7.00138
qq쎯	-7.00838
whf0쎯og쎯	-7.03457
mw쎯	-7.03712
mh쎯	-7.04616
a쎯wt쎯	-7.06408
gd쎯	-7.06506
adw쎯	-7.09369
-	-7.09937
e쎯bv쎯wc쎯ngk쎯	-7.10323
bm쎯	-7.10935
sk쎯	-7.11482
qfhw1쎯	-7.12
fq쎯	-7.14434
dn쎯	-7.14477
ww쎯	-7.14656
쎄	-7.14883
tg쎯	-7.15772
qk쎯	-7.16918
qqqq1쎯	-7.18111
wf쎯	-7.18278
fny0쎯og쎯	-7.19533
쎅	-7.20312
ftbt쎯yce쎯	-7.20665
u쎯kkk쎯	-7.20865
ggg0쎯	-7.20988
sf쎯	-7.21559
rfc쎯sy쎯	-7.21797
/	-7.22473
go쎯	-7.23717
fm쎯	-7.23737
yygy쎯	-7.23891
uk쎯	-7.24742
sghg1쎯	-7.25182
ua쎯	-7.25541
if쎯	-7.26774
wug0쎯gf쎯	-7.2778
ip쎯	-7.28038
kht쎯	-7.28187
fd쎯	-7.28627
bn쎯	-7.2863
sg쎯	-7.2868
ue쎯	-7.28834
itx쎯	-7.30375
txi쎯xyc쎯	-7.30499
l쎯	-7.31024
dga쎯pwv쎯	-7.31329
ai쎯	-7.31546
ftj쎯	-7.3185
fg쎯	-7.32238
fj쎯tf쎯	-7.3284
tp쎯gj쎯	-7.34804
,j쎯	-7.35582
wx쎯	-7.35605
dd쎯ip쎯	-7.35761
eb쎯tl쎯	-7.36061
xte쎯	-7.36498
dgtg0쎯	-7.36738
awx쎯	-7.37103
wtf쎯	-7.37691
》zzbd3쎯《	-7.37938
()	-7.39136
tfl쎯	-7.40113
ftjb쎯	-7.41239
wv쎯	-7.41435
ip쎯suq쎯	-7.41533
ny쎯	-7.41953
쎆	-7.41979
g쎯wh쎯	-7.41987
a쎯tkgg1쎯	-7.42547
thd쎯	-7.42577
wsg0쎯	-7.42911
dx쎯	-7.43
jjjj0쎯	-7.43527
wb쎯	-7.43528
l쎯bf쎯	-7.4368
,d쎯	-7.43766
jfd쎯	-7.4411
tu쎯	-7.44736
lh쎯	-7.44822
쎈	-7.44851
aa쎯	-7.4616
v쎯nae0쎯	-7.46471
udi0쎯	-7.46647
x쎯	-7.46717
uthp0쎯	-7.46906
gg쎯	-7.46958
sm쎯	-7.4703
l쎯pe쎯	-7.47256
tf쎯	-7.48026
fp쎯	-7.48144
cn쎯	-7.49192
ce쎯	-7.49505
"	-7.49771
rrr쎯	-7.49836
gu쎯	-7.5074
yygy쎯wx쎯	-7.51034
gajf0쎯	-7.52226
ymc쎯yf쎯	-7.52292
vfhp1쎯ymc쎯	-7.53511
je쎯	-7.54066
쎇	-7.54902
wxf쎯	-7.56193
qh쎯	-7.56532
udh쎯	-7.57395
쎁쎀	-7.57409
iq쎯	-7.57703
rh쎯	-7.57837
pl쎯	-7.58021
isk쎯	-7.58333
.”	-7.5843
pv쎯	-7.58588
uyh쎯	-7.59408
dm쎯	-7.59997
ss쎯	-7.60284
c쎯ey쎯	-7.60304
k쎯ny쎯	-7.60979
hw쎯e쎯	-7.61246
ty쎯	-7.61274
mq쎯	-7.62449
amw쎯	-7.62614
kkkk1쎯	-7.62828
s쎯	-7.62988
dp쎯	-7.63628
,ua쎯	-7.6382
xa쎯	-7.6383
adm쎯hhhh쎯	-7.64122
xt쎯	-7.64231
ux쎯	-7.64318
tk쎯	-7.64528
ige쎯	-7.65118
tm쎯	-7.65143
ux쎯yiu0쎯	-7.6575
xeg0쎯xkw쎯	-7.65889
ck쎯	-7.66167
fqb0쎯	-7.66632
v쎯	-7.66647
trf0쎯	-7.67152
cep쎯	-7.67161
gmww쎯	-7.67238
txi쎯	-7.67364
ip쎯bpf쎯	-7.67681
ga쎯	-7.6844
ymhj0쎯fnrt쎯	-7.68517
쎉	-7.68518
vfhp1쎯tam쎯	-7.68683
ghd1쎯	-7.68747
mqq쎯	-7.69159
ytyh쎯	-7.69233
xg쎯	-7.69361
tg쎯u쎯	-7.69819
ugdu쎯	-7.69886
dgh쎯	-7.70091
wg쎯l쎯	-7.70115
),	-7.70498
,c쎯	-7.70565
m쎯	-7.70986
vk쎯	-7.71239
k	-7.71281
rj쎯waw쎯	-7.7181
dr쎯	-7.72143
x쎯iyj쎯	-7.73044
wg쎯	-7.73417
nnh쎯	-7.74241
ujfj0쎯wug0쎯	-7.74318
ia쎯	-7.74566
yi쎯	-7.74911
ya쎯	-7.7493
hko쎯	-7.74966
rt쎯	-7.74994
a	-7.75256
f쎯aq쎯	-7.75425
wys쎯	-7.7686
lt쎯	-7.76881
th쎯	-7.76898
tgj쎯	-7.77094
jb쎯	-7.77274
tj쎯	-7.77376
mqq쎯xtk쎯	-7.77468
i	-7.77692
dq쎯	-7.78019
w쎯,	-7.78157
wgkq0쎯et쎯	-7.78295
kf쎯	-7.7838
od쎯	-7.78387
fhn쎯	-7.79026
vb쎯	-7.79202
jgm쎯	-7.79845
y쎯s쎯	-7.79959
”.	-7.79973
gkp쎯	-7.80017
yy쎯	-7.80474
wt쎯	-7.80561
dnv0쎯	-7.81229
ymc쎯tlf0쎯	-7.81308
lk쎯	-7.81407
h쎯itx쎯	-7.81757
t	-7.81774
wc쎯	-7.81779
sh쎯	-7.81849
rnb쎯	-7.81967
img쎯	-7.82472
cep쎯fp쎯	-7.82532
pyj쎯	-7.8273
rcn0쎯	-7.82809
ntk쎯	-7.82941
cc쎯	-7.83375
nnnn0쎯	-7.83653
fcu1쎯	-7.83721
ith쎯	-7.83731
rvyo쎯	-7.8416
kkd쎯	-7.84582
an쎯lwj쎯	-7.84769
fd쎯ymhj0쎯	-7.85028
lg쎯	-7.85415
a쎯	-7.8556
xe쎯	-7.85572
sb쎯	-7.85758
y쎯	-7.86041
q쎯	-7.86077
adwr0쎯	-7.86869
ovt쎯	-7.86871
sk쎯c쎯	-7.87056
tkh쎯	-7.87088
tu쎯rfc쎯	-7.87215
nnk쎯	-7.87591
ccc쎯	-7.88682
rmhj쎯	-7.88742
fcu0쎯	-7.88776
hhu0쎯	-7.88906
aqt쎯	-7.89261
ugdu쎯l쎯	-7.89365
ftx쎯	-7.89652
tjh쎯	-7.90192
쎁쎂	-7.90545
vvv쎯	-7.90968
yynw1쎯	-7.91143
xx쎯	-7.91522
ltu0쎯	-7.91839
wy쎯thn쎯	-7.92154
thg1쎯	-7.9256
tp쎯	-7.92625
oy쎯	-7.92876
anb0쎯sy쎯	-7.92914
ggi쎯fuj쎯	-7.93042
pb쎯	-7.93301
wys쎯lft쎯	-7.93738
uy쎯	-7.93814
iyc쎯	-7.93972
ftbt쎯ip쎯	-7.94411
lq쎯	-7.94617
qc쎯	-7.95243
rmc쎯uqwm1쎯	-7.96057
tx쎯g쎯	-7.96263
!	-7.96267
.d쎯	-7.96603
ld쎯	-7.96705
ip쎯nu쎯	-7.9689
rxj쎯	-7.96921
vfhp1쎯	-7.97667
s	-7.97804
q	-7.98174
ssss0쎯	-7.984
ep쎯	-7.9848
an쎯	-7.99083
ip쎯tg쎯	-7.99728
sfi쎯uwy0쎯	-7.99769
fggh쎯	-7.99981
ukn쎯	-8.00031
hc쎯	-8.0004
wgkq0쎯	-8.00041
yu쎯	-8.00516
tjf0쎯	-8.00833
qgf쎯	-8.01164
ujfj0쎯	-8.01261
ba쎯	-8.01408
mfk쎯	-8.01413
jg쎯	-8.01461
wug0쎯	-8.01814
bj쎯	-8.01942
uj쎯	-8.02073
,o쎯	-8.0219
kgn쎯	-8.0245
》:“	-8.02578
gk쎯	-8.02993
gip쎯	-8.032
w	-8.03432
ugm쎯	-8.03576
rpw쎯rmhj쎯	-8.03821
hx쎯	-8.03981
reh쎯e쎯	-8.04563
uu쎯	-8.04897
gef쎯	-8.05118
dn쎯o쎯	-8.05258
lll쎯	-8.0548
std쎯	-8.05535
wt쎯o쎯	-8.05589
ru쎯	-8.05625
qi쎯	-8.05925
j	-8.06024
wgk쎯	-8.06111
w쎯.	-8.06133
쎂쎀	-8.06144
tg쎯itd쎯	-8.06197
xxf쎯og쎯gf쎯	-8.06201
rp쎯	-8.06536
kkk쎯thgf1쎯	-8.06887
tk쎯tkh쎯	-8.06943
fc쎯rf쎯	-8.07063
itd쎯fcl쎯	-8.07063
jjjj0쎯sg쎯	-8.07259
ytey0쎯iytb0쎯	-8.07471
r	-8.07536
zzbd9쎯zzbd9쎯	-8.07725
al쎯ce쎯	-8.0778
wfny0쎯	-8.07932
uh쎯	-8.07958
qiu0쎯	-8.08152
iv쎯	-8.08178
ad쎯	-8.08657
aw쎯	-8.08821
wq쎯	-8.09134
ga쎯vck쎯	-8.0949
fj쎯	-8.09571
py쎯wf쎯	-8.09577
y	-8.09966
tf쎯og쎯	-8.10056
pn쎯	-8.10142
ftbt쎯	-8.10355
adwe1쎯	-8.10422
yff쎯	-8.10699
ftbt쎯jgm쎯	-8.11269
vt쎯	-8.1132
gog쎯	-8.11351
ul쎯	-8.11702
n쎯	-8.11811
fnrt쎯	-8.11828
bs쎯	-8.11963
tmd쎯	-8.1225
gah쎯	-8.12707
gl쎯	-8.12801
vcb쎯	-8.12822
pgy쎯	-8.12888
a쎯og쎯	-8.13213
udbb쎯	-8.13324
lkd쎯	-8.13371
tr쎯	-8.13422
ab쎯	-8.13449
es쎯et쎯	-8.1375
ga쎯v쎯	-8.13779
gjq쎯	-8.13804
ic쎯	-8.14105
iytb0쎯ca쎯	-8.14229
wty0쎯	-8.1447
lft쎯	-8.14521
cd쎯lk쎯	-8.15205
mj쎯	-8.15221
tffu쎯.	-8.15298
ipw쎯	-8.15633
쎁쎅	-8.15722
atd쎯bpf쎯	-8.15757
txi쎯gq쎯	-8.15999
dgt1쎯	-8.16113
jn쎯	-8.16244
k쎯r쎯	-8.16337
rs쎯	-8.16368
nfc쎯	-8.16549
gy쎯	-8.16663
um쎯	-8.17085
yj쎯	-8.17094
g	-8.17159
wdt쎯	-8.17207
xq쎯	-8.17576
ag쎯	-8.17612
ide쎯	-8.17631
lpk0쎯	-8.17641
xk쎯	-8.17676
isgg2쎯yhk쎯	-8.17687
xeg0쎯	-8.17696
djd쎯	-8.17817
lqw쎯wrh1쎯	-8.17848
lfo쎯	-8.17895
f	-8.18162
p쎯	-8.18209
xf쎯sq쎯	-8.18475
pg쎯	-8.18648
”zzbd3쎯“	-8.18854
aqt쎯tj쎯	-8.19556
kq쎯	-8.19663
wy쎯	-8.19745
ygk쎯	-8.19794
jtg쎯	-8.19825
sft쎯ou쎯	-8.19875
ts쎯	-8.19911
puv쎯	-8.20136
mqb쎯	-8.20223
ght쎯ywf쎯	-8.20233
ww쎯gk쎯	-8.2029
”r쎯	-8.20514
yx쎯	-8.20642
dmh0쎯	-8.20653
fawk0쎯	-8.20717
wt쎯kkk쎯	-8.21054
iit쎯	-8.21524
bw쎯	-8.21622
ajj0쎯	-8.21635
쎃쎀	-8.21708
fnr0쎯	-8.21778
n	-8.21838
쎁쎈	-8.21995
jf쎯uj쎯	-8.223
ooo쎯	-8.22471
dw쎯	-8.2265
og쎯	-8.22782
tfn쎯	-8.22983
sov쎯	-8.23043
suq쎯	-8.23067
yid쎯et쎯	-8.23071
wyv쎯	-8.23195
wa쎯	-8.23592
rfm쎯jg쎯	-8.23799
pv쎯wg쎯	-8.24047
”,	-8.24083
ujf0쎯qi쎯	-8.24108
uqwm1쎯idr쎯	-8.24148
wdn쎯te쎯	-8.24218
).	-8.24609
gae쎯	-8.24658
jn쎯bb쎯	-8.2472
py쎯aq쎯	-8.24818
yygt쎯	-8.24876
lfq쎯	-8.25575
uqw쎯	-8.25955
yi쎯j쎯	-8.26068
,wjg쎯	-8.2609
uf쎯	-8.26105
m	-8.26108
yid쎯	-8.2613
쎁쎁	-8.26197
idr쎯	-8.26551
px쎯	-8.26693
fn쎯	-8.26747
uff쎯	-8.27091
vbn쎯	-8.27194
ffff1쎯	-8.27356
lp쎯	-8.27701
uth쎯	-8.27753
bpf쎯	-8.27778
yne쎯	-8.27897
yny0쎯	-8.28269
d	-8.28452
ipkh1쎯	-8.28513
dj쎯	-8.28532
nge쎯	-8.28659
thd쎯nng쎯	-8.28763
scf쎯	-8.28879
쎁쎉	-8.29133
k쎯ip쎯	-8.29246
tu쎯ip쎯	-8.29287
src쎯	-8.29327
ma쎯	-8.29596
ymf쎯	-8.29647
epc쎯	-8.29653
tel쎯	-8.29723
thd쎯qd쎯	-8.29825
,adw쎯	-8.29892
qe쎯	-8.29936
qa쎯	-8.29963
eee0쎯	-8.3009
og쎯tl쎯	-8.301
cnh쎯	-8.30176
tq쎯	-8.30335
uk쎯wv쎯	-8.30435
rfm쎯	-8.30794
ick쎯ubk1쎯	-8.31
ujj쎯	-8.31131
tv쎯km쎯wf쎯	-8.31233
hw쎯	-8.31418
ax쎯	-8.31457
uqd2쎯	-8.31731
gm쎯wa쎯	-8.31798
rmhj쎯tfkp0쎯	-8.31802
thgc0쎯	-8.31811
q쎯wu쎯	-8.3189
qr쎯	-8.31911
pgc쎯	-8.31942
gj쎯ywx쎯	-8.31964
xw쎯	-8.31994
udy쎯	-8.32152
쎁쎆	-8.32551
lk쎯ty쎯	-8.326
fqu쎯	-8.32643
ae쎯	-8.32731
mww쎯	-8.32965
yt쎯	-8.32979
aws쎯	-8.3311
qynm1쎯	-8.33694
fqp쎯	-8.33809
쎅쎀	-8.34342
fl쎯wf쎯	-8.34396
ihc쎯	-8.34543
tffh1쎯	-8.34687
qn쎯rtd쎯	-8.34769
fny0쎯pe쎯	-8.35245
js쎯	-8.35261
rhf0쎯	-8.35432
x쎯apk쎯	-8.35547
yq쎯	-8.35613
tmg1쎯	-8.35665
jf쎯,	-8.35755
gyt쎯	-8.3577
u	-8.35812
isgg2쎯	-8.36004
lfn쎯	-8.36382
qn쎯	-8.36405
wv쎯sr쎯	-8.36447
dl쎯kq쎯	-8.36592
yqa쎯	-8.36624
kkk쎯	-8.36709
sve쎯	-8.3685
rg쎯,	-8.3697
rgw쎯	-8.37039
nd쎯	-8.37076
yyy쎯	-8.37408
fhv쎯	-8.37603
fh쎯	-8.37797
gmf쎯	-8.38393
ire쎯	-8.38529
kthh1쎯	-8.38644
wh쎯	-8.38902
bc쎯	-8.39306
wk쎯ryn1쎯	-8.39393
pfi쎯	-8.3969
dd쎯gajf0쎯	-8.40123
wk쎯	-8.40788
yy쎯if쎯	-8.41078
l쎯mw쎯	-8.41087
yvh쎯	-8.41096
iw쎯	-8.4119
ujn쎯	-8.41284
쎄쎀	-8.41483
tld1쎯	-8.41627
bu쎯	-8.41703
rb쎯	-8.4186
xxg0쎯	-8.4221
u쎯	-8.42309
tjt쎯	-8.42345
ps쎯	-8.42497
wgk쎯wt쎯	-8.42629
oge쎯	-8.4267
fhw쎯	-8.427
ick쎯	-8.42741
tjf0쎯iawn0쎯	-8.42791
i쎯m쎯	-8.42806
st쎯	-8.42816
jy쎯	-8.42875
ll쎯	-8.42975
yh쎯	-8.43033
,e쎯	-8.43201
pei쎯og쎯	-8.43223
ff쎯	-8.43329
kgd쎯	-8.4336
rc쎯	-8.4339
fge쎯	-8.43573
ow쎯	-8.43823
yo쎯	-8.43941
ywx쎯	-8.44187
hv쎯	-8.44329
gkl쎯	-8.44599
irn쎯lg쎯	-8.44635
fhl쎯	-8.44638
xp쎯wgk쎯	-8.44929
sn쎯	-8.44973
im쎯e쎯	-8.45023
hka쎯	-8.45191
nui쎯	-8.45234
fcp쎯fcl쎯	-8.45342
wqa쎯	-8.45357
ipk쎯	-8.45572
zzbd15쎯	-8.45668
amd쎯	-8.45676
pw쎯	-8.4571
th쎯gj쎯	-8.45844
qm쎯gmu1쎯	-8.45926
mqq쎯uh쎯	-8.4599
swc쎯	-8.46314
fwm쎯aj쎯	-8.46379
et쎯yne쎯	-8.46385
tx쎯fg쎯	-8.46857
,dmj1쎯	-8.46986
e	-8.47016
sm쎯sq쎯	-8.4713
wdm쎯	-8.47156
mmm쎯ai쎯	-8.47168
sm쎯sa쎯	-8.473
rmhj쎯wt쎯	-8.47421
rj쎯ym쎯	-8.47712
g쎯tkh쎯	-8.47943
bm쎯thgc0쎯	-8.47947
khu쎯	-8.48279
fghg쎯	-8.48281
xl쎯	-8.48405
rhk0쎯	-8.48491
ft쎯	-8.48494
tfqp쎯	-8.48578
tgj쎯hko쎯	-8.48584
zzsx1쎯	-8.4868
ipkf0쎯	-8.48744
pyg쎯	-8.48829
k쎯md쎯	-8.48836
gfi쎯	-8.48895
tfq쎯	-8.49146
ud쎯	-8.49358
w쎯km쎯	-8.49398
adw쎯wb쎯	-8.49543
lu쎯	-8.49604
fcl쎯	-8.4987
ujf0쎯	-8.49977
vfb쎯	-8.50279
km쎯	-8.50354
lwj쎯	-8.50517
pfq쎯dn쎯	-8.50629
me쎯	-8.50829
ukd1쎯jghm1쎯	-8.50854
wfny0쎯xyc쎯	-8.50949
쎂쎅	-8.5117
tfq쎯fj쎯	-8.51226
ge쎯	-8.51254
pp쎯g쎯.	-8.5146
se쎯	-8.51571
sfhg쎯tr쎯	-8.51629
lkmi0쎯	-8.51694
ttg0쎯	-8.51808
uq쎯	-8.5194
lk쎯a쎯	-8.52009
adw쎯k쎯	-8.52127
gm쎯	-8.52211
cff0쎯	-8.52237
uvo쎯	-8.52313
쎁쎇	-8.52538
alw쎯	-8.52612
kw쎯	-8.52678
ijl쎯	-8.52703
dy쎯	-8.52736
wycm1쎯fakg0쎯	-8.52815
wfhg0쎯	-8.52834
pei쎯	-8.53065
fje쎯	-8.53148
+	-8.5323
vtk쎯	-8.53425
yf쎯tha쎯sm쎯	-8.53522
inr쎯	-8.53597
jn쎯jyie쎯	-8.53613
iex쎯	-8.53635
ih쎯ip쎯	-8.53658
mw쎯pww쎯	-8.54022
rpv쎯	-8.54031
wht쎯	-8.54033
mdf0쎯	-8.54147
nh쎯	-8.54235
nx쎯	-8.54687
xmw쎯	-8.54709
sve쎯rnd1쎯	-8.54803
lw쎯	-8.54918
pu쎯	-8.55156
stx쎯	-8.55263
yygy쎯ip쎯	-8.55316
zzbd9쎯	-8.55409
yhk쎯	-8.55476
fdm쎯s쎯	-8.55526
yf쎯aj쎯	-8.55562
yww쎯	-8.55671
qev쎯	-8.55872
e쎯ud쎯	-8.5589
w쎯kkkk1쎯	-8.55903
?	-8.5599
dfy쎯	-8.5602
dskf쎯	-8.56153
td쎯	-8.56309
fuk쎯yk쎯	-8.56507
ce쎯lt쎯	-8.56723
ip쎯wf쎯	-8.56805
ruv쎯kkkk1쎯	-8.56921
tve쎯	-8.57004
ym쎯xe쎯	-8.57079
qie쎯wyk쎯	-8.57248
tjh쎯et쎯	-8.57425
jqr쎯	-8.57505
aft쎯qk쎯	-8.57553
w쎯ft쎯	-8.57652
yy쎯aa쎯	-8.57685
rxj쎯nf쎯	-8.57885
mtd쎯	-8.57935
쎆쎀	-8.58127
it쎯	-8.58142
wh쎯w쎯	-8.58238
kg쎯	-8.58259
atd쎯ip쎯	-8.58333
pk쎯	-8.58404
g쎯tem쎯	-8.58546
fk쎯	-8.58631
s쎯fiy쎯	-8.58773
ftbt쎯rep쎯	-8.58775
wbj쎯usr쎯	-8.58893
pa쎯	-8.58933
a쎯anb0쎯	-8.59027
쎁쎄	-8.59219
쎁쎀쎀	-8.59291
ggi쎯	-8.59315
x	-8.59332
sc쎯	-8.59589
lhnh쎯	-8.5984
fgh쎯	-8.59901
pu쎯gm쎯	-8.5994
u쎯og쎯	-8.60136
py쎯	-8.60322
yni1쎯	-8.60481
ovt쎯rnd1쎯	-8.60483
pt쎯yne쎯	-8.60573
dga쎯pwv쎯rn쎯	-8.60714
ymc쎯	-8.60719
wwk쎯	-8.60743
naj0쎯	-8.60754
dh쎯	-8.60876
vo쎯	-8.6102
dwiu쎯	-8.61182
yjjh0쎯	-8.61299
fcp쎯	-8.61336
by쎯	-8.61392
ln쎯	-8.61474
ufy쎯	-8.61508
.《	-8.61756
mmm쎯ai쎯ith쎯	-8.61852
pp쎯g쎯	-8.61949
thd쎯fcl쎯	-8.62149
w쎯n쎯	-8.62226
,mh쎯	-8.62296
psu0쎯	-8.62315
dgkn0쎯	-8.62332
gj쎯	-8.62333
j쎯rxj쎯	-8.62402
yvi쎯	-8.625
xwy0쎯	-8.62501
fw쎯	-8.62776
xf쎯wgk쎯	-8.62798
bm쎯thgc0쎯py쎯	-8.6291
yygt쎯sghg1쎯	-8.6301
tfk0쎯	-8.63099
,wgkq0쎯	-8.63176
rjg1쎯wtf쎯	-8.63188
wqj쎯	-8.63244
rymn쎯	-8.63262
adnt1쎯	-8.63385
uduk0쎯	-8.6341
qd쎯	-8.63913
fc쎯	-8.64011
wvf0쎯yvi쎯	-8.64209
iytb0쎯	-8.64343
djd쎯ipkh1쎯	-8.64383
bnn2쎯	-8.64401
k쎯,	-8.64477
q쎯l쎯	-8.64582
p쎯wh쎯	-8.64629
jyie쎯ktm쎯	-8.64638
bwt쎯	-8.64954
qt쎯	-8.64971
uo쎯	-8.65114
g쎯hxf쎯	-8.65183
saj0쎯aa쎯	-8.65191
iawn0쎯	-8.65259
zzbd8쎯zzbd8쎯	-8.65521
mqu쎯	-8.65521
r쎯g쎯tkh쎯	-8.65615
nae0쎯	-8.65793
yngk1쎯	-8.658
ou쎯	-8.65824
dnnl쎯	-8.65896
dht쎯	-8.65954
fii쎯	-8.65997
,wb쎯	-8.66057
ri쎯	-8.66092
vfhp1쎯uu쎯	-8.66222
jb쎯dd쎯	-8.66291
qgb쎯	-8.66324
cqy쎯	-8.66514
to쎯	-8.66625
qg쎯	-8.66655
sgc쎯	-8.66705
fj쎯ty쎯	-8.66767
m쎯jf쎯	-8.66787
apk쎯	-8.66827
av쎯	-8.66897
n쎯ytt쎯	-8.66925
yygy쎯wrh1쎯	-8.67025
qgj쎯	-8.67052
wfg0쎯	-8.67321
gae쎯dn쎯	-8.67479
nnnn0쎯x쎯	-8.67525
tk쎯od쎯	-8.67594
um쎯og쎯	-8.67672
ait쎯	-8.67692
쎁쎃	-8.67767
ye쎯	-8.67853
imgk쎯	-8.67887
tyna2쎯	-8.67896
yb쎯	-8.67926
ck쎯iyo쎯	-8.68019
tt쎯	-8.68168
uq쎯cep쎯	-8.68232
쎀	-8.68249
wa쎯ge쎯	-8.68355
wc쎯kht쎯	-8.68361
xl쎯eqn쎯	-8.6844
tdg1쎯	-8.68466
xv쎯	-8.68555
gk쎯og쎯	-8.68673
.wc쎯ngk쎯	-8.68717
ytt쎯	-8.68723
wxj쎯	-8.68986
hhhh쎯	-8.69061
xh쎯	-8.69168
hk쎯	-8.69251
wyv쎯kkk쎯	-8.69467
sksw쎯	-8.69506
umd1쎯	-8.69596
pgn쎯	-8.69598
ruv쎯	-8.69715
ahty0쎯	-8.69805
thd쎯nng쎯r쎯	-8.69807
ad쎯dbm쎯	-8.69851
쎂쎄	-8.69869
aet1쎯	-8.69889
w쎯n쎯ght쎯ywf쎯	-8.70104
,ll쎯,	-8.70132
yfd쎯	-8.70167
yygt쎯ai쎯	-8.70174
fv쎯	-8.70194
hhhh쎯ue쎯	-8.70198
gmww쎯wh쎯	-8.70325
lh쎯kthh1쎯	-8.70326
fhu쎯	-8.70327
shn쎯	-8.70343
jfc쎯	-8.70358
jj쎯	-8.70432
v쎯gm쎯	-8.70441
:“	-8.70449
pgk쎯	-8.70619
dn쎯uu쎯	-8.70807
cw쎯	-8.70981
xqa쎯	-8.71077
sgh쎯	-8.71112
jn쎯pym쎯	-8.71134
rkk쎯wt쎯	-8.71196
,adw쎯k쎯	-8.71225
tg쎯tr쎯	-8.71289
ugl쎯	-8.71526
txg쎯	-8.71579
ih쎯yu쎯	-8.71581
ywx쎯yygy쎯	-8.71655
gxi쎯	-8.71678
xf쎯	-8.71685
ght쎯	-8.71808
ywf쎯	-8.72076
kfi쎯	-8.72098
sg쎯nnh쎯	-8.7214
wbj쎯wt쎯	-8.72221
pe쎯ytfp0쎯	-8.72299
qve쎯	-8.72603
flf1쎯	-8.72648
qmq쎯	-8.72767
ad쎯sg쎯	-8.72769
ivw쎯	-8.72801
uq쎯iyc쎯	-8.72924
o	-8.73227
gef쎯rh쎯	-8.73261
wx쎯ip쎯	-8.73267
jv쎯	-8.73366
wb쎯wu쎯	-8.73439
iagw쎯	-8.73526
ghd1쎯aa쎯	-8.73659
bde쎯	-8.73663
tfq쎯tg쎯	-8.73685
af쎯wgkb0쎯	-8.73689
tmo쎯	-8.73729
yjs쎯tkgg1쎯	-8.73749
j쎯g쎯wh쎯	-8.73807
nty0쎯	-8.74002
temk0쎯	-8.74081
bi쎯	-8.74194
aq쎯fakg0쎯	-8.74226
cm쎯	-8.74361
wtu쎯	-8.74407
j쎯mh쎯	-8.74694
dp쎯gc쎯	-8.74761
xx쎯lu쎯	-8.74771
fa쎯	-8.74829
fhq쎯	-8.74836
yn쎯	-8.7502
ymc쎯ytb쎯	-8.75106
ywt쎯	-8.75289
ylk0쎯	-8.7542
yy쎯dm쎯	-8.75702
)zzbd3쎯	-8.7571
ga쎯nae0쎯	-8.75759
pf쎯	-8.75777
쎂쎀쎀	-8.75815
bu쎯wgk쎯	-8.75911
ntg쎯ce쎯	-8.75986
fjk쎯	-8.7613
sdm쎯	-8.76196
rn쎯e쎯	-8.76245
wjg쎯	-8.76414
qtj쎯uu쎯	-8.76609
*	-8.76684
et쎯gf쎯	-8.76728
pu쎯ytb쎯	-8.76818
yneg0쎯	-8.76828
dga쎯pwv쎯tg쎯	-8.76867
gqx쎯	-8.7692
pnt쎯	-8.76927
sam쎯	-8.76985
up쎯	-8.77067
fge쎯fghg쎯	-8.77107
riu0쎯	-8.77163
tak쎯	-8.77218
trf0쎯qc쎯	-8.7722
fcl쎯tr쎯	-8.77332
rwyg0쎯yygt쎯	-8.77352
od쎯gajf0쎯	-8.77356
v쎯tg쎯	-8.7737
wrh1쎯	-8.77374
,cf쎯	-8.77442
hj쎯	-8.77723
tj쎯gc쎯	-8.77986
usr쎯ub쎯	-8.78034
fghy2쎯	-8.78046
gu쎯ck쎯	-8.78196
de쎯	-8.78324
you1쎯	-8.78372
wyc쎯	-8.78489
tkgg1쎯ycb쎯	-8.78595
wsg0쎯yce쎯	-8.78616
ddm쎯fghg쎯	-8.78663
irr쎯ia쎯	-8.78827
xyna1쎯	-8.79035
yygt쎯ai쎯ith쎯	-8.79047
td쎯ykw쎯	-8.791
os쎯	-8.79338
쎃쎂	-8.79357
amd쎯ygk쎯	-8.79415
djb쎯	-8.79517
qnp쎯	-8.79624
eu쎯	-8.79715
sf쎯tv쎯wf쎯	-8.79812
rdj쎯	-8.79813
xgu쎯	-8.79815
if쎯tvfh0쎯	-8.79955
dn쎯al쎯	-8.79998
pym쎯	-8.80066
vn쎯	-8.80104
lwx쎯	-8.80104
synw쎯	-8.80158
fuk쎯udyj쎯	-8.802
쎈쎀	-8.80356
gs쎯	-8.80378
ntf쎯	-8.80679
wycm1쎯nf쎯	-8.8068
dm쎯tkw쎯	-8.80696
wg쎯dm쎯	-8.80745
vtkd0쎯	-8.8084
v	-8.80843
rta쎯	-8.80896
--	-8.81064
wt쎯et쎯	-8.81085
yygt쎯tfkf0쎯	-8.81094
yiu0쎯	-8.8118
gny쎯	-8.81212
pw쎯uj쎯	-8.81217
kd쎯	-8.81267
pfjm1쎯	-8.81283
wgi쎯	-8.81298
wgj쎯	-8.81351
i쎯on쎯	-8.81378
,wug0쎯gf쎯	-8.81449
sh쎯ud쎯	-8.81483
pynn0쎯	-8.81547
pt쎯	-8.81603
tfqp쎯rcf쎯	-8.8171
tv쎯	-8.81785
tg쎯gf쎯	-8.81813
wm쎯	-8.8185
gq쎯	-8.81958
fcb쎯	-8.82019
jtyl쎯hich0쎯	-8.82564
yv쎯	-8.82599
쎃쎅	-8.82602
i쎯ce쎯	-8.82605
ia쎯alw쎯ith쎯	-8.82643
us쎯	-8.82647
ese쎯	-8.82808
yygt쎯ytyh쎯	-8.82924
uqwm1쎯ou쎯	-8.83009
jty쎯	-8.83116
.yynw1쎯	-8.83173
ha쎯	-8.83384
yft쎯	-8.83471
ght쎯ick쎯	-8.83564
ddu1쎯	-8.83608
fiy쎯	-8.83726
ktn쎯	-8.83948
ugm쎯gxgu쎯	-8.84034
cd쎯gn쎯	-8.84106
fm쎯yiu0쎯	-8.84181
,vcb쎯	-8.84295
tx쎯dg쎯	-8.84469
te쎯	-8.84552
eajd쎯	-8.8461
fffy0쎯	-8.84667
ntk쎯gf쎯	-8.84726
fha쎯	-8.84831
w쎯tr쎯	-8.84958
wf쎯km쎯	-8.85385
wsk쎯	-8.8539
wynk쎯	-8.85558
쎂쎂	-8.85659
um쎯tl쎯	-8.85818
yygy쎯je쎯	-8.85876
tf쎯ght쎯	-8.85886
qqqq1쎯ntk쎯	-8.85887
g쎯uqw쎯	-8.85931
iyw쎯	-8.86123
udp쎯	-8.8616
r쎯g쎯wh쎯	-8.8622
qr쎯kht쎯	-8.86369
rj쎯	-8.8656
j쎯g쎯tkh쎯	-8.86659
pgj쎯wfny0쎯	-8.86661
ygk쎯yyy쎯	-8.86728
qyvl0쎯	-8.86794
fggh쎯uk쎯	-8.86843
mt쎯	-8.86846
iqc쎯	-8.86872
wynb0쎯	-8.86992
yjj1쎯	-8.87047
ugdu쎯sy쎯	-8.87077
pei쎯sf쎯	-8.8719
irr쎯ia쎯ith쎯	-8.87214
p쎯hxf쎯	-8.87219
ajt쎯	-8.87272
etg쎯	-8.87304
oge쎯pyj쎯	-8.87359
ln쎯shn쎯	-8.87363
h쎯r쎯	-8.87382
yfn쎯	-8.87396
c쎯h쎯	-8.87522
thgf1쎯	-8.87599
x쎯fp쎯	-8.87619
fh쎯ruv쎯	-8.87662
wt쎯ftj쎯	-8.87759
eb쎯	-8.88066
wvt쎯	-8.88093
qq쎯tkh쎯	-8.88266
nnh쎯if쎯	-8.88274
jyie쎯	-8.88289
udyj쎯	-8.88367
oyvk1쎯	-8.88431
bm쎯gm쎯	-8.88507
bg쎯tg쎯	-8.88579
ide쎯fm쎯	-8.88604
apk쎯qie쎯	-8.8873
ldn쎯	-8.88805
kha쎯yb쎯	-8.88838
dty0쎯gk쎯	-8.88873
ii쎯gu쎯	-8.88901
ey쎯adw쎯	-8.88943
ukh쎯	-8.89133
da쎯	-8.89141
》tffu쎯	-8.89284
gmd0쎯	-8.89332
쎇쎀	-8.89385
wbj쎯	-8.89494
mwyc0쎯	-8.89547
uwyc2쎯	-8.89558
쎂쎈	-8.89583
jgm쎯aib쎯dd쎯ip쎯	-8.89616
xjm쎯	-8.89627
pp쎯uj쎯	-8.89651
~	-8.8995
f쎯yy쎯	-8.89957
jh쎯	-8.89985
iaw쎯	-8.90009
dc쎯	-8.90017
fnw쎯	-8.90129
klj쎯	-8.90146
apl쎯fcl쎯	-8.90162
ygh쎯	-8.90195
lw쎯wc쎯pgc쎯	-8.90281
qng1쎯	-8.90307
r쎯“	-8.9031
tu쎯dga쎯	-8.90423
wr쎯	-8.90442
ywu쎯	-8.90502
aps쎯	-8.90562
wg쎯gfi쎯	-8.90599
bg쎯	-8.90909
kha쎯	-8.91028
myd0쎯	-8.91045
u쎯tg쎯	-8.91067
jf쎯wa쎯	-8.91084
lfhf쎯	-8.9119
zzbd0쎯	-8.91192
jn쎯eyb쎯	-8.91224
ng쎯	-8.91237
qve쎯tf쎯	-8.91246
ytb쎯	-8.91359
mc쎯	-8.91401
ia쎯alw쎯	-8.91406
ui쎯	-8.91431
ngk쎯	-8.91582
adk쎯	-8.91628
tkh쎯sfhg쎯	-8.91768
ce쎯qkqq0쎯	-8.91803
amd쎯l쎯	-8.91821
isk쎯fm쎯	-8.91843
ip쎯sy쎯	-8.91968
iyo쎯	-8.92084
sgn쎯	-8.92116
gmy0쎯	-8.92355
,uqf쎯	-8.92502
be쎯	-8.92597
sgi쎯	-8.92733
lks쎯	-8.93033
.wb쎯	-8.93084
puhc쎯ygu쎯o쎯	-8.9309
efcb쎯	-8.93147
c	-8.93157
wwj쎯wfhg0쎯	-8.93223
mh쎯gf쎯	-8.93229
ynt0쎯	-8.93357
uda쎯	-8.93375
bgh쎯	-8.93413
rmhj쎯ya쎯	-8.9348
hi쎯	-8.93737
tffh1쎯uthp0쎯	-8.9381
twt쎯	-8.93859
p쎯tkh쎯	-8.93872
bk쎯	-8.93986
nnw쎯	-8.94188
w쎯wu쎯	-8.94317
쎂쎃	-8.9432
ufy쎯qnth쎯	-8.94415
sfi쎯	-8.945
pu쎯cwg쎯	-8.94526
》(	-8.94777
isk쎯fm쎯ith쎯	-8.94904
dl쎯	-8.94988
,vk쎯	-8.94993
pv쎯tmgt3쎯	-8.94996
ftjb쎯j쎯	-8.95052
hxx쎯	-8.95077
jhny쎯	-8.95206
ib쎯	-8.9528
wfny0쎯rtol0쎯	-8.95308
wu쎯	-8.95321
,sk쎯	-8.95386
dgv쎯	-8.95688
gcft0쎯lt쎯gf쎯	-8.9572
yy쎯tm쎯	-8.95856
쎂쎆	-8.95858
qy쎯	-8.9586
쎉쎀	-8.95906
qyng0쎯	-8.95948
a쎯wt쎯.	-8.96007
nnw쎯gkip0쎯	-8.9602
wf쎯yyq쎯	-8.96054
fny0쎯	-8.96102
yjs쎯jghm1쎯	-8.96104
ol쎯	-8.96337
ds쎯	-8.9642
itk쎯	-8.96526
eyb쎯	-8.96815
쎁.	-8.96934
qqqq1쎯gkm쎯	-8.96962
dcw쎯	-8.96999
fcp쎯tf쎯	-8.97059
yd쎯	-8.97085
》,	-8.97131
쎄쎅	-8.9723
ssq쎯	-8.97235
gm쎯e쎯	-8.97279
tg쎯dyn쎯	-8.97288
bm쎯tg쎯gf쎯	-8.97289
wgkb0쎯	-8.97295
tfl쎯l쎯	-8.97465
tgj쎯s쎯	-8.97468
aw쎯m쎯	-8.97498
ai쎯ux쎯	-8.97498
alt쎯	-8.975
yaa쎯cwg쎯	-8.97551
bn쎯j쎯	-8.97638
dn쎯km쎯	-8.97687
oug0쎯	-8.97707
ftg쎯	-8.97736
wyq쎯	-8.9782
fmk쎯	-8.97951
qmgk1쎯	-8.98002
yw쎯ygh쎯	-8.98073
jf쎯imkf1쎯	-8.98082
dyt쎯	-8.98123
bk쎯og쎯	-8.9827
wtl쎯	-8.9833
2쎯	-8.98339
atd쎯	-8.98499
gogj쎯	-8.98581
ftbt쎯sft쎯	-8.98599
l	-8.98604
xeg0쎯dn쎯	-8.98694
.adw쎯	-8.99061
dwt쎯	-8.99282
jty쎯ysi쎯	-8.99632
pv쎯ufy쎯	-8.99692
uxe쎯	-8.99763
ght쎯tgm쎯	-8.99772
uo쎯cep쎯	-8.99826
uqt쎯js쎯	-8.99862
anb0쎯	-8.99884
pfj쎯	-8.99966
rvy쎯tf쎯	-9.00012
쎂쎁	-9.00102
jf쎯adwe1쎯	-9.00141
ts쎯wrh1쎯	-9.00187
tq쎯o쎯	-9.0023
nty0쎯af쎯	-9.0029
sf쎯vii쎯ntk쎯gf쎯	-9.00345
tdkj0쎯	-9.00355
on쎯	-9.00543
yps쎯	-9.00558
uqwk0쎯yqj쎯	-9.00683
yf쎯	-9.00784
gm쎯wtf쎯	-9.00982
ymd쎯	-9.01045
dhb쎯	-9.01098
wgc쎯	-9.01224
ad쎯f쎯	-9.01229
qt쎯ujff쎯	-9.01267
nyu0쎯	-9.01296
adm쎯	-9.01346
wcy0쎯	-9.01399
fcu0쎯fm쎯ith쎯	-9.01523
jghm1쎯	-9.01591
adf쎯	-9.01591
ytf쎯qq쎯	-9.01642
nkuf쎯	-9.01663
tx쎯	-9.01738
lqw쎯	-9.01804
xn쎯	-9.01894
ca쎯	-9.0195
pvs쎯	-9.01969
h쎯itx쎯ymhj0쎯	-9.01984
vs쎯	-9.02004
udb쎯	-9.02021
eg쎯	-9.02227
ud쎯txi쎯	-9.02248
k쎯atd쎯	-9.02267
wg쎯uk쎯	-9.02391
geq쎯	-9.0241
fpx쎯	-9.02435
nyi2쎯fghy1쎯	-9.02464
udj쎯	-9.02542
ip쎯tu쎯	-9.02612
fu쎯	-9.02625
yss쎯	-9.02639
kkk쎯rfm쎯	-9.02777
wv쎯dmh0쎯	-9.02796
lpk0쎯xfn쎯	-9.02956
rw쎯	-9.03006
sy쎯	-9.03023
al쎯	-9.03076
fjfh1쎯	-9.03214
ge쎯dm쎯	-9.03282
bfm쎯	-9.03285
cy쎯	-9.03301
pu쎯cwg쎯pgc쎯	-9.0347
kn쎯	-9.03494
gr쎯	-9.03539
sghg1쎯fm쎯	-9.03637
ajd0쎯	-9.03721
qtj쎯	-9.0375
lh쎯kthh1쎯ith쎯	-9.03777
sw쎯imj쎯	-9.03782
aqq쎯iyt1쎯	-9.03806
wgku1쎯	-9.03935
synw쎯ny쎯	-9.03962
wdn쎯	-9.04046
isk쎯ux쎯	-9.04061
rlg0쎯	-9.04129
vi쎯	-9.04215
wye쎯	-9.04327
wc쎯lfq쎯	-9.04335
ide쎯ux쎯	-9.04407
wv쎯o쎯	-9.04425
uk쎯uyh쎯	-9.04469
ffi쎯	-9.0452
dty0쎯	-9.04606
xqc쎯	-9.04652
ux쎯yiu0쎯ymhj0쎯	-9.04664
fkuk2쎯	-9.04699
pye쎯	-9.04897
,ww쎯	-9.04914
fp쎯tkgg1쎯	-9.04914
uqwm1쎯qqqq1쎯	-9.04999
y쎯rf쎯	-9.05014
qgu쎯	-9.05081
pei쎯n쎯	-9.05209
ybv0쎯	-9.053
lft쎯bw쎯	-9.05381
ud쎯gf쎯	-9.05454
a쎯hw쎯	-9.05503
bct쎯	-9.05607
k쎯aw쎯	-9.0562
wsg0쎯txi쎯	-9.05758
k쎯wxf쎯	-9.05965
xyy1쎯	-9.05977
g쎯fhn쎯	-9.05995
wj쎯xvk쎯	-9.06019
ub쎯	-9.06091
ta쎯adwe1쎯	-9.06103
km쎯a쎯	-9.06105
ytd쎯	-9.06133
lc쎯	-9.06211
wygg쎯	-9.0631
iy쎯	-9.06317
atd쎯ubk1쎯	-9.06426
jb쎯dd쎯r쎯	-9.06502
pym쎯hid쎯	-9.06508
ith쎯xe쎯	-9.06509
btg쎯	-9.06632
p쎯g쎯	-9.0667
ytb쎯a쎯	-9.06799
pp쎯g쎯,	-9.06812
ge쎯fi쎯	-9.06925
nf쎯	-9.06996
ltk쎯	-9.07001
fku쎯	-9.07006
hao쎯	-9.07102
afl쎯	-9.07168
aib쎯lfnh쎯	-9.07223
wkh0쎯fj쎯	-9.07246
apg쎯	-9.07349
xuj쎯	-9.07408
tfq쎯rg쎯	-9.07502
gkip0쎯	-9.0757
dtf쎯	-9.0757
yad쎯	-9.07571
g쎯fh쎯	-9.07575
ufk0쎯	-9.07922
wv쎯klj쎯	-9.07935
im쎯	-9.0799
utd쎯ugm쎯	-9.07992
ymc쎯e쎯	-9.08065
iwf쎯	-9.08078
qkhh1쎯	-9.0827
pfq쎯wg쎯	-9.08283
ijl쎯ya쎯	-9.08291
hhhh쎯sfi쎯	-9.08615
emc쎯	-9.08625
igt쎯	-9.08626
xv쎯qc쎯	-9.08672
if쎯l쎯	-9.08811
ndj쎯	-9.08865
un쎯pg쎯	-9.08871
qyv쎯jqr쎯	-9.08886
kwg쎯	-9.08929
lpk0쎯ruv쎯	-9.0893
l쎯mw쎯qh쎯	-9.08939
sghg1쎯ux쎯	-9.0894
ffff1쎯f쎯	-9.09013
sss쎯	-9.0902
xxe쎯	-9.09055
pv쎯tmgt3쎯ith쎯	-9.09084
mq쎯st쎯	-9.09101
wffg쎯	-9.09154
pfjf1쎯	-9.09277
ec쎯	-9.09342
lud쎯	-9.09472
jn쎯idr쎯	-9.09601
peg쎯	-9.09698
l쎯pe쎯xe쎯	-9.09749
wwj쎯st쎯	-9.09964
ide쎯ux쎯ith쎯	-9.10152
wbj쎯vfhp1쎯	-9.10188
qje쎯	-9.10232
dgj쎯	-9.10302
gd쎯ivfh1쎯	-9.10369
dg쎯wh쎯	-9.1043
gcft0쎯	-9.10443
jb쎯ym쎯	-9.10495
sgn쎯ddu1쎯	-9.1052
jo쎯fi쎯	-9.10523
puh쎯	-9.10582
mhny1쎯	-9.10593
qn쎯ufy쎯	-9.10629
쎂쎇	-9.10736
lm쎯	-9.10737
wnh쎯	-9.10771
yjs쎯	-9.1082
,i쎯	-9.10837
xxr쎯	-9.10972
eyni쎯	-9.10997
ak쎯ftj쎯	-9.11045
iy쎯mm쎯	-9.11069
fcu0쎯fm쎯	-9.11124
lfof3쎯	-9.1113
pyg쎯vfhp1쎯	-9.11258
h	-9.11273
wwj쎯	-9.11665
mmq쎯	-9.11665
kkk쎯tkh쎯	-9.11687
쎃쎆	-9.11808
,px쎯	-9.1181
nua쎯ajdh쎯	-9.11831
dt쎯egl쎯	-9.11893
yt쎯ty쎯	-9.12024
쎅쎀쎀	-9.12045
mp쎯	-9.12052
qsu쎯	-9.12157
gah쎯ic쎯	-9.12208
fyv쎯	-9.12322
itd쎯	-9.12493
ovt쎯ip쎯	-9.12545
tl쎯	-9.12545
sfc쎯	-9.12622
id쎯	-9.1275
r쎯tgj쎯s쎯	-9.12765
,gn쎯	-9.12788
xgb쎯	-9.128
,ccc쎯	-9.12817
gxgu쎯	-9.1282
tkw쎯se쎯	-9.12892
qev쎯un쎯	-9.12974
jq쎯	-9.13119
tf쎯o쎯	-9.13234
epc쎯gc쎯	-9.13259
kr쎯	-9.13297
jlc쎯	-9.13398
yaa쎯	-9.13532
wuk쎯	-9.13644
waw쎯	-9.13671
iu쎯	-9.13698
gjh2쎯	-9.13734
ftg쎯yaa쎯	-9.13875
tyg쎯	-9.1389
ide쎯fm쎯ith쎯	-9.13911
rbcc쎯jyie쎯	-9.13998
dhc쎯	-9.14014
wmj1쎯	-9.14027
ju쎯	-9.14029
yygt쎯fnrt쎯	-9.14136
ytf쎯	-9.14144
r쎯v쎯nae0쎯	-9.1442
tr쎯gj쎯	-9.14439
o쎯y쎯	-9.14471
fcp쎯lwg쎯	-9.14565
yygt쎯dd쎯	-9.14572
nd쎯n쎯	-9.14609
tgj쎯yd쎯	-9.14622
wa쎯gj쎯	-9.14669
fhc쎯	-9.14705
wwx쎯	-9.14709
o쎯g쎯wsg0쎯r쎯	-9.14862
tkgg1쎯	-9.14891
oo쎯	-9.14898
fu쎯lk쎯	-9.14958
thd쎯ick쎯aq쎯	-9.15006
gkih0쎯	-9.15113
rt쎯sm쎯	-9.15196
ahn쎯	-9.15224
sqt쎯	-9.15311
mmm쎯sghg1쎯	-9.15537
dk쎯	-9.15563
bqr쎯	-9.15617
thp쎯	-9.15736
pyg쎯vfhp1쎯ith쎯	-9.15823
rc쎯yid쎯	-9.15858
gku쎯	-9.15861
a쎯wt쎯,	-9.15938
gkip0쎯ya쎯	-9.15968
hka쎯ltk쎯	-9.16192
w쎯r쎯	-9.16425
qtfj0쎯	-9.16537
vk쎯wsk쎯	-9.16606
tuj0쎯	-9.16649
vtkb0쎯	-9.16687
aig쎯	-9.16696
um쎯kkk쎯	-9.16799
usr쎯xfg0쎯	-9.16853
ymc쎯lfhf쎯	-9.16878
yta쎯	-9.16889
,m쎯jf쎯	-9.16993
》《	-9.1706
o쎯b쎯	-9.17102
gmi쎯	-9.17252
f쎯th쎯	-9.17322
sfg쎯	-9.17326
imkf1쎯	-9.17373
ago쎯	-9.17447
ovt쎯pb쎯	-9.1748
pfqf쎯	-9.17497
yygt쎯itp쎯	-9.17551
pgj쎯	-9.1756
yk쎯xan쎯	-9.17596
jvko0쎯	-9.17736
nm쎯	-9.17744
qnth쎯	-9.17845
wx쎯a쎯	-9.17894
cd쎯	-9.17948
euk쎯	-9.17959
쎃쎀쎀	-9.17973
쎂쎀쎀쎈rh쎯	-9.18004
fcp쎯et쎯	-9.18013
icf쎯	-9.18035
ia쎯sghg1쎯	-9.18044
bd쎯	-9.18055
rq쎯	-9.18064
쎂쎀쎀쎆rh쎯	-9.18191
wbj쎯tfkp0쎯	-9.18238
oe쎯	-9.18366
n쎯uj쎯	-9.18408
vtk쎯www쎯	-9.18478
ptkm1쎯	-9.18539
ipk쎯km쎯	-9.18642
v쎯ge쎯	-9.1867
fgh쎯wv쎯	-9.18706
wyna0쎯	-9.18719
fpm쎯	-9.18722
pu쎯khg0쎯	-9.18836
쎂쎉	-9.18997
fkuc3쎯	-9.19034
wdn쎯rfm쎯	-9.19104
iyj쎯	-9.19111
gtu쎯	-9.1912
,rn쎯c쎯	-9.19162
wt쎯pe쎯	-9.19164
bfw쎯	-9.19232
quj쎯	-9.1937
imj쎯jg쎯	-9.19383
go쎯thd쎯	-9.19522
uwl쎯	-9.19822
yygt쎯rtol0쎯	-9.19855
pww쎯	-9.19888
www쎯	-9.19962
sff1쎯	-9.20047
fwm쎯aib쎯	-9.20079
xeg0쎯wgk쎯	-9.20085
pu쎯bf쎯	-9.20172
ah쎯	-9.2033
adwe1쎯uj쎯	-9.20341
yge쎯	-9.20392
dga쎯pwv쎯bpf쎯	-9.20398
bq쎯	-9.20454
ytm쎯	-9.20463
=	-9.20526
,k쎯l쎯	-9.20591
ggi쎯wk쎯	-9.20597
tgh쎯	-9.2067
da쎯dk쎯	-9.20742
dga쎯v쎯	-9.20744
uq쎯jqr쎯	-9.20805
》j쎯	-9.20816
》.	-9.20861
tr쎯iyc쎯	-9.20866
ugh쎯	-9.20883
do쎯	-9.20895
ld쎯o쎯	-9.2095
yy쎯wgj쎯	-9.20958
cep쎯wy쎯	-9.21037
apk쎯udyj쎯	-9.2122
gcf쎯wynb0쎯	-9.21223
sym쎯ytyh쎯	-9.2126
abu쎯	-9.21297
fuj쎯	-9.21361
thd쎯mh쎯	-9.21394
쎂쎀쎁쎀rh쎯	-9.21419
khn쎯	-9.21459
w쎯od쎯	-9.21506
ufy쎯lfhf쎯	-9.21517
nt쎯	-9.21554
쎁쎀eee0쎯	-9.21624
ebn0쎯	-9.21631
>	-9.21712
dd쎯ih쎯	-9.21719
jcm쎯	-9.21766
bc쎯tj쎯	-9.21807
fo쎯	-9.21815
vaf쎯wsg0쎯	-9.21918
ym쎯gkip0쎯	-9.22036
ip쎯wug0쎯	-9.22077
trf0쎯klj쎯	-9.22113
oat쎯	-9.22208
yv쎯vb쎯r쎯	-9.22256
gae쎯aa쎯	-9.22379
isk쎯ux쎯ith쎯	-9.22389
nh쎯ty쎯	-9.22394
es쎯	-9.22571
iyt1쎯	-9.22638
k쎯l쎯aw쎯u쎯ipk쎯	-9.22716
khgm3쎯	-9.22743
tb쎯	-9.22828
so쎯	-9.22837
tuk쎯	-9.22891
b쎯qev쎯	-9.22907
쎄쎈	-9.22922
sm쎯ud쎯	-9.22989
imj쎯yaa쎯	-9.23022
oyn쎯	-9.23042
xyna1쎯lkb쎯	-9.23044
gae쎯qje쎯	-9.23078
tuu0쎯	-9.23128
yfj0쎯	-9.23134
sghg1쎯pv쎯	-9.23195
mm쎯	-9.23232
쎂쎀쎀쎀	-9.23232
v쎯tf쎯	-9.23361
ftjo1쎯	-9.23418
dgh쎯wa쎯	-9.23436
rpv쎯jvko0쎯	-9.23521
fjfh1쎯l쎯	-9.23558
쎃쎈	-9.2359
yygy쎯anb0쎯	-9.23787
yssd0쎯	-9.23907
pl쎯gk쎯	-9.23918
pp쎯rg쎯	-9.23941
xx쎯pfjm1쎯	-9.23944
hwb쎯	-9.24022
rrr쎯qc쎯	-9.24135
wdn쎯rvyl0쎯	-9.24167
ajdf쎯	-9.24179
fhv쎯fp쎯	-9.24191
etj쎯	-9.24219
ufy쎯tlf0쎯	-9.24417
qf쎯	-9.24561
ad쎯qqqq1쎯	-9.24635
,bn쎯	-9.24637
ypm쎯	-9.24723
xu쎯	-9.24769
uk쎯bw쎯	-9.24822
,c쎯ey쎯	-9.24828
ime쎯	-9.24884
ukd1쎯	-9.24953
ryn1쎯	-9.24955
dn쎯ftjb쎯	-9.25024
dh쎯pgk쎯	-9.25121
yle쎯	-9.25137
gip쎯e쎯	-9.25156
wxm쎯	-9.25198
ipw쎯fkh쎯	-9.2524
rvyl0쎯	-9.25245
hka쎯qv쎯	-9.25286
ghc쎯gyb쎯	-9.25356
mw쎯apg쎯dgh쎯	-9.25391
ugv쎯	-9.25427
dn쎯js쎯	-9.25486
1쎯	-9.25547
wb쎯r쎯	-9.25604
nt쎯ed쎯	-9.25604
fmy0쎯	-9.25643
wn쎯	-9.25689
tdkj0쎯ce쎯	-9.25765
tffy0쎯	-9.25772
iie쎯xjm쎯ftj쎯	-9.25793
oi쎯	-9.25978
rj쎯bm쎯	-9.25989
dd쎯jg쎯	-9.26112
naw쎯	-9.26164
wug0쎯lfhf쎯	-9.26338
nnh쎯gl쎯	-9.26389
bgu쎯sghg1쎯	-9.26418
tfkp0쎯	-9.26443
rnr쎯	-9.26455
sj쎯	-9.26511
rr쎯	-9.26523
syg쎯	-9.26641
trf0쎯hko쎯	-9.26641
rmc쎯	-9.26702
ldd0쎯	-9.26715
ai쎯yy쎯	-9.26735
pfjs쎯	-9.2678
iagw쎯khu쎯	-9.26784
i쎯m쎯r쎯	-9.26842
bm쎯kkkk1쎯	-9.26867
fge쎯tr쎯qnp쎯	-9.26887
ym쎯suq쎯	-9.26977
trf0쎯tgh쎯	-9.27019
eq쎯	-9.27108
jn쎯lt쎯	-9.27168
'	-9.27194
tx쎯lh쎯	-9.2734
.gm쎯wtf쎯	-9.27342
tkgg1쎯ya쎯	-9.27458
bwf쎯	-9.27616
xyc쎯yf쎯	-9.27653
suq쎯lfq쎯	-9.27696
ftj쎯,	-9.27771
vep쎯	-9.27789
쎂쎀쎀쎇rh쎯	-9.2779
pyu쎯	-9.27801
k쎯yygy쎯	-9.27884
ipg쎯bm쎯	-9.28011
wwf쎯	-9.28099
rgf쎯	-9.28127
udy쎯dyn쎯	-9.28175
ifh0쎯	-9.28192
,dty0쎯	-9.28203
jcf쎯rf쎯	-9.28225
쎂쎀쎀쎅rh쎯	-9.28334
io쎯	-9.2837
rj쎯tak쎯	-9.28387
bk쎯a쎯	-9.28416
nge쎯ukq쎯	-9.28467
쎁wh쎯	-9.28649
,et쎯	-9.28675
vs쎯fn쎯	-9.28727
rrk쎯ip쎯	-9.2875
wgq쎯	-9.288
xxf쎯og쎯	-9.28907
,bn쎯j쎯	-9.28976
wqu쎯	-9.29041
gkih0쎯wh쎯	-9.29186
dmjf1쎯	-9.29224
fwm쎯saj0쎯	-9.29274
yo쎯wx쎯	-9.29351
jo쎯	-9.29399
tsh1쎯	-9.29493
qm쎯	-9.29522
mw쎯uk쎯	-9.29526
bt쎯	-9.29527
tg쎯,	-9.29654
aps쎯aqt쎯	-9.2968
imj쎯	-9.29851
fii쎯go쎯	-9.29976
dfy쎯lt쎯	-9.3001
ymf쎯sj쎯	-9.30036
ih쎯aq쎯	-9.30049
yw쎯o쎯	-9.30066
aqu0쎯	-9.30071
qrm쎯	-9.30158
rwyg0쎯	-9.30222
god쎯	-9.30296
od쎯gajf0쎯:	-9.30384
a쎯tkgg1쎯jgm쎯	-9.30442
wny1쎯	-9.30544
alf0쎯	-9.30552
wqin쎯	-9.30627
itf쎯	-9.3067
xo쎯	-9.30673
yf쎯tha쎯	-9.30718
inx쎯	-9.30728
vtg쎯	-9.30784
kh	-9.31009
uce쎯	-9.31044
apl쎯	-9.31062
kjj쎯	-9.31155
mqj쎯	-9.31164
gip쎯j쎯	-9.31189
쎆쎀쎀	-9.31191
ygu쎯	-9.31257
xyc쎯g쎯	-9.31277
b	-9.31279
adw쎯px쎯	-9.31301
cd쎯lk쎯a쎯wt쎯,	-9.31312
qv쎯	-9.31389
fkhk쎯	-9.31398
vck쎯	-9.31411
bu쎯txi쎯	-9.31427
wf쎯yf쎯	-9.31509
my쎯	-9.31559
ybb쎯	-9.31586
ge쎯gm쎯	-9.3163
e쎯uqt쎯	-9.31735
fku쎯cqw쎯	-9.31742
wnnp0쎯fiy쎯	-9.31756
swb쎯	-9.31796
rmhj쎯kkk쎯	-9.3187
atd쎯ip쎯bpf쎯	-9.31963
wk쎯rf쎯	-9.32026
rb쎯tfkf0쎯	-9.32027
ek쎯uqyl쎯	-9.32066
nf쎯ipg쎯	-9.32067
iqn쎯	-9.32086
cbd쎯	-9.32146
쎅eee0쎯	-9.32153
vkgd쎯qi쎯	-9.32154
tqq쎯fcl쎯	-9.32228
gx쎯bu쎯mqq쎯	-9.32256
kw쎯e쎯	-9.32373
ieb쎯	-9.32435
we쎯	-9.32486
ijo쎯	-9.32499
www쎯qq쎯	-9.32553
qkd쎯	-9.32573
lfnh쎯	-9.32613
qg	-9.3267
wwkw0쎯	-9.32684
eb쎯ufy쎯	-9.32755
fhh쎯	-9.32763
쎃쎇	-9.32799
tvr쎯	-9.32841
ltu0쎯nnh쎯	-9.32878
pwd쎯bm쎯	-9.32938
,gmf쎯	-9.32986
ym쎯k쎯	-9.32992
p	-9.3304
rrg1쎯rbcc쎯	-9.33062
qc쎯ese쎯	-9.33166
쎇쎅	-9.3327
au쎯	-9.3329
vcb쎯sk쎯	-9.33383
nh쎯adnt1쎯	-9.33401
alp쎯	-9.33429
hn쎯	-9.33499
qk쎯tq쎯	-9.33573
ftb쎯	-9.33621
ujn쎯dd쎯tjh쎯	-9.33627
tdt쎯	-9.3365
ydn쎯	-9.33658
,rg쎯	-9.33712
qkq쎯xjm쎯	-9.33713
쎃쎃	-9.33714
쎃쎁	-9.33716
aft쎯	-9.33716
bd쎯rjg1쎯	-9.33766
gyg0쎯	-9.33773
i쎯sk쎯	-9.3385
gkih0쎯wsg0쎯	-9.33863
yfn쎯ftj쎯	-9.33911
sghg1쎯uk쎯	-9.34026
xln0쎯qt쎯lfq쎯	-9.34133
f쎯rfm쎯	-9.34155
gm쎯wa쎯wx쎯	-9.34205
gm쎯d쎯	-9.34305
mhkg2쎯	-9.34352
sk쎯ce쎯	-9.34369
ruv쎯epc쎯	-9.34469
ngj쎯	-9.34541
wys쎯k쎯	-9.34544
iugg0쎯	-9.34551
vck쎯vfhp1쎯gf쎯	-9.34573
hh쎯	-9.34577
wfk쎯	-9.34691
’	-9.34694
ifj쎯	-9.34697
tqv쎯pg쎯	-9.34822
rs쎯tfkp0쎯	-9.34828
etn쎯	-9.34828
mmm쎯aq쎯	-9.34849
wy쎯kgn쎯	-9.35125
,hw쎯e쎯	-9.3528
and쎯	-9.3538
wtf쎯tl쎯	-9.35394
yxu쎯	-9.35423
uthp0쎯kht쎯	-9.35425
tkw쎯	-9.35482
fj쎯tf쎯b쎯	-9.35533
gma쎯	-9.35541
쎃eee0쎯	-9.35619
xwy0쎯ryn1쎯	-9.35663
쎅쎅	-9.3572
di쎯	-9.35721
쎂쎀쎀쎉rh쎯	-9.35729
,puhc쎯	-9.35742
oq쎯	-9.35753
);	-9.35771
nhy쎯	-9.35971
쎆쎄	-9.36001
dn쎯uu쎯gf쎯	-9.36053
afd1쎯	-9.36079
ws쎯usi1쎯	-9.36109
wtf쎯wsk쎯	-9.36175
gogn0쎯	-9.36311
sm쎯fnrt쎯	-9.36313
lpdk1쎯	-9.36408
aft쎯qk쎯r쎯	-9.36437
drt쎯	-9.36476
tr쎯rfm쎯	-9.3652
tdp쎯wgk쎯	-9.36541
xtf쎯xwy0쎯	-9.36566
wk쎯ygh쎯	-9.36584
tu쎯rfc쎯fj쎯hi쎯	-9.36793
ipw쎯fkh쎯ymhj0쎯	-9.36808
ymf쎯gkih0쎯	-9.36812
쎆쎅	-9.36844
ral쎯syp쎯	-9.36871
c쎯go쎯	-9.36936
ytfp0쎯	-9.36939
쎂쎀쎀쎀rh쎯	-9.3695
쎂쎀쎀쎄rh쎯	-9.36962
tve쎯qq쎯	-9.37039
kkhn쎯ftj쎯	-9.37072
ssn쎯	-9.3709
jhng0쎯	-9.37163
bwj쎯wdm쎯	-9.37165
iie쎯	-9.3728
pyj쎯x쎯	-9.37306
쎉eee0쎯	-9.37329
wksf쎯	-9.37358
x쎯cwg쎯	-9.37408
rfc쎯ce쎯	-9.37503
kfa쎯	-9.37509
dgkn0쎯ivs쎯	-9.37547
ymhj0쎯ght쎯ywf쎯	-9.37596
3쎯	-9.37704
쎃쎄	-9.37764
gjq쎯lk쎯	-9.37785
ip쎯ftj쎯	-9.37835
cf쎯gf쎯	-9.37856
ia쎯sghg1쎯ith쎯	-9.37858
gxi쎯rfm쎯	-9.37864
r쎯y쎯s쎯	-9.37899
yvcb0쎯	-9.37925
fny0쎯et쎯	-9.37948
nfp쎯gkip0쎯	-9.37983
bw쎯wgg1쎯	-9.37994
jn쎯ytd쎯	-9.37997
rdfh0쎯	-9.38041
쎄쎀쎀	-9.38098
usg쎯	-9.38216
tgj쎯dd쎯	-9.38257
vcl쎯lt쎯	-9.38297
.px쎯	-9.38315
wg쎯ymhj0쎯	-9.38361
fm쎯uk쎯	-9.38379
pdc쎯	-9.38402
e쎯udh쎯	-9.38443
tdn쎯	-9.38507
ipkr쎯	-9.38513
fjh0쎯	-9.38514
ngc쎯	-9.38522
uqwm1쎯	-9.38538
trf0쎯gqr쎯	-9.38762
lw쎯wc쎯	-9.38876
aqq쎯	-9.38959
y쎯xyna1쎯	-9.38997
nae0쎯fi쎯	-9.39017
sw쎯sj쎯	-9.39063
fd쎯aq쎯	-9.39117
wyq쎯kkd쎯	-9.39188
tey0쎯pw쎯	-9.39269
sw쎯cwg쎯	-9.39271
ab쎯hhhh쎯	-9.39307
wycm1쎯	-9.39385
dga쎯	-9.39389
,ll쎯,ic쎯ytt쎯,	-9.39417
쎁쎁eee0쎯	-9.39478
oge쎯kkk쎯	-9.39486
ay쎯	-9.3953
oa쎯	-9.39562
ian1쎯	-9.39599
su쎯	-9.39669
yssc0쎯	-9.39707
mmm쎯sghg1쎯ith쎯	-9.39783
lfo쎯qc쎯	-9.39843
an쎯xn쎯	-9.39859
,ld쎯hx쎯	-9.39875
,y쎯s쎯	-9.39914
gj쎯wynn3쎯	-9.40021
yoo쎯	-9.40038
j쎯d쎯	-9.4005
ggw쎯	-9.40054
qq쎯uqw쎯	-9.40084
rdf0쎯	-9.40225
fcp쎯apk쎯	-9.40269
qq쎯wh쎯	-9.40423
ffuk쎯	-9.40442
쎄eee0쎯	-9.40514
jb쎯wffg쎯	-9.40711
ccc쎯tq쎯	-9.40725
v쎯dmh0쎯	-9.40761
nla쎯	-9.40813
ipm쎯	-9.40815
gk쎯wrh1쎯	-9.40854
wk쎯buj쎯	-9.40859
ubtf0쎯ou쎯	-9.40868
dr쎯ou쎯	-9.40934
sh쎯cf쎯	-9.40951
vvv쎯ntg쎯	-9.41001
rffg0쎯	-9.41143
tie쎯	-9.41261
fwyc2쎯	-9.41341
<	-9.41347
tfp쎯	-9.41398
쎄쎂	-9.4145
fp쎯tkgg1쎯k쎯	-9.41492
iv쎯f쎯	-9.41623
쎁쎂eee0쎯	-9.41633
ttd쎯	-9.41688
mnm쎯	-9.41726
gd쎯gh쎯	-9.41752
wnt쎯	-9.41913
f쎯gh쎯	-9.41947
tux쎯	-9.41951
aw쎯e쎯	-9.41978
g쎯rh쎯	-9.41979
(wynb0쎯	-9.41991
ipg쎯km쎯	-9.42043
gog쎯iyt1쎯	-9.42088
fl쎯	-9.42155
nua쎯	-9.42237
qdm쎯	-9.4225
y쎯wtf쎯	-9.42336
rcy1쎯	-9.42337
,dn쎯o쎯	-9.42349
gcg쎯	-9.42402
sksw쎯ma쎯	-9.4242
ybf0쎯epc쎯	-9.42462
」	-9.42608
ygu쎯wwj쎯	-9.42636
cep쎯ipkh1쎯	-9.42674
pu쎯et쎯	-9.42676
ed쎯	-9.42679
lk쎯xk쎯	-9.42736
ll쎯,	-9.42791
dnv0쎯fqb0쎯	-9.42846
.“	-9.42863
,qn쎯rtd쎯	-9.43202
qq쎯rh쎯	-9.43224
ysi쎯	-9.4326
vfhp1쎯uu쎯b쎯	-9.43294
pwat0쎯	-9.43339
ge쎯ipg쎯	-9.43392
gd쎯qd쎯	-9.43425
uygh1쎯	-9.43558
uag1쎯	-9.43597
ylf0쎯	-9.43666
,dmj1쎯eg쎯	-9.43683
쎂eee0쎯	-9.4372
ulg쎯	-9.4376
bm쎯tg쎯	-9.43847
r쎯w쎯	-9.43894
xwy0쎯wht쎯	-9.43914
j쎯k쎯l쎯	-9.43925
op쎯	-9.4396
tg쎯ta쎯	-9.43966
zzbd3쎯k쎯l쎯	-9.44068
ke쎯	-9.44187
dd쎯uthp0쎯	-9.4419
yy쎯pvs쎯	-9.44215
ipg쎯	-9.44348
fwm쎯pg쎯	-9.44372
i쎯j쎯	-9.4439
qkq쎯	-9.44392
cccs3쎯	-9.44518
uqv쎯	-9.44566
ycf쎯	-9.44603
nu쎯	-9.44621
bgu쎯sghg1쎯ith쎯	-9.44624
ux쎯uk쎯	-9.44634
tgj쎯yd쎯ymhj0쎯	-9.44678
tgm쎯aj쎯	-9.44718
ymf쎯ab쎯	-9.44732
afs쎯	-9.44762
rpw쎯	-9.44786
wk쎯bwg쎯	-9.44792
itx쎯iu쎯	-9.44857
wv쎯bb쎯	-9.44876
qkm쎯	-9.44895
uuk1쎯yfn쎯	-9.44913
wtuf1쎯	-9.44928
ax쎯tr쎯	-9.44936
c쎯gh쎯	-9.44968
쎂wh쎯	-9.4503
《k쎯l쎯	-9.45039
tmdf1쎯	-9.45103
dhb쎯d쎯	-9.45133
nudu쎯	-9.45182
fgh쎯fg쎯	-9.45188
vx쎯	-9.45224
tca쎯	-9.45356
ny쎯gj쎯	-9.4541
jat쎯	-9.45418
egc쎯fd쎯	-9.45458
ym쎯tffu쎯	-9.45526
hc쎯efw쎯	-9.4554
guw쎯	-9.45605
rj쎯waw쎯b쎯	-9.45622
ef쎯	-9.45706
「	-9.45737
쎈eee0쎯	-9.4578
saj0쎯	-9.45834
aib쎯	-9.45868
ugdu쎯pww쎯	-9.45973
xa쎯qc쎯	-9.46048
amd쎯yygy쎯	-9.46066
쎃쎉	-9.46194
atd쎯ax쎯	-9.46202
fcl쎯gl쎯	-9.46243
jtyq1쎯pg쎯	-9.46249
khgp0쎯fhg1쎯	-9.46257
qge쎯	-9.4626
쎈쎀쎀	-9.46267
rqc쎯	-9.46323
wc쎯aw쎯	-9.46366
lqy쎯	-9.46431
nty0쎯yo쎯	-9.46446
pgf1쎯	-9.46468
쎂쎀쎀쎃rh쎯	-9.46541
vca쎯	-9.46621
igey0쎯	-9.467
mfk쎯lp쎯	-9.4671
aca쎯	-9.46722
pj쎯	-9.46793
uqt쎯	-9.46799
cep쎯ynf쎯	-9.46836
wv쎯od쎯	-9.46874
,ld쎯	-9.46877
tuj0쎯ujfj0쎯	-9.46961
xh쎯fj쎯	-9.47113
fuj쎯mw쎯	-9.47122
xww쎯	-9.47122
gu쎯fqu쎯	-9.47168
wbj쎯og쎯	-9.47323
쎉쎈	-9.47472
nny1쎯	-9.47474
mf쎯	-9.47521
fcl쎯lt쎯	-9.47609
pp쎯uj쎯r쎯	-9.47679
.y쎯s쎯	-9.47782
g쎯xe쎯	-9.47853
awx쎯lfq쎯	-9.4804
rnd1쎯	-9.4804
tdaf0쎯	-9.48045
am쎯	-9.48096
o쎯“	-9.48139
gbnm1쎯	-9.48185
ipkr쎯rng2쎯	-9.48194
dn쎯sg쎯	-9.48233
khgp0쎯	-9.48285
쎄쎄	-9.4831
ym쎯gkip0쎯wc쎯kht쎯	-9.48345
ih쎯jf쎯	-9.48436
e쎯bv쎯wc쎯ngk쎯j쎯	-9.48488
db쎯ukd1쎯	-9.48489
ghd1쎯ipkh1쎯	-9.4854
tv쎯gkl쎯nnh쎯yn쎯	-9.48609
gkih0쎯wgk쎯	-9.48637
nty0쎯uduk0쎯	-9.48792
tfkd쎯	-9.48833
ftbt쎯yce쎯uk쎯	-9.48837
iv쎯jf쎯	-9.48854
rt쎯sy쎯	-9.48855
rymn쎯jjjj0쎯	-9.48865
x쎯maw쎯	-9.48927
xp쎯wgk쎯ntg쎯	-9.49
bgk쎯	-9.49029
yygy쎯ujj쎯	-9.49036
,sk쎯c쎯	-9.49076
bn쎯e쎯	-9.49093
tg쎯wgkb0쎯	-9.49117
maw쎯	-9.49146
ipq쎯	-9.49172
tfkp0쎯gajf0쎯	-9.49196
aft쎯wt쎯	-9.49197
쎁eee0쎯	-9.49215
쎁쎉쎉쎈rh쎯	-9.4928
srm쎯	-9.49334
g쎯av쎯	-9.49348
waye쎯	-9.49383
ivfh1쎯	-9.49401
lw쎯gk쎯th쎯	-9.49426
ipw쎯ty쎯	-9.49431
gb쎯	-9.49461
tffu쎯f쎯	-9.49479
ytey0쎯	-9.49504
rrg1쎯	-9.49551
gqg0쎯	-9.49627
ijlc쎯gl쎯	-9.49631
esv쎯	-9.49654
g쎯ts쎯	-9.49665
tqq쎯	-9.49691
egl쎯	-9.49701
rpws쎯	-9.4981
siq쎯	-9.49822
pr쎯	-9.49853
aqrn1쎯	-9.49916
fl쎯ymf쎯	-9.49922
qtj쎯trf0쎯r쎯	-9.49978
toln1쎯	-9.50069
r쎯dga쎯pwv쎯	-9.50076
c쎯go쎯,	-9.5011
ndo쎯tjt쎯	-9.5019
fwm쎯st쎯	-9.50229
dn쎯ta쎯	-9.50295
ltu0쎯nnh쎯qnp쎯	-9.5035
dtb쎯	-9.50351
쎂쎀쎀쎂rh쎯	-9.50361
gfq쎯	-9.50382
.mh쎯gf쎯	-9.50384
ud쎯iy쎯	-9.50402
at쎯	-9.5041
utk쎯	-9.50562
wh쎯sf쎯n쎯ih쎯xeg0쎯	-9.50572
sft쎯	-9.50588
쎄쎃	-9.50593
sf쎯n쎯	-9.50701
aqb0쎯	-9.50767
ujqu쎯	-9.50834
sai쎯	-9.50842
yn쎯vi쎯	-9.50896
c쎯“	-9.50899
h쎯,	-9.50911
upy쎯	-9.50923
iie쎯xjm쎯	-9.50949
쎆eee0쎯	-9.50966
ftx쎯jgm쎯	-9.51041
쎂.	-9.51046
wtr쎯lq쎯adwr0쎯	-9.51127
ke쎯nh쎯	-9.51165
lt쎯jg쎯	-9.51169
쎄쎆	-9.51201
wg쎯sf쎯	-9.51261
,reh쎯e쎯	-9.51404
,cep쎯fp쎯	-9.51462
gef쎯qynm1쎯	-9.51482
rlg0쎯khev0쎯	-9.51652
wdy1쎯	-9.51695
fdm쎯fiy쎯	-9.51698
ypeu쎯	-9.51912
uyiy0쎯	-9.51961
thd쎯fcl쎯wx쎯	-9.51963
sgn쎯lfhf쎯	-9.52033
ynj쎯	-9.52092
imk쎯	-9.52173
(),	-9.52206
aqk쎯	-9.52219
wg쎯egc쎯	-9.52286
:쎁	-9.52293
mfky쎯	-9.52315
쎁쎉쎉쎆rh쎯	-9.52333
쎁쎉쎉쎇rh쎯	-9.5235
yygy쎯pb쎯	-9.5244
nd쎯wygg쎯	-9.52455
qgb쎯nmh쎯	-9.52486
ai쎯fm쎯	-9.52489
jn쎯bb쎯um쎯tl쎯	-9.52516
lwg쎯bm쎯	-9.52653
,qd쎯rg쎯	-9.52674
pfq쎯uduk0쎯	-9.52704
adwn4쎯	-9.52774
vvv쎯bb쎯	-9.52777
d쎯k쎯l쎯	-9.52783
ymc쎯yf쎯zzbd3쎯	-9.52787
yygy쎯tr쎯	-9.52922
vf쎯	-9.52985
dcg쎯	-9.53027
tmd쎯wsg0쎯	-9.53176
tu쎯ip쎯rfc쎯sy쎯	-9.53185
egm쎯	-9.53214
qdm쎯yneg0쎯	-9.53234
rmc쎯ty쎯	-9.53292
rmhj쎯pg쎯	-9.53351
쎁쎉쎉쎀rh쎯	-9.53394
ydn쎯wy쎯	-9.5342
rgd0쎯	-9.53452
ym쎯usr쎯rfc쎯sy쎯	-9.53553
akgl쎯	-9.53555
fny0쎯og쎯r쎯	-9.536
j쎯g쎯pe쎯	-9.53656
f쎯fdf1쎯	-9.5373
udg2쎯	-9.53813
qh쎯tu쎯	-9.53871
bp쎯ps쎯ith쎯	-9.53887
gfq쎯pe쎯	-9.53912
gae쎯dyn쎯	-9.53932
khgm3쎯ytyh쎯	-9.53961
wynk쎯jg쎯	-9.54076
wynn3쎯	-9.54116
fq쎯if쎯	-9.54127
dd쎯jgm쎯	-9.54132
uwy0쎯	-9.54144
toln1쎯ycf쎯	-9.54157
vfhp1쎯dn쎯	-9.54188
tgjn2쎯	-9.54251
qq쎯vaf쎯wsg0쎯	-9.5428
jm쎯	-9.54301
thl쎯	-9.54366
fiyt쎯	-9.54392
falw쎯	-9.54415
ftjb쎯e쎯	-9.54462
쎁.쎅	-9.54509
iwf쎯lw쎯	-9.54539
kqy쎯	-9.5454
hnd쎯	-9.54578
kc쎯	-9.54664
m쎯fn쎯	-9.54764
ghd1쎯d쎯	-9.54773
qtdn1쎯	-9.54806
,mj쎯	-9.54813
mhg쎯	-9.54822
qjq쎯	-9.54834
du쎯	-9.54869
sksw쎯rt쎯	-9.54873
pg쎯wug0쎯	-9.54914
ai쎯sghg1쎯	-9.54977
trh0쎯	-9.55003
stt쎯ugl쎯	-9.5504
enr쎯	-9.55082
쎁쎀쎀쎀	-9.55098
w쎯wsg0쎯	-9.55111
rnn0쎯	-9.55118
fqb0쎯gxi쎯	-9.55126
ymc쎯uu쎯	-9.55192
qgb쎯ya쎯	-9.55281
grd쎯	-9.55301
epi쎯il쎯	-9.55359
t쎯yxxr1쎯	-9.55375
yssr0쎯	-9.55383
ywx쎯ffc쎯	-9.55404
cd쎯ftg쎯	-9.55426
ishg쎯	-9.55527
ufy쎯wht쎯	-9.5554
jghy0쎯	-9.55624
,yh쎯	-9.55637
adwe1쎯fjh0쎯	-9.55656
tha쎯	-9.55679
sf쎯wug0쎯gf쎯	-9.55746
lwg쎯ty쎯	-9.55752
rfc쎯sy쎯w쎯km쎯	-9.55815
xh쎯fhn쎯	-9.55898
쎃wh쎯	-9.55904
.ip쎯suq쎯	-9.55968
fhn쎯go쎯	-9.55978
f쎯gj쎯	-9.56019
le쎯	-9.56064
tfq쎯fj쎯r쎯	-9.56089
rgm쎯	-9.56134
iwt쎯	-9.56165
xln0쎯	-9.56275
bqr쎯uqwn2쎯	-9.56279
e쎯bv쎯gmu1쎯wtf쎯	-9.56367
wsg0쎯cwg쎯	-9.56444
tdp쎯jg쎯	-9.56445
dd쎯pfjm1쎯	-9.56492
r쎯fny0쎯og쎯	-9.56499
tdp쎯et쎯gf쎯	-9.56514
cd쎯ovt쎯	-9.5652
rpws쎯fpx쎯	-9.56526
rvk쎯	-9.56534
bp쎯ps쎯	-9.56584
쎂쎀쎁쎁rh쎯	-9.56588
yvc쎯	-9.56591
qvn0쎯	-9.56664
yyq쎯	-9.56676
o쎯y쎯,	-9.56723
e쎯sm쎯	-9.56738
fcl쎯dyn쎯	-9.56794
gkl쎯ftbt쎯rep쎯	-9.56812
tlf0쎯	-9.56873
iya쎯	-9.56926
rf쎯	-9.56993
vgk쎯	-9.57023
gkl쎯y쎯wtf쎯	-9.57093
쎁쎉쎉쎅rh쎯	-9.57122
iv쎯wa쎯	-9.57137
g쎯su쎯	-9.57142
gh쎯,	-9.57165
sss쎯ss쎯	-9.57172
je쎯jo쎯	-9.57176
dgtg0쎯img쎯	-9.57177
srg쎯	-9.57263
,p쎯	-9.57268
ldd0쎯pg쎯	-9.57337
bu쎯jel쎯	-9.57421
tep쎯	-9.57475
ytyh쎯ymhj0쎯	-9.57506
bynw0쎯bb쎯	-9.57517
jc쎯	-9.57541
fqu쎯qu쎯	-9.57542
ywe쎯on쎯	-9.57567
dd쎯pe쎯	-9.57571
‘	-9.57594
쎅쎆	-9.57616
dwf쎯	-9.57742
nty0쎯tfkp0쎯	-9.57781
쎂쎀쎀쎁rh쎯	-9.57923
at쎯fmk쎯	-9.57985
,kha쎯	-9.58007
wyp쎯	-9.58011
awf쎯	-9.58058
i쎯wcy0쎯	-9.58123
ic쎯ytt쎯	-9.5819
쎆쎆	-9.58195
xf쎯js쎯	-9.58211
g쎯pg쎯	-9.58245
gf쎯g쎯wsg0쎯r쎯	-9.58327
vk쎯js쎯	-9.58339
mqc쎯tr쎯	-9.58344
whw쎯qi쎯uk쎯	-9.58429
twf쎯wgk쎯	-9.58443
dn쎯xgm쎯	-9.58446
wfny0쎯lwg쎯	-9.58455
wnnp0쎯	-9.58458
rx쎯uwy0쎯	-9.58485
utem1쎯qc쎯	-9.5851
khu쎯gfi쎯	-9.58564
nhj쎯	-9.58647
jy쎯cm쎯	-9.58651
alw쎯ytyh쎯	-9.58668
쎄쎇	-9.58674
fnud쎯	-9.5869
ytn쎯	-9.58699
,yynw1쎯	-9.58763
y쎯jghm1쎯	-9.5884
쎁쎉쎉쎉rh쎯	-9.58909
qev쎯toc쎯	-9.58932
rwyg0쎯bm쎯	-9.58934
jjj0쎯	-9.58972
xo쎯xfn쎯	-9.5905
diu1쎯	-9.59067
jyie쎯pym쎯	-9.59069
sq쎯dn쎯	-9.59076
ipe쎯	-9.59099
g쎯pe쎯	-9.59129
khx쎯	-9.59172
pwy쎯	-9.59207
ssf쎯	-9.59207
kwg쎯qiu0쎯ipr쎯	-9.59222
tcy0쎯	-9.59322
tey0쎯	-9.59388
by쎯ick쎯	-9.59404
pr쎯qnp쎯	-9.59419
jn쎯ib쎯	-9.59428
jn쎯pym쎯ck쎯	-9.59486
tdij0쎯	-9.595
wg쎯ith쎯	-9.59507
jvk쎯	-9.5955
iqpl1쎯	-9.59557
xan쎯	-9.59578
ey쎯jf쎯	-9.59802
쎁쎉쎈쎅rh쎯	-9.59848
dg쎯rh쎯	-9.59893
qk쎯.	-9.59906
udg2쎯it쎯	-9.60039
awb쎯	-9.60044
ul쎯wtf쎯	-9.6006
.hx쎯	-9.60101
mf쎯ght쎯	-9.602
쎅쎂	-9.60227
afff2쎯	-9.60235
pwr쎯	-9.60245
,txg쎯	-9.60281
yk쎯	-9.60298
pu쎯tf쎯	-9.60305
sfh쎯	-9.60319
ee쎯dc쎯	-9.60363
ijx쎯wgk쎯	-9.60416
dga쎯pwv쎯k쎯ny쎯	-9.6045
rxj쎯rpl쎯	-9.60536
qf쎯cf쎯	-9.60601
khv쎯	-9.60678
qkk쎯	-9.60734
,ua쎯eg쎯	-9.60742
fj쎯kkkk1쎯	-9.6077
wys쎯dn쎯	-9.60825
,wtf쎯	-9.60866
sgn쎯wgk쎯	-9.60891
jtyl쎯	-9.60953
ldj쎯	-9.60963
tq쎯kgn쎯	-9.60972
...	-9.61039
jpx쎯	-9.6106
usr쎯r쎯	-9.61067
mpf쎯	-9.61187
bl쎯	-9.61223
wbb0쎯	-9.61237
a쎯dgt1쎯	-9.61246
eb쎯tl쎯.	-9.61294
,ww쎯dmj1쎯	-9.61302
jce쎯	-9.61304
k쎯uk쎯	-9.61367
쎁쎅쎀	-9.61433
bn쎯.”	-9.61451
ijx쎯	-9.61458
쎄wh쎯	-9.61549
ym쎯ya쎯	-9.61561
abi쎯	-9.61571
rwyg0쎯fj쎯	-9.61603
iaqg쎯	-9.61605
y쎯tp쎯	-9.61655
wvf0쎯	-9.61698
j쎯c쎯	-9.61709
ynty0쎯	-9.61751
yuo쎯	-9.61817
쎅쎈	-9.61838
ydm쎯	-9.61866
qlp쎯	-9.61873
tgj쎯usr쎯	-9.61883
wgk쎯dn쎯	-9.61918
em쎯	-9.62035
ga쎯yt쎯	-9.62044
gqje0쎯	-9.62109
ycb쎯	-9.62111
ufk0쎯qv쎯	-9.62112
w쎯tg쎯	-9.62112
dr쎯gj쎯	-9.62258
쎁쎉쎈쎈rh쎯	-9.62275
쎁쎉쎉쎁rh쎯	-9.62286
rep쎯	-9.62318
sfiu1쎯	-9.62321
sgtu0쎯	-9.62328
cf쎯qje쎯	-9.6235
khd쎯	-9.62354
ovt쎯jg쎯	-9.62399
ffc쎯	-9.62461
tdp쎯yid쎯	-9.62489
khi쎯	-9.625
sks쎯	-9.62502
dl쎯wtf쎯	-9.6257
ygu쎯o쎯	-9.62576
wk쎯wvf0쎯	-9.62587
kk쎯	-9.62609
wbj쎯lw쎯	-9.62627
blf0쎯	-9.62668
0쎯	-9.6268
wwf쎯ait쎯gf쎯	-9.6278
fi쎯aib쎯	-9.62782
x쎯iyj쎯ip쎯	-9.62795
td쎯qk쎯	-9.62845
dn쎯ybv0쎯	-9.62878
yce쎯	-9.62903
wt쎯hka쎯	-9.62935
wbj쎯vfhp1쎯gf쎯	-9.63015
dn쎯yi쎯	-9.63055
qq쎯adm쎯	-9.63138
,vvv쎯,	-9.63173
mw쎯lfhf쎯	-9.63185
uxe쎯jy쎯	-9.63217
sm쎯rmhj쎯	-9.63221
fny0쎯lkb쎯	-9.63237
fny0쎯uyh쎯	-9.63237
ld쎯gxi쎯	-9.63272
txg쎯wh쎯	-9.63316
qaj0쎯	-9.6341
jy쎯aq쎯	-9.63494
,gm쎯wtf쎯	-9.63498
ip쎯dl쎯	-9.63613
et쎯kkk쎯	-9.63794
kj쎯	-9.63857
r쎯dl쎯kq쎯	-9.63882
bt쎯wqa쎯	-9.63929
aps쎯iwyf1쎯	-9.63935
jb쎯usr쎯	-9.63998
ykw쎯	-9.64063
tf쎯ght쎯sf쎯	-9.64073
gm쎯fnrt쎯	-9.64162
ynk쎯	-9.64343
,vbn쎯	-9.64369
gl쎯pe쎯	-9.64426
dmu1쎯	-9.64434
sh쎯iv쎯	-9.64489
saj0쎯gajf0쎯	-9.64531
whf0쎯og쎯.	-9.64584
》yff쎯:“	-9.64585
i쎯qten1쎯qmq쎯	-9.64613
amd쎯dcw쎯	-9.64659
gy쎯oy쎯	-9.64664
fdm쎯	-9.64674
쎁쎂쎀	-9.64675
iyc쎯tf쎯	-9.64688
ws쎯	-9.64791
xyna1쎯rmhj쎯	-9.64937
yygy쎯fmud쎯	-9.64992
fof쎯	-9.64996
ai쎯uk쎯	-9.65006
yny0쎯f쎯u쎯	-9.65013
쎄쎉	-9.65047
tp쎯gj쎯nnk쎯	-9.65089
ntg쎯r쎯	-9.65097
kwyg0쎯g쎯	-9.65108
gd쎯ivfh1쎯ymhj0쎯	-9.65141
sm쎯zzbd3쎯	-9.65158
lft쎯wsg0쎯	-9.65161
th쎯gf쎯	-9.65253
yyn2쎯ukd1쎯	-9.65257
쎂.쎀	-9.65319
god쎯st쎯	-9.65338
vq쎯	-9.65339
쎉쎉	-9.65349
dm쎯tm쎯	-9.65411
wxf쎯w쎯n쎯aw쎯t쎯l쎯	-9.65426
qnr쎯	-9.65432
wwv쎯	-9.65484
y쎯yq쎯	-9.65484
oyv쎯	-9.65488
gmu1쎯wtf쎯	-9.65522
ce쎯idr쎯	-9.65535
c쎯rg쎯	-9.65566
》k쎯	-9.65587
atd쎯tu쎯dd쎯ip쎯	-9.65817
r쎯ih쎯	-9.65834
쎁쎉쎉쎃rh쎯	-9.65849
쎁쎉쎈쎄rh쎯	-9.65888
sw쎯	-9.6592
ujff쎯	-9.65938
ruv쎯qejy쎯	-9.66041
쎁쎉쎈쎆rh쎯	-9.66081
udyj쎯gqf쎯	-9.66144
anh쎯ae쎯	-9.66158
pw쎯rnb쎯	-9.66169
쎈쎈	-9.66229
쎁쎉쎉쎄rh쎯	-9.66316
fdf1쎯	-9.66447
sty0쎯	-9.66499
,ul쎯	-9.66511
gmww쎯tkh쎯	-9.66527
rtol0쎯yt쎯	-9.66532
dga쎯pwv쎯wf쎯	-9.6657
w쎯yygy쎯	-9.66586
sg쎯tu쎯	-9.66588
쎈쎅	-9.66651
pfq쎯uduk0쎯r쎯	-9.66846
.hhhh쎯ue쎯	-9.66853
rep쎯cbj쎯	-9.6688
isw쎯	-9.66891
tgj쎯s쎯r쎯	-9.669
쎅쎄	-9.66913
fg쎯tffu쎯uqd2쎯	-9.67012
fh쎯tca쎯	-9.67013
thd쎯tmd쎯	-9.67042
dyw쎯	-9.67084
wdn쎯wx쎯	-9.6712
pu쎯lt쎯	-9.67132
lm쎯bd쎯	-9.6715
thn쎯	-9.67157
쎁쎉쎈쎉rh쎯	-9.6729
hka쎯ufk0쎯	-9.67295
ipmq쎯	-9.67326
ccc쎯qk쎯	-9.67402
lk쎯wgkr1쎯dd쎯	-9.6741
qk쎯,	-9.67479
dd쎯bfm쎯	-9.67481
dh쎯pgk쎯r쎯	-9.67489
fj쎯g쎯hi쎯	-9.67496
쎉쎆	-9.67506
ihi쎯ey쎯	-9.67573
mfk쎯lfnh쎯	-9.67574
쎁쎉쎈쎇rh쎯	-9.67646
tvfh0쎯	-9.67666
tduh0쎯	-9.6768
rwyg0쎯fcl쎯	-9.67715
it쎯rh쎯	-9.6772
jhk1쎯	-9.67748
bpf쎯suq쎯	-9.67759
x쎯ipkh1쎯	-9.67831
gkm쎯	-9.67872
bde쎯udh쎯	-9.67946
dt쎯	-9.67989
gw쎯	-9.68009
uqwm1쎯st쎯	-9.68014
dy쎯bj쎯	-9.68123
fwyf0쎯	-9.68149
.ww쎯	-9.68218
yff쎯w쎯	-9.68255
wgkl2쎯	-9.68419
wgk쎯m쎯	-9.68423
wxj쎯ftbt쎯	-9.68481
yygt쎯ytyh쎯ymhj0쎯	-9.68517
gu쎯tqdh0쎯	-9.68648
tmgk2쎯	-9.6865
w쎯fghg쎯	-9.68654
tffu쎯yy쎯dm쎯	-9.68804
qvfp1쎯	-9.68812
쎁쎉쎉쎂rh쎯	-9.68896
vit쎯	-9.68918
hid쎯	-9.68962
db쎯	-9.69051
ygh쎯nnh쎯	-9.69054
saj0쎯rny1쎯	-9.69138
py쎯wf쎯y쎯yq쎯	-9.69139
wyo쎯	-9.69157
smu1쎯	-9.69171
uqf쎯pl쎯	-9.69281
,wjg쎯j쎯	-9.69321
iuc쎯	-9.69325
usr쎯gajf0쎯	-9.69346
u쎯kkk쎯rfm쎯jg쎯	-9.69429
,gm쎯	-9.69555
ipk쎯xeg0쎯dn쎯km쎯	-9.69561
xn쎯wynn3쎯	-9.69562
xeg0쎯vfhp1쎯	-9.69631
a쎯wt쎯ftj쎯	-9.69686
fakg0쎯	-9.6979
hw쎯wsg0쎯	-9.6992
pgn쎯wt쎯	-9.69935
uep쎯	-9.70025
bwf쎯rp쎯	-9.70027
rnu0쎯	-9.70061
qim쎯	-9.70104
yi쎯og쎯	-9.70127
hq쎯qnq쎯	-9.70204
쎂-	-9.70236
uwa쎯	-9.70251
gm쎯qje쎯	-9.70281
dd쎯ip쎯tg쎯	-9.70298
dr쎯qk쎯	-9.70299
n쎯y쎯	-9.70305
trfh1쎯ggi쎯	-9.70402
yaf쎯	-9.70443
l쎯qh쎯	-9.70475
g쎯wug0쎯	-9.70544
nc쎯	-9.70552
ftjb쎯ymhj0쎯	-9.70599
nyiy0쎯	-9.70599
pfqf쎯pl쎯	-9.70602
wye쎯rnd1쎯	-9.70653
pwdj쎯	-9.7072
dfny1쎯	-9.70756
uth쎯uqw쎯	-9.70773
ujn쎯ykw쎯	-9.70883
uqwm1쎯u쎯	-9.70894
wfny0쎯》:“	-9.70906
&	-9.70937
vv쎯vvv쎯	-9.70965
ipq쎯bj쎯	-9.7099
wfn쎯	-9.71014
,q쎯wu쎯	-9.71015
afd1쎯vij쎯	-9.71065
ige쎯wa쎯	-9.71093
y쎯wsg0쎯	-9.71141
d쎯xg쎯	-9.71146
ypeu쎯wxf쎯	-9.71183
qev쎯yt쎯	-9.71228
fd쎯qfhw1쎯	-9.71264
vb쎯r쎯	-9.71323
yc쎯	-9.71431
ii쎯ylk0쎯	-9.7144
tfhy쎯	-9.71454
lw쎯ip쎯	-9.71457
》tffu쎯.	-9.7148
jb쎯rg쎯	-9.71493
tx쎯gg쎯	-9.71495
aeu쎯	-9.71563
gah쎯kkd쎯	-9.71569
ej쎯	-9.7161
dqe쎯pg쎯	-9.7161
st쎯aa쎯	-9.71638
wkhh쎯	-9.71681
bv쎯	-9.71736
ltu0쎯thg1쎯	-9.71777
r쎯jf쎯whn쎯	-9.71812
jb쎯jh쎯	-9.71814
wv쎯qkhh1쎯	-9.71822
aj쎯	-9.71876
lh쎯wh쎯	-9.72104
mdfj쎯	-9.7219
쎅-	-9.72203
bp쎯	-9.72333
wfny0쎯vaf쎯	-9.72396
nae0쎯jtyq0쎯	-9.72472
waj0쎯	-9.72482
goi쎯	-9.72485
ta쎯ia쎯	-9.72535
ipk쎯tv쎯nnh쎯yn쎯	-9.72551
ubtf0쎯	-9.72555
tfkf0쎯	-9.72644
ul쎯x쎯	-9.72738
v쎯ge쎯ywx쎯yygy쎯	-9.72773
trf0쎯ntg쎯	-9.72794
anu0쎯thg1쎯	-9.72797
udr0쎯	-9.72809
mhr쎯	-9.72823
lkm쎯	-9.72883
ld쎯hx쎯	-9.72888
lp쎯xxe쎯	-9.72897
lgk쎯tmdf1쎯	-9.72913
jo쎯hhu0쎯	-9.72918
pt쎯yny0쎯	-9.72931
xyc쎯	-9.73005
xyna1쎯pgn쎯	-9.73091
fyn쎯	-9.73144
----------------	-9.73181
ep쎯nge쎯	-9.73259
jyie쎯thg1쎯	-9.73261
uqsg쎯	-9.73296
qnq쎯	-9.73314
쎆쎈	-9.73344
ywyg1쎯	-9.73346
un쎯	-9.73363
ab쎯ce쎯	-9.73374
amw쎯qqqq1쎯	-9.73462
rtf쎯	-9.73541
fas쎯fuk쎯	-9.73559
fkue0쎯	-9.7357
ti쎯	-9.73572
nywf1쎯	-9.73575
khu쎯gfi쎯whw쎯qi쎯	-9.7359
pe쎯hw쎯	-9.7372
fpo쎯	-9.73791
쎃.	-9.73832
txgt쎯	-9.7387
xy쎯xkw쎯	-9.7387
.wjg쎯	-9.73947
ad쎯gf쎯	-9.73974
dhc쎯fgi쎯	-9.73988
쎅쎇	-9.7403
mf쎯tl쎯	-9.74037
qie쎯	-9.74069
uwy0쎯tlf0쎯	-9.7407
xwf쎯gl쎯	-9.74121
pj쎯yf쎯	-9.74138
wq쎯r쎯	-9.74191
tkh쎯bb쎯	-9.74261
gc쎯b쎯	-9.74312
dyn쎯	-9.74391
vfhp1쎯yyq쎯	-9.74413
rf쎯xfn쎯	-9.74443
yy쎯dm쎯r쎯	-9.74633
wda쎯	-9.74669
rb쎯uthp0쎯	-9.74669
rfc쎯agnn1쎯	-9.74692
sghg1쎯yy쎯	-9.74748
wc쎯jfd쎯	-9.74752
fke쎯	-9.74804
raj쎯ytb쎯	-9.74854
ufg쎯	-9.74881
tf쎯fcl쎯	-9.74893
jh쎯adwe1쎯	-9.74897
nhj쎯rrr쎯	-9.74922
yv쎯vb쎯	-9.75074
iy쎯tgj쎯	-9.75113
thgc0쎯sg쎯	-9.75125
wk쎯dhb쎯	-9.75132
aup쎯	-9.75158
ym쎯uqt쎯	-9.75169
jb쎯xtu쎯	-9.75198
rvy쎯	-9.75245
쎄-	-9.75262
pwt쎯	-9.75291
v쎯nae0쎯r쎯	-9.75295
uk쎯zzbd3쎯	-9.75346
sghg1쎯adnt1쎯	-9.75352
yc쎯wv쎯	-9.75358
.sg쎯	-9.75364
ujf0쎯hid쎯	-9.75375
w쎯a쎯	-9.75386
wwwk0쎯	-9.75467
ex쎯	-9.75473
xtu쎯	-9.75519
ifw쎯	-9.75524
sh쎯gx쎯	-9.75593
sghg1쎯gyt쎯ah쎯	-9.7561
wul쎯	-9.75644
rhj쎯	-9.75694
rm쎯	-9.75713
tffu쎯xe쎯	-9.75748
uqi0쎯	-9.75851
txg쎯rh쎯	-9.7587
wfh0쎯tc쎯	-9.75934
tp쎯gj쎯zzbd3쎯	-9.75951
f쎯gfi쎯	-9.76006
itx쎯fm쎯	-9.76013
x쎯dl쎯	-9.76117
pl쎯aq쎯	-9.76125
a쎯w쎯	-9.76185
gj쎯qev쎯	-9.76305
lfo쎯dx쎯ia쎯ith쎯	-9.76363
awn쎯	-9.76377
rwyg0쎯adh쎯	-9.76395
v쎯rpl쎯	-9.76409
txi쎯xyc쎯r쎯	-9.76603
wqu쎯us쎯	-9.76612
dd쎯ddh쎯	-9.7667
dd쎯wf쎯	-9.76705
vnu1쎯	-9.76759
dd쎯lpk0쎯	-9.76765
qe쎯qc쎯	-9.76844
wgk쎯gj쎯	-9.76846
ubt쎯	-9.769
hw쎯tlf0쎯	-9.76912
san쎯	-9.76943
i쎯wf쎯	-9.76974
wcw쎯	-9.76985
f쎯fhg1쎯	-9.76996
fl쎯yyq쎯	-9.77039
쎇쎂	-9.77058
ft쎯ce쎯	-9.77065
fny0쎯tjh쎯	-9.7708
fm쎯ux쎯	-9.77081
jel쎯	-9.77163
dga쎯pwv쎯km쎯	-9.77174
wv쎯yb쎯	-9.77201
dnv2쎯	-9.77227
tdd쎯	-9.77243
f쎯wug0쎯	-9.77251
yn쎯ftj쎯	-9.7729
l쎯tl쎯bpf쎯	-9.7731
amw쎯qc쎯	-9.77381
-쎁	-9.77431
ovt쎯rnd1쎯go쎯idr쎯	-9.77434
w쎯lt쎯uqwm1쎯idr쎯	-9.77475
쎆쎂	-9.7748
thd쎯q쎯	-9.77503
nnk쎯nnk쎯ta쎯	-9.77579
ukqb2쎯qv쎯	-9.77579
k쎯l쎯aw쎯u쎯ipk쎯,	-9.77609
fg쎯xe쎯	-9.77628
ry쎯nae0쎯	-9.77739
pfi쎯ftbt쎯	-9.77751
saj0쎯aib쎯	-9.7777
fmud쎯	-9.77856
adj쎯	-9.77875
쎈쎆	-9.77881
ovt쎯dcg쎯	-9.77923
qh쎯gae쎯	-9.77927
g쎯yww쎯	-9.77975
rtol0쎯	-9.78052
wxd쎯	-9.78082
pd쎯	-9.78093
lpk0쎯qim쎯	-9.78117
itf쎯uqv쎯	-9.78227
tu쎯zzbd3쎯	-9.78455
hid쎯yx쎯	-9.78466
ooo쎯lg쎯uh쎯	-9.78473
rrhy쎯	-9.78498
rxj쎯sfi쎯	-9.78518
drin0쎯	-9.78544
wfkb0쎯tdp쎯	-9.78602
gl쎯dm쎯	-9.78608
vyi0쎯	-9.78627
xk쎯ya쎯	-9.78677
fu쎯xk쎯	-9.78696
u쎯kkk쎯r쎯	-9.78735
rgf쎯up쎯	-9.78777
g쎯qk쎯	-9.78783
쎉쎅	-9.78786
lg쎯lgm쎯	-9.78892
g쎯tffu쎯uqd2쎯	-9.78914
jn쎯kkd쎯	-9.78967
쎁쎉쎅쎆rh쎯	-9.7897
쎅쎁	-9.79052
dff2쎯	-9.79067
eck쎯	-9.79092
nnl쎯	-9.79101
wygg쎯pta쎯	-9.79115
qtq쎯	-9.79156
ium쎯	-9.79223
쎅쎃	-9.7927
dmj1쎯i쎯	-9.79279
yam쎯	-9.7929
dr쎯ld쎯	-9.79339
toc쎯	-9.79343
cb쎯	-9.79404
-쎂	-9.79467
jo쎯aft쎯	-9.79477
sfhg쎯	-9.79535
egl쎯gj쎯	-9.79552
vt쎯rnd1쎯o쎯uwy0쎯	-9.79552
wycm1쎯fakg0쎯r쎯	-9.7958
쎄쎁	-9.79581
yc쎯iagw쎯	-9.79583
gf쎯dj쎯ya쎯f쎯ltu0쎯	-9.79599
dj쎯ya쎯f쎯ltu0쎯o	-9.79601
iyv쎯	-9.79621
,jb쎯xtu쎯xf쎯js쎯c쎯	-9.79625
ygh쎯udv쎯	-9.79644
wyk쎯rg쎯eb쎯tl쎯	-9.79669
///.",(){(	-9.79685
iff1쎯	-9.79715
..("//	-9.79716
쎁쎀쎀쎀쎀쎈쎀쎁);});	-9.79722
ty쎯tfqp쎯	-9.7977
aqky1쎯	-9.79793
jef1쎯	-9.7988
dgk쎯	-9.79886
zzsx6쎯	-9.79892
rc쎯jmd쎯	-9.80028
god쎯tgj쎯	-9.80051
fcl쎯wt쎯	-9.80116
td쎯uthp0쎯	-9.80143
cqw쎯qbp쎯	-9.80198
a쎯wt쎯r쎯	-9.80237
jhk1쎯yge쎯	-9.80264
gm쎯pu쎯	-9.80314
adn쎯	-9.80322
쎂.쎅	-9.80353
cd쎯lk쎯af쎯wgkb0쎯	-9.80398
sgmj쎯	-9.80444
gef쎯it쎯rh쎯	-9.80475
jtyl쎯imj쎯	-9.8049
,rcn0쎯	-9.80527
lfq쎯ss쎯	-9.80536
fi쎯	-9.80565
jaw쎯	-9.80621
eve쎯	-9.80628
dg쎯dd쎯	-9.80659
hm쎯	-9.80685
4쎯	-9.80714
yu쎯je쎯	-9.80744
qtal1쎯	-9.80757
ffff1쎯fyk쎯	-9.80791
mq쎯bwg쎯	-9.80795
yfn쎯nnh쎯	-9.808
itx쎯rdc쎯	-9.80836
wfi쎯	-9.80839
si쎯pvs쎯	-9.80842
rt쎯wdm쎯	-9.80885
xte쎯qfhw1쎯	-9.80902
ua쎯eg쎯	-9.80919
bm쎯tg쎯,	-9.80941
j쎯gik쎯	-9.80998
uth쎯nm쎯	-9.81017
uc쎯	-9.81029
wbj쎯ujn쎯	-9.81094
uqwm1쎯ynf쎯	-9.81097
qev쎯un쎯yy쎯pvs쎯	-9.81158
oh쎯	-9.8122
icw쎯	-9.8122
tuj0쎯tq쎯	-9.81221
,eg쎯	-9.81235
tk쎯f쎯	-9.81254
gkh0쎯	-9.81283
f쎯dm쎯	-9.81314
쎁쎉쎅쎈rh쎯	-9.81341
rnb쎯whn쎯	-9.81391
hq쎯	-9.81392
lk쎯rvyo쎯	-9.81411
fct쎯	-9.81456
sgn쎯wrh1쎯	-9.81476
n쎯l쎯	-9.8148
lgey2쎯egl쎯	-9.8148
fk쎯ss쎯ith쎯	-9.8155
cm쎯pwfi0쎯	-9.81566
ujfj0쎯wug0쎯.	-9.81568
mty1쎯	-9.81588
ew쎯	-9.816
ry쎯dd쎯	-9.81605
uvo쎯wtf쎯	-9.81637
fwm쎯tvfh0쎯	-9.81659
zzts10쎯	-9.81661
q쎯wu쎯r쎯	-9.81708
qkqp0쎯	-9.81719
ca쎯ndj쎯	-9.81736
dga쎯rmhj쎯	-9.81804
uxx쎯	-9.81828
dpq쎯	-9.81855
tn쎯nnh쎯	-9.81861
bj쎯iq쎯	-9.81877
쎂쎀쎁쎂rh쎯	-9.81887
fym쎯	-9.81929
y쎯yam쎯	-9.81982
vii쎯ntk쎯gf쎯	-9.8199
fcn쎯	-9.82014
tqt쎯	-9.82027
k쎯uj쎯	-9.82058
qq쎯pe쎯	-9.82157
쎁-	-9.82241
atg쎯	-9.82247
itol쎯	-9.82333
rn쎯ntk쎯	-9.82344
nnw쎯qi쎯	-9.82394
tv쎯km쎯wf쎯tv쎯km쎯	-9.82416
rn쎯c쎯	-9.82421
sgm쎯	-9.82452
iyj쎯fm쎯	-9.82468
oyv쎯wyv쎯	-9.8251
fgu쎯	-9.8252
wys쎯lft쎯wc쎯ngk쎯	-9.82543
qh쎯cm쎯	-9.82607
쎇쎈	-9.82655
kqb0쎯uxh쎯	-9.82697
ivp쎯	-9.8279
egc쎯ght쎯ywf쎯	-9.82794
vbn쎯r쎯	-9.8286
itm쎯dd쎯tjh쎯gog쎯	-9.82863
mmm쎯ii쎯	-9.82885
usr쎯lk쎯fhc쎯	-9.82914
ia쎯fm쎯	-9.82936
fu쎯ta쎯	-9.83016
,gip쎯	-9.8302
tk쎯adm쎯	-9.83039
rhf0쎯gc쎯	-9.83082
wfny0쎯yu쎯	-9.83148
yon쎯	-9.83172
r쎯usr쎯	-9.83237
,yi쎯	-9.83247
쎅쎉	-9.83297
it쎯ytf쎯	-9.83314
nui쎯sm쎯	-9.83343
suq쎯ta쎯	-9.83345
쎆쎇	-9.8337
iak쎯	-9.83404
svc쎯wynn3쎯	-9.83449
ymhj0쎯aq쎯	-9.83485
px쎯r쎯	-9.83529
쎅wh쎯	-9.83556
wmg1쎯	-9.83589
dwg쎯	-9.8361
ipkh1쎯et쎯	-9.83612
ygu쎯wd쎯	-9.83627
aw쎯ybf0쎯	-9.8366
ta쎯ya쎯	-9.83691
aynq쎯	-9.83854
gx쎯	-9.83902
wwf쎯ait쎯d쎯	-9.83953
.ul쎯wtf쎯	-9.83971
,thd쎯	-9.84016
rnb쎯wsg0쎯	-9.84113
pgc쎯mw쎯	-9.84174
tg쎯u쎯xg쎯	-9.84284
,x쎯	-9.84312
쎀.쎅	-9.8433
bj쎯egc쎯	-9.84343
dd쎯uk쎯wv쎯	-9.84387
tdp쎯peg쎯	-9.84412
khq쎯	-9.84429
fg쎯fgh쎯	-9.84458
wgk쎯ua쎯	-9.8453
fuf0쎯pyg쎯	-9.84535
uqwm1쎯sg쎯	-9.84563
mga쎯	-9.84582
yud1쎯xl쎯	-9.8459
cd쎯lk쎯a쎯wt쎯	-9.84596
mu쎯	-9.84606
ymhj0쎯xe쎯	-9.8464
.sg쎯nnh쎯	-9.84652
sri쎯	-9.84669
jx쎯	-9.84683
atd쎯jgm쎯	-9.84882
iwf쎯tf쎯	-9.84936
쎃rh쎯	-9.84956
tfkp0쎯dn쎯	-9.84962
un쎯tgm쎯	-9.84962
jjjj0쎯ipkh1쎯	-9.84979
pfq쎯	-9.84984
,ak쎯	-9.84986
gh쎯fa쎯	-9.85058
gqjo0쎯	-9.85067
kmh0쎯	-9.85069
,ntk쎯gf쎯mmm쎯aq쎯.	-9.85115
anb0쎯sy쎯pe쎯	-9.85285
g쎯gkp쎯	-9.85367
)j쎯	-9.85367
tjt쎯vs쎯	-9.85388
쎁쎉쎈쎂rh쎯	-9.8542
vck쎯xtu쎯	-9.85429
xjk쎯	-9.85437
wfkb0쎯	-9.85469
qk쎯tq쎯:	-9.85541
pl쎯bw쎯	-9.85554
쎂쎀쎁쎀	-9.85571
afd1쎯vij쎯ith쎯	-9.85702
wv쎯wc쎯ngk쎯	-9.85768
dg쎯tffu쎯uqd2쎯	-9.85808
ynk쎯fcl쎯	-9.85874
cd쎯lk쎯b쎯	-9.85903
qnu1쎯	-9.85989
jtyl쎯rpw쎯	-9.86045
utem1쎯	-9.86092
gmww쎯wmj1쎯	-9.86094
rmn0쎯	-9.86099
wh쎯ntg쎯	-9.86154
cel쎯	-9.86178
txgi5쎯	-9.86193
bwg쎯	-9.86237
,ce쎯	-9.86243
nng쎯	-9.86325
,ntk쎯	-9.86378
br쎯	-9.86451
yw쎯fhw쎯	-9.86457
rny1쎯	-9.86485
쎁쎉쎈쎃rh쎯	-9.86545
쎇쎆	-9.86549
”tffu쎯	-9.86573
g쎯iyc쎯r쎯	-9.86655
ym쎯umd1쎯	-9.86707
tfqm1쎯	-9.86842
iqgg쎯	-9.86848
r쎯u쎯kkk쎯	-9.86865
khgm3쎯ytyh쎯ith쎯	-9.86868
w쎯fqu쎯xgb쎯nh쎯ty쎯	-9.86921
avi쎯	-9.86922
lx쎯	-9.86925
ipkh1쎯tl쎯gj쎯gk쎯	-9.86949
y쎯wtf쎯atd쎯jgm쎯	-9.87
itx쎯pl쎯	-9.87123
w쎯gk쎯	-9.87222
d쎯hx쎯	-9.87237
xxm쎯	-9.87252
.쎂zzbd3쎯	-9.87296
gqx쎯ynv쎯	-9.87305
gkf0쎯	-9.87324
fwy0쎯	-9.8733
puv쎯k쎯	-9.87336
e쎯g쎯	-9.87372
쎈쎂	-9.87381
쎅%	-9.87403
i쎯khu쎯	-9.8749
nk쎯	-9.87514
itdy쎯	-9.87514
p쎯su쎯	-9.87533
쎁쎉쎈쎀rh쎯	-9.87561
gx쎯fcl쎯	-9.87626
wyv쎯et쎯	-9.8765
wfh0쎯	-9.87657
tam쎯	-9.87695
yt쎯d쎯	-9.87705
waw쎯yid쎯	-9.87708
tq쎯kgn쎯.	-9.8775
bn쎯.	-9.87769
tn쎯	-9.87803
쎆wh쎯	-9.87847
je쎯wa쎯	-9.8787
cexo0쎯	-9.87926
ynv쎯	-9.87943
wqu쎯xgu쎯	-9.87949
th쎯gj쎯kkd쎯	-9.87951
fgh쎯gg쎯	-9.87958
qn쎯wynk쎯	-9.87994
쎃-	-9.88012
itfk0쎯	-9.88014
uejo0쎯	-9.88033
xfn쎯	-9.88039
쎇eee0쎯	-9.88109
wgkr1쎯	-9.88114
kgb쎯	-9.88235
sqj쎯eu쎯	-9.88295
tv쎯km쎯	-9.88373
uth쎯ftjb쎯	-9.88471
pnt쎯ya쎯	-9.8855
fnh쎯	-9.88551
ifh1쎯	-9.88587
sh쎯m쎯	-9.88616
wyv쎯tr쎯	-9.8865
쎁쎉쎇쎈rh쎯	-9.88674
sq쎯tfkp0쎯	-9.88745
r쎯tg쎯itd쎯	-9.8875
,fq쎯	-9.88751
tjs쎯	-9.88766
iy쎯ujn쎯	-9.88799
mw쎯dhb쎯	-9.88824
ykg0쎯	-9.8886
qejy쎯	-9.88893
ym쎯tu쎯rfc쎯	-9.88989
iry쎯iq쎯	-9.89006
cbts1쎯	-9.89043
tfq쎯fj쎯a쎯wt쎯ftj쎯	-9.89089
qtvb0쎯	-9.89099
tqdh0쎯	-9.8914
dd쎯bw쎯	-9.89144
wv쎯uyt1쎯yx쎯	-9.89174
ge쎯dp쎯	-9.89199
쎆쎃	-9.89201
tdj쎯	-9.89203
l쎯n쎯ipk쎯	-9.89203
:쎂	-9.89208
lg쎯uh쎯	-9.89211
ta쎯iit쎯	-9.89313
wy쎯thn쎯wx쎯	-9.89334
wj쎯xvk쎯b쎯	-9.89356
.adw쎯k쎯	-9.89402
lc쎯swc쎯	-9.89427
yyn2쎯	-9.89429
gajh쎯	-9.89443
xk쎯dd쎯r쎯	-9.89443
쎆쎉	-9.89516
fm쎯yy쎯	-9.89553
ltu0쎯wqj쎯	-9.89559
mqq쎯h쎯	-9.89566
j0쎯	-9.89611
cad쎯	-9.89613
fj쎯hi쎯	-9.8962
,aqt쎯	-9.89651
ryl쎯ta쎯	-9.89684
mb쎯	-9.89688
ih쎯gajf0쎯	-9.89745
qi쎯bw쎯	-9.89807
k쎯aw쎯ipk쎯km쎯	-9.89839
gku쎯ywfw0쎯	-9.89956
saj0쎯hw쎯	-9.89977
gjq쎯usr쎯	-9.90002
fje쎯qgu쎯	-9.90014
j쎯g쎯ffi쎯	-9.90045
mjq쎯	-9.9006
mt쎯wh쎯	-9.90089
쎀쎀	-9.9009
h쎯gh쎯	-9.90095
pwu0쎯	-9.90129
ujfj0쎯fqb0쎯	-9.90138
pgc쎯zzbd3쎯	-9.90214
ftbt쎯rep쎯,	-9.90237
ahtb0쎯	-9.90244
yn쎯fa쎯	-9.90298
jlx쎯	-9.90332
tga쎯	-9.90376
k쎯ax쎯	-9.904
qtd쎯	-9.90402
ftbt쎯dga쎯pgc쎯	-9.9045
&;	-9.90485
gkp쎯go쎯	-9.90516
′	-9.90532
sdw쎯	-9.90536
uw쎯	-9.90645
ipkh1쎯tl쎯	-9.90648
isj쎯	-9.90659
wgk쎯qqqq1쎯	-9.90671
lft쎯xf쎯	-9.90679
fj쎯tkgg1쎯	-9.90692
ga쎯rd쎯	-9.90693
wsg0쎯txi쎯yw쎯ygh쎯	-9.90711
px쎯wu쎯	-9.90722
tgj쎯pym쎯	-9.90723
hjj쎯	-9.90759
iqp쎯	-9.90774
tk쎯wh쎯	-9.90787
yff쎯sksw쎯	-9.90815
cqy쎯nhj쎯	-9.90833
ktm쎯	-9.9086
wc쎯fqb0쎯	-9.90902
yop쎯	-9.90959
y1쎯	-9.91064
wbj쎯uu쎯	-9.91065
tg쎯dhb쎯	-9.9107
uth쎯rx쎯	-9.91101
itx쎯qh쎯	-9.91105
agnt0쎯	-9.91125
rx쎯	-9.9114
rnu0쎯wx쎯	-9.91175
tx쎯쎂	-9.91211
.쎂.	-9.91321
xwf쎯	-9.91326
oth쎯	-9.91389
ss쎯og쎯	-9.91394
udb쎯ytyh쎯	-9.91419
rbcc쎯wqj쎯udi0쎯	-9.91472
tri쎯	-9.91508
hid쎯uthp0쎯	-9.91551
ryn1쎯gj쎯	-9.91557
es쎯bc쎯	-9.91599
lxx쎯wycb쎯	-9.91618
aet1쎯yygy쎯	-9.91639
jn쎯rnb쎯	-9.9169
yox쎯	-9.91694
fq쎯xg쎯	-9.91724
kt쎯	-9.91738
qtg쎯	-9.91745
,ld쎯o쎯	-9.91757
tdt쎯w쎯	-9.9179
sga쎯	-9.91833
yny0쎯ngc쎯	-9.91863
쎇쎃	-9.91889
gg쎯rh쎯	-9.91988
xm쎯	-9.92012
ip쎯fghg쎯ip쎯wug0쎯	-9.92049
wc쎯ga쎯	-9.92061
g쎯ddu1쎯	-9.92079
qtj쎯trf0쎯	-9.9209
nyi2쎯	-9.92131
jn쎯sm쎯	-9.92157
yfj0쎯jgm쎯	-9.92185
f0쎯	-9.92203
,hhhh쎯ue쎯	-9.92248
ad쎯ld쎯	-9.92279
et쎯go쎯	-9.92287
qjn쎯	-9.92301
uqd2쎯.	-9.92346
dnp쎯	-9.92389
bib쎯ovt쎯	-9.92401
rh쎯wa쎯	-9.92412
u쎯jg쎯	-9.92481
tjt쎯wgk쎯	-9.92491
yn쎯nn쎯	-9.92493
rb쎯》	-9.92505
dhb쎯wyf0쎯	-9.92507
uqwn2쎯	-9.92526
dd쎯www쎯	-9.92526
쎁쎉쎄쎉rh쎯	-9.92547
ivs쎯	-9.92594
w쎯n쎯tmh0쎯	-9.92596
ga쎯v쎯aq쎯	-9.92601
,kgn쎯	-9.92612
,wc쎯ngk쎯	-9.92645
,wb쎯wu쎯	-9.927
cbd쎯by쎯	-9.92714
gjq쎯qk쎯o쎯	-9.92729
p쎯j쎯	-9.92739
py쎯wf쎯tu쎯ip쎯	-9.92751
usi1쎯	-9.92787
wvl쎯	-9.92803
tgm쎯ltk쎯	-9.92819
wy쎯et쎯	-9.92865
mqc쎯	-9.92884
epw쎯	-9.92886
cm쎯www쎯	-9.92906
ce쎯jg쎯	-9.92925
aqt쎯uqd2쎯	-9.92955
vfhp1쎯sft쎯	-9.93034
nty0쎯o쎯	-9.93047
jn쎯dfy쎯	-9.93057
rmay쎯	-9.9307
dgj쎯tel쎯	-9.93086
av쎯dn쎯	-9.93088
cal쎯	-9.9313
p쎯jfd쎯	-9.93218
kj쎯qd쎯	-9.93233
wdt쎯vb쎯	-9.93243
jgg0쎯	-9.93269
ifn쎯ivs쎯	-9.93297
r쎯ad쎯sg쎯	-9.93465
fcr쎯	-9.93466
ux쎯yiu0쎯dd쎯ip쎯	-9.93488
fl쎯egl쎯	-9.9349
fny0쎯aft쎯	-9.93525
pta쎯	-9.93535
jvko0쎯thg1쎯	-9.93543
nnk쎯gkl쎯nnk쎯ta쎯	-9.93562
lu쎯o쎯	-9.93583
wye쎯rta쎯	-9.93676
fggh쎯okk쎯	-9.93682
xln0쎯qt쎯	-9.93688
sgyb0쎯	-9.93704
dm쎯cf쎯	-9.93867
xeg0쎯dn쎯r쎯	-9.93909
tdkj0쎯dhd쎯	-9.94022
uft쎯	-9.94031
ftg쎯ty쎯	-9.94224
v쎯tmdf1쎯	-9.94242
va쎯	-9.94302
vfhp1쎯gf쎯	-9.94327
ddg1쎯	-9.94356
쎉쎇	-9.94393
ujn쎯yq쎯	-9.94458
ipwk0쎯	-9.94503
whn쎯	-9.94516
nu쎯nxf쎯	-9.94605
ln쎯xwy0쎯	-9.94613
v쎯je쎯	-9.94686
ddh쎯uyh쎯	-9.94688
pp쎯rg쎯,	-9.94841
kw쎯j쎯	-9.94865
mmm쎯egc쎯	-9.94897
gh쎯ymc쎯	-9.949
adwn4쎯gcf쎯	-9.94905
ugdu쎯gmy0쎯r쎯	-9.94934
afs쎯hxf쎯	-9.94939
쎁쎉쎇쎉rh쎯	-9.94951
stt쎯	-9.94993
gu쎯dm쎯	-9.95024
yw쎯ykw쎯	-9.95024
.ul쎯	-9.95033
쎇쎇	-9.95051
uqd2쎯ddnl쎯	-9.95054
pe쎯ytt쎯	-9.95074
pwd쎯dhc쎯	-9.95087
dmj1쎯eg쎯	-9.95104
8쎯	-9.95108
pww쎯jqr쎯	-9.95164
gki쎯	-9.95165
gk쎯tl쎯	-9.95195
lfq쎯aq쎯	-9.95254
yned쎯	-9.95333
pvs쎯wgq쎯	-9.95355
ugdu쎯gmy0쎯	-9.95387
lw쎯wc쎯pgc쎯y쎯wtf쎯	-9.95405
sk쎯dp쎯	-9.95435
thd쎯y쎯	-9.955
6쎯	-9.95549
aak쎯	-9.95596
jn쎯iyc쎯	-9.95602
ip쎯km쎯	-9.95688
ywwg2쎯	-9.95698
pyuf0쎯	-9.95701
vfb쎯hxf쎯	-9.95718
df쎯	-9.95759
agnn1쎯	-9.95767
syp쎯	-9.95878
jsd쎯oug0쎯	-9.95913
m쎯su쎯	-9.9592
y쎯s쎯ww쎯gk쎯	-9.95977
tuh0쎯	-9.96046
qhk쎯	-9.9605
tx쎯쎁	-9.96107
wyc쎯w쎯	-9.96115
udy쎯ukq쎯	-9.96125
ym쎯dfy쎯	-9.96127
gkm쎯wgk쎯	-9.96143
fk쎯ss쎯	-9.96171
i쎯tj쎯	-9.9621
bu쎯wgk쎯wf쎯	-9.96217
g1쎯	-9.96296
rdc쎯	-9.96314
g0쎯	-9.9632
,gjq쎯	-9.96328
,iv쎯	-9.9633
trt쎯	-9.96375
qtb쎯	-9.96384
lgey2쎯	-9.96404
xv쎯wx쎯	-9.96419
x쎯iyj쎯v쎯nae0쎯	-9.96421
qbp쎯	-9.96422
rg쎯go쎯	-9.96457
bfm쎯pl쎯	-9.96474
nh쎯wys쎯	-9.96496
-쎃	-9.96503
tkh쎯od쎯	-9.96515
j쎯wh쎯	-9.96535
xwy0쎯tg쎯gxi쎯	-9.96537
kl쎯g쎯	-9.96547
iyw쎯wsg0쎯	-9.96576
tx쎯g쎯wh쎯	-9.9662
gv쎯	-9.96718
ddm쎯	-9.96722
gj쎯a쎯dd쎯ip쎯	-9.96728
wye쎯if쎯	-9.96797
umd1쎯kkkk1쎯	-9.96834
r쎯《	-9.96858
ga쎯ymc쎯	-9.96866
vfhp1쎯e쎯	-9.96912
wj쎯	-9.96926
dr쎯mj쎯	-9.96987
ux쎯yy쎯	-9.97012
ra쎯	-9.97022
iha쎯	-9.97028
rp쎯rh쎯go쎯	-9.97086
d쎯ux쎯yiu0쎯	-9.97088
je쎯jtg쎯	-9.97089
qm쎯gmu1쎯w쎯	-9.97135
gu쎯dr쎯	-9.97137
쎁쎉쎇쎆rh쎯	-9.97155
ys쎯	-9.97161
쎁쎉쎇쎀rh쎯	-9.97177
kkhn쎯	-9.97264
qq쎯rh쎯go쎯	-9.97268
ipgh0쎯ow쎯	-9.97292
gkih0쎯gj쎯	-9.97328
g쎯tg쎯	-9.97351
쎀쎈	-9.97363
rh쎯ya쎯	-9.97396
”o쎯	-9.97402
mw쎯tu쎯	-9.97405
xpw쎯	-9.97408
sfi쎯uwy0쎯wx쎯	-9.97421
aah0쎯	-9.97441
epi쎯hi쎯	-9.97457
me쎯fggh쎯	-9.97482
쎇쎄	-9.97503
ugh쎯udy쎯	-9.97505
tvfh0쎯jgm쎯	-9.97539
tak쎯xe쎯	-9.9755
gaj쎯	-9.97578
wys쎯wsg0쎯	-9.97583
sfi쎯fn쎯	-9.97651
hka쎯fghg쎯	-9.97723
,mh쎯gf쎯	-9.9774
ii쎯inx쎯	-9.97806
fgh쎯wty0쎯	-9.97808
dhd쎯	-9.97863
gah쎯ufy쎯	-9.9787
hwbc쎯	-9.97879
wxf쎯ai쎯	-9.97903
ax쎯kkk쎯	-9.97947
egc쎯w쎯n쎯ght쎯ywf쎯	-9.98034
wynk쎯e쎯	-9.98034
ga쎯ud쎯	-9.98065
ght쎯fl쎯	-9.98075
rh쎯lc쎯	-9.98081
fnhc0쎯	-9.98104
ad쎯nfc쎯	-9.9811
lwg쎯	-9.9814
cep쎯et쎯	-9.98163
wc쎯ngk쎯r쎯	-9.98167
t쎯gu쎯	-9.98207
g쎯fc쎯	-9.98218
ny쎯gj쎯ip쎯	-9.98218
al쎯yx쎯	-9.9822
txi쎯gq쎯u쎯kkk쎯	-9.98242
쎁쎉쎆쎅rh쎯	-9.98328
oanw쎯	-9.9836
ls쎯cw쎯	-9.98431
fghy1쎯	-9.98432
d쎯wg쎯l쎯	-9.98438
po쎯	-9.98451
qdb쎯bwg쎯	-9.98502
tw쎯	-9.98505
wjm쎯	-9.98543
mqc쎯nudu쎯	-9.98544
쎁쎉쎇쎄rh쎯	-9.98566
dmd쎯	-9.98608
dfi쎯	-9.98619
yi쎯wf쎯	-9.98654
c쎯ue쎯	-9.98732
tev쎯	-9.98734
gkl쎯nnh쎯yn쎯	-9.98792
gajf0쎯kgn쎯	-9.98818
ipg쎯kjj쎯	-9.98867
rnc쎯	-9.98956
ajdh쎯	-9.98962
vtk쎯wsg0쎯	-9.98976
vv쎯	-9.99015
acbt1쎯	-9.99018
xjm쎯et쎯	-9.9902
tei쎯	-9.99025
nnnn0쎯e쎯	-9.99026
uth쎯tfq쎯	-9.99076
uqt쎯yx쎯	-9.9908
,aw쎯	-9.99122
g쎯iyc쎯	-9.9914
atd쎯tg쎯	-9.99149
w쎯n쎯qev쎯yt쎯pl쎯	-9.99151
nty0쎯fj쎯	-9.99162
dfe쎯	-9.9917
uxh쎯	-9.99184
(쎁)	-9.99187
tf쎯og쎯r쎯	-9.99242
쎂쎀쎀쎇	-9.99263
ynnd쎯	-9.99269
iqv쎯	-9.99271
쎆쎁	-9.99293
tx쎯g쎯uqw쎯	-9.99325
dxy쎯	-9.99332
nii0쎯	-9.99332
gjq쎯qq쎯	-9.99355
tmh0쎯	-9.9942
ripq0쎯rufh1쎯	-9.99463
lfo쎯dx쎯ia쎯	-9.99489
mq쎯jy쎯	-9.99518
ynma쎯	-9.9952
rfc쎯	-9.99522
wfny0쎯dskf쎯	-9.9956
bf쎯	-9.99569
emc쎯wwv쎯	-9.99571
vk쎯hx쎯	-9.99664
kcb0쎯	-9.99695
wgc쎯ty쎯	-9.99706
dm쎯tkw쎯쎂	-9.99737
〕	-9.99762
um쎯sfi쎯	-9.99776
dn쎯wv쎯	-9.99786
uge쎯	-9.99797
,pb쎯	-9.99817
ipkm1쎯	-9.9987
쎇쎉	-9.9988
kf쎯thg1쎯	-9.99901
eb쎯tl쎯kkd쎯	-10.0002
r쎯ad쎯dbm쎯h쎯	-10.0006
g쎯gcft0쎯	-10.0006
pwd쎯	-10.0006
h쎯ymhj0쎯	-10.0011
ajq쎯	-10.0014
ovt쎯rnd1쎯ylk0쎯	-10.0021
.gm쎯	-10.0025
nhj쎯rrr쎯rfm쎯	-10.0028
dgty쎯	-10.0035
jtyl쎯pwfi0쎯	-10.0036
pv쎯rdj쎯	-10.0044
db쎯pt쎯	-10.0045
fcp쎯wt쎯	-10.0046
fd쎯egc쎯	-10.0049
ii쎯tjh쎯	-10.0053
egcn쎯	-10.0053
tp쎯uthp0쎯	-10.0053
ftx쎯rh쎯	-10.0054
kqw쎯	-10.0057
xkw쎯	-10.0071
quj쎯udi0쎯	-10.0076
tym쎯	-10.0081
dd쎯tffh1쎯	-10.0083
wv쎯sgn쎯	-10.0088
sg쎯f쎯	-10.009
쎂쎀쎁쎃rh쎯	-10.0092
cep쎯uthp0쎯	-10.0094
rk쎯	-10.0101
ymhj0쎯tv쎯	-10.0103
pfq쎯gkih0쎯	-10.0105
.p쎯	-10.0106
emc쎯sfiu1쎯	-10.0107
쎆-	-10.0109
tj쎯gc쎯b쎯	-10.0113
cqw쎯	-10.0114
viq쎯	-10.0118
dg쎯fgh쎯	-10.0121
ijx쎯uxt쎯ffff1쎯	-10.0121
jb쎯hw쎯	-10.0131
쎀쎅	-10.0139
iyc쎯tkgg1쎯	-10.0142
qyt쎯	-10.0143
pds쎯	-10.0145
pgk쎯e쎯	-10.0148
jb쎯o쎯	-10.015
rgv쎯	-10.0154
wfd0쎯	-10.0156
dmh0쎯nnk쎯	-10.0156
xg쎯kht쎯	-10.0159
r쎯dd쎯gajf0쎯	-10.0161
쎁쎉쎇쎂rh쎯	-10.0163
amw쎯isk쎯	-10.0168
fuk쎯	-10.0168
ukn쎯xyc쎯	-10.0168
bwf쎯ntk쎯	-10.0169
dgt1쎯yny0쎯	-10.0169
vfhp1쎯tfkp0쎯	-10.017
rfw쎯	-10.017
dj쎯rh쎯	-10.0177
pfq쎯ugdu쎯	-10.0178
cf쎯qh쎯	-10.0179
(쎂)	-10.018
ap쎯	-10.0181
ep쎯vb쎯ftj쎯	-10.0183
eud쎯	-10.0184
쎈쎇	-10.0196
쎉쎄	-10.0197
ssk쎯	-10.0203
fp쎯fcu1쎯	-10.0204
hq쎯ds쎯	-10.0205
fgh쎯dg쎯	-10.0207
fj쎯wht쎯	-10.0217
5쎯	-10.0217
qvfp1쎯tel쎯	-10.0218
lh쎯dd쎯	-10.0218
infy쎯	-10.0221
rvyf0쎯	-10.0223
jfd쎯,	-10.0224
lgey2쎯nf쎯	-10.0227
vvf1쎯	-10.0231
쎁쎉쎇쎃rh쎯	-10.0239
jvko0쎯je쎯	-10.0241
쎁쎈쎀	-10.0241
qdb쎯	-10.0251
um쎯qyv쎯	-10.0253
pe쎯nd쎯	-10.0259
fgh쎯rh쎯	-10.0266
ym쎯xe쎯ftbt쎯jgm쎯	-10.0267
쎁쎉쎇쎅rh쎯	-10.0271
nh쎯vi쎯	-10.0272
deb쎯	-10.0276
jcf쎯	-10.0276
gae쎯pww쎯	-10.0287
tffu쎯qq쎯tkh쎯	-10.0289
ipk쎯tv쎯	-10.0291
lh쎯rh쎯	-10.0299
tx쎯uy쎯	-10.03
rfq쎯	-10.0301
ynm쎯	-10.0302
dl쎯kq쎯h쎯	-10.0302
,ua쎯d쎯	-10.0306
vi쎯ujf0쎯	-10.031
nnh쎯tdij0쎯	-10.031
ftbt쎯pgc쎯	-10.0314
fny0쎯tu쎯	-10.0315
sc쎯dgv쎯	-10.0315
uxt쎯	-10.032
ym쎯ijl쎯	-10.032
ig쎯	-10.0323
aqt쎯tj쎯b쎯	-10.0326
iqc쎯cep쎯	-10.0328
pei쎯og쎯dd쎯ip쎯	-10.0328
wht쎯nty0쎯	-10.0336
nyi2쎯fghy1쎯:	-10.0337
gmf쎯uqw쎯	-10.0341
r쎯dd쎯	-10.0342
bk쎯ce쎯	-10.0343
”t쎯“	-10.0346
o쎯y쎯r쎯	-10.0349
qmq쎯qr쎯	-10.0349
iie쎯by쎯	-10.035
ufw쎯	-10.0351
wtfm1쎯waj0쎯	-10.0351
tlf0쎯et쎯	-10.0353
qqq쎯	-10.0353
,g쎯tem쎯	-10.0357
rep쎯sc쎯	-10.0357
qu쎯	-10.0357
i쎯s쎯	-10.0358
ians0쎯uthp0쎯	-10.0364
쎁쎉쎆쎂rh쎯	-10.0367
rs쎯qgb쎯	-10.0369
rnnw0쎯	-10.0369
uejv0쎯	-10.0375
fh쎯ntk쎯	-10.0375
o쎯pt쎯yne쎯rj쎯waw쎯	-10.0378
yff쎯yngk1쎯	-10.0383
nj쎯	-10.0385
jgm쎯aib쎯ip쎯bpf쎯	-10.0387
ul쎯d쎯	-10.0389
jn쎯kht쎯	-10.039
pu	-10.0392
쎁쎉쎆쎈rh쎯	-10.0392
ue쎯rg쎯	-10.0396
fqu쎯o쎯	-10.0397
쎁쎉쎅쎇rh쎯	-10.0398
ipk쎯xeg0쎯nnh쎯yn쎯	-10.0399
v쎯fcl쎯sm쎯	-10.0399
djd쎯iyt1쎯	-10.0406
ms쎯	-10.0409
a쎯wt쎯;	-10.041
xgu쎯us쎯	-10.041
()j쎯	-10.041
ur쎯	-10.0412
쎈쎉	-10.0412
쎈쎄	-10.0418
fqp쎯tkgg1쎯	-10.0418
lf쎯	-10.0419
ige쎯ii쎯	-10.042
,tfq쎯rg쎯	-10.0428
ym쎯si쎯	-10.0431
ige쎯jsr쎯	-10.0436
qe쎯ya쎯	-10.0437
bb쎯,	-10.0439
쎈쎃	-10.044
od쎯wny1쎯	-10.0441
qnq쎯wyv쎯	-10.0441
xh쎯nf쎯	-10.0442
rae쎯	-10.0443
bg쎯jtg쎯	-10.0443
r쎯yy쎯if쎯	-10.0443
wy쎯iwyf1쎯	-10.0444
uthp0쎯tfl쎯	-10.0445
r쎯f쎯yy쎯	-10.0447
bwt쎯b쎯	-10.0458
쎁쎉쎈쎁rh쎯	-10.046
pp쎯ue쎯	-10.0464
)zzbd3쎯《	-10.0468
bm쎯b쎯	-10.047
jy쎯hko쎯	-10.0474
yid쎯yynw1쎯	-10.0481
wt쎯og쎯	-10.0487
e쎯hxf쎯	-10.0492
temq0쎯	-10.0492
rn쎯yle쎯	-10.0493
fhw쎯pu쎯	-10.0495
uqt쎯yid쎯	-10.0496
gae쎯dn쎯b쎯	-10.0496
qdt쎯	-10.0501
dr쎯vck쎯	-10.0502
qqk쎯	-10.0507
wwg쎯	-10.0509
ybf0쎯e쎯	-10.0512
am쎯fmud쎯	-10.0513
pw쎯ymf쎯	-10.0516
쎇-	-10.0517
iv쎯rh쎯	-10.0519
uk쎯wug0쎯	-10.0527
쎂쎀쎀쎈	-10.0531
g쎯gh쎯	-10.0531
fhw쎯ghd1쎯	-10.0531
shi쎯	-10.0536
begg쎯	-10.0542
yygy쎯tr쎯wk쎯ryn1쎯	-10.0542
dfek쎯	-10.0545
,fcb쎯	-10.0545
epi쎯	-10.0547
쎈wh쎯	-10.0552
ih쎯xeg0쎯	-10.0555
tgm쎯	-10.0559
wfy0쎯	-10.056
emc쎯wwv쎯e쎯bv쎯	-10.056
iyc쎯jg쎯	-10.056
if쎯ip쎯	-10.0563
rlg0쎯ck쎯	-10.0566
lw쎯gj쎯	-10.0571
dfa쎯	-10.0572
g쎯adm쎯	-10.058
ip쎯sy쎯ywx쎯yygy쎯	-10.0581
jtyq1쎯	-10.0582
ese쎯qc쎯	-10.0585
h쎯xe쎯	-10.0586
fcp쎯fcl쎯km쎯	-10.0589
hic쎯	-10.0591
pe쎯fl쎯wf쎯wf쎯km쎯	-10.0594
쎉쎃	-10.0595
ltu0쎯pvs쎯	-10.0595
.q쎯wu쎯	-10.0597
bv쎯rmhj쎯	-10.0597
wgen1쎯	-10.0602
쎀쎁	-10.0602
wdn쎯te쎯ftbt쎯jgm쎯	-10.0606
adwr0쎯trf0쎯	-10.0607
go쎯idr쎯	-10.062
telb쎯	-10.063
lftj쎯	-10.0638
eerq쎯	-10.0642
쎁rh쎯	-10.0643
aws쎯kf쎯	-10.0644
amd쎯fghy1쎯	-10.0646
ipk쎯fc쎯uk쎯	-10.0649
oja쎯	-10.0653
wvf0쎯tmd쎯	-10.0654
jfd쎯r쎯	-10.0655
ahnh2쎯	-10.0656
gmw쎯	-10.0659
vf쎯ra쎯	-10.066
nnh쎯yn쎯	-10.0661
wb쎯wu쎯r쎯	-10.0669
nf쎯gcft0쎯	-10.0672
aw	-10.0674
sm쎯kkd쎯	-10.0675
쎁쎉쎆쎀rh쎯	-10.0677
ydjn1쎯	-10.0678
tg쎯fcl쎯	-10.0685
.쎃zzbd3쎯	-10.0686
r쎯yy쎯aa쎯	-10.0688
nui쎯tf쎯	-10.0689
xxf쎯og쎯rg쎯	-10.0689
rd쎯nae0쎯	-10.0691
rnb쎯qje쎯	-10.0693
쎁쎉쎆쎃rh쎯	-10.0693
ukn쎯wc쎯ngk쎯	-10.0706
jqb쎯	-10.0706
gkp쎯wycm1쎯	-10.0707
rg쎯adwe1쎯	-10.0713
ftg쎯pwfi0쎯	-10.0713
pnt쎯fffy0쎯	-10.0715
gmww쎯rh쎯	-10.0719
wt쎯et쎯.	-10.0725
hka쎯tmc쎯	-10.0726
wyl쎯	-10.0726
pyg쎯ytyh쎯	-10.0726
nhd0쎯	-10.0727
qk쎯w쎯	-10.0737
fnrt쎯rn쎯	-10.0738
cds쎯	-10.0738
nae0쎯ga쎯	-10.0741
trs쎯trtg쎯	-10.0742
sq쎯vfhp1쎯	-10.0742
eb쎯qnth쎯	-10.0744
wgk쎯st쎯	-10.0745
,yt쎯ty쎯	-10.0749
pntj0쎯	-10.075
yta쎯gh쎯	-10.0752
ygh쎯je쎯	-10.0752
tu쎯ip쎯ad쎯qqqq1쎯	-10.0766
atj쎯	-10.0767
nmh쎯	-10.0768
lqj쎯	-10.077
kfg쎯	-10.0772
pu쎯og쎯	-10.0772
k쎯mmm쎯	-10.0775
tg쎯dn쎯	-10.0777
q쎯r쎯	-10.078
tfq쎯fj쎯wh쎯w쎯	-10.0782
usr쎯vfhp1쎯	-10.0783
쎇쎀쎀	-10.0793
o쎯y쎯.	-10.0796
rh쎯hwbc쎯	-10.0798
r쎯wt쎯et쎯	-10.08
apg쎯dgh쎯	-10.08
tld1쎯iyw쎯	-10.0802
ve쎯	-10.0803
mdf0쎯dgtg0쎯	-10.0804
fg쎯rh쎯	-10.0806
twf쎯	-10.0808
,f쎯th쎯	-10.0808
m쎯hi쎯	-10.081
rmhj쎯dn쎯	-10.081
sg쎯tmd쎯	-10.0811
ud쎯ab쎯	-10.0812
yynw1쎯sf쎯	-10.0812
tdp쎯et쎯	-10.0813
dn쎯ftjb쎯ymhj0쎯	-10.0815
teg1쎯	-10.0815
wcn0쎯	-10.0815
k쎯e쎯	-10.0819
mqi0쎯	-10.082
r쎯eb쎯tl쎯	-10.082
mdff3쎯	-10.082
ykw쎯klj쎯	-10.0821
k쎯l쎯tu쎯ip쎯bpf쎯	-10.0823
tga쎯fh쎯	-10.0826
쎂쎅쎀	-10.0832
ad쎯sg쎯cd쎯ovt쎯	-10.0835
anu0쎯	-10.0836
awsk쎯	-10.0838
wc쎯rtt0쎯	-10.0839
bwj쎯	-10.0839
iqny쎯	-10.0841
ll쎯bb쎯	-10.0841
tgj쎯jg쎯	-10.0848
lkd쎯:“	-10.085
y쎯s쎯j쎯	-10.085
kw쎯ce쎯	-10.085
auqw쎯	-10.0851
uj쎯,	-10.0852
쎂쎀쎀쎃	-10.0852
쎀쎉	-10.0853
uwy0쎯dqe쎯	-10.0854
qty2쎯	-10.0855
ra쎯gc쎯	-10.0856
agq쎯	-10.0856
f쎯aq쎯r쎯	-10.0856
ua쎯i쎯	-10.0859
cbq쎯	-10.086
,you1쎯	-10.0866
쎁쎉쎆쎄rh쎯	-10.0866
fny0쎯jghm1쎯	-10.0874
awv쎯	-10.0875
,rj쎯ym쎯	-10.0876
》r쎯	-10.0882
ymc쎯yf쎯jgm쎯	-10.0882
fwm쎯	-10.0883
uji2쎯	-10.0884
gmiu쎯	-10.0889
tffu쎯tffu쎯	-10.0891
rqn쎯	-10.0894
rg쎯r쎯	-10.0895
af쎯	-10.0896
uck쎯qqqq1쎯	-10.0898
sup쎯	-10.0899
ftj쎯.	-10.0901
쎀쎂	-10.0902
e쎯《	-10.0905
utd쎯	-10.0907
쎉쎂	-10.0908
rlf0쎯	-10.0911
g쎯uk쎯	-10.0912
ugdu쎯wyv쎯	-10.0912
rs쎯ga쎯	-10.0914
wgu쎯	-10.0915
a쎯og쎯dd쎯ip쎯	-10.0917
쎁쎆쎀	-10.092
vp쎯	-10.0922
wam쎯ffi쎯	-10.0922
gk쎯dty0쎯	-10.0922
mt쎯tuh0쎯	-10.0924
wc쎯pjm쎯	-10.0925
wgk쎯ec쎯	-10.0926
쎁쎉쎆쎉rh쎯	-10.093
jn쎯pym쎯ndj쎯	-10.0939
wfny0쎯xyc쎯r쎯	-10.094
uo쎯ynm쎯	-10.0942
imj쎯pg쎯	-10.0943
gyiy쎯	-10.0946
riq쎯hka쎯	-10.0947
wycb쎯	-10.0949
ipkh1쎯mqb쎯	-10.0949
쎁쎉쎆쎆rh쎯	-10.0964
xkjn1쎯	-10.0969
쎂쎀쎀쎉	-10.0976
.vbn쎯	-10.0977
wh쎯wsg0쎯	-10.0977
c쎯o쎯	-10.0981
tfpd0쎯	-10.0981
k쎯qh쎯	-10.0992
dy쎯gu쎯	-10.0994
nnw쎯rgv쎯	-10.0998
uqt쎯uwl쎯	-10.1
tom쎯	-10.1
fwm쎯mj쎯	-10.1001
ie쎯	-10.1002
yssc0쎯if쎯	-10.1003
pym쎯ipmq쎯	-10.1003
a쎯tkgg1쎯ip쎯bpf쎯	-10.1003
쎁.쎂	-10.1006
yvi쎯tjt쎯	-10.1006
qq쎯al쎯ce쎯	-10.1012
gh쎯lpdk1쎯	-10.1013
bm쎯ffff1쎯	-10.1015
ps쎯ihc쎯	-10.1017
pvs쎯wrh1쎯	-10.1021
rma쎯	-10.1023
fgi쎯	-10.1023
oge쎯amd쎯	-10.1031
jgf쎯	-10.1035
k쎯sghg1쎯atd쎯	-10.1037
gjq쎯qq쎯r쎯	-10.1041
nj쎯ntg쎯	-10.1042
ngk쎯if쎯	-10.1043
쎀쎆	-10.1046
r쎯a쎯wt쎯	-10.105
klj쎯jfcf쎯	-10.1051
쎁.쎀	-10.1055
et쎯wtp쎯	-10.1055
g쎯hko쎯	-10.1055
ukk쎯	-10.1058
,lk쎯ty쎯	-10.1058
.dl쎯wtf쎯	-10.106
atg쎯gk쎯ta쎯	-10.1063
k0쎯	-10.1063
쎁쎉쎇쎁rh쎯	-10.1067
ovt쎯fgh쎯	-10.1067
v쎯yce쎯	-10.1073
ukqb2쎯pfjm1쎯	-10.1073
vo쎯itd쎯	-10.1074
iyw쎯dfy쎯	-10.1074
udy쎯,	-10.1082
,g쎯	-10.1085
yb쎯bb쎯	-10.1088
vcn1쎯	-10.1089
qtb쎯ldj쎯	-10.1089
xk쎯wx쎯	-10.1091
jf쎯uj쎯:	-10.1095
itd쎯fcl쎯,	-10.1097
ntg쎯rfm쎯	-10.1106
wc쎯pv쎯	-10.1109
d0쎯	-10.1112
xx쎯wgq쎯	-10.1113
qmq쎯ggw쎯	-10.1119
ukn쎯x쎯gj쎯	-10.1122
ugdu쎯sy쎯ip쎯bpf쎯	-10.1124
ftl쎯	-10.1128
udng0쎯	-10.1128
tdp쎯	-10.113
ip쎯wug0쎯.	-10.1133
ivg쎯	-10.1134
gmww쎯uqw쎯	-10.1138
ians0쎯	-10.1146
쎃.쎅	-10.1151
gmap쎯	-10.1154
ijl쎯riu0쎯	-10.1158
oufg쎯	-10.1163
.쎁쎂	-10.1163
wdn쎯ugdu쎯	-10.1172
k쎯yygy쎯txi쎯	-10.1177
rnnw0쎯pgn쎯	-10.1179
fgh쎯uy쎯	-10.1181
xyx쎯	-10.1181
mwy0쎯	-10.1183
oge쎯pnt쎯	-10.1185
”j쎯	-10.1187
hhhh쎯r쎯	-10.119
ii쎯tev쎯	-10.1192
kl쎯	-10.1192
iry쎯	-10.1194
,k쎯aw쎯ipk쎯km쎯,	-10.1198
,lk쎯	-10.12
y0쎯	-10.1204
whf0쎯og쎯r쎯	-10.1204
iq쎯ip쎯	-10.1205
h쎯e쎯	-10.1205
qgo쎯	-10.1208
wyn쎯	-10.1209
js쎯pu쎯	-10.1209
tep쎯je쎯	-10.1211
dj쎯vtg쎯	-10.1212
쎁쎉쎅쎂rh쎯	-10.1213
gq	-10.1222
wfny0쎯》	-10.1227
fhv쎯xe쎯	-10.1229
rkk쎯wt쎯txi쎯xyc쎯	-10.1241
tfj0쎯	-10.1247
d쎯p쎯jfd쎯	-10.1249
wv쎯wf쎯	-10.126
dhq쎯	-10.126
):	-10.1263
al쎯uqt쎯	-10.1264
쎀쎃	-10.1264
ugk쎯	-10.1265
x쎯iyj쎯ukn쎯nh쎯ty쎯	-10.1268
qqc쎯	-10.1268
b쎯g쎯wh쎯	-10.1269
fhn쎯yq쎯	-10.1271
wtr쎯	-10.1273
gef쎯dw쎯	-10.1275
fhqv0쎯rvyl0쎯	-10.1277
pynk0쎯	-10.1278
yi쎯sk쎯c쎯	-10.1279
wsg0쎯gm쎯	-10.128
:쎃	-10.1288
pwfi0쎯	-10.1289
fqu쎯e쎯	-10.1297
ypk쎯	-10.1301
caq쎯fcl쎯	-10.1304
uqwl쎯	-10.1305
yca쎯	-10.1306
dn쎯b쎯	-10.1307
ipw쎯ya쎯	-10.1311
r쎯jf쎯uj쎯	-10.1312
il쎯	-10.1316
kt쎯ke쎯	-10.1331
puv쎯adwe1쎯	-10.1332
etg쎯tjh쎯	-10.1335
.dmj1쎯	-10.1338
tjh쎯uwl쎯	-10.1343
ad쎯uk쎯	-10.1344
rn쎯d쎯	-10.1344
.iv쎯	-10.135
wtf쎯ftbt쎯	-10.1352
qgh쎯	-10.1355
ygk쎯yygy쎯	-10.1356
gae쎯udy쎯	-10.1356
xcy0쎯	-10.1366
j쎯“	-10.1369
td쎯ykw쎯u쎯sc쎯	-10.1373
,wkh0쎯fj쎯	-10.1378
lkb쎯	-10.138
qh쎯l쎯	-10.138
rkm쎯	-10.1385
xeg0쎯xkw쎯pu쎯ytb쎯	-10.1385
쎁쎂쎈	-10.1385
lwg쎯udp쎯	-10.139
쎁쎉쎅쎉rh쎯	-10.1393
pv쎯egc쎯	-10.1394
tg쎯u쎯r쎯	-10.1398
tffu쎯pei쎯wt쎯tr쎯.	-10.1399
gm쎯o쎯	-10.1399
faf1쎯	-10.1402
sgn쎯tlf0쎯	-10.1402
sfiq0쎯	-10.1404
ruv쎯nh쎯	-10.1412
sk쎯mqb쎯	-10.1414
wycm1쎯tfq쎯	-10.1415
sgy쎯	-10.1416
temk0쎯ter1쎯	-10.1417
g쎯wdm쎯	-10.1417
sad쎯	-10.1425
by쎯hh쎯	-10.1425
puhc쎯tq쎯o쎯	-10.1426
gd쎯f쎯	-10.1426
wfny0쎯dgkn0쎯kkd쎯	-10.1428
pyv쎯	-10.1429
uit쎯	-10.1431
iyc쎯fcl쎯	-10.1433
es쎯mqc쎯	-10.1435
ih쎯qt쎯	-10.1437
rxj쎯pg쎯	-10.1439
qqw쎯	-10.144
uqwm1쎯ipw쎯	-10.1442
kkkk1쎯epw쎯	-10.1444
egc쎯xe쎯	-10.1449
쎁kgn쎯	-10.1449
쎁쎉쎅쎀rh쎯	-10.1454
yf쎯jg쎯	-10.1458
dd쎯std쎯	-10.1459
bc쎯tj쎯b쎯	-10.1463
wc쎯y쎯	-10.1467
buj쎯djg쎯	-10.1468
alw쎯bu쎯	-10.1469
xef쎯	-10.1469
b쎯.	-10.1473
qk쎯o쎯	-10.1477
tv쎯rta쎯	-10.1484
uk쎯,	-10.1488
djdn3쎯	-10.1488
kwyg0쎯	-10.149
udyj쎯tg쎯	-10.1491
bbh0쎯	-10.1493
egc쎯tv쎯	-10.1495
rfm쎯jg쎯tp쎯gj쎯	-10.1495
ain쎯	-10.1497
yvk쎯	-10.1498
irr쎯	-10.15
bk쎯tl쎯	-10.15
ntg쎯t쎯	-10.151
xtdh0쎯	-10.1512
rua쎯	-10.1517
ap	-10.1519
dif쎯f쎯	-10.152
std쎯ivw쎯	-10.1521
mc쎯mrg0쎯	-10.1524
ojf쎯	-10.1526
ugm쎯w쎯	-10.1527
dif쎯	-10.1528
쎂쎀쎀쎆	-10.1529
쎈-	-10.1532
f쎯qr쎯	-10.1534
wxm쎯tmh0쎯	-10.1537
w쎯ovt쎯	-10.1541
ojf쎯ruv쎯	-10.1542
gc쎯dp쎯	-10.1543
wfg1쎯	-10.1544
e쎯g쎯wh쎯	-10.1545
gh쎯ntk쎯	-10.1548
yo쎯dn쎯	-10.1563
awx쎯faj쎯	-10.1566
sf쎯zzbd3쎯	-10.1566
awsk쎯uff쎯	-10.1566
gah쎯ic쎯ymhj0쎯	-10.1567
쎀쎇	-10.1567
dw쎯to쎯	-10.1569
쎃쎀쎀쎀	-10.157
f쎯gj쎯wug0쎯lfhf쎯	-10.157
ukn쎯uk쎯	-10.1576
qd쎯rg쎯	-10.1579
ijlc쎯	-10.1583
ai쎯yiu0쎯	-10.1584
mfk쎯adwe1쎯	-10.1584
itp쎯	-10.1589
fny0쎯og쎯ww쎯gk쎯	-10.159
jn쎯xjt쎯	-10.1591
mhh쎯	-10.1594
trf0쎯tkh쎯	-10.1595
ajt쎯qc쎯	-10.1597
vcb쎯sk쎯.	-10.1598
jyie쎯wqj쎯	-10.1604
lfn쎯rq쎯	-10.1604
zzbd3쎯ym쎯	-10.1607
f쎯ltu0쎯	-10.1615
x쎯gj쎯	-10.1617
ruv쎯kkkk1쎯:	-10.1619
jgm쎯tg쎯	-10.1622
wqbh0쎯	-10.1629
r쎯dty0쎯gk쎯	-10.1647
d쎯l쎯mw쎯	-10.165
ige쎯wxf쎯dd쎯ip쎯	-10.1651
kkh0쎯	-10.1653
ugk쎯shi쎯	-10.1653
dr쎯bb쎯	-10.1665
mfky쎯ynt0쎯	-10.1669
gk쎯tr쎯	-10.167
dgkn0쎯ipmq쎯	-10.1672
쎁쎉쎅쎅rh쎯	-10.1674
》aqt쎯	-10.1675
wv쎯sfc쎯	-10.1677
sg쎯kkk쎯	-10.1679
wv쎯tp쎯	-10.1679
》t쎯《	-10.168
gkim1쎯	-10.1686
a쎯um쎯	-10.1686
dm쎯ow쎯	-10.1691
xat0쎯	-10.1694
fl쎯wf쎯wf쎯km쎯	-10.1699
dr쎯wbj쎯	-10.17
txi쎯xyc쎯zzbd3쎯	-10.17
ecl쎯	-10.1709
whf0쎯og쎯,	-10.1709
wht쎯tjt쎯	-10.171
yuvo1쎯	-10.1712
uqyl쎯	-10.1715
gmi쎯iry쎯	-10.1719
nv쎯	-10.172
tg쎯u쎯ad쎯f쎯	-10.1721
hk쎯f쎯	-10.1725
oft쎯	-10.1726
qnr쎯yhk쎯	-10.1728
yny0쎯f쎯u쎯ga쎯v쎯	-10.1729
uu쎯wsg0쎯	-10.173
,ntk쎯gf쎯	-10.173
nfc쎯uqw쎯	-10.1734
tu쎯rfc쎯dd쎯ip쎯	-10.1735
,gf쎯	-10.174
쎄.	-10.174
쎁쎉쎅쎃rh쎯	-10.1741
j쎯g쎯rn쎯	-10.1742
lt쎯ip쎯	-10.1742
ltu0쎯gae쎯	-10.1742
naj0쎯ipkh1쎯	-10.1744
uqf쎯adw쎯	-10.1751
iyc쎯cep쎯	-10.1752
rpws쎯yfy2쎯	-10.1753
dgt1쎯um쎯	-10.1758
agu쎯js쎯	-10.1759
gkp쎯e쎯	-10.1763
aqo쎯	-10.1763
wgj쎯tjh쎯	-10.1767
쎁쎉쎇쎇rh쎯	-10.1767
tgv쎯bd쎯	-10.1769
auq쎯	-10.1775
ith쎯ymhj0쎯	-10.1775
dgtg0쎯pe쎯yfd쎯	-10.1776
,vfhp1쎯tam쎯	-10.1777
bs쎯qiu0쎯	-10.1777
py쎯lft쎯	-10.1778
tk쎯dd쎯	-10.1779
idt쎯	-10.1779
vii쎯ntk쎯	-10.1784
puw쎯	-10.1793
fhb쎯	-10.1794
jan쎯	-10.1799
:쎁.	-10.1802
pwkw쎯	-10.1803
wdn쎯te쎯r쎯	-10.1803
tffu쎯bk쎯.	-10.1805
rp쎯wa쎯	-10.1806
iwe쎯	-10.1807
suq쎯aq쎯	-10.1809
---	-10.181
쎅rh쎯	-10.181
iw쎯fhb쎯	-10.1811
g쎯rx쎯	-10.1815
:《	-10.1815
it쎯vvv쎯	-10.1818
wqj쎯gxi쎯	-10.1818
qkq쎯umc쎯	-10.1821
wwg쎯nnh쎯	-10.1823
,nnnn0쎯	-10.1823
img쎯gl쎯	-10.1827
,q쎯	-10.1827
쎀.쎀	-10.1827
d쎯ugdu쎯l쎯	-10.1829
tlo쎯	-10.1829
xeg0쎯dn쎯.	-10.183
dgj쎯wrh1쎯	-10.1834
nkue0쎯	-10.1834
rqci0쎯lt쎯	-10.1835
쎂)	-10.1835
pw쎯pl쎯	-10.1835
fjgh0쎯	-10.1837
쎁zzbd3쎯	-10.1837
쎂쎀쎁쎁	-10.184
rpw쎯emc쎯	-10.1844
pnt쎯dcg쎯	-10.1848
쎉쎀쎀	-10.1848
lkmi0쎯gae쎯	-10.1855
txg쎯g쎯wh쎯	-10.1861
wc쎯py쎯	-10.1862
yud1쎯	-10.1864
ygu쎯ywx쎯	-10.1867
whf0쎯	-10.1867
aqg쎯aqr쎯	-10.1879
pjv쎯	-10.188
cccg0쎯	-10.1881
rxj쎯ovt쎯	-10.1883
tfk0쎯rh쎯	-10.1884
xten1쎯	-10.1886
fha쎯fm쎯	-10.1892
aib쎯lfnh쎯mw쎯	-10.1895
uqsg쎯img쎯	-10.1897
r쎯ymc쎯yf쎯	-10.1898
dgh쎯fd쎯	-10.19
lpdk1쎯aq쎯	-10.19
bm쎯go쎯r쎯	-10.1901
tx쎯fg쎯nm쎯	-10.1901
():	-10.1902
yo쎯gae쎯	-10.1907
g쎯pg쎯r쎯	-10.1909
qq쎯tyna2쎯	-10.1911
sm쎯jn쎯	-10.1914
yny0쎯uj쎯	-10.1922
wgku1쎯yn쎯	-10.1928
gah쎯sy쎯	-10.1929
g쎯kw쎯	-10.1931
wgkb0쎯qk쎯	-10.1935
qq쎯ovt쎯	-10.1936
fgh쎯dd쎯	-10.1938
uxxn0쎯	-10.194
d쎯bk쎯	-10.1941
sg	-10.1942
e쎯:	-10.1943
wdt쎯bm쎯	-10.1946
eqd쎯	-10.1951
yfy2쎯ywx쎯	-10.1958
g쎯wa쎯	-10.1963
th쎯th쎯ta쎯	-10.1964
ytn쎯lfn쎯	-10.1965
jx쎯jhny쎯	-10.1969
ukn쎯xf쎯	-10.1971
xh쎯fhn쎯r쎯	-10.1971
dnv0쎯gu쎯yy쎯oy쎯,	-10.1976
pww쎯jg쎯	-10.1977
r쎯jyie쎯ktm쎯	-10.1978
txg쎯g쎯	-10.1978
by쎯ryn1쎯	-10.1988
eeq쎯	-10.1991
tmc쎯	-10.1991
쎁)	-10.1992
uq쎯rq쎯	-10.1993
qkqy0쎯	-10.1995
aik쎯	-10.1997
ldd0쎯pg쎯uqwm1쎯u쎯	-10.1997
ta쎯,	-10.1998
egc쎯w쎯	-10.1998
bgh쎯sm쎯	-10.1999
asg쎯	-10.2005
.thd쎯	-10.2006
,ym쎯	-10.2009
(쎁쎉쎀	-10.2017
sg쎯tu쎯ip쎯dl쎯	-10.2017
쎂쎀쎀쎅	-10.202
suf쎯hhhh쎯	-10.2023
tq쎯o쎯“	-10.2028
ftx쎯w쎯	-10.2029
xqc쎯cf쎯	-10.2033
rvyo쎯nge쎯	-10.2037
bm쎯thd쎯	-10.2042
tgj쎯vfhp1쎯	-10.2049
lfn쎯tqq쎯	-10.2052
nuk1쎯	-10.2052
mfky쎯ubtf0쎯	-10.2054
ruv쎯tffy0쎯	-10.2054
ja쎯	-10.2054
rqw쎯	-10.2054
lu쎯dd쎯	-10.2057
rh쎯uj쎯	-10.2058
dd쎯isgg2쎯yhk쎯	-10.2058
ic쎯ygk쎯	-10.2061
jx쎯je쎯	-10.2061
iwy2쎯	-10.2063
gkl쎯tn쎯nnh쎯ta쎯	-10.2064
ip쎯zzbd3쎯	-10.2066
ynf쎯	-10.207
faw쎯	-10.2074
je쎯dqe쎯	-10.2075
ww쎯dmj1쎯	-10.2076
fj쎯bm쎯kkkk1쎯	-10.2077
tqd쎯	-10.209
xeg0쎯dn쎯,	-10.2093
anb0쎯w쎯	-10.2094
rvh쎯fpx쎯	-10.2096
yvh쎯wa쎯	-10.21
lw쎯if쎯	-10.21
apk쎯og쎯	-10.2101
xq쎯쎁	-10.2105
yfj0쎯syp쎯	-10.2106
tmd쎯wwv쎯	-10.2107
ip쎯fghg쎯	-10.2107
""	-10.2113
qyvl0쎯ip쎯	-10.212
ifk0쎯	-10.2121
iv쎯ue쎯	-10.2123
xt쎯)	-10.2126
thp쎯wjh쎯	-10.2126
fq쎯bv쎯	-10.2129
sgtk1쎯	-10.2142
wdn쎯ahty0쎯	-10.2147
uai0쎯	-10.215
ftjb쎯wf쎯	-10.2153
\	-10.2155
vkf0쎯	-10.2158
jmd쎯	-10.2159
쎂쎂쎀	-10.2163
wxf쎯w쎯	-10.2166
”(	-10.2169
dgkn0쎯epc쎯	-10.2169
ntg쎯st쎯	-10.217
yw쎯sk쎯	-10.2172
pei쎯yne쎯	-10.2174
fcl쎯ijlc쎯	-10.2175
ode쎯	-10.218
yh쎯w쎯	-10.2181
itd쎯ntg쎯	-10.2181
,gae쎯dn쎯	-10.2185
fue쎯	-10.2188
mw쎯qh쎯	-10.219
cf쎯yy쎯	-10.2191
、	-10.2191
hxs쎯	-10.2193
쎁쎉쎅쎄rh쎯	-10.2199
fhfk1쎯	-10.2203
dd쎯rnb쎯	-10.2203
쎇쎁	-10.2205
jfd쎯dm쎯	-10.2206
wff0쎯	-10.2211
hjj쎯fha쎯	-10.2213
lkd쎯gc쎯	-10.2218
g쎯thg1쎯	-10.2218
쎅쎀쎀쎀	-10.2219
xtdp1쎯	-10.2224
pgf1쎯pm쎯	-10.2227
ipr쎯	-10.2228
wjg쎯j쎯	-10.223
sh쎯lpk0쎯	-10.2231
w쎯n쎯atd쎯bpf쎯	-10.2231
ue쎯tmd쎯o쎯	-10.2234
awnu1쎯	-10.2236
,hx쎯	-10.2238
xvk쎯	-10.2244
,x쎯fp쎯	-10.2247
qq쎯rh쎯r쎯	-10.2249
xf쎯gki쎯	-10.225
adk쎯fggh쎯	-10.225
쎈쎁	-10.2258
hcd쎯	-10.2261
bu쎯pfjm1쎯	-10.2264
xnf쎯xq쎯	-10.2265
wbg0쎯	-10.2267
adwe1쎯uj쎯,	-10.2275
fs쎯	-10.2275
fjf쎯	-10.2276
wg쎯l쎯tk쎯f쎯	-10.2278
saj0쎯fnw쎯	-10.2279
aqq쎯ugdu쎯	-10.2283
waw쎯yid쎯um쎯	-10.2283
he쎯	-10.2285
whf0쎯og쎯tp쎯gj쎯	-10.2285
ujfj0쎯wug0쎯,	-10.2288
bn쎯sk쎯c쎯	-10.2288
qk쎯pe쎯	-10.2289
irn쎯	-10.2295
itd쎯fcl쎯.	-10.2297
fhg1쎯	-10.2301
i쎯td쎯	-10.2302
tffu쎯bk쎯	-10.2303
qqqq1쎯uqd2쎯	-10.2304
.p쎯tkh쎯	-10.2305
fjg0쎯	-10.2306
dmj1쎯dn쎯	-10.2306
ga쎯v쎯r쎯	-10.2306
si쎯	-10.231
gxw쎯	-10.2314
fjh0쎯tr쎯	-10.2314
ditn1쎯	-10.2314
eb쎯tl쎯k쎯ny쎯	-10.232
ijl쎯ytyh쎯	-10.232
sk쎯waw쎯	-10.2321
wxm쎯tr쎯	-10.2324
iwt쎯ou쎯	-10.2326
doq쎯	-10.2329
fuk쎯yce쎯	-10.2334
tld1쎯tp쎯	-10.2334
madt2쎯	-10.2334
jghm1쎯sft쎯	-10.2341
tyg쎯tyg쎯	-10.2349
ice쎯	-10.235
ruv쎯rp쎯	-10.235
gjq쎯j쎯	-10.2352
og쎯xgm쎯	-10.2355
rer쎯	-10.2356
djfd쎯oy쎯	-10.2356
.ld쎯	-10.2356
uter쎯	-10.2357
c쎯adw쎯	-10.236
쎅wv쎯qkhh1쎯	-10.2362
,ipkh1쎯	-10.2369
rdj쎯gq쎯	-10.2372
og쎯e쎯bv쎯wc쎯ngk쎯	-10.2374
tqv쎯	-10.2378
dn쎯uu쎯r쎯	-10.238
kkd쎯sft쎯	-10.2381
qb쎯	-10.2383
iagw쎯ujn쎯	-10.239
i쎯gc쎯	-10.2394
xx쎯kwgj0쎯	-10.2395
fuf0쎯	-10.2396
wv쎯dmh0쎯gf쎯	-10.2397
xi쎯	-10.2399
fp쎯iha쎯	-10.2401
ex쎯eyn쎯	-10.2403
ahko0쎯	-10.2404
i쎯it쎯	-10.2405
dty0쎯buj쎯	-10.2406
lg쎯tkgg1쎯	-10.2413
dgh쎯maw쎯	-10.2417
ige쎯ifk0쎯	-10.2418
vv쎯tu쎯	-10.242
ywfw0쎯	-10.2423
l쎯by쎯	-10.2425
jgm쎯aib쎯	-10.2425
and쎯dd쎯	-10.2427
itk쎯bj쎯	-10.2427
lfnh쎯xat0쎯	-10.2427
wge쎯	-10.2429
ujn쎯mqb쎯	-10.2432
j쎯g쎯pe쎯wys쎯	-10.2436
oge쎯ny쎯	-10.2438
pwl쎯	-10.244
gae쎯,	-10.2443
ick쎯gj쎯	-10.2446
dy쎯gu쎯iu쎯	-10.2449
//	-10.2451
g쎯fnrt쎯	-10.2452
lg쎯uj쎯	-10.246
eri쎯	-10.2466
.vk쎯	-10.247
waw쎯jn쎯	-10.247
ulk3쎯	-10.2472
jsd쎯	-10.2482
gfi쎯bw쎯	-10.2487
fc쎯rip쎯	-10.2489
txt쎯	-10.2491
e쎯“	-10.2491
f쎯fhg1쎯:	-10.2495
tp쎯lpdk1쎯	-10.2496
ll쎯vvv쎯	-10.2499
kqb0쎯	-10.2499
쎁쎁쎀	-10.2501
gss쎯	-10.2505
tfq쎯rg쎯d쎯	-10.2505
qnnk2쎯ou쎯	-10.251
r쎯tk쎯tkh쎯	-10.2515
ftbt쎯ip쎯a쎯wt쎯	-10.2515
jhng0쎯:“	-10.2517
lqp쎯lkb쎯	-10.2523
tdh쎯	-10.2527
pg쎯yq쎯	-10.2536
rcp쎯	-10.254
dww쎯	-10.2541
cc쎯yy쎯	-10.2542
wbj쎯vck쎯w쎯	-10.2542
』『	-10.2543
dwiu쎯l쎯	-10.2545
cbd쎯imj쎯	-10.2546
oa쎯mdo쎯	-10.2549
.rg쎯	-10.2555
rnt쎯	-10.2557
ftbt쎯rep쎯zzbd3쎯	-10.2559
fjt쎯btg쎯	-10.2559
kl쎯qh쎯	-10.2559
yuv쎯	-10.256
uo쎯ey쎯	-10.256
igd쎯lk쎯	-10.257
tx쎯ag쎯	-10.2572
sh쎯wy쎯	-10.2573
vvv쎯w쎯	-10.2573
쎀.쎁	-10.2575
g쎯rn쎯	-10.2584
ptf쎯	-10.2591
qvn0쎯ntg쎯	-10.2599
l쎯ffff1쎯dm쎯tkw쎯	-10.2599
ige쎯itf쎯	-10.2609
sd쎯	-10.2611
.rnd1쎯	-10.2616
y쎯wtf쎯,	-10.262
aw쎯t쎯l쎯	-10.2623
aiit쎯	-10.2625
nnnn0쎯dn쎯o쎯	-10.2627
(vk쎯	-10.2628
kkfb1쎯	-10.2628
wj쎯rfm쎯	-10.2628
hxf쎯	-10.263
v쎯bm쎯	-10.2631
tgj쎯s쎯cd쎯ovt쎯	-10.2631
uk쎯ta쎯	-10.2634
rqb0쎯rmhj쎯	-10.2634
(쎁쎉쎁	-10.2634
yni1쎯fqp쎯	-10.2638
uqwm1쎯rfm쎯	-10.264
r쎯oge쎯pyj쎯	-10.264
sh쎯wny1쎯	-10.2641
rtt0쎯	-10.2642
yn쎯》	-10.2644
,ta쎯	-10.2647
zzbd3쎯ith쎯	-10.2649
smgk쎯	-10.2649
gg쎯qqqq1쎯	-10.2649
sfw쎯	-10.2652
ln쎯kht쎯	-10.2655
ryc쎯	-10.2658
jhnr쎯	-10.2661
ffh0쎯	-10.2664
isjg쎯	-10.267
er쎯	-10.267
up쎯l쎯	-10.2678
nge쎯rb쎯	-10.268
rkm쎯rw쎯	-10.2683
bc쎯bm쎯	-10.2684
klj쎯w쎯	-10.2685
mh쎯hx쎯	-10.2687
qyi0쎯	-10.269
usr쎯rfc쎯sy쎯	-10.2692
ke쎯xh쎯	-10.27
wvm쎯	-10.2701
wg쎯yy쎯wug0쎯	-10.2702
bqv쎯	-10.2703
_	-10.2704
ym쎯dp쎯	-10.2709
wjjg쎯nf쎯	-10.2712
lv쎯	-10.2715
mq쎯jy쎯aq쎯	-10.2719
uf쎯qynm1쎯	-10.2721
go쎯gc쎯	-10.2722
kjq쎯	-10.2725
txg쎯uqw쎯	-10.2726
fjt쎯	-10.2728
sgty쎯	-10.273
it쎯ovt쎯n쎯ytt쎯	-10.2732
tdx쎯	-10.2733
quk쎯	-10.2733
hk쎯f쎯dm쎯tkw쎯	-10.2736
-쎄	-10.2738
ii쎯js쎯	-10.2739
qt	-10.2742
xte쎯sf쎯	-10.2742
”“	-10.2747
rvyo쎯gkp쎯	-10.2749
lk쎯jel쎯	-10.2749
(-)	-10.2751
,gip쎯e쎯	-10.2756
klk쎯kdj쎯	-10.2764
sghg1쎯ux쎯uk쎯	-10.2764
|	-10.2773
ta쎯pv쎯	-10.2774
rt쎯if쎯	-10.2775
pe쎯ta쎯	-10.2775
cm쎯ipkm1쎯	-10.2777
wdn쎯fha쎯	-10.2779
n1쎯	-10.2779
]	-10.2781
uwa쎯uyh쎯	-10.2781
iej쎯	-10.2782
rfh1쎯	-10.2782
jtd쎯	-10.2782
dn쎯w쎯	-10.2786
saj0쎯trf0쎯	-10.2787
lq쎯cn쎯	-10.279
qwyc1쎯	-10.2792
vyv쎯	-10.2798
dg쎯qe쎯	-10.2799
n0쎯	-10.2799
a쎯anb0쎯ugdu쎯sy쎯	-10.2801
tmgt3쎯	-10.2801
쎁쎉쎆쎇rh쎯	-10.2807
cm쎯imj쎯	-10.2807
cm쎯wynn3쎯	-10.2808
tu쎯ip쎯dga쎯pwv쎯	-10.281
r쎯wt쎯kkk쎯	-10.2824
wg쎯wsg0쎯	-10.2826
j쎯g쎯qk쎯	-10.2828
iwgu쎯	-10.2831
v쎯fcl쎯	-10.2833
yynw1쎯suq쎯	-10.2839
fc쎯wfy0쎯	-10.284
jgm쎯uqwm1쎯	-10.2841
().	-10.2843
rkk쎯	-10.2843
tg쎯itd쎯r쎯	-10.2844
py	-10.2853
af	-10.2858
rv쎯	-10.286
bd쎯lw쎯	-10.2861
usr쎯xtd쎯	-10.2866
fgh쎯lh쎯	-10.2868
ogbn0쎯	-10.287
sft쎯rfm쎯	-10.2872
yid쎯et쎯gf쎯	-10.2872
uff쎯ytyh쎯	-10.2873
xo쎯bd쎯	-10.2874
#	-10.2883
fay쎯	-10.2884
sgj쎯	-10.2886
qta쎯	-10.2889
kht쎯xg쎯	-10.2892
hv쎯hg쎯	-10.2892
ftbt쎯rep쎯.	-10.2894
tg쎯gj쎯	-10.2898
쎁쎉쎄쎅rh쎯	-10.29
vep쎯ws쎯	-10.2904
fny0쎯og쎯tg쎯u쎯	-10.2904
itm쎯uyh쎯	-10.2906
dan쎯	-10.2908
h1쎯	-10.2908
uu쎯khu쎯	-10.2909
usr쎯fd쎯	-10.2913
aqky1쎯pwfi0쎯	-10.2915
nwy쎯	-10.2915
wg쎯jjjj0쎯rmhj쎯	-10.2917
tfn쎯icf쎯ai쎯	-10.2919
inro쎯	-10.2919
gu쎯yy쎯oy쎯	-10.2926
y쎯ipg쎯	-10.2926
jd쎯	-10.2929
uy쎯rh쎯	-10.2936
khtd2쎯	-10.2937
ipf쎯	-10.294
bm쎯thgc0쎯py쎯:	-10.294
쎇wh쎯	-10.294
wdt쎯gc쎯	-10.2942
g쎯od쎯	-10.2943
쎂쎀쎁쎂	-10.2944
pfq쎯gkih0쎯r쎯	-10.2944
te	-10.2949
eb쎯tl쎯,	-10.2949
uth쎯pe쎯	-10.295
qevj쎯	-10.2951
qci쎯	-10.2952
maw쎯gajf0쎯	-10.2953
tu쎯uo쎯	-10.2956
쎂쎀쎀쎄	-10.2956
,yi쎯j쎯	-10.2962
rufh1쎯	-10.2962
ym쎯ftg쎯	-10.2966
ukh쎯fmk쎯	-10.2967
apl쎯fcl쎯lt쎯	-10.2968
rytp1쎯yge쎯	-10.2969
ek쎯	-10.2972
rno쎯	-10.2972
wt쎯tr쎯	-10.2972
raw쎯	-10.2975
kyn1쎯	-10.2975
uwyc2쎯fcb쎯	-10.2977
ps쎯dht쎯	-10.2982
utu쎯uce쎯	-10.2982
dcg쎯udi0쎯	-10.2982
dm쎯tkw쎯쎃	-10.2984
qk쎯:	-10.2985
yy쎯qf쎯	-10.2985
iat1쎯	-10.2989
tk쎯xe쎯	-10.2993
iawn0쎯kkkk1쎯	-10.2993
ia쎯egc쎯	-10.2996
tmo쎯fcp쎯wf쎯	-10.3001
.psu0쎯	-10.3007
tp쎯gj쎯a쎯wt쎯	-10.3007
k쎯l쎯aw쎯u쎯ipk쎯.	-10.3009
9쎯	-10.3018
tfqp쎯et쎯	-10.3018
vynu쎯	-10.302
쎀쎄	-10.3021
ht쎯	-10.3023
g쎯fnw쎯	-10.3029
fgh쎯g쎯	-10.3031
a쎯wf쎯	-10.3032
iyc쎯wfny0쎯	-10.3036
tuk쎯nh쎯	-10.304
uyt1쎯	-10.3043
tn쎯nnh쎯ta쎯	-10.3044
ftg쎯synw쎯	-10.3044
twgi쎯	-10.3045
lk쎯nnw쎯	-10.3045
yfj0쎯syp쎯b쎯	-10.3045
xw쎯cbj쎯	-10.3046
gkih0쎯gae쎯	-10.3047
wv쎯ybf0쎯	-10.3051
rb쎯fjh0쎯	-10.3051
ftbt쎯bk쎯a쎯	-10.3053
adw쎯pu쎯	-10.3054
wtl쎯pd쎯	-10.3055
kwyg0쎯g쎯r쎯	-10.3055
ipe쎯ya쎯	-10.3055
fhu쎯tm쎯	-10.3067
iwyf2쎯	-10.3068
gg쎯wh쎯	-10.3068
aigy쎯	-10.3069
vkb쎯	-10.3069
mmq쎯wug0쎯	-10.3072
hl쎯	-10.3073
riq쎯	-10.3076
ytey0쎯tf쎯	-10.3079
fnrt쎯h쎯	-10.3082
tol쎯	-10.3088
ipw쎯epc쎯	-10.3088
fyb0쎯	-10.309
ajj0쎯dr쎯	-10.309
mb쎯ght쎯	-10.3091
wynb0쎯gd쎯	-10.3092
kg쎯gm쎯	-10.3096
xfm쎯tavn쎯rvy쎯tf쎯	-10.3103
wgkq0쎯et쎯r쎯	-10.3104
ssq쎯shn쎯	-10.3106
tuk쎯tl쎯	-10.3112
tr쎯kkk쎯	-10.3113
dqe쎯wk쎯	-10.3117
txg쎯jjjj0쎯	-10.3117
xan쎯nu쎯	-10.312
jn쎯wy쎯	-10.3125
tve쎯dd쎯	-10.3126
dd쎯xq쎯	-10.3127
nbm쎯	-10.3129
wqin쎯r쎯	-10.3129
fc쎯bw쎯	-10.3133
dl쎯wa쎯	-10.3133
ud쎯qvfp1쎯	-10.3133
jb쎯vb쎯r쎯	-10.3136
.gm쎯o쎯	-10.3137
mqq쎯dc쎯	-10.3138
mqu쎯.	-10.314
d쎯g쎯fhn쎯	-10.3145
wtd쎯	-10.3146
rv쎯ral쎯	-10.3146
pujn0쎯qc쎯	-10.3148
dj쎯wtu쎯	-10.3149
epv0쎯	-10.315
ai쎯apfq쎯ymhj0쎯	-10.3151
is쎯	-10.3151
uvh쎯	-10.3151
do쎯qc쎯	-10.3155
ipk쎯r쎯	-10.3156
se쎯o쎯	-10.3157
sf쎯,	-10.3158
mhj쎯	-10.3158
xxf쎯	-10.3158
쎀-	-10.3159
yygt쎯itp쎯yid쎯et쎯	-10.316
ge쎯uje쎯	-10.316
uq쎯cep쎯dd쎯ip쎯	-10.317
g쎯txi쎯gq쎯	-10.3172
pyj쎯tn쎯	-10.3172
i쎯gmf쎯	-10.3172
ob쎯	-10.3173
em쎯efw쎯	-10.3173
rnv0쎯	-10.3173
iw쎯vfhp1쎯	-10.3175
f쎯hko쎯	-10.3178
ntg쎯zzbd3쎯	-10.3181
ige쎯fje쎯	-10.3184
cnh쎯sghg1쎯	-10.3184
tq쎯“	-10.3184
“dg쎯	-10.3185
nyp쎯	-10.3186
ujt쎯	-10.3188
ubk1쎯uqt쎯	-10.3189
h쎯dm쎯	-10.319
bip쎯	-10.319
jn쎯fcl쎯	-10.3194
ai쎯fm쎯gog쎯	-10.3198
yeu쎯	-10.3199
caq쎯	-10.3202
opw쎯	-10.3202
fhv쎯ymhj0쎯	-10.3204
y쎯fcl쎯	-10.3207
if쎯rmhj쎯	-10.3207
.”ige쎯	-10.3207
tu쎯tu쎯ta쎯	-10.3208
hak쎯	-10.3209
wy쎯thn쎯rfc쎯sy쎯	-10.321
pfq쎯dn쎯b쎯	-10.321
wdn쎯yv쎯	-10.3212
uda쎯naj0쎯	-10.3216
zzj0쎯	-10.3217
nfd0쎯	-10.3218
rrk쎯	-10.3221
whw쎯	-10.323
쎁쎀wv쎯qkhh1쎯	-10.323
nnk쎯uk쎯	-10.3234
zzbd3쎯h쎯itx쎯	-10.3236
ip쎯pe쎯	-10.3236
ll쎯ic쎯ytt쎯	-10.3237
rh쎯u쎯	-10.3237
wht쎯vfhp1쎯	-10.3238
m0쎯	-10.3239
cnh쎯tqt쎯	-10.324
nge쎯dgkn0쎯	-10.3242
fnr0쎯ujf0쎯	-10.3244
sux쎯	-10.3247
)w쎯.	-10.3248
bk쎯og쎯rfc쎯sy쎯	-10.3254
kw쎯s쎯	-10.3256
ykge쎯	-10.3258
a쎯wt쎯pgc쎯	-10.3268
sh쎯wycb쎯	-10.3268
pwat0쎯fha쎯	-10.327
rufh1쎯qu쎯	-10.327
etj쎯uk쎯	-10.3272
xk쎯ymf쎯	-10.3273
dqq쎯	-10.3274
,trf0쎯klj쎯j쎯	-10.3275
k쎯dr쎯	-10.3278
iytb0쎯pt쎯	-10.3279
xmw쎯oy쎯	-10.328
d쎯《	-10.328
gjq쎯o쎯	-10.3281
ca쎯ma쎯	-10.3282
rqa쎯	-10.3286
.hhhh쎯ue쎯,	-10.3288
wfny0쎯uxhp쎯	-10.3289
mf쎯pgk쎯	-10.3294
wys쎯》	-10.3294
ujf0쎯qi쎯ip쎯bpf쎯	-10.3296
r쎯synw쎯ny쎯	-10.3304
rmhj쎯ax쎯	-10.3305
afi쎯	-10.3307
uxh쎯bb쎯	-10.3307
qmk쎯	-10.3308
pwd쎯qd쎯	-10.3308
mq쎯nge쎯	-10.3312
vah쎯	-10.3313
dg쎯xe쎯	-10.3315
wuh0쎯	-10.3316
ipg쎯dwg쎯	-10.3317
r쎯gae쎯aa쎯	-10.3321
쎁쎉쎅쎁rh쎯	-10.3321
hao쎯rny1쎯	-10.3322
gh쎯r쎯	-10.3322
djdl2쎯	-10.3325
j쎯ugdu쎯l쎯	-10.3337
lu쎯ym쎯	-10.3339
“”	-10.3339
wuf쎯	-10.334
rdf0쎯fcl쎯	-10.3345
tx쎯쎃	-10.3347
ihg1쎯	-10.3348
lfod0쎯	-10.3352
.”《	-10.3357
lwj쎯dm쎯	-10.3357
p쎯su쎯r쎯	-10.3358
,gm쎯e쎯	-10.3358
pynn0쎯kkk쎯	-10.3364
vd쎯	-10.3364
wg쎯usr쎯	-10.3367
e0쎯	-10.3369
wbj쎯lw쎯gf쎯	-10.3369
dtf쎯wgkb0쎯	-10.3372
dd쎯lt쎯	-10.3374
ggg0쎯fje쎯	-10.3376
oge쎯tfqp쎯	-10.3378
x쎯apk쎯gj쎯wynn3쎯	-10.3378
l쎯uu쎯	-10.3378
)t쎯	-10.3379
wgkq0쎯et쎯.	-10.3383
r쎯ftbt쎯ip쎯	-10.3384
-쎈	-10.3388
wcd쎯	-10.3389
sgn쎯e쎯	-10.339
wc쎯jfd쎯,	-10.3392
pp쎯th쎯	-10.3398
f쎯u쎯	-10.3401
gj쎯wynn3쎯,	-10.3401
rj쎯bm쎯b쎯	-10.3402
qtjh0쎯	-10.3403
wsg0쎯mw쎯	-10.3405
dg쎯l쎯	-10.3407
jjjj0쎯adwe1쎯	-10.341
egc쎯w쎯,	-10.341
tu쎯dga쎯adm쎯hhhh쎯	-10.341
.쎃.	-10.341
oa쎯dyt쎯	-10.3413
wt쎯ftj쎯:	-10.3417
ym쎯nfc쎯	-10.3418
fj쎯fghg쎯	-10.3419
txg쎯gd쎯	-10.342
xyna1쎯dcg쎯	-10.3421
dyc쎯	-10.3422
dyt쎯tr쎯	-10.3423
apk쎯tfkp0쎯	-10.3428
ywwf0쎯	-10.3429
a쎯wt쎯w쎯km쎯	-10.3432
nnu쎯	-10.3432
wg쎯usr쎯r쎯	-10.3436
adwr0쎯fjg0쎯	-10.344
dy쎯bb쎯	-10.3442
y쎯s쎯et쎯gf쎯	-10.3444
dr쎯go쎯	-10.3447
sg쎯wc쎯ngk쎯	-10.3449
ai쎯ux쎯uk쎯	-10.3449
.yvh쎯	-10.3452
fd쎯xte쎯	-10.3456
bk쎯tq쎯	-10.3459
vtk쎯qynm1쎯	-10.3459
e쎯rn쎯	-10.3463
f1쎯	-10.3463
.k쎯l쎯	-10.3465
ooo쎯mmm쎯	-10.3468
ajdn0쎯	-10.347
.gm쎯e쎯	-10.3479
jo쎯fi쎯nua쎯	-10.3479
ta쎯dw쎯	-10.348
wkh0쎯	-10.3481
gqr쎯ivfh1쎯mhkg2쎯	-10.3482
iyn1쎯	-10.3485
tuj0쎯wj쎯	-10.3486
,jb쎯rg쎯	-10.3487
ngkg쎯	-10.3487
ukn쎯dm쎯tkw쎯	-10.3489
toc쎯yt쎯	-10.349
suf쎯	-10.349
rn쎯e쎯r쎯	-10.3492
vcag쎯	-10.3494
dn쎯uu쎯b쎯	-10.3495
mj쎯j쎯	-10.3496
》zzbd3쎯《k쎯l쎯	-10.3496
wg쎯aq쎯	-10.3496
bm쎯go쎯	-10.3498
w쎯vtk쎯	-10.35
vte쎯	-10.3503
rvk쎯tg쎯	-10.3507
zzbd3쎯qie쎯wyk쎯	-10.3508
y쎯s쎯e쎯	-10.3508
.sve쎯rnd1쎯	-10.3509
l쎯ggg0쎯	-10.3512
kwgj0쎯	-10.3517
nnh쎯k쎯	-10.352
ln쎯ftg쎯	-10.3523
yn	-10.3526
ynky6쎯tj쎯	-10.3527
sr쎯	-10.3527
r쎯m쎯jf쎯,	-10.3536
isk쎯iyc쎯	-10.3536
bpf쎯ta쎯	-10.3536
qdb쎯sm쎯	-10.3537
.vk쎯js쎯	-10.3538
ymhj0쎯k쎯ny쎯	-10.3539
xng2쎯	-10.3541
%,	-10.3542
qdt쎯tfkp0쎯	-10.3542
ai쎯apfq쎯	-10.3543
usr쎯iw쎯	-10.3544
yb쎯ga쎯	-10.3545
“k쎯l쎯	-10.3545
jtyl쎯tp쎯	-10.3546
jlx쎯ytn쎯	-10.3551
m쎯ip쎯	-10.3553
ip쎯wf쎯gj쎯gk쎯	-10.3553
fny0쎯iy쎯gf쎯	-10.3554
rnr쎯ytyh쎯	-10.3555
wyq쎯ge쎯	-10.3557
whf0쎯gk쎯og쎯	-10.356
fhl쎯og쎯	-10.3561
fhn쎯,	-10.3561
dlf0쎯ufk0쎯	-10.3571
whf0쎯og쎯.wc쎯ngk쎯	-10.3571
-쎅	-10.3572
ihi쎯	-10.3578
djb쎯ya쎯	-10.358
쎁쎀쎀%	-10.358
k쎯md쎯ipk쎯suq쎯	-10.3581
-쎆	-10.3584
wgg1쎯	-10.3584
x쎯iyj쎯tp쎯gj쎯	-10.3584
tyna2쎯,	-10.3585
wk쎯qyvl0쎯	-10.359
gkq쎯	-10.3591
sghg1쎯fm쎯uk쎯	-10.3596
dy쎯bj쎯ce쎯	-10.3602
tp쎯gj쎯wsg0쎯txi쎯	-10.3603
fw쎯w쎯	-10.3604
ll쎯ntg쎯	-10.3605
ps쎯egc쎯	-10.3605
nk쎯qkq쎯	-10.3606
vjs쎯	-10.3607
yi쎯yfn쎯gf쎯	-10.3609
lk쎯gkip0쎯	-10.3609
ry쎯	-10.3609
usr쎯aq쎯	-10.3613
t쎯adw쎯wb쎯	-10.3613
jmh쎯	-10.3616
j쎯g쎯pe쎯fny0쎯og쎯	-10.3617
mmm쎯f쎯	-10.3618
vfb쎯tc쎯	-10.3619
yx쎯tfq쎯	-10.3625
v쎯jn쎯	-10.3625
pw	-10.3626
kkkk1쎯kfi쎯	-10.3627
,ip쎯suq쎯	-10.3633
cbj쎯	-10.3635
cq쎯ytf쎯	-10.3636
if쎯fwm쎯	-10.3638
xuj쎯ntg쎯	-10.3641
kb쎯	-10.3643
wa쎯dcg쎯	-10.3644
gkl쎯suq쎯ta쎯	-10.3647
쎁쎉쎄쎈rh쎯	-10.365
wye쎯tfkd쎯	-10.3653
rn쎯d쎯f쎯	-10.3655
vnn0쎯	-10.3658
r쎯ud쎯txi쎯	-10.3658
ybf0쎯	-10.3659
xtu쎯umd1쎯	-10.366
ipkh1쎯ytyh쎯	-10.3663
》g쎯nnh쎯	-10.3664
wsg0쎯tkw쎯	-10.3666
sj쎯yqj쎯	-10.3667
ith쎯zzbd3쎯ymhj0쎯	-10.3674
ymhj0쎯ght쎯	-10.3674
pp쎯kht쎯	-10.3675
da쎯dk쎯,	-10.3678
cm쎯iq쎯	-10.3679
』	-10.368
,pu쎯gm쎯	-10.3683
hhhh쎯vi쎯	-10.3685
wyf0쎯	-10.3686
gef쎯qynm1쎯ymhj0쎯	-10.3687
wtfm1쎯	-10.3688
fhw쎯pw쎯	-10.3688
tem쎯	-10.369
th쎯,	-10.3692
fq쎯qjq쎯	-10.3693
yy쎯yyy쎯	-10.3695
k쎯ih쎯whf0쎯og쎯	-10.3709
pe쎯fl쎯wf쎯wf쎯km쎯,	-10.3709
pwt쎯kkkk1쎯	-10.371
mdo쎯	-10.3711
nku쎯	-10.3713
y쎯wtf쎯zzbd3쎯	-10.3713
pyk쎯	-10.3713
,vk쎯js쎯	-10.3714
wvn쎯	-10.3715
쎄.쎅	-10.3718
sf쎯yfd쎯	-10.372
iie쎯thn쎯	-10.3723
ukn쎯rmc쎯uqwm1쎯	-10.3723
xyc쎯ick쎯	-10.3726
k쎯ny쎯zzbd3쎯	-10.3727
aw쎯u쎯ipk쎯km쎯	-10.3731
sy쎯ygk쎯	-10.3731
qq쎯w쎯	-10.3732
dg쎯tkh쎯	-10.3733
iie쎯wx쎯	-10.3733
jb쎯vb쎯	-10.3733
tg쎯itd쎯k쎯	-10.3736
tu쎯rfc쎯dn쎯js쎯	-10.3736
h쎯mqq쎯	-10.3739
tdtf0쎯	-10.374
k쎯l쎯dgh쎯wa쎯	-10.3747
h쎯tak쎯	-10.3751
rbcc쎯	-10.3755
fgh쎯wtu쎯	-10.3758
,qq쎯	-10.3758
()zzbd3쎯	-10.376
ymc쎯pg쎯	-10.3761
i쎯fp쎯	-10.3764
xl쎯alt쎯	-10.3771
!”	-10.3775
by쎯ii쎯	-10.3781
xqi쎯	-10.3783
puh쎯yc쎯	-10.3785
lkc쎯	-10.3787
rtb쎯	-10.3797
〔	-10.3799
bk쎯gmu1쎯	-10.3799
rvyo쎯ep쎯	-10.3803
,adwn4쎯gcf쎯	-10.3804
[	-10.3804
d쎯gf쎯	-10.3806
/쎂	-10.3813
xnn1쎯	-10.3814
auk쎯abu쎯	-10.3818
kkkk1쎯tca쎯	-10.382
r쎯mw쎯pww쎯	-10.3821
g쎯uthp0쎯	-10.3822
uk쎯uk쎯ta쎯	-10.3822
ipl쎯	-10.3826
iie쎯bwt쎯	-10.3829
ldd0쎯wsg0쎯	-10.383
dn쎯gajf0쎯	-10.3831
.o쎯b쎯	-10.3838
bn쎯sk쎯	-10.384
ue쎯tyg쎯	-10.3842
ovt쎯rpw쎯	-10.3845
dwf쎯fmud쎯	-10.385
ls쎯	-10.3852
:fc쎯rf쎯	-10.3852
dd쎯sov쎯	-10.3858
zzbd3쎯ih쎯	-10.386
ftbt쎯yce쎯nnk쎯	-10.386
nnh쎯bpf쎯	-10.3861
bu쎯dtb쎯	-10.3872
ukn쎯vfhp1쎯tam쎯	-10.3875
쎅zzts0쎯	-10.3876
tvt쎯	-10.3878
wc쎯dmh0쎯	-10.3879
pe쎯xte쎯	-10.3883
tffu쎯)	-10.3884
wx쎯r쎯	-10.3885
khij쎯	-10.3888
e쎯uqt쎯r쎯	-10.3888
sf쎯w쎯.	-10.3891
쎁쎀-	-10.3896
usr쎯u쎯kkk쎯	-10.3897
oy쎯,	-10.3897
ifn쎯	-10.39
egc쎯w쎯.	-10.3901
쎅dq쎯	-10.3901
t쎯v쎯nae0쎯	-10.3902
ygk쎯ujf0쎯	-10.3904
쎁쎉쎄쎆rh쎯	-10.3905
dm쎯tkw쎯쎁	-10.3906
hhy0쎯	-10.3907
psu0쎯wa쎯	-10.3907
eb쎯tl쎯r쎯	-10.3908
쎉쎁	-10.3913
ntk쎯ntg쎯	-10.3914
쎂rh쎯	-10.3918
nb쎯	-10.3918
mqq쎯dmu1쎯	-10.392
kn쎯wdt쎯	-10.3925
.isgg2쎯yhk쎯	-10.3926
jhng0쎯:‘	-10.3928
x쎯iyj쎯uqt쎯uwl쎯	-10.3929
rfc쎯sy쎯zzbd3쎯	-10.3933
wv쎯suq쎯	-10.3937
dm쎯tkw쎯xq쎯	-10.3939
iy쎯ty쎯	-10.3941
qq쎯it쎯	-10.3945
u쎯gf쎯	-10.3947
tey0쎯gd쎯	-10.3948
r쎯s쎯fiy쎯	-10.3949
gm쎯nnnn0쎯	-10.3949
쎄)	-10.395
fm쎯itx쎯	-10.395
mq쎯kfi쎯	-10.3953
yjj1쎯wg쎯	-10.3954
ynnu쎯	-10.3955
dnv0쎯gu쎯yy쎯oy쎯	-10.3957
,j쎯k쎯l쎯	-10.3963
wygg쎯yny0쎯	-10.3963
txgi5쎯aps쎯	-10.3968
r쎯xp쎯wgk쎯ntg쎯	-10.3969
uth쎯yam쎯	-10.3969
ymc쎯yf쎯,	-10.3971
y쎯lw쎯	-10.3975
,dmj1쎯j쎯	-10.3981
.쎁zzbd3쎯	-10.3982
itx쎯mw쎯qh쎯	-10.3982
x쎯cwg쎯,	-10.3985
usr쎯qgu쎯	-10.3986
ftg쎯han쎯	-10.3986
fgh쎯wffg쎯	-10.3987
sh쎯ud쎯r쎯	-10.399
j쎯jjjj0쎯sg쎯	-10.399
ysj쎯	-10.3992
nx쎯gog쎯	-10.3993
y쎯tp쎯uk쎯uyh쎯	-10.3996
uqb쎯	-10.3997
쎃)	-10.3999
l쎯pe쎯thd쎯qd쎯	-10.4002
ait쎯pu쎯	-10.4003
tjf0쎯avd쎯	-10.4004
f쎯h쎯	-10.4005
awnu0쎯	-10.4005
rvn2쎯	-10.4007
wfny0쎯bd쎯	-10.4009
l쎯uthp0쎯	-10.401
ssss0쎯cn쎯	-10.401
》vs쎯fn쎯	-10.4011
mmm쎯eyni쎯	-10.4011
sym쎯ytyh쎯ymhj0쎯	-10.4012
rkm쎯wtl쎯	-10.4012
ibi쎯ugl쎯	-10.4015
wyk쎯	-10.4015
bn쎯i쎯	-10.4017
tu쎯ip쎯pe쎯	-10.4018
qc쎯icf쎯	-10.4023
dd쎯jg쎯r쎯	-10.4024
it쎯ovt쎯	-10.4025
mmgd0쎯	-10.4025
쎀.쎂	-10.4026
,es쎯et쎯	-10.4033
쎃.쎀	-10.4036
ya쎯wnh쎯	-10.4039
tmd쎯h쎯	-10.4045
ukn쎯nnk쎯	-10.4045
tn쎯pnt쎯	-10.4046
쎆)	-10.4047
jb쎯puv쎯	-10.4047
cm쎯ujf0쎯	-10.4048
txi쎯ovt쎯	-10.4048
xfm쎯tavn쎯	-10.4049
itx쎯fm쎯ith쎯	-10.405
쎁쎉쎄쎃rh쎯	-10.4051
gkl쎯y쎯yam쎯	-10.4052
iss쎯	-10.4054
pei쎯fnrt쎯	-10.4056
tjh쎯iugg0쎯	-10.4059
xte쎯ght쎯ywf쎯	-10.4062
qgbn1쎯	-10.4062
whf0쎯og쎯pe쎯	-10.4065
ql쎯	-10.4065
h쎯uk쎯	-10.4069
i0쎯	-10.4069
hjs쎯	-10.4071
dgt1쎯pe쎯	-10.4071
.쎁쎀	-10.4071
rx쎯v쎯	-10.4072
pu쎯wsg0쎯	-10.4074
,rh쎯	-10.4075
ggi쎯fuj쎯wk쎯ryn1쎯	-10.4078
쎀.쎃	-10.408
pe쎯fl쎯wf쎯	-10.4082
mw쎯r쎯	-10.4083
xrc쎯	-10.4085
dfy쎯xpw쎯	-10.4085
cw쎯c쎯	-10.4086
pdhj0쎯	-10.4086
ythp1쎯tg쎯	-10.4092
qbn1쎯	-10.4093
ukqb2쎯qv쎯lt쎯	-10.4095
qtbl쎯	-10.4096
qkm쎯k쎯	-10.4096
w쎯n쎯wa쎯ge쎯dd쎯wf쎯	-10.4101
ih쎯gtu쎯	-10.4102
ndj쎯nge쎯	-10.4107
xf쎯jjj0쎯	-10.4108
pgj쎯dmh0쎯	-10.4111
y쎯sm쎯	-10.4112
qgf쎯od쎯	-10.4115
khgp0쎯wfny0쎯	-10.4118
,gm쎯o쎯	-10.4123
tr쎯og쎯	-10.4129
tp쎯gj쎯t쎯	-10.4133
jb쎯wqa쎯	-10.4134
.m쎯jf쎯	-10.4134
fm쎯yiu0쎯ymhj0쎯	-10.4134
vtd쎯	-10.4138
jb쎯rp쎯	-10.414
dd쎯ip쎯ip쎯dl쎯	-10.4141
,ccc쎯qk쎯	-10.4143
gm쎯udy쎯	-10.4144
쎁쎉쎃쎈rh쎯	-10.4146
qkm쎯oyn쎯	-10.4146
ukd1쎯jghm1쎯,	-10.4148
um쎯fd쎯	-10.415
ov쎯	-10.4151
gk쎯,	-10.4151
f쎯fakg0쎯	-10.4152
gkl쎯y쎯wtf쎯zzbd3쎯	-10.4155
wt쎯bm쎯	-10.4158
쎅zzbd15쎯	-10.4159
mgu쎯	-10.416
jcu쎯	-10.4161
pujn0쎯	-10.4164
fge쎯fghg쎯rg쎯	-10.4168
iuw쎯	-10.4171
yne쎯qh쎯	-10.4172
fhw쎯ydn쎯	-10.4174
tkm쎯	-10.4178
nfh1쎯	-10.418
gx쎯sh쎯	-10.4181
k쎯atd쎯ax쎯	-10.4182
쎁.쎆	-10.4182
rhyi0쎯	-10.4183
god쎯yak쎯	-10.4183
gh쎯dm쎯	-10.4184
uem쎯	-10.4187
fghg쎯tg쎯nf쎯jgm쎯	-10.4189
tffu쎯tf쎯og쎯	-10.4189
u쎯kkk쎯.	-10.419
itd쎯khtd2쎯	-10.4191
ypt쎯oy쎯,tdp쎯peg쎯	-10.4198
it쎯jg쎯	-10.42
tr쎯wsg0쎯	-10.4201
lh쎯mfk쎯	-10.4201
rb쎯aqky1쎯	-10.4207
xnh쎯qaj0쎯	-10.421
iy쎯:“	-10.4213
if쎯bpf쎯	-10.4215
쎁.쎈	-10.4225
ta쎯fd쎯	-10.4225
kkd쎯zzbd3쎯	-10.4227
(vcb쎯	-10.4231
rnx쎯	-10.4233
cyi쎯	-10.4236
,ai쎯	-10.4237
r쎯rfc쎯sy쎯	-10.4238
usr쎯wxf쎯	-10.4242
dy쎯dr쎯	-10.4242
ert쎯	-10.4247
gj쎯shn쎯	-10.4248
wtp쎯tca쎯	-10.4248
xfm쎯	-10.4249
alp쎯awx쎯	-10.4249
gj쎯gk쎯	-10.4251
.l쎯ffff1쎯dm쎯tkw쎯	-10.4257
ynky6쎯tj쎯b쎯	-10.4257
dd쎯fny0쎯ip쎯dl쎯	-10.4262
k쎯ih쎯ip쎯	-10.4262
sce쎯	-10.4264
tkw쎯lx쎯	-10.4264
(쎃)	-10.4275
scf쎯ex쎯	-10.4278
qi쎯kkd쎯	-10.4281
ii쎯th쎯gj쎯	-10.4283
set쎯	-10.4287
tg쎯tr쎯ip쎯	-10.4291
kjj쎯thg1쎯	-10.4291
sf쎯w쎯	-10.4292
rhk0쎯mww쎯	-10.4293
”;	-10.4293
tp쎯gj쎯w쎯km쎯	-10.4294
ggg0쎯l쎯	-10.4294
iww쎯	-10.4296
vcb쎯uqf쎯	-10.4298
trf0쎯pg쎯	-10.4298
,p쎯j쎯	-10.4299
쎁쎉쎆쎁rh쎯	-10.4299
h쎯syp쎯	-10.4301
ep쎯l쎯	-10.4302
dga쎯pwv쎯pgc쎯	-10.4304
by쎯trh0쎯	-10.4306
ip쎯wf쎯wf쎯km쎯	-10.4308
v쎯fhn쎯	-10.4309
qev쎯yt쎯pl쎯	-10.431
ymc쎯tlf0쎯zzbd3쎯	-10.4311
ubk1쎯if쎯	-10.4311
rt쎯fcl쎯	-10.4312
uwb쎯	-10.4313
thg1쎯,	-10.4315
ayn쎯	-10.4323
rwb쎯	-10.4323
dif쎯f쎯dm쎯tkw쎯	-10.4324
m쎯rh쎯	-10.4326
r쎯g쎯uk쎯	-10.4327
jn쎯ck쎯	-10.4328
쎅쎀dq쎯	-10.4328
tfq쎯fj쎯wys쎯wsg0쎯	-10.4328
tdij0쎯xfm쎯	-10.4328
d쎯h쎯itx쎯	-10.4331
,쎀쎀쎀	-10.4334
y쎯wtf쎯atd쎯jgm쎯,	-10.4335
wyp쎯lg쎯fnrt쎯	-10.4337
,uep쎯	-10.4345
,dl쎯wtf쎯	-10.4347
gg쎯fgh쎯	-10.4348
qdb쎯pd쎯	-10.435
an쎯lwj쎯h쎯	-10.4351
rd쎯	-10.4351
tr쎯uqwm1쎯	-10.4353
,fc쎯rf쎯	-10.4354
xa쎯pl쎯	-10.4354
uqv쎯wx쎯	-10.4354
wyb쎯	-10.4356
iq	-10.4357
wt쎯ma쎯	-10.4357
fggh쎯gk쎯	-10.4367
xj쎯	-10.4367
pp쎯k쎯	-10.4368
xl쎯eaf쎯	-10.4368
ymhj0쎯n쎯	-10.4371
(,)	-10.4372
if쎯tvfh0쎯if쎯fwm쎯	-10.4377
lr쎯	-10.4377
ftbt쎯xan쎯	-10.4379
ref쎯	-10.438
ght쎯ick쎯uk쎯	-10.4383
lk쎯c쎯	-10.4386
qdm쎯eaj쎯	-10.4386
rnw쎯lfnh쎯	-10.4387
vfhp1쎯tam쎯tr쎯	-10.4389
fku쎯ep쎯	-10.4393
no쎯	-10.4394
bw쎯ta쎯	-10.4398
yvi쎯ahko0쎯	-10.4399
:쎄	-10.44
쎁쎉쎅	-10.4401
,m쎯rh쎯	-10.4402
tjf0쎯img쎯	-10.4405
wgkq0쎯tj쎯	-10.4406
smq쎯	-10.4412
r쎯whf0쎯og쎯	-10.4415
tu쎯dga쎯dn쎯js쎯	-10.4417
dnv0쎯kgb쎯	-10.4417
yygt쎯itp쎯r쎯	-10.4417
oge쎯wxf쎯	-10.4418
fqb0쎯wrh1쎯	-10.442
ugdu쎯cm쎯	-10.4421
eb쎯tl쎯gf쎯	-10.4422
jc쎯pnt쎯	-10.4423
kgn쎯:	-10.4423
wycm1쎯tfq쎯r쎯	-10.4425
gmu1쎯	-10.4431
tx쎯dg쎯nm쎯	-10.4432
x쎯iyj쎯ga쎯v쎯aq쎯	-10.4432
wc쎯ngk쎯.	-10.4436
ylf0쎯,adw쎯k쎯	-10.4439
itx쎯mdfj쎯	-10.444
sh쎯yid쎯r쎯	-10.444
wtf쎯k쎯aw쎯	-10.4444
dga쎯pwv쎯dn쎯js쎯	-10.4446
rvh쎯	-10.4449
gmd0쎯fghg쎯	-10.4449
ip쎯fny0쎯og쎯	-10.445
쎁쎉쎄쎇rh쎯	-10.4451
avd쎯	-10.4455
tr쎯tkh쎯	-10.4455
dga쎯pwv쎯》	-10.4457
ukn쎯j쎯	-10.4463
igk쎯	-10.4466
pe쎯lfq쎯	-10.4468
xr쎯	-10.4468
anb0쎯sy쎯ip쎯bpf쎯	-10.4471
wjh쎯	-10.4472
c쎯h쎯r쎯	-10.4474
dyt쎯mmm쎯	-10.4474
,ul쎯wtf쎯	-10.4475
vkf0쎯ga쎯	-10.448
7쎯	-10.4487
ugdu쎯vb쎯	-10.4488
qk쎯pb쎯	-10.4489
rgb쎯	-10.449
pt쎯yne쎯r쎯	-10.4494
thfn쎯su쎯	-10.4497
pei쎯u쎯kkk쎯	-10.4498
fcu1쎯hc쎯	-10.4501
rnb쎯thn쎯	-10.4503
l쎯ffff1쎯	-10.4505
sym쎯	-10.4507
qh쎯ygk쎯	-10.4513
gkp쎯fcl쎯	-10.4516
ul쎯aqt쎯	-10.4516
de쎯alq쎯hhy0쎯	-10.4517
fm쎯jj쎯	-10.4521
uxl쎯	-10.4523
쎁쎃쎀	-10.454
toc쎯yq쎯	-10.454
ou쎯isgg2쎯	-10.4543
wxf쎯wtd쎯	-10.4546
ndn쎯	-10.4546
lkc쎯ckq쎯	-10.4546
pye쎯l쎯	-10.4549
ipk쎯tv쎯tv쎯km쎯	-10.4551
(dr쎯	-10.4551
pe쎯,	-10.4552
ifj쎯iyc쎯	-10.4556
ym쎯kkk쎯rfm쎯	-10.456
dpr쎯	-10.4561
ma쎯xg쎯	-10.4562
.wt쎯o쎯	-10.4565
hxw쎯	-10.4566
vnx쎯	-10.4566
afs쎯tkh쎯	-10.4566
fpb쎯	-10.4567
wvd쎯v쎯r쎯	-10.4568
afs쎯g쎯	-10.457
tx쎯fg쎯uqw쎯	-10.4576
sg쎯udh쎯	-10.4578
o쎯y쎯s쎯	-10.4578
ad쎯dbm쎯ymc쎯ytb쎯	-10.458
wx쎯dgtg0쎯	-10.4581
qtgw1쎯	-10.4581
fnrt쎯f쎯	-10.4585
dmj1쎯dn쎯.	-10.4585
yaop0쎯	-10.4586
khgp1쎯	-10.4587
og쎯lwj쎯	-10.4589
rvk쎯bmg쎯	-10.459
um쎯pe쎯	-10.4591
de	-10.4604
rwyg0쎯bm쎯r쎯	-10.4604
fha쎯go쎯fha쎯	-10.4606
bdx쎯	-10.4608
y쎯qe쎯	-10.4608
쎅.	-10.4611
lv쎯uthp0쎯	-10.4611
atgq쎯	-10.4612
aq쎯klj쎯	-10.4615
tue쎯	-10.4616
rmhj쎯uwyc2쎯	-10.4616
aga쎯	-10.4616
xe쎯klj쎯	-10.4618
yf쎯aj쎯tg쎯yce쎯	-10.4618
wtf쎯bk쎯	-10.4621
(tuj0쎯tq쎯	-10.4623
fny0쎯adm쎯	-10.4627
ˊ	-10.4627
elv쎯	-10.4627
go쎯yu쎯	-10.4627
yw쎯	-10.4628
-쎇	-10.4634
gkl쎯nnk쎯ta쎯	-10.4637
jb쎯qq쎯	-10.4638
wxf쎯ux쎯	-10.464
ta쎯adwe1쎯ww쎯gk쎯	-10.4641
r쎯yo쎯wx쎯	-10.4641
yjs쎯ipkf0쎯	-10.4642
pj쎯synw쎯	-10.4642
,sve쎯rnd1쎯	-10.4643
yygy쎯wx쎯anb0쎯sy쎯	-10.4644
ct쎯	-10.4645
rum쎯	-10.4645
dgkn0쎯nge쎯	-10.4645
fny0쎯og쎯rfc쎯sy쎯	-10.4648
cbd쎯tha쎯	-10.4649
fwyc2쎯wyk쎯	-10.465
ipkh1쎯fwm쎯	-10.465
uuk1쎯	-10.4652
itd쎯lt쎯	-10.4653
pyj쎯ytd쎯	-10.4654
iv쎯tfqp쎯o쎯	-10.4655
쎂쎆jjjj0쎯	-10.4655
rrr쎯fcu0쎯	-10.4656
puf0쎯	-10.466
g쎯xt쎯	-10.4661
um쎯fnrt쎯	-10.4662
wdn쎯rvyl0쎯,	-10.4663
쎄쎀쎀쎀	-10.4664
쎀zzts1쎯	-10.4665
ymf쎯ty쎯	-10.4669
쎁쎀dq쎯	-10.4671
maw쎯ahty0쎯	-10.4671
wwx쎯ybt쎯	-10.4673
wx쎯uv쎯kkk쎯	-10.4673
wwgj0쎯	-10.4673
dd쎯fw쎯	-10.4673
mhu쎯	-10.4678
ymc쎯tlf0쎯,	-10.4678
rhy쎯	-10.4681
》,《	-10.4682
ipkh1쎯mqb쎯r쎯	-10.4683
et쎯wt쎯	-10.4688
fgh쎯ag쎯	-10.469
ts쎯wrh1쎯gh쎯	-10.4694
uq쎯cep쎯wgj쎯tjh쎯	-10.4698
ey쎯adw쎯wb쎯	-10.47
bm쎯tmd쎯	-10.4701
aynr쎯	-10.4701
wgk쎯wt쎯wo쎯wuf쎯	-10.4702
pym쎯qe쎯	-10.4702
kwn쎯	-10.4702
e쎯jf쎯	-10.4706
wty0쎯rh쎯	-10.471
trf0쎯klj쎯j쎯	-10.471
wc쎯uwl쎯	-10.4712
g쎯nfc쎯	-10.4717
gqjo0쎯fghg쎯	-10.4719
tfqp쎯rt쎯	-10.472
wn쎯fqb0쎯,	-10.4721
cn쎯go쎯sghg1쎯gog쎯	-10.4722
fn쎯》	-10.4725
qfhw1쎯ght쎯ywf쎯	-10.473
nae0쎯gm쎯	-10.4732
wdn쎯te쎯ywx쎯yygy쎯	-10.4733
rtf쎯sgmj쎯	-10.4733
n쎯apk쎯whf0쎯og쎯	-10.4733
trf0쎯qc쎯r쎯	-10.4735
qq쎯fqb0쎯wx쎯	-10.4736
ssss0쎯sft쎯	-10.4737
wx쎯zzbd3쎯	-10.4739
dmj1쎯dn쎯r쎯	-10.4739
.gm쎯d쎯	-10.4743
ggi쎯ab쎯	-10.4752
wv쎯qev쎯	-10.4753
iwgj0쎯	-10.4753
a쎯og쎯lfq쎯aq쎯	-10.4759
r쎯jf쎯whn쎯,	-10.4761
ftbt쎯ip쎯sov쎯	-10.4765
vij쎯	-10.4767
fg쎯uqw쎯	-10.4769
rhc쎯	-10.4773
j쎯g쎯wug0쎯	-10.4774
xyna1쎯aft쎯	-10.4774
oqdo쎯oat쎯	-10.4777
wyq쎯aa쎯	-10.4777
ftbt쎯ip쎯rfm쎯jg쎯	-10.4778
ga쎯og쎯	-10.4779
rqw쎯ipkm1쎯	-10.4786
qtw쎯	-10.4786
wwwk0쎯tq쎯	-10.4787
qaj0쎯ykg0쎯	-10.4789
jf쎯adwe1쎯r쎯	-10.4789
v쎯nae0쎯,	-10.4789
dyi쎯	-10.4793
sqdy쎯	-10.4793
ym쎯mmm쎯	-10.4795
dd쎯qq쎯ovt쎯	-10.4798
mmm쎯fhc쎯	-10.4799
shy0쎯	-10.48
fny0쎯og쎯wx쎯	-10.4802
qjf쎯jn쎯ib쎯	-10.4802
gtu쎯dq쎯mq쎯	-10.4804
ajt쎯ah쎯	-10.4805
fny0쎯bk쎯	-10.4808
쎂쎀쎀쎂	-10.4808
i쎯qy쎯	-10.4809
yyv쎯	-10.481
tj쎯c쎯	-10.4811
.쎁쎈	-10.4813
oge쎯xl쎯	-10.4815
dq쎯adwr0쎯	-10.4817
mh	-10.4818
jb쎯jh쎯r쎯	-10.4824
bue쎯uthp0쎯	-10.4825
ybt쎯	-10.4828
k쎯fny0쎯	-10.4828
hko쎯fmk쎯	-10.4831
jjjj0쎯pl쎯	-10.4831
kht쎯zzbd3쎯	-10.4832
geh0쎯	-10.4834
iie쎯rw쎯	-10.4835
,i쎯on쎯	-10.4837
vfb쎯wh쎯	-10.4841
pa쎯ya쎯	-10.4841
we쎯qd쎯	-10.4844
wxf쎯fm쎯	-10.4846
sgx쎯	-10.4846
jty쎯jf쎯	-10.4847
mf쎯u쎯	-10.4849
lw쎯wc쎯pgc쎯zzbd3쎯	-10.4849
amyn1쎯	-10.4851
tjgh3쎯	-10.4854
u쎯tg쎯r쎯	-10.4856
,wq쎯	-10.4859
.쎄zzbd3쎯	-10.486
aigh쎯	-10.486
tv쎯xeg0쎯xkw쎯uk쎯	-10.4861
rfc쎯sy쎯t쎯	-10.4863
adwr0쎯zzbd10쎯	-10.4863
gh쎯bt쎯	-10.4865
tu쎯ip쎯bpf쎯	-10.4868
tp쎯gj쎯,	-10.4868
dh쎯pgk쎯,	-10.4869
쎃쎂쎀	-10.4871
jfj쎯	-10.4871
lhj쎯	-10.4872
vk쎯wynb0쎯	-10.4872
et쎯if쎯	-10.4874
yo쎯tkh쎯	-10.4874
oyvk1쎯nii0쎯ugm쎯	-10.4875
yy쎯aa쎯:	-10.488
mw쎯e쎯	-10.4881
gae쎯dn쎯r쎯	-10.4882
dfff0쎯	-10.4883
sq쎯	-10.4883
ym쎯tffu쎯ip쎯suq쎯	-10.4886
ypt쎯oy쎯	-10.4892
g쎯ffi쎯	-10.4895
ujq쎯	-10.4896
.hx쎯qh쎯,	-10.4896
xyna1쎯ndj쎯	-10.4896
h0쎯	-10.4898
pu쎯wgq쎯	-10.4899
oge쎯gcft0쎯	-10.49
k쎯tffu쎯	-10.4903
thfn쎯tc쎯	-10.4903
udjh쎯	-10.4904
fgh쎯pb쎯	-10.4912
iann0쎯	-10.4912
,ld쎯dmj1쎯	-10.4913
rc쎯cf쎯	-10.4921
txgi5쎯gqf쎯	-10.4923
wqa쎯ijl쎯	-10.4923
qh쎯uk쎯	-10.4925
aw쎯gef쎯lft쎯	-10.4925
xy쎯	-10.4926
i쎯et쎯	-10.4929
rrr쎯oyvk1쎯	-10.4931
kwyn1쎯	-10.4932
fwm쎯saj0쎯jb쎯dd쎯	-10.4932
bm쎯tld1쎯	-10.4932
rpwi쎯	-10.4933
wg쎯tmd쎯	-10.4936
wc쎯fqb0쎯ue쎯	-10.4936
,rg쎯go쎯	-10.4937
ddm쎯fghg쎯dga쎯	-10.4938
ipwk0쎯iyw쎯	-10.4941
sm쎯wf쎯	-10.4941
o쎯k쎯l쎯	-10.4943
pg쎯adwe1쎯	-10.4947
nty0쎯xyna1쎯	-10.4952
l쎯e쎯	-10.4952
qna쎯	-10.4953
and쎯dd쎯r쎯	-10.4953
sh쎯yid쎯	-10.4954
fwn쎯	-10.4954
amyn1쎯ndm쎯	-10.4955
qt쎯bb쎯	-10.4955
cl쎯	-10.4957
iwf쎯lw쎯r쎯	-10.4958
kd쎯tjh쎯	-10.4959
쎁쎉쎄쎀rh쎯	-10.4959
yo쎯tj쎯	-10.4967
y쎯w쎯	-10.4969
yfy2쎯	-10.4972
l쎯gl쎯	-10.4975
ai쎯kht쎯	-10.4975
wg쎯an쎯lwj쎯	-10.4975
zzbd3쎯jjjj0쎯sg쎯	-10.4979
ntk쎯gf쎯mmm쎯aq쎯	-10.498
fwm쎯aib쎯wx쎯	-10.4981
vq쎯vld0쎯	-10.4981
gu쎯ck쎯,	-10.4982
puv쎯xe쎯k쎯ip쎯	-10.4988
zzbd3쎯rrr쎯	-10.4992
iq쎯ime쎯	-10.4998
gu쎯egc쎯	-10.4998
ovt쎯dj쎯	-10.4998
y쎯iyc쎯	-10.4998
vvv쎯,	-10.5001
rcn0쎯rng2쎯	-10.501
쎂쎅쎆	-10.5013
ito쎯	-10.5014
aq쎯mw쎯	-10.5017
fm쎯kht쎯	-10.5018
udjh쎯on쎯	-10.5018
spq쎯	-10.5018
eee0쎯cd쎯lk쎯a쎯wt쎯	-10.5018
e쎯b쎯	-10.5018
sdm쎯xe쎯	-10.502
dc쎯vb쎯	-10.5023
,wgj쎯	-10.5025
wfhg0쎯tj쎯	-10.5029
gfq쎯hw쎯	-10.503
wc쎯xd쎯	-10.503
ymc쎯ytb쎯yjj1쎯wg쎯	-10.503
jf쎯whn쎯	-10.5031
uj쎯r쎯	-10.5031
쎀.쎈	-10.5033
etn쎯gcf쎯	-10.5034
quh1쎯	-10.5037
aqt쎯bc쎯	-10.5038
bda쎯	-10.5038
klj쎯qk쎯	-10.504
.n쎯l쎯	-10.504
v쎯sgfb쎯	-10.5045
thc쎯	-10.5047
lge쎯	-10.505
uve쎯	-10.5051
v쎯nae0쎯hka쎯ltk쎯	-10.5053
w쎯adw쎯k쎯	-10.5056
nh쎯xjm쎯	-10.5057
vijh쎯	-10.5061
eaj쎯	-10.5066
xxf쎯og쎯tg쎯	-10.5071
----	-10.5072
ftbt쎯ipkf0쎯	-10.5075
l쎯bf쎯wx쎯	-10.5075
ygu쎯tfqp쎯	-10.5079
tavn쎯yqa쎯	-10.5079
jn쎯jyie쎯《	-10.508
jft쎯	-10.508
g쎯gd쎯	-10.5083
dyn쎯ya쎯	-10.5083
lfc쎯	-10.5087
sk쎯et쎯	-10.5092
bct쎯wys쎯	-10.5092
gkl쎯egc쎯ta쎯	-10.5093
ghd1쎯j쎯	-10.5094
wynb0쎯rh쎯	-10.5095
k쎯aw쎯ipk쎯km쎯,	-10.5095
tx쎯g쎯nm쎯	-10.5097
ad쎯qqqq1쎯wf쎯	-10.5099
gu쎯ck쎯.	-10.51
dd쎯uyh쎯	-10.5101
wa쎯fwf쎯	-10.5105
aq쎯ght쎯ywf쎯	-10.5107
qkm쎯mw쎯	-10.5107
qq쎯o쎯	-10.5108
xad쎯	-10.5109
dgtg0쎯wx쎯	-10.5109
xh쎯wycm1쎯	-10.5111
wvp쎯	-10.5114
.m쎯jf쎯,	-10.5119
vvv쎯bynw0쎯	-10.5122
sm쎯ysi쎯	-10.5123
vc쎯vc쎯	-10.5127
gu쎯pv쎯	-10.5127
wdn쎯yv쎯r쎯	-10.5129
,ccc쎯tq쎯	-10.513
pu쎯nu쎯	-10.5131
wnnf0쎯	-10.5135
wh쎯ntg쎯wx쎯	-10.5136
qgq쎯	-10.5138
t쎯py쎯wf쎯	-10.5139
idr쎯gf쎯	-10.514
b쎯“	-10.5146
pn쎯yy쎯	-10.5147
ag쎯rh쎯	-10.5147
g쎯xg쎯	-10.5148
sgjq쎯	-10.5148
o쎯ad쎯dbm쎯	-10.5149
gh쎯go쎯	-10.515
sbd쎯lkmi0쎯gae쎯	-10.5152
,j쎯g쎯rn쎯	-10.5152
vt쎯rh쎯	-10.5153
trng쎯	-10.5153
gh쎯uk쎯	-10.5158
iyv쎯ijlc쎯	-10.5158
cn쎯dq쎯ln쎯y쎯yq쎯	-10.5158
pt쎯w쎯	-10.5158
g쎯wsg0쎯wx쎯	-10.5159
.ige쎯	-10.5162
nf쎯jgm쎯	-10.5162
dd쎯ahn쎯	-10.5165
cd쎯xyna1쎯	-10.5165
,p쎯tkh쎯	-10.5169
q쎯wc쎯ngk쎯	-10.5179
ykk쎯	-10.518
gmd0쎯maw쎯	-10.5181
ym쎯ige쎯	-10.5182
fcln쎯	-10.5184
y쎯xt쎯	-10.5189
ith쎯ftbt쎯yce쎯ds쎯	-10.5193
fcu1쎯an쎯	-10.5193
ssg쎯	-10.5196
g쎯wwv쎯	-10.5196
rpwn0쎯rnbm쎯	-10.5199
tl쎯pu쎯	-10.5199
og쎯wtu쎯	-10.52
bg쎯tg쎯uk쎯	-10.5205
al쎯ce쎯:	-10.5206
lk쎯h쎯	-10.5207
gmii2쎯	-10.5212
k쎯yygy쎯qk쎯:	-10.5215
,dr쎯qk쎯	-10.5215
iak쎯ivc쎯	-10.5217
.쎂쎀쎀쎆rh쎯	-10.5219
ftjb쎯ce쎯	-10.5221
gef쎯itx쎯	-10.5222
ua쎯d쎯	-10.5223
zzbd3쎯ux쎯yiu0쎯	-10.5223
um쎯wf쎯	-10.5224
khu쎯gfi쎯fcp쎯fcl쎯	-10.5225
쎁/	-10.5226
itd쎯fcl쎯r쎯	-10.5227
yny0쎯u쎯	-10.523
sm쎯,	-10.5231
g쎯jjjj0쎯	-10.5232
xtu쎯gf쎯	-10.5234
lh쎯fgh쎯	-10.5235
s쎯gxi쎯	-10.5237
gm쎯dhb쎯	-10.5238
r쎯ukd1쎯jghm1쎯	-10.524
pgc쎯y쎯wtf쎯	-10.5242
w쎯uj쎯	-10.5245
r쎯yid쎯et쎯	-10.525
ud쎯ny쎯	-10.5252
eu쎯gkh0쎯	-10.5256
nn쎯	-10.526
tfk0쎯dq쎯	-10.5262
wk쎯ijl쎯	-10.5263
jjjj0쎯rb쎯	-10.5264
쎁쎂쎀쎀	-10.5266
rtfp0쎯	-10.527
tffu쎯tffu쎯.	-10.5271
ftg쎯dgh쎯	-10.5272
f쎯gkp쎯	-10.5273
kq쎯h쎯	-10.5275
sk쎯wv쎯o쎯	-10.5275
fjg0쎯dq쎯	-10.5275
zzbd3쎯ymhj0쎯	-10.5276
nc쎯ulg쎯	-10.5278
iyb쎯	-10.5279
oge쎯ese쎯	-10.528
r쎯ip쎯tg쎯	-10.5285
m쎯g쎯	-10.5285
쎁쎉쎃쎆rh쎯	-10.5286
ibi쎯	-10.5288
icd쎯	-10.5289
(qn쎯rtd쎯	-10.5295
,gcft0쎯lt쎯gf쎯	-10.5295
lgm쎯	-10.5297
zzbd3쎯amw쎯	-10.5302
쎄rh쎯	-10.5311
ige쎯usr쎯	-10.5311
tfqp쎯yce쎯	-10.5313
r쎯trf0쎯hko쎯	-10.5316
ndj쎯bpf쎯	-10.5316
xa쎯qh쎯	-10.5318
nf쎯xuj쎯	-10.5318
tk쎯l쎯	-10.5319
,o쎯b쎯	-10.5321
ce쎯lt쎯,	-10.5322
pw쎯k쎯	-10.5323
qnq쎯ou쎯	-10.5324
tx쎯wty0쎯	-10.5324
ynjh1쎯	-10.5325
tg쎯u쎯zzbd3쎯	-10.5328
fm쎯psu0쎯	-10.5328
uqwm1쎯egl쎯	-10.533
(쎁	-10.533
gmww쎯dd쎯	-10.5331
ux쎯psu0쎯	-10.5334
l쎯bf쎯sm쎯fnrt쎯	-10.5334
fu쎯u쎯	-10.5336
abe쎯	-10.5336
.쎁쎁	-10.5338
ngk쎯wyc쎯	-10.5339
ge쎯je쎯	-10.534
,tuj0쎯tq쎯	-10.5342
ukd1쎯jghm1쎯r쎯	-10.5345
쎈)	-10.5346
rfc쎯sy쎯,	-10.5347
uoo쎯	-10.5348
fq쎯ovt쎯	-10.535
쎁쎉쎃쎅rh쎯	-10.535
xwy0쎯rf쎯	-10.5352
tqv쎯pg쎯ntg쎯	-10.5352
mw쎯ymc쎯	-10.5353
쎁쎅쎀쎀	-10.5354
e쎯ud쎯uk쎯uyh쎯	-10.5361
w쎯.k쎯aw쎯ipk쎯km쎯.	-10.5364
쎉-	-10.5364
yygy쎯bu쎯	-10.5366
dnv0쎯w쎯	-10.5366
ybv0쎯ton쎯	-10.537
,ukn쎯	-10.5371
ith쎯ght쎯ywf쎯	-10.5373
》k쎯r쎯	-10.5375
.p쎯hxf쎯	-10.5378
k쎯l쎯gl쎯	-10.5385
jjjj0쎯,	-10.5387
dm쎯h쎯	-10.5388
vnu1쎯sfi쎯	-10.5389
ght쎯fl쎯tv쎯km쎯	-10.539
jhf1쎯bwg쎯	-10.5393
jtyq0쎯	-10.5393
dd쎯f쎯	-10.5395
sg쎯w쎯	-10.5397
tjtl쎯gfi쎯	-10.5397
쎁쎉쎀	-10.5398
%	-10.5399
lfon1쎯	-10.54
ggi쎯xat0쎯	-10.5403
ucw쎯a쎯	-10.5403
ukn쎯xg쎯	-10.5406
adnt1쎯nnh쎯	-10.5406
sagg0쎯lks쎯	-10.5407
ukn쎯w쎯kkkk1쎯	-10.5412
dn쎯al쎯r쎯	-10.5414
bnn2쎯bb쎯	-10.5415
sghg1쎯kht쎯	-10.5415
,qm쎯gmu1쎯	-10.5417
tqq쎯n쎯	-10.5418
,gm쎯d쎯	-10.5419
dd쎯qq쎯	-10.5419
je쎯fje쎯	-10.5419
,dr쎯	-10.542
v쎯udp쎯	-10.5421
wsg0쎯tgj쎯	-10.5423
bqn쎯bb쎯	-10.5425
jn쎯du쎯	-10.5429
rmc쎯uqwm1쎯ftj쎯	-10.5429
쎂kgn쎯	-10.543
sagg0쎯	-10.5432
ymhj0쎯fnrt쎯r쎯	-10.5435
pu쎯gm쎯b쎯	-10.5437
yyne0쎯	-10.5439
uym쎯	-10.544
ght쎯ywf쎯rn쎯d쎯f쎯	-10.5441
ip쎯tg쎯r쎯	-10.5441
sgn쎯yy쎯	-10.5443
aww쎯	-10.5444
el쎯	-10.5445
m1쎯	-10.5446
dg쎯jtg쎯	-10.5447
쎁쎀wh쎯	-10.5449
.bde쎯udh쎯	-10.545
bm쎯r쎯	-10.5452
dn쎯kkk쎯	-10.5452
j쎯:	-10.5453
j쎯x쎯	-10.5453
쎁.쎄	-10.5455
wv쎯nnk쎯	-10.5461
ipgg0쎯	-10.5462
ll쎯w쎯	-10.5467
n쎯lw쎯	-10.5467
o쎯sg쎯	-10.5472
yox쎯ma쎯	-10.5476
wg쎯thd쎯fcl쎯	-10.5476
wyp쎯hh쎯	-10.5476
,ipw쎯epc쎯	-10.5477
쎁쎉쎃쎇rh쎯	-10.5479
j쎯g쎯uk쎯	-10.548
gk쎯adm쎯	-10.5481
rc쎯tmdf1쎯	-10.5487
쎂.쎄	-10.5489
trf0쎯xq쎯	-10.549
ywe쎯	-10.5494
fghg쎯tg쎯nf쎯jgm쎯,	-10.5495
uqd2쎯”	-10.5495
fqb0쎯rh쎯	-10.5495
uk쎯wrh1쎯	-10.5495
itx쎯ud쎯	-10.5499
nck쎯	-10.5505
thdu0쎯	-10.5506
쎁/쎂	-10.5506
thp쎯ta쎯	-10.5509
wn쎯fqb0쎯	-10.551
iv쎯qd쎯	-10.551
(ak쎯	-10.5511
rep쎯cbj쎯“	-10.5516
uu쎯vcb쎯	-10.552
mw쎯,	-10.5522
,vcl쎯lt쎯	-10.5527
rry쎯	-10.5529
nf쎯tey0쎯	-10.553
g쎯dj쎯	-10.5531
ukq쎯	-10.5532
.mh쎯	-10.5533
dd쎯gf쎯	-10.5536
j쎯q쎯l쎯	-10.5538
xox쎯	-10.5538
gkl쎯ftbt쎯rep쎯,	-10.554
de쎯shi쎯ow쎯	-10.5541
쎁쎄쎀	-10.5541
kkkk1쎯dgkn0쎯	-10.5544
r쎯ad쎯dbm쎯h쎯,	-10.555
o쎯yygt쎯dd쎯	-10.5552
,j쎯g쎯pe쎯	-10.5553
uq쎯lwj쎯	-10.5558
nty0쎯af쎯ga쎯yt쎯	-10.5561
em쎯mww쎯	-10.5562
rxj쎯fi쎯	-10.5565
jge쎯	-10.5567
tjf0쎯kfi쎯	-10.557
,etn쎯	-10.5571
,j쎯rxj쎯	-10.5576
쎁쎉쎄쎁rh쎯	-10.5577
dhb쎯d쎯r쎯	-10.5579
『	-10.558
lpk0쎯fa쎯	-10.558
qh쎯,	-10.5582
ihcv쎯	-10.5588
쎁쎉쎄쎂rh쎯	-10.559
vvv쎯qt쎯	-10.559
qug2쎯	-10.5592
tg쎯ugv쎯	-10.5596
cwg쎯nh쎯	-10.5597
uqwv쎯	-10.5597
adw쎯uj쎯	-10.56
es쎯wys쎯	-10.5601
qvb쎯	-10.5602
ai쎯fm쎯uk쎯	-10.5603
gkl쎯bpf쎯ta쎯	-10.5603
rmn0쎯tpi쎯	-10.5605
lrj쎯	-10.5605
v쎯rnbm쎯	-10.5605
yt쎯tmdf1쎯	-10.5606
u쎯zzbd3쎯qie쎯wyk쎯	-10.5606
ip쎯qk쎯	-10.5606
iq쎯jn쎯	-10.5608
ffff1쎯ssss0쎯	-10.5613
jaj1쎯	-10.5614
ymc쎯tlf0쎯r쎯	-10.5615
maw쎯gajf0쎯r쎯	-10.5615
tmg1쎯tg쎯tr쎯	-10.5616
(.)	-10.5618
itf쎯uqv쎯,	-10.5618
tm쎯h쎯	-10.562
fj쎯at쎯	-10.562
tffu쎯yy쎯dm쎯r쎯	-10.5622
rtol0쎯bm쎯	-10.5623
fl쎯wt쎯	-10.5625
fhv쎯fha쎯	-10.5631
zzbd3쎯usr쎯	-10.5631
sm쎯sq쎯.	-10.5633
jf쎯wa쎯r쎯	-10.5634
tt쎯gl쎯	-10.5636
xev쎯	-10.5638
fqw쎯	-10.564
qtny1쎯	-10.5641
쎃쎆쎀	-10.5641
"="	-10.5648
yu쎯:“	-10.5651
pt쎯fcp쎯	-10.5652
sh쎯iv쎯gf쎯	-10.5652
gdj쎯	-10.5654
usgp1쎯trfh1쎯	-10.5656
reh쎯	-10.5659
rpwn0쎯	-10.5668
et쎯ii쎯	-10.5668
mb쎯wrh1쎯	-10.5672
a쎯tkgg1쎯rfc쎯sy쎯	-10.5672
o쎯w쎯	-10.5673
a쎯tkgg1쎯txi쎯	-10.5678
qtfj0쎯mww쎯	-10.5679
ack쎯	-10.5679
bib쎯	-10.568
mf쎯x쎯	-10.5681
ddn쎯	-10.5681
pnt쎯av쎯	-10.5685
mwwk0쎯	-10.5686
zzsx6쎯쎁	-10.5687
qlh1쎯	-10.5688
imk쎯itx쎯	-10.5689
teg1쎯wtfm3쎯	-10.5692
itx쎯h쎯	-10.5694
-쎉	-10.5694
trfg0쎯myd0쎯	-10.5696
ubte쎯	-10.5699
zzpj45쎯	-10.5701
rxj쎯r쎯j쎯	-10.5703
wdt쎯bm쎯b쎯	-10.5704
,p쎯hxf쎯	-10.5705
rjg1쎯	-10.5711
rcp쎯lkd쎯	-10.5711
쎂쎄쎀	-10.5716
wx쎯wgk쎯tr쎯	-10.5716
ny쎯eyf쎯	-10.5716
tg쎯itd쎯d쎯	-10.5717
tp쎯gj쎯txi쎯xyc쎯	-10.5718
rawk쎯sgn쎯	-10.5718
mmm쎯qfhw1쎯	-10.5721
zzy0쎯	-10.5721
r쎯gj쎯shn쎯	-10.5722
pynn0쎯wyq쎯	-10.5723
ymf쎯dga쎯	-10.5733
yopy1쎯	-10.5733
afd1쎯ajj0쎯	-10.5736
kqr쎯	-10.5736
쎁쎉쎃쎄rh쎯	-10.5737
g쎯jsd쎯	-10.5739
igd쎯	-10.574
r쎯ujf0쎯qi쎯	-10.5741
thd쎯tf쎯	-10.5742
usr쎯pei쎯sf쎯	-10.5753
fghg쎯tg쎯nf쎯jgm쎯.	-10.5753
cq쎯	-10.5755
jjjj0쎯uwl쎯	-10.5762
tq쎯pp쎯o쎯	-10.5763
tg쎯u쎯whf0쎯og쎯	-10.5764
x쎯g쎯u쎯og쎯w쎯ovt쎯	-10.5767
xqc쎯xxe쎯	-10.5769
tr쎯og쎯tp쎯gj쎯	-10.5771
km쎯,	-10.5772
ps쎯ihc쎯ymhj0쎯	-10.5773
iak쎯ssss0쎯	-10.5774
.rp쎯rh쎯go쎯,	-10.5776
vfh쎯	-10.5778
ukqb2쎯	-10.5778
xh쎯ty쎯	-10.5779
udi0쎯uk쎯	-10.5782
r쎯i쎯m쎯	-10.5783
쎁쎉쎄쎄rh쎯	-10.5784
쎁wc쎯jfd쎯	-10.5787
khgm3쎯ytt쎯	-10.5788
twgi쎯xq쎯	-10.5791
ymf쎯kfi쎯	-10.5792
wa쎯ytm쎯	-10.5794
vj쎯	-10.5796
wygg쎯pwdj쎯	-10.5798
wbj쎯wt쎯r쎯	-10.58
ap쎯yss쎯	-10.5801
쎅)	-10.5802
rw쎯mty1쎯	-10.5803
jjjj0쎯adwe1쎯:	-10.5805
tx쎯vt쎯	-10.5806
ad쎯dbm쎯h쎯	-10.5807
xl쎯ab쎯	-10.5811
m쎯tf쎯	-10.5811
gw쎯gr쎯	-10.5812
ep쎯vb쎯	-10.5813
wat쎯	-10.5815
wk쎯bg쎯	-10.5816
fku쎯ndj쎯	-10.5817
ujfj0쎯ma쎯	-10.5818
rs쎯fmk쎯	-10.582
ukn쎯gj쎯	-10.582
gt쎯grq쎯	-10.582
g쎯sg쎯	-10.5823
iyc쎯fakg0쎯	-10.5825
fl쎯wf쎯gj쎯gk쎯	-10.5827
wv쎯aet1쎯	-10.5827
tp쎯gj쎯r쎯	-10.5827
쎁쎈쎅	-10.5827
f쎯gae쎯	-10.5831
ggg0쎯bb쎯	-10.5834
쎇)	-10.5836
pn쎯km쎯	-10.5837
ux쎯kht쎯	-10.5837
sghg1쎯wmj1쎯	-10.584
k쎯yygy쎯qk쎯tq쎯:	-10.584
dmq쎯	-10.5841
ln쎯shn쎯ght쎯ick쎯	-10.5842
bd쎯yad쎯	-10.5842
(쎁).	-10.5842
tr	-10.5844
ssu쎯	-10.5844
ymc쎯yf쎯r쎯	-10.5848
sh쎯wfny0쎯	-10.5848
iq쎯tel쎯	-10.5849
mq쎯iq쎯	-10.5849
ujn쎯qh쎯	-10.5854
ii쎯k쎯	-10.5856
쎁w쎯,	-10.5856
fge쎯jtyq0쎯wf쎯	-10.5857
w쎯rnb쎯	-10.5858
ow쎯gs쎯	-10.586
yygy쎯wx쎯r쎯	-10.5861
qnw쎯	-10.5867
k쎯wxf쎯atd쎯ip쎯wf쎯	-10.5871
rj쎯bc쎯	-10.5871
xj쎯d쎯	-10.5875
iytb0쎯iyni1쎯	-10.5876
sff1쎯ss쎯	-10.5878
wf쎯yyq쎯pgc쎯	-10.588
tg쎯gqf쎯	-10.5887
vs쎯uq쎯	-10.5889
ijl쎯fnm쎯	-10.5891
usr쎯an쎯xn쎯	-10.5893
wb쎯w쎯	-10.5895
tyna2쎯.	-10.5898
ghd1쎯dqe쎯	-10.59
ggn쎯	-10.5902
iv쎯k쎯	-10.5903
xyna1쎯tv쎯	-10.5905
r쎯ad쎯dbm쎯	-10.5906
dn쎯ygk쎯	-10.5907
pwtf1쎯	-10.5909
쎅쎁쎂	-10.5911
tu쎯ta쎯	-10.5911
uq쎯cyi쎯	-10.5914
wsg0쎯ta쎯	-10.5915
rawk쎯	-10.5919
rt쎯mm쎯	-10.592
irr쎯ia쎯dd쎯ip쎯	-10.592
bb쎯wc쎯ngk쎯	-10.5921
kfi쎯oge쎯	-10.5921
fwf쎯	-10.5922
wt쎯kkk쎯《	-10.5923
sh쎯xo쎯	-10.5925
yu쎯,	-10.5928
ip쎯tu쎯gkp쎯udi0쎯	-10.5929
es쎯et쎯b쎯	-10.5933
,gh쎯	-10.5933
fc쎯uk쎯	-10.5933
ndj쎯lft쎯	-10.5935
wvm쎯ls쎯	-10.5939
xe쎯a쎯tkgg1쎯jgm쎯	-10.594
tffu쎯w쎯	-10.5941
riv쎯	-10.5941
qn쎯rtd쎯:	-10.5942
”,“	-10.5943
,uq쎯cep쎯	-10.5946
mhm쎯	-10.5946
,wv쎯klj쎯	-10.5948
wgkb0쎯wyc쎯	-10.5949
쎁쎉쎃쎃rh쎯	-10.5953
ubtf0쎯tfkp0쎯	-10.5954
tx쎯g쎯pe쎯	-10.5956
쎆.	-10.5958
trf0쎯hko쎯:	-10.5958
e쎯bv쎯	-10.5958
;쎂zzbd3쎯	-10.5959
puv쎯hi쎯	-10.5964
ipk쎯xeg0쎯xkw쎯	-10.5965
rym쎯	-10.5965
wh쎯ftbt쎯ip쎯gyt쎯,	-10.5967
jn쎯begg쎯	-10.5968
ger쎯	-10.5969
lh쎯tb쎯	-10.5973
o쎯wqin쎯	-10.5974
iyj쎯fm쎯ymhj0쎯	-10.5975
tf쎯ght쎯tp쎯gj쎯	-10.5975
fggh쎯rdn쎯	-10.5976
rt쎯a쎯	-10.5978
dn쎯o쎯b쎯	-10.598
pv쎯wg쎯tg쎯u쎯	-10.5985
sg쎯tu쎯tg쎯	-10.5986
aft쎯e쎯	-10.5987
.g쎯tem쎯	-10.5992
ngk쎯cn쎯	-10.5993
swgu쎯	-10.5993
jn쎯uh쎯	-10.5993
dj쎯wxm쎯	-10.5993
fy쎯	-10.5994
ghg1쎯	-10.5998
tfl쎯zzbd10쎯	-10.5998
쎂쎀쎁쎄rh쎯	-10.5998
xk쎯dd쎯	-10.5999
zzbd3쎯jn쎯bb쎯	-10.5999
ukn쎯jtyl쎯	-10.6
x쎯》	-10.6001
xf쎯vq쎯	-10.6002
dnv0쎯ylf0쎯	-10.6003
r쎯qk쎯pb쎯	-10.6005
iie쎯ditn1쎯	-10.6005
rfc쎯sy쎯eb쎯tl쎯	-10.6006
l쎯pe쎯tgj쎯hko쎯	-10.6008
fug0쎯fe쎯	-10.6009
.et쎯gf쎯	-10.6011
yfd쎯sf쎯	-10.6017
tdjh1쎯	-10.6018
atdp쎯	-10.6018
,j쎯g쎯tkh쎯	-10.6019
.ld쎯hx쎯,	-10.6021
v쎯nae0쎯dn쎯o쎯	-10.6021
cep쎯mq쎯	-10.6027
nnh쎯gl쎯pe쎯	-10.6028
tb쎯ab쎯	-10.6028
y쎯yfj0쎯	-10.6029
,cep쎯ipkh1쎯	-10.6032
vcy0쎯	-10.6034
skf쎯	-10.6035
oja쎯oth쎯	-10.6035
pyb1쎯	-10.6036
fcl쎯eyni쎯	-10.6038
쎁zzbd0쎯	-10.6039
rw쎯fcu1쎯	-10.604
srm쎯awx쎯	-10.6043
ga쎯ynk쎯	-10.6044
vpe쎯	-10.6045
rgf쎯rg쎯	-10.6048
efc쎯	-10.6048
ˋ	-10.605
쎆rh쎯	-10.605
쎉wh쎯	-10.6051
eqn쎯	-10.6051
uk쎯.	-10.6052
gd쎯wgkq0쎯	-10.6054
wc쎯uq쎯	-10.6054
n쎯wwwk0쎯	-10.6055
rge쎯	-10.6058
zzbd3쎯kfi쎯oge쎯	-10.606
qnj쎯	-10.6062
aq쎯zzbd3쎯	-10.6065
쎈kgn쎯	-10.6065
y쎯s쎯c쎯	-10.6068
nh쎯mqc쎯	-10.6068
yygt쎯dd쎯pt쎯yne쎯	-10.607
dm쎯tkw쎯쎄	-10.6072
jhf1쎯	-10.6073
jb쎯ih쎯	-10.6074
kv쎯	-10.6078
,gf쎯j쎯	-10.608
ud쎯uft쎯	-10.608
dcw쎯djb쎯r쎯	-10.6081
ip쎯wug0쎯,	-10.6081
rc쎯tjt쎯	-10.6082
ic쎯pb쎯	-10.6082
xtf쎯	-10.6083
mw쎯ibi쎯	-10.6083
xa쎯yta쎯	-10.6086
tv쎯ipkh1쎯tv쎯	-10.6088
쎁쎉쎃쎉rh쎯	-10.6089
zzbd3쎯sb쎯	-10.6089
qtyd0쎯	-10.6093
rg쎯akgl쎯	-10.6097
yngk1쎯ian1쎯	-10.6103
xcy0쎯rnr쎯	-10.6108
y쎯rf쎯w쎯	-10.6108
cbt쎯rfh1쎯	-10.6109
qnnk2쎯udyj쎯	-10.6111
x쎯apk쎯tp쎯gj쎯	-10.6113
wtp쎯	-10.6113
y쎯ick쎯	-10.6114
y쎯lt쎯	-10.6115
쎅wc쎯jfd쎯	-10.6117
vfi쎯	-10.6117
pq쎯	-10.6125
yw쎯pg쎯	-10.6129
xtk쎯	-10.6129
bm쎯ipg쎯	-10.613
alfj1쎯	-10.6131
ipkh1쎯ipkh1쎯	-10.6132
r쎯hhhh쎯sfi쎯	-10.6133
wsg0쎯rmhj쎯	-10.6135
.쎂쎀쎀쎈rh쎯	-10.6136
rvy쎯if쎯	-10.6137
,wt쎯o쎯	-10.6139
gkl쎯y쎯wtf쎯tv쎯km쎯	-10.614
y쎯src쎯	-10.6141
y쎯wtf쎯.	-10.6142
l쎯pe쎯g쎯xe쎯	-10.6144
ii쎯dm쎯	-10.6145
d쎯l쎯mw쎯qh쎯	-10.6146
bm쎯kkk쎯	-10.6148
mh쎯k쎯l쎯	-10.6148
pt쎯yne쎯rj쎯waw쎯	-10.6153
wgqt쎯	-10.6158
y쎯w쎯wc쎯	-10.6159
adef1쎯aynr쎯	-10.616
see쎯	-10.6161
iwyf1쎯	-10.6161
wc쎯www쎯	-10.6163
oja쎯v쎯	-10.6165
jqw쎯	-10.6167
uck쎯	-10.6168
zzts11쎯	-10.6171
pu쎯jf쎯	-10.6173
wc쎯tl쎯km쎯	-10.6174
gmww쎯w쎯	-10.6176
pym쎯jfc쎯	-10.6178
uduk0쎯gf쎯	-10.6179
pei쎯og쎯uk쎯	-10.618
gj쎯ywx쎯gn쎯	-10.618
tg쎯u쎯ymc쎯tlf0쎯	-10.6181
dm쎯src쎯	-10.6181
pt쎯cm쎯	-10.6183
qnth쎯ipg쎯	-10.6183
yne쎯gajf0쎯	-10.6186
쎁.쎃	-10.6187
zzbd3쎯tu쎯dga쎯	-10.6188
pei쎯wt쎯tr쎯	-10.6189
tg쎯u쎯qie쎯wyk쎯	-10.6193
aqv1쎯	-10.6196
gfi쎯km쎯	-10.6197
uvo쎯pww쎯	-10.6197
wdn쎯gjh2쎯	-10.6198
쎁쎀쎀dq쎯	-10.6198
r쎯g쎯rn쎯	-10.62
iyjh쎯jtyq0쎯	-10.6201
dgkn0쎯gc쎯	-10.6204
sg쎯ffff1쎯	-10.6205
ftbt쎯dga쎯	-10.6206
gkl쎯y쎯xyna1쎯	-10.6207
bu쎯xtk쎯	-10.6208
/쎃	-10.6211
ga쎯ii쎯	-10.6211
tjt쎯rmhj쎯	-10.6212
jty쎯ysi쎯x쎯cwg쎯	-10.6216
xk쎯gqjo0쎯	-10.6217
tdg1쎯wy쎯	-10.6222
ii쎯wv쎯	-10.6222
kld쎯	-10.6225
ugdu쎯kfi쎯	-10.6226
rb쎯xqa쎯	-10.6227
wfny0쎯fcl쎯	-10.6229
src쎯fnw쎯	-10.6229
v쎯nae0쎯fwm쎯aj쎯	-10.6229
pj쎯udjh쎯	-10.623
vbn쎯wu쎯	-10.623
ym쎯dr쎯	-10.6231
awx쎯tg쎯	-10.6233
ywe쎯ubk1쎯	-10.6234
wf쎯wf쎯km쎯	-10.6234
ww쎯hx쎯	-10.6241
zzbd3쎯if쎯fwm쎯	-10.6243
.쎂쎀쎀쎇rh쎯	-10.6244
bmg쎯	-10.6248
nwgk0쎯	-10.6251
lsh0쎯	-10.6251
twt쎯ytyh쎯	-10.6252
wxf쎯dht쎯	-10.6252
cwg쎯	-10.6253
kht쎯,	-10.6253
ngk쎯wyc쎯uk쎯	-10.6254
lu쎯dd쎯r쎯	-10.6254
o쎯adw쎯	-10.6256
rgf쎯pe쎯	-10.6258
aqg쎯aqr쎯isgg2쎯	-10.626
mqq쎯hhu0쎯	-10.6264
yy쎯if쎯,	-10.6265
rke쎯	-10.6269
,ugdu쎯l쎯	-10.627
v쎯dp쎯	-10.627
p쎯uk쎯	-10.6272
sk쎯tfkd쎯	-10.6274
if쎯w쎯	-10.6275
uvo쎯bk쎯	-10.6276
qt쎯tu쎯	-10.6276
ym쎯tld1쎯dfy쎯	-10.6277
g쎯cf쎯	-10.6277
itm쎯	-10.6279
qev쎯toc쎯:	-10.6284
,g쎯wh쎯	-10.6287
oge쎯pyj쎯,	-10.6292
ige쎯zzbd10쎯	-10.6294
ujfj0쎯wug0쎯:	-10.6299
.wug0쎯gf쎯	-10.6302
.ld쎯o쎯	-10.6303
pp쎯uj쎯,	-10.6306
iv쎯wynb0쎯	-10.6306
uth쎯ywf쎯	-10.631
쎂wc쎯jfd쎯	-10.6317
gklp쎯	-10.6321
jhk1쎯rb쎯	-10.6322
wgk쎯wt쎯,	-10.6322
쎂쎄ih쎯jf쎯	-10.6323
wg쎯tq쎯	-10.633
uv쎯	-10.6332
afw쎯	-10.6332
mqu쎯r쎯	-10.6334
tve쎯vb쎯r쎯	-10.6336
ynh쎯	-10.6337
ym쎯tffu쎯bpf쎯suq쎯	-10.6338
dgkf1쎯	-10.6343
쎁쎂쎅	-10.6344
xfnh쎯	-10.6345
fh쎯gc쎯	-10.6346
ipkh1쎯rh쎯	-10.635
bq쎯adnt1쎯	-10.6351
ton쎯	-10.6354
kkd쎯,	-10.6355
dqe쎯yw쎯	-10.6358
gqg0쎯utd쎯w쎯	-10.6358
sc쎯tjh쎯	-10.636
dgj쎯wx쎯	-10.636
jjj0쎯wsg0쎯	-10.6364
wo쎯	-10.6365
ubtf0쎯eu쎯	-10.6365
dgkn0쎯yid쎯	-10.6365
,epc쎯gc쎯	-10.6368
,tkw쎯se쎯	-10.637
ai쎯itx쎯	-10.6375
ue쎯imk쎯	-10.6379
bm쎯wtf쎯	-10.6379
,ww쎯gk쎯	-10.6382
wxf쎯k쎯	-10.6386
ugdu쎯ip쎯	-10.6387
qs쎯	-10.6388
ta쎯dp쎯	-10.6389
txgt쎯dgkn0쎯	-10.6391
fhn쎯gc쎯	-10.6392
h쎯jmd쎯	-10.6392
a쎯uqwm1쎯	-10.6392
fhw쎯ghd1쎯r쎯	-10.6394
bu쎯wgk쎯l쎯	-10.6394
nh쎯uwl쎯	-10.6395
,kw쎯	-10.6395
bm쎯th쎯	-10.6395
khv쎯khp쎯	-10.6396
dd쎯fny0쎯yygy쎯wx쎯	-10.6399
rn	-10.6399
rjg1쎯wk쎯	-10.6399
hi쎯tf쎯	-10.6401
oge쎯dqe쎯	-10.6403
pg쎯rmhj쎯	-10.6404
쎁.쎁	-10.6407
bn쎯kn쎯	-10.6409
hgm쎯	-10.641
tkh쎯,	-10.6412
ymc쎯d쎯	-10.6413
xeg0쎯xkw쎯r쎯	-10.6413
xvk쎯iw쎯	-10.6413
r쎯fdm쎯fiy쎯	-10.6415
?”	-10.6417
rh쎯xe쎯	-10.6419
bde쎯sm쎯	-10.642
.쎂쎀쎀쎅rh쎯	-10.6422
,xxr쎯	-10.6422
qyvl0쎯gh쎯	-10.6424
ral쎯pgn쎯	-10.6426
fje쎯bj쎯	-10.643
i쎯jqr쎯	-10.6431
ybj쎯	-10.6431
utd쎯ugm쎯r쎯	-10.6433
t쎯tp쎯gj쎯	-10.6433
y쎯s쎯x쎯apk쎯	-10.6434
.wg쎯sf쎯	-10.6439
ffff1쎯gku쎯	-10.6444
xyna1쎯kgn쎯	-10.6448
dn	-10.6449
rj쎯fi쎯	-10.6452
zzxx11쎯	-10.6453
ryl쎯	-10.6454
hx쎯qh쎯	-10.6455
nr쎯	-10.6455
vv쎯u쎯tu쎯	-10.6455
zzbd3쎯vkgd쎯qi쎯	-10.6457
rn쎯wt쎯	-10.6457
yid쎯qvn0쎯	-10.646
sg쎯nnh쎯j쎯	-10.646
fnrt쎯jy쎯	-10.6463
ny쎯vo쎯	-10.6464
wc쎯ngk쎯reh쎯e쎯	-10.6464
sghg1쎯pv쎯ymhj0쎯	-10.6465
bm쎯yam쎯	-10.6466
gip쎯dr쎯	-10.6467
od쎯klj쎯	-10.6467
ktm쎯yid쎯	-10.6468
pwd쎯bm쎯am쎯fmud쎯	-10.647
puhc쎯rep쎯cbj쎯	-10.6471
ai쎯wmj1쎯	-10.6477
wt쎯b쎯	-10.6478
lu쎯vb쎯	-10.6479
qr쎯kht쎯nnk쎯	-10.6481
ii쎯u쎯	-10.6486
l쎯u쎯	-10.6487
nnh쎯if쎯pe쎯	-10.6488
,j쎯g쎯wh쎯	-10.6488
rl쎯	-10.649
ivp쎯iqn쎯	-10.6491
ftbt쎯yce쎯ip쎯bpf쎯	-10.6493
wynm1쎯	-10.6501
if쎯》	-10.6502
ija쎯dmh0쎯	-10.6502
yxl쎯	-10.6503
gajf0쎯whf0쎯og쎯	-10.6505
uyh쎯yne쎯	-10.6506
bde쎯jf쎯	-10.6509
an쎯pe쎯	-10.6509
tdtv0쎯	-10.6509
bn쎯wf쎯	-10.651
lfof3쎯sghg1쎯sks쎯	-10.6511
.wb쎯wu쎯	-10.6512
xnf쎯	-10.6513
ijl쎯ytyh쎯ymhj0쎯	-10.6513
syf쎯	-10.6516
쎂.쎂	-10.6518
tqq쎯sfhg쎯	-10.6519
tmd쎯lp쎯	-10.6523
qrn쎯	-10.6526
sqq쎯	-10.6527
tuu0쎯tb쎯	-10.6529
ygu쎯pj쎯	-10.6531
%.	-10.6531
ltu0쎯nnh쎯>	-10.6536
k쎯gxgu쎯	-10.6538
tgj쎯tjt쎯	-10.6544
xfm쎯pwat0쎯	-10.6545
ip쎯rb쎯	-10.6548
쎁쎀rh쎯	-10.6551
pww쎯kkd쎯	-10.6556
wt쎯et쎯,	-10.6557
ynm쎯dmh0쎯	-10.6557
av쎯thg1쎯	-10.6557
rgs쎯	-10.6558
wtf쎯ujn쎯	-10.6561
gyt쎯y쎯wtf쎯	-10.6562
an쎯lwj쎯tk쎯f쎯	-10.6562
lfo쎯rrr쎯	-10.6563
oo쎯zzbd3쎯	-10.6566
tv쎯ipk쎯suq쎯	-10.6568
lfn쎯yo쎯	-10.6568
vfhp1쎯l쎯	-10.6569
tv쎯pgj쎯wfny0쎯uk쎯	-10.6573
nnh쎯zzbd10쎯	-10.6575
you1쎯tq쎯	-10.6575
o쎯:	-10.6576
,aqt쎯tj쎯	-10.6577
bll쎯	-10.6579
쎀.쎆	-10.6586
jf쎯ynt0쎯	-10.6587
fkuc3쎯ddnl쎯	-10.6588
”)	-10.659
dht쎯tb쎯	-10.6591
jf쎯r쎯	-10.6593
ght쎯sc쎯	-10.6595
.wv쎯dmh0쎯gf쎯	-10.6595
.cep쎯fp쎯	-10.6595
ta쎯iit쎯ymhj0쎯	-10.6596
ntt쎯tf쎯	-10.6597
dg쎯xwy0쎯	-10.6599
uxe쎯dm쎯	-10.6603
sp쎯qc쎯	-10.6604
.rg쎯go쎯	-10.6604
fk	-10.6605
gkp쎯udh쎯	-10.6605
bm쎯gm쎯d쎯	-10.6606
prh쎯	-10.6613
ttt쎯	-10.6615
nngt쎯	-10.6618
ebf0쎯	-10.662
ab쎯xq쎯	-10.6621
rvyo쎯ii쎯	-10.6623
gmww쎯mdfj쎯	-10.6624
r쎯tf쎯o쎯	-10.6626
e쎯w쎯	-10.6629
gm쎯e쎯km쎯a쎯	-10.6634
edjn쎯	-10.6635
쎉)	-10.6637
yi쎯e쎯	-10.6641
zzbd3쎯eb쎯tl쎯	-10.6641
tuj0쎯ujfj0쎯r쎯	-10.6641
abi쎯irn쎯	-10.6644
txgi5쎯wxf쎯	-10.6647
wbj쎯tfkp0쎯b쎯	-10.6647
px쎯j쎯	-10.6648
qynm1쎯mgn쎯	-10.6652
ux쎯ugdu쎯	-10.6656
,rxj쎯	-10.6657
twf쎯kgn쎯	-10.6661
emc쎯wwv쎯rmhj쎯	-10.6663
tonu0쎯	-10.6664
y쎯apk쎯	-10.6664
yi쎯ce쎯	-10.6667
dyi쎯fw쎯	-10.6668
imj쎯xwf쎯	-10.667
oge쎯vo쎯	-10.6671
rjq쎯	-10.6674
wvf0쎯wg쎯	-10.6675
geht0쎯	-10.6676
wwj쎯wfhg0쎯.	-10.6676
td쎯qk쎯ya쎯	-10.6678
.”psu0쎯	-10.6678
rrp쎯an쎯	-10.668
;쎁	-10.6681
x쎯apk쎯gj쎯wynn3쎯,	-10.6681
yjjh0쎯zzbd3쎯	-10.6683
gu쎯yy쎯wc쎯jfd쎯	-10.6683
쎃wc쎯jfd쎯	-10.6683
toln1쎯oi쎯	-10.6686
uqf쎯wf쎯	-10.6688
fgf0쎯	-10.6688
gwy1쎯	-10.6688
ujf0쎯tsh1쎯	-10.6691
(쎁쎈	-10.6692
yy쎯if쎯.	-10.6692
g쎯k쎯	-10.6693
uni1쎯	-10.6693
scf쎯uu쎯	-10.6696
qgj쎯nfp쎯	-10.6698
쎁쎉쎃쎀rh쎯	-10.67
g쎯w쎯	-10.6701
ugdu쎯vvv쎯	-10.6701
m쎯qk쎯	-10.6709
tyna2쎯ywx쎯yygy쎯	-10.6712
uthp0쎯ftbt쎯	-10.6714
pgy쎯pgy쎯	-10.6716
fg쎯w쎯	-10.6717
ukn쎯wsg0쎯	-10.6717
(쎁쎈쎉	-10.6719
gf쎯hx쎯	-10.6719
jn쎯sux쎯	-10.6719
nnh쎯gl쎯anb0쎯sy쎯	-10.6722
gmww쎯dm쎯	-10.6722
ipw쎯ynt0쎯	-10.6724
ta쎯xq쎯	-10.6724
tt쎯qk쎯	-10.6725
faw쎯hh쎯	-10.6726
rfc쎯if쎯	-10.6726
gkm쎯uqwm1쎯	-10.6728
kcy0쎯	-10.6729
,uq쎯cep쎯wgj쎯tjh쎯	-10.673
yce쎯w쎯	-10.6733
qi쎯lfq쎯	-10.6735
thp쎯pv쎯	-10.6736
wvt쎯adwr0쎯uff쎯	-10.6739
itx쎯ii쎯	-10.674
.tfq쎯rg쎯	-10.674
쎇.쎅	-10.674
g쎯wh쎯w쎯	-10.6744
km쎯zzbd3쎯	-10.6745
ght쎯if쎯	-10.6746
tx쎯쎄	-10.6749
xl쎯gcft0쎯	-10.675
l쎯n쎯	-10.6754
gv쎯bb쎯	-10.6754
fhn쎯wtf쎯	-10.6757
pdx쎯	-10.6758
ujfj0쎯qtj쎯	-10.6759
gkm쎯ty쎯	-10.6759
ue쎯fj쎯	-10.6759
dnv2쎯adw쎯j쎯	-10.676
tjt쎯jgf쎯dd쎯ip쎯	-10.676
dnv0쎯wtu쎯	-10.6761
,hk쎯f쎯	-10.6762
vfhp1쎯ymc쎯r쎯	-10.6762
cm쎯hko쎯	-10.6762
.lpdk1쎯	-10.6763
dmj1쎯dn쎯,	-10.6763
us쎯thd쎯	-10.6763
tx쎯lh쎯nm쎯	-10.6764
o쎯g쎯	-10.6767
ey쎯sh쎯ud쎯	-10.6768
gk쎯yop쎯	-10.6771
:쎅	-10.6772
fqu쎯sk쎯	-10.6775
hxx쎯qc쎯	-10.6776
d쎯suq쎯ip쎯tg쎯	-10.678
rrr쎯ae쎯	-10.6781
tmd쎯ym쎯	-10.6781
,fm쎯	-10.6785
mqb쎯gf쎯	-10.6786
oge쎯ya쎯	-10.6787
lx쎯yf쎯	-10.6788
sk쎯wt쎯o쎯	-10.6789
fgh쎯vt쎯	-10.6789
lkd쎯jv쎯	-10.679
쎁zzsx6쎯	-10.6792
iy쎯tmdf1쎯	-10.6793
nfif0쎯	-10.6794
wy	-10.6796
rxj쎯fm쎯	-10.6797
wxm쎯fcp쎯	-10.6798
rwv쎯ipg쎯	-10.6801
adm쎯hhhh쎯r쎯	-10.6802
riu0쎯ytyh쎯	-10.6806
ihic쎯	-10.681
rrg1쎯fnud쎯	-10.6811
(wynk쎯	-10.6811
xtd쎯	-10.6811
k쎯ny쎯ih쎯ip쎯	-10.6812
yvw쎯	-10.6812
wv쎯gqje0쎯	-10.6813
ipq쎯bj쎯ymhj0쎯	-10.6815
tf	-10.6816
wwf쎯sfi쎯	-10.6818
ol쎯ck쎯	-10.6823
xpw쎯pgn쎯	-10.6825
pei쎯ax쎯	-10.6827
o쎯pt쎯yne쎯	-10.6828
so쎯bm쎯	-10.6829
txi쎯xyc쎯,	-10.6832
bd쎯ruv쎯	-10.6836
qn	-10.6842
jgm쎯aib쎯ip쎯suq쎯	-10.6845
r쎯anb0쎯sy쎯	-10.6846
aq쎯,	-10.6846
i쎯wjg쎯	-10.6846
.je쎯	-10.6847
h쎯b쎯	-10.6847
thd쎯qd쎯sf쎯	-10.6849
,gae쎯dn쎯b쎯	-10.685
qfhw1쎯wug0쎯gf쎯	-10.6851
gu쎯oy쎯	-10.6851
wyf0쎯dhb쎯	-10.6852
ipwk0쎯qev쎯	-10.6856
oqdo쎯ou쎯	-10.6856
awx쎯ur쎯	-10.6856
wb쎯d쎯	-10.6857
wg쎯tkgg1쎯	-10.686
rvk쎯um쎯	-10.6861
쎃쎅쎀	-10.6863
vt쎯dx쎯	-10.6863
nae0쎯bm쎯	-10.6863
efg1쎯	-10.6864
e쎯dif쎯f쎯	-10.6868
wv쎯klj쎯o쎯	-10.6872
fct쎯ey쎯	-10.6874
hich0쎯	-10.6876
qmw쎯	-10.6877
bm쎯gm쎯r쎯	-10.688
,aw쎯e쎯	-10.6883
,i쎯wcy0쎯	-10.6886
odm쎯	-10.6887
xxm쎯lfod0쎯	-10.6887
bw쎯km쎯	-10.6889
wdt쎯b쎯	-10.6889
vb쎯ygu쎯	-10.6889
isk쎯kkkk1쎯	-10.689
o쎯wfh0쎯tc쎯	-10.6891
ijq쎯	-10.6894
yaa쎯hko쎯	-10.6894
iu쎯aqrn1쎯	-10.6897
ii쎯jjj0쎯	-10.6898
et쎯f쎯	-10.6901
txi쎯y쎯wtf쎯	-10.6904
rxj쎯wyc쎯	-10.6909
ijl쎯jef1쎯	-10.691
b0쎯	-10.691
(쎁쎉쎂	-10.6911
rmc쎯jyie쎯	-10.6911
xry쎯	-10.6912
se쎯adw쎯	-10.6916
lkd쎯nh쎯	-10.6916
yh쎯wq쎯	-10.6917
pa쎯gkp쎯	-10.6918
tve쎯it쎯	-10.6918
fq쎯ywx쎯	-10.692
r쎯m쎯jf쎯	-10.692
ipmq쎯tj쎯	-10.692
al쎯ce쎯,	-10.6921
fu쎯lk쎯b쎯	-10.6921
fj쎯nae0쎯	-10.6923
gjq쎯vb쎯r쎯	-10.6923
vb쎯,	-10.6924
tffu쎯tk쎯tkh쎯	-10.6926
ihc쎯uff쎯	-10.6928
rdj쎯qk쎯	-10.6928
cep쎯fp쎯b쎯	-10.6935
wbb0쎯wyf0쎯	-10.6937
mww쎯rfm쎯	-10.6939
iffg쎯	-10.694
ftj쎯r쎯	-10.6941
ugdu쎯iyt1쎯	-10.6943
c쎯rg쎯,	-10.6949
kl쎯g쎯wh쎯	-10.695
abf1쎯	-10.695
ukn쎯fay쎯	-10.6951
waw쎯ii쎯	-10.6952
th쎯gkl쎯th쎯ta쎯	-10.6952
tfqp쎯iwf쎯	-10.6954
swgj0쎯	-10.6958
wys쎯wgk쎯	-10.6959
mhk쎯	-10.6962
rap쎯bm쎯	-10.6963
쎂쎀wv쎯qkhh1쎯	-10.6964
wdk쎯	-10.697
ccc쎯e쎯	-10.6972
ftg쎯tg쎯	-10.6973
쎁쎅wv쎯qkhh1쎯	-10.6975
g쎯th쎯	-10.6977
yi쎯d쎯	-10.6977
pju0쎯	-10.6977
c쎯fm쎯	-10.698
lw쎯wc쎯ds쎯	-10.698
puh쎯wi쎯	-10.6982
rpw쎯rmhj쎯kkd쎯	-10.6984
wc쎯xd쎯,	-10.6984
g쎯vtk쎯	-10.6986
knx쎯	-10.6987
ntt쎯	-10.6988
ll쎯,ic쎯ytt쎯,	-10.699
rnr쎯fnr0쎯kkd쎯	-10.6996
ytb0쎯fmk쎯hka쎯qv쎯	-10.6997
fnhp0쎯	-10.7001
fhn쎯hko쎯	-10.7007
wdn쎯te쎯uqd2쎯	-10.7008
rpf쎯	-10.7009
d쎯wynb0쎯	-10.7009
khh0쎯	-10.7011
-쎁쎀	-10.7014
g쎯wrh1쎯	-10.7021
gg쎯dd쎯	-10.7023
wc쎯ngk쎯d쎯	-10.7024
wv쎯sgn쎯gc쎯	-10.7025
ytey0쎯tf쎯py쎯	-10.7026
pde쎯	-10.7026
tffu쎯qq쎯wh쎯	-10.7027
oge쎯pyj쎯yygy쎯je쎯	-10.7028
wny1쎯tuh0쎯	-10.7028
gqr쎯	-10.703
gu쎯tf쎯	-10.7032
ipg쎯yo쎯	-10.7034
ddu1쎯yny0쎯	-10.7034
ld쎯adw쎯	-10.7035
fwf쎯wa쎯	-10.7036
wgq쎯vk쎯	-10.7037
dx쎯udi0쎯whf0쎯og쎯	-10.7038
fuk쎯yk쎯k쎯ny쎯	-10.7038
icd쎯tep쎯	-10.7039
tmfk1쎯	-10.704
mw쎯ny쎯	-10.7041
u쎯kkk쎯od쎯gajf0쎯:	-10.7042
qyng0쎯od쎯	-10.7044
tkh쎯.	-10.7045
g쎯kht쎯	-10.7047
qk쎯jgm쎯	-10.7051
쎁adm쎯	-10.7052
eb쎯tl쎯zzbd3쎯	-10.7053
pdx쎯tr쎯	-10.7056
efw쎯	-10.706
tv쎯km쎯zzbd3쎯	-10.7061
d쎯jjjj0쎯sg쎯	-10.7062
r쎯dr쎯mj쎯	-10.7062
xfg0쎯	-10.7064
rhk0쎯ve쎯	-10.7064
r쎯svc쎯wynn3쎯	-10.7065
yne쎯,e쎯xte쎯sf쎯	-10.7065
qh쎯uq쎯	-10.7065
쎀.쎄	-10.7069
–	-10.7072
yynw1쎯wc쎯ngk쎯	-10.7072
suq쎯wfk쎯	-10.7072
,hw쎯	-10.7075
dga쎯v쎯zzbd3쎯	-10.7075
fa쎯wsg0쎯	-10.7082
rg쎯wtf쎯	-10.7084
iq쎯icf쎯	-10.7084
jm쎯gc쎯	-10.7088
wgep쎯	-10.7091
imkf1쎯nnh쎯	-10.7097
k쎯ny쎯y쎯wtf쎯	-10.7098
i쎯yo쎯	-10.71
gogj쎯tak쎯o쎯	-10.7101
.쎂쎀쎀쎄rh쎯	-10.7104
zzbd3쎯ii쎯	-10.7108
uxhp쎯	-10.7109
gef쎯itx쎯ith쎯	-10.7111
sm쎯tsh1쎯	-10.7115
rb쎯》zzbd3쎯《	-10.7118
qgb쎯qje쎯	-10.7118
r쎯an쎯lwj쎯	-10.7119
se쎯hw쎯	-10.7121
ry쎯vfhp1쎯	-10.7121
gkl쎯y쎯wtf쎯,	-10.7122
,cf쎯gf쎯	-10.7122
dl쎯tkgg1쎯	-10.7123
uyh쎯yne쎯mqq쎯uh쎯	-10.7124
a쎯wt쎯k쎯	-10.7125
a쎯og쎯lfq쎯	-10.7128
gfi쎯whw쎯qi쎯uk쎯.	-10.713
scf쎯ssss0쎯	-10.7131
wgj쎯rgv쎯	-10.7132
yveh쎯	-10.7135
nd쎯tv쎯wf쎯	-10.7136
knx쎯?	-10.7137
kml쎯	-10.7137
dc쎯ype쎯	-10.7138
tve쎯nnw쎯	-10.7142
eeqy쎯	-10.7143
xh쎯v쎯	-10.7144
kgn쎯xg쎯	-10.7144
ougo0쎯	-10.7144
nge쎯xft쎯	-10.7148
jb쎯tgj쎯s쎯r쎯	-10.7152
c쎯w쎯o쎯sg쎯	-10.7153
adu1쎯	-10.7156
xeg0쎯xeg0쎯ta쎯	-10.7158
bs쎯ru쎯wr쎯	-10.7159
iyc쎯wsg0쎯	-10.7161
egc쎯ta쎯	-10.7161
tu쎯y쎯wtf쎯	-10.7161
tg쎯idf1쎯	-10.7163
fwyc2쎯wrh1쎯	-10.7163
uqwk0쎯yqj쎯eb쎯tl쎯	-10.7165
ni쎯	-10.7166
ajf1쎯	-10.7169
iie쎯gxgu쎯	-10.7169
qh쎯qyv쎯	-10.717
,im쎯e쎯	-10.7172
pykw쎯	-10.7174
zzbd3쎯yygy쎯wx쎯	-10.7176
cd쎯yaf쎯	-10.7177
ab쎯dwg쎯	-10.718
ujfj0쎯g쎯	-10.718
쎁쎉쎉쎆	-10.7185
쎁쎇쎀	-10.7185
쎂쎀쎀쎁	-10.7187
yiu0쎯ndj쎯	-10.719
쎂쎁an쎯xn쎯	-10.7194
iyc쎯jhnr쎯	-10.7195
yga쎯	-10.7197
th쎯ta쎯	-10.72
wye쎯qd쎯	-10.7201
vi쎯》	-10.7203
jyie쎯ktm쎯lt쎯	-10.7206
bpf쎯fghg쎯	-10.7207
mqu쎯jf쎯	-10.7207
wg쎯nnh쎯	-10.7209
zzbd3쎯wg쎯l쎯	-10.721
rh쎯go쎯,	-10.721
쎁쎀쎅	-10.7212
tjh쎯gog쎯	-10.7216
r쎯dgkn0쎯ipmq쎯	-10.7216
.x쎯fp쎯	-10.7217
zzbd3쎯fm쎯	-10.722
pr쎯pt쎯	-10.7221
wbj쎯uu쎯gf쎯	-10.7222
tg쎯.	-10.7224
g쎯uk쎯wv쎯	-10.7225
xx쎯pfjm1쎯k쎯	-10.7227
fjhh쎯	-10.7233
....	-10.7234
vfhp1쎯ymc쎯zzbd3쎯	-10.7234
쎁쎀쎈	-10.7236
lk쎯dd쎯	-10.7236
w쎯dd쎯ipkh1쎯tv쎯	-10.7236
sm쎯tmd쎯	-10.7237
ftxu1쎯	-10.7238
j쎯wys쎯	-10.724
),pb쎯	-10.7241
dl쎯x쎯	-10.7247
jq쎯adwe1쎯	-10.7247
mq쎯ynnd쎯	-10.7247
쎃uqw쎯	-10.7253
opf쎯	-10.7255
dg쎯uqw쎯	-10.7257
oy쎯.	-10.726
쎁%	-10.726
kpt쎯	-10.7261
dd쎯gku쎯	-10.7264
yynw1쎯nnh쎯	-10.7264
e쎯lt쎯	-10.7264
xww쎯sam쎯	-10.7264
cf쎯tq쎯	-10.7265
ty쎯kkkk1쎯	-10.7267
,rh쎯bt쎯ii쎯jg쎯쎁	-10.7267
.쎄.	-10.727
thd쎯xln0쎯	-10.7271
uqt쎯js쎯.	-10.7272
wv쎯fc쎯	-10.7274
,jb쎯xtu쎯	-10.7275
ipm쎯tkw쎯	-10.7275
-쎂쎀	-10.7276
vfhp1쎯suq쎯	-10.7277
ivy쎯	-10.7278
e쎯tjh쎯gf쎯	-10.7279
iq쎯je쎯	-10.7279
tmdf1쎯fmk쎯	-10.7282
tet0쎯	-10.7282
wgk쎯uqwm1쎯	-10.7283
ai쎯ic쎯	-10.7283
쎁쎆쎀쎀	-10.7286
쎁쎉쎉쎇	-10.7287
gip쎯sk쎯c쎯	-10.7287
uqw쎯wf쎯yyq쎯	-10.7287
쎃dq쎯	-10.7288
쎁w쎯	-10.7288
kkd쎯pn쎯	-10.729
x쎯xjm쎯	-10.7292
dgj쎯ya쎯	-10.7295
tffu쎯aps쎯iwyf1쎯	-10.7295
쎁uqw쎯	-10.7295
,dnv2쎯adw쎯j쎯	-10.7295
tjtl쎯	-10.7295
mt쎯wsk쎯	-10.7295
dgh쎯wynb0쎯	-10.7301
r쎯gm쎯wa쎯wx쎯	-10.7306
k쎯md쎯jn쎯pym쎯ck쎯	-10.7307
wf쎯gj쎯gk쎯	-10.7308
v쎯tg쎯r쎯	-10.7311
thd쎯ick쎯ytyh쎯	-10.7311
ftjb쎯sk쎯c쎯	-10.7312
,c쎯“	-10.7314
jf쎯adwe1쎯,	-10.7315
td쎯egc쎯	-10.7317
mht쎯	-10.7317
g쎯vt쎯vt쎯	-10.7318
kkd쎯wrh1쎯	-10.7321
,vca쎯	-10.7321
ip쎯fge쎯fghg쎯	-10.7323
rpv쎯yssr0쎯	-10.7328
wds쎯	-10.7328
r쎯al쎯ce쎯	-10.7328
fq쎯w쎯	-10.733
쎃kgn쎯	-10.7333
rfc쎯sy쎯ga쎯v쎯aq쎯	-10.7337
tr쎯ou쎯	-10.7337
amw쎯rcy1쎯	-10.7337
udbb쎯,	-10.7342
qk쎯yngk1쎯	-10.7343
js쎯scf쎯	-10.7345
trw쎯ycb쎯	-10.7346
dd쎯ip쎯yygy쎯wx쎯	-10.7346
mqu쎯,	-10.7346
wynb0쎯jjjj0쎯	-10.7347
wg쎯dm쎯r쎯	-10.7347
jn쎯a쎯	-10.7348
zzbd3쎯xt쎯	-10.7349
ph쎯	-10.7353
쎂.쎈	-10.7355
j쎯g쎯uthp0쎯	-10.736
pfjm1쎯gk쎯	-10.7361
jjjj0쎯jvko0쎯	-10.7361
rj쎯bm쎯r쎯	-10.7362
g쎯adwe1쎯	-10.7362
r쎯tx쎯g쎯	-10.7362
oge쎯ugdu쎯	-10.7362
je쎯gr쎯	-10.7365
me	-10.7365
)(	-10.7366
trs쎯trtg쎯.	-10.737
gu쎯yy쎯wc쎯jfd쎯.	-10.7374
k쎯xe쎯	-10.7376
tu쎯dga쎯a쎯wt쎯	-10.7377
tg쎯jjjj0쎯	-10.7378
tcy0쎯w쎯	-10.738
ih쎯gf쎯	-10.7382
i쎯fuf0쎯	-10.7383
,xf쎯wgk쎯	-10.739
tv쎯km쎯wf쎯tv쎯km쎯,	-10.7392
pp쎯bb쎯	-10.7392
쎇wc쎯jfd쎯	-10.7394
py쎯wf쎯tu쎯ip쎯bpf쎯	-10.74
ral쎯syp쎯:	-10.7401
um쎯tl쎯k쎯ny쎯	-10.7403
usr쎯g쎯wa쎯	-10.7404
w쎯,adw쎯k쎯ww쎯gk쎯t	-10.741
,px쎯j쎯	-10.7413
h쎯iytb0쎯	-10.7413
ssyx쎯	-10.7416
쎅.쎅	-10.7419
sk쎯tfqp쎯	-10.7419
g쎯su쎯,	-10.7421
qiu0쎯zzbd10쎯	-10.7421
a쎯um쎯tp쎯gj쎯	-10.7425
rcf쎯	-10.7427
ab쎯jjjj0쎯	-10.7427
j쎯l쎯mw쎯	-10.7427
iuj쎯	-10.7427
pj쎯rx쎯	-10.7428
i쎯on쎯rj쎯ym쎯	-10.7428
u쎯og쎯wx쎯	-10.7428
쎂쎀rh쎯	-10.7429
rwyg0쎯tf쎯	-10.7431
rpd1쎯	-10.7432
a쎯og쎯aq쎯	-10.7433
rit쎯	-10.7433
tx쎯gg쎯nm쎯	-10.7434
hwb쎯lwx쎯	-10.7434
qyv쎯	-10.7435
쎅oy쎯	-10.7436
fggh쎯uqv쎯	-10.7441
dmj1쎯ccc쎯	-10.7441
fje쎯tfpd0쎯	-10.7442
r쎯tg쎯u쎯	-10.7443
uq쎯cep쎯fcp쎯lwg쎯	-10.7443
.px쎯j쎯	-10.7443
nnk쎯ta쎯	-10.7444
qq쎯qk쎯	-10.7445
vca쎯e쎯	-10.7445
jcf쎯rf쎯“	-10.7446
aj쎯wv쎯	-10.7447
ih쎯veg쎯	-10.7447
mq쎯fghy2쎯	-10.7448
ga쎯v쎯zzbd3쎯	-10.7451
j쎯ww쎯	-10.7451
ige쎯ssn쎯	-10.7452
yygy쎯wx쎯khgp0쎯u쎯	-10.7452
rdj쎯ii쎯	-10.7453
nfc쎯,	-10.7453
bwf쎯wrh1쎯	-10.7454
쎂w쎯,	-10.7457
qrm쎯sfi쎯pfjm1쎯	-10.7457
sk쎯c쎯d쎯	-10.7457
pp쎯xte쎯	-10.7458
쎁쎅dq쎯	-10.7459
et쎯r쎯	-10.7461
f쎯nfc쎯	-10.7462
et쎯yne쎯r쎯	-10.7463
dgt1쎯zzbd3쎯	-10.7465
mds쎯	-10.7466
ymhj0쎯w쎯	-10.7467
ukn쎯uk쎯wug0쎯gf쎯	-10.7467
qf쎯qyo쎯	-10.7469
ipwk0쎯yjjh0쎯	-10.747
uqt쎯lt쎯	-10.747
ujf0쎯ktm쎯	-10.747
k쎯l쎯nnh쎯gl쎯	-10.7473
,wg쎯sf쎯	-10.7475
yy쎯aa쎯,	-10.7476
쎂.쎁	-10.7476
ith쎯uk쎯xe쎯	-10.7477
veg쎯	-10.7478
fhn쎯ajj0쎯	-10.7479
zzbd3쎯l쎯pe쎯	-10.7482
,ux쎯	-10.7482
sf쎯.	-10.7482
wf쎯ta쎯	-10.7482
ipk쎯ukn쎯fc쎯	-10.7484
iqpl1쎯or쎯	-10.7485
jsg쎯	-10.7485
saj0쎯aa쎯,	-10.7487
aet1쎯rvyo쎯	-10.7489
wk쎯pv쎯	-10.749
u쎯f쎯	-10.7492
cbn1쎯	-10.7492
tgv쎯bd쎯“	-10.7494
ld쎯bb쎯	-10.7495
cf쎯adw쎯	-10.7499
ncd쎯	-10.7499
.rxj쎯	-10.7501
w쎯ft쎯fuk쎯udyj쎯	-10.7501
mcw쎯	-10.7502
iq쎯xtf쎯	-10.7504
vfhp1쎯ymc쎯,	-10.7506
lfn쎯wx쎯	-10.7507
,lxx쎯wycb쎯	-10.7507
je쎯ige쎯	-10.7508
aqt쎯wg쎯l쎯	-10.7511
why쎯	-10.7514
zzzy	-10.7514
cbts1쎯tfn쎯	-10.7515
mh쎯dr쎯	-10.7517
yq쎯tl쎯	-10.7518
adwe1쎯wxm쎯	-10.7518
wdn쎯ugdu쎯,	-10.7519
ad쎯hich0쎯ftbt쎯	-10.752
r쎯ai쎯sghg1쎯	-10.752
j쎯cf쎯	-10.7521
,wg쎯	-10.7522
lfo쎯ju쎯	-10.7523
쎅쎀쎀dq쎯	-10.7524
gd쎯qd쎯rnb쎯	-10.7524
r쎯ln쎯shn쎯	-10.7524
xtu쎯tmd쎯	-10.7526
gj쎯shn쎯r쎯	-10.7526
a쎯tkgg1쎯zzbd3쎯	-10.7526
ybo쎯qntf쎯	-10.7529
rn쎯rn쎯ta쎯	-10.7529
l쎯bf쎯sfi쎯uwy0쎯	-10.7532
y쎯lw쎯r쎯	-10.7532
bk쎯og쎯ftbt쎯yce쎯	-10.7533
dmh0쎯lfhf쎯	-10.7538
sghg1쎯ide쎯	-10.7538
vtdj0쎯	-10.7539
gr쎯pgy쎯	-10.754
yxl쎯trt쎯	-10.754
mmm쎯zzbd3쎯	-10.7541
vyi1쎯	-10.7541
zzsx5쎯	-10.7544
ynw쎯	-10.7545
rnp쎯	-10.7546
쎁쎉쎃쎂rh쎯	-10.7546
gcf쎯it쎯	-10.7546
fjw쎯	-10.7549
쎆쎀쎀쎀	-10.7549
ifhw쎯	-10.7551
jy쎯qc쎯	-10.7551
dd쎯fny0쎯	-10.7551
puv쎯,	-10.7552
yi쎯wqj쎯	-10.7553
cf쎯xx쎯	-10.7556
gcf쎯wynb0쎯nnnn0쎯	-10.7556
l쎯bf쎯qyv쎯jqr쎯	-10.7558
kcg쎯?	-10.756
j쎯q쎯wu쎯	-10.7561
iwb쎯	-10.7566
d쎯p쎯	-10.7568
r쎯g쎯ffi쎯	-10.7569
.쎁쎉쎄쎉rh쎯	-10.757
〉	-10.7571
dnv0쎯pb쎯	-10.7571
ghd1쎯dm쎯	-10.7573
wy쎯wtf쎯	-10.7576
trf0쎯ta쎯	-10.7578
bpx쎯	-10.7578
uf쎯nf쎯wsg0쎯	-10.758
zzbd3쎯ugdu쎯l쎯	-10.758
wdn쎯rfm쎯r쎯eb쎯tl쎯	-10.7581
fp쎯r쎯	-10.7583
uxxn0쎯uduk0쎯	-10.7583
ywe쎯ick쎯	-10.7583
egc쎯tv쎯ipkh1쎯tv쎯	-10.7583
wv쎯dmh0쎯d쎯	-10.7587
쎃쎀dq쎯	-10.7588
fc쎯uk쎯nnh쎯yn쎯	-10.7588
gajh쎯gk쎯	-10.7588
yft쎯qq쎯	-10.759
ipg쎯xcf쎯	-10.7591
gj쎯ywx쎯dga쎯pwv쎯	-10.7594
ilg2쎯	-10.7595
mt쎯fgh쎯	-10.7597
q쎯ymhj0쎯	-10.7598
fm쎯egc쎯	-10.7599
tffu쎯u쎯kkk쎯	-10.76
sds쎯	-10.7602
sri쎯ym쎯	-10.7602
ftbt쎯yce쎯a쎯wt쎯	-10.7603
,j쎯mh쎯	-10.7603
jcf쎯rf쎯c쎯	-10.7603
wc쎯n쎯	-10.7603
wk쎯ryn1쎯aq쎯	-10.7605
qqqq1쎯mqj쎯	-10.7606
tx쎯g쎯uk쎯	-10.7608
tuj0쎯ifk0쎯	-10.7608
qnqv0쎯	-10.7609
.ryl쎯ta쎯	-10.7609
rvyl0쎯lt쎯	-10.7611
o쎯whf0쎯og쎯	-10.7611
wtc쎯	-10.7612
r쎯ce쎯lt쎯	-10.7612
k쎯l쎯iv쎯wa쎯	-10.7614
iytb0쎯fmk쎯bw쎯	-10.7614
dg쎯qe쎯gae쎯	-10.7615
bn쎯tq쎯	-10.7615
j쎯et쎯	-10.7616
ubk1쎯	-10.7617
lkd쎯ytt쎯	-10.7617
khr쎯	-10.7624
ee	-10.7626
oqdo쎯	-10.7628
qtj쎯uu쎯r쎯	-10.7629
go쎯r쎯	-10.763
qq쎯nfc쎯	-10.7631
yygy쎯nnh쎯	-10.7636
lu쎯ym쎯r쎯	-10.7638
v쎯ugm쎯	-10.7639
usr쎯w쎯	-10.7639
yt쎯ny쎯	-10.7643
tjt쎯qgb쎯	-10.7643
wycm1쎯nf쎯r쎯	-10.7643
dj쎯dnv0쎯	-10.7644
iry쎯nge쎯	-10.7646
iy쎯mm쎯uqwm1쎯sg쎯	-10.7647
ica쎯	-10.7647
puvk2쎯	-10.7648
tfl쎯yce쎯	-10.7649
;쎃zzbd3쎯	-10.7651
kd쎯ycb쎯	-10.7651
hka쎯l쎯	-10.7651
wgkb0쎯fcp쎯	-10.7652
qi쎯lft쎯	-10.7652
nh쎯xpw쎯	-10.7652
쎀.쎇	-10.7652
ga쎯lw쎯	-10.7656
tffu쎯pei쎯wt쎯tr쎯	-10.7659
bb쎯zzbd3쎯	-10.7659
trf0쎯bmg쎯	-10.7661
jy쎯tfl쎯qfhw1쎯	-10.7661
dr쎯sg쎯	-10.7661
sc쎯lt쎯	-10.7662
ce쎯lt쎯.	-10.7663
.cf쎯	-10.7664
vfhp1쎯ymc쎯t쎯	-10.7666
a쎯ip쎯bpf쎯	-10.7667
.p쎯wh쎯	-10.7669
쎄.쎀	-10.767
gdk쎯	-10.767
wg쎯l쎯ntg쎯	-10.767
쎄쎈쎀	-10.767
udi0쎯uce쎯	-10.7672
dm쎯tkw쎯쎅	-10.7674
gmf쎯tg쎯	-10.7675
img쎯lll쎯	-10.7676
wh쎯tf쎯ght쎯sf쎯,	-10.7682
쎀)	-10.7682
gu쎯yy쎯	-10.7685
.쎂쎀쎀쎉rh쎯	-10.7688
wdt쎯if쎯	-10.7688
tg쎯u쎯lk쎯a쎯	-10.7689
k쎯ny쎯,	-10.769
tdtf0쎯vfhp1쎯	-10.769
ymhj0쎯fnrt쎯h쎯	-10.7692
fh쎯xg쎯	-10.7693
c0쎯	-10.7699
yc쎯wv쎯v쎯rpl쎯	-10.7699
ogu쎯	-10.7702
.p쎯j쎯	-10.7703
sw쎯fpx쎯	-10.7703
ssm쎯	-10.7704
aitl쎯	-10.7707
tfk0쎯dnv0쎯	-10.7707
atd쎯ip쎯wf쎯	-10.7707
bu쎯shn쎯	-10.7708
ntg쎯utd쎯ugm쎯	-10.771
pwm쎯	-10.771
ige쎯rvyo쎯	-10.7711
gmww쎯ts쎯	-10.7712
amd쎯st쎯uff쎯	-10.7714
wvl쎯f쎯	-10.7716
pe쎯w쎯	-10.772
gyt쎯ta쎯	-10.7722
ru쎯adwr0쎯	-10.7723
yo쎯dfy쎯kkd쎯	-10.7724
q쎯suq쎯	-10.7727
,vck쎯vfhp1쎯gf쎯	-10.7727
wcy0쎯e쎯	-10.7728
th쎯.	-10.7728
rwgk쎯	-10.7729
gkl쎯ukn쎯x쎯gj쎯	-10.7729
rxj쎯bm쎯	-10.7729
,ic쎯ytt쎯,	-10.7729
udb쎯ytyh쎯ymhj0쎯	-10.773
krt쎯isgg2쎯	-10.7731
wkso2쎯	-10.7734
〈	-10.7734
ee쎯	-10.7742
qr쎯uthp0쎯	-10.7743
rqym쎯	-10.7749
udi0쎯,	-10.775
쎄wc쎯jfd쎯	-10.775
p쎯uqw쎯	-10.7751
ipf쎯yaa쎯	-10.7753
r쎯py쎯wf쎯	-10.7755
bc쎯wa쎯	-10.7756
dd쎯gj쎯	-10.7757
sm쎯wsg0쎯	-10.7757
rgd0쎯bfw쎯	-10.7764
ub쎯qk쎯	-10.7764
qtgf3쎯	-10.7772
ylf0쎯.	-10.7773
qm쎯awsk쎯	-10.7774
g쎯jgf쎯	-10.7775
vfb쎯su쎯	-10.7775
hi쎯cbc쎯	-10.7775
fc쎯iyc쎯	-10.7777
,i쎯fp쎯	-10.778
uuj쎯syp쎯	-10.7782
g쎯hi쎯	-10.7786
vii쎯	-10.7788
kma쎯	-10.7789
rfc쎯anb0쎯	-10.779
xgm쎯	-10.7791
tdg1쎯tyna2쎯	-10.7791
ihk쎯	-10.7793
ipg쎯anb0쎯	-10.7794
gn쎯pu쎯khg0쎯	-10.7798
sm쎯kkd쎯w쎯	-10.7799
,sghg1쎯	-10.78
rg쎯bg쎯	-10.7802
dr쎯o쎯	-10.7802
epq쎯	-10.7803
gah쎯ic쎯dd쎯ip쎯	-10.7804
t쎯rfc쎯sy쎯	-10.7805
xh쎯aqkr쎯	-10.7805
srq쎯	-10.7806
ia쎯ide쎯	-10.7807
iugg0쎯ime쎯	-10.7809
tuj0쎯wj쎯:	-10.7809
jtg쎯xe쎯	-10.7811
쎀zzbd15쎯	-10.7814
geq쎯eyni쎯	-10.7816
.쎂쎀쎁쎀rh쎯	-10.7819
gef쎯mmm쎯	-10.7819
w쎯n쎯if쎯bpf쎯	-10.7819
gq쎯lg쎯	-10.7823
tfq쎯qtd쎯	-10.7824
go쎯yu쎯,	-10.7824
fk쎯pyu쎯	-10.7827
mmgj0쎯bwt쎯	-10.7828
g쎯xeg0쎯	-10.7829
fgjg쎯	-10.7829
dhv쎯	-10.7832
fp	-10.7833
qajf0쎯	-10.7835
dga쎯pwv쎯t쎯	-10.7835
amd쎯yygy쎯qk쎯	-10.7837
w쎯ny쎯	-10.7838
nnh쎯pgn쎯	-10.7839
sss쎯ss쎯wc쎯lfq쎯	-10.7841
kht쎯gn쎯	-10.7842
쎁쎀wtu쎯	-10.7842
puv쎯xe쎯	-10.7845
wc쎯jfd쎯th쎯,	-10.7848
a쎯anb0쎯kkk쎯	-10.7849
j1쎯	-10.7851
l쎯n쎯x쎯iyj쎯	-10.7851
st쎯nnk쎯	-10.7852
xg쎯ts쎯	-10.7852
ndj쎯sg쎯	-10.7856
awx쎯shi쎯	-10.7857
ad쎯dbm쎯td쎯ykw쎯	-10.7859
doq쎯sgc쎯	-10.786
awg쎯	-10.7863
dga쎯yfy2쎯wf쎯	-10.7864
rte쎯	-10.7864
ii쎯jn쎯	-10.7864
ii쎯jn쎯uh쎯	-10.7864
wt쎯yygy쎯	-10.7866
isk쎯luf0쎯	-10.7867
,kha쎯yb쎯	-10.7867
wy쎯wqbh0쎯	-10.7872
iqr쎯	-10.7874
nynn0쎯	-10.7874
ytey0쎯pt쎯	-10.7875
u쎯kkk쎯,	-10.7878
,gm쎯nnnn0쎯	-10.7878
whf0쎯og쎯rj쎯waw쎯	-10.7881
tdkj0쎯lt쎯	-10.7881
dga쎯pwv쎯km쎯,	-10.7882
ux쎯wmj1쎯	-10.7887
pu쎯bf쎯h쎯	-10.789
g쎯jf쎯	-10.7891
dwy0쎯	-10.7891
of쎯	-10.7893
vb쎯dc쎯	-10.7894
쎂.쎃	-10.7894
rymn쎯hka쎯	-10.7895
pe쎯.	-10.7895
wg쎯ta쎯	-10.7896
nnh쎯if쎯pe쎯fl쎯wf쎯	-10.7899
zzts9쎯	-10.79
flf1쎯dp쎯	-10.7901
ccc쎯kn쎯	-10.7901
qgo쎯thg1쎯	-10.7906
kha쎯yb쎯sf쎯tv쎯wf쎯	-10.7907
zzsx6쎯쎄	-10.7908
jgm쎯dd쎯	-10.7909
쎇rh쎯	-10.7914
bib쎯rep쎯	-10.7914
k쎯fm쎯	-10.7918
쎂쎀an쎯xn쎯	-10.7921
kthh1쎯egc쎯	-10.7921
rmhj쎯tfkp0쎯um쎯	-10.7922
sdm쎯umd1쎯	-10.7924
rnp쎯ad쎯sgc쎯	-10.7925
r쎯xp쎯wgk쎯	-10.7927
ep쎯ny쎯	-10.7929
ip쎯txi쎯	-10.7929
쎁쎂wh쎯	-10.793
lp쎯lwj쎯	-10.793
ga쎯cep쎯	-10.793
tdj쎯ssss0쎯	-10.793
pj쎯sj쎯	-10.7932
yn쎯zzbd10쎯	-10.7939
(쎂	-10.7939
gk쎯nge쎯	-10.7941
zzsx6쎯쎂	-10.7941
nnh쎯gl쎯bpf쎯	-10.7944
dyc쎯sgc쎯	-10.7945
iytb0쎯ca쎯k쎯	-10.7947
r쎯wwj쎯st쎯	-10.7947
svc쎯	-10.7947
c쎯ux쎯	-10.7948
by쎯ywfw0쎯	-10.7948
io쎯ii쎯	-10.795
mmm쎯h쎯	-10.795
w쎯d쎯	-10.7951
yqa쎯uk쎯	-10.7953
hko쎯,	-10.7953
dav쎯	-10.7955
kht쎯dm쎯	-10.7955
v쎯rvyo쎯	-10.7956
rwye1쎯gkp쎯	-10.7957
yff쎯yygy쎯	-10.7958
,f쎯gj쎯wug0쎯lfhf쎯	-10.7959
ayx쎯	-10.7959
yygy쎯sg쎯	-10.796
wycm1쎯pum쎯	-10.7961
synw쎯siq쎯	-10.7962
ua쎯ty쎯	-10.7962
rtol0쎯tkh쎯	-10.7963
qwd쎯oanw쎯	-10.7963
쎂%	-10.7963
trf0쎯gqr쎯r쎯	-10.7963
qqqq1쎯thgf1쎯	-10.7965
sk쎯rf쎯xfn쎯	-10.7969
쎀쎀zzts0쎯	-10.7969
iujg0쎯	-10.7971
r쎯qe쎯ya쎯	-10.7972
j쎯g쎯sg쎯	-10.7973
ul쎯qq쎯uqw쎯	-10.7974
sm쎯sa쎯ymc쎯tlf0쎯	-10.7976
,rj쎯waw쎯	-10.7978
ygu쎯o쎯“	-10.798
esw쎯	-10.7981
tha쎯if쎯	-10.7983
jn쎯pym쎯ndj쎯《	-10.7986
yny0쎯zzbd3쎯	-10.7988
wv쎯int쎯	-10.7989
ujn쎯ln쎯	-10.7989
o쎯쎁	-10.799
.rn쎯c쎯	-10.7995
wqa쎯gf쎯	-10.7995
f쎯src쎯	-10.7996
nty0쎯qk쎯o쎯	-10.7996
ruj0쎯	-10.7998
jhnr쎯qie쎯	-10.8
ukn쎯a쎯tkgg1쎯jgm쎯	-10.8
wbb0쎯ylk0쎯	-10.8
emc쎯ai쎯	-10.8001
r쎯mqq쎯xtk쎯	-10.8004
iv쎯tfqp쎯	-10.8005
,fqu쎯	-10.8006
xxf쎯og쎯,	-10.8009
gh쎯iytb0쎯	-10.8011
sh쎯xx쎯	-10.8011
pyg쎯tjh쎯	-10.8012
r쎯pfi쎯xj쎯	-10.8012
cds쎯fghg쎯	-10.8014
iit쎯iaj0쎯	-10.8015
.wjg쎯j쎯	-10.8016
zzsx34쎯	-10.8018
gfi쎯fnrt쎯	-10.8019
tjt쎯iw쎯	-10.8024
aw쎯yf쎯	-10.8026
pg쎯nd쎯	-10.8027
in쎯	-10.8027
.’”	-10.8027
qev쎯un쎯b쎯	-10.8028
,bn쎯e쎯	-10.8028
:쎁쎀	-10.8028
r쎯wug0쎯lfhf쎯	-10.8028
uk쎯ait쎯	-10.8029
vkf0쎯kqm쎯	-10.8029
kkdu쎯	-10.8031
g쎯yy쎯	-10.8032
wgkb0쎯qk쎯o쎯	-10.8033
jjjj0쎯ygk쎯	-10.8033
lnn2쎯	-10.8035
쎃쎀wv쎯qkhh1쎯	-10.8037
dm쎯ue쎯	-10.8037
qje쎯tgh쎯	-10.8037
dga쎯pwv쎯yy쎯tm쎯	-10.8041
aig쎯eajd쎯	-10.8041
xwy0쎯gkf0쎯qiu0쎯	-10.8042
쎇쎅쎀	-10.8043
qh쎯fpm쎯	-10.8045
aqt쎯l쎯pe쎯	-10.8046
ght쎯tv쎯	-10.8047
ce쎯lt쎯r쎯	-10.8048
siq쎯awx쎯	-10.8052
xg쎯h쎯	-10.8052
qten1쎯	-10.8055
dd쎯dd쎯	-10.8055
,jcf쎯rf쎯	-10.8056
tqf0쎯	-10.8057
qtoy0쎯	-10.8058
gm쎯wa쎯wx쎯r쎯	-10.8059
gq쎯ty쎯	-10.8059
bn쎯yi쎯j쎯	-10.8059
i쎯epc쎯	-10.806
qmq쎯src쎯	-10.806
쎁쎉쎉쎈	-10.8064
tu쎯pgc쎯	-10.8066
dwiu쎯mmm쎯	-10.8066
wv쎯uyt1쎯yx쎯:	-10.8068
wdt쎯dn쎯	-10.8069
sghg1쎯ic쎯	-10.807
uy쎯fgh쎯	-10.8071
tgv쎯	-10.8071
rfc쎯sy쎯r쎯	-10.8071
dd쎯ip쎯ip쎯dl쎯,	-10.8073
xn쎯sw쎯	-10.8074
쎀ylf0쎯,	-10.8075
:쎁zzbd3쎯	-10.8078
itx쎯fakg0쎯	-10.808
tv쎯km쎯,	-10.8082
awx쎯xyy1쎯	-10.8084
sk쎯et쎯gf쎯	-10.8084
tkh쎯sfhg쎯ii쎯tev쎯	-10.8086
zzbd8쎯	-10.8086
ux쎯dm쎯	-10.8087
usgp1쎯	-10.8087
uqd2쎯adm쎯	-10.8087
buk쎯	-10.8087
zzbd3쎯ws쎯usi1쎯	-10.8089
wgj쎯j쎯	-10.8089
usg쎯tgj쎯	-10.809
gae쎯rvyl0쎯	-10.8092
dmj1쎯tj쎯qk쎯.	-10.8094
ev쎯	-10.8094
ga쎯wbj쎯	-10.8094
gqto0쎯	-10.8097
puhc쎯ygu쎯o쎯“	-10.8097
luf0쎯	-10.8097
mm	-10.8098
.쎀쎀wc쎯jfd쎯	-10.8098
pb쎯xgu쎯	-10.8099
pei쎯sm쎯	-10.81
i쎯yud1쎯	-10.8101
rc쎯jmd쎯b쎯	-10.8104
yi쎯yfn쎯	-10.8104
fq쎯fdm쎯	-10.8106
cd쎯cm쎯	-10.8108
쎂쎀wtu쎯	-10.8109
,ryl쎯ta쎯	-10.8113
qk쎯thgf1쎯	-10.8113
ym쎯xe쎯k쎯ip쎯	-10.8114
trf0쎯e쎯r쎯	-10.8115
be쎯bj쎯	-10.8115
wxf쎯gmy0쎯	-10.8118
qtr쎯	-10.8118
yu쎯je쎯nnh쎯	-10.8122
쎁쎉쎃쎁rh쎯	-10.8122
zzts13쎯	-10.8123
k1쎯	-10.8124
isgg2쎯kc쎯	-10.8127
ynky6쎯	-10.8128
jgm쎯ww쎯	-10.8131
uqd2쎯,	-10.8131
r쎯gj쎯ywx쎯	-10.8131
sgmk0쎯	-10.8133
mmm쎯sdm쎯	-10.8133
bwff0쎯	-10.8133
zzbd3쎯wx쎯a쎯	-10.8134
fq쎯xg쎯jn쎯	-10.8137
,ad쎯uk쎯	-10.8138
alw쎯ytyh쎯ymhj0쎯	-10.814
,bwt쎯	-10.8142
ral쎯xwf쎯	-10.8142
ynm쎯ey쎯	-10.8143
j쎯ld쎯o쎯	-10.8147
.”je쎯	-10.8148
ijfg1쎯	-10.8148
d쎯adw쎯	-10.8152
gn쎯adw쎯	-10.8153
gkl쎯ymhj0쎯ta쎯	-10.8154
pwfd쎯	-10.8154
uyu쎯	-10.8155
rmhj쎯wt쎯r쎯	-10.8155
dnv2쎯adw쎯	-10.8158
ymf쎯ou쎯	-10.816
a쎯tv쎯	-10.8164
rj쎯ym쎯b쎯	-10.8165
bh쎯	-10.8168
b쎯《	-10.8168
k쎯sghg1쎯	-10.8169
vcl쎯	-10.817
dd쎯uqd2쎯	-10.817
xyna1쎯ty쎯	-10.8171
쎄쎅쎀	-10.8171
ymc쎯uu쎯r쎯	-10.8171
alf0쎯ytt쎯	-10.8172
.m쎯rh쎯	-10.8172
kuq쎯	-10.8174
aa쎯r쎯	-10.8175
ue쎯adwe1쎯	-10.8175
yjj1쎯wg쎯,	-10.8177
waj0쎯egl쎯	-10.8177
dm쎯tkw쎯o쎯	-10.8178
gg쎯wa쎯	-10.818
wgj쎯gf쎯	-10.818
sdy1쎯	-10.818
a쎯tkgg1쎯fny0쎯og쎯	-10.818
vck쎯xtu쎯jcf쎯rf쎯	-10.8181
ogm쎯	-10.8181
kftj1쎯	-10.8181
rawk쎯vfhp1쎯	-10.8182
um쎯lud쎯	-10.8184
kkkk1쎯eb쎯	-10.8186
mee0쎯	-10.8187
qit쎯	-10.8188
ywfw0쎯qnj쎯	-10.8189
yoj쎯	-10.8193
:쎀쎀	-10.8194
fm쎯wmj1쎯	-10.8194
yxt쎯	-10.8195
sfh쎯alt쎯	-10.8196
tfkd쎯rp쎯	-10.8198
um쎯ip쎯bpf쎯	-10.8198
y쎯s쎯qn쎯rtd쎯	-10.82
rj쎯qk쎯	-10.8202
쎈wc쎯jfd쎯	-10.8202
rkm쎯pd쎯	-10.8203
wgmy2쎯	-10.8203
vtg쎯qk쎯	-10.8204
sf쎯mw쎯	-10.8205
pe쎯jn쎯	-10.8206
,kw쎯e쎯	-10.8207
th	-10.821
tfk0쎯oy쎯	-10.8211
k쎯adwe1쎯	-10.8213
쎁쎉쎉쎅	-10.8214
쎈rh쎯	-10.8214
qmq쎯tp쎯	-10.8218
nj쎯nj쎯	-10.8219
itd쎯fcl쎯k쎯	-10.8219
ukd1쎯jghm1쎯.	-10.8222
tfkp0쎯xqa쎯	-10.8223
r쎯ujn쎯ln쎯	-10.8225
mb쎯sfiu1쎯	-10.8226
gcf쎯wynb0쎯,	-10.8228
dm쎯qn쎯	-10.8228
jmhn1쎯	-10.8229
adj쎯tvfh0쎯pr쎯	-10.8229
.yynw1쎯sf쎯	-10.8229
ugm쎯yo쎯	-10.8229
쎈쎀%	-10.8229
,tm쎯	-10.823
tkw쎯lx쎯b쎯dh쎯pgk쎯	-10.823
ght쎯tl쎯	-10.8231
jf쎯pw쎯	-10.8231
nnnn0쎯x쎯dn쎯o쎯	-10.8233
wgk쎯wt쎯py쎯	-10.8235
.(쎂)	-10.8236
pgy쎯dgtg0쎯	-10.8236
r쎯jb쎯wffg쎯	-10.8236
it쎯uqf쎯	-10.8237
gk쎯pu쎯	-10.8237
mfc쎯	-10.8238
adwe1쎯tffy0쎯	-10.824
ygk쎯yyy쎯ip쎯	-10.8242
ukn쎯yne쎯ovt쎯	-10.8244
tfkf0쎯yr쎯	-10.8246
tmf쎯	-10.8248
wy쎯thn쎯txi쎯xyc쎯	-10.8248
wg쎯qfhw1쎯	-10.825
jfc쎯tg쎯	-10.8251
hka쎯fnrt쎯	-10.8252
yfj0쎯rep쎯	-10.8256
j쎯o쎯b쎯	-10.8257
yao쎯	-10.8258
쎄w쎯	-10.8262
i쎯yv쎯	-10.8268
쎁쎉쎉쎉	-10.8268
gn쎯adw쎯wb쎯	-10.8268
,e쎯jf쎯	-10.8269
wgk쎯ec쎯ymhj0쎯	-10.8271
zzbd3쎯um쎯tl쎯	-10.8272
ntg쎯.	-10.8272
gj쎯mf쎯	-10.8275
lfn쎯tm쎯	-10.8278
eb쎯et쎯	-10.8278
,wgkq0쎯tj쎯	-10.8279
fq쎯sm쎯	-10.8281
tg쎯u쎯ce쎯lt쎯	-10.8283
afie0쎯	-10.8284
ifw쎯lt쎯	-10.8285
pw쎯rrr쎯	-10.8286
epqh쎯	-10.8286
pp쎯uthp0쎯	-10.829
,ftjb쎯	-10.8291
ck쎯,	-10.8291
aqk쎯og쎯	-10.8292
.kl쎯qh쎯,	-10.8293
ai쎯mq쎯	-10.8295
쎆.쎅	-10.8296
ajd0쎯adwr0쎯tu쎯	-10.8298
qo쎯	-10.8298
,bn쎯sk쎯c쎯	-10.8301
ybv0쎯xan쎯	-10.8302
gm쎯d쎯r쎯	-10.8305
pp쎯qh쎯	-10.8305
rryf쎯	-10.8306
ny쎯k쎯	-10.8306
yid쎯iv쎯	-10.8307
hv쎯tu쎯	-10.8308
rbcc쎯wqj쎯sm쎯	-10.831
waj0쎯jtyq1쎯	-10.831
hjj쎯fha쎯r쎯	-10.8314
쎁zzbd15쎯	-10.8322
k쎯l쎯w쎯n쎯dd쎯ip쎯	-10.8324
stx쎯awx쎯	-10.8327
”tq쎯kgn쎯.	-10.8328
uk쎯y쎯wtf쎯	-10.8328
iqgg쎯og쎯	-10.8331
tmo쎯fcp쎯	-10.8331
tgj쎯wht쎯	-10.8331
rmhj쎯yjjh0쎯	-10.8332
wf쎯rn쎯	-10.8333
it쎯qt쎯	-10.8335
saq쎯xnf쎯	-10.8335
go쎯idr쎯gf쎯	-10.8336
cf쎯rt쎯	-10.8337
tem쎯r쎯	-10.8338
rab쎯	-10.8338
ddh쎯	-10.8339
tp쎯gj쎯tv쎯km쎯wf쎯	-10.8342
ih쎯ooo쎯	-10.8344
vc쎯	-10.8344
wb쎯j쎯	-10.8345
uqt쎯lt쎯gf쎯	-10.8346
oge쎯fhl쎯	-10.8346
《》	-10.8346
bukn0쎯je쎯	-10.8348
wht쎯ys쎯	-10.8354
qfhw1쎯ipk쎯tv쎯	-10.8355
sve쎯sg쎯	-10.8357
.쎂쎀쎀쎃rh쎯	-10.8358
qtjh0쎯bb쎯	-10.8359
t0쎯	-10.836
vk쎯gh쎯	-10.8363
i쎯mqb쎯	-10.8364
uuk1쎯jtyq0쎯pgc쎯	-10.8365
dq쎯ru쎯	-10.8367
jb쎯usr쎯r쎯	-10.8367
,e쎯r쎯	-10.8372
kml쎯ujj쎯	-10.8372
g쎯mhg쎯	-10.8376
jo쎯fi쎯kkd쎯	-10.8379
jh쎯d쎯	-10.8379
r쎯wy쎯thn쎯	-10.8379
mmm쎯sf쎯	-10.8381
ip쎯sy쎯uq쎯iyc쎯	-10.8383
ujf0쎯uqt쎯	-10.8385
tu쎯sfhg쎯tr쎯	-10.8385
쎉쎀%	-10.8386
adwl쎯rpws쎯	-10.8388
lh쎯yy쎯	-10.839
rmn0쎯bqv쎯	-10.839
rvl쎯	-10.839
,p쎯su쎯	-10.839
dr쎯e쎯	-10.8391
thgc0쎯)	-10.8395
r쎯wt쎯et쎯.	-10.8395
zzbd3쎯sghg1쎯	-10.8396
av쎯pdhj0쎯	-10.8396
fhn쎯b쎯	-10.8398
adjd쎯	-10.84
cw쎯ya쎯	-10.8401
sm쎯sq쎯,	-10.8401
xyna1쎯tkgg1쎯	-10.8404
yt쎯yca쎯	-10.8405
itx쎯rdc쎯쎂	-10.8406
nty0쎯tq쎯	-10.8408
ugm쎯zzbd3쎯	-10.8409
whf0쎯og쎯wys쎯lft쎯	-10.8413
,tq쎯o쎯	-10.8414
de쎯m쎯	-10.8421
qq쎯uk쎯	-10.8424
suh쎯	-10.8427
ydx쎯	-10.8428
쎈쎀rh쎯wa쎯	-10.8428
tgj쎯xeg0쎯	-10.8428
uwyc2쎯ii쎯	-10.8428
y2쎯	-10.843
rdn쎯	-10.843
c쎯hx쎯	-10.8431
jo쎯tj쎯	-10.8431
쎃djfd쎯oy쎯	-10.8431
ith쎯tv쎯	-10.8431
^	-10.8432
xe쎯a쎯tkgg1쎯jgm쎯.	-10.8433
puhc쎯tq쎯o쎯“	-10.8435
k쎯l쎯wfny0쎯xyc쎯	-10.8435
iry쎯v쎯	-10.8437
mq쎯sm쎯	-10.8438
u쎯tg쎯b쎯	-10.844
dyt쎯og쎯	-10.8442
dga쎯pwv쎯a쎯wt쎯	-10.8443
),pyg쎯vfhp1쎯ith쎯	-10.8443
wy쎯yyn2쎯	-10.8443
wycm1쎯nf쎯w쎯	-10.8445
sksw쎯yngk1쎯	-10.8447
(쎁쎉쎃	-10.8448
pfq쎯ugdu쎯r쎯	-10.845
iq쎯xft쎯	-10.8452
yceh1쎯	-10.8454
gmap쎯gc쎯	-10.8455
p쎯od쎯	-10.8456
ith쎯uthp0쎯	-10.8456
ep쎯r쎯	-10.8457
trf0쎯u쎯	-10.846
dqe쎯	-10.846
uqd2쎯ujj쎯	-10.8461
fny0쎯pe쎯,	-10.8463
qkk쎯wgk쎯qqqq1쎯	-10.8463
e쎯g쎯pg쎯	-10.8463
mgu쎯wwk쎯	-10.8465
rqcf1쎯	-10.8465
p쎯wug0쎯	-10.8467
ooo쎯eve쎯	-10.8468
sfi쎯uwy0쎯r쎯	-10.8469
ukqb2쎯rfc쎯	-10.8469
iyjh쎯jtyq0쎯kkd쎯	-10.8469
cep쎯wwwk0쎯	-10.847
,vfb쎯	-10.847
pum쎯	-10.8471
,dqe쎯wk쎯	-10.8472
aje쎯	-10.8476
ghd1쎯aa쎯dn쎯uu쎯	-10.8477
zzbd12쎯	-10.8478
wf쎯gkl쎯wf쎯ta쎯	-10.8478
qynm1쎯h쎯	-10.8479
whf0쎯og쎯yygy쎯wx쎯	-10.8479
srg쎯ss쎯	-10.848
fk쎯wb쎯	-10.8483
qh쎯,gip쎯	-10.8485
yte쎯	-10.8489
vtg쎯qa쎯	-10.849
ith쎯tv쎯ipk쎯suq쎯	-10.8492
pfqc1쎯	-10.8493
nudu쎯fnud쎯	-10.8493
amw쎯mmm쎯	-10.8493
pu쎯hka쎯	-10.8494
ile쎯	-10.8494
tn0쎯	-10.8495
nnh쎯,	-10.8495
,ukn쎯vfhp1쎯tam쎯	-10.8496
tdkj0쎯ce쎯wx쎯	-10.8497
fwm쎯pg쎯r쎯	-10.8498
km쎯.	-10.8503
tf쎯,	-10.8504
ii쎯egc쎯	-10.8505
rtfj0쎯	-10.8506
.쎂쎀쎀쎂rh쎯	-10.8512
m쎯jf쎯bn쎯	-10.8515
god쎯st쎯r쎯	-10.8516
zzbd3쎯irn쎯lg쎯	-10.8517
쎁.쎇	-10.8517
w쎯dd쎯	-10.8518
,p쎯wh쎯	-10.8519
fp쎯txgt쎯	-10.8519
fm쎯cep쎯	-10.8521
wg	-10.8524
r쎯ytd쎯	-10.8525
ww쎯ih쎯	-10.8526
shn쎯s쎯	-10.8529
dj쎯ya쎯	-10.8532
wgej1쎯	-10.8532
big쎯	-10.8534
gk쎯.	-10.8534
m쎯ujn쎯	-10.8535
ytt쎯thd쎯ick쎯egc쎯	-10.8535
mw쎯pww쎯qn쎯rtd쎯	-10.8536
쎁쎈쎆	-10.8537
쎇.	-10.8538
rx쎯uwy0쎯,	-10.854
k쎯gef쎯rh쎯	-10.8541
rfm쎯jg쎯tx쎯g쎯	-10.8543
.”(쎂).	-10.8543
f쎯qk쎯	-10.8543
wtc쎯syp쎯	-10.8544
gqx쎯rg쎯	-10.8544
pe쎯fl쎯wf쎯gj쎯gk쎯	-10.8544
mta쎯	-10.8544
qwy1쎯	-10.8545
kw쎯fdm쎯	-10.8546
ytf쎯sk쎯ygh쎯	-10.8547
ux쎯dd쎯	-10.8547
iry쎯gxi쎯	-10.8548
w쎯cd쎯	-10.8551
cbj쎯c쎯	-10.8551
dr쎯ou쎯:	-10.8551
oat쎯rvyo쎯	-10.8551
rrp쎯	-10.8552
sh쎯yneg0쎯	-10.8552
dm쎯tkw쎯dp쎯	-10.8553
n쎯www쎯	-10.8554
ip쎯ddm쎯fghg쎯	-10.8554
pei쎯n쎯nh쎯ty쎯y쎯s쎯	-10.8556
cd쎯yaf쎯ta쎯	-10.8557
dn쎯uu쎯,	-10.8557
vq쎯pynn0쎯	-10.8558
zzts8쎯	-10.856
ryj쎯	-10.8561
xft쎯	-10.8561
x쎯qie쎯um쎯	-10.8563
py쎯wf쎯ip쎯	-10.8567
r쎯ym쎯tu쎯rfc쎯	-10.8568
mw쎯f쎯	-10.857
gkip0쎯yx쎯	-10.8573
tx쎯g쎯qk쎯	-10.8574
gs쎯,	-10.8577
r쎯v쎯nae0쎯,	-10.8577
ym쎯xe쎯bk쎯tq쎯	-10.8578
쎅쎀oy쎯	-10.8579
lft쎯mqc쎯	-10.858
/쎁	-10.8581
mt쎯rh쎯	-10.8582
.p쎯jfd쎯	-10.8582
r쎯fdm쎯s쎯	-10.8583
fny0쎯og쎯ip쎯nu쎯	-10.8583
r쎯rn쎯e쎯	-10.8584
.쎂쎀쎁쎃rh쎯	-10.8585
ih쎯ktn쎯	-10.8588
dn쎯ddu1쎯	-10.8588
dl쎯kq쎯yygy쎯wx쎯	-10.8591
vd쎯vyv쎯	-10.8592
ih쎯yu쎯《	-10.8593
fj쎯wx쎯	-10.8593
ijo쎯f쎯	-10.8599
쎂w쎯	-10.86
wxj쎯mmm쎯ymhj0쎯	-10.8601
w쎯,k쎯aw쎯ipk쎯km쎯,	-10.8601
.kj쎯qd쎯	-10.8601
jh쎯rh쎯	-10.8602
fffy0쎯vfhp1쎯	-10.8605
ak쎯j쎯	-10.8607
tg쎯wx쎯	-10.8608
f쎯rvyl0쎯	-10.8609
cy쎯f쎯	-10.861
pnt쎯wys쎯	-10.8611
mb쎯jn쎯	-10.8612
rf쎯e쎯	-10.8612
쎂uqw쎯	-10.8613
r쎯g쎯pe쎯	-10.8614
trf0쎯xe쎯	-10.8615
ypt쎯	-10.8616
pj쎯pg쎯	-10.8617
gr쎯itx쎯	-10.8619
ygk쎯:	-10.8621
tg쎯dyn쎯ggi쎯fuj쎯	-10.8624
isf쎯	-10.8624
bw쎯wgg1쎯,	-10.8627
ol쎯ajj0쎯	-10.8628
ga쎯es쎯	-10.8629
i쎯fdm쎯s쎯	-10.863
rhyc1쎯	-10.8631
aqt쎯ith쎯	-10.8632
wgkq0쎯wgkb0쎯	-10.8633
sg쎯tu쎯xxf쎯og쎯	-10.8634
wsg0쎯wf쎯	-10.8634
xq쎯o쎯	-10.8635
쎃zzbd15쎯	-10.8635
wh쎯eee0쎯	-10.8637
apw쎯	-10.8638
쎁gmww쎯	-10.8641
a쎯tkgg1쎯ymc쎯yf쎯	-10.8643
wa쎯ge쎯wt쎯	-10.8644
yr쎯ywc쎯	-10.8644
cbts1쎯lqw쎯	-10.8645
pjm쎯	-10.8648
wxj쎯mmm쎯	-10.8649
ll쎯bynw0쎯	-10.865
wc쎯ngk쎯wug0쎯gf쎯	-10.865
reh쎯e쎯g쎯fc쎯	-10.8651
g쎯uf쎯	-10.8651
ywx쎯syp쎯	-10.8654
if쎯jgm쎯	-10.8659
쎅ypt쎯oy쎯	-10.8662
wdn쎯rfm쎯r쎯	-10.8662
.쎁쎉쎉쎈rh쎯	-10.8663
tfk0쎯jfd쎯	-10.8666
j쎯g쎯pe쎯c쎯	-10.8667
u쎯wfhg0쎯	-10.8667
ovt쎯wfhg0쎯	-10.8668
pfi쎯xj쎯	-10.8669
yy쎯dm쎯,	-10.8671
r쎯wfny0쎯xyc쎯	-10.8673
pp쎯tq쎯	-10.8673
f쎯eerq쎯	-10.8673
쎃쎀rh쎯	-10.8674
pu쎯tl쎯	-10.8674
.쎁.	-10.8677
py쎯wf쎯r쎯	-10.8677
axj쎯	-10.8677
zzxx	-10.8678
쎅쎀%	-10.8678
tx쎯fgh쎯	-10.868
xwv쎯	-10.8681
kfi쎯uthp0쎯	-10.8681
jy	-10.8681
sk쎯ep쎯	-10.8682
uwy0쎯mj쎯	-10.8684
wycb쎯rp쎯	-10.8685
ifp쎯itx쎯	-10.8685
fajv쎯	-10.8686
r쎯dr쎯ld쎯	-10.8687
rg쎯ccc쎯	-10.8689
ide쎯ir쎯	-10.8691
,hk쎯f쎯dm쎯tkw쎯	-10.8692
xq쎯쎂	-10.8693
dd쎯lpk0쎯ymhj0쎯	-10.8695
yc쎯khu쎯	-10.8695
egi쎯	-10.8698
fhw쎯alt쎯	-10.8699
v쎯tg쎯d쎯	-10.8699
r쎯dty0쎯gk쎯.	-10.8701
cf쎯yid쎯	-10.8701
쎉kgn쎯	-10.8701
;d쎯	-10.8703
g쎯pg쎯s쎯	-10.8704
bb쎯.	-10.8704
sjx쎯	-10.8705
,rpv쎯	-10.871
ipk쎯ght쎯	-10.871
i쎯peg쎯	-10.8711
tnb0쎯	-10.8712
gkih0쎯yjj1쎯	-10.8712
qv쎯bc쎯	-10.8712
mq쎯fcu0쎯	-10.8714
twik0쎯	-10.8715
ue쎯tmd쎯j쎯	-10.8716
pu쎯et쎯ntg쎯	-10.8717
og쎯mw쎯	-10.8718
쎂/	-10.8719
rng2쎯	-10.8719
pp쎯k쎯,	-10.872
wi쎯	-10.872
,vii쎯ntk쎯gf쎯	-10.8721
pv쎯lfhf쎯	-10.8723
쎆w쎯	-10.8723
cf쎯dm쎯	-10.8725
bn쎯ce쎯	-10.8725
tcy0쎯uu쎯	-10.8727
ue쎯go쎯	-10.8728
jgm쎯,	-10.8729
et쎯ax쎯	-10.873
ii쎯rfm쎯	-10.873
dg쎯mgu쎯	-10.8731
fad쎯	-10.8733
ugm쎯gj쎯	-10.8733
쎁쎀쎂쎄	-10.8736
ip쎯ipkf0쎯	-10.8736
yfj0쎯qev쎯	-10.8736
ymc쎯yf쎯t쎯	-10.8736
thc쎯hx쎯	-10.8737
bg쎯pym쎯	-10.8739
me쎯tu쎯	-10.874
iytb0쎯fmk쎯	-10.8741
kru쎯	-10.8741
dnv0쎯fqb0쎯.	-10.8743
rcbs쎯	-10.8744
uy쎯wh쎯	-10.8745
dgv쎯elw쎯	-10.8746
.쎂쎀쎀쎀rh쎯	-10.8746
′′	-10.8747
itd쎯inty쎯	-10.8747
nnk쎯zzbd3쎯	-10.8749
》)	-10.8749
(adw쎯k쎯	-10.8751
,yge쎯	-10.8752
in	-10.8755
dgtg0쎯udi0쎯	-10.8757
tffu쎯;	-10.8758
o0쎯	-10.8758
r쎯ywe쎯ick쎯	-10.8759
ddi쎯	-10.8762
alq쎯hhy0쎯	-10.8763
ip쎯bpf쎯bpf쎯ta쎯	-10.877
mmm쎯ymhj0쎯	-10.8771
gkl쎯dga쎯pwv쎯km쎯	-10.8774
qq쎯fqb0쎯	-10.8776
lwx쎯eck쎯	-10.8777
g쎯lp쎯	-10.8777
dmj1쎯tj쎯qk쎯	-10.8778
dlf0쎯	-10.878
ry쎯xt쎯	-10.878
qdy1쎯	-10.8781
zzbd3쎯fhl쎯	-10.8781
w쎯tq쎯	-10.8783
rfc쎯sy쎯fc쎯rf쎯	-10.8783
ukh쎯pwd쎯	-10.8783
nge쎯ab쎯	-10.8788
sksw쎯rlg0쎯	-10.8789
xl쎯ta쎯	-10.8791
gq쎯o쎯	-10.8791
yid쎯lt쎯	-10.8792
rg쎯d쎯	-10.8792
zzbd3쎯ba쎯	-10.8794
g쎯dm쎯	-10.8796
lwj쎯r쎯	-10.8797
dmj1쎯yyy쎯	-10.8798
udv쎯	-10.88
fh쎯uu쎯	-10.88
fp쎯tkgg1쎯k쎯,	-10.8801
vvv쎯y쎯qe쎯	-10.8802
wjm쎯wqj쎯	-10.8804
da쎯dk쎯.	-10.8804
lhnh쎯ad쎯	-10.8806
gd쎯pw쎯	-10.8808
bqn쎯	-10.881
sgn쎯udp쎯	-10.8814
sfhg쎯sri쎯	-10.8815
.wt쎯kkk쎯	-10.8816
쎀.쎉	-10.8817
itf쎯fggh쎯uqv쎯	-10.8817
gd쎯rnb쎯	-10.8819
hk쎯f쎯dm쎯tkw쎯쎁	-10.8819
h쎯an쎯xn쎯	-10.8819
.쎁쎉쎈쎂rh쎯	-10.8822
bm쎯thgc0쎯r쎯	-10.8824
pfjm1쎯tb쎯	-10.8827
ooo쎯lg쎯	-10.8827
pei쎯dl쎯	-10.8828
sk쎯pww쎯xmw쎯	-10.8828
tffu쎯qq쎯adm쎯	-10.8831
ae쎯qde0쎯	-10.8832
tx쎯uy쎯nm쎯	-10.8832
쎈%	-10.8834
ukn쎯ptkm1쎯	-10.8836
xf쎯sq쎯,	-10.8838
dga쎯pwv쎯yy쎯tm쎯o쎯	-10.8842
h쎯ymhj0쎯wc쎯ngk쎯	-10.8843
tqv쎯pg쎯r쎯	-10.8844
tol쎯alkf0쎯	-10.8846
wfi쎯pynn1쎯	-10.8849
ua쎯djd쎯	-10.885
okk쎯	-10.885
fny0쎯wtf쎯	-10.8853
fjh0쎯tr쎯h쎯v쎯ge쎯	-10.8853
rg쎯ld쎯	-10.8854
,wgq쎯vk쎯	-10.8856
ige쎯bwt쎯	-10.8857
쎁쎈쎄	-10.8858
bgu쎯	-10.8858
mq	-10.8859
tk쎯e쎯	-10.8859
ts쎯wgq쎯	-10.886
ymhj0쎯tv쎯zzbd3쎯	-10.886
vi쎯rmhj쎯	-10.8862
tdp쎯iv쎯	-10.8864
tu쎯rfc쎯wbj쎯usr쎯	-10.8864
v쎯gm쎯b쎯	-10.8864
,cd쎯gn쎯	-10.8865
,m쎯jf쎯bn쎯	-10.8866
jjjj0쎯rb쎯》	-10.8867
sgye0쎯	-10.8873
zzbd3쎯ftbt쎯ip쎯	-10.8877
fm쎯dm쎯	-10.8878
tx쎯쎅	-10.8882
tu쎯ip쎯r쎯	-10.8884
,gm쎯d쎯uqt쎯lt쎯gf쎯	-10.8885
쎁-쎂	-10.8887
alw쎯xwy0쎯fct쎯	-10.8887
쎁쎀wc쎯jfd쎯	-10.889
쎅쎀쎀oy쎯	-10.8891
thd쎯qd쎯tu쎯ip쎯	-10.8891
r쎯pv쎯wg쎯	-10.8891
gkl쎯uk쎯ta쎯	-10.8893
rnb쎯rfm쎯	-10.8895
vpq쎯	-10.8897
wvd쎯v쎯	-10.8897
쎀gu쎯yy쎯oy쎯,	-10.8898
rgw쎯lft쎯	-10.8898
an쎯lwj쎯dd쎯hka쎯	-10.8905
mq쎯ii쎯	-10.8905
scbk쎯	-10.8907
tfq쎯fj쎯ii쎯gu쎯	-10.8907
,tjh쎯et쎯	-10.8908
r쎯ga쎯v쎯	-10.8909
bm쎯gm쎯b쎯	-10.8909
akgl쎯dlf0쎯	-10.8912
r쎯g쎯hxf쎯	-10.8913
fuj쎯lwj쎯	-10.8913
adnt1쎯ytt쎯	-10.8917
ny쎯nge쎯	-10.8917
,px쎯wu쎯	-10.8918
sdm쎯uk쎯	-10.8918
xyy1쎯qnth쎯	-10.8918
dgkf1쎯yny0쎯	-10.8918
lu쎯vb쎯r쎯	-10.892
ssss0쎯rfm쎯	-10.892
kgn쎯dcg쎯	-10.892
pp쎯h쎯	-10.892
쎁쎉쎂	-10.8921
bfq쎯	-10.8922
dl쎯kq쎯whtn0쎯qy쎯	-10.8925
tr쎯gj쎯ip쎯	-10.8926
wye쎯gkim1쎯	-10.8927
tdg1쎯adwe1쎯	-10.8927
rfc쎯sy쎯ga쎯v쎯	-10.8928
(xq쎯	-10.893
gad쎯	-10.893
쎂쎀쎀dq쎯	-10.8933
fq쎯ywx쎯j쎯	-10.8939
gn쎯v쎯nae0쎯	-10.8941
wty0쎯qe쎯	-10.8943
sf쎯qfhw1쎯	-10.8945
ii쎯uwy0쎯	-10.8945
usr쎯lh쎯pl쎯	-10.8947
r쎯kkk쎯thgf1쎯	-10.8955
,wynb0쎯	-10.8958
ip쎯dga쎯pwv쎯	-10.8958
ck쎯ux쎯	-10.896
ycb쎯gq쎯	-10.896
du	-10.8961
ywwf0쎯gf쎯	-10.8962
zzjp82쎯	-10.8967
......	-10.8967
qqqq1쎯amw쎯qc쎯	-10.8967
j쎯sve쎯rnd1쎯	-10.8968
,itx쎯rdc쎯	-10.8969
o쎯synw쎯ny쎯	-10.8969
,dnv2쎯adw쎯	-10.897
gu쎯jf쎯	-10.897
,et쎯gf쎯	-10.897
rfc쎯sy쎯dga쎯pwv쎯	-10.8971
fg쎯adwe1쎯	-10.8971
yss쎯sgy쎯	-10.8971
rh쎯lc쎯w쎯	-10.8972
iry쎯ddnl쎯	-10.8974
fgig쎯	-10.8974
adh쎯	-10.8975
bg쎯iww쎯	-10.8976
rvk쎯nh쎯	-10.8976
wdn쎯fha쎯,	-10.8978
ooo쎯tue쎯	-10.8979
ipg쎯km쎯,	-10.898
wyf0쎯tlf0쎯	-10.898
ujff쎯ytd쎯	-10.8981
gip쎯s쎯	-10.8983
zzbd3쎯dg쎯	-10.8984
dm쎯jty쎯	-10.8984
wyn쎯fhw쎯	-10.8985
.쎅zzbd3쎯	-10.8986
.txg쎯	-10.8986
qev쎯yt쎯rg쎯	-10.8986
ajj0쎯f쎯	-10.8987
zzbd3쎯ggg0쎯	-10.8989
r쎯hhhh쎯r쎯	-10.8991
cc쎯tgj쎯	-10.8993
j쎯l쎯pe쎯	-10.8993
tg쎯u쎯dgt1쎯pe쎯	-10.8994
dd쎯ej쎯	-10.8995
wgkq0쎯adw쎯	-10.8995
hhu0쎯ru쎯	-10.8998
;qm쎯gmu1쎯	-10.8999
mqq쎯xtk쎯apk쎯qie쎯	-10.9001
gn쎯tp쎯gj쎯	-10.9001
aflf0쎯	-10.9003
dx쎯uyh쎯	-10.9005
ty쎯ipk쎯,	-10.9006
xeg0쎯ta쎯	-10.9006
쎁쎉쎂쎉rh쎯	-10.9011
ii쎯h쎯	-10.9012
fqb0쎯wa쎯	-10.9013
ip쎯bpf쎯ftbt쎯rep쎯	-10.9013
kkks1쎯ujf0쎯	-10.9015
gu쎯fqu쎯ylf0쎯u쎯	-10.9019
.쎁쎉쎈쎅rh쎯	-10.9019
uth쎯wbj쎯	-10.902
tfq쎯rg쎯wtf쎯	-10.903
mqq쎯j쎯	-10.9031
rrqc0쎯	-10.9033
uu쎯if쎯	-10.9033
pp쎯rn쎯	-10.9033
qq쎯uqw쎯cd쎯lk쎯	-10.9033
dj쎯wgk쎯	-10.9033
"zzbd3쎯"	-10.9033
▁	-10.9034
dd쎯nae0쎯	-10.9034
qnqn쎯	-10.9034
zzsx1쎯zzsx1쎯	-10.9035
f쎯wgkb0쎯ufk0쎯qv쎯	-10.9036
ght쎯ywf쎯cy쎯f쎯	-10.9037
.쎁쎉쎉쎇rh쎯	-10.9038
oug0쎯bb쎯	-10.904
쎄zzbd15쎯	-10.904
xte쎯wug0쎯gf쎯	-10.904
pk쎯tfpd0쎯	-10.9041
rn쎯ntk쎯wv쎯od쎯:	-10.9043
fm쎯ps쎯ymhj0쎯	-10.9045
(쎄	-10.9047
uk쎯uth쎯:	-10.9048
cqy쎯mww쎯	-10.905
rwb쎯fiyt쎯	-10.9053
pj쎯ugdu쎯	-10.9054
fku쎯cqw쎯r쎯	-10.9055
d쎯p쎯wh쎯	-10.9055
d쎯g쎯wh쎯	-10.9055
wgkg1쎯	-10.9055
thd쎯ick쎯	-10.9056
rg쎯ftj쎯	-10.9057
ftjb쎯d쎯	-10.9057
yu쎯ytd쎯	-10.9058
iy	-10.9059
tve쎯e쎯	-10.9059
g쎯uth쎯	-10.906
std쎯qfhw1쎯	-10.9061
dr쎯sft쎯ou쎯	-10.9064
r쎯dn쎯xgm쎯	-10.9064
rpws쎯imj쎯	-10.9066
쎂zzbd3쎯	-10.9068
쎃w쎯,	-10.9068
thp쎯xfn쎯	-10.9073
,yt쎯	-10.9075
uqwm1쎯idr쎯,	-10.9075
pwf쎯	-10.9076
iyc쎯ii쎯	-10.9077
r쎯uqt쎯js쎯	-10.9077
dx쎯mdf0쎯	-10.9077
쎅kgn쎯	-10.9078
j쎯rxj쎯d쎯	-10.9078
whtn0쎯	-10.9079
usgd1쎯pg쎯b쎯	-10.9081
src쎯zzbd3쎯	-10.9083
cf쎯jvko0쎯	-10.9085
sm쎯xeg0쎯	-10.9087
ix쎯	-10.909
wup쎯	-10.9091
ui쎯tsh1쎯	-10.9092
bfm쎯xfn쎯	-10.9093
dm쎯eerq쎯	-10.9096
,nty0쎯	-10.9098
ftbt쎯tkgg1쎯	-10.91
bm쎯v쎯	-10.91
tjt쎯vs쎯r쎯	-10.9102
lfq쎯anb0쎯	-10.9103
t쎯py쎯wf쎯wk쎯buj쎯	-10.9103
j쎯hhhh쎯ue쎯	-10.9107
tm쎯ue쎯	-10.9107
pv쎯by쎯	-10.9108
tgj쎯jg쎯:	-10.9108
mmv0쎯qt쎯	-10.9109
r쎯lt쎯jg쎯	-10.911
rpl쎯	-10.911
xeg0쎯dn쎯km쎯	-10.9111
uk쎯gkl쎯uk쎯ta쎯	-10.9112
쎁쎉쎉쎂	-10.9112
fcp쎯fcl쎯wf쎯	-10.9113
(쎆	-10.9114
쎁/쎃	-10.9115
wsg0쎯gm쎯b쎯	-10.9115
tu쎯rfc쎯v쎯nae0쎯	-10.9115
rcw쎯	-10.9117
lk쎯ii쎯	-10.9118
yw쎯td쎯	-10.9119
hep쎯uj쎯	-10.9122
i쎯fwm쎯mj쎯	-10.9127
kht쎯kkkk1쎯	-10.9129
uq쎯cep쎯wgj쎯tjh쎯,	-10.913
psu0쎯zzbd10쎯	-10.9132
jb쎯ym쎯r쎯	-10.9133
ufy쎯lhnh쎯	-10.9134
hka쎯qv쎯jf쎯adwe1쎯	-10.9134
bmg쎯yge쎯	-10.9134
,iv쎯jf쎯	-10.9135
fg쎯tffu쎯uqd2쎯.	-10.9137
mfk쎯rh쎯	-10.9137
oqdo쎯rnb쎯	-10.9138
dd쎯ooo쎯	-10.914
gd쎯yygy쎯	-10.9141
wsg0쎯txi쎯,	-10.9141
trfh1쎯	-10.9142
pg쎯hko쎯	-10.9144
k쎯l쎯nnh쎯if쎯	-10.9145
lw쎯y쎯wtf쎯	-10.9145
dm쎯lft쎯	-10.9146
pl쎯pn쎯	-10.9152
you1쎯e쎯	-10.9154
)tffu쎯	-10.9154
uywu0쎯	-10.9155
.쎁쎉쎈쎈rh쎯	-10.9155
ipkh1쎯et쎯r쎯	-10.9156
.”yvh쎯	-10.9156
atg쎯gk쎯	-10.9156
he쎯pg쎯	-10.9157
idr쎯thd쎯	-10.9158
(g쎯)	-10.9159
lkd쎯pe쎯	-10.9161
pe쎯et쎯	-10.9162
.cf쎯gf쎯	-10.9164
svc쎯ywx쎯	-10.9165
r쎯ny쎯	-10.9167
oqm쎯	-10.9168
.쎂쎀쎀쎁rh쎯	-10.9169
p쎯yww쎯	-10.9173
rqb0쎯	-10.9175
.쎁쎉쎉쎃rh쎯	-10.9175
v쎯tf쎯r쎯	-10.9176
fj쎯bc쎯	-10.9176
tevc쎯	-10.9181
qh쎯ge쎯	-10.9182
qre쎯	-10.9182
qq쎯su쎯	-10.9182
m쎯od쎯	-10.9184
,adk쎯	-10.9185
qq쎯rh쎯tg쎯	-10.9187
cccf1쎯	-10.9189
py쎯aq쎯wug0쎯gf쎯	-10.9189
kht쎯h쎯	-10.9192
ujn쎯o쎯	-10.9193
kg	-10.9195
ftbt쎯yce쎯zzbd3쎯	-10.9195
sam쎯tm쎯	-10.9196
ihi쎯qh쎯	-10.9199
sp쎯	-10.9201
k쎯ai쎯	-10.9202
tfk0쎯wtu쎯	-10.9202
ytn쎯tvfh0쎯	-10.9204
ia쎯ymhj0쎯	-10.9205
vcb쎯dn쎯.	-10.9206
iv쎯jv쎯	-10.9207
trf0쎯zzbd10쎯	-10.9207
sx쎯	-10.9209
xdmd2쎯ql쎯	-10.921
ipk쎯suq쎯	-10.9211
r쎯dga쎯v쎯	-10.9211
k쎯mmm쎯dd쎯ip쎯	-10.9212
”pp쎯	-10.9213
sgjg0쎯	-10.9215
,txg쎯rh쎯	-10.9215
awx쎯ycb쎯	-10.9219
hv쎯quj쎯	-10.922
et쎯wtp쎯:	-10.9221
fn쎯drin0쎯ftj쎯	-10.9223
bd쎯qn쎯	-10.9224
;《	-10.9225
qmq쎯xf쎯sq쎯	-10.9226
.쎁쎉쎈쎄rh쎯	-10.9228
anf0쎯	-10.923
pp쎯gh쎯	-10.9231
gjq쎯e쎯	-10.9232
쎂zzbd15쎯	-10.9232
fnr0쎯qi쎯	-10.9232
uqwn2쎯kkd쎯	-10.9234
r쎯x쎯cwg쎯	-10.9235
쎆kgn쎯	-10.9237
ymc쎯yf쎯gn쎯	-10.9239
b쎯ytf쎯qq쎯	-10.924
dd쎯m쎯	-10.924
qk쎯ip쎯tg쎯	-10.924
o쎯wqin쎯rj쎯waw쎯	-10.9241
rnp쎯sgc쎯	-10.9244
n쎯et쎯	-10.9245
hx쎯jf쎯	-10.9249
ccw쎯	-10.925
rnb쎯rnw쎯	-10.9251
nty0쎯rmhj쎯	-10.9254
adw	-10.9254
─	-10.9254
dgkn0쎯fcl쎯	-10.9255
tffu쎯tffy0쎯	-10.9259
lkd쎯l쎯	-10.9259
yx쎯wycm1쎯	-10.9259
uyh쎯,	-10.926
쎃/	-10.926
sgw쎯	-10.9261
dd쎯ip쎯xxf쎯og쎯	-10.9263
lw쎯wc쎯sov쎯	-10.9263
쎅.쎀	-10.9264
bm쎯tg쎯d쎯	-10.9265
aus쎯	-10.9265
ow쎯xxg0쎯	-10.9266
zzbd3쎯gkl쎯	-10.9268
lkd쎯nn쎯	-10.9271
qmq쎯telb쎯	-10.9273
sfi쎯twgi쎯	-10.9274
r쎯rfm쎯jg쎯	-10.9276
i쎯nb쎯	-10.9277
yvh쎯fje쎯	-10.9278
,lpdk1쎯	-10.9278
iex쎯egc쎯	-10.9278
dfn쎯	-10.928
uq쎯tyg쎯	-10.9281
yfj0쎯yww쎯	-10.9282
rhb쎯	-10.9287
ptf쎯if쎯	-10.9291
쎁쎉쎂쎅rh쎯	-10.9292
ge쎯gm쎯bm쎯	-10.9293
j쎯g쎯uthp0쎯ugdu쎯	-10.9297
tffy0쎯et쎯	-10.9298
.쎁쎉쎉쎂rh쎯	-10.9301
,tg쎯gf쎯	-10.9301
r쎯jb쎯usr쎯	-10.9305
kdh쎯	-10.9306
vvv쎯tg쎯	-10.9306
ndj쎯hhhh쎯	-10.9307
,kj쎯qd쎯	-10.9307
xnh쎯xwv쎯	-10.9308
twgi쎯ys쎯	-10.931
epc쎯gc쎯b쎯	-10.9311
ghd1쎯yq쎯	-10.9311
,ce쎯qkqq0쎯	-10.9311
lqw쎯wrh1쎯ga쎯v쎯	-10.9312
atgn쎯	-10.9314
rn쎯fdm쎯	-10.9318
wsg0쎯gajf0쎯	-10.9318
jde쎯jan쎯	-10.932
ae쎯ujfj0쎯	-10.9321
-쎁쎈	-10.9322
쎃w쎯	-10.9323
qnq쎯et쎯	-10.9323
dga쎯pwv쎯yy쎯tm쎯:	-10.9323
ipw쎯wx쎯	-10.9324
ujfj0쎯xgb쎯	-10.9324
maf1쎯	-10.9325
rp쎯dj쎯	-10.9325
qqug1쎯	-10.9326
ith쎯mw쎯	-10.9328
쎂쎀dq쎯	-10.9328
ymf쎯rmhj쎯	-10.9329
e쎯uwl쎯	-10.933
-쎁쎆	-10.9332
qqqq1쎯mmm쎯	-10.9333
pgn쎯pb쎯sov쎯	-10.9333
tt쎯yn쎯sg쎯	-10.9333
lu쎯wqa쎯	-10.9335
wgk쎯if쎯	-10.9337
gkp쎯go쎯r쎯	-10.9337
ftbt쎯ip쎯gyt쎯	-10.9338
fny0쎯tu쎯ip쎯suq쎯	-10.934
r쎯ee쎯dc쎯	-10.9341
,jjjj0쎯sg쎯	-10.9341
lfhf쎯gf쎯	-10.9341
tdu0쎯	-10.9344
,sghg1쎯gn쎯	-10.9344
ssg쎯thn쎯	-10.9345
쎂쎀쎀oy쎯	-10.9346
ddm쎯fghg쎯tg쎯nf쎯	-10.9347
ipe쎯deb쎯	-10.9348
k쎯atd쎯ip쎯bpf쎯	-10.9348
tey0쎯pw쎯wc쎯ngk쎯	-10.9348
cep쎯fp쎯cf쎯	-10.9348
cf쎯tgm쎯	-10.9349
ipkh1쎯wygg쎯	-10.9349
uu쎯wsg0쎯fnr0쎯	-10.935
txi쎯xyc쎯k쎯	-10.935
wh쎯thd쎯qd쎯sf쎯	-10.9351
yssr0쎯rpwi쎯	-10.9351
mq쎯st쎯r쎯	-10.9352
.쎁쎉쎉쎅rh쎯	-10.9355
tmo쎯f쎯tjh쎯	-10.9357
vck쎯gf쎯	-10.9357
wh쎯ftbt쎯ip쎯gyt쎯	-10.9358
ofd쎯oy쎯	-10.9359
jc쎯xt쎯	-10.936
thd쎯ip쎯	-10.9363
yygy쎯wsg0쎯	-10.9363
mmv0쎯	-10.9363
nt쎯s쎯	-10.9367
uk쎯lftj쎯	-10.9369
udg2쎯lc쎯	-10.9371
lll쎯tca쎯	-10.9371
wgk쎯g쎯	-10.9372
쎀쎀ylf0쎯,	-10.9373
tg쎯u쎯a쎯anb0쎯	-10.9375
rfc쎯jgm쎯	-10.9375
쎃.쎂	-10.9376
vfi쎯vfi쎯	-10.9376
,p쎯jfd쎯	-10.9378
zzbd3쎯qqqq1쎯	-10.9379
tve쎯vb쎯	-10.938
쎃.쎃	-10.938
usr쎯sghg1쎯uff쎯	-10.938
(쎄)	-10.938
e쎯ytf쎯qq쎯	-10.9381
k쎯l쎯wt쎯pe쎯fl쎯wf쎯	-10.9383
lks쎯sq쎯	-10.9384
jtr쎯	-10.9387
to쎯tb쎯	-10.9388
dnv0쎯rh쎯	-10.9388
xn쎯tv쎯	-10.939
puy쎯	-10.9393
ta쎯tgh쎯	-10.9393
xp쎯wgk쎯tgh쎯	-10.9393
vo쎯fcr쎯	-10.9394
sk쎯tfkd쎯ntg쎯	-10.9394
tg쎯u쎯x쎯apk쎯	-10.9395
zzbd3쎯gy쎯oy쎯	-10.9395
nty0쎯vfhp1쎯	-10.9395
gkl쎯y쎯wtf쎯.	-10.9396
bty0쎯	-10.9396
dyt쎯ysi쎯	-10.9397
yni1쎯qy쎯	-10.9398
qg쎯,	-10.9398
tu쎯km쎯	-10.94
itx쎯mgu쎯	-10.9401
kynw0쎯kgkw쎯	-10.9401
pp쎯pe쎯	-10.9401
쎁쎉쎉쎄	-10.9404
pyfc1쎯	-10.9406
o쎯pfi쎯xj쎯	-10.9406
gkl쎯wf쎯ta쎯	-10.9407
py쎯wf쎯lft쎯wsg0쎯	-10.9407
hk쎯wycm1쎯	-10.9408
og쎯y쎯	-10.9408
쎁쎀쎂	-10.9411
e쎯g쎯pg쎯r쎯	-10.9411
itp쎯rxj쎯	-10.9415
sks쎯sks쎯	-10.9415
pei쎯lll쎯	-10.9415
fwm쎯ujj쎯	-10.9417
wgku1쎯fnrt쎯	-10.9418
lt쎯fiy쎯	-10.9418
sft쎯ou쎯r쎯	-10.9419
,u쎯kkk쎯	-10.9421
i1쎯	-10.9421
gajf0쎯kgn쎯:	-10.9424
bj쎯ymhj0쎯	-10.9425
bwf쎯lk쎯	-10.9425
쎁쎀%	-10.9426
xx쎯tjh쎯jf쎯	-10.9427
,wt쎯ftj쎯	-10.9428
zzbd17쎯	-10.9429
ud쎯ng쎯	-10.9429
ygu쎯tv쎯	-10.9438
d쎯bk쎯dga쎯pwv쎯tg쎯	-10.9439
cep쎯td쎯	-10.9439
tjf0쎯ae쎯	-10.9445
,vfb쎯tc쎯	-10.9447
qk쎯atd쎯	-10.9448
gu쎯ime쎯	-10.9449
,xw쎯	-10.9451
tv쎯km쎯wf쎯y쎯wtf쎯	-10.9452
쎂.쎆	-10.9452
ftbt쎯km쎯	-10.9453
쎂-쎃	-10.9456
nkuy0쎯	-10.9456
tep쎯fp쎯	-10.9456
yygy쎯wx쎯uk쎯	-10.9457
by쎯oja쎯	-10.9458
pe쎯yfd쎯	-10.9459
tmg1쎯oy쎯	-10.9461
e쎯uqt쎯f쎯	-10.9462
ght쎯ywf쎯trf0쎯	-10.9462
yngk1쎯maw쎯	-10.9462
k쎯l쎯l쎯bf쎯	-10.9463
ynvf쎯	-10.9464
iux쎯	-10.9465
dj쎯pe쎯	-10.9468
qv	-10.9468
qya쎯	-10.9468
gcft0쎯pgk쎯	-10.9469
fm쎯ps쎯	-10.9471
xk쎯gqjo0쎯r쎯	-10.9474
dm쎯tkw쎯쎆	-10.9477
sou1쎯	-10.9477
yy쎯qf쎯ght쎯tgm쎯	-10.9477
,bde쎯udh쎯	-10.948
qev쎯sr쎯	-10.948
쎂zzsx6쎯	-10.9481
”pb쎯	-10.9481
쎃%	-10.9481
um쎯tl쎯isgg2쎯yhk쎯	-10.9483
gd쎯y쎯ftbt쎯	-10.9486
g쎯kgn쎯	-10.9486
mhny1쎯qiu0쎯	-10.9488
djde0쎯	-10.9489
ws쎯thn쎯	-10.9489
ugv쎯thg1쎯	-10.9491
o1쎯	-10.9491
fnr0쎯iwyf1쎯	-10.9492
쎁쎉쎉쎃	-10.9492
rdf0쎯iw쎯	-10.9492
al쎯ce쎯.	-10.9496
qsu쎯pd쎯	-10.9496
wk쎯wht쎯	-10.9498
w쎯st쎯	-10.9499
wg쎯xte쎯	-10.9499
ue쎯bg쎯	-10.95
ul쎯tfq쎯rg쎯	-10.9501
sh쎯m쎯r쎯	-10.9502
-)	-10.9505
wg쎯dm쎯v쎯nae0쎯	-10.9506
sm쎯jm쎯	-10.9506
qv쎯yyq쎯	-10.9507
utdk쎯	-10.9507
fgh쎯wtu쎯rh쎯	-10.9507
fm쎯bj쎯	-10.9508
rrr쎯qc쎯,	-10.9509
td쎯qk쎯kkk쎯thgf1쎯	-10.9509
vef쎯	-10.9512
fcp쎯isk쎯	-10.9518
r쎯tp쎯gj쎯	-10.9518
gmm쎯gde쎯	-10.9519
pu쎯yk쎯	-10.9519
dd쎯ds쎯	-10.9522
fd쎯ud쎯	-10.9522
ovt쎯pb쎯wx쎯	-10.9522
쎀ypt쎯oy쎯	-10.9525
rfm쎯f쎯	-10.9526
ftx쎯rh쎯w쎯	-10.9528
k쎯ny쎯.	-10.953
zzbd3쎯vfhp1쎯tam쎯	-10.953
ii쎯fakg0쎯	-10.9531
ran쎯xqc쎯	-10.9531
r쎯vb쎯	-10.9533
k쎯l쎯dd쎯bfm쎯	-10.9533
gcft0쎯lt쎯	-10.9535
nh쎯aqt쎯	-10.9535
g쎯ya쎯	-10.9537
y쎯s쎯tg쎯u쎯	-10.9538
ish쎯	-10.9538
xn쎯wynn3쎯qnp쎯	-10.9538
쎁쎃쎅	-10.9541
gah쎯jj쎯	-10.9541
dga쎯pwv쎯zzbd3쎯	-10.9541
gm쎯qqqq1쎯	-10.9542
w쎯fqu쎯	-10.9542
w쎯k쎯aw쎯ipk쎯km쎯	-10.9543
aq쎯r쎯	-10.9543
ghd1쎯fwm쎯	-10.9543
.쎁쎉쎉쎆rh쎯	-10.9543
ym쎯gf쎯	-10.9544
eee0쎯fjh0쎯	-10.9545
,bn쎯yi쎯j쎯	-10.9547
wt쎯bm쎯b쎯	-10.9547
fny0쎯lkb쎯《	-10.9547
r쎯fp쎯tkgg1쎯	-10.9548
ipr쎯itx쎯	-10.9548
ieb쎯mfky쎯	-10.9549
v쎯nae0쎯.	-10.955
fm쎯mmm쎯	-10.9551
쎀.쎀쎀	-10.9553
쎆wc쎯jfd쎯	-10.9554
.sg쎯wc쎯ngk쎯	-10.9555
rxj쎯nf쎯km쎯	-10.9556
mw쎯dhb쎯pww쎯jg쎯	-10.9558
y쎯s쎯mw쎯pww쎯	-10.9558
r쎯gk쎯nge쎯	-10.9559
k쎯l쎯ugdu쎯sy쎯	-10.9559
wgku1쎯bfm쎯	-10.9559
쎂.쎇	-10.956
uce쎯adf쎯	-10.9562
e1쎯	-10.9563
d쎯suq쎯tg쎯	-10.9563
,bn쎯sk쎯	-10.9566
“gg쎯	-10.9567
fp쎯iya쎯	-10.9569
g쎯fh쎯ww쎯gk쎯	-10.9569
trh0쎯kq쎯	-10.957
g쎯wsg0쎯	-10.9579
a쎯um쎯tf쎯ght쎯	-10.9579
fq쎯qc쎯	-10.9583
,w쎯wu쎯	-10.9584
rs쎯qgb쎯sm쎯	-10.9586
d쎯tjf0쎯iawn0쎯	-10.9587
i쎯td쎯uthp0쎯	-10.9587
ick쎯pv쎯	-10.9587
()r쎯	-10.9588
ntk쎯sfhg쎯tr쎯	-10.959
kkk쎯thgf1쎯.	-10.9592
ny쎯tld1쎯tp쎯	-10.9592
y쎯s쎯dr쎯ou쎯	-10.9592
wg쎯lt쎯	-10.9594
,kg쎯	-10.9594
hhhh쎯r쎯j쎯	-10.9595
ukn쎯uqwm1쎯u쎯	-10.9598
sg쎯udh쎯“	-10.9599
xn쎯tv쎯nnh쎯yn쎯	-10.9599
d쎯mw쎯r쎯	-10.96
tda쎯	-10.96
t쎯eb쎯tl쎯	-10.9604
yynw1쎯adm쎯hhhh쎯	-10.9606
nty0쎯yv쎯	-10.961
.aft쎯e쎯《	-10.9611
tg쎯rm쎯	-10.9613
aq쎯tv쎯	-10.9614
wv쎯dn쎯	-10.9614
gj쎯ywx쎯t쎯	-10.9616
tk쎯thd쎯	-10.9617
쎁쎉쎉쎀	-10.9617
x쎯qyv쎯	-10.9617
r쎯gj쎯wynn3쎯	-10.962
,s쎯	-10.962
.’	-10.9621
tp쎯gj쎯ip쎯bpf쎯	-10.9625
ucd쎯	-10.9626
k쎯jb쎯	-10.9629
mq쎯ijo쎯	-10.9629
h쎯yy쎯	-10.9633
》j쎯mh쎯	-10.9635
nnh쎯if쎯wt쎯kkk쎯	-10.9636
쎉쎅%	-10.9637
r쎯fnr0쎯ujf0쎯	-10.9639
wg쎯suq쎯	-10.9641
쎁쎁쎂	-10.9643
suq쎯xe쎯	-10.9645
zzbd3쎯dgtg0쎯	-10.9645
y쎯ick쎯atd쎯jgm쎯	-10.9645
jtyl쎯gj쎯	-10.9647
sk쎯ce쎯j쎯	-10.9647
ymf쎯wtf쎯	-10.9647
eb쎯tmc쎯	-10.9647
sh쎯ruv쎯	-10.9648
na쎯	-10.9648
rn쎯gcft0쎯	-10.9649
vfhp1쎯rmhj쎯	-10.965
jtyl쎯qtyd0쎯	-10.965
nge쎯ukq쎯gh쎯	-10.9651
tfkp0쎯dn쎯r쎯	-10.9652
ikh1쎯unr0쎯	-10.9652
yww쎯ait쎯gf쎯	-10.9656
fqu쎯tqdh0쎯	-10.9656
gjq쎯rq쎯	-10.9657
hi쎯rgw쎯	-10.9657
rwye1쎯	-10.9657
tew쎯	-10.9659
dd쎯oy쎯	-10.9661
vfhp1쎯uu쎯r쎯	-10.9664
.쎁쎉쎉쎄rh쎯	-10.9664
kkk쎯thgf1쎯r쎯	-10.9666
n쎯ght쎯	-10.9667
w쎯n쎯bm쎯thgc0쎯py쎯	-10.9667
yon쎯ep쎯	-10.9667
zzbd3쎯py쎯wf쎯	-10.9672
ic쎯wa쎯	-10.9674
ty쎯uyh쎯	-10.9674
gik쎯	-10.9676
w쎯fqu쎯nh쎯ty쎯	-10.9676
ym쎯imkf1쎯	-10.9679
,fh쎯gc쎯	-10.9681
kq쎯》	-10.9685
bm쎯thgc0쎯.	-10.9686
wtp쎯k쎯	-10.9688
scw쎯	-10.9689
zzbd3쎯lh쎯kthh1쎯	-10.9689
sve쎯rnd1쎯f쎯	-10.9689
uqwk0쎯yqj쎯zzbd3쎯	-10.9691
fny0쎯og쎯xxf쎯og쎯,	-10.9692
pujs쎯	-10.9692
ryi쎯	-10.9693
ftbt쎯jgm쎯,	-10.9696
bn쎯ytf쎯	-10.97
,bde쎯	-10.9701
xxm쎯ahty0쎯	-10.9701
wyv쎯yuo쎯	-10.9702
mqq쎯iytb0쎯	-10.9706
wlk쎯	-10.9707
jf쎯ufy쎯	-10.9709
pyg쎯ytyh쎯ymhj0쎯	-10.9711
r쎯usr쎯gajf0쎯	-10.9712
gf쎯g쎯wsg0쎯	-10.9713
ip쎯suq쎯.	-10.9716
kkkk1쎯drt쎯	-10.9717
awx쎯qyng0쎯	-10.9718
r쎯yygy쎯wx쎯	-10.9718
djfd쎯oy쎯,pa쎯	-10.9719
sfi쎯rgw쎯	-10.9722
gip쎯ce쎯	-10.9725
mga쎯cbj쎯	-10.9728
xuq쎯	-10.9729
jc쎯wycb쎯	-10.9729
g쎯m쎯	-10.9729
mmm쎯yfd쎯	-10.9729
bm쎯uthp0쎯	-10.9731
bgk쎯yb쎯	-10.9731
ftbt쎯wf쎯	-10.9731
rny1쎯pg쎯	-10.9732
thg1쎯zzbd3쎯	-10.9733
aq쎯wug0쎯	-10.9733
yh쎯q쎯wu쎯	-10.9734
k쎯wxf쎯n쎯ytt쎯	-10.9734
dg쎯nfc쎯	-10.9734
c쎯h쎯,	-10.9735
fq쎯tfn쎯	-10.9736
wtf쎯tl쎯.	-10.9738
sbd쎯lkmi0쎯gae쎯,	-10.974
by쎯ooo쎯	-10.974
p쎯tc쎯	-10.9741
ujn쎯ln쎯j쎯	-10.9742
e쎯tve쎯qq쎯	-10.9746
yxl쎯trt쎯og쎯	-10.9748
rh쎯gu쎯fqu쎯	-10.9748
쎆w쎯,	-10.975
xww쎯bw쎯	-10.9751
lu쎯ih쎯	-10.9751
r쎯g쎯uk쎯wv쎯	-10.9753
yqa쎯,	-10.9753
kxe쎯	-10.9754
dny쎯	-10.9755
ypm쎯ya쎯	-10.9758
you1쎯wt쎯“	-10.9758
>>	-10.9759
dp쎯sfi쎯	-10.9759
.쎁쎉쎉쎉rh쎯	-10.9764
jn쎯mqq쎯	-10.9766
pgc쎯,	-10.9766
:쎀.	-10.9767
wy쎯thn쎯eb쎯tl쎯	-10.9767
tffu쎯uqd2쎯쎁adm쎯	-10.9768
,k쎯aw쎯	-10.977
uh쎯d쎯	-10.9771
tx쎯쎆	-10.9776
usr쎯kkk쎯tkh쎯	-10.9777
sh쎯xf쎯wgk쎯	-10.9779
ukn쎯uk쎯ymc쎯d쎯	-10.978
ta쎯dd쎯	-10.9781
xv쎯qc쎯,	-10.9781
mf쎯x쎯dd쎯ip쎯	-10.9781
d쎯q쎯l쎯	-10.9782
kkkk1쎯,	-10.9782
yny0쎯gajf0쎯	-10.9784
ytyh쎯gmi쎯kq쎯	-10.9786
wdn쎯rfm쎯eb쎯tl쎯	-10.9789
igd쎯lk쎯yjjh0쎯	-10.9792
ftjb쎯s쎯	-10.9792
dm쎯ou쎯	-10.9792
eee0쎯쎂쎃jjjj0쎯	-10.9794
s쎯hko쎯	-10.9794
hhu0쎯cep쎯	-10.9794
rvyo쎯jg쎯	-10.9796
jc쎯udw쎯	-10.9796
dn쎯ybv0쎯r쎯	-10.9798
i쎯m쎯,	-10.9798
afwt1쎯	-10.9799
gw쎯khgm3쎯	-10.9801
ye쎯eb쎯	-10.9805
fh쎯dp쎯	-10.9806
ygk쎯if쎯	-10.9807
eyf쎯	-10.9808
pynn1쎯	-10.9808
mmqu쎯	-10.9809
thd쎯drin0쎯	-10.9812
wc쎯gu쎯	-10.9813
,g쎯fh쎯	-10.9814
ym쎯mtd쎯	-10.9814
wk쎯udyj쎯	-10.9817
ftbt쎯rep쎯,fge쎯	-10.9818
am쎯fmud쎯.	-10.9818
,sghg1쎯wycb쎯	-10.9818
ujfj0쎯wug0쎯”	-10.9819
fny0쎯iy쎯	-10.982
wqa쎯dfy쎯	-10.9821
.쎂쎀쎁쎁rh쎯	-10.9823
amw쎯pujn0쎯qc쎯	-10.9823
wycm1쎯fakg0쎯.	-10.9826
ytt쎯thd쎯ick쎯aq쎯	-10.9826
r쎯vcl쎯lt쎯	-10.9827
r쎯ip쎯nu쎯	-10.9827
ymc쎯tlf0쎯t쎯	-10.9827
tkh쎯sfhg쎯gy쎯oy쎯	-10.9832
khgm3쎯bj쎯	-10.9834
fc쎯ref쎯	-10.9837
,kw쎯s쎯	-10.9841
khgp0쎯yop쎯	-10.9841
rmhj쎯tfkp0쎯og쎯	-10.9842
kq쎯ou쎯	-10.9843
nkuf쎯gl쎯	-10.9844
qd쎯dmj1쎯	-10.9844
hx쎯nnh쎯	-10.9845
gkl쎯ftbt쎯rep쎯.	-10.9847
rmhj쎯ys쎯	-10.9849
gogj쎯tak쎯	-10.985
yc쎯jn쎯	-10.9852
쎂쎅dq쎯	-10.9855
wc쎯ngk쎯c쎯	-10.9856
fm쎯yiu0쎯dd쎯ip쎯	-10.9857
,cd쎯lk쎯	-10.9857
uwyc2쎯uai0쎯	-10.9857
at쎯yfn쎯	-10.9859
bo쎯	-10.986
itx쎯ipr쎯	-10.9861
wt쎯yngk1쎯	-10.9863
ukn쎯dm쎯tkw쎯쎁	-10.9864
dskf쎯trf0쎯	-10.9864
pgm쎯	-10.9865
hka쎯ufk0쎯k쎯	-10.9867
najg쎯	-10.9868
fg쎯fgh쎯rh쎯	-10.9869
lk쎯a쎯zzbd3쎯	-10.9869
smm쎯	-10.987
dd	-10.987
g쎯xfm쎯	-10.9872
vb쎯ygu쎯.	-10.9873
r쎯hw쎯wsg0쎯	-10.9873
u쎯sc쎯	-10.9876
pp쎯wt쎯	-10.9877
dd쎯hka쎯	-10.9879
rnn0쎯pu쎯	-10.9879
umia0쎯	-10.9879
vtg쎯qk쎯:	-10.988
wv쎯klj쎯j쎯	-10.988
qnm쎯	-10.9881
tmg1쎯lqw쎯	-10.9886
dd쎯fwm쎯saj0쎯	-10.9889
gip쎯sk쎯	-10.9893
dfef0쎯	-10.9895
쎁쎀쎁	-10.9895
r쎯nge쎯ukq쎯	-10.9896
k쎯tu쎯bpf쎯	-10.9897
dd쎯afi쎯	-10.9898
gf쎯쎂쎀쎁쎀rh쎯	-10.9898
sk쎯c쎯cep쎯fp쎯	-10.9898
dv쎯	-10.99
v쎯tg쎯b쎯	-10.9902
tp쎯gj쎯saj0쎯aa쎯	-10.9904
dy쎯pw쎯	-10.9905
rdj쎯yt쎯	-10.9906
zzxx1	-10.9906
,ak쎯ftj쎯	-10.9907
쎁쎉쎂쎇rh쎯	-10.9907
od쎯klj쎯:	-10.9908
oge쎯cep쎯	-10.991
쎃adm쎯	-10.991
bynw0쎯bb쎯wu쎯	-10.9911
usr쎯ub쎯bm쎯thgc0쎯	-10.9912
fge쎯jtyq0쎯	-10.9913
ait쎯kf쎯	-10.9914
쎁쎀쎆	-10.9915
w쎯tfkp0쎯	-10.9915
r쎯trf0쎯qc쎯	-10.9915
ua쎯i쎯j쎯	-10.9916
imkf1쎯fii쎯	-10.9918
bs쎯sve쎯tfpd0쎯	-10.992
fjn쎯	-10.992
txi쎯xyc쎯wys쎯dn쎯	-10.992
wg쎯yy쎯wug0쎯r쎯	-10.9921
qyk쎯	-10.9921
k쎯gajf0쎯	-10.9921
gcf쎯wynb0쎯wtf쎯	-10.9922
dnv0쎯jfd쎯	-10.9922
iv쎯jf쎯r쎯	-10.9922
ukn쎯bw쎯	-10.9923
atd쎯ubk1쎯txi쎯	-10.9924
fwm쎯aj쎯zzbd3쎯	-10.9925
xwv쎯xwv쎯	-10.9929
(gm쎯	-10.993
pue쎯	-10.993
rfc쎯sy쎯wbj쎯usr쎯	-10.9931
aw쎯wv쎯	-10.9932
wt쎯mq쎯	-10.9935
pf쎯ryn1쎯	-10.9936
mpg쎯	-10.9937
vcb쎯wgkq0쎯	-10.9938
mqu쎯eee0쎯	-10.9939
vcb쎯o쎯	-10.994
nnnn0쎯puhc쎯	-10.994
jq쎯rh쎯	-10.9941
afs쎯wh쎯	-10.9942
adm쎯hhhh쎯.	-10.9944
po쎯pd쎯	-10.9944
fny0쎯og쎯tv쎯km쎯	-10.9944
xwf쎯rmhj쎯	-10.9946
oun쎯	-10.9946
wfl쎯	-10.9947
ade쎯	-10.9948
thd쎯tmd쎯r쎯	-10.9952
쎁쎁쎅	-10.9952
xfm쎯tavn쎯ait쎯pu쎯	-10.9955
umq쎯qtg쎯	-10.9959
zzjp86쎯	-10.9959
myd0쎯gtu쎯	-10.9962
,y쎯s쎯ww쎯gk쎯	-10.9963
ta쎯zzbd3쎯	-10.9963
cbd쎯yf쎯	-10.9965
mw쎯wv쎯int쎯	-10.9967
hk쎯e쎯	-10.9968
rgw쎯kkd쎯	-10.9969
pgy쎯mhny1쎯	-10.9971
rx쎯ygu쎯	-10.9975
rvy쎯nf쎯	-10.9975
jn쎯dgt1쎯	-10.9976
yynw1쎯kkk쎯tkh쎯	-10.9978
tig쎯	-10.9981
wx쎯uv쎯	-10.9982
eee0쎯쎅jjjj0쎯	-10.9982
쎃.쎆	-10.9983
xnn1쎯shn쎯	-10.9984
jtg쎯adwe1쎯	-10.9987
eee0쎯쎂쎂jjjj0쎯	-10.9988
ajdj0쎯	-10.9989
sk쎯d쎯	-10.9991
rua쎯ujf0쎯	-10.9991
.쎁쎉쎉쎀rh쎯	-10.9992
wys쎯qfhw1쎯	-10.9994
wwj쎯wfhg0쎯r쎯	-10.9994
gc쎯yqa쎯	-10.9994
cyna1쎯	-10.9995
r쎯iytb0쎯ca쎯	-10.9995
gl쎯bpf쎯	-10.9997
n쎯sw쎯pwfi0쎯bpf쎯	-11.0001
qtk쎯	-11.0001
쎁쎉쎂쎈rh쎯	-11.0001
yygy쎯si쎯	-11.0004
ae쎯txi쎯	-11.0005
r쎯uk쎯wv쎯	-11.0007
쎅dnv0쎯	-11.0007
qw쎯	-11.001
fcp쎯fcl쎯km쎯,	-11.0011
”,j쎯	-11.0012
dp쎯gc쎯b쎯	-11.0014
rvyo쎯hko쎯	-11.0014
jujf1쎯	-11.0015
,xx쎯vk쎯	-11.0015
av쎯rq쎯	-11.0018
쎈w쎯	-11.0018
rer쎯iuc쎯	-11.0019
dd쎯ipkh1쎯tv쎯wf쎯	-11.0019
ixj쎯ii쎯	-11.002
cd쎯mqb쎯	-11.0021
thd쎯tf쎯lg쎯	-11.0024
ty쎯ipk쎯	-11.0024
ndj쎯《	-11.0026
je쎯gd쎯	-11.0026
tmg1쎯gajf0쎯	-11.0027
aq쎯.	-11.0027
yygt쎯sghg1쎯ufg쎯	-11.0028
uxe쎯rg쎯	-11.0028
i쎯wynk쎯	-11.0031
gqt	-11.0034
zzsx35쎯	-11.0035
tffu쎯a쎯wt쎯	-11.0035
uqvd1쎯	-11.0038
p쎯ffi쎯	-11.0043
ym쎯ntg쎯ce쎯	-11.0043
tyg쎯go쎯	-11.0044
ajl쎯	-11.0044
bpf쎯gkl쎯bpf쎯ta쎯	-11.0046
gf쎯쎂쎀쎀쎉rh쎯	-11.0046
bb쎯vvv쎯	-11.0047
egcn쎯rffg0쎯	-11.0048
tl	-11.0048
ue쎯qtd쎯	-11.0048
ytd쎯ndj쎯	-11.0051
쎁zzbd9쎯	-11.0053
rp쎯rh쎯	-11.0054
wc쎯ghd1쎯	-11.0054
쎅w쎯,	-11.0055
ffff1쎯bgh쎯adw쎯	-11.0055
apk쎯udyj쎯dh쎯pgk쎯	-11.0055
tmo쎯ss쎯aqv1쎯dq쎯	-11.0055
syl쎯	-11.0056
iytb0쎯ca쎯《	-11.0056
hk쎯rnd1쎯	-11.0057
dgh쎯w쎯	-11.0058
쎂쎀wtu쎯tyna2쎯	-11.0058
wc쎯jfd쎯,kha쎯	-11.006
aguw쎯	-11.0061
zzxl1쎯	-11.0061
fq쎯qjq쎯ymhj0쎯	-11.0062
fm쎯aq쎯	-11.0064
yu쎯if쎯	-11.0067
gogn0쎯ntg쎯	-11.0068
쎀쎀oy쎯,rh쎯gu쎯fqu쎯	-11.0068
fhu쎯bm쎯	-11.0072
ntg쎯udy쎯	-11.0075
f쎯wug0쎯.	-11.0076
pgn쎯r쎯	-11.0076
eyni쎯ukh쎯	-11.0078
ga쎯vck쎯b쎯	-11.0078
ff쎯bpf쎯	-11.008
q쎯wu쎯uqf쎯	-11.0081
sghg1쎯gog쎯	-11.0082
efk쎯eta쎯	-11.0084
dga쎯pwv쎯,	-11.0085
fge쎯fghg쎯,	-11.0085
dx쎯riu0쎯	-11.0087
oqd쎯	-11.009
jx쎯mmm쎯	-11.0091
,ux쎯gn쎯	-11.0092
qhk쎯dgtg0쎯	-11.0093
hh쎯uce쎯	-11.0094
wgnb0쎯	-11.0096
fwyc2쎯uk쎯wrh1쎯	-11.0096
cc쎯tm쎯	-11.0097
up쎯ggg0쎯	-11.0098
쎇rh쎯)	-11.0098
s쎯fiy쎯,	-11.01
r쎯qt쎯bb쎯	-11.01
www쎯tg쎯	-11.0101
c쎯ai쎯	-11.0103
txe쎯ynt0쎯	-11.0107
dg쎯tffu쎯uqd2쎯.	-11.0107
ii쎯uqwm1쎯idr쎯	-11.011
sh쎯xf쎯wgk쎯r쎯	-11.011
on쎯gqje0쎯	-11.0112
r쎯ygk쎯yyy쎯	-11.0112
yc쎯jn쎯kkd쎯	-11.0116
lu쎯qq쎯	-11.0117
bwf쎯ntk쎯atd쎯bpf쎯	-11.0117
je쎯jo쎯r쎯	-11.0119
yt쎯dd쎯	-11.0119
쎄rh쎯)	-11.0121
,tdp쎯wgk쎯	-11.0121
ntx쎯	-11.0122
wqr쎯	-11.0122
fhn쎯wdy1쎯	-11.0123
rhc쎯qf쎯gae쎯	-11.0125
pu쎯khg0쎯x쎯cwg쎯	-11.0126
.쎁쎉쎈쎆rh쎯	-11.0127
tffu쎯gf쎯	-11.0127
sse쎯	-11.0129
vff0쎯	-11.0129
:-	-11.0131
o쎯l쎯pe쎯	-11.0132
pgk쎯wynk쎯	-11.0132
쎀zzts0쎯	-11.0132
l쎯ygk쎯	-11.0133
gah쎯up쎯	-11.0133
egc쎯tv쎯nnh쎯yn쎯	-11.0134
mqb쎯qev쎯	-11.0135
yy쎯qf쎯,	-11.0135
ipg쎯yfj0쎯	-11.0136
ymhj0쎯wc쎯pv쎯nnk쎯	-11.0137
w쎯kkkk1쎯쎂	-11.0139
fak쎯	-11.0141
usr쎯sf쎯	-11.0141
()t쎯	-11.0141
hna쎯	-11.0146
uub쎯	-11.0148
pei쎯pe쎯	-11.0151
w쎯;	-11.0152
lh쎯efc쎯	-11.0152
dgtg0쎯ynt0쎯	-11.0152
n쎯tg쎯	-11.0153
rua쎯rgef쎯	-11.0154
ha	-11.0154
nnh쎯yn쎯zzbd3쎯	-11.0155
fm쎯djd쎯	-11.0157
dm쎯uk쎯	-11.0161
nty0쎯qk쎯	-11.0164
xln0쎯jhny쎯	-11.0165
tf쎯og쎯fl쎯wf쎯	-11.0166
xf쎯sq쎯r쎯	-11.0166
ty쎯wvp쎯	-11.0168
+쎁	-11.0168
,vfhp1쎯uu쎯	-11.017
eee0쎯쎂쎁jjjj0쎯	-11.0171
tlf0쎯pvs쎯	-11.0172
zzbd3쎯ux쎯	-11.0172
cf쎯rymn쎯	-11.0173
xd	-11.0173
yy쎯tkgg1쎯	-11.0175
udg2쎯ec쎯	-11.0175
akgn0쎯	-11.0175
um쎯yhk쎯	-11.0179
glf쎯	-11.018
rdjn0쎯	-11.0181
fgh쎯mt쎯	-11.0182
rh쎯go쎯	-11.0183
gjq쎯vb쎯f쎯	-11.0185
ukn쎯hich0쎯	-11.0185
ryc쎯qie쎯	-11.0187
ux쎯tvr쎯	-11.0187
:k쎯l쎯	-11.0191
fhqv0쎯	-11.0192
eee0쎯쎁쎇jjjj0쎯	-11.0193
itl쎯	-11.0193
kmd쎯	-11.0194
-쎁쎂	-11.0194
쎁쎅rh쎯	-11.0194
usgp1쎯pf쎯	-11.0198
lj쎯	-11.0199
fhn쎯idr쎯gf쎯	-11.02
,ux쎯yiu0쎯	-11.0203
tx쎯wty0쎯nm쎯	-11.0205
rffg0쎯thgf1쎯	-11.0206
tcy0쎯apk쎯	-11.0209
yfn쎯tr쎯	-11.021
r쎯ymhj0쎯fnrt쎯	-11.021
zzdw5쎯	-11.0212
rmhj쎯dn쎯r쎯	-11.0214
wgmy2쎯udv쎯	-11.0214
.쎁쎉쎈쎃rh쎯	-11.0215
wug0쎯,	-11.0215
,ua쎯uqf쎯	-11.0217
tu쎯fl쎯	-11.0218
u쎯kkk쎯tgj쎯jg쎯:	-11.0224
qsu쎯gqx쎯	-11.0226
.쎁쎉쎈쎇rh쎯	-11.0228
zzbd3쎯ck쎯iyo쎯	-11.0229
쎁쎆쎈	-11.023
hcd쎯e쎯	-11.023
rck쎯	-11.0231
nfi1쎯	-11.0232
uxe쎯iq쎯	-11.0234
rg쎯dm쎯	-11.0234
puhc쎯iwyf1쎯o쎯	-11.0234
tgj쎯lt쎯	-11.0234
gd쎯ipkf0쎯	-11.0238
fcb쎯j쎯	-11.024
py쎯wf쎯v쎯nae0쎯	-11.0241
.wb쎯r쎯	-11.0244
gn쎯yid쎯et쎯	-11.0244
wynb0쎯rg쎯	-11.0245
ccf쎯	-11.0245
:"	-11.0246
wsg0쎯r쎯	-11.0246
hko쎯.	-11.0246
ga쎯fffy0쎯	-11.0246
tv쎯nnh쎯yn쎯	-11.0248
ymkc1쎯	-11.0249
awj0쎯	-11.0249
puj쎯	-11.025
gcf쎯gf쎯	-11.0251
kgb쎯,	-11.0252
oat쎯ga쎯	-11.0253
yyq쎯wf쎯	-11.0253
cv쎯adf쎯	-11.0255
(-	-11.0256
pei쎯ip쎯bpf쎯	-11.0259
ntg쎯klj쎯	-11.0259
pwav쎯	-11.0261
ugdu쎯sy쎯qnp쎯	-11.0263
hka쎯sy쎯	-11.0264
qk쎯iwyf1쎯	-11.0264
p쎯j쎯g쎯wh쎯	-11.0264
wf쎯e쎯	-11.0264
fhu쎯fj쎯	-11.0264
pl쎯wv쎯aq쎯	-11.0265
tdtf0쎯tlf0쎯	-11.0266
gmww쎯ftj쎯	-11.0267
tu쎯gkl쎯tu쎯ta쎯	-11.0269
khd쎯fha쎯	-11.0269
dga쎯v쎯zzbd3쎯tg쎯	-11.027
wvmj쎯	-11.0271
tx쎯ag쎯nm쎯	-11.0272
쎂쎀%	-11.0275
bm쎯thgc0쎯jf쎯uj쎯:	-11.0275
eee0쎯쎂쎄jjjj0쎯	-11.0276
쎃rh쎯)	-11.0277
bde쎯ujn쎯	-11.0278
o쎯g쎯wsg0쎯	-11.0279
ua쎯im쎯e쎯	-11.0281
i쎯tffu쎯	-11.0281
aft쎯e쎯《	-11.0284
쎁쎀.	-11.0286
p0쎯	-11.0287
hhu0쎯qiu0쎯	-11.0288
v쎯gm쎯r쎯	-11.0289
eyj쎯	-11.0289
vcb쎯jf쎯	-11.0291
nge쎯jy쎯	-11.0292
qvhc0쎯	-11.0292
hk쎯f쎯쎁	-11.0292
jg쎯r쎯	-11.0295
zzjp5	-11.0297
gd쎯bb쎯	-11.03
dx쎯mmm쎯	-11.03
isk쎯uthp0쎯	-11.0302
mmm쎯ax쎯	-11.0302
dw쎯gd쎯	-11.0303
dga쎯pwv쎯.	-11.0303
쎀쎀쎀	-11.0305
nnh쎯》	-11.0305
dbv0쎯	-11.0306
ssf쎯hh쎯	-11.0306
쎁rh쎯)	-11.0307
usr쎯tg쎯	-11.0307
qnth쎯)	-11.0308
jq쎯wf쎯	-11.0308
,dt쎯egl쎯	-11.0309
dgh쎯ftx쎯	-11.031
tffu쎯al쎯ce쎯	-11.0312
udy쎯fqb0쎯	-11.0312
tfqp쎯rdc쎯	-11.0313
dy쎯ide쎯	-11.0314
a쎯wt쎯uk쎯uyh쎯	-11.0316
su쎯kkk쎯	-11.0316
itx쎯yqa쎯	-11.0317
,wys쎯	-11.0318
iwv쎯	-11.0319
pg쎯o쎯	-11.032
쎅rh쎯)	-11.0321
iq쎯yuo쎯	-11.0321
tffy0쎯jm쎯	-11.0321
han쎯	-11.0323
k쎯kht쎯	-11.0324
pye쎯tdij0쎯	-11.0325
tif쎯	-11.0328
w쎯uqw쎯	-11.0329
wc쎯wv쎯	-11.033
rj쎯ue쎯	-11.033
rnnw0쎯pgn쎯r쎯	-11.0331
yt쎯lfhf쎯	-11.0332
wdn쎯tfq쎯	-11.0332
synw쎯tha쎯	-11.0333
od쎯zzbd3쎯	-11.0334
쎈.쎅	-11.0335
dn쎯wwv쎯	-11.0337
k쎯aw쎯k쎯md쎯	-11.0338
dgj쎯tt쎯nnh쎯if쎯	-11.0339
tv쎯wf쎯	-11.0339
ab쎯ith쎯	-11.0341
wo쎯wuf쎯	-11.0342
wa쎯gj쎯um쎯	-11.0342
i쎯vk쎯	-11.0343
rdj쎯ta쎯	-11.0343
r쎯ym쎯usr쎯rfc쎯sy쎯	-11.0344
rmc쎯u쎯	-11.0344
ww	-11.0344
qtge쎯	-11.0344
iy쎯mm쎯ge쎯	-11.0346
,wcy0쎯	-11.0346
ip쎯yu쎯	-11.0349
udrc쎯	-11.035
cm쎯rhf0쎯	-11.0353
ga쎯awx쎯	-11.0354
qsu쎯alt쎯	-11.0355
rnb쎯fcl쎯	-11.0356
rp쎯mt쎯rh쎯	-11.0356
ftbt쎯tv쎯	-11.0357
쎁쎅쎀dq쎯	-11.0359
e쎯ycb쎯	-11.0359
.wc쎯ngk쎯reh쎯e쎯	-11.0359
ax쎯et쎯	-11.036
jq쎯h쎯	-11.0363
mga쎯》:“	-11.0366
rwye1쎯rt쎯	-11.0368
an쎯lwj쎯sgi쎯	-11.0371
,쎂쎀쎀쎄rh쎯	-11.0372
jty쎯irh0쎯	-11.0372
e쎯qk쎯r쎯	-11.0372
py쎯aq쎯nd쎯tv쎯wf쎯	-11.0374
ltu0쎯》	-11.0376
rrr쎯isgg2쎯	-11.0376
vtkd0쎯bb쎯	-11.0377
쎈w쎯,	-11.0377
r쎯qe쎯qc쎯	-11.0377
ai쎯egc쎯	-11.0378
lfo	-11.0379
hjs쎯dm쎯	-11.0383
ty쎯ip쎯	-11.0383
il쎯il쎯	-11.0385
shn쎯qje쎯	-11.0387
lhnh쎯udy쎯eri쎯	-11.0387
ukn쎯a쎯wf쎯	-11.039
sgi쎯”	-11.039
eee0쎯쎂쎇jjjj0쎯	-11.0391
쎂쎀-	-11.0393
jb쎯tfq쎯fj쎯r쎯	-11.0393
die쎯	-11.0394
xtdh0쎯cw쎯	-11.0397
rn쎯ta쎯	-11.0398
qgu쎯je쎯	-11.0398
yygy쎯wx쎯uq쎯iyc쎯	-11.04
hj쎯fhg1쎯	-11.04
ltu0쎯nnh쎯pgc쎯	-11.0401
ywx쎯》	-11.0402
dd쎯gcft0쎯	-11.0403
ufg쎯cm쎯	-11.0403
쎅w쎯	-11.0404
ipwk0쎯gf쎯	-11.0404
kkk쎯thgf1쎯,	-11.0405
ce쎯lt쎯t쎯	-11.0405
쎇kgn쎯	-11.0406
sfm쎯	-11.0408
i쎯je쎯	-11.0413
m쎯tf쎯og쎯	-11.0413
xeg0쎯wrh1쎯	-11.0415
uq쎯ian1쎯th쎯	-11.0416
uyh쎯zzbd3쎯	-11.0418
xa쎯gmiu쎯	-11.042
bm쎯wyk쎯	-11.0422
e쎯egl쎯gf쎯	-11.0424
an쎯lwj쎯r쎯	-11.0425
rg쎯gmf쎯	-11.0426
qkql0쎯	-11.0427
쎈쎀쎀쎀	-11.0428
vk쎯m쎯	-11.0428
g쎯tffu쎯uqd2쎯.	-11.0428
eee0쎯쎁쎄jjjj0쎯	-11.0429
pds쎯tg쎯	-11.043
pp쎯ujn쎯	-11.043
dgh쎯ftx쎯r쎯	-11.0431
se쎯bv쎯	-11.0431
a쎯wt쎯tv쎯km쎯wf쎯	-11.0433
wf쎯h쎯	-11.0433
tffu쎯fny0쎯og쎯	-11.0434
tmg1쎯ihc쎯	-11.0435
oyx쎯	-11.0436
sg쎯sf쎯	-11.0437
fi쎯wgq쎯	-11.0438
sm쎯gj쎯	-11.0438
gog쎯rvyo쎯gkp쎯	-11.0438
쎃.쎁	-11.0439
tg쎯tr쎯rfc쎯sy쎯	-11.0441
dga쎯pwv쎯km쎯.	-11.0442
.쎁쎉쎅쎈rh쎯	-11.0442
ly쎯	-11.0442
u쎯kkk쎯ga쎯v쎯	-11.0447
.ww쎯gk쎯	-11.0449
gs쎯umd1쎯	-11.045
qtj쎯pe쎯	-11.045
쎁쎀dq쎯,	-11.0451
r쎯lw쎯ip쎯	-11.0452
rg쎯w쎯	-11.0455
pe쎯jfd쎯	-11.0455
pp쎯f쎯	-11.0455
tp쎯gj쎯uqwk0쎯yqj쎯	-11.0456
wty0쎯kht쎯pl쎯	-11.046
wf쎯gkl쎯gj쎯gk쎯ta쎯	-11.046
wc쎯rtt0쎯,	-11.046
um쎯og쎯qve쎯tf쎯	-11.0461
pu쎯khg0쎯k쎯	-11.0461
sw쎯imj쎯ymc쎯tlf0쎯	-11.0462
pqk쎯	-11.0462
sfi쎯sg쎯	-11.0467
gqje0쎯thg1쎯	-11.0468
r쎯yw쎯sk쎯	-11.0469
ga쎯uit쎯	-11.047
ufy쎯sgn쎯	-11.0472
wty0쎯dd쎯	-11.0473
g쎯nnh쎯	-11.0475
iytb0쎯jtyq0쎯	-11.0476
rgef쎯	-11.0476
ahkm3쎯	-11.0477
ijo쎯ya쎯	-11.0479
tg쎯u쎯t쎯qie쎯wyk쎯	-11.0479
eee0쎯쎁쎉jjjj0쎯	-11.0479
ip쎯sy쎯wf쎯yyq쎯	-11.0481
쎂rh쎯)	-11.0482
ue쎯gq쎯	-11.0484
wfn쎯dd쎯	-11.0485
n쎯apk쎯	-11.0488
nnl쎯sgyb0쎯	-11.0489
snn0쎯	-11.0489
oge쎯iad쎯	-11.049
vv쎯bu쎯	-11.049
fqp쎯qie쎯	-11.0491
cw쎯jghm1쎯	-11.0496
fhv쎯fnr0쎯	-11.0497
cep쎯tyg쎯	-11.0497
sdm쎯id쎯	-11.0497
x쎯iyj쎯jgm쎯	-11.0499
c쎯sghg1쎯	-11.05
ai쎯mmm쎯	-11.05
dnv0쎯gu쎯oy쎯	-11.0501
,쎂쎀쎀쎆rh쎯	-11.0506
on	-11.0506
g쎯tyna2쎯	-11.0506
yo쎯jg쎯	-11.0507
eee0쎯쎆jjjj0쎯	-11.0507
mq쎯wwwk0쎯	-11.0508
tuj0쎯xq쎯	-11.0508
ftbt쎯yce쎯pe쎯	-11.0508
쎉rh쎯)	-11.0509
gj쎯ntg쎯	-11.0512
dsh0쎯	-11.0512
sh쎯rc쎯	-11.0512
rmhj쎯tlf0쎯	-11.0513
sh쎯sm쎯	-11.0518
xf쎯og쎯	-11.0518
mftj1쎯	-11.0518
tu쎯ip쎯v쎯nae0쎯cm쎯	-11.0518
r쎯wgkq0쎯et쎯	-11.0518
xxf쎯og쎯gf쎯h쎯itx쎯	-11.0519
thd쎯egl쎯	-11.0519
gcft0쎯lt쎯gf쎯o쎯	-11.052
fuk쎯yk쎯zzbd3쎯	-11.0522
,tk쎯	-11.0524
sk쎯sve쎯rnd1쎯	-11.0524
um쎯et쎯	-11.0526
irh0쎯	-11.0528
qth쎯	-11.0529
mmm쎯wwk쎯	-11.053
sps쎯sap쎯	-11.053
i쎯on쎯wbj쎯usr쎯	-11.053
쎁쎈쎉	-11.0532
spwk0쎯	-11.0533
》w쎯tr쎯pp쎯g쎯.	-11.0534
td쎯qk쎯r쎯	-11.0534
fd쎯wksf쎯	-11.0534
ym쎯rfm쎯jg쎯	-11.0535
tk쎯aa쎯	-11.0535
suj쎯	-11.0536
uuj쎯syp쎯b쎯	-11.0537
r쎯sm쎯wf쎯	-11.0537
sksw쎯ndj쎯	-11.0538
eee0쎯쎁쎁jjjj0쎯	-11.054
r쎯su쎯bb쎯	-11.0541
쎁쎀쎀oy쎯	-11.0542
ym쎯ahty0쎯	-11.0546
amw쎯qc쎯,	-11.0549
쎁쎈쎀쎀	-11.0549
wkhh쎯fay쎯	-11.055
vfb쎯jfd쎯	-11.0551
ta쎯yy쎯gae쎯	-11.0551
ma쎯rr쎯	-11.0552
zzbd3쎯pv쎯wg쎯	-11.0553
r쎯x쎯iyj쎯	-11.0557
lfq쎯mw쎯	-11.0557
itm쎯iyt1쎯	-11.0557
ga쎯og쎯jf쎯uj쎯	-11.0558
쎃zzbd9쎯	-11.0558
dn쎯wqj쎯	-11.056
fas쎯	-11.0563
ym쎯uqt쎯r쎯	-11.0563
tffu쎯l쎯pe쎯	-11.0567
쎂쎀쎁	-11.0567
pei쎯og쎯tg쎯u쎯	-11.057
anb0쎯sy쎯kkk쎯	-11.0571
gu쎯tffu쎯	-11.0573
,e쎯pei쎯yne쎯	-11.0574
je쎯zzbd10쎯	-11.0575
qev쎯yfn쎯	-11.0576
zzxe	-11.0577
dn쎯uqt쎯	-11.0579
(쎁쎇	-11.0579
ipkh1쎯xv쎯	-11.0581
쎂쎀wc쎯jfd쎯	-11.0581
bd쎯epc쎯	-11.0582
쎈rh쎯)	-11.0583
ywx쎯ygh쎯	-11.0583
ta쎯.	-11.0584
udyj쎯ryn1쎯	-11.0584
xwy0쎯qiu0쎯	-11.0585
,wyc쎯	-11.0585
sov쎯tel쎯	-11.0587
.쎁쎉쎉쎁rh쎯	-11.0588
rmhj쎯r쎯	-11.0589
rrhy쎯wygg쎯	-11.0589
iagw쎯ujn쎯r쎯	-11.0589
lu쎯xk쎯	-11.0596
tve쎯dd쎯r쎯	-11.0597
ylf0쎯;e쎯ss쎯f쎯	-11.0598
zzbd3쎯x쎯iyj쎯	-11.0601
aqg쎯aqr쎯ah쎯	-11.0602
,ua쎯c쎯	-11.0603
tgl쎯	-11.0605
av쎯pu쎯	-11.0606
gf쎯쎁쎈	-11.0606
wc쎯ngk쎯.wc쎯ngk쎯	-11.0606
쎂qk쎯	-11.0607
o쎯ad쎯dbm쎯,	-11.0607
bct쎯wgk쎯	-11.0607
wqb1쎯	-11.0609
,tfq쎯	-11.0611
pwat0쎯fp쎯	-11.0612
fiy쎯bk쎯	-11.0612
pu쎯tr쎯	-11.0612
쎆zzbd15쎯	-11.0613
sfi쎯ykw쎯	-11.0614
wb쎯gip쎯	-11.0614
zzbd3쎯yygt쎯ai쎯	-11.0615
ige쎯gj쎯	-11.0617
mqb쎯gc쎯	-11.0621
ddh쎯uyh쎯ymhj0쎯	-11.0625
j쎯cep쎯fp쎯	-11.0625
et쎯c쎯	-11.0628
uj0쎯wsg0쎯k쎯yygy쎯	-11.0628
lfn쎯gajf0쎯	-11.0629
bm쎯qc쎯r쎯	-11.063
gjq쎯vb쎯	-11.0631
w쎯dd쎯wa쎯ge쎯	-11.0633
lpdk1쎯aq쎯mw쎯	-11.0634
lt쎯ya쎯	-11.0634
g쎯tfk0쎯	-11.0634
bwf쎯rp쎯r쎯	-11.0636
ftx쎯src쎯	-11.0636
tk쎯yy쎯dm쎯	-11.0636
sqqd0쎯	-11.0637
dgtg0쎯img쎯wx쎯a쎯	-11.0638
iagw쎯ytt쎯	-11.0638
fcl쎯lt쎯ip쎯	-11.0639
kkk쎯kfi쎯	-11.0639
쎀쎀쎀gu쎯yy쎯oy쎯,	-11.0642
bpf쎯bpf쎯ta쎯	-11.0643
l쎯tdij0쎯	-11.0644
r쎯ovt쎯rnd1쎯	-11.0645
rfc쎯sy쎯km쎯	-11.0647
x쎯dl쎯b쎯	-11.0647
r쎯ftbt쎯yce쎯	-11.0648
tmdf1쎯xg쎯	-11.0651
ixw쎯fyn쎯	-11.0654
쎃쎂.	-11.0655
hi쎯swb쎯	-11.0655
uj쎯bgk쎯	-11.0656
,ai쎯jty쎯	-11.066
svc쎯syp쎯	-11.0661
xn쎯vi쎯	-11.0663
puhc쎯gq쎯o쎯	-11.0664
jqr쎯gf쎯	-11.0664
hc쎯af쎯	-11.0664
dy쎯pye쎯	-11.0665
txe쎯	-11.0665
wv쎯bpf쎯	-11.0668
쎃쎀%	-11.0668
pfjf1쎯qiu0쎯	-11.0668
쎂쎁쎀	-11.067
gg쎯jtg쎯xe쎯	-11.0672
fny0쎯uyh쎯ww쎯gk쎯	-11.0672
bm쎯qkm쎯	-11.0673
쎁쎉쎈쎉	-11.0673
sf쎯n쎯tv쎯km쎯wf쎯	-11.0673
.uqf쎯	-11.0674
,iy쎯mm쎯uqwm1쎯	-11.0675
r쎯vfhp1쎯ymc쎯	-11.0676
gip쎯d쎯	-11.0676
cf쎯ytd쎯	-11.0676
nae0쎯wf쎯	-11.0677
kkks1쎯fnr0쎯	-11.0679
udh쎯tgj쎯	-11.0679
jo쎯dhb쎯	-11.068
yygt쎯itp쎯et쎯gf쎯	-11.068
ovt쎯rnd1쎯xg쎯	-11.0681
lu쎯it쎯	-11.0682
rvyo쎯th쎯gj쎯	-11.0682
rnf쎯	-11.0683
aib쎯lfnh쎯:	-11.0683
,kj쎯	-11.0686
c쎯tyg쎯	-11.069
ige쎯gs쎯	-11.0691
h쎯v쎯ge쎯	-11.0693
yygy쎯kq쎯	-11.0694
qnd쎯hwb쎯	-11.0695
ruv쎯udh쎯	-11.0695
eee0쎯쎃jjjj0쎯	-11.0697
r쎯hka쎯ltk쎯	-11.0697
쎁qk쎯	-11.0698
eee0쎯쎉jjjj0쎯	-11.0703
wdyy1쎯	-11.0704
――	-11.0706
dmjf1쎯yssd0쎯	-11.0706
.쎁쎉쎈쎉rh쎯	-11.0711
쎀rh쎯)	-11.0711
i쎯tp쎯	-11.0712
wfkb0쎯tdp쎯r쎯	-11.0713
,lk쎯xk쎯	-11.0714
ld쎯dmj1쎯	-11.0714
xke쎯	-11.0715
ftbt쎯ip쎯dn쎯js쎯	-11.0715
aqrn1쎯awx쎯	-11.0715
쎁쎀eee0쎯tg쎯,	-11.0716
eta쎯	-11.0716
bm쎯tf쎯	-11.0716
fny0쎯pe쎯.	-11.0717
gmap쎯jm쎯	-11.0719
qng1쎯qgj쎯ssss0쎯	-11.0721
zzbd3쎯ym쎯uqt쎯	-11.0721
al쎯yx쎯:	-11.0722
sf쎯xe쎯	-11.0724
ts쎯,	-11.0724
xv쎯f쎯	-11.0725
ipg쎯km쎯.	-11.0726
afwu0쎯apw쎯	-11.0727
agnn1쎯vit쎯	-11.0727
dq쎯,	-11.0727
y쎯s쎯dga쎯pwv쎯	-11.0727
nat0쎯	-11.0729
dm	-11.0729
,fm쎯wycb쎯	-11.073
es쎯yyn2쎯	-11.0732
adww2쎯	-11.0736
;쎄zzbd3쎯	-11.0737
u쎯tr쎯	-11.0738
o쎯hh쎯	-11.0738
ccc쎯j쎯	-11.0738
쎄w쎯,	-11.0739
t쎯imkf1쎯	-11.0739
yngk1쎯ygk쎯	-11.0739
go쎯jn쎯	-11.074
img쎯ae쎯	-11.0741
:쎈	-11.0741
yce쎯tkh쎯	-11.0742
dgtg0쎯amd쎯	-11.0743
dx쎯udi0쎯	-11.0743
yssr0쎯rta쎯lg쎯	-11.0744
pt쎯yww쎯ftbt쎯rep쎯	-11.0745
mqq쎯hko쎯	-11.0745
tffu쎯f쎯.	-11.0747
rgt쎯rgy쎯gfi쎯	-11.0748
ripq0쎯	-11.0749
ak	-11.0753
atm쎯	-11.0755
snb2쎯sjtq쎯	-11.0756
qdw쎯	-11.0756
fnv0쎯	-11.0757
pah쎯	-11.0758
ks쎯	-11.0759
mn쎯	-11.0759
sk쎯tfkd쎯r쎯	-11.0762
r쎯xf쎯js쎯	-11.0762
v쎯je쎯fny0쎯tjh쎯	-11.0763
puq쎯	-11.0763
,j쎯g쎯pe쎯wys쎯	-11.0764
vaf쎯wj쎯	-11.0765
ntg쎯wwj쎯xx쎯	-11.0765
wc쎯ngk쎯j쎯	-11.0765
c쎯h쎯.	-11.0765
r쎯nge쎯ukq쎯gh쎯	-11.0767
ge쎯gm쎯o쎯	-11.0768
,gip쎯j쎯	-11.0769
tgm쎯aj쎯zzbd3쎯	-11.077
amyn1쎯dx쎯	-11.0771
쎁쎉an쎯xn쎯	-11.0772
ght쎯ick쎯tv쎯km쎯	-11.0774
e쎯hko쎯	-11.0775
쎇쎆쎈	-11.0775
wc쎯jfd쎯,kha쎯yb쎯	-11.0775
ip쎯wf쎯wf쎯km쎯,	-11.0776
trf0쎯rytp1쎯	-11.0776
dn쎯rh쎯	-11.0778
st쎯qiu0쎯	-11.0778
dg쎯dj쎯	-11.0779
fqb0쎯rh쎯(	-11.078
쎅zzbd9쎯	-11.0782
zzbd3쎯mqq쎯xtk쎯	-11.0782
tuxj쎯	-11.0787
bd쎯yw쎯	-11.0787
ba쎯gq쎯	-11.0787
cqw쎯qi쎯	-11.0789
tfq쎯rg쎯aqt쎯tj쎯	-11.0789
r쎯wqu쎯us쎯	-11.0792
fwm쎯aj쎯ymc쎯yf쎯	-11.0795
gmww쎯adm쎯	-11.0795
yh쎯wqin쎯	-11.0795
qn쎯lfnh쎯	-11.0795
,fm쎯gn쎯	-11.0796
ays쎯avd쎯	-11.0797
zzbd3쎯fq쎯	-11.0797
atd쎯ubk1쎯kkd쎯sa쎯	-11.08
rwp쎯	-11.0801
쎂쎆쎀	-11.0801
wye쎯uqw쎯	-11.0802
mw쎯dhb쎯od쎯gajf0쎯	-11.0802
c쎯qh쎯	-11.0804
ovt쎯tfk0쎯	-11.0804
pl쎯lft쎯	-11.0805
ga쎯rd쎯wbj쎯usr쎯	-11.0806
yss쎯img쎯	-11.0806
e쎯ud쎯r쎯	-11.0806
쎁쎉쎉쎁	-11.0807
v쎯rnr쎯	-11.0809
bm쎯thgc0쎯v쎯tf쎯	-11.081
txg쎯g쎯wug0쎯	-11.081
k쎯wj쎯	-11.081
fdm쎯fiy쎯,	-11.0811
aq쎯w쎯n쎯ght쎯ywf쎯	-11.0811
idl쎯	-11.0811
ijl쎯t쎯	-11.0811
jn쎯bb쎯tu쎯rfc쎯	-11.0812
nied쎯	-11.0813
qnd쎯	-11.0815
tfkp0쎯yxj쎯	-11.0815
r쎯ud쎯qvfp1쎯	-11.0816
,,,,	-11.0816
ywg쎯toc쎯	-11.0818
bm쎯v쎯,	-11.0819
pey쎯	-11.0823
zzy1쎯	-11.0828
yo쎯o쎯	-11.0832
l쎯pe쎯sfi쎯uwy0쎯	-11.0833
d쎯suq쎯	-11.0833
sf쎯jfd쎯	-11.0835
pt쎯pe쎯	-11.0835
ke쎯bwf쎯	-11.0836
tq쎯kt쎯	-11.0836
mq쎯jy쎯te쎯gmy0쎯r쎯	-11.0837
iyc쎯tf쎯r쎯	-11.0839
ym쎯wv쎯bb쎯	-11.084
fny0쎯og쎯xxf쎯og쎯	-11.084
apg쎯dgh쎯ytt쎯	-11.084
ue쎯tmd쎯	-11.0841
쎂쎀쎁쎃	-11.0842
.tg쎯gf쎯	-11.0842
wf쎯nae0쎯	-11.0843
mmm쎯xte쎯	-11.0844
(c쎯gh쎯tuj0쎯tq쎯	-11.0845
,dn쎯uu쎯gf쎯	-11.0845
yfd쎯qfhw1쎯	-11.0846
wug0쎯.	-11.0849
,tffy0쎯	-11.0849
r쎯dyn쎯ya쎯	-11.085
".	-11.0851
geq쎯jn쎯	-11.0853
쎁쎉쎈쎈	-11.0853
qh쎯ian1쎯	-11.0853
,wg쎯dm쎯	-11.0854
df쎯tj쎯	-11.0856
gkl쎯ukn쎯	-11.0859
ga쎯v쎯um쎯	-11.0861
ud쎯txi쎯.	-11.0862
yft쎯wnt쎯	-11.0862
r쎯gkip0쎯ya쎯	-11.0863
g쎯fh쎯d쎯	-11.0864
kkk쎯wug0쎯	-11.0865
rg쎯puhc쎯	-11.0865
jh쎯ybv0쎯	-11.0866
y쎯s쎯mh쎯	-11.0867
fp쎯qq쎯	-11.0867
uy	-11.0867
tx쎯g쎯wug0쎯	-11.0869
쎅/	-11.0869
rqk쎯	-11.087
uhc쎯apl쎯	-11.087
ukn쎯wf쎯	-11.0873
bk쎯ce쎯uk쎯uyh쎯	-11.0874
gfi쎯gae쎯	-11.0875
zzbd3쎯hq쎯qnq쎯	-11.0877
,쎂쎀쎀쎅rh쎯	-11.0878
ukn쎯ovt쎯	-11.0879
hx쎯f쎯	-11.0879
dg쎯w쎯	-11.0879
ynth1쎯	-11.0882
쎄djfd쎯oy쎯	-11.0886
alkf0쎯	-11.0887
xyna1쎯kgn쎯:	-11.0887
(/)	-11.0889
uxh쎯uxh쎯	-11.0889
rnd1쎯yu쎯	-11.089
nft쎯	-11.0891
r쎯tg쎯wgkb0쎯	-11.0891
gf쎯쎂쎀쎀쎈rh쎯	-11.0891
fu쎯dd쎯	-11.0891
pyj쎯dskf쎯	-11.0891
gjq쎯ym쎯	-11.0892
dq쎯eb쎯	-11.0893
eee0쎯쎄jjjj0쎯	-11.0895
(쎁쎅	-11.0896
qtdn1쎯vk쎯	-11.0897
wbj쎯lw쎯r쎯	-11.0898
k쎯l쎯a쎯pei쎯xa쎯pl쎯	-11.0898
wf쎯gkl쎯y쎯wtf쎯	-11.0899
쎁쎂쎃	-11.0899
ipe쎯xpw쎯	-11.0903
fl쎯m쎯	-11.0903
ghd1쎯tu쎯xe쎯	-11.0904
dd쎯thd쎯qd쎯	-11.091
wxd쎯wtuf1쎯	-11.0911
q쎯ith쎯	-11.0912
wa쎯ge쎯ntg쎯	-11.0914
eaf쎯	-11.0915
py쎯wf쎯tk쎯lwj쎯	-11.0921
adwl쎯pwfi0쎯	-11.0921
img쎯,	-11.0926
yy쎯gae쎯	-11.0926
ymc쎯yf쎯bpf쎯	-11.0929
khv쎯bde쎯	-11.0931
r쎯sh쎯ud쎯	-11.0931
hndm0쎯	-11.0932
,iy쎯tgj쎯	-11.0933
yth쎯	-11.0933
eee0쎯쎇jjjj0쎯	-11.0933
geq쎯dyn쎯	-11.0936
nir쎯	-11.0936
pp쎯jtg쎯	-11.0937
qbl쎯	-11.0937
s0쎯	-11.0938
khuh0쎯	-11.0938
wv쎯sr쎯zzbd3쎯	-11.0938
쎁쎀쎄	-11.094
xef쎯qev쎯	-11.0941
fjh0쎯wgku1쎯	-11.0943
i쎯on쎯r쎯	-11.0946
o쎯nf쎯tm쎯	-11.0947
x쎯iyj쎯vfhp1쎯ymc쎯	-11.0947
쎅djfd쎯oy쎯	-11.095
thd쎯wy쎯	-11.095
《ud쎯gf쎯	-11.095
aw쎯u쎯ipk쎯	-11.095
쎁oy쎯	-11.0951
k쎯mmm쎯ymhj0쎯	-11.0951
qc쎯gxi쎯	-11.0953
gmww쎯umd1쎯	-11.0954
fgh쎯qq쎯rh쎯	-11.0956
쎅쎀dq쎯,	-11.0958
a쎯tkgg1쎯ytb쎯a쎯	-11.0959
spw쎯	-11.0961
thd쎯go쎯ii쎯	-11.0962
nfp쎯	-11.0962
qk쎯kn쎯	-11.0963
l쎯pe쎯bw쎯	-11.0964
tve쎯xk쎯	-11.0964
wyq쎯zzbd3쎯	-11.0964
kf쎯sgm쎯	-11.0965
wv쎯tf쎯	-11.0965
sc쎯uwl쎯	-11.0965
rvk쎯um쎯xh쎯uqwm1쎯	-11.0966
puhc쎯l쎯pe쎯	-11.0968
jf쎯qkhh1쎯	-11.0968
ipkh1쎯tv쎯	-11.0969
puhc쎯rge쎯	-11.0969
ymc쎯tlf0쎯.	-11.0972
ipkh1쎯tl쎯tv쎯km쎯	-11.0974
pgc쎯qh쎯	-11.0974
bm쎯qc쎯	-11.0977
opw쎯hko쎯	-11.098
adw쎯wqu쎯	-11.098
al쎯fw쎯	-11.0981
nfa쎯	-11.0981
da	-11.0984
bb쎯uxh쎯	-11.0984
,i쎯ce쎯	-11.0985
hk쎯f쎯dm쎯tkw쎯쎂	-11.0985
lfn쎯yh쎯	-11.0985
〗	-11.0986
ia쎯aq쎯	-11.0986
i쎯vb쎯	-11.0987
aqn쎯	-11.0987
elv쎯fghg쎯	-11.0988
wq쎯wu쎯	-11.0989
tk쎯naj0쎯	-11.099
ofd쎯	-11.099
〖	-11.0993
eee0쎯쎂jjjj0쎯	-11.0993
쎇eee0쎯xxf쎯og쎯gf쎯	-11.0995
afd1쎯aya쎯	-11.0995
amy쎯ldd0쎯	-11.0996
fhw쎯r쎯	-11.0998
qgl쎯	-11.0998
os쎯iq쎯	-11.0998
fn쎯drin0쎯	-11.1
(쎁쎈쎈	-11.1001
zzbd3쎯xa쎯	-11.1001
ipkh1쎯tl쎯gj쎯gk쎯,	-11.1002
ygu쎯xx쎯	-11.1002
쎁쎀쎈쎀	-11.1004
fny0쎯pe쎯zzbd3쎯	-11.1005
dp쎯dn쎯	-11.1007
ggi쎯gfi쎯	-11.1008
dy쎯pf쎯	-11.1009
e쎯bv쎯wc쎯ngk쎯(	-11.1009
ep쎯qiu0쎯uff쎯	-11.1011
r쎯sfi쎯uwy0쎯	-11.1012
ypt쎯dq쎯	-11.1012
eee0쎯쎁쎃jjjj0쎯	-11.1014
rdj쎯me쎯	-11.1014
yle쎯pp쎯	-11.1014
fge쎯pt쎯	-11.1015
nh쎯gc쎯	-11.1015
쎃쎀wtu쎯	-11.1016
rfc쎯sy쎯lt쎯jg쎯	-11.1016
idl쎯gef쎯	-11.1018
쎆rh쎯)	-11.102
udj쎯mww쎯	-11.1021
p쎯jf쎯	-11.1022
wt쎯ma쎯pe쎯	-11.1024
iqn쎯igs쎯	-11.1024
j쎯q쎯	-11.1024
g쎯g쎯	-11.1025
jqrj쎯	-11.1026
dhi쎯	-11.1027
rh쎯uj쎯,	-11.1028
mnbm0쎯fhn쎯	-11.103
ih쎯qfhw1쎯	-11.1031
yfd쎯bb쎯	-11.1031
ce쎯d쎯	-11.1031
,ua쎯gf쎯	-11.1032
yjjh0쎯jg쎯	-11.1034
r쎯x쎯apk쎯	-11.1035
.쎅djfd쎯oy쎯	-11.1039
《usr쎯	-11.1044
se쎯dd쎯	-11.1044
lp쎯fuj쎯	-11.1046
ym쎯sfi쎯uwy0쎯	-11.1046
mt쎯tkh쎯	-11.1047
xg쎯,	-11.1048
uqf쎯wycm1쎯	-11.1049
r쎯pu쎯bf쎯	-11.1051
ykg0쎯uda쎯	-11.1052
jf쎯wtf쎯	-11.1052
tdg1쎯,	-11.1054
r쎯ick쎯ubk1쎯	-11.1056
xyna1쎯pgn쎯r쎯	-11.1057
qve쎯uqd2쎯	-11.1058
rdw쎯	-11.1058
khdc0쎯	-11.1059
yf쎯tg쎯	-11.1059
lh쎯dm쎯	-11.106
fghg쎯rgw쎯	-11.1061
.쎁쎉쎈쎀rh쎯	-11.1061
wsg0쎯yce쎯fnrt쎯	-11.1063
nnk쎯dm쎯	-11.1066
cwg쎯ygh쎯	-11.1066
dgh쎯qfhw1쎯	-11.1068
bwf쎯vi쎯	-11.107
j쎯uqf쎯	-11.107
aw쎯ynky6쎯	-11.1075
pp쎯ytey0쎯	-11.1077
쎂dq쎯	-11.1077
rmn0쎯hko쎯	-11.1078
r쎯x쎯maw쎯	-11.1078
rytp1쎯	-11.1079
,yid쎯	-11.108
쎁쎃쎃	-11.1081
,y쎯rf쎯	-11.1081
y쎯s쎯o쎯	-11.1082
쎂zzbd9쎯	-11.1082
thd쎯ick쎯egc쎯	-11.1082
xuj쎯tamw2쎯	-11.1083
쎀쎀dnv0쎯fqb0쎯,	-11.1083
(fcu1쎯	-11.1085
toc쎯yygy쎯:	-11.1085
ipk쎯vfhp1쎯	-11.1086
tg쎯ow쎯	-11.1086
zzbd3쎯ggi쎯fuj쎯	-11.1087
qie쎯wyk쎯nh쎯ty쎯	-11.1093
tk쎯lwj쎯	-11.1093
,ggi쎯fuj쎯	-11.1094
bc쎯qk쎯	-11.1096
yaa쎯ltu0쎯	-11.1097
uthp0쎯,	-11.1098
fw쎯gv쎯	-11.1099
wc쎯ngk쎯dn쎯uu쎯gf쎯	-11.11
w쎯wu쎯r쎯	-11.1101
jtd쎯pntj0쎯	-11.1101
qmq쎯sft쎯	-11.1101
um	-11.1101
zzbd3쎯yj쎯	-11.1102
oge쎯uwl쎯fiy쎯oge쎯	-11.1102
xyc쎯tdtf0쎯	-11.1104
xgm쎯uqt쎯	-11.1105
ty쎯xyna1쎯	-11.1106
mmm쎯kht쎯	-11.1107
tp쎯gj쎯rmhj쎯ya쎯	-11.1107
xf쎯tha쎯	-11.1108
,쎂쎀쎀쎃rh쎯	-11.1113
v쎯iq쎯	-11.1113
iq쎯idr쎯	-11.1115
pg쎯jg쎯	-11.1115
fffy0쎯uft쎯	-11.1117
.쎁쎉쎃쎄rh쎯	-11.1117
쎂쎃쎀	-11.1119
dxy쎯fmk쎯	-11.112
ue쎯jy쎯	-11.1123
ud쎯txi쎯,	-11.1125
-쎁쎅	-11.1127
uh쎯zzbd3쎯	-11.1127
tx쎯g쎯rx쎯	-11.1127
wf쎯wf쎯ta쎯	-11.1128
fqb0쎯,pei쎯n쎯	-11.1128
uqwv쎯dyn쎯	-11.113
pye쎯wqu쎯	-11.113
ymf쎯yaa쎯	-11.1131
ss쎯fnrt쎯	-11.1135
쎁쎉쎂쎄rh쎯	-11.1137
jtyq1쎯ipkm1쎯	-11.1138
jj쎯egc쎯	-11.1138
frc쎯	-11.1141
ue쎯dm쎯	-11.1142
ukqb0쎯	-11.1143
ht쎯hna쎯	-11.1144
puhc쎯yw쎯o쎯j쎯	-11.1145
쎁쎀쎀qq쎯	-11.1145
cd쎯ftg쎯nnh쎯	-11.1148
xmw쎯tuk쎯	-11.1148
rkh쎯	-11.1149
ycb쎯》:“	-11.115
jb쎯rg쎯g쎯	-11.1152
wxd쎯tm쎯	-11.1154
ftbt쎯ip쎯t쎯	-11.1154
,쎁쎉쎉쎈rh쎯	-11.1154
ywx쎯aft쎯	-11.1157
k쎯atd쎯bpf쎯	-11.1158
rn쎯aft쎯	-11.1159
ih쎯iytb0쎯ca쎯	-11.116
ta쎯dtf쎯	-11.116
dgk쎯dh쎯	-11.116
qgfj쎯	-11.116
qsu쎯w쎯	-11.1161
ad쎯f쎯.	-11.1161
vs쎯rfm쎯	-11.1162
you1쎯sk쎯	-11.1163
vk쎯gh쎯:	-11.1163
ad쎯sg쎯h쎯	-11.1165
zzbd3쎯wyv쎯kkk쎯	-11.1165
o쎯et쎯yne쎯rj쎯waw쎯	-11.1166
w0쎯	-11.1167
zzxx0쎯	-11.1169
xwy0쎯dskf쎯	-11.117
lt쎯jg쎯dcw쎯djb쎯,	-11.117
dnv0쎯ylf0쎯,	-11.117
pfq쎯uduk0쎯,	-11.1172
tfq쎯fj쎯rfc쎯sy쎯	-11.1173
ian1쎯wys쎯	-11.1174
gyg0쎯hko쎯	-11.1175
,dty0쎯tq쎯	-11.1175
adi쎯	-11.1175
쎁gmww쎯,	-11.1175
iet0쎯	-11.1175
wk쎯pg쎯	-11.1176
fq쎯pwl쎯	-11.1177
iwg쎯yoo쎯	-11.1177
awx쎯adwe1쎯	-11.1179
ipm쎯ipgh0쎯	-11.118
xyy1쎯,	-11.118
,wv쎯	-11.1181
ygl쎯	-11.1181
wv쎯aq쎯	-11.1183
tfkp0쎯wwj쎯	-11.1184
쎁쎉쎁	-11.1185
dmj1쎯nnnn0쎯	-11.1185
whm쎯pwfi0쎯	-11.1186
,ua쎯e쎯	-11.119
vnh쎯	-11.119
uduk0쎯yv쎯	-11.119
y쎯rs쎯	-11.1192
jh쎯hq쎯	-11.1196
u쎯og쎯v쎯nae0쎯	-11.1197
mmm쎯ai쎯dd쎯ip쎯	-11.1199
wt쎯kkk쎯.	-11.1201
ax쎯sft쎯	-11.1202
pnt쎯puhc쎯	-11.1204
zzy2쎯	-11.1206
lft쎯ta쎯	-11.1206
ooo쎯oqv쎯	-11.1206
drin0쎯ujn쎯	-11.1208
gxgu쎯ntg쎯	-11.1208
gog쎯tkh쎯	-11.1211
쎁쎈쎇	-11.1213
ym쎯gxi쎯rfm쎯r쎯	-11.1214
g쎯ck쎯	-11.1215
jff1쎯	-11.1215
쎁쎅wc쎯jfd쎯	-11.1215
ige쎯fjt쎯btg쎯	-11.1217
쎀쎀쎀쎀	-11.1217
sm쎯lg쎯	-11.1218
dht쎯gd쎯	-11.1219
a쎯um쎯nnk쎯	-11.122
nnh쎯》:“	-11.1222
qj쎯	-11.1224
fi쎯aib쎯ntg쎯	-11.1224
wmw쎯	-11.1225
c1쎯	-11.1225
ran쎯	-11.1226
wdn쎯hko쎯	-11.1227
gd쎯ft쎯	-11.1228
ruv쎯udi0쎯	-11.1229
f쎯aq쎯.	-11.1229
wg쎯l쎯wdn쎯te쎯	-11.1229
쎅eee0쎯,	-11.123
fuk쎯yk쎯gyt쎯	-11.1233
r쎯w쎯tg쎯	-11.1233
ma쎯anb0쎯	-11.1235
.ccc쎯	-11.1235
rx쎯uwy0쎯r쎯	-11.1235
gj쎯gk쎯wf쎯	-11.1235
txi쎯gq쎯zzbd3쎯	-11.1236
쎅dq쎯,	-11.1237
dgh쎯shy0쎯	-11.1237
r쎯trf0쎯gqr쎯	-11.1237
쎇쎂쎀	-11.1239
쎆%	-11.1239
ryiy쎯	-11.124
if쎯ygk쎯	-11.1246
adm쎯hhhh쎯,	-11.1247
gf쎯쎂쎀쎀쎆rh쎯	-11.1248
ds쎯zzbd3쎯	-11.1248
fqb0쎯.	-11.1249
ftg쎯ygh쎯	-11.125
fwm쎯st쎯:	-11.125
yid쎯cf쎯	-11.1253
,xj쎯d쎯	-11.1253
ixj쎯	-11.1257
쎀dnv0쎯fqb0쎯,	-11.1259
쎁쎉쎈쎆	-11.1259
v쎯nae0쎯t쎯	-11.1259
khgp0쎯u쎯	-11.1265
vvv쎯pyj쎯	-11.1266
tffu쎯g쎯txi쎯gq쎯	-11.1266
ta쎯r쎯	-11.1267
dgtg0쎯sft쎯	-11.1269
pg쎯jf쎯	-11.1269
ctdj쎯	-11.127
pb쎯wsg0쎯	-11.127
,epc쎯	-11.1271
tg쎯gqx쎯	-11.1271
lk쎯pnt쎯	-11.1271
ymf쎯gj쎯	-11.1272
gmww쎯wug0쎯	-11.1272
ytey0쎯iytb0쎯aq쎯	-11.1273
yo쎯fcl쎯	-11.1273
tx쎯vt쎯nm쎯	-11.1275
sks쎯wwx쎯xx쎯gog쎯	-11.1275
fd쎯ffuk쎯	-11.1277
ymf쎯kfi쎯ou쎯	-11.1278
wu쎯r쎯	-11.1279
ts쎯xyy1쎯	-11.128
ian1쎯bct쎯	-11.1281
ruv쎯ty쎯	-11.1282
uwe쎯	-11.1283
wvf0쎯ert쎯	-11.1284
,gmww쎯	-11.1284
dga쎯rmhj쎯r쎯	-11.1284
lfn쎯gkip0쎯	-11.1285
med쎯	-11.1286
yfn쎯hhu0쎯kkd쎯	-11.1286
ul쎯o쎯	-11.1288
itf쎯its쎯	-11.1288
w쎯pe쎯	-11.1289
zzbd3쎯fcu0쎯fm쎯	-11.1289
hx쎯uqw쎯	-11.129
uqw쎯rh쎯	-11.1292
kynw0쎯	-11.1293
쎂쎈쎀	-11.1294
mmm쎯gh쎯	-11.1294
o쎯k쎯ny쎯	-11.1296
ujv쎯	-11.1297
jp쎯	-11.1299
dd쎯eyb쎯	-11.13
ffi쎯aa쎯	-11.1301
uyh쎯ywe쎯	-11.1302
thgc0쎯gl쎯	-11.1302
r쎯xf쎯sq쎯	-11.1302
ta쎯dw쎯ymhj0쎯	-11.1302
.y쎯s쎯ww쎯gk쎯	-11.1303
uqf쎯c쎯	-11.1303
lq쎯ic쎯	-11.1305
fg쎯fgh쎯an쎯xn쎯	-11.1305
gh쎯fcu1쎯	-11.1306
dskf쎯yop쎯	-11.1308
tmg1쎯fge쎯	-11.131
rny1쎯wtf쎯	-11.1312
mf쎯tl쎯tp쎯gj쎯	-11.1313
ipkh1쎯ybv0쎯	-11.1313
tv쎯lw쎯wc쎯pgc쎯	-11.1314
g쎯xe쎯ftbt쎯jgm쎯	-11.1315
xq쎯fjw쎯	-11.1315
tkh쎯tkh쎯	-11.1316
),j쎯	-11.1319
wg쎯wsg0쎯km쎯a쎯	-11.132
nh쎯vi쎯b쎯	-11.1321
rfc쎯sy쎯gn쎯	-11.1322
쎈gu쎯yy쎯wc쎯jfd쎯,	-11.1322
:쎉	-11.1323
ygu쎯pg쎯	-11.1324
j쎯g쎯yww쎯	-11.1324
rwyg0쎯bm쎯b쎯	-11.1325
veg쎯vfi쎯	-11.1325
itx쎯rdc쎯쎁,	-11.1325
lft쎯bw쎯,	-11.1325
sm쎯sq쎯nty0쎯af쎯	-11.1326
j쎯an쎯lwj쎯h쎯	-11.1326
zzbd3쎯ggi쎯wk쎯	-11.1327
kcg쎯	-11.1327
ghd1쎯dqe쎯r쎯	-11.1328
rn쎯fdm쎯r쎯	-11.1328
rhf0쎯mqb쎯	-11.133
kd쎯tfl쎯	-11.1331
k쎯jjjj0쎯	-11.1333
ud쎯txi쎯r쎯	-11.1334
u쎯kkk쎯od쎯gajf0쎯	-11.1334
uda쎯klj쎯	-11.1338
hx쎯rg쎯	-11.1338
ggi쎯fuj쎯k쎯	-11.1338
l쎯e쎯uqwm1쎯u쎯	-11.134
qo	-11.134
xxf쎯og쎯.	-11.1341
zzbd3쎯rfc쎯sy쎯	-11.1342
yyq쎯km쎯	-11.1343
img쎯ex쎯	-11.1344
yvh쎯mmm쎯	-11.1344
fny0쎯og쎯w쎯ft쎯	-11.1345
,kha쎯egc쎯fd쎯	-11.1345
qvn0쎯fiyt쎯	-11.1346
,px쎯r쎯	-11.1346
ym쎯kkk쎯rfm쎯r쎯	-11.1346
rnb쎯ijl쎯쎁	-11.1347
tffu쎯trf0쎯hko쎯	-11.1347
awd쎯awyc0쎯	-11.1347
jn쎯se쎯	-11.1348
쎆.쎀	-11.1348
fq쎯gxgu쎯	-11.1348
tve쎯cw쎯	-11.1348
ugdu쎯sy쎯pe쎯	-11.135
ntg쎯xk쎯	-11.135
jjjj0쎯yn쎯	-11.135
ii쎯jg쎯	-11.1351
yygy쎯w쎯	-11.1352
ga쎯nae0쎯b쎯	-11.1353
qwd쎯	-11.1354
yge쎯fiy쎯	-11.1355
쎁쎀쎃	-11.1356
img쎯rnb쎯	-11.1358
uthp0쎯hw쎯	-11.1359
qk쎯suq쎯	-11.136
zzbd3쎯yf쎯tha쎯sm쎯	-11.136
“dd쎯	-11.1363
ipkh1쎯mqb쎯ugm쎯	-11.1364
r쎯if쎯tvfh0쎯	-11.1364
uq쎯gx쎯	-11.1365
eb쎯tl쎯og쎯	-11.137
tfh쎯	-11.1371
bm쎯uqwm1쎯	-11.1371
ah쎯hwb쎯	-11.1372
kl쎯e쎯	-11.1375
dl쎯jf쎯	-11.1376
t쎯k쎯l쎯	-11.1378
dnv0쎯dl쎯	-11.138
ul쎯puhc쎯	-11.138
du쎯fnrt쎯	-11.1381
eee0쎯쎂쎉jjjj0쎯	-11.1381
,cd쎯lk쎯b쎯	-11.1381
쎆djfd쎯oy쎯	-11.1382
w쎯o쎯	-11.1382
qqqq1쎯ptkm1쎯	-11.1383
yygy쎯wys쎯	-11.1383
gf쎯j쎯	-11.1388
i쎯on쎯f쎯	-11.1391
fft쎯	-11.1391
qa	-11.1392
fd쎯fm쎯	-11.1392
udyj쎯gqf쎯og쎯	-11.1394
ftjo1쎯ybv0쎯	-11.1395
,dty0쎯qk쎯	-11.1395
yd쎯pyk쎯	-11.1395
gr쎯ia쎯	-11.1396
qve쎯skf쎯	-11.1396
ii쎯idr쎯	-11.1397
pp쎯.”	-11.1398
yy쎯aa쎯.	-11.1401
x쎯iyj쎯zzbd3쎯	-11.1401
,wgkq0쎯adw쎯	-11.1402
xyna1쎯xkw쎯	-11.1402
odm쎯nyb쎯	-11.1404
e쎯qc쎯qqqq1쎯ntk쎯	-11.1406
dgv쎯yuvo1쎯	-11.1407
qgu쎯ugdu쎯	-11.1407
ul쎯rjg1쎯wtf쎯	-11.1408
tfqm1쎯iwyf1쎯	-11.1408
gf쎯쎂쎀쎀쎇rh쎯	-11.1409
ytfp0쎯bpf쎯	-11.141
,uvo쎯	-11.141
um쎯w쎯	-11.141
rfw쎯wvm쎯	-11.1411
eb쎯tl쎯sm쎯sq쎯	-11.1411
wfny0쎯udp쎯	-11.1411
tp쎯gj쎯ip쎯	-11.1411
쎅gu쎯yy쎯oy쎯	-11.1411
jty쎯ysi쎯a쎯wt쎯	-11.1412
ifk0쎯uqv쎯	-11.1412
”thgf1쎯	-11.1412
fm쎯rcy1쎯	-11.1412
gk쎯tl쎯rn쎯	-11.1414
bs쎯ru쎯	-11.1414
gm쎯wynb0쎯	-11.1415
wbj쎯wtl쎯	-11.1415
wys쎯mb쎯	-11.1416
zzzy11쎯zzzy21쎯	-11.1417
et쎯yne쎯rj쎯waw쎯	-11.1417
gm쎯e쎯bk쎯a쎯	-11.1417
pe쎯k쎯	-11.1417
쎁쎀eee0쎯bm쎯tg쎯,	-11.1419
gef쎯qmgk1쎯	-11.1422
fl쎯wf쎯gkl쎯wf쎯ta쎯	-11.1423
uf쎯rh쎯	-11.1423
ijo쎯iugg0쎯	-11.1423
pgk쎯fghg쎯	-11.1424
rpv쎯qvfp1쎯	-11.1424
wyv쎯fhl쎯	-11.1426
yygt쎯dd쎯et쎯yne쎯	-11.1426
ytd쎯jghm1쎯	-11.1427
쎂쎅쎀dq쎯	-11.1427
veg쎯veg쎯	-11.1427
rnb쎯ijl쎯	-11.1428
zzbd10쎯zzbd10쎯	-11.1428
fss쎯	-11.1429
ngj쎯jtg쎯	-11.143
sbb쎯	-11.1431
bqt쎯	-11.1434
ld쎯ugm쎯	-11.1435
ynma쎯gu쎯	-11.1436
fny0쎯o쎯	-11.1436
hu쎯	-11.1437
i쎯ywx쎯	-11.1437
ak쎯adw쎯wb쎯	-11.1437
ey쎯adw쎯px쎯	-11.1439
gh쎯yy쎯	-11.1441
rfw쎯rf쎯	-11.1441
m쎯wfg0쎯	-11.1441
peg쎯iw쎯	-11.1445
lw쎯ip쎯gj쎯wynn3쎯	-11.1445
ii쎯iyc쎯	-11.1447
dga쎯pwv쎯ga쎯v쎯	-11.1447
쎆gu쎯yy쎯wc쎯jfd쎯,	-11.1447
e쎯wh쎯	-11.145
iit쎯icw쎯	-11.145
wd쎯yf쎯	-11.145
wht쎯gj쎯	-11.145
“wg쎯l쎯	-11.1453
lfn쎯ty쎯	-11.1454
쎂gu쎯yy쎯wc쎯jfd쎯,	-11.1454
ey쎯yid쎯et쎯	-11.1454
wg쎯rh쎯	-11.1456
uxt쎯bct쎯	-11.1456
ian1쎯xyna1쎯	-11.1457
쎁쎈쎈	-11.1457
(wys쎯lft쎯)	-11.1463
yww쎯ait쎯d쎯	-11.1467
ykhe쎯	-11.1467
rae쎯h쎯	-11.1467
ftbt쎯ip쎯dga쎯pwv쎯	-11.1467
od쎯r쎯	-11.1467
et쎯yny0쎯	-11.1469
쎁쎁wh쎯	-11.1469
kkkk1쎯mdfj쎯	-11.1469
tve쎯ym쎯	-11.1469
g쎯ih쎯	-11.1469
rxj쎯pg쎯r쎯	-11.1469
ry쎯aet1쎯	-11.1471
fh쎯iyc쎯	-11.1471
쎁쎉쎈쎅	-11.1472
:쎃쎀	-11.1475
ymhj0쎯ta쎯	-11.1475
쎂adm쎯	-11.1475
pdc쎯cm쎯	-11.1476
tv쎯tv쎯km쎯	-11.1476
sfhg쎯puhc쎯	-11.1476
.gae쎯pww쎯	-11.1477
oe쎯otf쎯	-11.1477
ow쎯dyw쎯	-11.1481
,쎂쎀쎀쎇rh쎯	-11.1482
wfny0쎯ltk쎯	-11.1483
g쎯fg쎯	-11.1483
.adk쎯	-11.1483
wc쎯aa쎯	-11.1483
dd쎯yy쎯	-11.1485
vvv쎯fghg쎯	-11.1485
qejy쎯rajd쎯nua쎯	-11.1487
wy쎯gkim1쎯	-11.1488
sm쎯tffu쎯	-11.1488
aqo쎯awx쎯	-11.149
n쎯gk쎯	-11.149
,ukn쎯rmc쎯uqwm1쎯	-11.149
r쎯fd쎯ymhj0쎯	-11.1491
apo쎯iq쎯	-11.1492
lq쎯adwr0쎯	-11.1494
yff쎯wys쎯	-11.1495
tk쎯adm쎯a쎯wt쎯	-11.1495
xg쎯ntg쎯	-11.1497
l쎯pe쎯t쎯f쎯aq쎯	-11.1499
.쎁쎉쎇쎈rh쎯	-11.15
,쎁쎉쎉쎇rh쎯	-11.15
pg쎯tm쎯	-11.1501
isk쎯sghg1쎯	-11.1501
쎅zzts1쎯	-11.1503
adw쎯wb쎯trf0쎯hko쎯	-11.1503
rg쎯wa쎯	-11.1504
lfhf쎯og쎯	-11.1505
awx쎯pfqf쎯	-11.1506
》;	-11.1508
g쎯uj쎯	-11.1508
sfk쎯	-11.151
,rs쎯tfkp0쎯	-11.151
xyna1쎯thdi0쎯	-11.1511
dy쎯dr쎯ymhj0쎯	-11.1511
lpk0쎯ta쎯	-11.1512
aqq쎯bj쎯	-11.1514
쎁.쎉	-11.1514
ta쎯jf쎯uj쎯	-11.1516
waw쎯xw쎯	-11.1517
ym쎯rt쎯	-11.1517
쎅쎅쎀	-11.1518
gcf쎯wynb0쎯d쎯	-11.1519
wsg0쎯yce쎯qnp쎯	-11.1519
cd쎯lk쎯fp쎯	-11.152
쎂oy쎯	-11.1521
cel쎯nb쎯	-11.1524
yc쎯wv쎯tjh쎯et쎯	-11.1524
gl쎯nae0쎯	-11.1526
ty쎯wygg쎯	-11.1527
tu쎯rfc쎯e쎯bv쎯	-11.1528
tjh쎯tuk쎯	-11.1528
lwg쎯ty쎯if쎯	-11.1529
nc쎯tr쎯	-11.1529
rvy쎯og쎯	-11.1531
nyu0쎯tp쎯	-11.1532
pww쎯tkw쎯yx쎯	-11.1534
lu쎯ta쎯	-11.1535
dmj1쎯yyy쎯,	-11.1536
쎉쎀쎀쎀	-11.1536
zzbd3쎯qqqq1쎯gkm쎯	-11.1538
iq쎯xg쎯	-11.1538
.zzts8쎯	-11.1541
쎃zzbd0쎯	-11.1541
w쎯tr쎯.	-11.1541
k쎯r쎯yid쎯et쎯	-11.1542
hhhh쎯vi쎯gh쎯	-11.1542
y쎯hid쎯	-11.1543
zzbd3쎯jb쎯	-11.1546
??	-11.1546
vf쎯fiy쎯	-11.1548
y쎯ou쎯	-11.1549
itd쎯tld1쎯	-11.1554
uh쎯fhg1쎯d쎯	-11.1554
tgj쎯gajf0쎯	-11.1555
ym쎯usr쎯aq쎯	-11.1555
tx쎯fgh쎯nm쎯	-11.1558
mmm쎯ii쎯gl쎯	-11.1558
kha쎯egc쎯fd쎯	-11.1559
쎁쎉쎇쎈	-11.1559
mwyc0쎯fm쎯	-11.156
,wk쎯ygh쎯	-11.156
sfi쎯yn쎯	-11.1561
sghg1쎯rcy1쎯	-11.1561
dm쎯tkw쎯쎈	-11.1563
gkih0쎯ifk0쎯	-11.1563
gf0쎯	-11.1564
emc쎯sc쎯	-11.1564
wgmy2쎯tl쎯	-11.1569
gcf쎯wynb0쎯.	-11.1569
gah쎯aqky1쎯	-11.157
rn쎯tj쎯	-11.157
(쎃	-11.1571
*쎂	-11.1572
r쎯fwm쎯pg쎯	-11.1572
bynw0쎯bb쎯r쎯	-11.1573
-쎁쎁	-11.1574
rqa쎯rymn쎯	-11.1575
zzbd10쎯bs쎯	-11.1577
wx쎯egc쎯	-11.1577
b쎯dd쎯jg쎯	-11.1578
rvf쎯dgv쎯	-11.1579
puhc쎯rpd1쎯	-11.158
,쎁쎉쎉쎆rh쎯	-11.158
eudi0쎯	-11.158
oo쎯ugh쎯	-11.158
ym쎯wqa쎯	-11.1582
k쎯l쎯w쎯	-11.1584
tv쎯km쎯.	-11.1584
쎈zzbd15쎯	-11.1584
,ux쎯wycb쎯	-11.1585
fcu1쎯bwt쎯	-11.1587
pp쎯hka쎯	-11.1588
px쎯wu쎯r쎯	-11.159
qc쎯,	-11.159
wtr쎯l쎯	-11.1591
w쎯fqu쎯dif쎯f쎯쎀.	-11.1593
pv쎯wg쎯ntg쎯	-11.1593
qlp쎯ruv쎯	-11.1593
wvq쎯	-11.1594
nu쎯wwwk0쎯	-11.1595
imk쎯mdfj쎯	-11.1596
pn쎯gcf쎯	-11.1597
xef쎯nj쎯	-11.1597
dhb쎯yt쎯	-11.1597
qqqq1쎯qg쎯	-11.1598
udi0쎯v쎯	-11.1598
edjn쎯rmhj쎯	-11.1598
yygt쎯jn쎯	-11.16
dg쎯fgh쎯rh쎯	-11.16
xq쎯fjw쎯zzbd10쎯	-11.16
awv쎯uff쎯	-11.1601
.ul쎯d쎯	-11.1602
oge쎯iad쎯r쎯	-11.1603
an쎯wa쎯	-11.1603
ip쎯nu쎯,	-11.1604
xeg0쎯vfhp1쎯r쎯	-11.1605
*쎁	-11.1605
isk쎯qfhw1쎯	-11.1606
sft쎯ou쎯:	-11.1606
isk쎯egc쎯	-11.1607
pwdj쎯wfk쎯	-11.1609
fny0쎯ta쎯	-11.1611
r쎯vvv쎯qt쎯	-11.1612
o쎯hx쎯	-11.1613
if쎯zzbd3쎯	-11.1614
gf쎯쎂쎀쎀쎅rh쎯	-11.1615
fnw쎯,	-11.1619
cbd쎯tlf0쎯	-11.162
mq쎯jy쎯qk쎯etg쎯aq쎯	-11.1622
w쎯pp쎯	-11.1623
ivs쎯qc쎯wsg0쎯	-11.1623
mf쎯ght쎯uk쎯	-11.1624
ugm쎯rrp쎯	-11.1625
uqd2쎯zzbd3쎯	-11.1627
)pb쎯	-11.1627
f쎯ge쎯	-11.1629
euk쎯ait쎯	-11.163
tfq쎯rg쎯rjg1쎯wtf쎯	-11.163
afqb1쎯ide쎯	-11.1631
f쎯fnw쎯	-11.1632
lkd쎯go쎯	-11.1632
rh쎯(wc쎯fqb0쎯	-11.1633
ooo쎯qkm쎯	-11.1633
gd쎯uyh쎯	-11.1633
dnv0쎯uu쎯yy쎯oy쎯	-11.1633
yid쎯rytp1쎯	-11.1634
tvfh0쎯jgm쎯gk쎯tl쎯	-11.1634
ss쎯og쎯nnk쎯	-11.1635
fhn쎯go쎯,	-11.1635
wc쎯uu쎯	-11.1635
gm쎯adnt1쎯	-11.1637
me쎯rr쎯	-11.1637
wynk쎯yq쎯	-11.1638
gkl쎯y쎯yam쎯zzbd3쎯	-11.1639
쎉eee0쎯gcf쎯	-11.1639
jghx쎯	-11.164
,쎂쎀쎀쎂rh쎯	-11.1642
qr쎯dyt쎯	-11.1643
lfn쎯fcl쎯	-11.1644
aps쎯iwyf1쎯tq쎯k	-11.1644
uu쎯khu쎯gf쎯	-11.1644
쎉wc쎯jfd쎯	-11.1645
bm쎯teg1쎯	-11.1646
ftjb쎯i쎯	-11.165
,쎂쎀쎀쎀rh쎯	-11.1654
e쎯gmww쎯wh쎯	-11.1654
ipks쎯	-11.1654
dd쎯ip쎯sg쎯tu쎯	-11.1655
wdn쎯te쎯dn쎯js쎯	-11.1655
r쎯wdn쎯rvyl0쎯	-11.1658
xx쎯vk쎯	-11.1659
ygh쎯rnd1쎯	-11.1659
rc쎯qnk쎯	-11.1659
ww쎯og쎯w쎯km쎯	-11.1659
gh쎯b쎯	-11.166
jtg쎯txi쎯	-11.166
f쎯wdm쎯	-11.166
begg쎯hh쎯	-11.1661
g쎯uh쎯aa쎯	-11.1661
dgj쎯tel쎯pww쎯jg쎯:	-11.1662
쎁쎂쎂	-11.1665
bb쎯bi쎯	-11.167
py쎯tu쎯	-11.1672
wc쎯ngk쎯ukn쎯x쎯gj쎯	-11.1673
k쎯atd쎯ax쎯dd쎯ip쎯	-11.1673
wfny0쎯ivs쎯ugm쎯	-11.1674
je쎯ypm쎯	-11.1676
jl쎯	-11.1677
tqv쎯hi쎯	-11.1678
qh쎯lwj쎯	-11.1678
o쎯py쎯wf쎯	-11.1679
fge쎯tr쎯bpf쎯	-11.1679
thd쎯ipmq쎯	-11.1679
쎁쎉쎈쎄	-11.1679
mgn쎯	-11.168
yjse쎯	-11.1681
sgn쎯c쎯	-11.1681
mq쎯es쎯	-11.1682
rj쎯wjjg쎯	-11.1683
u쎯kkk쎯dga쎯v쎯	-11.1684
wdn쎯rfm쎯r쎯u쎯kkk쎯	-11.1685
r쎯g쎯adm쎯	-11.1685
sa쎯	-11.1688
iie쎯goi쎯	-11.1689
:쎆	-11.169
rajd쎯	-11.1691
uq쎯cep쎯wgj쎯rgv쎯	-11.1695
qqqq1쎯qve쎯	-11.1696
ip쎯suq쎯zzbd3쎯	-11.1697
yb쎯ny쎯	-11.1699
wc쎯ud쎯	-11.1701
zzbd3쎯ou쎯isgg2쎯	-11.1701
mhny1쎯fpm쎯	-11.1705
ta쎯쎁	-11.1708
kht쎯tca쎯	-11.171
ui쎯kthh1쎯	-11.1713
bn쎯d쎯	-11.1713
wv쎯ga쎯	-11.1713
쎉쎀rh쎯wa쎯	-11.1714
,xxf쎯og쎯gf쎯	-11.1714
쎇w쎯	-11.1715
iyni1쎯	-11.1716
쎁쎇쎅	-11.1716
.iv쎯jf쎯	-11.1717
tmg1쎯wbj쎯	-11.1719
k쎯yygy쎯qk쎯	-11.1719
.cep쎯ipkh1쎯	-11.172
pt쎯yny0쎯ukn쎯ovt쎯	-11.1721
w쎯fqu쎯dif쎯f쎯쎁.	-11.1721
iu0쎯	-11.1721
iw쎯fhn쎯	-11.1722
qh쎯qn쎯	-11.1722
tjf0쎯ou쎯	-11.1723
pei쎯og쎯u쎯og쎯wx쎯	-11.1724
쎁쎉쎈쎇	-11.1724
ujqn1쎯	-11.1724
wal쎯	-11.1724
adwr0쎯dq쎯	-11.1724
ta쎯tyna2쎯	-11.1724
wamj쎯	-11.1725
jb쎯qq쎯r쎯	-11.1726
zzbd3쎯jn쎯lt쎯	-11.1726
wk쎯pnt쎯	-11.1727
bcv쎯	-11.1736
tg쎯u쎯rfc쎯sy쎯	-11.1736
qqqq1쎯gkm쎯sm쎯sq쎯	-11.1736
ovt쎯ip쎯txi쎯	-11.1737
yssc0쎯sy쎯	-11.174
rnb쎯kfi쎯	-11.174
rb쎯py쎯	-11.1741
bk쎯og쎯rfc쎯ce쎯	-11.1741
《k쎯wxf쎯	-11.1742
w쎯tr쎯,	-11.1742
ajj0쎯sg쎯sfhg쎯tr쎯	-11.1743
yfj0쎯pwv쎯	-11.1743
쎆eee0쎯lk쎯ty쎯	-11.1743
쎅jjjj0쎯	-11.1744
aqn쎯thg1쎯	-11.1746
wf	-11.1746
aft쎯tq쎯	-11.1747
aq쎯wv쎯	-11.175
g쎯an쎯	-11.1751
g쎯dd쎯	-11.1753
dm쎯tkw쎯쎇	-11.1755
uth쎯wycm1쎯	-11.1758
b쎯g쎯rx쎯	-11.1758
gogn0쎯yssc0쎯	-11.1759
whf0쎯og쎯pp쎯g쎯	-11.1759
fm쎯fje쎯ivw쎯	-11.1759
tg쎯ujn쎯	-11.1759
jja쎯iq쎯	-11.176
tavn쎯	-11.176
y쎯wtf쎯atd쎯jgm쎯.	-11.1763
qnq쎯ii쎯	-11.1764
lhnh쎯xe쎯	-11.1764
tffu쎯sh쎯ud쎯	-11.1765
uhc쎯	-11.1766
rte쎯tfp쎯	-11.1766
lkp쎯	-11.1768
yww쎯,	-11.1768
tk쎯ith쎯	-11.1769
c쎯dy쎯mqq쎯	-11.1771
쎁쎉쎂쎆rh쎯	-11.1772
eq쎯uk쎯	-11.1772
qp쎯	-11.1774
atd쎯ip쎯fge쎯fghg쎯	-11.1775
tkw쎯wv쎯	-11.1776
o쎯hhhh쎯sfi쎯	-11.1776
nt쎯qd쎯	-11.1778
hhhh쎯ue쎯nnnn0쎯	-11.1778
쎁쎀쎉	-11.1781
amy쎯	-11.1782
zzbd3쎯irr쎯ia쎯	-11.1782
lxx쎯	-11.1783
ftbt쎯yce쎯fuk쎯yk쎯	-11.1783
ipw쎯djb쎯r쎯	-11.1785
yo쎯rq쎯	-11.1785
oy쎯,pa쎯	-11.1786
rvk쎯sfi쎯	-11.1787
zzts12쎯	-11.1789
e쎯xg쎯jn쎯pym쎯	-11.1789
.vfhp1쎯gf쎯	-11.1791
akkn1쎯	-11.1791
y쎯ou쎯:	-11.1792
pei쎯ss쎯	-11.1793
wk쎯ygh쎯b쎯	-11.1795
fpx쎯nx쎯	-11.1795
p쎯yi쎯j쎯	-11.1796
xv쎯wx쎯yx쎯	-11.1796
쎇쎀rh쎯wa쎯	-11.1796
ftbt쎯pgc쎯zzbd3쎯	-11.1796
wty0쎯fgh쎯	-11.1796
iyc쎯ire쎯	-11.1797
qsj쎯	-11.1798
sksw쎯kjj쎯	-11.1799
qyt쎯lkmi0쎯gae쎯	-11.1799
amd쎯trf0쎯qiu0쎯	-11.18
jyt0쎯	-11.18
yid쎯et쎯gu쎯ck쎯	-11.1801
kq쎯ip쎯	-11.1801
kr쎯gc쎯	-11.1803
yygy쎯ip쎯bpf쎯	-11.1803
쎈gu쎯yy쎯oy쎯	-11.1805
wtf쎯wgkb0쎯	-11.1805
sgn쎯ujf0쎯	-11.1805
vk쎯ujn쎯	-11.1809
tuj0쎯ujfj0쎯,	-11.1809
rwyg0쎯gj쎯	-11.181
tg쎯itd쎯.	-11.1813
p쎯xt쎯hhu0쎯	-11.1815
ruv쎯fyk쎯	-11.1815
.xx쎯kwgj0쎯	-11.1818
rfc쎯sy쎯w쎯ft쎯	-11.1819
ww쎯og쎯	-11.182
g쎯yid쎯whw쎯wg쎯	-11.182
djfd쎯oy쎯.	-11.182
,rjg1쎯wtf쎯	-11.1821
wyw쎯	-11.1822
쎂쎇쎀	-11.1823
iy쎯:	-11.1823
쎃쎀wtu쎯tyna2쎯	-11.1823
oj쎯	-11.1824
쎁쎂eee0쎯tg쎯,	-11.1824
qgu쎯dhq쎯	-11.1824
r쎯gae쎯qje쎯	-11.1824
nny1쎯tfn쎯	-11.1824
jf쎯uj쎯mw쎯	-11.1825
sq쎯wrh1쎯	-11.1827
bm쎯fnrt쎯	-11.1827
쎁/쎄	-11.183
tffu쎯tk쎯od쎯	-11.183
igmh0쎯	-11.1832
i쎯fcl쎯	-11.1832
dd쎯k쎯gajf0쎯	-11.1833
,bwt쎯b쎯	-11.1834
wbj쎯usr쎯zzbd3쎯	-11.1836
jfi쎯	-11.1837
lt쎯jg쎯dcw쎯djb쎯	-11.1837
,tfq쎯umd1쎯	-11.1838
ipw쎯th쎯	-11.1838
sov쎯zzbd3쎯	-11.1841
ukn쎯jg쎯	-11.1843
ght쎯tgm쎯,	-11.1843
ftbt쎯yce쎯gk쎯og쎯	-11.1843
fd쎯ymhj0쎯fwm쎯aj쎯	-11.1844
wgkq0쎯w쎯	-11.1844
eb쎯.	-11.1844
쎃dnv0쎯	-11.1845
v쎯nae0쎯gc쎯	-11.1846
te쎯gmy0쎯	-11.1848
lg쎯gajf0쎯	-11.1849
,ai쎯gn쎯	-11.1851
gmy0쎯ia쎯	-11.1851
dh쎯egc쎯	-11.1852
dma쎯	-11.1852
wh쎯sf쎯n쎯xeg0쎯	-11.1853
iq쎯aps쎯	-11.1853
쎄.쎂	-11.1855
nae0쎯jtyq0쎯wf쎯	-11.1855
zzbd3쎯rrr쎯oyvk1쎯	-11.1857
jplh0쎯	-11.1859
whf0쎯og쎯wc쎯ngk쎯	-11.186
wye쎯jvko0쎯	-11.186
쎁쎁eee0쎯tg쎯,	-11.1862
yo쎯tfp쎯	-11.1862
ax쎯og쎯	-11.1863
nd쎯fghg쎯	-11.1864
ip쎯rb쎯》	-11.1866
r쎯ftx쎯	-11.1866
rt쎯rxj쎯	-11.1866
mqc쎯tr쎯k쎯ny쎯	-11.1868
dl쎯kq쎯r쎯	-11.1869
.ld쎯hx쎯	-11.1871
all쎯	-11.1871
jghy0쎯wfg0쎯	-11.1872
sgd0쎯	-11.1872
xk쎯,	-11.1873
쎃.쎈	-11.1873
쎅oy쎯,	-11.1875
,dp쎯gc쎯	-11.1875
yygt쎯yq쎯	-11.1876
ym쎯rfm쎯jg쎯r쎯	-11.1877
ybf0쎯iwyf1쎯	-11.1878
wwgi쎯	-11.1879
rpws쎯bwg쎯	-11.1879
gk쎯og쎯r쎯	-11.1879
zzbd3쎯mmm쎯ai쎯	-11.188
eb쎯tl쎯gj쎯wynn3쎯	-11.188
ide쎯aq쎯	-11.1881
쎉쎀쎀쎁	-11.1881
tak쎯bt쎯	-11.1882
r쎯dd쎯ih쎯	-11.1883
ipw쎯djb쎯	-11.1883
ga쎯a쎯	-11.1884
tdp쎯k쎯	-11.1885
smmv0쎯	-11.1886
ux쎯aq쎯	-11.1886
rt쎯xfn쎯	-11.1887
usgd1쎯ad쎯	-11.1887
ukn쎯hk쎯f쎯dm쎯tkw쎯	-11.1892
.i쎯fp쎯	-11.1892
.ua쎯	-11.1893
amd쎯yygy쎯qk쎯tq쎯:	-11.1893
.쎅%	-11.1893
쎁kw쎯	-11.1894
jx쎯je쎯ymhj0쎯	-11.1894
,lh쎯kthh1쎯ith쎯	-11.1894
gf쎯쎂쎀쎁쎁rh쎯	-11.1894
vca쎯j쎯	-11.1895
gae쎯wny1쎯	-11.1896
gg쎯dj쎯	-11.19
xg쎯zzbd3쎯	-11.19
whf0쎯og쎯t쎯	-11.19
mmm쎯ss쎯	-11.1902
(쎅)	-11.1904
tjf0쎯rnb쎯	-11.1905
.wt쎯ftj쎯	-11.1907
.쎁쎉쎅쎆rh쎯	-11.1908
》()	-11.1909
fob쎯	-11.1909
aw쎯vfhp1쎯	-11.191
쎁쎀dnv0쎯	-11.1911
hcd쎯hw쎯	-11.1911
tp쎯zzbd3쎯	-11.1911
iv쎯gk쎯w쎯	-11.1912
sx쎯nnh쎯	-11.1913
.dr쎯	-11.1915
gab쎯	-11.1915
bfm쎯f쎯	-11.1916
qev쎯gxgu쎯	-11.1918
ikm쎯	-11.1919
yx쎯ym쎯	-11.1922
qk쎯ujfj0쎯	-11.1924
,wgc쎯ty쎯	-11.1924
nhw쎯	-11.1929
wc쎯ngk쎯j쎯g쎯pe쎯	-11.193
dy쎯se쎯	-11.1931
udy쎯.	-11.1931
kl쎯g쎯tkh쎯	-11.1933
wug0쎯gf쎯k쎯l쎯	-11.1933
rt쎯k쎯	-11.1933
uk쎯imkf1쎯nnh쎯	-11.1934
r쎯td쎯ykw쎯	-11.1936
fg쎯fgh쎯lh쎯	-11.1937
kie쎯	-11.1941
yny0쎯bb쎯	-11.1941
qtgw1쎯pwtf1쎯	-11.1941
wh쎯l쎯pe쎯t쎯f쎯aq쎯	-11.1944
aqq쎯jel쎯	-11.1944
iwf쎯w쎯	-11.1944
xkw쎯tr쎯	-11.1947
gef쎯awx쎯	-11.1947
ta쎯bb쎯	-11.1949
fyk쎯	-11.195
oqy1쎯	-11.1952
hx쎯od쎯	-11.1953
wwj쎯wfhg0쎯cm쎯	-11.1954
dyc쎯wx쎯	-11.1955
qyk쎯maf1쎯	-11.1955
adwe1쎯bv쎯	-11.1956
uyh쎯qh쎯	-11.1957
쎃.쎇	-11.1959
쎁쎀wtu쎯tyna2쎯	-11.1959
d쎯dr쎯	-11.196
et쎯jg쎯	-11.1962
pyj쎯tn쎯r쎯	-11.1962
ooo쎯po쎯	-11.1962
fii쎯go쎯r쎯	-11.1962
rc쎯“lfnh쎯vjsj쎯”	-11.1963
r쎯gef쎯hgo쎯	-11.1967
iugi1쎯	-11.1967
ftx쎯wx쎯	-11.1969
yy쎯ghd1쎯	-11.1969
tffu쎯yjs쎯tkgg1쎯	-11.197
tmgt2쎯	-11.197
xp쎯wgk쎯ick쎯gj쎯	-11.197
qnth쎯kkk쎯	-11.1973
r쎯pw쎯uj쎯	-11.1973
bukn0쎯	-11.1973
,we쎯	-11.1979
uh쎯hko쎯	-11.1979
tw쎯pvs쎯	-11.198
uth쎯wh쎯	-11.1981
syc쎯	-11.1981
,쎂쎀쎀쎈rh쎯	-11.1982
g쎯su쎯r쎯	-11.1983
bwj쎯xe쎯	-11.1985
쎅쎀wtu쎯	-11.1985
yoo쎯udjh쎯	-11.1986
yo쎯gjq쎯	-11.1986
qfhw1쎯ia쎯	-11.1987
.px쎯r쎯	-11.1988
egc쎯fuj쎯mw쎯	-11.1988
zzbd3쎯l쎯bf쎯	-11.1991
hqd쎯	-11.1992
g쎯udbb쎯	-11.1992
ipg쎯wx쎯	-11.1992
puvc1쎯	-11.1997
ss쎯ssss0쎯	-11.1998
ai쎯jty쎯	-11.1998
ve쎯img쎯	-11.1998
adw쎯wt쎯kkk쎯	-11.1999
,txi쎯	-11.1999
《dd쎯	-11.1999
pp쎯mw쎯	-11.2001
쎀yne쎯,	-11.2002
hc쎯efw쎯ugm쎯	-11.2002
쎁쎃쎆	-11.2007
dn쎯js쎯uqd2쎯	-11.2007
jf쎯iq쎯	-11.201
qq쎯gu쎯yy쎯oy쎯	-11.2011
kgn쎯)	-11.2011
fqp쎯yb쎯	-11.2012
uce쎯,	-11.2017
l쎯pe쎯r쎯	-11.2017
iex쎯qfhw1쎯	-11.2018
dxa쎯	-11.2018
xad쎯tfn쎯	-11.2019
zzbd3쎯fjfh1쎯l쎯	-11.2021
ydn쎯wy쎯zzbd3쎯	-11.2021
xgo쎯ytt쎯	-11.2021
ce쎯lt쎯xk쎯	-11.2021
tf쎯og쎯k쎯	-11.2023
tx쎯dg쎯yy쎯	-11.2023
ipw쎯tfkp0쎯	-11.2023
wv	-11.2024
ibi쎯ugl쎯b쎯	-11.2025
bmg쎯o쎯	-11.2026
kkd쎯tr쎯	-11.2027
nge쎯w쎯	-11.2027
rf쎯xfn쎯v쎯nae0쎯	-11.2029
ijl쎯cbts1쎯	-11.2029
쎅ylf0쎯	-11.2031
wv쎯od쎯:	-11.2031
jtyl쎯pym쎯	-11.2032
w쎯ntg쎯wx쎯	-11.2032
pei쎯og쎯w쎯kkkk1쎯	-11.2034
(쎁쎉쎄	-11.2037
bwf쎯gkp쎯	-11.2039
,rpv쎯jvko0쎯	-11.2039
wgkb0쎯jghm1쎯	-11.204
mq쎯eerq쎯	-11.204
hi쎯tf쎯tffh1쎯	-11.2041
rep쎯yjs쎯	-11.2042
tv쎯km쎯wf쎯tv쎯km쎯.	-11.2042
lds쎯gae쎯	-11.2044
r쎯tk쎯adm쎯	-11.2044
fggh쎯jfj쎯	-11.2045
ugdu쎯w쎯	-11.2046
io쎯amw쎯qc쎯	-11.2049
tdp쎯et쎯aib쎯lfnh쎯	-11.2049
oyv쎯img쎯	-11.205
tgh쎯nh쎯	-11.2052
qfhw1쎯ai쎯	-11.2053
tcf쎯	-11.2054
cd쎯pfjm1쎯	-11.2055
wfny0쎯fhw쎯	-11.2056
.zzy1쎯	-11.2056
ff쎯ymd쎯	-11.2056
쎃qk쎯	-11.2056
y쎯s쎯qm쎯gmu1쎯	-11.2059
wvp쎯ltk쎯	-11.2059
fkuk2쎯uge쎯	-11.206
쎄.쎈	-11.2062
xh쎯et쎯	-11.2062
ajj0쎯sg쎯	-11.2063
dga쎯pwv쎯tg쎯bpf쎯	-11.2066
uq쎯lwj쎯th쎯	-11.2067
dn쎯o쎯k쎯l쎯	-11.2067
zzbd3쎯de쎯shi쎯ow쎯	-11.2068
pl쎯w쎯	-11.2069
ip쎯ire쎯	-11.207
wbj쎯usr쎯r쎯	-11.207
gh쎯ty쎯	-11.2071
gu쎯src쎯	-11.2071
dd쎯lt쎯v쎯nae0쎯	-11.2071
fcp쎯lfn쎯	-11.2074
r쎯gm쎯qje쎯	-11.2075
ue쎯ftj쎯	-11.2075
rymn쎯alt쎯	-11.208
gyt쎯xe쎯	-11.208
ay쎯tjf0쎯	-11.2081
쎁wh쎯,	-11.2081
:(	-11.2082
wv쎯a쎯	-11.2086
afp쎯	-11.2087
rvyo쎯ny쎯	-11.2087
qvw쎯	-11.2087
hfc쎯	-11.2089
sgn쎯ou쎯	-11.2091
r쎯gkih0쎯wsg0쎯	-11.2091
rg쎯an쎯	-11.2093
.”쎂.	-11.2095
wht쎯ghd1쎯	-11.2096
alw쎯aq쎯	-11.2096
mqq쎯gfi쎯	-11.2097
gkp쎯udi0쎯w쎯	-11.21
vtkd0쎯y쎯	-11.21
fq쎯xg쎯mqq쎯hhu0쎯	-11.21
tqdh0쎯bj쎯	-11.2101
zzts0쎯	-11.2101
iytb0쎯qi쎯	-11.2102
qytb0쎯wx쎯	-11.2105
wa쎯kgn쎯	-11.2106
uqb쎯aq쎯	-11.2106
쎄kgn쎯	-11.2108
쎈zzbd9쎯	-11.2109
tffu쎯qq쎯	-11.2111
쎂쎀쎀쎃.쎀	-11.2111
whm쎯	-11.2114
(쎁쎀	-11.2116
zzbd3쎯whf0쎯og쎯	-11.2116
itx쎯kkkk1쎯	-11.2117
uyh쎯pwt쎯	-11.2118
bk쎯wug0쎯	-11.2119
fcl쎯a쎯	-11.2119
.(쎃)	-11.212
ss쎯f쎯	-11.2121
by쎯uqwl쎯	-11.2122
ym쎯hid쎯	-11.2123
dgh쎯tdij0쎯	-11.2123
ymc쎯uu쎯b쎯	-11.2124
reh쎯e쎯g쎯rx쎯	-11.2127
lkd쎯rb쎯	-11.2127
gf쎯g쎯tmd쎯	-11.2127
vfhp1쎯ymc쎯uk쎯	-11.2127
duo쎯	-11.2127
ai쎯aq쎯	-11.2128
um쎯og쎯tffh1쎯	-11.2129
tuxj쎯wtu쎯	-11.2129
itd쎯fcl쎯pgc쎯	-11.2131
tf쎯fhu쎯	-11.2131
kgn쎯,	-11.2131
kvi쎯	-11.2132
쎅.쎆	-11.2132
x쎯qie쎯	-11.2133
dgv쎯qiu0쎯	-11.2133
tu쎯xnn1쎯	-11.2134
(쎁쎆	-11.2135
lfo쎯pujn0쎯qc쎯	-11.2136
udnb1쎯	-11.2139
tx쎯쎇	-11.2139
qh쎯cm쎯ymc쎯yf쎯	-11.2139
arj쎯ae쎯	-11.2141
an쎯w쎯	-11.2144
wcy0쎯wcy0쎯	-11.2145
vcb쎯j쎯	-11.2146
jc쎯qvn0쎯	-11.2147
,ua쎯gn쎯	-11.2148
,쎁쎉쎉쎅rh쎯	-11.2148
qnf쎯	-11.2149
jhng0쎯:	-11.2151
,vvv쎯,ic쎯ytt쎯,	-11.2152
ybt쎯or쎯	-11.2153
ym쎯u쎯	-11.2153
lp쎯aq쎯	-11.2154
mqq쎯xtk쎯tu쎯rfc쎯	-11.2155
mfk쎯gc쎯	-11.2156
ip쎯suq쎯r쎯	-11.2156
tk쎯uk쎯uyh쎯	-11.2157
yem쎯	-11.2159
(《	-11.2159
쎁쎃쎄	-11.2161
쎂dnv0쎯	-11.2161
dgkn0쎯jhf1쎯	-11.2162
mf쎯wf쎯	-11.2163
dga쎯pwv쎯》zzbd3쎯《	-11.2163
dm쎯tkw쎯:	-11.2166
wmw쎯wx쎯	-11.2167
jri쎯	-11.2167
ft쎯j쎯	-11.2167
eb쎯tl쎯wsg0쎯txi쎯	-11.2169
,쎁쎉쎈쎅rh쎯	-11.2171
tgj쎯hko쎯k쎯ip쎯	-11.2172
tf쎯jtg쎯	-11.2173
wm쎯w쎯	-11.2175
rxj쎯rpl쎯uk쎯	-11.2177
uq쎯ian1쎯	-11.2179
tjh쎯yx쎯	-11.218
xe쎯uqwm1쎯rfm쎯	-11.218
ga쎯v쎯zzbd3쎯tg쎯u쎯	-11.2182
bn쎯yi쎯	-11.2182
wy쎯wynn3쎯	-11.2184
pw쎯ny쎯	-11.2184
gmww쎯uk쎯wv쎯	-11.2187
rnb쎯rvyl0쎯	-11.2188
-쎂-	-11.2189
.y쎯rf쎯	-11.2189
쎄%	-11.2189
oq쎯rgw쎯	-11.219
rf쎯qy쎯	-11.2191
r쎯f쎯wug0쎯	-11.2191
r쎯tgj쎯dd쎯	-11.2191
ym쎯gxi쎯rfm쎯	-11.2191
ovt쎯hhhh쎯	-11.2193
aps쎯aqt쎯“	-11.2196
__	-11.2198
y쎯nf쎯	-11.2198
ny쎯gj쎯uqwk0쎯yqj쎯	-11.2199
.wgq쎯vk쎯	-11.22
tffu쎯ujfj0쎯wug0쎯	-11.22
ywx쎯yygy쎯《	-11.2206
svc쎯rtd쎯	-11.2206
ghd1쎯eee0쎯	-11.2207
r쎯mq쎯st쎯	-11.2208
sg쎯rfm쎯	-11.2208
r쎯vb쎯ygu쎯	-11.2208
wy쎯ny쎯	-11.221
dty0쎯jfd쎯	-11.221
age쎯lll쎯	-11.2211
vaf쎯	-11.2211
saj0쎯wyn쎯	-11.2213
wgk쎯gj쎯r쎯	-11.2213
,c쎯wgj쎯	-11.2215
udn쎯	-11.2215
tmdy0쎯	-11.2216
qqqq1쎯dgtg0쎯	-11.2216
amw쎯isgg2쎯	-11.2217
pfjm1쎯lg쎯	-11.2218
am	-11.2219
k쎯yygy쎯qk쎯tq쎯	-11.222
wdn쎯ugdu쎯r쎯	-11.222
lfo쎯pt쎯	-11.2222
qq쎯wug0쎯	-11.2222
,쎁쎈	-11.2225
egl쎯ftbt쎯	-11.2225
tmg1쎯sm쎯	-11.2225
v쎯wyk쎯	-11.2225
pjm쎯ujn쎯	-11.2225
gmm쎯	-11.2226
ujn쎯yq쎯.	-11.2226
wa쎯ge쎯wt쎯kkk쎯	-11.2226
wmj1쎯dm쎯	-11.2228
쎁쎀w쎯	-11.2228
nfc쎯dm쎯	-11.2228
fh쎯gcf쎯	-11.2229
ux쎯itx쎯	-11.223
swc쎯ia쎯	-11.2231
xte쎯w쎯	-11.2231
ype쎯	-11.2231
bjm쎯	-11.2232
쎁쎇쎆	-11.2232
dd쎯itx쎯	-11.2232
wty0쎯g쎯	-11.2232
uu쎯fn쎯	-11.2233
qqqq1쎯bfw쎯	-11.2235
ws쎯usi1쎯vkgd쎯qi쎯	-11.2237
qve쎯isk쎯	-11.2237
jcf쎯pu쎯	-11.2238
rmhj쎯fcl쎯	-11.224
bb쎯pk쎯	-11.2241
ntg쎯vb쎯	-11.2241
,ga쎯nae0쎯	-11.2243
쎆쎅쎀	-11.2243
h쎯up쎯	-11.2245
temq0쎯bw쎯	-11.2247
.reh쎯e쎯	-11.2247
tkh쎯sfhg쎯og쎯	-11.2248
k쎯uqf쎯	-11.2248
fh	-11.2249
쎂쎅쎀쎀	-11.225
,j쎯wys쎯	-11.225
쎇쎀%	-11.2252
yygy쎯ip쎯pe쎯	-11.2253
f쎯rfm쎯ip쎯	-11.2254
,wjg쎯d쎯	-11.2255
쎁쎉쎈쎀	-11.2255
p쎯sg쎯nnh쎯	-11.2256
qaf쎯	-11.2256
r쎯jb쎯ym쎯	-11.2256
sri쎯aa쎯wf쎯py쎯	-11.2257
cd쎯ftg쎯.	-11.226
buj쎯	-11.2261
wgk쎯aft쎯	-11.2262
jfd쎯gog쎯	-11.2263
r쎯qie쎯wyk쎯	-11.2264
cd쎯pl쎯	-11.2264
tt쎯yn쎯	-11.2265
.ta쎯adwe1쎯ww쎯gk쎯	-11.2266
l1쎯	-11.2267
jpv쎯	-11.2267
ajdf쎯f쎯	-11.2268
yd쎯maw쎯	-11.2269
.쎁쎉쎇쎉rh쎯	-11.2269
wv쎯pdhj0쎯	-11.227
zzbd9쎯)	-11.2272
amw쎯img쎯	-11.2272
iwf쎯tf쎯r쎯	-11.2273
rm	-11.2273
euk쎯yb쎯	-11.2273
epe0쎯	-11.2273
,lk쎯h쎯	-11.2275
ige쎯iq쎯xft쎯	-11.2277
yssc0쎯ulg쎯	-11.2277
ulg쎯atd쎯	-11.2278
xq쎯쎃	-11.2278
u쎯rg쎯	-11.2278
trf0쎯e쎯	-11.2278
dmj1쎯puhc쎯	-11.2279
khq쎯uthp0쎯	-11.228
g쎯uyh쎯	-11.2284
fpg쎯	-11.2284
hj쎯jf쎯	-11.2285
suq쎯mq쎯	-11.2285
gkp쎯pa쎯	-11.2286
xd쎯	-11.2287
je쎯rrr쎯	-11.2288
r쎯jb쎯dd쎯	-11.229
k쎯l쎯gm쎯wa쎯	-11.2291
wud쎯	-11.2291
yjjh0쎯,	-11.2292
yri쎯	-11.2294
yhk쎯qge쎯	-11.2295
fcp쎯apk쎯um쎯	-11.2295
qqqq1쎯wxf쎯	-11.2296
yn쎯fa쎯,	-11.2297
lc쎯a쎯	-11.2298
[...]
