[UNK]	0
[PAD]	0
[CLS]	0
[SEP]	0
[MASK]	0
,	-3.55382
d쎯	-3.90818
.	-4.01704
、	-4.08877
mfj쎯	-5.05847
g쎯	-5.41362
u쎯	-5.50507
k쎯	-5.58179
j쎯	-5.68997
:	-5.73132
az쎯	-5.79012
(	-5.81314
gdq쎯	-5.88251
od쎯	-5.93992
mbds쎯	-5.94009
gd쎯	-5.97621
;	-5.97719
《	-6.08897
)	-6.08914
i쎯	-6.1317
y쎯	-6.14621
yms쎯	-6.22895
wa쎯	-6.23574
“	-6.24573
a쎯	-6.26345
zo쎯	-6.29513
gi쎯	-6.40625
ad쎯	-6.45869
”	-6.4654
sli쎯	-6.48779
kv쎯	-6.54951
x쎯	-6.57419
j쎯jc쎯	-6.5955
ll쎯	-6.59872
paj0쎯	-6.61595
lczs쎯	-6.6303
쎁	-6.66203
b쎯	-6.66269
sjl쎯	-6.66663
ya쎯	-6.67093
쎂	-6.67451
ho쎯	-6.68078
r쎯	-6.6815
쎃	-6.69831
hj쎯	-6.70776
ko쎯	-6.70797
gl쎯	-6.72143
l쎯	-6.72431
cd쎯	-6.73857
》	-6.74248
wdgq0쎯	-6.74693
oz쎯yaj1쎯	-6.75486
um쎯	-6.76264
gd쎯vdwy쎯	-6.78732
sf쎯	-6.78919
hbkd쎯	-6.80004
kd쎯	-6.8142
·	-6.83676
ai1쎯	-6.84287
p쎯	-6.85319
ch쎯	-6.86237
tird쎯	-6.87608
wtxi쎯	-6.87781
-	-6.91038
zizi쎯	-6.91187
dex쎯fsv쎯	-6.91662
agd쎯	-6.91685
ldod쎯	-6.92468
mc쎯	-6.95796
rsj쎯	-6.96976
hb쎯	-6.97761
sug쎯jjj쎯	-6.98099
fav쎯	-6.984
gdq쎯yxo쎯oz쎯yaj1쎯	-6.9912
ob쎯	-7.01416
odii쎯ku쎯	-7.02073
qyx쎯rsym쎯	-7.02659
h쎯	-7.02763
vdwy쎯	-7.02833
bdzs1쎯ku쎯	-7.03504
aij쎯	-7.03825
쎄	-7.04493
fj쎯	-7.04515
so쎯	-7.04737
kia쎯	-7.04821
mamb쎯	-7.05169
ag쎯	-7.05852
sjy0쎯	-7.07094
bi쎯nmi쎯	-7.07266
pe쎯	-7.07363
ec쎯	-7.08065
mw쎯ckb쎯	-7.08844
bd쎯	-7.1093
pa쎯	-7.11914
edl쎯	-7.12302
쎅	-7.1254
bmm쎯szq쎯	-7.12748
hdko쎯	-7.13498
fds쎯	-7.1358
bdkv쎯	-7.14188
/	-7.14467
ca쎯	-7.14547
vb쎯	-7.15033
oy쎯	-7.15816
odod쎯	-7.16409
jirj쎯	-7.16879
vdwy쎯ywb쎯	-7.16965
jc쎯wdgq0쎯	-7.17998
vm쎯	-7.18207
bm쎯	-7.18533
gae쎯woqy쎯	-7.19171
uaqk쎯	-7.19477
ga쎯	-7.21117
bhv쎯	-7.21702
uae쎯	-7.21774
wz쎯	-7.22713
yi쎯	-7.22835
kb쎯	-7.229
en쎯	-7.22912
nr0쎯	-7.25177
zzm쎯	-7.25225
jc쎯	-7.25493
nfa쎯	-7.26542
fq쎯	-7.26833
oel쎯	-7.278
쎆	-7.28532
n쎯	-7.28587
vdwy쎯fs쎯	-7.28738
ka쎯	-7.30673
ri쎯	-7.31013
mfte쎯	-7.31137
lk쎯	-7.31162
nmb쎯	-7.31343
mzv쎯zs쎯	-7.31466
nl쎯	-7.31817
jc쎯ybk쎯	-7.32059
a쎯o쎯	-7.32493
tdgd쎯	-7.32785
ym쎯	-7.3286
xa쎯	-7.34193
nsu쎯ad쎯	-7.3523
,k쎯	-7.35431
wdz쎯	-7.35829
uanw쎯	-7.36089
tl쎯	-7.36167
bmy쎯	-7.36475
쎇	-7.3692
gm쎯	-7.37092
z쎯	-7.37357
nk쎯	-7.37492
bix쎯	-7.37712
쎈	-7.38203
mfte쎯dex쎯	-7.38381
oi쎯	-7.38462
bdnw쎯oi쎯	-7.39074
oda쎯	-7.39369
bi쎯mfjc쎯	-7.39397
kq쎯	-7.39413
zq쎯	-7.39677
kg쎯	-7.40096
()	-7.40293
hbi쎯	-7.40946
vcq쎯	-7.41693
al쎯	-7.41759
zx쎯vsnd쎯	-7.42073
》、《	-7.42205
au쎯	-7.42289
tirr쎯	-7.42703
zhm쎯	-7.42911
z쎯xe쎯	-7.43305
aeb쎯	-7.43931
sq쎯sed쎯	-7.4472
쎁쎀	-7.45285
qdos쎯	-7.45727
,g쎯	-7.46156
va쎯	-7.46335
gj쎯	-7.46634
wxl쎯	-7.46693
ay쎯	-7.47136
ucgd쎯	-7.47355
zx쎯	-7.47747
wh쎯	-7.47758
so쎯nr0쎯	-7.47763
ucl쎯	-7.47989
ja쎯	-7.48072
mbbd쎯	-7.48414
edjr2쎯	-7.48654
dsw쎯	-7.48967
mzv쎯	-7.49961
j쎯wz쎯	-7.51256
uf쎯	-7.51672
"	-7.51802
oc쎯	-7.51957
zsj쎯	-7.52357
t쎯	-7.52495
nre쎯	-7.53035
vbi쎯	-7.53138
쎉	-7.53236
ffv쎯	-7.54052
edj쎯	-7.54076
mfte쎯vdwy쎯	-7.54123
mekb쎯	-7.54453
nmi쎯	-7.54637
eako쎯	-7.55123
ae쎯	-7.55779
kcx쎯	-7.5625
fl쎯	-7.57131
mblk쎯	-7.57158
md쎯	-7.57191
nlj쎯	-7.57232
ggnk쎯	-7.57585
bdrd쎯	-7.58166
rj쎯	-7.58167
gdw쎯	-7.58341
oc쎯jc쎯	-7.58341
xyis쎯	-7.59147
sj쎯	-7.59241
idju쎯	-7.59247
zl쎯zjo쎯	-7.5972
vdnd쎯	-7.5973
ldo쎯	-7.60024
ufgd쎯	-7.60123
zb쎯	-7.60159
oiad쎯	-7.60303
nif쎯	-7.60453
aii쎯	-7.60482
.”	-7.60493
f쎯	-7.60511
mc쎯sug쎯	-7.60648
,uae쎯	-7.60835
tirr쎯sjk쎯	-7.61028
lco쎯gdq쎯	-7.61297
xmyj쎯	-7.61739
m쎯	-7.61778
ld쎯	-7.61874
yc쎯	-7.6238
zj쎯	-7.62777
bi쎯	-7.62849
my쎯	-7.62913
sy쎯	-7.63185
he쎯	-7.63223
q쎯	-7.64032
v	-7.64039
km쎯	-7.64125
rid쎯	-7.64341
e	-7.64461
zo쎯yms쎯	-7.64837
b쎯ho쎯	-7.6531
ufzm쎯	-7.65966
rko쎯	-7.66052
yj쎯	-7.66257
udjw쎯	-7.66628
od쎯,	-7.67464
nx쎯	-7.67572
xbby쎯mbq쎯	-7.67697
jjg쎯	-7.67859
jed쎯	-7.68177
ecp쎯	-7.68331
bmm쎯vdwy쎯	-7.68414
oz쎯	-7.68482
,zo쎯	-7.6894
yya쎯	-7.68995
s쎯	-7.69396
쎂쎀	-7.69518
sc쎯	-7.69605
aij쎯zo쎯	-7.70026
zmya쎯	-7.704
dk쎯neo쎯	-7.7069
bzs쎯	-7.71042
),	-7.71202
mfkd쎯	-7.71205
nsu쎯	-7.71266
dq쎯	-7.71642
boy쎯	-7.719
eyd쎯fsv쎯	-7.71989
nif쎯jddm쎯	-7.72184
kal쎯	-7.72309
sc쎯f쎯	-7.72397
bg쎯la쎯	-7.72405
wsk쎯	-7.72525
cgi쎯bskr쎯	-7.72712
xs쎯	-7.72895
yk쎯	-7.73226
na쎯l쎯	-7.73558
xsxs쎯	-7.73661
j	-7.73845
vs쎯	-7.7391
o쎯	-7.7428
e쎯kion쎯	-7.74443
ew쎯	-7.74678
mw쎯	-7.75016
xbby쎯sq쎯	-7.75336
ldo쎯zrj쎯	-7.75415
pdel쎯kak쎯	-7.75521
zym쎯	-7.76104
xmi쎯	-7.76343
ns쎯nlwz쎯	-7.76564
ryi쎯	-7.77299
bmrr쎯	-7.77592
ta쎯	-7.78033
rr쎯	-7.78305
sq쎯rki쎯	-7.78654
xbby쎯	-7.78959
쎁쎂	-7.79006
sij쎯	-7.79267
myz쎯a쎯	-7.79305
e쎯	-7.79374
jdrt쎯	-7.79427
nc쎯	-7.79526
zm쎯	-7.79703
iai쎯	-7.79764
木	-7.79829
vki쎯	-7.8003
dsu쎯	-7.80503
jaz쎯	-7.80514
wsb쎯ob쎯	-7.80796
sli쎯byo쎯	-7.81109
i쎯vm쎯	-7.81111
wxl쎯dsw쎯	-7.8138
fya쎯	-7.81582
kz쎯	-7.81596
mfji쎯	-7.81725
”.	-7.81817
bdzs0쎯	-7.82011
eqg쎯	-7.82567
su쎯	-7.82793
mfz쎯jl쎯ob쎯	-7.83022
kak쎯	-7.83282
oaj쎯	-7.83431
pdw쎯	-7.84072
bhv쎯sli쎯	-7.84101
wdya쎯	-7.84182
ss쎯	-7.8492
쎁쎉	-7.85058
na쎯	-7.85061
xb쎯	-7.85198
lkrs쎯	-7.85363
bmm쎯	-7.85464
aed쎯	-7.86321
vdwy쎯mc쎯	-7.86445
dy쎯	-7.86926
od쎯.	-7.87167
wd쎯	-7.87573
drk1쎯	-7.87635
ucgd쎯jc쎯	-7.88077
vdwy쎯yt쎯	-7.88134
sov쎯	-7.88237
ecq1쎯	-7.88386
lbj쎯	-7.88755
mfk쎯	-7.89094
ajx쎯	-7.89319
odod쎯ajx쎯	-7.89467
fb쎯tdni쎯	-7.89842
xi쎯	-7.9039
ku쎯	-7.90807
ciq쎯	-7.91274
ra쎯	-7.91683
koxb쎯	-7.91725
rf쎯	-7.91822
biym쎯zq쎯	-7.9202
쎃쎀	-7.9234
zrs쎯	-7.92457
bdnw쎯	-7.92461
mc쎯vmi쎯	-7.93174
jd쎯	-7.93219
vx쎯	-7.93266
iirr쎯	-7.93478
pvgx쎯	-7.93552
udke쎯	-7.93811
ki쎯	-7.93951
f	-7.94036
gg쎯	-7.94308
bi쎯ku쎯	-7.94338
mbro쎯	-7.94677
wdy쎯	-7.95043
vwo쎯	-7.95308
byo쎯	-7.9538
rhko쎯	-7.95406
wcs쎯	-7.9619
dld쎯gdq쎯	-7.96508
dqx쎯tdrl1쎯	-7.96721
sbd쎯	-7.9676
wm쎯	-7.96943
uo쎯	-7.96994
lr쎯	-7.97188
ajk쎯	-7.97273
kmc쎯	-7.97395
.g쎯	-7.98037
ak쎯	-7.98102
ecb쎯	-7.98623
tgs1쎯	-7.98867
tk쎯	-7.98956
akz쎯	-7.99383
udke쎯nsu쎯	-7.99458
ey쎯	-7.99462
bmm쎯kal쎯	-7.99491
쎁쎅	-7.99659
aku쎯	-7.99667
yh쎯	-7.99803
giw쎯	-7.99904
oa쎯	-8.00376
eked쎯	-8.00707
》:“	-8.00803
ngr쎯mfym쎯	-8.01009
ahi쎯	-8.01106
ubyy쎯	-8.01181
fmg쎯	-8.01548
aim쎯tgnd쎯	-8.01676
d	-8.01918
ae쎯z쎯	-8.01995
hd쎯	-8.02116
mfrk0쎯	-8.02149
nb쎯	-8.02191
ne쎯	-8.02224
gdli쎯	-8.02249
rre쎯ku쎯ad쎯	-8.02475
aep쎯	-8.02769
!	-8.02874
kc쎯	-8.02877
hew쎯	-8.02937
jdj쎯	-8.03223
ae쎯zmzj쎯	-8.03282
oi쎯ku쎯	-8.03311
wtyd쎯	-8.03352
edx쎯db쎯	-8.03669
sl쎯	-8.03972
sbx쎯	-8.03999
eao쎯	-8.04014
쎁쎁	-8.04077
mbrd쎯bdnw쎯	-8.04282
nh쎯	-8.04498
rj쎯mfji쎯	-8.04551
vejq쎯	-8.04551
cs쎯	-8.04633
suk쎯rhko쎯	-8.04904
,u쎯	-8.04956
nmi쎯jjj쎯	-8.05075
ucq쎯	-8.05093
hma1쎯ywb쎯	-8.0512
jbr쎯	-8.05594
fs쎯	-8.05982
jjj쎯nne쎯	-8.06422
fpx쎯	-8.06467
sv쎯	-8.06544
sul쎯	-8.06623
jddm쎯	-8.06702
tdro쎯	-8.06702
——	-8.06757
lb쎯	-8.07039
ub쎯	-8.07283
wym쎯	-8.07532
vsm쎯xhm쎯	-8.07717
xoy쎯	-8.07784
h쎯u쎯	-8.07798
ba쎯	-8.08039
kojl0쎯	-8.08088
tgva쎯	-8.08099
yhk쎯	-8.08196
qy쎯	-8.08294
rl쎯	-8.08338
z	-8.08491
lok쎯	-8.08588
nmi쎯u쎯	-8.09403
bxm쎯	-8.09522
yji쎯	-8.09728
fr쎯	-8.10062
jjj쎯	-8.10181
zl쎯	-8.10402
da쎯	-8.10441
kf쎯	-8.10898
wms쎯	-8.11042
uanl쎯	-8.11292
dwb쎯mblk쎯	-8.11332
bdzy쎯	-8.11354
vmi쎯bdzy쎯	-8.11382
pdel쎯	-8.1169
zbj쎯frz쎯	-8.11699
ezr쎯	-8.12224
nr1쎯	-8.12351
j쎯vdwy쎯	-8.124
jos쎯	-8.12574
ns쎯	-8.129
pvwx쎯	-8.13174
wdz쎯oc쎯	-8.13235
ywb쎯	-8.13297
uabd쎯	-8.13522
kk쎯	-8.1365
zoa쎯	-8.13665
tgva쎯l쎯	-8.13722
ggym쎯jos쎯	-8.13837
fxd쎯	-8.14044
mzv쎯ark쎯	-8.14058
vkm쎯	-8.14117
fuz쎯	-8.1412
j쎯d쎯	-8.14428
ceug쎯	-8.14566
hbz쎯	-8.14862
c쎯nh쎯	-8.15023
mh쎯	-8.15038
vao쎯	-8.15061
bdrw쎯	-8.15308
co쎯	-8.1539
ka쎯fav쎯	-8.15546
idjh쎯	-8.15558
p	-8.15798
ske쎯	-8.15963
ox쎯	-8.16045
tg쎯	-8.16064
fdm쎯ufte쎯	-8.16361
wsb쎯ho쎯	-8.1637
eqg쎯oiad쎯	-8.16495
,nka쎯	-8.16737
쎁쎆	-8.16837
udlk쎯	-8.17122
vfd쎯tgij쎯	-8.17515
beaj쎯	-8.17892
yaj0쎯	-8.17898
pvf쎯l쎯	-8.18111
yod쎯	-8.18174
u	-8.18178
vg쎯	-8.18799
ku쎯rsym쎯	-8.18832
zgp쎯yj쎯	-8.18835
mlka쎯	-8.19105
mbds쎯.	-8.19262
vxi쎯	-8.19487
ufc쎯	-8.19632
lco쎯	-8.19893
kd쎯tk쎯	-8.20045
sy쎯vb쎯	-8.20137
yia쎯	-8.20216
oiqm쎯	-8.20285
cexs쎯	-8.20287
an쎯	-8.20312
wdhb쎯	-8.2041
wai쎯	-8.20446
쎅쎀	-8.20868
skd쎯	-8.21139
me쎯	-8.21204
skw쎯	-8.21222
mbrw쎯	-8.21575
xej쎯	-8.21599
bwz쎯	-8.22274
vfd쎯	-8.2242
sos쎯	-8.22604
edlo쎯	-8.22694
cuc쎯	-8.22729
tdrl1쎯vg쎯	-8.22755
vzj1쎯	-8.22863
쎄쎀	-8.23026
mbrd쎯	-8.231
sa쎯	-8.23136
waz쎯	-8.23184
oy쎯fpd1쎯	-8.23669
kz쎯ya쎯	-8.23835
wbk쎯	-8.2392
vzj1쎯ty쎯	-8.24179
ldoo쎯	-8.24314
edy쎯ob쎯	-8.24443
boyj쎯	-8.2448
).	-8.24516
njf쎯	-8.2474
ry쎯dmi쎯	-8.2478
zza쎯	-8.24817
tgrs쎯	-8.24875
nl쎯rgs쎯	-8.25021
”,	-8.25039
np쎯	-8.25229
baa쎯	-8.25246
plk쎯	-8.25574
sow쎯	-8.25582
nd쎯	-8.25658
mekb쎯idju쎯	-8.257
cdv쎯	-8.25814
nrs쎯	-8.25947
pkq쎯nij쎯	-8.25958
”d쎯	-8.26021
ks쎯	-8.26181
hero쎯nm쎯	-8.26361
sm쎯	-8.27156
”、“	-8.27175
obb쎯	-8.27327
zwb쎯oaj쎯	-8.27381
epf쎯	-8.27386
mdl쎯	-8.27577
c쎯	-8.2761
zx쎯ewj쎯	-8.27749
jc쎯ldod쎯	-8.27801
wsa쎯	-8.27864
sj쎯k쎯	-8.28483
lx쎯	-8.28552
쎁쎈	-8.28581
pm쎯	-8.28848
kion쎯	-8.28925
wr쎯ku쎯	-8.29219
m	-8.29276
paj0쎯,	-8.2928
uag쎯	-8.29321
nl쎯yy쎯	-8.29323
ckb쎯sor쎯	-8.29425
tirg쎯	-8.29621
foz쎯	-8.29842
eof쎯	-8.29969
bil쎯	-8.30121
myz쎯bd쎯	-8.30297
brt쎯	-8.30361
odyk쎯sf쎯	-8.30529
dsz쎯	-8.30597
skx쎯	-8.3078
edlc쎯	-8.31026
fxo쎯	-8.31096
r	-8.31136
fy쎯	-8.31245
njf쎯dwm쎯	-8.31815
oaj쎯nmi쎯	-8.31827
dyx쎯	-8.3192
ys쎯	-8.32264
mblk쎯nmi쎯	-8.32372
zmyi쎯	-8.32395
sjl쎯zym쎯	-8.32441
suk쎯	-8.32979
rh쎯	-8.32987
sjy0쎯oy쎯	-8.3311
haw쎯	-8.3317
kiym쎯	-8.33198
wr쎯	-8.33352
ry쎯	-8.33573
edfd쎯	-8.33616
gi쎯ld쎯	-8.33707
i	-8.33762
sor쎯	-8.33771
bdzs1쎯wdgq0쎯	-8.34076
zk쎯	-8.34189
rll쎯	-8.34228
drk1쎯yybd쎯	-8.3426
makr쎯	-8.34366
cirh쎯	-8.34497
nir쎯	-8.34671
lw쎯	-8.3468
bo쎯	-8.34703
,ec쎯	-8.34776
od쎯jl쎯	-8.34782
pdxs쎯	-8.34833
pdao쎯	-8.34967
wbi쎯	-8.35073
soo쎯wxl쎯	-8.35152
ufoy쎯	-8.35258
쎁쎄	-8.35383
mb쎯	-8.35944
ydat쎯	-8.36266
ebm쎯rsj쎯	-8.36327
쎆쎀	-8.36388
sug쎯	-8.36525
kd쎯,	-8.36568
gds1쎯	-8.36602
smr쎯vsm쎯	-8.3684
tgxj쎯	-8.36848
sk쎯	-8.36895
vp쎯	-8.37134
fx쎯	-8.37407
bds쎯	-8.37458
zbj쎯	-8.37729
llg쎯	-8.37751
s	-8.37813
m쎯nt쎯	-8.37925
jo쎯	-8.38311
bdol쎯hkd쎯	-8.38444
b	-8.38538
fyo쎯	-8.3854
kom쎯	-8.38549
ncq0쎯	-8.38558
zizi쎯np쎯	-8.39047
so쎯vdwy쎯	-8.39126
wdrr쎯	-8.39151
mblk쎯mbjw쎯	-8.39259
xju쎯	-8.39406
vkl쎯	-8.39818
vmy쎯he쎯	-8.40001
wdel쎯	-8.40054
si쎯	-8.4006
,gdq쎯	-8.40298
elgd쎯	-8.40428
soo쎯	-8.40531
q	-8.40555
alb쎯	-8.40568
tgob1쎯	-8.40639
owy쎯	-8.40669
od쎯yh쎯	-8.40922
wdtg쎯	-8.4101
cgi쎯	-8.41062
la쎯	-8.41288
gbs쎯	-8.41498
maj쎯	-8.41625
a쎯mfji쎯	-8.41872
tb쎯	-8.41989
쎂쎅	-8.42072
fq쎯fhe쎯	-8.42167
hma1쎯vdwy쎯	-8.42224
rid쎯ckb쎯	-8.42437
jag쎯	-8.42708
ll쎯hdko쎯	-8.42831
ev쎯	-8.42849
rly쎯	-8.42996
쎁쎃	-8.43099
쎁쎀쎀	-8.43312
～	-8.43333
zlo쎯	-8.43343
ecb쎯fav쎯	-8.4342
vsm쎯	-8.43741
.oz쎯yaj1쎯	-8.43747
jb쎯	-8.43798
fq쎯frz쎯	-8.43945
bdzw쎯bdzy쎯	-8.44092
dm쎯	-8.44138
ko쎯vdwy쎯	-8.44271
kro쎯	-8.44319
ymo0쎯	-8.44384
j쎯ldgd쎯	-8.44596
v쎯gdq쎯	-8.44616
nxby쎯tgxk쎯	-8.44832
vpz쎯	-8.44892
sya쎯	-8.44957
a쎯pq쎯	-8.44993
heoo쎯	-8.45028
od쎯yh쎯aim쎯tgnd쎯	-8.45088
bdko쎯	-8.45216
ldod쎯woj쎯	-8.45298
ar쎯	-8.45457
쎁쎇	-8.45473
xe쎯	-8.45488
odmf쎯	-8.45489
rlo쎯cilo쎯	-8.45612
gaj쎯	-8.45669
uaxk쎯	-8.45732
o	-8.45821
t	-8.45872
kib쎯	-8.45921
tgij쎯	-8.45945
dk쎯sjl쎯	-8.46031
eyo쎯	-8.46108
ph쎯	-8.46129
ed쎯	-8.46206
fel쎯mbro쎯	-8.46357
ckb쎯	-8.46437
hl쎯	-8.46767
쎈q쎯	-8.46881
edeq쎯	-8.46887
maa쎯	-8.47034
gd쎯aeb쎯	-8.47319
kojb쎯	-8.4753
zw쎯	-8.47894
tgb쎯	-8.48194
yb쎯	-8.48207
xsb쎯	-8.48343
bmm쎯dpw1쎯	-8.48373
sug쎯ku쎯	-8.48381
jl쎯	-8.48404
h쎯su쎯ad쎯	-8.48541
fdor쎯	-8.4867
xl쎯	-8.48931
yj쎯bi쎯	-8.49052
kdmk쎯	-8.49322
kz쎯kskp쎯	-8.49333
yybe쎯	-8.49462
l쎯wm쎯	-8.49508
od쎯dm쎯	-8.49565
yaz쎯	-8.49575
l	-8.49577
nr0쎯vdwy쎯	-8.49633
k	-8.49674
wdtg쎯symy쎯	-8.49681
bsj쎯snd쎯	-8.49796
snk쎯	-8.49839
zni쎯	-8.49965
jdjl쎯	-8.50118
vyo쎯	-8.50123
kal쎯evyy쎯	-8.50143
mmh쎯	-8.50274
h쎯su쎯	-8.50303
oixo쎯	-8.50305
sq쎯	-8.50325
bdzw쎯	-8.50648
ldo쎯sij쎯	-8.50836
쎀	-8.51151
bdod쎯	-8.51233
hdyd쎯	-8.51316
flw쎯	-8.5132
llrs쎯	-8.51324
xrz쎯	-8.51357
ewj쎯	-8.51591
ec쎯j쎯	-8.51873
쎈쎀	-8.51956
ji쎯	-8.52135
fki쎯	-8.52162
uakk쎯	-8.52175
,gl쎯	-8.52194
bi쎯eyd쎯	-8.52368
nel쎯	-8.52517
xbuo쎯	-8.52856
f쎯aks쎯	-8.52885
dw쎯	-8.53013
aim쎯	-8.53353
af쎯	-8.53353
wdrj쎯wm쎯	-8.53388
wa쎯a쎯	-8.53422
fxo쎯dx쎯	-8.53761
mc쎯mbro쎯	-8.53831
mfkd쎯l쎯	-8.54038
—	-8.54097
sy쎯hbi쎯	-8.54268
ec쎯n쎯	-8.54307
wb쎯h쎯	-8.54482
odwg쎯bhj쎯	-8.54534
x	-8.54595
ckv쎯	-8.54602
dsq쎯	-8.54753
wa쎯a쎯.	-8.5481
gj쎯mfjo쎯	-8.54867
fg쎯f쎯	-8.54884
wdml쎯	-8.54977
ray쎯	-8.55243
xmrr0쎯	-8.55458
nyn쎯	-8.55497
ymo0쎯oz쎯wdhb쎯	-8.55554
sed쎯hkd쎯	-8.55662
mami쎯	-8.55681
wdjj쎯	-8.55749
mfz쎯	-8.55782
suf쎯	-8.55843
yh쎯smm쎯	-8.55845
ehz쎯	-8.55902
c	-8.55962
g	-8.56124
dka쎯nmb쎯	-8.56467
aim쎯vzj1쎯	-8.56635
ve쎯	-8.56713
pxo쎯	-8.56721
nrj1쎯	-8.56865
sed쎯mle쎯fq쎯	-8.56888
sol쎯	-8.5689
dkc쎯	-8.56952
anr쎯	-8.57026
wlr쎯	-8.57297
sul쎯ku쎯	-8.57362
zy쎯	-8.57382
nh쎯cirh쎯	-8.57389
kv쎯au쎯	-8.57475
zimo쎯	-8.57524
zsj쎯vsyz쎯	-8.57645
vdp쎯vbi쎯	-8.57699
ggo쎯baa쎯	-8.57753
+	-8.57862
ci쎯	-8.57945
.《	-8.58004
gdq쎯uag쎯	-8.58071
ski1쎯	-8.58088
:“	-8.58189
rkv쎯	-8.582
tgnd쎯	-8.58259
ufgd쎯aeb쎯	-8.58327
aijr쎯	-8.5848
wdtg쎯c쎯	-8.58504
nlug쎯	-8.5863
mfk쎯ve쎯	-8.58685
vdwy쎯fsv쎯	-8.58812
yya쎯zx쎯	-8.58955
qd쎯	-8.58974
kskp쎯jnj쎯	-8.59089
tgh쎯	-8.59317
fekg쎯hbi쎯	-8.59491
tj쎯kag쎯	-8.597
odyk쎯nmi쎯	-8.59748
llrc쎯	-8.59816
fmzy쎯	-8.59869
ciq쎯mamb쎯	-8.59925
wsb쎯	-8.60035
ai0쎯	-8.60216
?	-8.60337
maj쎯sjo쎯	-8.60489
slg쎯	-8.6052
,na쎯	-8.60636
,kiym쎯,	-8.60673
ciz쎯	-8.60719
waj쎯	-8.60756
wi쎯	-8.6086
ygqw쎯	-8.60921
쎂쎄	-8.61021
ooj쎯	-8.61056
rd쎯	-8.61224
kdxb0쎯	-8.61229
smm쎯	-8.61267
ux쎯	-8.61333
od쎯ja쎯	-8.61345
w	-8.61445
mfte쎯gae쎯	-8.61552
um쎯zq쎯	-8.61572
yom쎯	-8.61642
hini쎯	-8.61728
vdwy쎯ob쎯	-8.61787
gc쎯	-8.61909
kiw쎯	-8.61934
ehe쎯	-8.61968
gdw쎯hbkd쎯	-8.62062
biym쎯	-8.62101
xn쎯	-8.6213
cejo쎯ku쎯	-8.62138
o쎯od쎯	-8.62311
rgs쎯	-8.62365
xbby쎯su쎯	-8.62574
ox쎯jjj쎯	-8.62673
zrh쎯	-8.62773
mwl쎯	-8.62816
ufte쎯	-8.62838
k쎯drk1쎯	-8.62872
vld쎯	-8.63052
pl쎯	-8.63145
ymo1쎯	-8.63346
......	-8.63359
nl쎯bdzy쎯	-8.63429
yav쎯mc쎯	-8.63483
jk쎯	-8.6349
fds쎯mfz쎯ob쎯	-8.63558
kcx쎯gd쎯	-8.6357
nm쎯	-8.63589
zq쎯ym쎯	-8.63639
ld쎯kd쎯	-8.63687
ucu쎯	-8.63705
tgxk쎯	-8.63795
wdf쎯	-8.63871
uclk쎯	-8.64117
eaqm쎯	-8.64247
bdzy쎯mbro쎯	-8.64275
bsj쎯ucnd쎯	-8.64321
odwg쎯yybd쎯	-8.64359
sow쎯o쎯	-8.64578
so쎯nm쎯	-8.64626
zk쎯qry쎯	-8.64749
myz쎯cd쎯	-8.64766
zxk쎯	-8.64821
kojr쎯	-8.64973
mbrw쎯dxbi쎯	-8.65097
,kia쎯	-8.65181
,n쎯	-8.65182
aep쎯h쎯	-8.65222
쎂쎀쎀	-8.65301
uag쎯mzv쎯	-8.65383
mazy쎯	-8.65397
j쎯,	-8.65452
bjv쎯	-8.65497
nbd쎯	-8.65543
nfa쎯szq쎯	-8.65668
zizi쎯np쎯wsb쎯	-8.65853
ark쎯	-8.6586
a쎯ib쎯	-8.66033
heor쎯	-8.66133
ko쎯s쎯	-8.66233
pfp쎯	-8.66359
snr쎯	-8.6649
setg쎯	-8.66633
,ec쎯j쎯	-8.66908
kiw쎯flw쎯	-8.67304
rj쎯ufgd쎯	-8.67331
bh쎯	-8.67341
nak쎯	-8.67485
ufzm쎯dx쎯	-8.67529
kc쎯kojl0쎯	-8.67668
gae쎯woqy쎯p쎯	-8.67689
hexb쎯	-8.67719
mev쎯	-8.67756
naj쎯	-8.67796
d쎯a쎯mfji쎯	-8.67827
lk쎯nd쎯	-8.67893
xmst쎯	-8.68022
ucnd쎯	-8.68041
ll쎯hdko쎯km쎯	-8.6821
nfa쎯mzv쎯	-8.68242
edx쎯	-8.68287
ufxj쎯	-8.68294
m쎯jc쎯	-8.6842
nl쎯yy쎯d쎯	-8.68531
vb쎯oixb1쎯	-8.68561
qyx쎯	-8.68592
oi쎯aim쎯	-8.6861
fvxb쎯	-8.68697
nne쎯	-8.68749
kbx쎯	-8.6885
vyf쎯	-8.68853
bg쎯	-8.69055
bdnw쎯oda쎯	-8.69154
jcv쎯	-8.69164
xmh쎯	-8.69177
djj쎯nmi쎯	-8.69324
mbbd쎯ryi쎯	-8.69429
쎉q쎯	-8.69494
vsn쎯	-8.69522
jhx쎯	-8.69559
쎁쎀q쎯	-8.69607
z쎯mc쎯	-8.69651
fb쎯	-8.69788
h쎯biym쎯	-8.69793
pyqj쎯	-8.69799
mc쎯,	-8.69808
al쎯o쎯	-8.69831
uoai쎯	-8.69935
yzi쎯	-8.7002
tg쎯hdko쎯	-8.70335
ke쎯	-8.7044
wdol쎯	-8.70451
bxgd쎯	-8.70451
yako쎯	-8.70606
mc쎯ad쎯	-8.70641
sul쎯rsym쎯	-8.70694
b쎯sy쎯	-8.70724
au쎯zsj쎯	-8.7087
dk쎯	-8.70887
sq쎯symy쎯	-8.71078
ecb쎯gzz쎯	-8.71126
nll쎯	-8.71201
xki쎯	-8.71207
soo쎯vs쎯	-8.71209
jjj쎯mfji쎯	-8.71328
ndgo쎯	-8.71385
z쎯c쎯	-8.71429
mfuo쎯	-8.71475
ik쎯	-8.71516
tg쎯fj쎯	-8.71658
yaj1쎯	-8.7168
k쎯a쎯o쎯	-8.71687
nmi쎯l쎯	-8.71697
ch쎯ecq1쎯	-8.71737
gai쎯	-8.71754
n	-8.71769
sok쎯	-8.71811
qm쎯	-8.71903
)、	-8.72044
zbj쎯oaj쎯	-8.72094
sr쎯	-8.72144
쎂쎂	-8.72206
bbd쎯	-8.72343
aii쎯hbi쎯	-8.72361
odyk쎯	-8.72369
nb쎯zs쎯	-8.72511
fv쎯	-8.72532
elgd쎯jc쎯	-8.7265
rly쎯tdxg쎯	-8.72672
yj쎯oda쎯	-8.72715
--	-8.72832
azy쎯	-8.72877
aks쎯	-8.72922
syy1쎯	-8.7296
z쎯cirh쎯	-8.73004
odw쎯	-8.73024
tg쎯vdnd쎯	-8.73189
skf0쎯mfjc쎯	-8.73463
tdrj쎯srk0쎯	-8.73717
bzy1쎯	-8.73757
mbko쎯	-8.73773
vea쎯	-8.73851
sod쎯saii쎯	-8.73876
qsoo쎯	-8.73924
kdmk쎯tgf쎯	-8.73927
k쎯kia쎯	-8.74001
vbi쎯eyo쎯	-8.7419
la쎯uaqk쎯	-8.74216
oz쎯jirj쎯	-8.74396
yav쎯	-8.74406
sor쎯so쎯	-8.74438
wsz쎯	-8.7457
nkkv쎯	-8.74592
ggky쎯	-8.74638
bu쎯	-8.74748
n쎯nt쎯	-8.74871
쎇쎀	-8.74933
nmi쎯bm쎯	-8.74955
ago쎯	-8.75003
saii쎯	-8.75066
osf쎯	-8.75067
zimo쎯oda쎯	-8.75209
fav쎯xyis쎯	-8.75222
qe쎯	-8.75395
nxm쎯	-8.75585
fe쎯	-8.75587
akk쎯	-8.75648
vejq쎯edl쎯	-8.75721
p쎯gdq쎯	-8.75722
elgd쎯sbx쎯	-8.75764
all쎯	-8.75768
qsv쎯	-8.75822
ce쎯	-8.75889
joa쎯	-8.75903
aim쎯mfld쎯	-8.7595
uagw0쎯	-8.76132
yq쎯	-8.76256
kdml0쎯iak쎯	-8.76386
l쎯ad쎯	-8.76481
쎃q쎯	-8.76495
yd쎯	-8.76562
ho쎯bhj쎯	-8.76842
bdn쎯	-8.76915
rza쎯	-8.76961
fsz쎯	-8.7703
ae쎯xe쎯	-8.77165
gae쎯woqy쎯mc쎯	-8.77246
gi쎯ufzp쎯	-8.77549
idj쎯	-8.77559
》mbds쎯	-8.77805
gb쎯	-8.77849
bdzs1쎯	-8.78022
rhyk쎯	-8.78131
sy쎯gj쎯	-8.78275
mfym쎯	-8.78285
qdos쎯fr쎯	-8.7839
shqc쎯	-8.78507
odsx쎯	-8.78528
xyis쎯akz쎯	-8.78633
yjf쎯	-8.78646
vsyz쎯	-8.78667
sf쎯tc쎯	-8.78678
jm쎯	-8.78684
d쎯a쎯o쎯	-8.78769
wdrj쎯	-8.78778
sn쎯	-8.78806
ejmf쎯	-8.78859
dmh쎯	-8.78981
wdgq0쎯tgby쎯	-8.79143
odxj쎯	-8.79155
ruc쎯	-8.79287
wbi쎯tk쎯	-8.79295
tdow쎯	-8.79307
aed쎯sjy0쎯	-8.79577
hero쎯	-8.79805
boos쎯	-8.79865
y	-8.79943
uakk쎯wxl쎯	-8.80121
쎃쎅	-8.80251
edfd쎯baa쎯	-8.80324
nmy쎯	-8.80326
oiad쎯hbkd쎯	-8.80414
dsz쎯ja쎯	-8.80428
vdwy쎯mfte쎯	-8.80481
oc쎯gj쎯	-8.80568
hbmo쎯	-8.80672
od쎯mbro쎯	-8.80697
tg쎯hdko쎯km쎯	-8.80713
qi쎯su쎯	-8.80772
wdtg쎯xo쎯	-8.80879
mbrd쎯mc쎯	-8.81013
kag쎯	-8.81041
쎁q쎯	-8.81114
nnk쎯	-8.81149
sno쎯	-8.8118
.ss쎯	-8.81227
rr쎯heoo쎯	-8.81239
pxo쎯oi쎯	-8.81405
ufsu쎯	-8.81415
xj쎯	-8.81603
baz쎯	-8.81626
fjw쎯	-8.81665
ia쎯	-8.81704
zso쎯	-8.81708
mc쎯gdsw쎯	-8.81734
sjk쎯	-8.8176
zry쎯	-8.81913
va쎯edl쎯	-8.81925
wdd쎯	-8.81931
wdb쎯nb쎯	-8.82101
쎃쎂	-8.82167
fdyy쎯	-8.82199
bmm쎯fdm쎯	-8.82256
*	-8.82296
edl쎯sjk쎯	-8.82325
sed쎯	-8.82444
mbod쎯	-8.82561
ucgd쎯fsv쎯	-8.82586
cirx쎯	-8.82637
kskp쎯	-8.8284
yn쎯	-8.82845
qbz0쎯	-8.82897
tdj쎯	-8.82906
pld쎯	-8.82977
nka쎯	-8.82983
xjb쎯	-8.82984
edlc쎯dsz쎯	-8.83043
vyi쎯	-8.83129
ob쎯sso쎯	-8.83175
evyy쎯jby1쎯	-8.83203
xek쎯	-8.8327
pa쎯ajl쎯	-8.83281
,aij쎯	-8.83284
vrz쎯	-8.83417
ubi쎯	-8.83421
gdiy쎯	-8.83486
kd쎯ecq1쎯	-8.83565
llow쎯	-8.83659
oel쎯jc쎯	-8.83693
wdz쎯tb쎯	-8.83711
kd쎯nh쎯	-8.83734
ewy1쎯bdzy쎯	-8.83755
k쎯a쎯mfji쎯	-8.83804
,x쎯	-8.83941
cejo쎯	-8.84013
fl쎯uag쎯	-8.84016
tdrl1쎯ufte쎯	-8.84138
ta쎯cizy쎯	-8.84261
edjm쎯	-8.84332
uc쎯	-8.84336
pm쎯jirj쎯	-8.84346
mbrd쎯paj0쎯	-8.84429
qf쎯	-8.84443
,xoy쎯	-8.8458
qqx쎯	-8.84665
eyd쎯	-8.84881
eao쎯ld쎯	-8.8489
mfjc쎯tgxi쎯	-8.84971
clg쎯	-8.84983
zgp쎯az쎯	-8.85023
smi쎯	-8.85076
zzg쎯	-8.85127
쎂쎃	-8.85189
gi쎯zq쎯	-8.85365
gdzn쎯	-8.85515
xmi쎯ad쎯	-8.85575
edjm쎯ajx쎯	-8.85642
ecb쎯b쎯	-8.85707
mfji쎯fel쎯	-8.85769
kkv쎯	-8.85919
,nsu쎯ad쎯	-8.85953
oz쎯jbr쎯	-8.85994
rsym쎯	-8.86025
d쎯“	-8.86062
kcx쎯gd쎯d쎯	-8.86275
kz쎯qso쎯	-8.86333
zizi쎯mc쎯ad쎯	-8.86375
kz쎯wlr쎯	-8.8639
aep쎯hbi쎯	-8.8652
hma1쎯ty쎯	-8.86571
kia쎯ad쎯	-8.86696
skf0쎯	-8.8671
iirz쎯	-8.86736
hma1쎯	-8.86778
쎆q쎯	-8.86897
sjy0쎯tl쎯	-8.86959
wtxi쎯sau쎯u쎯	-8.87039
edjq쎯	-8.87071
wa쎯tk쎯	-8.87107
tg쎯mbj쎯	-8.87116
sbx쎯sa쎯	-8.87323
jdw쎯	-8.87887
hdko쎯tirr쎯	-8.879
vrj쎯	-8.88019
sbm쎯	-8.88077
shb쎯	-8.88275
yybd쎯	-8.88378
ekm쎯	-8.88454
ymo1쎯ee쎯	-8.8861
ceug쎯oaj쎯	-8.88781
tgg쎯	-8.88861
kirj쎯	-8.88957
dqs쎯oi쎯	-8.8906
sy쎯wdzf쎯	-8.89208
le쎯	-8.89349
vbi쎯eyo쎯km쎯	-8.89362
쎉쎀	-8.89483
a쎯tdro쎯	-8.89793
sxo쎯	-8.89833
쎂쎀쎀쎆mamb쎯	-8.90068
aju쎯	-8.90107
쎄쎅	-8.9012
pa쎯xmi쎯	-8.90157
neo쎯	-8.9019
ji쎯cdv쎯	-8.90191
ufzp쎯	-8.90204
쎂쎀쎀쎅mamb쎯	-8.90285
ewf쎯	-8.90312
vab쎯	-8.90355
쎂쎆	-8.9048
jhx쎯sol쎯	-8.90579
rz쎯	-8.9059
non쎯nel쎯	-8.90632
veo쎯	-8.90708
~	-8.90791
nsc쎯	-8.9081
zo쎯i쎯	-8.90824
fj쎯edl쎯	-8.90825
vu쎯	-8.90882
cexg0쎯	-8.90903
gdxs쎯	-8.90931
r쎯mfji쎯	-8.91028
sug쎯mc쎯	-8.91035
yms쎯ec쎯	-8.91072
yu쎯	-8.91106
zizi쎯c쎯	-8.91129
0쎯	-8.91142
쎂쎈	-8.91156
tirq쎯	-8.9117
ufc쎯wsk쎯	-8.91226
haz쎯	-8.91287
jddm쎯yod쎯	-8.91329
ujd쎯	-8.91409
bju쎯	-8.91479
ngr쎯	-8.91479
jp쎯	-8.91541
qso쎯	-8.91565
xaj쎯	-8.91701
ugi쎯	-8.91726
suwl쎯	-8.91732
km쎯zym쎯	-8.91742
dn쎯tg쎯	-8.91827
bmy쎯k쎯	-8.91837
odjy쎯	-8.91846
c쎯gdq쎯	-8.91849
zx쎯dsw쎯	-8.91904
som쎯kf쎯	-8.92063
쎄q쎯	-8.92185
gtg쎯	-8.92191
vb쎯jc쎯	-8.92245
mekb쎯f쎯	-8.92256
iiko쎯	-8.92366
wsl쎯	-8.92447
sc쎯db쎯	-8.92451
oai쎯	-8.92656
sy쎯nlj쎯	-8.9272
miy쎯	-8.92889
rf쎯nm쎯	-8.92921
woj쎯	-8.93049
la쎯fb쎯	-8.93095
oiom쎯	-8.93134
쎇q쎯	-8.93176
쎂쎀쎀쎈mamb쎯	-8.93312
pvyz쎯	-8.93402
ii쎯	-8.93436
sy쎯nak쎯	-8.93488
bi쎯nmi쎯.	-8.93509
fq쎯uag쎯	-8.9355
tff쎯	-8.93578
i쎯d쎯	-8.93598
vdp쎯vbi쎯km쎯	-8.9361
ngr쎯pdel쎯	-8.93616
wdz쎯oizm쎯	-8.9383
a쎯edlc쎯	-8.93876
qdxs쎯	-8.93945
쎂쎁	-8.94074
qi쎯	-8.9413
oisc쎯	-8.94226
nar쎯	-8.94227
,zj쎯	-8.94376
tgki쎯	-8.94473
mbjw쎯	-8.94523
wdot쎯	-8.94529
v쎯	-8.94586
eb쎯	-8.94598
wdjg쎯	-8.94612
bdzw쎯oi쎯	-8.94653
》(	-8.94662
쎁쎂q쎯	-8.94718
rjg쎯	-8.94755
nbb쎯	-8.94775
xyis쎯vb쎯	-8.94899
wdzf쎯	-8.95028
bizi쎯	-8.95213
jc쎯ldod쎯ri쎯	-8.95222
.n쎯	-8.95401
ggym쎯	-8.95459
oc쎯cdv쎯	-8.95507
lbb0쎯	-8.95568
obb쎯uanw쎯	-8.95582
eg쎯	-8.95582
bb쎯	-8.95686
kr쎯	-8.95747
yi쎯k쎯	-8.95751
vdwy쎯ggym쎯	-8.95914
od쎯d쎯	-8.96121
cirh쎯gj쎯	-8.96182
zh쎯	-8.96291
nsr쎯	-8.96301
btx쎯	-8.96322
hx쎯	-8.96346
od쎯nt쎯	-8.96358
skf0쎯kag쎯	-8.96358
kd쎯kld쎯	-8.96374
bjj쎯	-8.96375
xbkv1쎯	-8.9639
쎂쎀쎀쎇mamb쎯	-8.96461
ybor쎯	-8.9656
bdol쎯fekg쎯	-8.96665
fob쎯vl쎯	-8.96687
heki쎯	-8.96738
zl쎯h쎯	-8.96783
ih쎯	-8.96786
ewa0쎯	-8.96804
j쎯eao쎯	-8.96874
mfjc쎯	-8.96885
nkc0쎯	-8.97021
.ec쎯	-8.9708
mblk쎯t쎯	-8.97098
sot쎯	-8.97129
쎁쎉쎉쎈mamb쎯	-8.97142
tdkv쎯	-8.97164
odwg쎯	-8.97205
sow쎯ib쎯	-8.97206
e쎯zyy쎯	-8.97226
sme쎯	-8.97231
zyy쎯	-8.97313
qs쎯	-8.97333
tb쎯oml쎯	-8.97359
uhg쎯	-8.97441
cmf쎯	-8.97458
j쎯nre쎯	-8.97541
obk쎯	-8.9761
nhk쎯	-8.97706
sow쎯mfji쎯	-8.97744
wdb쎯	-8.9779
tdrl1쎯sug쎯	-8.97803
sq쎯gdq쎯	-8.97867
jduy쎯	-8.97936
symy쎯	-8.98017
fj쎯tirr쎯	-8.98041
fsv쎯	-8.98067
sjl쎯mbds쎯	-8.98305
ekg쎯	-8.98369
pji쎯	-8.98537
n쎯d쎯	-8.98734
ky쎯	-8.98788
mfrk0쎯u쎯	-8.98823
wdo쎯	-8.98985
lk쎯nd쎯km쎯	-8.99015
fex쎯	-8.99057
oy쎯jk쎯	-8.99076
odnd쎯zyj쎯	-8.99108
nsos쎯	-8.99176
j쎯hma1쎯	-8.99217
zq쎯rjr쎯	-8.993
qb쎯	-8.99304
vmi쎯	-8.994
cds쎯	-8.99439
쎂q쎯	-8.99496
fjai쎯	-8.99509
tdrl1쎯	-8.99541
wr쎯fds쎯	-8.99542
bdzw쎯heqk쎯	-8.99603
dwm쎯	-8.99666
,tird쎯	-8.99759
rsv쎯	-8.99803
psk쎯	-8.99831
eej쎯	-8.99967
non쎯	-9.00053
fgi쎯	-9.00072
tded쎯	-9.00088
sow쎯a쎯	-9.00146
》,	-9.00178
dn쎯	-9.00185
jal쎯	-9.00201
au쎯sy쎯uf쎯	-9.00462
쎂쎀쎀쎀mamb쎯	-9.00472
seg쎯	-9.00805
vsc쎯	-9.00808
ffr쎯	-9.00831
uouo쎯	-9.00898
va쎯tirr쎯	-9.00962
ewj쎯pkq쎯	-9.0099
va쎯edl쎯km쎯	-9.01054
so쎯kq쎯	-9.01071
od쎯ufgd쎯	-9.01078
qu쎯	-9.01108
ufgd쎯aeb쎯:	-9.01172
vhv쎯	-9.01176
쎅q쎯	-9.01178
xsig쎯	-9.01188
glds쎯	-9.01229
쎅쎀쎀	-9.01248
oy쎯u쎯	-9.01288
eey쎯	-9.0137
nlk쎯	-9.0139
jjj쎯pdel쎯	-9.01395
agd쎯vxbd쎯	-9.01412
kld쎯	-9.01653
ybz쎯	-9.01771
oc쎯sjy0쎯	-9.01828
hew쎯ze쎯	-9.01875
ebkv쎯	-9.01937
edwz쎯	-9.01981
nmi쎯wdgq0쎯	-9.01997
h쎯jl쎯	-9.02182
sjwa쎯	-9.02217
쎂쎀쎀쎂mamb쎯	-9.02241
sxo쎯zmya쎯d쎯	-9.02248
zgp쎯	-9.02264
sm쎯oda쎯	-9.02489
gx쎯	-9.0258
ihku쎯	-9.0259
u쎯sc쎯	-9.02666
vkl쎯t쎯	-9.02721
cirh쎯c쎯	-9.02756
sjqu쎯	-9.02841
da쎯mbjw쎯	-9.02865
sod쎯u쎯	-9.02867
wa쎯a쎯,	-9.02891
wdlc쎯	-9.02914
rd쎯skb쎯	-9.0317
ob쎯jl쎯	-9.03198
kiaw쎯	-9.03226
bi쎯nmi쎯bm쎯	-9.03232
d쎯z쎯xe쎯	-9.03247
majk쎯	-9.03467
nxs쎯	-9.03485
fsz쎯wz쎯	-9.03495
jdej쎯	-9.03531
쎁쎁q쎯	-9.03597
yrm쎯	-9.03639
kz쎯vg쎯	-9.03694
>	-9.03724
vejq쎯tirr쎯	-9.03819
vsc쎯qq쎯	-9.03933
,gi쎯	-9.04098
wb쎯oc쎯	-9.04178
fu쎯	-9.04181
shb쎯xo쎯	-9.04204
ecb쎯pa쎯	-9.04212
jc쎯wdgq0쎯zym쎯	-9.04219
zx쎯xo쎯	-9.04276
txl쎯	-9.04287
xsc쎯	-9.04291
bi쎯lco쎯	-9.04323
gdq쎯som쎯	-9.0453
kojr쎯jl쎯	-9.04555
dpd쎯	-9.04556
symy쎯bi쎯	-9.04558
yra쎯	-9.04727
ec쎯wdrr쎯	-9.04847
bwq쎯	-9.04888
nt쎯	-9.04939
vuu쎯	-9.05101
쎂쎀쎀쎉mamb쎯	-9.05108
zxk쎯ryi쎯	-9.05162
cgi쎯njf쎯	-9.05373
bdzs0쎯edl쎯	-9.05447
kku쎯	-9.05542
,odod쎯	-9.05588
kcx쎯sjl쎯	-9.05688
lc쎯	-9.05776
zmxy1쎯ym쎯	-9.05919
mfjo쎯fy쎯	-9.0592
jl쎯bi쎯	-9.05935
uaol쎯	-9.05955
,wdrr쎯	-9.05955
쎁o쎯	-9.05965
sc쎯sos쎯	-9.05985
쎁.	-9.05989
hew쎯dsz쎯	-9.06055
marm쎯	-9.06056
tirr쎯sjk쎯sli쎯	-9.06083
쎂쎀쎀쎀	-9.06334
loa쎯	-9.06372
qyi쎯	-9.06445
qmk쎯	-9.06518
psq쎯	-9.06609
wdtg쎯jhm쎯	-9.0663
ryj쎯	-9.06724
vxr쎯	-9.06764
skq1쎯	-9.06949
tma쎯ta쎯	-9.06967
cmk쎯	-9.07063
myz쎯	-9.07063
ekgb쎯	-9.07114
mbbd쎯idju쎯	-9.07166
xmue쎯ekgl쎯	-9.07187
i쎯vm쎯sli쎯	-9.07214
kku쎯bk쎯	-9.0726
edby쎯	-9.07302
mekb쎯tgg쎯	-9.07319
rhyl쎯kro쎯	-9.07344
evfd쎯	-9.07371
fkwz쎯	-9.07559
dsw쎯mfjc쎯	-9.07561
bdol쎯evyy쎯	-9.07597
lij쎯	-9.07681
vry쎯	-9.07712
쎁쎉쎉쎉mamb쎯	-9.07746
u쎯y쎯	-9.07747
klx쎯	-9.0778
bxi쎯	-9.07819
쎁쎉쎉쎇mamb쎯	-9.07823
uagy쎯	-9.07845
sc쎯nmb쎯	-9.08206
ynd쎯	-9.08229
wsa쎯xbby쎯	-9.08298
ajx쎯ku쎯	-9.08426
kgd쎯	-9.08435
zja쎯rhko쎯	-9.08447
cirh쎯bk쎯	-9.08488
veeq쎯	-9.08493
skx쎯nr0쎯	-9.0855
쎂쎀쎁쎂mamb쎯	-9.08763
gdj쎯	-9.08886
nji0쎯bdnw쎯	-9.08951
쎁쎉쎉쎆mamb쎯	-9.09001
쎂쎀쎀쎁mamb쎯	-9.09007
kdxb1쎯db쎯	-9.09102
pdxs쎯tgva쎯	-9.09151
vl쎯	-9.09233
쎂쎇	-9.09248
bno쎯	-9.09265
fjr쎯	-9.09277
non쎯fr쎯	-9.09311
tg쎯byo쎯	-9.0935
ciyl쎯lcym쎯	-9.0938
ucq쎯tdjr쎯	-9.09387
oy쎯gdli쎯	-9.09598
ed쎯oy쎯	-9.09626
c쎯nmb쎯	-9.09628
uag쎯ad쎯	-9.09634
ped쎯	-9.09687
wlr쎯iikg쎯	-9.09826
nrl쎯	-9.09835
yh쎯tk쎯	-9.09875
nsj쎯	-9.09878
sme쎯r쎯	-9.09904
bdnw쎯iiko쎯	-9.09933
zgp쎯ufzm쎯	-9.10106
rrn쎯	-9.10153
yajl쎯	-9.10278
d쎯mekb쎯f쎯	-9.10288
fsc쎯	-9.10303
ee쎯odjy쎯	-9.1032
tfg쎯	-9.10454
taii쎯	-9.1047
ufzm쎯vdwy쎯	-9.10483
ved쎯	-9.10543
vhm쎯	-9.10663
쎃쎀쎀	-9.10681
uczm쎯	-9.10682
cizy쎯	-9.10814
xkc쎯	-9.10838
ha쎯	-9.10844
bskr쎯	-9.10931
odyk쎯xbby쎯	-9.10937
ufw쎯	-9.10939
bi쎯nmi쎯,	-9.1111
nr0쎯bi쎯	-9.11155
gae쎯z쎯	-9.11176
njf쎯yobv쎯	-9.112
j쎯so쎯	-9.11255
ay쎯bdrd쎯	-9.11345
qyod쎯	-9.11355
llld1쎯	-9.11493
쎃쎆	-9.11552
mbro쎯ckb쎯	-9.11597
쎂쎀쎀쎄mamb쎯	-9.11651
soo쎯kro쎯	-9.11676
myw쎯	-9.11715
ukm쎯	-9.11916
sul쎯jjj쎯	-9.11953
sb쎯	-9.12006
oml쎯	-9.12094
odob쎯	-9.12102
tj쎯	-9.12125
nh쎯ckb쎯	-9.1213
ba쎯b쎯	-9.12159
vbi쎯fj쎯	-9.12177
pvf쎯	-9.12294
ry쎯tb쎯	-9.12316
tdxg쎯wd쎯	-9.12364
gduo쎯	-9.12384
mfjr0쎯	-9.12386
nor쎯	-9.12428
oi쎯u쎯	-9.1251
dyo쎯	-9.12685
wxo쎯	-9.12716
hb쎯odsx쎯	-9.12787
,xs쎯	-9.12885
dwb쎯	-9.12912
wdtg쎯ybk쎯	-9.12961
dqsy쎯	-9.12964
ewj쎯ucnd쎯	-9.12971
ncds1쎯	-9.13046
fff쎯	-9.1309
yrez쎯	-9.13113
horo쎯vv쎯	-9.13145
fdyy쎯gc쎯	-9.13184
xhm쎯	-9.13237
odoo쎯	-9.13272
ecq1쎯tk쎯	-9.13443
b쎯rid쎯	-9.13458
mbbd쎯oai쎯	-9.13477
vv쎯	-9.13545
쎁쎉쎉쎅mamb쎯	-9.13634
fk쎯	-9.13659
nrkw쎯	-9.137
mfl쎯	-9.1375
a쎯boy쎯	-9.13754
er쎯	-9.13788
pvwx쎯hbkd쎯	-9.13859
gd쎯ko쎯	-9.13863
cd쎯o쎯	-9.13886
flkd쎯	-9.13959
cirs쎯	-9.14106
1쎯	-9.14189
bu쎯yj쎯	-9.14198
dcx쎯kskp쎯	-9.14255
wzm쎯	-9.143
fav쎯mfte쎯	-9.14315
,j쎯jc쎯	-9.14403
ufzm쎯wdya쎯	-9.14476
zuz쎯	-9.14557
bhv쎯ho쎯	-9.14604
giw쎯gdq쎯	-9.14634
tc쎯	-9.14823
bdol쎯wd쎯	-9.14881
myz쎯lk쎯	-9.14967
wz쎯ckb쎯	-9.14969
vwo쎯bnd쎯	-9.15055
ux쎯fjw쎯	-9.15057
tg쎯vmw쎯	-9.15093
wwrd쎯	-9.15154
heqk쎯zizi쎯	-9.15317
xju쎯odoo쎯	-9.1533
se쎯	-9.1533
edby쎯jc쎯	-9.15412
쎂쎉	-9.15439
xkc쎯dka쎯	-9.15481
nwl쎯	-9.15512
nmb쎯rsym쎯	-9.15595
nk쎯ryi쎯	-9.15644
hj쎯bm쎯	-9.15648
vea쎯ji쎯	-9.15655
xeo쎯	-9.15771
bjex쎯	-9.1579
wdz쎯oizm쎯km쎯	-9.15811
tdaj쎯	-9.15836
zmzj쎯	-9.15854
,az쎯	-9.15935
ewf쎯eqg쎯	-9.16032
sjl쎯j쎯	-9.16082
hbmo쎯ym쎯ad쎯	-9.16253
kz쎯ym쎯	-9.16255
nl쎯vzj1쎯ho쎯	-9.16344
mbbd쎯jk쎯	-9.16438
jz쎯	-9.16476
ebm쎯	-9.16534
쎂쎀쎀쎃mamb쎯	-9.16602
sjw쎯	-9.16777
zef쎯nfa쎯	-9.16838
vejq쎯tirr쎯km쎯	-9.16869
gak쎯	-9.16875
qq쎯	-9.16897
kojr쎯mfz쎯	-9.16932
vtc쎯	-9.16967
ksk쎯	-9.17124
snd쎯zhy쎯	-9.17187
fjai쎯o쎯	-9.17234
som쎯	-9.17264
nb쎯dpk쎯	-9.17331
ytyt쎯	-9.17525
쎁쎉쎉쎃mamb쎯	-9.17533
syme쎯	-9.17542
jdej쎯wd쎯	-9.17568
nxb쎯	-9.17612
mbro쎯pdel쎯	-9.17617
sau쎯	-9.1772
edy쎯	-9.17787
ggyg쎯tj쎯	-9.17822
wsk쎯zx쎯	-9.18141
fbv쎯	-9.18146
z쎯oi쎯	-9.18176
vxb쎯	-9.1822
쎁쎀쎀쎀	-9.18235
jby1쎯	-9.18288
vwq쎯	-9.18372
md쎯fq쎯	-9.18425
rstd쎯	-9.18443
ewy1쎯	-9.18619
mew쎯	-9.18634
,yi쎯	-9.1865
zs쎯	-9.18663
mbro쎯vs쎯	-9.18663
zw쎯hejc쎯	-9.18758
fjw쎯t쎯	-9.18787
a	-9.18837
vlw쎯	-9.18865
k쎯a쎯wdgq0쎯	-9.189
zs쎯a쎯	-9.18913
odyk쎯mbjw쎯	-9.1894
wr쎯yh쎯	-9.18986
idjh쎯kirj쎯	-9.18999
eao쎯sug쎯kojr쎯	-9.19046
gb쎯gdj쎯	-9.19137
mimo쎯	-9.19149
tfn쎯	-9.19154
nl쎯kia쎯	-9.19281
sjl쎯fjw쎯	-9.19308
sq쎯le쎯	-9.19334
tg쎯gd쎯	-9.19399
rx쎯	-9.19555
mle쎯	-9.19559
vwa쎯	-9.19686
sxb쎯	-9.19739
yrx쎯	-9.1986
xyis쎯syy1쎯	-9.19972
쎂쎀쎁쎀mamb쎯	-9.19978
쎁쎉쎉쎂mamb쎯	-9.19997
dqx쎯	-9.20049
ob쎯sed쎯	-9.20102
vxbd쎯	-9.20105
yty쎯	-9.20152
mfxw1쎯wd쎯	-9.20177
deki쎯fsw쎯	-9.20229
uflc쎯	-9.20253
tdjk쎯	-9.20261
vejq쎯edl쎯km쎯	-9.20304
》.	-9.20363
gne쎯	-9.20418
fbb쎯	-9.20421
miwa쎯oaj쎯	-9.20509
koxb쎯b쎯	-9.20602
horo쎯	-9.20629
xh쎯	-9.20724
쎆쎀쎀	-9.20782
baz쎯shb쎯	-9.20816
mtk쎯	-9.20955
laj쎯	-9.2105
ny쎯	-9.21072
cejo쎯bi쎯	-9.21164
jkk쎯	-9.21205
aek쎯	-9.21263
akm쎯	-9.21327
mekb쎯gd쎯	-9.21348
,lco쎯gdq쎯	-9.21362
dx쎯	-9.21418
fuo쎯	-9.21456
eys쎯	-9.21503
wzm쎯pdgo1쎯	-9.21506
xej쎯yh쎯	-9.21514
lczs쎯bhv쎯	-9.21531
ll쎯fj쎯	-9.21564
frm쎯	-9.21643
,ld쎯kd쎯	-9.2168
vdwy쎯nsu쎯	-9.21707
dvm쎯	-9.21719
aep쎯rjg쎯	-9.21732
vdnd쎯sli쎯	-9.21732
ko쎯kd쎯	-9.21823
》《	-9.21828
wa쎯paj0쎯	-9.22016
udfd1쎯	-9.22036
wdof쎯	-9.22146
njf쎯saii쎯	-9.22444
fsq쎯vdnd쎯	-9.22519
setg쎯bm쎯	-9.22668
qroz쎯	-9.22696
wdtg쎯xo쎯wdhb쎯	-9.227
boyj쎯dsw쎯	-9.22707
vfb0쎯	-9.22799
cexs쎯oiad쎯	-9.22863
ngr쎯dqsy쎯	-9.22942
xmay쎯	-9.22985
ybu쎯fj쎯	-9.23052
sed쎯mle쎯	-9.23119
r쎯o쎯	-9.23151
rre쎯ku쎯	-9.23167
bdko쎯bdkv쎯	-9.23227
edfd쎯mbro쎯owy쎯	-9.23297
ahi쎯vx쎯	-9.23304
쎁쎉쎉쎄mamb쎯	-9.23452
blo쎯	-9.23487
b쎯pdel쎯	-9.23487
kdxl쎯	-9.23509
h쎯kf쎯	-9.23517
oixo쎯r쎯	-9.23546
》k쎯	-9.23566
zj쎯naj쎯	-9.23568
sjya쎯pvwx쎯	-9.23713
dpj쎯vdwy쎯	-9.23861
쎇쎅	-9.23881
=	-9.23939
vsnd쎯	-9.24003
hi쎯	-9.2402
fs쎯jbr쎯	-9.24021
qda쎯	-9.24128
wsa쎯xbby쎯km쎯	-9.24188
z쎯gdli쎯	-9.2419
쎄쎀쎀	-9.2419
vkk쎯	-9.24302
mbjk쎯	-9.24327
ll쎯ho쎯	-9.24355
mftr쎯	-9.24456
edj쎯nh쎯	-9.24521
mfjo쎯	-9.24551
rsj쎯mfrk0쎯	-9.24556
dk쎯mev쎯	-9.24604
r쎯mamb쎯	-9.24664
vpy쎯	-9.24785
'	-9.24832
mc쎯odjy쎯	-9.24838
tgs1쎯gdsw쎯	-9.24843
drl쎯	-9.24918
쎃쎈	-9.24935
bmu쎯	-9.24956
boid쎯	-9.25052
au쎯brt쎯	-9.25067
bdzw쎯l쎯	-9.2512
sxy쎯	-9.25212
io쎯	-9.25269
bbjj쎯	-9.25352
uowm쎯	-9.25401
,p쎯zo쎯	-9.25453
whi쎯	-9.25476
oos쎯	-9.25485
odoo쎯r쎯	-9.25529
eheo쎯	-9.25536
scq쎯	-9.25581
ldod쎯sjy0쎯	-9.25604
ehw쎯	-9.25771
wgs쎯zizi쎯	-9.25815
vl쎯kak쎯	-9.2583
mie쎯	-9.25999
mfr쎯bdzy쎯	-9.26109
rlo쎯	-9.26153
gae쎯woqy쎯ywb쎯	-9.26321
ldkd쎯	-9.26356
ymo0쎯oz쎯	-9.26455
bdkv쎯nl쎯	-9.26456
pjl쎯	-9.26458
jd쎯u쎯	-9.26467
miz쎯	-9.26668
zl쎯oaj쎯	-9.26682
gi쎯ld쎯d쎯	-9.26743
y쎯rly쎯	-9.26766
zimo쎯ehz쎯	-9.26844
qf쎯bwz쎯	-9.26981
gdq쎯ucl쎯	-9.27026
fds쎯xbkv0쎯xmi쎯a	-9.27033
snds쎯	-9.27094
h쎯ch쎯	-9.27134
a쎯hdyd쎯	-9.27138
ri쎯mfte쎯	-9.27211
earu쎯	-9.27231
bi쎯mfjc쎯kal쎯	-9.27462
mblk쎯wd쎯	-9.27495
vqj쎯	-9.27548
njf쎯db쎯	-9.27573
u쎯a쎯nfa쎯d쎯	-9.27583
.c쎯nmb쎯	-9.27594
usj쎯	-9.27602
zs쎯sed쎯	-9.27607
jiw쎯	-9.27608
zo쎯bdkv쎯	-9.27711
ckb쎯odxw쎯	-9.27711
tb쎯le쎯	-9.27712
majk쎯zq쎯	-9.27853
eos쎯	-9.27922
mblk쎯jjj쎯	-9.2807
xmue쎯	-9.28162
wxl쎯ns쎯	-9.28192
bm쎯,	-9.28231
sl쎯fk쎯	-9.28265
쎄쎈	-9.28425
dk쎯zizi쎯	-9.2845
akw쎯	-9.28462
xis쎯	-9.28676
tgf쎯	-9.28733
fg쎯aks쎯	-9.28829
jyms쎯	-9.28833
gdq쎯fq쎯	-9.2889
rs쎯	-9.28944
쎃쎄	-9.2895
va쎯tirr쎯km쎯	-9.28956
cxi쎯cslz쎯	-9.29033
mbrd쎯bdnw쎯d쎯	-9.29095
vl쎯shb쎯	-9.29198
yybd쎯vwa쎯	-9.29315
njb쎯	-9.29364
fob쎯fk쎯	-9.29429
sjl쎯fs쎯	-9.29529
zmzy쎯	-9.29535
rxw쎯	-9.29695
a쎯rf쎯	-9.29732
,zo쎯yms쎯	-9.29745
lb쎯ryi쎯	-9.29746
gkm쎯	-9.29782
ci쎯waj쎯d쎯	-9.29804
ffx쎯	-9.29808
,alb쎯	-9.29883
so쎯eyd쎯	-9.29897
ajk쎯sc쎯nmb쎯	-9.29915
uanw쎯jirj쎯	-9.2999
miwa쎯	-9.29999
zizi쎯mc쎯,	-9.30047
(odsx쎯	-9.30085
hdko쎯edl쎯	-9.30121
,edjm쎯	-9.30123
kojm쎯	-9.30184
xms쎯ds쎯	-9.30344
rki쎯	-9.30359
tdrl1쎯pa쎯	-9.30394
dgh쎯	-9.30437
lcym쎯	-9.30459
ggnk쎯ufte쎯	-9.30597
rr쎯wdol쎯	-9.30609
ceug쎯mzv쎯	-9.3062
ciz쎯pdel쎯	-9.30654
wb쎯ucu쎯	-9.30911
ersw쎯	-9.30937
wh쎯ajx쎯	-9.3094
vmr쎯	-9.30968
gdiy쎯g쎯	-9.30969
쎆쎄	-9.30996
cb쎯	-9.31004
obd쎯	-9.31062
sjy0쎯yod쎯	-9.31138
bilo쎯edgs쎯	-9.31175
ebm쎯nmi쎯	-9.31306
kcx쎯nbb쎯	-9.31323
tb쎯rki쎯	-9.31347
쎃쎇	-9.3135
tdrx쎯	-9.31388
arsr쎯	-9.31392
c쎯g쎯	-9.3143
h쎯bmy쎯	-9.31436
xhb쎯	-9.31495
bskr쎯ldod쎯	-9.31618
dsw쎯mfjc쎯j쎯	-9.31621
csc쎯	-9.31624
oojr0쎯	-9.31642
zni쎯dwm쎯	-9.31679
mfzn쎯	-9.31765
ajl쎯	-9.31793
mfya쎯	-9.31934
nmb쎯naj쎯	-9.31972
쎆쎅	-9.31997
qyx쎯tb쎯	-9.32
yj쎯yji쎯	-9.32079
odm쎯	-9.32084
heqk쎯oda쎯	-9.32174
dmn쎯	-9.32221
nsos쎯jjg쎯	-9.32232
zizi쎯mc쎯	-9.32244
ldod쎯ewa0쎯edj쎯	-9.32249
:쎁	-9.32266
-쎁	-9.32268
ed쎯bd쎯	-9.32372
foy쎯	-9.32392
bdzs1쎯tl쎯	-9.32424
tirk쎯	-9.32521
jilw쎯	-9.32534
shv쎯	-9.32613
fj쎯sjy0쎯	-9.32818
쎃쎃	-9.32908
mfz쎯jl쎯	-9.3309
ngs쎯	-9.33125
mfmw쎯	-9.33191
qae쎯	-9.3321
.wdrr쎯	-9.33231
,l쎯	-9.33352
kz쎯smi쎯	-9.33368
vm쎯dgx쎯	-9.33468
zmzj쎯zrt쎯	-9.33471
fow1쎯	-9.33497
rjrd쎯yn쎯	-9.33514
arh쎯	-9.33524
koxb쎯nh쎯	-9.33543
hdko쎯sy쎯	-9.33553
mac쎯	-9.33559
koxb쎯kd쎯	-9.33597
vk쎯	-9.33603
gd쎯kak쎯	-9.33618
oy쎯pji쎯	-9.33636
’	-9.33715
,paj0쎯	-9.33809
eao쎯mfj쎯jc쎯	-9.33817
cs쎯uf쎯	-9.33842
,wtxi쎯	-9.33846
bimo쎯	-9.33866
zgp쎯baz쎯	-9.33878
exb쎯	-9.33937
zmc쎯	-9.33962
zo쎯ai1쎯	-9.33968
mmg쎯	-9.33968
zizi쎯ja쎯	-9.33988
xbby쎯h쎯	-9.34092
jo쎯gdq쎯	-9.34359
fl쎯x쎯	-9.34407
kaa쎯	-9.34409
fekg쎯	-9.34521
쎈쎀쎀	-9.34578
mfte쎯vdwy쎯ywb쎯	-9.34585
wsuc쎯	-9.34592
oixb0쎯	-9.34601
쎅쎅	-9.3463
ey쎯la쎯	-9.3468
r쎯tdro쎯	-9.34694
uory쎯	-9.34707
idjh쎯rx쎯	-9.34715
mffw쎯	-9.3473
skw쎯gd쎯mfkd쎯	-9.34741
obo쎯	-9.34743
oz쎯eao쎯	-9.34801
ggnk쎯ckb쎯	-9.34855
vwa쎯zizi쎯	-9.34879
surt쎯	-9.34998
sf쎯ybc쎯	-9.35044
zgp쎯yj쎯bi쎯nmi쎯,	-9.3505
bmya쎯	-9.35149
,yi쎯k쎯	-9.35235
bk쎯evyy쎯	-9.35259
쎁쎉쎈쎄mamb쎯	-9.35284
wdtg쎯l쎯	-9.35321
eki쎯	-9.35366
sc쎯tel쎯	-9.35397
hma1쎯ezr쎯	-9.35523
<	-9.35528
udaj쎯	-9.35529
cirh쎯vwa쎯	-9.35548
tgby쎯	-9.35575
xoy쎯aij쎯	-9.35671
uef쎯	-9.35693
sjwg쎯	-9.35934
nf쎯tlf쎯	-9.35957
a쎯mamb쎯	-9.35957
ai1쎯,	-9.36022
fvr쎯	-9.36222
ryi쎯pfp쎯	-9.36289
c쎯rjg쎯	-9.36296
쎄쎂	-9.36314
h쎯fav쎯	-9.36687
gbs쎯ym쎯	-9.36747
,sc쎯f쎯	-9.36773
wdtg쎯ym쎯	-9.36842
mfld쎯hkd쎯	-9.36919
no쎯	-9.36966
fj쎯wdz쎯	-9.36991
sso쎯	-9.36999
k쎯j쎯jc쎯	-9.37018
쎃쎁	-9.37019
a쎯zym쎯	-9.37019
nxma쎯	-9.3703
);	-9.37033
ufzm쎯kak쎯	-9.37048
ns쎯jaz쎯	-9.37063
zb쎯ryi쎯	-9.37099
jee쎯	-9.37173
dnk쎯dcx쎯	-9.37222
ko쎯ho쎯	-9.37289
、j쎯jc쎯	-9.37309
ccsx쎯	-9.37362
elgd쎯so쎯	-9.37392
giw쎯k쎯	-9.3742
cd쎯mamb쎯	-9.37458
zm쎯um쎯	-9.37508
nz쎯	-9.37509
,sow쎯	-9.37517
suu쎯	-9.3752
pnl쎯	-9.37565
dbb쎯	-9.37619
d쎯gae쎯woqy쎯	-9.37705
rsj쎯.	-9.37716
qyx쎯rsym쎯.	-9.37788
bd쎯mbds쎯tirg쎯	-9.37812
pfyy쎯	-9.37931
fds쎯yh쎯	-9.3819
b쎯fgh쎯	-9.38217
cxv쎯	-9.38273
nyd쎯	-9.38289
sjyy쎯	-9.38301
vdwl쎯	-9.38406
aijr쎯kk쎯	-9.38444
gd쎯wdol쎯	-9.38556
kdxz쎯	-9.38557
tlnh쎯	-9.38626
xej쎯nsc쎯	-9.38641
oi쎯aim쎯fds쎯	-9.38683
ogl쎯	-9.38692
nsu쎯le쎯	-9.38768
suw1쎯	-9.38843
ebm쎯rsj쎯d쎯	-9.38847
.sc쎯f쎯	-9.38883
nj쎯	-9.38901
xi쎯qbo쎯	-9.38901
xsxf쎯	-9.38932
agd쎯rgs쎯	-9.38964
bju쎯xro쎯	-9.39066
mazy쎯o쎯	-9.3907
njf쎯nxby쎯	-9.3909
oc쎯lczs쎯	-9.39147
vdwy쎯bm쎯	-9.39203
fq쎯byo쎯	-9.39264
kiq쎯	-9.39272
evyy쎯	-9.39285
fg쎯	-9.39287
k쎯g쎯	-9.39302
ldod쎯gdiy쎯	-9.39352
h	-9.39353
aij쎯zq쎯	-9.39375
bdzm쎯ceug쎯ldo쎯	-9.39469
llyq쎯	-9.39531
yazo쎯ya쎯	-9.39534
d쎯sc쎯f쎯	-9.39549
dw쎯ky쎯	-9.39646
dex쎯zq쎯	-9.39657
yt쎯	-9.39815
idxo쎯	-9.39905
maxg쎯	-9.39925
szzs쎯	-9.39941
mfkq쎯	-9.4013
쎃쎉	-9.40133
sjl쎯sf쎯dex쎯fsv쎯	-9.40196
gi쎯k쎯	-9.4021
yzi쎯bdnw쎯	-9.40235
sc쎯nmb쎯hma1쎯kal쎯	-9.40285
kiym쎯,	-9.40393
nxby쎯	-9.40403
gi쎯aij쎯	-9.40418
ggkw쎯	-9.40524
edy쎯sl쎯	-9.4053
myw쎯aks쎯	-9.4055
hma1쎯vdwy쎯ywb쎯	-9.40593
쎁쎉쎉쎀mamb쎯	-9.40686
zzym쎯rd쎯jbr쎯	-9.4096
smr쎯	-9.40992
jc쎯rsym쎯ywb쎯	-9.41004
tgxs쎯	-9.41078
.“	-9.41132
nif쎯j쎯	-9.4114
,gl쎯lc쎯	-9.41183
fjai쎯nfa쎯	-9.41226
bdzw쎯ewj쎯	-9.41231
ubk쎯	-9.41269
njf쎯ysk쎯	-9.41301
ps쎯	-9.41316
zmzj쎯xbby쎯ad쎯	-9.41323
mc쎯ch쎯	-9.41355
lorz쎯	-9.4139
쎁쎉쎈쎈mamb쎯	-9.41416
ymv쎯	-9.41495
ldm쎯rsym쎯	-9.41548
dsz쎯pvwx쎯	-9.41564
,aij쎯zo쎯	-9.41611
ogl쎯shqc쎯	-9.41697
pdgo1쎯	-9.41735
...	-9.41778
szq쎯	-9.41912
wxl쎯kojl0쎯	-9.41932
mfzs쎯	-9.41935
bd쎯ed쎯	-9.41998
ekk0쎯	-9.4204
oy쎯ufgd쎯	-9.42111
zni쎯nir쎯	-9.42123
hdko쎯fj쎯	-9.42254
faed쎯	-9.42315
쎉쎈	-9.42441
c쎯nh쎯nr0쎯	-9.42496
bdnw쎯oi쎯y쎯	-9.42507
edtg쎯	-9.42535
쎁쎉쎉쎁mamb쎯	-9.42574
ajx쎯nm쎯	-9.42587
쎄쎃	-9.42595
agd쎯ai1쎯	-9.42626
vab쎯ymo0쎯	-9.42678
zzym쎯	-9.42707
rjrd쎯	-9.42789
쎂o쎯	-9.42815
oy쎯ya쎯	-9.42842
ci쎯waj쎯	-9.42842
jjiw쎯bm쎯	-9.42848
so쎯wdya쎯	-9.42858
lco쎯nfa쎯	-9.4288
zme쎯zni쎯	-9.43107
sf쎯d쎯	-9.43154
a쎯wd쎯	-9.43187
x쎯rjg쎯	-9.43299
mbbd쎯armk쎯	-9.43393
nhsr쎯	-9.43417
vk쎯yn쎯bm쎯	-9.43444
vwo쎯bnd쎯sli쎯	-9.43487
shv쎯ns쎯	-9.43502
d쎯bdzs1쎯ku쎯	-9.43538
cbr쎯	-9.43658
wdan쎯	-9.43667
hecj쎯	-9.43713
sc쎯kag쎯	-9.43725
szr쎯	-9.43761
jdrt쎯xyis쎯	-9.43863
dwo쎯	-9.43904
xs쎯mfrk0쎯	-9.43904
haw쎯vqf쎯	-9.44025
bk쎯	-9.44064
gdiy쎯nsb쎯	-9.44093
vbi쎯fj쎯km쎯	-9.44104
zuz쎯ze쎯	-9.44224
eao쎯gdq쎯	-9.4424
eacy0쎯	-9.44307
vwo쎯oda쎯	-9.4435
ekgl쎯	-9.44359
hdzg쎯	-9.44363
mtk쎯udke쎯	-9.44422
mfr쎯	-9.44444
yon쎯ncq0쎯	-9.44503
b쎯ckb쎯	-9.44516
edl쎯sjy0쎯	-9.44534
bdzs1쎯l쎯	-9.44735
dyx쎯mbj쎯	-9.44804
lbj쎯wym쎯	-9.44817
ak쎯yj쎯	-9.44875
uays쎯	-9.44896
kcx쎯paj0쎯	-9.44908
guz쎯	-9.44919
wye쎯fjw쎯	-9.44921
vwa쎯jl쎯	-9.44946
,jhx쎯	-9.45015
ajk쎯xmyj쎯ch쎯	-9.45063
oz쎯kb쎯	-9.45102
miwa쎯l쎯ad쎯	-9.45104
ebf쎯	-9.45126
mbbd쎯um쎯	-9.45272
wxl쎯sye쎯	-9.45328
aii쎯kojl0쎯	-9.45396
sl쎯fjai쎯	-9.45412
sl쎯ey쎯	-9.45461
ks쎯xl쎯	-9.45531
ldeo쎯	-9.45636
xe쎯bk쎯	-9.45653
wdgz쎯	-9.45681
《j쎯jc쎯	-9.45838
elgd쎯ds쎯	-9.45843
wa쎯tk쎯d쎯	-9.45848
dk쎯neo쎯y쎯	-9.45881
,kiym쎯,vx쎯smm쎯,	-9.45898
zld쎯	-9.45967
heki쎯xkc쎯	-9.46011
jrz쎯	-9.46071
ll쎯fj쎯km쎯	-9.46084
xii0쎯	-9.46094
vm쎯vu쎯	-9.46129
x쎯ad쎯	-9.46131
go쎯	-9.46157
ymo0쎯vdwy쎯	-9.46251
nek쎯	-9.46262
pda쎯	-9.46307
,h쎯u쎯	-9.46308
qal쎯	-9.46324
fjb쎯	-9.46333
wdrj쎯wms쎯	-9.46337
fdm쎯	-9.46363
ufc쎯jjj쎯	-9.46398
nlan쎯	-9.46467
vt쎯	-9.46492
쎁쎉쎈쎆mamb쎯	-9.46602
쎁.쎅	-9.46632
kojm쎯dxh쎯	-9.4665
쎄쎆	-9.46712
zx쎯ldeo쎯	-9.46725
drr쎯tdni쎯	-9.4679
pkq쎯	-9.46803
,jd쎯iirr쎯	-9.46864
gdsw쎯	-9.46914
yda쎯	-9.46968
g쎯j쎯jc쎯	-9.46969
쎁쎉쎈쎇mamb쎯	-9.47003
쎃o쎯	-9.47052
od쎯baa쎯	-9.47068
wcj쎯	-9.47081
nc쎯nfa쎯	-9.47083
sc쎯zw쎯	-9.47111
sjo쎯	-9.47191
qqv쎯gdxs쎯	-9.47249
zm	-9.47342
rsj쎯,	-9.47349
bau쎯	-9.47388
vx쎯smm쎯	-9.47394
,si쎯	-9.47449
uaqb쎯ufte쎯	-9.47456
odyk쎯ku쎯	-9.47509
dpk쎯	-9.47542
yteo쎯	-9.47575
u쎯“	-9.47594
yxo쎯	-9.47658
ㄧ	-9.47782
wbi쎯my쎯	-9.47787
fob쎯xo쎯	-9.47927
.iirr쎯	-9.4795
bnno쎯	-9.47972
kdml0쎯	-9.48017
qfv쎯	-9.48079
ned쎯mzs쎯	-9.48088
bdzs1쎯mfte쎯	-9.48186
mfjc쎯t쎯	-9.48358
「	-9.4836
kdmp쎯wd쎯	-9.48388
쎄쎄	-9.48417
zoo쎯	-9.48431
idxm쎯	-9.48454
smp쎯ryi쎯	-9.48469
dex쎯	-9.48484
」	-9.48531
eyo쎯vdnd쎯	-9.48574
qj쎯tryk쎯	-9.48604
ym쎯kak쎯	-9.48755
aku쎯vv쎯	-9.48762
bbz0쎯	-9.48764
bdnw쎯a쎯iiko쎯	-9.48776
gae쎯	-9.48858
tfm쎯	-9.48882
so쎯ske쎯	-9.48883
lga쎯	-9.48906
vab쎯oi쎯	-9.48974
nmh쎯lkrs쎯ecp쎯	-9.49315
,ry쎯dmi쎯	-9.49331
boy쎯bdkv쎯	-9.49413
쎁쎉쎈쎉mamb쎯	-9.49631
mbj쎯	-9.49637
pdal쎯	-9.49642
phw쎯	-9.49673
tgxi쎯	-9.49792
쎂쎀쎁쎁mamb쎯	-9.49794
syy1쎯xbkv1쎯	-9.49808
d쎯od쎯	-9.49834
skb쎯	-9.49857
ciy0쎯	-9.49912
idjh쎯tded쎯	-9.49959
,odod쎯gl쎯	-9.49998
b쎯ai1쎯	-9.49999
sau쎯non쎯	-9.50002
gae쎯mblk쎯	-9.50066
wdtg쎯oi쎯	-9.50085
쎅-	-9.50132
쎅쎂	-9.50155
md쎯fsv쎯	-9.50178
frz쎯h쎯	-9.50199
vk쎯yn쎯	-9.50215
bmm쎯szq쎯sjy0쎯	-9.50239
.vdwy쎯fs쎯	-9.50367
tirr쎯sjy0쎯	-9.50377
ymo0쎯ajx쎯rid쎯	-9.50453
bdzs1쎯mfkd쎯	-9.50467
vklx쎯akz쎯	-9.50488
nl쎯bdzy쎯nr0쎯	-9.50492
fff쎯ffv쎯	-9.50559
.fav쎯	-9.50579
odxj쎯kak쎯	-9.5062
klzw쎯	-9.50652
smx쎯	-9.50743
xbby쎯su쎯y쎯	-9.50746
mekb쎯tgg쎯sli쎯	-9.50751
wb쎯	-9.50762
erjm쎯	-9.50774
vik쎯yms쎯	-9.50892
jixo쎯	-9.50976
ys쎯vzj1쎯	-9.51001
gd쎯uanw쎯	-9.51032
ecz1쎯	-9.51065
psq쎯wbi쎯	-9.51104
gdq쎯yxo쎯cilo쎯	-9.51124
uag쎯vsc쎯	-9.51152
ybu쎯fj쎯km쎯	-9.51167
jd쎯iirr쎯	-9.51167
k쎯zo쎯	-9.51254
llwb0쎯	-9.51293
pek쎯	-9.51316
mcek쎯	-9.51358
szr쎯oy쎯	-9.51372
yalk쎯	-9.5139
edyy1쎯	-9.51416
odte쎯	-9.51425
ldjn쎯	-9.51479
mbmo쎯	-9.51481
sjl쎯t쎯	-9.51524
oiiy쎯	-9.51548
zo쎯bdkv쎯,	-9.5157
tljr쎯setg쎯	-9.51573
,dld쎯gdq쎯	-9.51588
wdhb쎯ldod쎯	-9.51627
pfb쎯	-9.51728
odob쎯ev쎯ad쎯	-9.51818
dyj쎯	-9.51883
yi쎯gdq쎯	-9.51901
ajer쎯	-9.5193
wd쎯nsu쎯	-9.51931
khg쎯	-9.5201
bdol쎯fr쎯	-9.52083
xt쎯	-9.52088
kskp쎯wlr쎯	-9.52139
lzn쎯	-9.52146
-쎂	-9.5217
mtk쎯mfrk0쎯	-9.52191
pkl쎯	-9.52319
ezr쎯mbro쎯	-9.52431
,jd쎯	-9.52503
jilw쎯bii쎯	-9.52511
odxw쎯	-9.52513
fnk쎯	-9.52513
zbj쎯kf쎯	-9.52529
gi쎯nxs쎯	-9.52538
ped쎯x쎯	-9.52601
ucgd쎯woj쎯	-9.52632
sop쎯ufzp쎯	-9.52638
nsc쎯wdmh쎯	-9.52658
nif쎯nfa쎯	-9.52694
miwa쎯kak쎯	-9.52735
bdzs1쎯ku쎯d쎯	-9.52738
nswa쎯	-9.52743
쎄o쎯	-9.52753
um쎯d쎯	-9.52795
bdzy쎯akz쎯	-9.52805
쎁쎅쎀	-9.52859
ray쎯xlk0쎯	-9.5298
sjwm쎯uf쎯	-9.52994
ga쎯vki쎯	-9.53126
fob쎯	-9.53184
sxq쎯	-9.5329
tdni쎯	-9.53345
ray쎯t쎯	-9.53365
odyk쎯xbby쎯ad쎯	-9.53414
mfj쎯srr쎯	-9.53425
,wxl쎯dsw쎯	-9.53429
wda쎯	-9.53436
maj쎯rsj쎯	-9.53446
쎆쎆	-9.53458
lkc쎯	-9.53496
xbkv0쎯xmi쎯ad쎯	-9.5354
ymo1쎯skx쎯	-9.53542
kob쎯	-9.53593
zw쎯waz쎯	-9.53679
ad쎯a쎯nfa쎯d쎯	-9.5371
aii쎯g쎯	-9.5379
iikg쎯	-9.53868
miwa쎯tgva쎯	-9.53888
nlwz쎯	-9.53915
dpw1쎯	-9.53918
i쎯,	-9.53929
en쎯jbr쎯	-9.53969
muc쎯	-9.54037
cbr쎯wdgq0쎯	-9.54076
wdki0쎯	-9.54164
,ss쎯	-9.54187
bduo쎯	-9.54194
wj쎯	-9.54245
gbz쎯	-9.54266
.kia쎯ad쎯	-9.54268
tx쎯	-9.54276
bmy쎯gdq쎯	-9.54294
a쎯tgob1쎯	-9.54354
쎄쎇	-9.54384
zrt쎯	-9.54444
yrm쎯nrs쎯	-9.54505
fq쎯、	-9.54542
zhy쎯	-9.54581
zx쎯vsnd쎯vdwy쎯	-9.54612
odii쎯ku쎯.	-9.5463
cilo쎯nmb쎯	-9.54652
vom쎯	-9.54667
pjj쎯	-9.54729
aiaj쎯	-9.5473
qya쎯	-9.5473
qi쎯mbbd쎯d쎯	-9.54793
tdrl1쎯fav쎯	-9.54799
fmo쎯	-9.54807
esy쎯	-9.54823
yj쎯oda쎯j쎯jc쎯	-9.54907
sjl쎯fjw쎯oz쎯jirj쎯	-9.54909
fr쎯hbi쎯	-9.54936
yzi쎯boy쎯	-9.5497
(),	-9.55002
uxb쎯	-9.55018
ebb쎯	-9.5505
vkr쎯	-9.55132
bdzy쎯ym쎯	-9.55139
쎁쎉쎈쎂mamb쎯	-9.55167
nmb쎯oz쎯yaj1쎯	-9.55293
sli쎯aim쎯tgnd쎯	-9.55382
dwo쎯edwz쎯	-9.55404
쎅쎆	-9.5547
mise쎯	-9.55584
fjai쎯oaj쎯	-9.55608
vfl쎯	-9.55635
sef1쎯	-9.5564
쎂쎀쎁쎃mamb쎯	-9.55749
jdrt쎯xyis쎯owy쎯	-9.55753
fn쎯	-9.55781
mbjw쎯aeb쎯	-9.55795
wwrd쎯wh쎯	-9.55836
jni쎯a쎯	-9.55877
z쎯cirh쎯sor쎯so쎯	-9.55889
jddm쎯nfa쎯	-9.55946
tirf1쎯	-9.55948
ymo1쎯ucu쎯	-9.55956
쎂.쎀	-9.55969
oc쎯sli쎯	-9.56052
,mazy쎯	-9.56057
jgb쎯	-9.56077
gso쎯	-9.56086
tib쎯	-9.56096
gqw쎯vhp쎯	-9.56151
ffb쎯	-9.56152
mfjl쎯	-9.56198
zo쎯“	-9.56201
kibr쎯	-9.56251
wh쎯ho쎯	-9.5642
jyi0쎯	-9.56468
oaj쎯ckb쎯	-9.56473
tdrl1쎯fr쎯	-9.56535
dnk쎯	-9.56546
grl쎯wd쎯	-9.56693
tlrj쎯	-9.56723
쎂-	-9.56746
jc쎯ri쎯	-9.56749
ufij쎯	-9.56848
fhk쎯	-9.56888
lbj쎯jby1쎯	-9.56955
xsmf쎯	-9.56976
a쎯fu쎯	-9.56989
mnd쎯oaj쎯	-9.56992
쎁쎉쎈쎁mamb쎯	-9.57002
ze쎯	-9.57063
zwb쎯oaj쎯um쎯	-9.57068
ugu쎯makr쎯	-9.57086
mfrk0쎯jaz쎯	-9.57194
xbds쎯	-9.57197
eryy쎯	-9.57342
akz쎯wdgq0쎯	-9.57376
vkr쎯oaj쎯	-9.57397
zfj쎯	-9.57398
쎉쎉	-9.57499
kq쎯kku쎯	-9.57675
sukk쎯	-9.57708
ajk쎯xyis쎯syy1쎯	-9.5771
myz쎯쎁	-9.57752
쎁쎉쎈쎅mamb쎯	-9.57757
niuo쎯	-9.57775
ch쎯vbi쎯	-9.57805
hkd쎯	-9.57826
wyv쎯	-9.57831
od쎯mc쎯	-9.57932
zx쎯kojl0쎯	-9.57966
tirq쎯ks쎯	-9.57973
bsy쎯	-9.58064
wdpo쎯	-9.58086
fel쎯	-9.5814
쎅쎄	-9.58145
saii쎯xyis쎯	-9.58151
h쎯sjqu쎯	-9.58288
jyms쎯zimo쎯	-9.58309
bmrr쎯kal쎯	-9.58339
ciq쎯rll쎯	-9.5837
gd쎯wdgq0쎯	-9.5844
sjl쎯som쎯	-9.58548
tdaj쎯kom쎯	-9.58667
marm쎯jipn쎯	-9.58688
sbd쎯od쎯	-9.58697
vsc쎯skw쎯	-9.58709
fdyy쎯le쎯	-9.5871
odyk쎯ymo0쎯	-9.58742
dn쎯bdnw쎯	-9.58747
dzv쎯	-9.58753
쎃mamb쎯	-9.58823
xe쎯kdml1쎯	-9.58848
vwrd쎯	-9.58896
zm쎯ya쎯	-9.58909
fds쎯nsu쎯ad쎯	-9.58926
makr쎯oaj쎯	-9.5905
nul쎯	-9.5907
nb쎯s쎯	-9.59133
mazy쎯mamb쎯	-9.59156
ji	-9.59223
gr쎯	-9.59296
xkv쎯	-9.59376
쎄쎉	-9.59557
ldm쎯	-9.59565
fjkr쎯uclk쎯	-9.59585
rsj쎯mfrk0쎯:	-9.59701
ldm쎯aim쎯	-9.59705
so쎯mbro쎯	-9.59715
,rgs쎯paj0쎯	-9.59832
yy쎯	-9.59911
woez쎯	-9.59987
dex쎯fsv쎯od쎯jl쎯	-9.59987
esu쎯	-9.60014
kz쎯ya쎯sul쎯rsym쎯	-9.60041
nds쎯	-9.60208
h쎯zcl쎯	-9.60221
exi쎯epf쎯	-9.60263
eoyy0쎯	-9.60285
쎅쎈	-9.6031
wyv쎯wai쎯km쎯	-9.60402
bu쎯yji쎯	-9.6042
,c쎯	-9.60463
lczs쎯mfz쎯	-9.60466
dqx쎯oda쎯	-9.60582
,nmb쎯	-9.60596
aep쎯gdsw쎯	-9.60608
쎀쎀	-9.60638
jal쎯vdnd쎯	-9.60696
》j쎯	-9.60779
drk1쎯dwh쎯	-9.60781
쎁쎉쎈쎃mamb쎯	-9.60816
zj쎯kf쎯	-9.6094
qgr쎯	-9.60961
pfyy쎯sxb쎯	-9.60969
erb쎯	-9.60978
ag쎯vb쎯	-9.6098
dpw1쎯xsxi쎯	-9.6108
lco쎯rki쎯	-9.6108
yod쎯nbx쎯	-9.61126
oaj쎯h쎯	-9.61137
som쎯uaol쎯	-9.61159
db쎯ze쎯	-9.6121
ggyg쎯	-9.61248
gd쎯kal쎯	-9.6132
iwr쎯	-9.61323
myz쎯bix쎯	-9.61385
쎁쎂쎀	-9.61457
,lok쎯	-9.61473
ld쎯bwz쎯	-9.61543
bdzs0쎯edl쎯km쎯	-9.61787
a쎯mbds쎯tirg쎯	-9.61789
mld쎯	-9.61805
쎄-	-9.6181
j쎯sjy0쎯	-9.61825
iikg쎯sv쎯	-9.61846
xhm쎯xek쎯	-9.61911
idxo쎯oro쎯	-9.6192
쎁쎉쎇쎉mamb쎯	-9.61953
wwnr쎯	-9.61982
bdzs1쎯hejc쎯	-9.6201
cng쎯	-9.62031
sow쎯fu쎯	-9.62054
iaid쎯	-9.62061
tb쎯nir쎯	-9.62107
aijr쎯md쎯	-9.62145
pkr쎯	-9.62152
cd쎯mbds쎯tirg쎯	-9.62175
bdzm쎯	-9.6222
,c쎯nmb쎯	-9.62316
mbjw쎯h쎯	-9.6241
zmya쎯d쎯	-9.62553
sor쎯bbz0쎯	-9.62657
bdrd쎯ciz쎯	-9.62737
sq쎯su쎯	-9.62769
udlk쎯zx쎯	-9.62808
xro쎯rhyw쎯	-9.62843
mfwm쎯xyis쎯	-9.62878
yrez쎯tdys쎯	-9.62895
auo쎯	-9.62935
ufsx쎯	-9.62952
od쎯nfa쎯	-9.63081
mekb쎯f쎯d쎯	-9.63111
hdyd쎯h쎯	-9.63136
aekd쎯	-9.63156
edlc쎯oixb0쎯	-9.63172
kdxq쎯	-9.63266
kkk쎯	-9.63271
oixb1쎯	-9.6328
idj쎯b쎯gj쎯mfjo쎯	-9.63379
miwa쎯l쎯	-9.63407
rly쎯pfxb쎯	-9.63432
nfa쎯xo쎯	-9.63474
opx쎯	-9.6352
gae쎯woqy쎯j쎯wz쎯	-9.63542
sf쎯aeb쎯	-9.63551
zyy쎯odxw쎯	-9.6361
쎆쎈	-9.63737
nf쎯	-9.63738
vrw쎯	-9.63745
wyv쎯wai쎯	-9.63758
u쎯sc쎯,	-9.63894
fq쎯mblk쎯	-9.63903
qi쎯mbbd쎯	-9.6407
ggo쎯	-9.64078
jjvv쎯	-9.64176
exau쎯	-9.64189
snd쎯	-9.64305
mbds쎯zym쎯	-9.64349
‘	-9.64373
pxby쎯	-9.64401
noo쎯	-9.64436
qrk쎯	-9.64456
uaqb쎯	-9.6448
bii쎯	-9.64486
vszr쎯	-9.64517
ceug쎯kql쎯	-9.64521
쎂.	-9.64589
rmx쎯	-9.64609
nji1쎯	-9.64635
sh쎯	-9.64686
kic쎯	-9.6474
kom쎯sme쎯	-9.64741
hefb쎯	-9.64783
zmkm쎯	-9.64876
bi쎯gg쎯	-9.64892
um쎯pdel쎯	-9.64984
sq쎯sed쎯、	-9.65009
lorz쎯mbro쎯	-9.65032
wms쎯b쎯sug쎯	-9.65081
xsig쎯ys쎯	-9.65097
bimo쎯bizi쎯	-9.65132
sj쎯ku쎯	-9.65195
rid쎯ad쎯	-9.65205
vwr쎯	-9.65214
kz쎯vyi쎯	-9.65217
fgh쎯	-9.65299
ymo1쎯mbjw쎯	-9.65303
kojr쎯edx쎯sjy0쎯	-9.65324
baa쎯mc쎯yybd쎯kal쎯	-9.65368
hew쎯pkl쎯	-9.65429
jil쎯	-9.6548
kz쎯wlr쎯zsj쎯	-9.65551
gj쎯nlj쎯	-9.65562
yi쎯.”	-9.65562
wdpo쎯owy쎯	-9.65697
ynd쎯pdw쎯	-9.65734
sxo쎯zmya쎯	-9.65759
udlk쎯nmb쎯	-9.6577
hma1쎯mfte쎯	-9.65811
dn쎯zizi쎯	-9.6584
link쎯	-9.65921
gkv쎯	-9.65988
쎂.쎅	-9.6599
fvni쎯	-9.66031
eh쎯bsj쎯	-9.6605
kgw쎯	-9.66104
ggkb쎯uf쎯	-9.66127
yh쎯sc쎯	-9.66131
yznd쎯	-9.66132
oz쎯pd쎯	-9.662
elgd쎯gdzn쎯	-9.66251
qwb쎯	-9.66289
bdzy쎯gdsw쎯	-9.66348
sgl쎯	-9.664
jjiw쎯	-9.6642
bjr쎯	-9.66442
xs쎯rsj쎯	-9.6645
al쎯mfji쎯	-9.66454
fxh쎯odxw쎯	-9.66558
od쎯so쎯	-9.66599
kcx쎯sf쎯	-9.66651
nby쎯	-9.66721
wsb쎯ob쎯sc쎯sos쎯	-9.66803
mw쎯ckb쎯xmyj쎯	-9.66869
zzl쎯	-9.66885
oc쎯km쎯	-9.66918
gxv쎯	-9.67015
쎁쎉쎆쎃mamb쎯	-9.67017
zq쎯vg쎯	-9.67021
vfo쎯	-9.67065
db쎯	-9.67091
,uae쎯lc쎯	-9.67137
sni쎯	-9.67208
yhe쎯	-9.67211
쎅쎃	-9.67238
kyj쎯	-9.67245
edl쎯tirr쎯	-9.6726
oz쎯kb쎯,	-9.67338
yms쎯kd쎯	-9.674
ecb쎯ad쎯	-9.67402
mbds쎯b쎯	-9.67404
uo	-9.67468
nb쎯》:“	-9.67471
ˋ	-9.6751
bdnw쎯ja쎯	-9.67558
mamb쎯nh쎯	-9.67568
ehm쎯	-9.67573
xbby쎯sso쎯	-9.67577
jivr쎯	-9.67581
쎉쎆	-9.67693
mekb쎯kak쎯	-9.67711
:쎂	-9.67756
sjy0쎯、	-9.67771
glg쎯	-9.67782
ajk쎯bmm쎯dpw1쎯	-9.67782
akm쎯mekb쎯	-9.67842
쎇쎂	-9.67843
syy1쎯ehe쎯	-9.67858
eako쎯ryi쎯	-9.6793
jy쎯	-9.6794
kom쎯mamb쎯	-9.67989
yk쎯sli쎯	-9.67989
fdyy쎯oaj쎯	-9.68002
쎁-	-9.68023
oiel쎯cgi쎯	-9.68026
oal쎯	-9.68029
wdml쎯t쎯	-9.68036
muc쎯nr0쎯	-9.68042
a쎯wdgq0쎯	-9.68397
kz쎯my쎯	-9.68434
ke쎯ecq1쎯	-9.68451
au쎯sy쎯oz쎯kb쎯	-9.68489
sy쎯gj쎯d쎯	-9.68501
gl쎯gi쎯	-9.68504
equ쎯	-9.68526
vbr쎯	-9.68577
bhj쎯	-9.68596
d쎯b쎯sy쎯	-9.68612
j쎯eao쎯kojr쎯jl쎯	-9.68632
ggym쎯nmb쎯	-9.68697
skwz쎯	-9.6872
dn쎯bdzy쎯	-9.68816
,oz쎯yaj1쎯	-9.68834
ody쎯	-9.68873
ikz쎯	-9.68886
mw쎯ckb쎯、	-9.68889
wdhb쎯、	-9.68893
nu쎯	-9.68893
hbkd쎯y쎯	-9.68896
yybd쎯hbmo쎯	-9.68926
fdmz쎯	-9.68927
dm쎯zq쎯	-9.68932
vsx쎯	-9.68953
mekb쎯sf쎯	-9.69026
oro쎯	-9.69112
hdko쎯sjy0쎯	-9.69127
ae쎯sm쎯	-9.69145
,nl쎯	-9.69161
nif쎯h쎯	-9.69162
zimo쎯xbkv1쎯	-9.69178
zw쎯mblk쎯	-9.69199
쎅쎇	-9.69201
,udlk쎯	-9.69238
fsw쎯	-9.69238
ciyl쎯	-9.69277
ldod쎯le쎯	-9.69298
saii쎯uby쎯	-9.6935
gd쎯ybz쎯	-9.69373
r쎯bg쎯	-9.6938
bhv쎯pe쎯	-9.69395
.sow쎯	-9.69398
.ec쎯j쎯	-9.69463
c쎯byo쎯	-9.69514
pfxb쎯	-9.69522
,zm쎯,	-9.69587
fal쎯	-9.69625
hdzi쎯	-9.69627
.la쎯uaqk쎯	-9.69663
sc쎯mw쎯	-9.69699
dsz쎯rli쎯	-9.69729
r쎯zef쎯nfa쎯	-9.69756
ubmd쎯	-9.69768
yobv쎯	-9.69805
xbby쎯ad쎯	-9.69808
h쎯sj쎯	-9.69846
ewf쎯vas쎯	-9.69875
jmua쎯	-9.69897
gi쎯pmy쎯pl쎯	-9.69955
uanl쎯xki쎯	-9.69961
odob쎯ev쎯g쎯	-9.69965
arku쎯	-9.69969
cop쎯	-9.69983
l쎯jjj쎯	-9.70037
wdgq0쎯edy쎯ob쎯	-9.70043
sli쎯ho쎯	-9.70104
nmi쎯idjh쎯	-9.70117
mfrk0쎯jaz쎯.	-9.70154
쎁쎉쎅쎈mamb쎯	-9.7016
jbr쎯ffv쎯	-9.70184
jd쎯ciz쎯	-9.70187
쎉쎅	-9.70249
xii0쎯nk쎯	-9.70264
ywb쎯fs쎯	-9.70271
쎉쎇	-9.70289
kku쎯ebm쎯	-9.70297
z쎯dwh쎯	-9.70327
odxi쎯	-9.70406
yji쎯t쎯	-9.70428
di쎯	-9.70429
md쎯ncq0쎯	-9.70521
som쎯sv쎯	-9.70552
kpa쎯	-9.70567
쎁쎉쎆쎄mamb쎯	-9.70572
jddm쎯zbj쎯	-9.70749
oaj쎯ld쎯	-9.70764
wmq쎯	-9.70961
쎀.쎅	-9.71026
》sbd쎯:“	-9.71083
zmxb쎯zm쎯	-9.71086
.odod쎯	-9.71207
wbk쎯bmm쎯	-9.71214
wdki0쎯sed쎯	-9.71331
ucnd쎯are쎯	-9.71348
,zmyi쎯	-9.71437
vs쎯oi쎯	-9.7144
agd쎯vxbd쎯sli쎯	-9.71511
fkx쎯wdzf쎯	-9.71517
ㄨ	-9.71543
b쎯cdv쎯	-9.71555
쎈쎅	-9.71568
fekg쎯aeb쎯	-9.71667
ggnk쎯lok쎯	-9.71668
d쎯ko쎯	-9.71677
a쎯vs쎯d쎯	-9.71737
fdyy쎯nm쎯	-9.71747
fdjy쎯	-9.71819
bdzy쎯nmi쎯	-9.71835
쎁mamb쎯	-9.7186
so쎯edgs쎯	-9.71918
ioow쎯	-9.71922
nlo쎯rhko쎯sjy0쎯	-9.71927
fmk쎯	-9.71966
nqa쎯	-9.71994
tird쎯wh쎯	-9.72021
쎈쎈	-9.72029
hm쎯	-9.72065
nsr쎯dmh쎯	-9.72089
wkr쎯ryi쎯	-9.72158
ytoe쎯	-9.72159
,j쎯eao쎯kojr쎯jl쎯,	-9.72197
vwrd쎯yk쎯	-9.72263
lkb쎯	-9.72308
mfji쎯ufgd쎯	-9.72341
rhyw쎯	-9.72425
byo쎯p쎯	-9.72427
rly쎯sm쎯	-9.72428
eako쎯pa쎯	-9.72453
uomi쎯	-9.72481
쎆o쎯	-9.7254
sc쎯nfa쎯	-9.72583
rid쎯ckb쎯jjg쎯	-9.72597
oue쎯	-9.72627
bmm쎯dpw1쎯,	-9.72687
eyd쎯fsv쎯wdgq0쎯	-9.72725
njf쎯gdiy쎯	-9.72729
kcx쎯ke쎯	-9.72781
mfz쎯xyis쎯syy1쎯	-9.72839
j쎯tk쎯	-9.72868
)k쎯	-9.72918
vmr쎯tdrx쎯	-9.72932
bu쎯ch쎯	-9.72938
esn쎯	-9.72954
vm쎯edl쎯	-9.72958
mazm쎯	-9.72996
uazw1쎯	-9.73046
xyis쎯vb쎯wdgq0쎯	-9.73052
r쎯wdgq0쎯	-9.73182
k쎯gij쎯	-9.73218
d쎯qyx쎯rsym쎯	-9.7324
xbg쎯	-9.73253
ed쎯mamb쎯	-9.73263
qka쎯	-9.7329
pnr쎯	-9.73312
sooy쎯	-9.73365
vbz쎯vqf쎯	-9.73366
zo쎯paj0쎯	-9.7359
,m쎯nt쎯	-9.73611
mfkm1쎯	-9.73614
sli쎯mfz쎯	-9.7364
edy쎯lcym쎯	-9.73686
fs쎯ch쎯	-9.7369
tdni쎯rki쎯	-9.73695
odjm쎯	-9.73708
wnr쎯	-9.73735
jdrt쎯nx쎯	-9.73741
gi쎯ob쎯	-9.73755
fl쎯koxb쎯	-9.73777
smp쎯	-9.7382
쎅mamb쎯	-9.73822
vbo쎯	-9.73927
dek쎯symy쎯	-9.74062
haj쎯	-9.74184
yj쎯odjm쎯gd쎯	-9.74268
sod쎯sjo쎯	-9.74303
쎅쎉	-9.74409
meb쎯	-9.74426
ngr쎯nr0쎯	-9.74445
bdnw쎯nir쎯	-9.74502
쎅쎁	-9.74535
td쎯	-9.74536
ngr쎯bh쎯	-9.746
bd쎯zym쎯	-9.7462
wdgq0쎯lco쎯	-9.7463
lm쎯	-9.74685
nyn쎯bmm쎯	-9.74701
z쎯xe쎯d쎯	-9.748
kv쎯mfkd쎯	-9.74804
ngb쎯	-9.74863
idjh쎯baa쎯	-9.74866
rj쎯o쎯	-9.74909
ggnk쎯rsj쎯	-9.74914
gds1쎯yk쎯	-9.74933
tdxg쎯	-9.74964
fekg쎯evyy쎯	-9.75068
tg쎯vdnd쎯sli쎯	-9.75071
.쎂.	-9.75079
쎃-	-9.75087
sow쎯kb쎯	-9.75114
syme쎯ai1쎯	-9.75124
sz쎯	-9.75124
oda쎯mbrw쎯	-9.75125
jiv쎯	-9.75185
udjw쎯zx쎯ckb쎯	-9.7519
jdjl쎯aep쎯	-9.7523
mi쎯	-9.75242
》mbds쎯.	-9.75248
kz쎯jjg쎯	-9.75252
qqx쎯no쎯	-9.75265
gdq쎯a쎯	-9.75319
au쎯oirg쎯	-9.75358
pvgx쎯ucq쎯	-9.75371
l쎯bdkv쎯	-9.75374
brt쎯ryt쎯	-9.75432
np쎯fav쎯	-9.75566
ybk쎯	-9.75646
쎇쎃	-9.75658
쎅%	-9.75663
drk1쎯fb쎯	-9.75712
yh쎯jc쎯	-9.75718
쎁쎉쎆쎂mamb쎯	-9.75746
d쎯sug쎯jjj쎯	-9.75751
,nka쎯k쎯	-9.75789
dpv쎯	-9.75801
wdrj쎯wm쎯dk쎯neo쎯	-9.75865
m쎯nt쎯d쎯	-9.75871
fekg쎯dzo쎯	-9.75887
od쎯bi쎯	-9.75928
d쎯ecb쎯fav쎯	-9.75952
rli쎯	-9.75961
ufsx쎯ox쎯	-9.75967
fjlo쎯	-9.75991
sli쎯zym쎯	-9.76103
xo쎯	-9.76214
nzor쎯	-9.76263
nl쎯nc쎯	-9.76268
gd쎯vdwy쎯mc쎯	-9.76276
emkb쎯ajx쎯ch쎯	-9.76339
ekc쎯	-9.76354
wb쎯ucu쎯d쎯	-9.76369
nr1쎯d쎯	-9.76397
vrv쎯	-9.76398
uo쎯he쎯sij쎯	-9.76562
sug쎯jjj쎯d쎯	-9.76609
bilo쎯	-9.76617
mbrl쎯	-9.7665
쎁쎉쎈쎀mamb쎯	-9.76653
ldod쎯mfte쎯	-9.76668
qqd쎯	-9.76696
kdxb1쎯	-9.7684
ygqw쎯ucl쎯	-9.76915
rre쎯ku쎯paj0쎯	-9.76992
ebbk쎯	-9.76999
tli쎯	-9.77002
xly쎯	-9.77012
wbi쎯sl쎯	-9.77012
nl쎯m쎯	-9.77012
nij쎯paj0쎯	-9.77046
bdzs1쎯ebm쎯	-9.77056
ks쎯ho쎯	-9.77071
쎁쎉쎇쎈mamb쎯	-9.77119
lk쎯o쎯	-9.77156
qdos쎯yobv쎯	-9.7716
nyd쎯bdrd쎯	-9.77165
sjwg쎯nre쎯	-9.77204
bmy쎯sli쎯	-9.77207
waz쎯nmi쎯	-9.77222
uagw1쎯	-9.77234
쎆쎃	-9.77263
sau쎯u쎯	-9.77346
oz쎯ae쎯	-9.77347
udjw쎯gj쎯mfjo쎯	-9.7735
,eqg쎯	-9.7739
bzma쎯	-9.77451
fhx쎯	-9.77458
dqs쎯	-9.77465
wml쎯	-9.77498
zmrk쎯	-9.77526
ned쎯	-9.77568
nsr쎯dx쎯	-9.77617
kv쎯tgh쎯	-9.77778
vcq쎯nh쎯	-9.7778
my쎯ni쎯	-9.77826
uanl쎯tdro쎯	-9.77843
tded쎯rx쎯	-9.77848
vxn쎯	-9.77896
yk쎯lczs쎯	-9.77899
mfte쎯、	-9.77912
&	-9.77913
eb쎯xbno쎯	-9.77942
jc쎯uanw쎯	-9.77993
kojr쎯zl쎯	-9.78155
skw쎯sjo쎯	-9.78194
mbds쎯sy쎯gj쎯	-9.78209
oc쎯fds쎯	-9.78226
oixb1쎯kal쎯	-9.78242
bsq쎯	-9.78257
dpk쎯sm쎯	-9.78284
py쎯	-9.78302
pdxs쎯klg쎯	-9.78313
쎁쎉쎆쎅mamb쎯	-9.78417
gbb쎯	-9.78424
xg쎯	-9.78443
ahi쎯jjg쎯	-9.78481
a쎯rsj쎯	-9.78549
kcx쎯lco쎯	-9.78557
gd쎯yod쎯	-9.78613
ds쎯	-9.78718
wxj쎯	-9.78726
tdys쎯	-9.78775
sug쎯kak쎯	-9.78779
tjj쎯	-9.78782
rjsw쎯	-9.7881
be쎯	-9.78849
ecb쎯jd쎯	-9.78875
ak쎯rsj쎯u쎯	-9.78908
fx쎯haz쎯	-9.78944
nkc0쎯suwl쎯	-9.78951
wdrr쎯nt쎯	-9.78953
쎀°C	-9.7898
odyk쎯skw쎯	-9.7906
sol쎯ya쎯	-9.79114
oaj쎯uae쎯	-9.79143
dh쎯	-9.79158
gak쎯plk쎯	-9.79243
nmbq쎯nek쎯	-9.79247
kv쎯vxr쎯	-9.7927
jir쎯	-9.79316
wdaj쎯	-9.79342
tdrl0쎯	-9.79345
----------------	-9.79448
wym쎯zzg쎯	-9.79512
cirh쎯gdw쎯	-9.79548
,ag쎯	-9.79561
d쎯kd쎯ni쎯	-9.79576
edgs쎯	-9.79595
yjl쎯	-9.79614
ni쎯	-9.79618
mc쎯gdiy쎯	-9.79664
hma1쎯kal쎯	-9.79679
vsl쎯	-9.79701
wtyd쎯j쎯	-9.79744
g쎯zhm쎯	-9.79755
skrh쎯	-9.79759
hejk쎯ncds1쎯	-9.79789
od쎯yh쎯mli쎯	-9.79801
.nka쎯	-9.79834
pi쎯	-9.79843
kskp쎯nx쎯	-9.79893
쎄쎁	-9.79903
gd쎯sjy0쎯oy쎯	-9.79915
dzo쎯	-9.79936
ed쎯a쎯	-9.79944
vni쎯	-9.80043
keo쎯	-9.80051
cag쎯	-9.80053
ylc쎯	-9.80128
dfb쎯	-9.80138
ae쎯dgv쎯	-9.80147
d쎯sf쎯	-9.80152
bjp쎯	-9.80167
gae쎯woqy쎯ob쎯	-9.80187
a쎯nsu쎯	-9.80249
bwk쎯	-9.80252
jy쎯ri쎯	-9.80354
ji쎯cdv쎯nlo쎯rhko쎯	-9.80381
yaj1쎯vb쎯	-9.80424
ll	-9.8051
myz쎯쎂	-9.80527
cbn쎯b쎯	-9.80599
woj쎯kro쎯	-9.80606
gx쎯bgi쎯	-9.80618
쎆쎂	-9.80619
ˊ	-9.80669
”mbds쎯	-9.80697
rr쎯nar쎯	-9.80734
kdml0쎯vl쎯	-9.80746
ey쎯zq쎯	-9.80805
zsy쎯zjo쎯	-9.8083
flt쎯	-9.80851
mfji쎯ya쎯	-9.80863
zob쎯akz쎯	-9.80886
kz쎯gbs쎯	-9.80925
vwp쎯	-9.80925
zmby쎯	-9.80931
lah쎯	-9.80959
tg쎯dpk쎯	-9.81094
.udlk쎯nmb쎯	-9.81181
●	-9.81256
oylk쎯	-9.81302
fvry1쎯	-9.81358
ufzm쎯gxv쎯	-9.81363
쎀.쎀	-9.81379
sujr쎯rx쎯	-9.81385
,sj쎯	-9.81392
d쎯kskp쎯jnj쎯	-9.81513
od쎯ajx쎯	-9.8169
ll쎯kv쎯	-9.81699
kojl1쎯	-9.81719
dyx쎯uanw쎯	-9.81754
rhxy쎯	-9.81766
eao쎯sug쎯kojr쎯,	-9.81791
mbq쎯	-9.81819
tel쎯	-9.81857
fj쎯ehz쎯	-9.81909
hid쎯	-9.8192
d쎯mc쎯vmi쎯	-9.81935
ai1쎯sq쎯	-9.82018
edlc쎯xmi쎯	-9.82091
vxw쎯	-9.82113
h쎯oy쎯	-9.82117
쎈쎆	-9.82118
fj쎯sy쎯	-9.82232
oi쎯bdzy쎯	-9.82303
qwx쎯	-9.82313
ldo쎯i쎯	-9.82411
kcx쎯zrt쎯	-9.82483
d쎯ggym쎯jos쎯	-9.82509
odw쎯od쎯	-9.82514
kojl0쎯rsym쎯	-9.8254
vqf쎯	-9.82656
emkb쎯	-9.82691
fl쎯bdzm쎯	-9.82761
ox쎯l쎯	-9.8278
쎆쎉	-9.829
fvxx쎯	-9.82953
k쎯a쎯bb쎯	-9.83002
eaoy쎯	-9.83019
vb쎯bdol쎯	-9.83054
vsnd쎯edl쎯	-9.83092
wgs쎯	-9.83113
lb쎯gm쎯vbi쎯km쎯	-9.83115
kojl0쎯l쎯	-9.83122
ns쎯vas쎯	-9.83189
쎅o쎯	-9.83209
gd쎯gan쎯	-9.83217
sau쎯nej쎯	-9.8326
b쎯nsu쎯	-9.83285
zx쎯ggym쎯	-9.83378
xrz쎯xii0쎯	-9.83384
쎇쎈	-9.83414
mfkf1쎯	-9.83417
zmyi쎯d쎯	-9.83444
ajx쎯ku쎯udke쎯nsu쎯	-9.83446
,zx쎯	-9.83509
쎆쎇	-9.83522
ecq1쎯aek쎯	-9.83532
ckb쎯rly쎯	-9.83532
oos쎯suf쎯	-9.83535
ux쎯rhko쎯	-9.83575
nbzd쎯	-9.83593
jbr쎯ho쎯	-9.83611
zgp쎯yj쎯y쎯	-9.83627
dn쎯egiy쎯	-9.83634
vsc쎯mekb쎯	-9.83638
xmyj쎯xmyj쎯ch쎯	-9.83649
uh쎯	-9.83682
mw쎯ckb쎯nfa쎯mzv쎯	-9.83721
jnj쎯	-9.83758
mqy쎯	-9.8376
wdrb쎯	-9.83839
쎂쎀쎀쎈	-9.8389
woj쎯kak쎯	-9.83893
aim쎯edy쎯	-9.83918
majk쎯ccx쎯	-9.83947
snow쎯	-9.83958
akm쎯fr쎯	-9.84021
nrj1쎯ciz쎯	-9.84042
gd쎯hew쎯	-9.84174
kdml0쎯dwb쎯	-9.84176
myz쎯a쎯o쎯	-9.84182
mfwm쎯	-9.8425
oy쎯sol쎯	-9.84317
ufzm쎯dx쎯bdkv쎯vg쎯	-9.84374
bi쎯od쎯	-9.84392
syy1쎯bm쎯	-9.84412
bi쎯nmi쎯d쎯	-9.84449
r쎯mamb쎯bdkv쎯	-9.8447
ydat쎯fq쎯	-9.84535
rl쎯ryi쎯	-9.84667
efa쎯	-9.84684
ch쎯vkm쎯	-9.84715
dtg쎯xe쎯	-9.8473
bdnw쎯mfjc쎯	-9.84761
fid쎯	-9.84782
jdrt쎯nrj1쎯	-9.84785
p쎯xmi쎯	-9.84803
,hj쎯	-9.84808
pfki1쎯	-9.84841
×	-9.84842
.쎂、	-9.84847
tdx쎯	-9.84848
dex쎯biaz쎯	-9.84884
쎀쎁	-9.84912
suk쎯iikg쎯	-9.84933
odxi쎯miwa쎯	-9.84948
mfpn쎯	-9.84952
sja쎯	-9.84965
yi쎯.	-9.84986
ayw쎯	-9.84993
b쎯bii쎯	-9.85013
nrg쎯	-9.85013
odyk쎯su쎯	-9.85045
evy쎯	-9.85055
od쎯ym쎯tdrl1쎯vg쎯	-9.85083
xmzz쎯	-9.85231
ckb쎯odxw쎯,	-9.85239
qdos쎯ks쎯	-9.85328
°C	-9.85351
vwa쎯jkk쎯	-9.8549
pdw쎯mamb쎯bdkv쎯	-9.85525
g쎯iirr쎯	-9.85546
qmrj쎯	-9.85561
uagy쎯vdnd쎯	-9.85563
qzj쎯	-9.85572
vbi쎯edl쎯	-9.85576
ss쎯fds쎯	-9.85585
ag쎯zhm쎯	-9.85625
ee쎯	-9.85629
,dy쎯	-9.8565
ssy쎯	-9.85658
,mbrd쎯paj0쎯	-9.85669
tdni쎯grl쎯	-9.85687
dki쎯	-9.85703
oy쎯seus쎯sv쎯	-9.85729
akz쎯gj쎯	-9.85754
he	-9.85772
edy쎯sso쎯	-9.85772
fdek쎯	-9.85796
쎇쎆	-9.85804
,giw쎯	-9.85817
plr쎯	-9.85821
gj쎯mfjo쎯쎁	-9.85823
seps쎯	-9.85824
i쎯ai1쎯	-9.85926
prc쎯	-9.85935
he쎯hal쎯	-9.85952
mzv쎯zs쎯d쎯	-9.85995
zmxb쎯	-9.86005
쎃.쎅	-9.86018
rjrd쎯tqx쎯	-9.86053
oirg쎯	-9.86057
bmm쎯cejo쎯bi쎯	-9.86082
j쎯nre쎯od쎯yh쎯	-9.8616
biym쎯sv쎯	-9.86293
s쎯kq쎯	-9.86307
sb쎯kal쎯	-9.86318
.fav쎯xyis쎯	-9.86383
ew쎯odwg쎯	-9.86415
.c쎯	-9.86439
,kcx쎯zrt쎯zbj쎯kf쎯	-9.86467
mflc쎯	-9.86483
ecp쎯mbbd쎯	-9.86491
gl쎯lc쎯	-9.86514
ggnk쎯jd쎯	-9.86534
nmb쎯bmm쎯	-9.86541
ad쎯an쎯t쎯b쎯jdrt쎯	-9.86543
skw쎯lr쎯	-9.86549
zo쎯an쎯t쎯b쎯jdrt쎯u	-9.8655
gd쎯ob쎯	-9.86559
fzm쎯dx쎯u쎯tdni쎯.	-9.86563
sow쎯k쎯	-9.86591
.",(){(	-9.8663
.("/////	-9.8663
,lc쎯	-9.86635
쎁쎀쎀쎀쎀쎈쎀쎁);});	-9.86667
쎁쎉쎅쎆mamb쎯	-9.86681
biy1쎯	-9.86694
,eao쎯	-9.86738
gae쎯woqy쎯sy쎯nlj쎯	-9.8674
szr쎯vea쎯	-9.86748
a쎯vs쎯	-9.86767
drr쎯	-9.86789
qme쎯	-9.86821
쎁쎉쎇쎀mamb쎯	-9.86827
a쎯edx쎯	-9.86872
fekk쎯	-9.86876
c쎯wdtg쎯	-9.86893
dska쎯ch쎯	-9.86901
lcym쎯ckb쎯	-9.86929
ba쎯bser쎯	-9.86994
wdrr쎯d쎯	-9.87099
vae쎯	-9.87118
vmj쎯	-9.87186
qmek쎯	-9.87228
maj쎯uanw쎯	-9.87259
biym쎯som쎯	-9.87285
odwy쎯	-9.87287
odxj쎯gdq쎯	-9.87322
ciq쎯kom쎯mamb쎯	-9.87323
z쎯gdw쎯	-9.87366
yj쎯dq쎯	-9.87449
ffv쎯ku쎯	-9.87453
쎁쎉쎇쎆mamb쎯	-9.87485
sc쎯vwa쎯	-9.87552
nfg쎯	-9.87581
jed쎯nx쎯	-9.87594
wa쎯uaqk쎯	-9.87596
쎇-	-9.87651
nb쎯zef쎯	-9.87724
tdrl1쎯sye쎯	-9.87739
yk쎯kg쎯	-9.87749
ymo1쎯u쎯	-9.87749
kql쎯	-9.87778
kcv쎯	-9.8781
nklz쎯	-9.87813
쎀-	-9.87817
hefb쎯lcym쎯	-9.87833
la쎯d쎯	-9.87836
cejo쎯mfrk0쎯	-9.87845
setg쎯xyis쎯	-9.87858
uag쎯ey쎯	-9.87865
gdqy쎯	-9.8788
kic쎯scq쎯	-9.87881
쎆-	-9.87887
miwa쎯wdlc쎯	-9.87902
gae쎯woqy쎯jl쎯	-9.87918
쎈쎂	-9.87949
dgx쎯	-9.87981
ay쎯jh쎯	-9.88143
qd쎯mua쎯	-9.88157
,zq쎯	-9.88162
oaj쎯pa쎯	-9.88198
p쎯skq1쎯	-9.88275
zjo쎯	-9.88325
gdli쎯xmyj쎯	-9.88329
mfmw쎯kq쎯	-9.88363
bjv쎯ffv쎯km쎯	-9.88408
mfrk0쎯“	-9.88513
zob쎯	-9.88518
x쎯ri쎯	-9.88521
gwr쎯	-9.8858
qob쎯	-9.88586
uazz쎯	-9.88589
vm쎯wh쎯	-9.88599
bdol쎯oixb1쎯	-9.88601
nc쎯no쎯	-9.88632
vrd쎯	-9.88648
uae쎯lc쎯	-9.88656
ajl쎯oaj쎯	-9.88669
idxo쎯gai쎯	-9.8867
xl쎯wdrb쎯	-9.88675
mfok0쎯	-9.88779
kiay쎯	-9.88894
aeb쎯jaz쎯	-9.8892
zpa쎯	-9.88921
tma쎯	-9.88957
ri쎯xl쎯	-9.88969
dtg쎯gd쎯	-9.89002
b쎯gj쎯	-9.89012
xbby쎯mbjw쎯	-9.89033
zizi쎯bdkv쎯	-9.8906
uazw0쎯	-9.89089
쎇쎄	-9.89095
cey쎯	-9.89098
lolk쎯	-9.89111
vpk쎯	-9.89158
uaxk쎯nmb쎯	-9.89208
,la쎯uaqk쎯	-9.89216
vejn쎯	-9.89221
suc쎯zk쎯	-9.89228
vhp쎯	-9.89229
eaqm쎯so쎯	-9.89346
bjv쎯ffv쎯	-9.8941
bmrr쎯mamb쎯	-9.89445
udjw쎯zimo쎯oda쎯	-9.89515
vklx쎯	-9.89528
쎃쎀쎀쎀	-9.8956
zizi쎯y쎯	-9.89629
jrd쎯udyz쎯	-9.89651
ajx쎯rsym쎯	-9.89714
zl쎯xbby쎯	-9.89765
rhko쎯yod쎯	-9.8977
joa쎯rko쎯vwp쎯	-9.89792
zl쎯h쎯d쎯	-9.8984
ll쎯lczs쎯	-9.89846
쎈-	-9.89872
sf쎯yj쎯bxi쎯	-9.89886
rbk쎯	-9.89961
marm쎯zsj쎯	-9.90035
ch쎯t쎯	-9.90085
z쎯kq쎯	-9.90122
zy쎯suf쎯	-9.9016
sky쎯	-9.90164
yya쎯gdq쎯	-9.90169
pcd쎯	-9.90235
odnd쎯zyj쎯y쎯	-9.90284
yom쎯y쎯	-9.90312
yaps쎯	-9.90318
edlo쎯aii쎯	-9.90352
nbbq쎯	-9.90363
rj쎯b쎯	-9.90428
ear쎯	-9.90441
fl쎯ld쎯	-9.90482
wske쎯	-9.90514
tlod쎯	-9.9052
ed쎯sov쎯	-9.90573
nb쎯heqk쎯	-9.90589
,ak쎯	-9.906
oy쎯oz쎯yaj1쎯	-9.90617
mdl쎯hbkd쎯	-9.90714
bix쎯mamb쎯	-9.9072
rj쎯bg쎯	-9.90758
dsw쎯bzs쎯	-9.90766
eao쎯sjya쎯	-9.90779
aed쎯uojf쎯	-9.9082
bdol쎯	-9.9087
qux쎯	-9.90914
kv쎯mfpn쎯	-9.90942
odii쎯	-9.91025
p쎯zo쎯	-9.91027
mw쎯hecj쎯	-9.91027
쎁쎉쎆쎀mamb쎯	-9.91039
makr쎯qf쎯	-9.91128
쎁쎈쎀	-9.91201
vns쎯	-9.91241
쎁쎉쎅쎅mamb쎯	-9.91323
bub쎯wsa쎯	-9.91332
ggyg쎯wdrj쎯	-9.91372
nxby쎯nc쎯	-9.91517
oiad쎯hbkd쎯y쎯	-9.91538
,xmi쎯ad쎯ll쎯ho쎯.	-9.91584
vwj쎯	-9.91624
mamb쎯tk쎯	-9.91631
mc쎯sug쎯zhm쎯	-9.91664
qmyy쎯	-9.91718
tlf쎯	-9.91854
hme쎯	-9.91904
znl쎯	-9.9196
rj쎯zym쎯	-9.91967
yji쎯gd쎯d쎯	-9.91983
sjl쎯mfte쎯dex쎯	-9.92021
ceug쎯oaj쎯ob쎯	-9.92105
쎁쎉쎇쎅mamb쎯	-9.92107
al쎯nlk쎯	-9.92115
od쎯ufzm쎯	-9.92136
tl	-9.92157
eb쎯xbno쎯km쎯	-9.92173
gdq쎯ib쎯	-9.92179
mamz1쎯	-9.92214
oy쎯mw쎯	-9.92245
ai1쎯d쎯	-9.92261
a쎯ew쎯	-9.92276
odoa쎯xyis쎯	-9.92365
tdxg쎯mfld쎯	-9.9237
wj쎯bdzy쎯	-9.92405
djl쎯	-9.9248
ch쎯,	-9.92483
sm쎯g쎯	-9.92496
qyx쎯rsym쎯,	-9.92567
gha쎯	-9.92587
ry쎯odxj쎯	-9.9267
dyeo쎯	-9.92682
.dx쎯	-9.927
d쎯《	-9.92706
uaky쎯	-9.92771
tgva쎯ss쎯	-9.9281
쎄mamb쎯	-9.92837
쎁쎉쎆쎈mamb쎯	-9.92851
ys쎯ii쎯	-9.92859
nl쎯sc쎯	-9.9286
ai1쎯ehe쎯	-9.92908
wh쎯yod쎯	-9.92921
my쎯nfa쎯	-9.93002
xml쎯	-9.93028
wdgq0쎯smm쎯	-9.93094
bcx쎯	-9.93095
jal쎯vdnd쎯km쎯	-9.93131
dry0쎯	-9.93153
oz쎯wdk쎯	-9.93205
uke쎯	-9.93261
o쎯um쎯	-9.93305
z쎯ncds1쎯	-9.93356
klg쎯	-9.93425
wdtg쎯ku쎯	-9.93447
xho쎯	-9.93492
cejo쎯rsym쎯	-9.93507
feq쎯	-9.93515
oyl쎯	-9.9352
skw쎯sos쎯	-9.9352
vb쎯vdwy쎯	-9.93577
a쎯gc쎯	-9.936
쎇쎉	-9.93612
idj쎯b쎯	-9.93615
qrg쎯	-9.93638
,koxb쎯	-9.93655
ydsw쎯	-9.93668
kgy쎯	-9.93678
wz쎯ckb쎯vdwy쎯	-9.93824
ed쎯bix쎯	-9.93858
,a쎯pq쎯	-9.9392
ewz0쎯nx쎯	-9.93924
nsy쎯	-9.93933
cd쎯gd쎯	-9.93934
ar쎯sh쎯	-9.93944
():	-9.93953
sjl쎯slg쎯	-9.93983
uaku쎯	-9.9403
”u쎯	-9.94037
exn쎯	-9.94038
sod쎯edlo쎯	-9.94058
쎁쎉쎅쎇mamb쎯	-9.94073
ehi쎯	-9.94105
udjw쎯od쎯ja쎯	-9.94126
gdee쎯	-9.94228
vmg쎯	-9.94229
ajk쎯xyis쎯syy1쎯、	-9.94249
ecb쎯xb쎯	-9.94309
oos쎯zy쎯	-9.94312
qmyl쎯	-9.94364
쎂쎀쎁쎀	-9.94381
j쎯hma1쎯ezr쎯	-9.94443
odoa쎯	-9.94471
』『	-9.94521
bdzm쎯bdzy쎯	-9.94544
쎂쎀쎀쎇	-9.94545
kiz쎯	-9.94562
kz쎯vs쎯	-9.94579
neo쎯tgva쎯	-9.94629
sai쎯	-9.94656
moa쎯	-9.94667
frjg쎯qsoo쎯	-9.94687
wdmh쎯	-9.94691
zqr쎯	-9.94701
tirr쎯sy쎯	-9.94876
nak쎯mfkd쎯	-9.94998
.udlk쎯	-9.95032
쎃.	-9.95106
ox쎯mbro쎯	-9.95112
ko쎯aeb쎯	-9.95114
dlb쎯	-9.95142
nmi쎯mbro쎯	-9.95146
biaz쎯	-9.95176
mb	-9.95188
쎇쎀쎀	-9.95197
dyx쎯》	-9.95218
,jd쎯u쎯	-9.95228
-쎃	-9.95236
gi쎯ji쎯	-9.95262
sjl쎯fkx쎯	-9.95267
mf	-9.95288
uanl쎯bmy쎯	-9.95333
ewy1쎯bdzy쎯ym쎯	-9.9534
tbo쎯	-9.95381
odjy쎯rsj쎯	-9.95385
ai1쎯hecj쎯	-9.95445
kojl0쎯lr쎯	-9.95518
frz쎯mbjw쎯	-9.95522
vns쎯kg쎯	-9.95526
eru쎯	-9.95576
rki쎯l쎯	-9.95641
vwd쎯ufoy쎯	-9.95641
ckb쎯ajx쎯	-9.95695
쎈쎉	-9.957
gi쎯kom쎯	-9.95741
,yj쎯	-9.95759
xho쎯bdzy쎯	-9.95827
bni쎯	-9.95836
쎈mamb쎯	-9.95881
qd쎯o쎯	-9.9591
cejo쎯zq쎯	-9.95928
qj쎯	-9.95942
′	-9.95947
hexb쎯foz쎯	-9.96044
d쎯bdzs0쎯edl쎯km쎯	-9.96068
bixj쎯	-9.96096
gi쎯dsw쎯	-9.96101
uanw쎯oel쎯	-9.96102
rgy쎯	-9.96126
myz쎯sov쎯	-9.9617
rur쎯	-9.96176
sooe쎯	-9.96192
쎁쎉쎅쎂mamb쎯	-9.9621
zzm쎯pe쎯	-9.96221
kdml0쎯wdrb쎯	-9.96261
wxl쎯uanw쎯	-9.96295
exim쎯	-9.96359
xsy쎯	-9.9637
sjl쎯zym쎯bmm쎯kal쎯	-9.96371
aju쎯tgoo쎯	-9.96374
kq쎯nh쎯	-9.96376
fekg쎯lco쎯	-9.96414
bdzy쎯vklx쎯	-9.965
wduo쎯	-9.96511
hiy쎯	-9.96548
jji쎯	-9.96559
cbn쎯b쎯gj쎯mfjo쎯	-9.96605
cexs쎯oiad쎯y쎯	-9.96616
sbx쎯so쎯	-9.96637
jc쎯yh쎯kojr쎯	-9.96705
aij쎯gdw쎯	-9.96706
mfxw1쎯	-9.96707
kz쎯fq쎯	-9.96743
,n쎯nt쎯	-9.96758
b쎯ho쎯d쎯	-9.96761
wo쎯	-9.96765
fld쎯	-9.96808
wd쎯sos쎯	-9.96833
jh쎯	-9.96882
fjv쎯	-9.96923
vx쎯sbx쎯	-9.96963
lkr쎯	-9.96985
vcq쎯kfp쎯	-9.97013
udke쎯bdrd쎯	-9.97028
ucgd쎯all쎯	-9.97072
nfa쎯c쎯	-9.97077
fcb쎯	-9.97082
gmsr쎯	-9.97107
edeq쎯ruc쎯	-9.97111
sbd쎯aijr쎯	-9.9712
wgs쎯gx쎯	-9.97121
j쎯ezr쎯	-9.97145
ym쎯vdwy쎯	-9.97158
쎉쎄	-9.97172
gbk쎯	-9.97174
fj쎯cuc쎯hi쎯	-9.97237
udyz쎯	-9.97238
ak쎯sf쎯	-9.97239
hbz쎯drl쎯	-9.97299
vfk쎯	-9.97304
tirg쎯.	-9.97462
nsr쎯vb쎯	-9.97473
edl쎯sy쎯	-9.9749
odmw쎯	-9.97496
&;	-9.97511
,ch쎯	-9.97539
baa쎯vdwy쎯nsu쎯	-9.97558
vxf쎯	-9.97565
kku쎯iai쎯	-9.97701
tirf1쎯vki쎯	-9.97805
sc쎯nmb쎯,	-9.97834
jy쎯a쎯	-9.97858
oz쎯bdrd쎯	-9.9786
mfkp쎯	-9.97875
쎇쎇	-9.97911
bmm쎯gae쎯wdhb쎯	-9.97981
dpez쎯	-9.97984
nmi쎯l쎯.	-9.97987
qmc쎯	-9.98001
iikg쎯uanw쎯	-9.9807
mxb쎯	-9.9809
dcx쎯nrj1쎯tdgd쎯	-9.98093
ae쎯z쎯ho쎯	-9.98123
jli쎯	-9.98155
sucq쎯	-9.9818
lczs쎯aim쎯tgnd쎯	-9.98185
gds0쎯	-9.98185
uanl쎯drr쎯	-9.98219
,wdya쎯	-9.98242
ccx쎯	-9.98288
kdmp쎯	-9.98307
odwg쎯bhj쎯d쎯	-9.98324
djj쎯nmi쎯mzv쎯zs쎯	-9.98361
mekb쎯wlr쎯	-9.9837
fl쎯hew쎯	-9.98398
evj쎯	-9.98401
wdlc쎯mfji쎯fel쎯	-9.98403
vm쎯ri쎯	-9.98409
sefj쎯	-9.9841
vi쎯	-9.98451
wms쎯xhb쎯	-9.98466
쎁쎉쎆쎉mamb쎯	-9.98502
tgs1쎯,	-9.98525
idkx쎯	-9.9861
xms쎯	-9.98664
uoae쎯	-9.98664
:《	-9.98673
djv쎯	-9.98683
쎁쎉쎅쎉mamb쎯	-9.98744
heoo쎯gd쎯	-9.98747
sc쎯f쎯k쎯	-9.98749
dwm쎯ckb쎯	-9.98753
ekr쎯	-9.98758
rkz쎯	-9.98762
oaj쎯fr쎯	-9.98771
y쎯a쎯o쎯	-9.98785
zx쎯ckb쎯	-9.98827
pvf쎯cexs쎯	-9.98913
cd쎯ed쎯	-9.98925
yav쎯kmc쎯	-9.98947
vzj1쎯ckb쎯	-9.98948
sbd쎯sya쎯	-9.99015
dnxs쎯edwz쎯	-9.99059
ew쎯bdkv쎯	-9.99081
syy1쎯uyd1쎯	-9.99087
xkzi쎯ufzm쎯	-9.99094
kirr쎯odwy쎯	-9.99099
wsb쎯jddm쎯	-9.99112
qm	-9.99123
ngr쎯sxo쎯	-9.99125
a쎯bg쎯	-9.99127
jb쎯ufc쎯	-9.99131
gd쎯odoo쎯	-9.99141
fdm쎯pdel쎯	-9.99148
fubd쎯	-9.99152
maed1쎯	-9.99168
xby쎯	-9.99195
gdq쎯“	-9.99208
ed쎯oa쎯	-9.99209
쎁쎉쎄쎉mamb쎯	-9.99227
vs쎯bdzy쎯	-9.99254
bsj쎯	-9.99303
xl쎯odoo쎯	-9.99354
ec쎯wdtg쎯	-9.99392
hma1쎯mc쎯	-9.99403
rre쎯	-9.99452
da쎯ray쎯	-9.99466
prj쎯	-9.99486
majn쎯	-9.99503
mamb쎯ioow쎯	-9.99571
ns쎯l쎯	-9.99577
zx쎯vsnd쎯z쎯xe쎯	-9.99616
bmm쎯dpw1쎯.	-9.99635
ukl쎯	-9.9965
xbby쎯fdm쎯	-9.99687
km쎯sli쎯	-9.99692
쎀쎈	-9.99697
mimo쎯od쎯	-9.9974
쎆mamb쎯	-9.99743
rsj쎯od쎯	-9.99772
dag쎯	-9.99788
edj쎯ldeo쎯	-9.99811
heqk쎯	-9.9984
mfld쎯kirj쎯	-9.99862
ukl쎯um쎯	-9.9989
edy쎯ob쎯ob쎯jl쎯	-9.99893
,b쎯rid쎯	-9.99919
jby1쎯zhg쎯	-9.99995
xe쎯ae쎯	-10.0001
bdzn쎯	-10.0001
zzy쎯	-10.0007
vdwy쎯ob쎯ckb쎯ajx쎯	-10.0013
쎁.쎂	-10.0016
dh쎯hbkd쎯	-10.0016
ky쎯nx쎯	-10.0018
zq쎯kak쎯	-10.0019
xaj쎯syy1쎯	-10.0019
yya쎯h쎯u쎯	-10.0019
ydat쎯oi쎯	-10.002
lk쎯mamb쎯	-10.0024
쎀쎇	-10.0027
d쎯edjm쎯ajx쎯	-10.0029
vs쎯kak쎯	-10.0034
rgs쎯paj0쎯	-10.0036
d쎯sy쎯vb쎯	-10.0043
쎁쎉쎆쎆mamb쎯	-10.0059
쎂쎀쎀쎆	-10.006
qm쎯mfkd쎯	-10.0061
,kia쎯ad쎯	-10.0068
ya쎯,	-10.007
oz쎯yaj1쎯d쎯	-10.0073
heoo쎯u쎯	-10.0076
lczw쎯	-10.008
fds쎯,	-10.008
uoub쎯	-10.0084
ggnk쎯zmzj쎯	-10.0085
zzym쎯rd쎯	-10.0088
jiv쎯rgs쎯	-10.0089
,xmi쎯	-10.0091
bhv쎯lczs쎯	-10.0094
enaj쎯	-10.0095
kz쎯jirj쎯	-10.0099
mgn쎯	-10.01
g쎯oc쎯jc쎯	-10.0101
,iirr쎯	-10.0102
xro쎯	-10.0102
sjo쎯jk쎯	-10.0103
,bzy1쎯	-10.0104
ucgd쎯all쎯d쎯	-10.0107
쎁쎉쎅쎄mamb쎯	-10.0109
ns쎯nlwz쎯nr0쎯	-10.0117
쎈o쎯	-10.0121
zuz쎯xkc쎯	-10.0124
faj쎯	-10.0127
ne쎯zmya쎯	-10.0132
쎁쎉쎇쎂mamb쎯	-10.0133
nb쎯zs쎯d쎯	-10.0134
:쎃	-10.0134
fjkr쎯	-10.0134
gj쎯x쎯	-10.0139
zx쎯ewj쎯ckb쎯odxw쎯	-10.0145
baz쎯oda쎯	-10.0148
paiz쎯	-10.0148
d쎯bi쎯nmi쎯	-10.0149
a쎯idju쎯	-10.0152
jo쎯k쎯	-10.0152
xga쎯	-10.0153
()k쎯	-10.0153
쎁쎉쎅쎃mamb쎯	-10.0154
쎆쎁	-10.0155
yt쎯uzl쎯	-10.0157
mfkd쎯uaol쎯	-10.0158
pxby쎯plk쎯	-10.0158
ymo0쎯vb쎯	-10.0158
mf쎯	-10.016
sj쎯ob쎯	-10.0165
aep쎯tgs1쎯	-10.0165
hbz쎯mfr쎯	-10.0165
rsym쎯ckb쎯ajx쎯	-10.0166
d쎯nmi쎯l쎯	-10.0173
ebf쎯ib쎯	-10.0178
pd쎯	-10.0178
wa쎯paj0쎯,	-10.0181
ew	-10.0181
b쎯pm쎯	-10.0184
kiw쎯zni쎯	-10.0187
co쎯mfuo쎯	-10.0191
쎂mamb쎯	-10.0193
fsws쎯	-10.0202
zxk쎯nr0쎯	-10.0203
쎁쎆쎀	-10.0204
bdnw쎯baa쎯	-10.0206
sjl쎯gbs쎯	-10.0214
wdzf쎯nar쎯	-10.0215
g쎯a쎯boy쎯	-10.0218
r쎯biym쎯zq쎯	-10.0218
ecz1쎯hb쎯	-10.0219
tgnr쎯	-10.022
mzv쎯ark쎯sug쎯jjj쎯	-10.0224
au쎯gj쎯	-10.0224
g쎯tirr쎯sjk쎯	-10.0227
kry0쎯	-10.0231
쎀쎆	-10.0235
쎉쎀쎀	-10.0236
nij쎯	-10.0238
udjw쎯zbj쎯	-10.024
tirg쎯ggyy1쎯	-10.0245
zhm쎯jirj쎯	-10.0247
kd쎯tk쎯:	-10.0247
yb쎯ib쎯	-10.0252
ajx쎯edjm쎯	-10.0254
dyeo쎯waz쎯	-10.0255
b쎯bii쎯:	-10.0258
ubkd쎯	-10.027
,jaz쎯	-10.0272
kfg쎯ufsu쎯	-10.028
llbb쎯	-10.0281
gqw쎯	-10.0291
gj쎯mfjo쎯zrs쎯	-10.0297
d쎯mbbd쎯idju쎯	-10.0297
zni쎯mc쎯ciz쎯	-10.031
vsn쎯nfa쎯	-10.0311
baa쎯vdwy쎯nsu쎯.	-10.0312
gdd쎯	-10.0316
uba쎯	-10.0321
tgs1쎯tdjr쎯	-10.0322
odsx쎯agd쎯	-10.0329
zrs쎯쎁	-10.0333
vdwy쎯jl쎯	-10.0336
slg쎯ja쎯	-10.0336
ed쎯cd쎯	-10.0337
vik쎯	-10.0339
aep쎯h쎯y쎯	-10.0346
w쎯	-10.035
ceug쎯wdol쎯	-10.035
ybz쎯wh쎯	-10.0354
aep쎯,	-10.0355
ozy쎯	-10.0363
xbby쎯gdq쎯	-10.037
bdzw쎯bdzy쎯jl쎯	-10.037
zrcw쎯	-10.037
mcd쎯	-10.0371
fb쎯tdni쎯nr0쎯	-10.0374
쎈쎇	-10.0375
bd쎯mamb쎯	-10.0394
kq쎯kmc쎯	-10.0394
쎁쎉쎆쎁mamb쎯	-10.0394
un쎯	-10.0396
au쎯ggnk쎯	-10.0402
idlo쎯	-10.0403
zwan쎯	-10.0405
ae쎯uag쎯	-10.0406
gqw쎯iiko쎯	-10.0407
ufzm쎯ed쎯	-10.041
gi쎯oiad쎯	-10.0414
jni쎯	-10.0414
dsq쎯ka쎯	-10.0415
cev쎯	-10.0416
alo쎯	-10.0417
vcq쎯kv쎯	-10.0418
taii쎯tgs1쎯	-10.0418
sc쎯f쎯odod쎯ajx쎯	-10.0425
udke쎯nsu쎯.	-10.0429
bi쎯nmi쎯;	-10.0433
fjai쎯ckb쎯	-10.0433
fb쎯bwz쎯	-10.0434
gan쎯tl쎯	-10.0434
vao쎯bcx쎯	-10.0435
xmrr0쎯aku쎯	-10.0438
mc쎯sug쎯d쎯	-10.0442
pdxw쎯	-10.0445
mev쎯zym쎯	-10.0449
ae쎯sq쎯	-10.0451
nug쎯gd쎯mfkd쎯aku쎯	-10.0455
ckb쎯bi쎯gd쎯vdwy쎯	-10.0459
d쎯nmi쎯jjj쎯	-10.0459
iiq쎯	-10.0459
nub쎯	-10.0463
wai쎯vxi쎯	-10.0466
paj0쎯bdkv쎯	-10.0469
kgh쎯	-10.047
eako쎯va쎯	-10.047
uag쎯pxby쎯	-10.0471
xswl쎯	-10.0471
vdp쎯	-10.0479
frz쎯	-10.0481
vbj쎯	-10.0483
lkri쎯	-10.0486
al쎯mamb쎯	-10.0488
ssy쎯tj쎯	-10.0493
xyis쎯syy1쎯、	-10.0497
ahi쎯tb쎯	-10.0501
an쎯mamb쎯	-10.0502
oi쎯ku쎯d쎯	-10.0502
mnd쎯	-10.0502
bm쎯.	-10.0505
idke쎯	-10.0511
쎂쎀쎀쎃	-10.0511
wxl쎯l쎯	-10.0516
ezr쎯jjj쎯	-10.0519
myz쎯a쎯tdro쎯	-10.0525
rl쎯t쎯	-10.0526
vdwy쎯wdgq0쎯	-10.0529
xbkv1쎯suk쎯	-10.0532
fav쎯jjj쎯	-10.0535
zimo쎯nif쎯	-10.0537
쎀쎉	-10.0542
ewj쎯ku쎯	-10.0543
eqg쎯oiad쎯y쎯	-10.0547
rgy쎯yobv쎯	-10.0548
deq쎯	-10.0548
쎁쎉쎇쎄mamb쎯	-10.055
lorz쎯xt쎯	-10.0552
wmyy쎯	-10.0556
쎂쎅쎀	-10.0556
uujr쎯	-10.0564
vbz쎯	-10.0566
nhk쎯oda쎯	-10.0567
jdf쎯xn쎯	-10.0568
r쎯mwl쎯	-10.0569
sefj쎯fia쎯	-10.0574
lczs쎯zym쎯	-10.0576
mw쎯ckb쎯bi쎯nmi쎯	-10.0578
mamb쎯hexb쎯	-10.0579
yn쎯l쎯	-10.0581
rlo쎯cilo쎯od쎯	-10.0583
〕	-10.0583
mfj쎯au쎯	-10.0588
oz쎯wdz쎯	-10.0593
kcwz쎯	-10.0594
xej쎯mfz쎯ob쎯	-10.0594
,uae쎯g쎯	-10.0598
쎁쎉쎄쎅mamb쎯	-10.0598
mby1쎯	-10.0601
bdzs1쎯kag쎯	-10.0602
gj쎯mfjo쎯쎂	-10.0603
xju쎯nfa쎯	-10.0607
%,	-10.0608
mli쎯	-10.0609
xii0쎯nk쎯pdel쎯	-10.0609
jmua쎯jyms쎯	-10.0612
kg쎯vdwy쎯	-10.0614
tdhk쎯	-10.0616
xm	-10.0617
쎁쎉쎇쎇mamb쎯	-10.062
mw쎯uanw쎯	-10.0621
lo쎯	-10.0623
bdzs1쎯ku쎯nr0쎯	-10.0628
nb쎯gaj쎯	-10.0628
uanl쎯mbrd쎯	-10.0628
ugr쎯	-10.0632
od쎯yh쎯rly쎯sm쎯wh쎯	-10.0634
mfxb쎯xkc쎯	-10.0635
ak쎯k쎯	-10.0638
ymo1쎯bdnw쎯	-10.0639
ysk쎯gka쎯	-10.0641
xsjg쎯	-10.0642
jc쎯gdq쎯	-10.0642
ghj쎯	-10.0643
h쎯y쎯	-10.0643
ucyy쎯	-10.0643
lb쎯gm쎯vbi쎯	-10.0649
pfp쎯ryi쎯	-10.0651
tk쎯,	-10.0654
쎉쎃	-10.066
ri쎯aep쎯	-10.0665
wdz쎯lczs쎯	-10.0667
oisc쎯oisc쎯	-10.0671
zj쎯iirr쎯	-10.0675
a쎯hbmo쎯	-10.0676
jbv쎯	-10.0676
vhxf쎯	-10.0677
oy쎯gdli쎯ad쎯	-10.0678
i쎯zym쎯	-10.068
vdwy쎯fsv쎯sor쎯so쎯	-10.0681
gi쎯rsv쎯	-10.0681
voq쎯	-10.0681
zm쎯od쎯	-10.0682
xb쎯tdro쎯	-10.0684
tlvm쎯	-10.0686
mc쎯bdzy쎯	-10.0687
p쎯g쎯	-10.0687
yzzz쎯	-10.0687
zo쎯uaqk쎯	-10.069
mazy쎯agd쎯	-10.0692
a쎯mc쎯	-10.0695
evyy쎯jby1쎯ldod쎯	-10.0701
kb쎯,	-10.0703
쎀쎅	-10.0704
sc쎯nmb쎯、	-10.0704
heqk쎯uagw0쎯	-10.0708
cbn쎯	-10.0709
ufzm쎯dx쎯tgh쎯	-10.0714
oy쎯ob쎯	-10.0719
ckmh쎯	-10.0721
gd쎯fmg쎯	-10.0725
zmvr쎯	-10.0734
jro쎯	-10.0735
tdzj쎯pa쎯	-10.0736
ucgd쎯fsv쎯wdgq0쎯	-10.0736
mob쎯	-10.0736
psk쎯tdgd쎯	-10.0737
edy쎯ob쎯ckb쎯ajx쎯	-10.074
rhys쎯	-10.0754
suwl쎯jc쎯	-10.0754
쎈쎄	-10.0759
qyx쎯rsym쎯jjg쎯	-10.0759
sul쎯fb쎯	-10.0763
oy쎯fdyy쎯	-10.0765
gd쎯obb쎯	-10.0765
,sno쎯	-10.0766
jyia쎯	-10.0767
eqg쎯tirg쎯	-10.0767
yi쎯gi쎯	-10.0768
d쎯ecb쎯gzz쎯i쎯	-10.077
qqx쎯fjb쎯	-10.0775
ak쎯r쎯	-10.0779
fbq쎯	-10.078
bo쎯nlj쎯	-10.0784
ynd쎯xmi쎯	-10.0787
.zj쎯	-10.0787
um쎯fr쎯	-10.079
쎀쎃	-10.079
gdq쎯《	-10.0792
)、《	-10.0793
wdz쎯dkc쎯	-10.0804
udlk쎯g쎯	-10.0804
wb쎯fjai쎯	-10.0812
.koxb쎯	-10.0818
um쎯mfj쎯	-10.0818
waj쎯gdq쎯	-10.082
pvf쎯lorz쎯	-10.082
bdzw쎯nmi쎯	-10.0822
vas쎯	-10.0826
yjx쎯	-10.0829
vxz쎯	-10.083
n쎯nt쎯d쎯	-10.0833
zjk쎯	-10.0834
vcv쎯	-10.0839
odii쎯ku쎯,	-10.0842
1	-10.085
wzd쎯	-10.0852
udjw쎯ufzm쎯	-10.0856
kom쎯zm쎯	-10.0858
vs쎯mfjc쎯	-10.0859
dbo쎯	-10.0863
쎀쎂	-10.0865
ggym쎯jos쎯i쎯	-10.0865
udjw쎯zs쎯	-10.0868
ky쎯kq쎯	-10.087
g쎯《	-10.0871
pvgx쎯zmya쎯bm쎯	-10.0879
쎁쎂쎈	-10.088
(쎁)	-10.0882
wxj쎯rjrd쎯	-10.0884
boy쎯sos쎯	-10.0886
gh쎯	-10.0886
mfz쎯jl쎯、	-10.0888
kcx쎯u쎯	-10.089
ufc쎯wdml쎯	-10.0891
ewz0쎯	-10.0893
.쎁쎂	-10.0895
dz쎯	-10.0896
fdmj쎯	-10.0899
(쎂)	-10.09
wb쎯ucgd쎯	-10.0902
dqb쎯	-10.0903
wr쎯ku쎯gd쎯vdwy쎯	-10.0907
쎂쎀쎀쎉	-10.0908
b쎯jdrt쎯	-10.0911
gij쎯	-10.0917
row쎯	-10.0917
lk쎯gd쎯	-10.0918
sau쎯sor쎯	-10.092
sul쎯rhyl쎯	-10.0925
쎁쎉쎇쎃mamb쎯	-10.093
wdgq0쎯xej쎯	-10.0932
mbds쎯r쎯mfji쎯	-10.0937
gdoo쎯	-10.0939
hefb쎯yybd쎯	-10.094
.m쎯nt쎯	-10.0945
lkrs쎯xa쎯	-10.0946
vea쎯skw쎯	-10.095
rsj쎯wdgq0쎯	-10.0952
vk쎯nr0쎯	-10.0959
fav쎯b쎯	-10.0959
xyis쎯mcek쎯	-10.096
uae쎯gi쎯	-10.0962
ciq쎯co쎯	-10.0963
dax쎯	-10.0965
zmsx1쎯	-10.0965
boyj쎯zym쎯	-10.0966
aep쎯woj쎯	-10.0966
ay쎯au쎯sy쎯uf쎯,	-10.0967
pl쎯pm쎯	-10.0967
gur쎯	-10.0972
oip쎯	-10.0974
kb쎯d쎯	-10.0975
wlw쎯	-10.0975
m쎯d쎯	-10.0976
vkl쎯nkkv쎯	-10.0978
”mfj쎯“	-10.0983
nmg쎯	-10.0984
zmym쎯	-10.0986
yaj0쎯rko쎯	-10.0986
evfb쎯	-10.0988
nar쎯zj쎯	-10.099
j쎯ll쎯	-10.099
eoy쎯	-10.0991
k쎯o쎯	-10.0991
deo쎯	-10.0994
sjl쎯vkl쎯	-10.0996
nbds쎯	-10.1003
sq쎯sed쎯kal쎯	-10.1006
i쎯sli쎯	-10.1007
dld쎯	-10.1009
zkm쎯	-10.1016
쎇쎁	-10.1022
nl쎯rgs쎯fds쎯	-10.1022
oz쎯yaj1쎯dld쎯gdq쎯	-10.1025
fuy쎯	-10.1026
flkd쎯vns쎯	-10.1029
qdf쎯	-10.103
kae쎯	-10.1036
dwo쎯sds쎯	-10.1038
vrz쎯wxl쎯	-10.104
fec쎯	-10.104
fds쎯、	-10.1043
alb쎯tdro쎯	-10.1047
vk쎯ys쎯	-10.1049
u쎯sc쎯d쎯	-10.105
z쎯bdzy쎯fq쎯	-10.1053
ld쎯fu쎯	-10.1057
mua쎯	-10.1058
vff1쎯	-10.106
sjya쎯gdq쎯	-10.1061
mfld쎯	-10.1061
rj쎯gd쎯	-10.1062
udjw쎯oz쎯yaj1쎯	-10.1065
-쎄	-10.1066
kc쎯vv쎯	-10.1068
ldeo쎯aeb쎯	-10.1074
he쎯sij쎯	-10.1075
d쎯sq쎯sed쎯	-10.1077
z쎯boy쎯	-10.1079
g쎯cejo쎯	-10.1081
vhxf쎯uanw쎯	-10.1082
uaqk쎯paj0쎯	-10.1085
dpw1쎯fx쎯	-10.1087
sjy0쎯ch쎯	-10.1088
oro쎯ox쎯	-10.1088
―	-10.1089
j쎯gdq쎯	-10.1091
shwz쎯	-10.1092
tgxy쎯	-10.1093
tgoo쎯	-10.1096
ohg쎯	-10.1098
ay쎯au쎯sy쎯uf쎯	-10.1099
paj0쎯ecq1쎯	-10.1102
dwb쎯qqx쎯	-10.1102
udjw쎯sjy0쎯	-10.1105
brt쎯u쎯	-10.1105
ufgd쎯nz쎯	-10.1111
i쎯gdq쎯	-10.1114
bdrw쎯mfjc쎯	-10.1118
rsj쎯:	-10.1122
쎂쎀쎀쎅	-10.1129
wdmi쎯	-10.113
gi쎯f쎯	-10.1131
dkc쎯ark쎯	-10.1137
oaj쎯qyi쎯	-10.1138
zizi쎯nl쎯	-10.115
vmi쎯bdzy쎯,	-10.1153
yzi쎯boy쎯d쎯	-10.1159
nsos쎯cirh쎯	-10.1162
mfz쎯jl쎯,	-10.1166
lhg쎯	-10.1166
k쎯a쎯p쎯	-10.1171
oz쎯wsb쎯	-10.1174
fia쎯	-10.1175
ufjq쎯	-10.1178
yzi쎯yybd쎯	-10.1179
nbv쎯	-10.1179
koq쎯	-10.118
kz쎯bdzy쎯	-10.1186
cd쎯jc쎯	-10.119
so쎯mbro쎯njf쎯dwm쎯	-10.1192
zo쎯ec쎯	-10.1193
dsz쎯bser쎯	-10.1194
bdkv쎯vg쎯	-10.1198
nmi쎯ku쎯	-10.1199
yzs쎯	-10.1201
som쎯tgva쎯	-10.1204
rjrs쎯	-10.1206
,sm쎯oda쎯	-10.1208
i쎯gj쎯	-10.1211
mblk쎯h쎯	-10.1216
vao쎯xbby쎯	-10.1225
쎁쎉쎄쎈mamb쎯	-10.1225
j쎯ri쎯	-10.1226
쎅쎀쎀쎀	-10.1226
seus쎯	-10.1229
vdwy쎯、	-10.123
,nji0쎯bdnw쎯	-10.1234
koxb쎯mamb쎯	-10.1237
wsaj쎯	-10.1244
tdxi쎯	-10.1245
hae쎯	-10.1251
쎉-	-10.1251
쎀.쎁	-10.1257
q쎯zgp쎯yj쎯bi쎯nmi쎯	-10.1261
.쎃、	-10.1261
bdzs1쎯ku쎯mc쎯sug쎯	-10.1261
fq쎯kz쎯	-10.1262
d쎯gd쎯aeb쎯	-10.1264
jdrt쎯wdzf쎯	-10.1266
ehn쎯	-10.1269
nsb쎯	-10.1272
syy1쎯》	-10.1278
yc쎯)	-10.1279
ief쎯	-10.128
nkw쎯	-10.128
rsj쎯u쎯	-10.128
k쎯“	-10.1281
nb쎯》	-10.1281
쎁쎉쎅쎁mamb쎯	-10.1285
fjrl쎯	-10.1285
qqx쎯no쎯gdq쎯yxo쎯	-10.1287
vmi쎯um쎯	-10.1287
fdk쎯	-10.1288
.c쎯u쎯	-10.1289
nre쎯hdko쎯	-10.129
d쎯sy쎯hbi쎯	-10.1294
paj0쎯d쎯	-10.1297
drk1쎯wd쎯	-10.1301
.tgxj쎯	-10.1303
edlo쎯wdtg쎯	-10.1305
fl쎯nz쎯	-10.1305
wdml쎯bbd쎯	-10.131
쎁jaz쎯	-10.1317
sjy0쎯nsu쎯	-10.132
eof쎯jed쎯	-10.132
yxo쎯mblk쎯	-10.1323
bh쎯bdkv쎯bh쎯	-10.1327
nyd쎯bdrd쎯,	-10.1337
he쎯tk쎯	-10.1338
od쎯yh쎯hma1쎯ywb쎯	-10.1341
tgux쎯	-10.1343
tgkz쎯	-10.1345
fq쎯jjg쎯	-10.1346
a쎯ai1쎯	-10.1349
xbds쎯dh쎯	-10.1353
lczs쎯od쎯	-10.1353
ubx쎯	-10.1363
xlk0쎯	-10.1367
emkd쎯	-10.1368
dka쎯	-10.137
쎂쎀쎁쎁	-10.1371
쎇mamb쎯	-10.1374
.nl쎯	-10.1383
llg쎯ga쎯	-10.1387
saii쎯kq쎯	-10.1388
,udjw쎯	-10.1394
xjq쎯	-10.1399
tg쎯dpk쎯kz쎯wlr쎯	-10.1404
wsa쎯vdnd쎯	-10.1406
sli쎯j쎯wz쎯	-10.1409
h쎯bmy쎯sli쎯	-10.141
qyx쎯oml쎯	-10.141
uooj쎯	-10.1414
dgv쎯xe쎯	-10.1417
njaz쎯	-10.142
tryk쎯	-10.1422
-쎆	-10.1423
fkx쎯	-10.1427
idjh쎯oiqx쎯	-10.143
u쎯j쎯jc쎯	-10.1441
mbrd쎯bdnw쎯o쎯od쎯	-10.1443
mc쎯h쎯	-10.1443
eaek쎯	-10.1444
baz쎯wdrb쎯	-10.145
ne쎯zizi쎯	-10.1454
mbfj쎯mbmc쎯	-10.1456
edmy쎯yra쎯	-10.1457
myxk쎯	-10.1458
ymo0쎯ckb쎯	-10.1461
ffr쎯flw쎯	-10.1462
bi쎯sul쎯	-10.1464
mfwm쎯xyis쎯ch쎯	-10.1468
bdnw쎯zizi쎯ja쎯	-10.1469
ldos쎯	-10.147
sf쎯xbby쎯	-10.1471
bi쎯ku쎯gd쎯vdwy쎯	-10.1473
mazb쎯	-10.1474
》d쎯	-10.1477
kz쎯wlr쎯xek쎯	-10.1477
uabd쎯vdnd쎯	-10.1478
ce쎯fq쎯	-10.1478
esh쎯	-10.1479
qdos쎯ks쎯ho쎯	-10.1479
ss쎯fs쎯	-10.148
my쎯rjg쎯	-10.1481
frz쎯xbby쎯	-10.1484
odnd쎯	-10.1486
meb쎯edlc쎯	-10.149
yon쎯	-10.1492
etro쎯	-10.1493
2	-10.1497
쎇o쎯	-10.15
bilo쎯edgs쎯.	-10.15
ucq쎯haw쎯	-10.1501
sye쎯	-10.1501
mlka쎯vsn쎯	-10.1502
jdj쎯:“	-10.1503
,sjl쎯	-10.1506
kal쎯mc쎯	-10.1509
qmsx쎯	-10.1511
//	-10.1512
lgu쎯	-10.1513
gi쎯hbkd쎯	-10.1515
aij쎯lr쎯	-10.1522
qy쎯mamb쎯	-10.1529
odyk쎯ymo0쎯ad쎯	-10.153
쎄.	-10.1531
ld쎯iiko쎯	-10.154
erf쎯erez쎯	-10.1543
vmy쎯	-10.1548
soo쎯drl쎯	-10.1551
kiym쎯ya쎯	-10.1552
mamb쎯t쎯	-10.1559
zj쎯odsx쎯	-10.156
ecq1쎯tk쎯,	-10.1563
/쎂	-10.1564
jo쎯zq쎯	-10.1566
쎈쎃	-10.1569
쎉쎂	-10.1573
zbj쎯fjv쎯	-10.1574
bmm쎯zhy쎯	-10.1577
iirn쎯	-10.1585
vwm0쎯	-10.1589
da쎯ae쎯	-10.1591
ew쎯gdq쎯	-10.1591
ajk쎯sc쎯tel쎯	-10.1591
”k쎯	-10.1592
vl쎯wd쎯	-10.1592
ri쎯jc쎯	-10.1593
bmm쎯szq쎯xmyj쎯	-10.1593
.zmyi쎯	-10.1594
ngr쎯ucgd쎯	-10.1595
dcx쎯	-10.1607
쎁.쎀	-10.1612
ux쎯dax쎯	-10.1616
ak쎯r쎯d쎯	-10.1625
csjk쎯	-10.1629
gj쎯ufoy쎯	-10.1629
mlka쎯mw쎯	-10.1631
ufc쎯wz쎯	-10.1632
nhl쎯bb쎯	-10.1633
kojl0쎯mfz쎯	-10.1635
nlo쎯	-10.1636
fuo쎯zizi쎯	-10.1639
mxm쎯	-10.1646
gdq쎯a쎯o쎯	-10.1649
sjya쎯	-10.1651
tfn쎯vb쎯	-10.1651
uakk쎯wlw쎯	-10.1652
zgp쎯yj쎯bi쎯nmi쎯	-10.1653
gds1쎯au쎯	-10.1654
ed쎯gd쎯	-10.1654
j쎯so쎯mzv쎯	-10.1659
heoo쎯sjl쎯	-10.1666
nkic쎯	-10.1666
odii쎯ku쎯mw쎯ckb쎯	-10.1669
wlr쎯vdwl쎯	-10.167
mbds쎯mbds쎯	-10.1672
ahi쎯vx쎯sli쎯	-10.1674
hejc쎯	-10.1675
mbds쎯cejo쎯.	-10.1675
dvr쎯idjh쎯	-10.1677
,yya쎯	-10.1681
쎂쎂쎀	-10.1685
o쎯nfa쎯	-10.1686
dkr쎯	-10.1688
l쎯odmw쎯	-10.1694
zizi쎯ba쎯	-10.1694
bdol쎯lok쎯	-10.1694
,dk쎯sjl쎯	-10.1694
boyj쎯sli쎯	-10.1694
jk쎯kbib쎯	-10.1697
쎁쎀쎀%	-10.1703
mfgl1쎯	-10.1706
fdrk쎯	-10.1707
쎀.쎂	-10.171
.ggym쎯nmb쎯	-10.1711
tgxk쎯makr쎯	-10.1713
plx쎯	-10.1718
vsn쎯gbs쎯	-10.1719
ufc쎯elgd쎯	-10.1719
fekg쎯bxgd쎯	-10.1722
jjzy쎯	-10.1724
odii쎯ku쎯d쎯	-10.1725
fav쎯nc쎯	-10.1733
:쎁.	-10.1736
xss쎯	-10.1739
쎁쎉쎀	-10.174
nak쎯dax쎯	-10.1743
zo쎯u쎯	-10.1743
ryt쎯	-10.175
z쎯szq쎯	-10.1752
:쎄	-10.1753
hdko쎯edl쎯aku쎯	-10.1753
edy쎯ob쎯ob쎯jl쎯,	-10.1754
um쎯、	-10.1756
xbkv0쎯xmi쎯	-10.1757
쎁쎉쎇쎁mamb쎯	-10.1757
zgp쎯yj쎯ee쎯odjy쎯	-10.1761
zmxw쎯	-10.1761
aep쎯h쎯d쎯	-10.1762
:edx쎯db쎯	-10.1762
jdrt쎯aep쎯	-10.1763
ewa0쎯edj쎯	-10.1763
nrl쎯mbro쎯	-10.1764
krrr쎯ia쎯	-10.1766
brt쎯gdq쎯	-10.1767
oaw쎯	-10.1769
djj쎯	-10.1783
noo쎯mfrk0쎯	-10.1784
woy쎯	-10.1786
,m쎯	-10.1788
bkb쎯	-10.1793
sj쎯aij쎯zo쎯	-10.1796
ehsr쎯	-10.1797
xbuo쎯vmi쎯	-10.1799
wdzf쎯nm쎯	-10.1799
qmyy쎯lkc쎯	-10.18
bub쎯	-10.1804
uni쎯	-10.1807
aek쎯mbro쎯	-10.1815
a쎯sjy0쎯	-10.1815
likl쎯	-10.1816
iaya쎯	-10.1824
rys1쎯	-10.1825
bgi쎯	-10.1828
tgxj쎯nh쎯	-10.1829
al쎯tdro쎯	-10.1829
nbx쎯	-10.1838
pl쎯ccsx쎯	-10.1838
fds쎯od쎯.	-10.1846
oc쎯sf쎯	-10.1848
ku쎯zcl쎯	-10.1848
yji쎯nr0쎯	-10.185
ekkw쎯	-10.1851
akm쎯sejc쎯	-10.1851
a쎯mzv쎯ark쎯	-10.1856
odyk쎯zmzj쎯od쎯	-10.1862
g쎯sow쎯kb쎯	-10.1866
쎁쎉쎃쎇mamb쎯	-10.1866
kf쎯wdtg쎯	-10.1867
uef쎯lgu쎯	-10.1869
qnk쎯	-10.1869
axz쎯	-10.1873
vxl1쎯	-10.1875
od쎯ec쎯j쎯	-10.1877
nmh쎯	-10.1877
odnd쎯pdel쎯	-10.1883
udjw쎯nfa쎯	-10.1886
bmm쎯wdhb쎯	-10.1887
ld쎯mamb쎯	-10.1891
shlq쎯oiad쎯y쎯	-10.1896
a쎯drr쎯	-10.1899
prz쎯	-10.1904
agi쎯	-10.1907
fjai쎯aep쎯	-10.1913
an쎯zmc쎯	-10.1913
쎁쎉쎄쎆mamb쎯	-10.1913
ciry쎯	-10.1917
wdml쎯gxv쎯	-10.1921
,tirr쎯	-10.1924
sjy0쎯,	-10.1927
heqy쎯	-10.1932
kiw쎯baz쎯	-10.1933
d쎯kd쎯tk쎯	-10.1934
쎂쎈ka쎯	-10.1935
.j쎯jc쎯	-10.1939
a쎯nh쎯	-10.1941
wtyd쎯ecq1쎯	-10.1948
sjjq쎯	-10.1948
、sjl쎯	-10.1951
edjq쎯fia쎯ufoy쎯	-10.1953
a쎯byo쎯	-10.1966
bmy쎯ob쎯	-10.1969
vmi쎯bdzy쎯.	-10.1971
wxo쎯nf쎯	-10.1972
gae쎯woqy쎯bi쎯nmi쎯	-10.1973
myz쎯쎃	-10.1975
edmy쎯	-10.1976
llni쎯	-10.1977
puj쎯	-10.1978
kche쎯	-10.198
kojr쎯d쎯	-10.198
vwo쎯t쎯	-10.1983
idkf쎯	-10.1985
fpd1쎯	-10.1985
ucgd쎯ox쎯	-10.1995
uaxk쎯cejo쎯	-10.1997
,yj쎯oda쎯	-10.2005
zdkf쎯	-10.2006
myz쎯hd쎯	-10.2014
fdoe쎯	-10.2018
r쎯mamb쎯d쎯	-10.2021
wtxi쎯mfrk0쎯u쎯	-10.2029
pro쎯	-10.2031
ibi쎯	-10.2031
qyx쎯rsym쎯j쎯wz쎯	-10.2034
g쎯ad쎯	-10.2035
vkl쎯vdnd쎯	-10.2035
gi쎯maj쎯	-10.204
,kojl0쎯	-10.2043
fbo쎯	-10.2044
nb쎯haw쎯jjg쎯	-10.2047
ryzs쎯	-10.205
mazy쎯ka쎯	-10.2051
):	-10.2057
wr쎯nmi쎯mbro쎯	-10.2057
jilw쎯nb쎯	-10.2059
vwa쎯cag쎯	-10.2059
jyms쎯yzi쎯	-10.2061
wsxk쎯	-10.2061
k쎯m쎯jc쎯	-10.2062
,c쎯gdq쎯	-10.2063
zmg쎯	-10.2064
heqy쎯uanw쎯	-10.2066
z쎯kz쎯	-10.2071
ppp쎯	-10.2071
fdyy쎯rki쎯	-10.2073
ko쎯rd쎯	-10.2076
쎂쎀쎀쎄	-10.2081
sujr쎯wdol쎯	-10.2082
쎁쎉쎄쎇mamb쎯	-10.2085
pyqj쎯pynk쎯	-10.2086
o쎯fds쎯yh쎯ko쎯zl쎯,	-10.2091
fdmf쎯	-10.2096
,zx쎯dsw쎯	-10.2097
due쎯	-10.2104
gdq쎯:	-10.2106
zry쎯x쎯	-10.2107
rhyk쎯vdwy쎯	-10.2107
d쎯fg쎯aks쎯	-10.211
maj쎯sjo쎯sug쎯fx쎯	-10.2111
sc쎯ymo0쎯	-10.2111
dsz쎯zimo쎯	-10.212
jimg쎯	-10.2121
nir쎯xbby쎯	-10.2122
dq쎯ew쎯	-10.2124
wai쎯lczs쎯	-10.2125
sf쎯nre쎯	-10.2125
a쎯nfa쎯nr0쎯	-10.2126
±	-10.2127
aed쎯ajx쎯	-10.2131
g쎯jc쎯ldod쎯	-10.2132
wr쎯ku쎯od쎯ja쎯	-10.2135
tdrl1쎯vwo쎯	-10.2139
oz쎯sc쎯	-10.214
ngr쎯pdel쎯d쎯	-10.2141
vxa쎯	-10.2144
fsq쎯	-10.2145
zw쎯mfz쎯	-10.2145
ja쎯qwb쎯	-10.2146
tki쎯	-10.2147
soo쎯wxl쎯nak쎯mfk	-10.2147
---	-10.2151
kz쎯ns쎯	-10.2152
pq쎯	-10.2154
eyo쎯ceug쎯	-10.2154
쎁쎁쎀	-10.2156
yrn쎯	-10.216
쎁쎉쎅쎀mamb쎯	-10.2161
qdos쎯jb쎯	-10.2166
vkr쎯tdxi쎯ba쎯	-10.2169
fej쎯	-10.217
sbx쎯suk쎯	-10.217
qmal쎯	-10.2171
d쎯rj쎯mfji쎯	-10.2173
ae쎯z쎯d쎯	-10.2173
ymo1쎯zw쎯	-10.2182
dry1쎯mblk쎯	-10.2182
uoae쎯dsz쎯	-10.2185
nb	-10.2187
ggnk쎯ya쎯	-10.219
qrk쎯qsy쎯	-10.219
sed쎯kak쎯	-10.2192
a쎯ncq0쎯	-10.2194
agd쎯b쎯	-10.2196
ucnd쎯mc쎯	-10.2197
fmg쎯vyf쎯	-10.2197
sk	-10.2199
p쎯g쎯b쎯	-10.22
ai1쎯bdkv쎯	-10.2205
wxs쎯	-10.2205
★	-10.2206
qdxs쎯qdnc쎯	-10.2207
nrl쎯mli쎯	-10.2212
j쎯jc쎯koxb쎯nh쎯	-10.2212
쎁쎈쎉	-10.2214
jrd쎯	-10.2215
mfrk0쎯u쎯“	-10.222
woo쎯	-10.2221
쎁쎈쎈	-10.2223
쎁쎀-	-10.2224
u쎯sc쎯.	-10.2232
.sow쎯mfji쎯	-10.2233
na쎯l쎯d쎯	-10.2233
en쎯ede쎯	-10.2234
hbkd쎯gdw쎯	-10.2234
》eqg쎯	-10.2235
enaj쎯uabd쎯	-10.2236
mfz쎯dmh쎯	-10.2237
eao쎯sug쎯kojr쎯.	-10.2237
zby쎯	-10.224
liij쎯	-10.2241
,aep쎯h쎯	-10.2244
zl쎯h쎯.	-10.2249
vag쎯	-10.225
kico쎯	-10.2251
zm쎯yazo쎯	-10.2251
dyo쎯vdnd쎯	-10.2252
sov쎯mamb쎯	-10.2257
oy쎯fex쎯	-10.2259
》mfj쎯《	-10.2262
lbj쎯ecq1쎯	-10.2264
oyl쎯jdf쎯	-10.2265
ai1쎯xmi쎯	-10.2266
ekm쎯ryi쎯	-10.2266
pow쎯	-10.2267
nbu쎯	-10.2269
skx쎯h쎯	-10.2269
vcq쎯nre쎯gd쎯vdwy쎯	-10.2272
kobz쎯	-10.2274
wnr쎯ja쎯	-10.2274
.쎃.	-10.2275
vdwy쎯ob쎯ob쎯jl쎯	-10.2276
a쎯wd쎯d쎯	-10.2276
tird쎯ec쎯	-10.2276
yia쎯mfok0쎯	-10.2278
kd쎯ni쎯	-10.2279
,mamb쎯	-10.2279
doy쎯	-10.2282
mekb쎯kak쎯:	-10.2286
zo쎯od쎯u쎯fav쎯	-10.2286
lme쎯	-10.2288
ydj쎯	-10.2289
kz쎯zkml쎯	-10.229
(쎁쎉쎀	-10.2293
sy쎯hbi쎯:	-10.2295
ldod쎯ri쎯	-10.2298
kav쎯	-10.23
bka쎯	-10.2302
njf쎯rhyk쎯	-10.2303
nhm쎯	-10.2306
vmw쎯	-10.2308
mmh쎯syy1쎯fav쎯	-10.231
nry쎯	-10.2311
zhg쎯	-10.2312
j쎯ko쎯vdwy쎯	-10.2313
vnk쎯	-10.2317
bix쎯ed쎯	-10.2319
j쎯bdzs1쎯	-10.2323
yod쎯ch쎯	-10.2324
ldjn쎯sok쎯	-10.2324
kskp쎯nrj1쎯	-10.2325
mbbd쎯mfji쎯	-10.2327
sc쎯nmb쎯.	-10.2328
pjl쎯j쎯	-10.2329
(쎁쎉쎁	-10.2329
vzm쎯	-10.233
ryki쎯	-10.2331
vlv쎯	-10.2332
xoy쎯aij쎯.	-10.2334
mazy쎯a쎯	-10.2346
bdkv쎯hbkd쎯	-10.2348
ecb쎯sjy0쎯	-10.2353
ho쎯jk쎯	-10.2355
subl쎯	-10.236
opx쎯tgij쎯	-10.236
쎀uf쎯,	-10.2362
ymx쎯	-10.2367
drs쎯	-10.2369
,ad쎯	-10.2373
jikk쎯	-10.2374
fxo쎯fav쎯	-10.2379
ta쎯od쎯	-10.2383
ggnk쎯odyk쎯	-10.2385
nxw쎯	-10.2387
gi쎯sxo쎯	-10.2398
mgm쎯	-10.2398
kcx쎯wtyd쎯	-10.2402
eau쎯kf쎯	-10.2404
gg쎯wms쎯	-10.2405
ecp쎯·	-10.2405
qyx쎯rsym쎯d쎯	-10.2406
tggm쎯	-10.2407
su쎯nfa쎯	-10.2408
haw쎯vdwl쎯	-10.2411
lbg쎯	-10.2413
myz쎯bd쎯xki쎯	-10.2413
nkmw쎯scq쎯	-10.2414
nir쎯makr쎯	-10.2416
yybe쎯kojl0쎯	-10.2417
etr쎯	-10.2419
zrt쎯ad쎯	-10.2421
wms쎯b쎯sug쎯ae쎯z쎯	-10.2428
jc쎯ys쎯	-10.243
mc쎯sug쎯ecb쎯b쎯	-10.2434
tnx쎯	-10.2444
ga쎯wdgq0쎯tgb쎯	-10.2449
wolo쎯	-10.2452
d쎯bmm쎯vdwy쎯	-10.2454
kku쎯gdiy쎯	-10.2456
vs쎯wxl쎯	-10.2464
g쎯ucgd쎯jc쎯	-10.2466
nh쎯gxv쎯	-10.2468
sc쎯f쎯zo쎯	-10.2468
krrr쎯	-10.247
bkai쎯	-10.248
ajx쎯mbro쎯	-10.2486
nif쎯》	-10.2492
ib쎯	-10.2493
vki쎯akz쎯	-10.2494
mbds쎯cejo쎯	-10.2497
mcek쎯zyl쎯	-10.2497
(쎁	-10.2499
ko쎯cirs쎯	-10.2501
c쎯u쎯	-10.2503
llld1쎯nsu쎯	-10.2507
fs쎯ho쎯	-10.2507
wbk쎯rrk쎯	-10.2508
nbk쎯ym쎯	-10.2508
pdw쎯nh쎯	-10.2512
ajo쎯	-10.2513
xyis쎯·	-10.2514
gg쎯wdgq0쎯	-10.2521
y쎯.	-10.2522
dub쎯	-10.2522
rid쎯rid쎯ch쎯	-10.2524
m쎯oz쎯yaj1쎯	-10.2525
sb쎯fsw쎯y쎯	-10.2525
vwh쎯	-10.2526
.gl쎯	-10.2528
fl쎯odwy쎯	-10.2532
wa쎯jirj쎯	-10.2533
gak쎯nm쎯	-10.2534
rsj쎯wdya쎯	-10.2541
qdos쎯kg쎯	-10.2541
edj쎯bhv쎯	-10.2545
bh쎯edl쎯	-10.2551
bsym쎯	-10.2551
dmn쎯fekk쎯	-10.2554
쎁쎉쎃쎆mamb쎯	-10.2555
wms쎯tk쎯	-10.2559
zyj쎯vao쎯	-10.2559
”(	-10.2561
wbi쎯wh쎯	-10.2569
b쎯ckb쎯nsu쎯le쎯	-10.2569
fy쎯u쎯	-10.257
zl쎯h쎯,	-10.2571
odlz쎯	-10.2575
wdkz쎯	-10.2577
skx쎯aep쎯	-10.2581
mazy쎯a쎯o쎯	-10.2581
drk1쎯ufzm쎯	-10.2585
kni쎯	-10.2586
suc쎯	-10.2589
zizi쎯bdkv쎯d쎯	-10.2591
me쎯mamb쎯	-10.2593
k쎯a쎯wdgq0쎯nif쎯	-10.2594
rf쎯nm쎯ai1쎯	-10.2597
sjl쎯gdw쎯	-10.2598
bix쎯o쎯	-10.2603
zmy쎯	-10.2605
쎀쎄	-10.2609
r쎯od쎯	-10.2611
yi쎯aij쎯zo쎯	-10.2611
vuo쎯	-10.2613
oiqx쎯	-10.2624
xju쎯rll쎯	-10.2624
r쎯ufzm쎯	-10.2627
.wdf쎯	-10.263
ahi쎯fsv쎯	-10.2631
mfz쎯kojl0쎯mfz쎯、	-10.2634
mzv쎯zs쎯、	-10.2636
d쎯ggnk쎯lok쎯	-10.2638
wdtg쎯c쎯y쎯	-10.264
gsz쎯	-10.2647
smx쎯hbz쎯	-10.2652
mblk쎯ezr쎯	-10.2652
gdq쎯p쎯	-10.2653
ys쎯dwm쎯	-10.2653
vev쎯	-10.2656
qqr쎯	-10.2657
ozg쎯	-10.2657
vcd쎯	-10.2659
()、	-10.266
.paj0쎯	-10.2663
vs쎯nb쎯	-10.2666
hecj쎯ho쎯	-10.2671
aii쎯grl쎯	-10.2672
fubd쎯la쎯	-10.2673
li쎯	-10.2674
gg쎯sul쎯	-10.2674
zmyy쎯	-10.2677
sds쎯sor쎯	-10.268
jc쎯su쎯	-10.2682
pa쎯tirg쎯	-10.269
sb쎯fsw쎯	-10.2694
\	-10.2695
lich쎯	-10.27
,k쎯a쎯wdgq0쎯	-10.2701
sol쎯ae쎯	-10.2702
ewv쎯	-10.2708
oc쎯jc쎯rj쎯b쎯	-10.2709
sujr쎯rx쎯ym쎯	-10.2711
xyi쎯	-10.2713
baz쎯ihwz쎯	-10.2713
ldjn쎯uaqb쎯	-10.2718
쎂쎀e쎯zyy쎯	-10.2719
mtk쎯odnd쎯	-10.2721
,ggym쎯nmb쎯	-10.2735
jz쎯ne쎯	-10.2736
fdyy쎯gdq쎯	-10.2738
dxb쎯deki쎯	-10.2738
bju쎯pvgx쎯	-10.2738
a쎯jo쎯	-10.2738
,giw쎯gdq쎯	-10.2741
j쎯wz쎯、	-10.2741
haw쎯ucq쎯	-10.2745
""	-10.2747
nir쎯ymo1쎯	-10.2747
mbro쎯jjj쎯	-10.2748
krrr쎯kq쎯	-10.2751
ag쎯mh쎯	-10.2751
ajk쎯sjy0쎯ch쎯	-10.2752
sug쎯ad쎯	-10.2753
,ld쎯mamb쎯	-10.2754
,k쎯j쎯jc쎯	-10.2754
ce	-10.2755
jjg쎯、	-10.2755
쎁쎉쎃쎃mamb쎯	-10.2761
ˇ	-10.2764
dsz쎯obd쎯	-10.2765
bu쎯sug쎯	-10.2765
xbd쎯	-10.277
wdmr쎯	-10.2773
eduh쎯	-10.2774
dq쎯ucq쎯	-10.2775
oizm쎯	-10.2776
boy쎯idju쎯	-10.2779
eaqm쎯dq쎯	-10.2782
xms쎯ds쎯:	-10.2783
쎅oz쎯kb쎯	-10.2783
mekb쎯xbby쎯	-10.2785
쎈쎁	-10.2785
miy쎯nkic쎯	-10.2789
ufte쎯vfd쎯	-10.2789
ag쎯yxo쎯	-10.2794
%	-10.2798
bmm쎯gae쎯	-10.2803
.u쎯y쎯	-10.2819
cd쎯rl쎯	-10.2822
oc쎯ch쎯	-10.2823
bmrr쎯od쎯	-10.2823
kico쎯pkq쎯	-10.2824
kq쎯grl쎯	-10.2824
smiy쎯mc쎯	-10.283
pdro쎯	-10.2831
xkzi쎯dpw1쎯	-10.2832
b쎯sug쎯	-10.2836
vdwy쎯edfd쎯baa쎯	-10.2837
kojr쎯zl쎯h쎯jl쎯	-10.2838
(-)	-10.2839
kb쎯gj쎯	-10.2841
dsu쎯ai0쎯	-10.2845
eyd쎯od쎯	-10.2845
iirf쎯	-10.2846
hgr쎯	-10.2846
odod쎯gl쎯	-10.285
oz쎯rgo쎯	-10.285
bdzs1쎯vsc쎯ad쎯	-10.285
sop쎯	-10.2851
oixo쎯gd쎯	-10.2852
쎂)	-10.2857
rgs쎯gl쎯	-10.286
haw쎯pvwx쎯	-10.286
sc쎯f쎯gdq쎯	-10.2861
uxo쎯	-10.2861
x쎯sy쎯	-10.2864
b쎯idju쎯	-10.2869
쎁쎉쎃쎉mamb쎯	-10.2872
koxb쎯uaqk쎯	-10.2877
vbi쎯lczs쎯	-10.2878
yybd쎯yu쎯	-10.2879
sjl쎯xb쎯	-10.288
mbbd쎯jk쎯k쎯	-10.2881
sul쎯byo쎯	-10.2889
”“	-10.2889
kdli쎯	-10.289
sed쎯hkd쎯mc쎯szq쎯	-10.2897
wda쎯wdki1쎯	-10.29
emys쎯	-10.2903
쎁쎀쎀edjr2쎯	-10.2914
wa쎯b쎯	-10.2914
myz쎯ed쎯	-10.2917
heoo쎯sjl쎯d쎯	-10.2918
ydj쎯ae쎯	-10.2918
vm쎯lga쎯	-10.2921
dxb쎯	-10.2921
.jd쎯	-10.2924
wdtg쎯nfa쎯	-10.2935
me쎯uf쎯	-10.2938
jdj쎯hbkd쎯	-10.2939
pvzw쎯	-10.2941
bae쎯	-10.2942
zyj쎯	-10.2942
klzw쎯hbkd쎯	-10.2943
ihku쎯dzo쎯	-10.2945
eg쎯aed쎯	-10.295
zsy쎯	-10.2958
nre쎯od쎯	-10.2964
a쎯nx쎯	-10.2966
si쎯od쎯	-10.2975
horo쎯ucgd쎯	-10.2977
bdok쎯	-10.2979
nka쎯k쎯	-10.298
sod쎯aij쎯	-10.2983
oszi쎯	-10.2986
evk쎯	-10.2986
sc쎯fq쎯	-10.2988
syj쎯	-10.2989
dkx쎯	-10.2992
kag쎯fdm쎯	-10.2992
nk쎯ufxj쎯	-10.2994
oc쎯ho쎯	-10.2994
-쎈	-10.2997
,xmi쎯ad쎯	-10.3
oz쎯yaj1쎯.	-10.3001
,udlk쎯nmb쎯	-10.3003
-쎅	-10.3004
dsw쎯vi쎯	-10.3007
edx쎯sjy0쎯	-10.3008
u쎯fsz쎯wz쎯	-10.3008
gd쎯my쎯	-10.3008
mfz쎯ob쎯	-10.3012
noa쎯	-10.3012
a쎯nfa쎯	-10.3013
ka쎯kojl0쎯	-10.3017
neo쎯tgva쎯sul쎯	-10.3017
sump쎯	-10.3019
zxe쎯zrs쎯	-10.3021
쎁쎉쎄쎀mamb쎯	-10.3023
dsz쎯pdw쎯	-10.3025
nfa쎯mfjo쎯	-10.303
nya쎯	-10.303
aij쎯neo쎯	-10.3033
kz쎯guz쎯	-10.3033
vom쎯ufte쎯	-10.3035
,wdtg쎯c쎯	-10.304
sf쎯bhv쎯	-10.3043
쎀.쎃	-10.3045
kfg쎯	-10.3056
yjx쎯xjo쎯	-10.3056
oz쎯kb쎯,jhx쎯sol쎯	-10.3057
zmwg쎯	-10.306
rr쎯joqk쎯	-10.3062
vrj쎯yk쎯	-10.3063
gd쎯fuz쎯	-10.3065
oizr쎯	-10.3066
bmm쎯vdwy쎯bi쎯nmi쎯	-10.3068
voo쎯	-10.3069
bsj쎯szq쎯	-10.3071
gdyz쎯	-10.3071
“cd쎯	-10.3072
edjm쎯ysk쎯	-10.3074
mfte쎯ch쎯	-10.3075
jjg쎯fdm쎯	-10.3076
cdv쎯yod쎯	-10.3077
lbu쎯	-10.3078
쎃oz쎯kb쎯	-10.3081
hyu쎯	-10.3082
ne쎯hbkd쎯	-10.3084
mfte쎯vdwy쎯az쎯	-10.3085
sp쎯	-10.3093
쎂쎀쎁쎄mamb쎯	-10.3094
nrkw쎯d쎯	-10.3095
nx쎯,	-10.3096
gl쎯h쎯	-10.3096
ch쎯zrs쎯	-10.3098
mbro쎯ku쎯	-10.3099
vcq쎯vbj쎯	-10.3099
-)	-10.3102
zmxb쎯mfte쎯	-10.3108
gds1쎯au쎯vu쎯	-10.3109
kdxz쎯wdml쎯	-10.3112
.vfd쎯tgij쎯	-10.3115
uosu쎯	-10.3119
neo쎯kz쎯	-10.3121
gb쎯gdj쎯,	-10.3122
hdko쎯edl쎯sjy0쎯	-10.3124
qmgs쎯	-10.3137
쎂쎀쎁쎂	-10.3138
oz쎯bdrd쎯uaqk쎯	-10.3138
ggnn쎯	-10.3139
mfz쎯jl쎯.	-10.3139
cff쎯	-10.3141
zizi쎯nc쎯	-10.3144
fj쎯tirr쎯sjy0쎯	-10.3145
bxm쎯suk쎯	-10.3147
,edl쎯	-10.3148
ldod쎯sq쎯	-10.3148
sli쎯od쎯	-10.3148
h쎯su쎯d쎯	-10.3149
d쎯fsz쎯wz쎯	-10.3152
ag쎯pkr쎯	-10.3154
nr0쎯d쎯	-10.3157
ngr쎯mfym쎯d쎯	-10.3159
xsxi쎯	-10.3162
edx쎯dkjm쎯	-10.3168
kaa쎯:“	-10.3169
ob쎯ckb쎯ajx쎯	-10.317
ed쎯hd쎯	-10.3173
x쎯ky쎯	-10.3182
d쎯odii쎯ku쎯	-10.3188
(.)	-10.3189
ajk쎯ywb쎯ch쎯	-10.3194
jaz쎯:	-10.3194
쎁)	-10.3195
→	-10.3195
kiym쎯zm쎯	-10.3197
fl쎯nb쎯	-10.3197
jni쎯a쎯d쎯	-10.32
sug쎯ku쎯nr0쎯	-10.3202
uxb쎯udaj쎯	-10.3206
lkrw쎯hejc쎯	-10.3206
ckv쎯jc쎯	-10.3211
z쎯bdzy쎯	-10.3211
xyis쎯syy1쎯.	-10.3214
ffl쎯	-10.3215
wdrj쎯wm쎯d쎯	-10.3216
쎁.쎈	-10.3217
mise쎯ldeo쎯	-10.3217
vag쎯yj쎯	-10.3219
ko쎯zl쎯	-10.322
sc쎯vzj1쎯	-10.322
s쎯,	-10.3221
elbm쎯	-10.3221
yj쎯kql쎯	-10.3222
nfds쎯	-10.3224
oxaj쎯ufte쎯	-10.3227
baa쎯vdwy쎯nsu쎯,	-10.3228
(mtk쎯mfrk0쎯	-10.3231
yary쎯ya쎯	-10.3237
rjg쎯oai쎯	-10.324
dyx쎯aek쎯	-10.3242
rxw쎯um쎯	-10.3248
odua쎯	-10.3249
ceaz쎯	-10.3264
|	-10.3267
fxa쎯	-10.3268
ay쎯odmf쎯	-10.3269
fl쎯uag쎯d쎯	-10.3272
ajx쎯,	-10.3274
fl쎯ns쎯	-10.3274
d쎯uag쎯mzv쎯	-10.3275
dex쎯fsv쎯、	-10.3276
(ggnk쎯	-10.3277
,soo쎯wxl쎯nak쎯mfk	-10.3277
mekb쎯f쎯zgp쎯ufzm쎯	-10.3281
bdnw쎯cexs쎯	-10.3282
sux쎯	-10.3284
mfkd쎯aku쎯	-10.3286
ldo쎯go쎯	-10.3287
uf쎯.	-10.3291
gdq쎯wr쎯wm쎯	-10.3291
vcq쎯vmr쎯	-10.3294
hdko쎯sjk쎯	-10.3297
d쎯ufc쎯wsk쎯	-10.3298
uakk쎯yms쎯	-10.3299
dew쎯zizi쎯	-10.33
z쎯zizi쎯	-10.3302
bix쎯pa쎯	-10.3307
njf쎯nir쎯	-10.331
uag쎯wz쎯	-10.331
sf쎯ho쎯	-10.3314
ld쎯a쎯	-10.3315
cexs쎯zizi쎯	-10.3316
vfka쎯	-10.332
mc쎯vmi쎯d쎯	-10.3322
mbrd쎯paj0쎯g쎯	-10.3323
hx쎯gd쎯	-10.3324
gdwm쎯	-10.3325
ed쎯lk쎯	-10.3327
xsxs쎯sy쎯	-10.3328
)od쎯.	-10.3331
(zj쎯	-10.3331
bdzw쎯bdzy쎯jl쎯,	-10.3331
_	-10.3332
bi쎯eyd쎯ucgd쎯fsv쎯	-10.3332
dsqm쎯	-10.3337
ldm쎯zx쎯	-10.3345
qne쎯	-10.3349
gd쎯vfd쎯tgij쎯	-10.3354
p쎯gdq쎯d쎯	-10.3355
sk쎯bdrw쎯	-10.3356
gd쎯bdzs1쎯	-10.3365
jkr쎯	-10.3367
().	-10.3368
mc쎯.	-10.3372
djl쎯mbod쎯	-10.3375
skr쎯	-10.3378
vsc쎯qq쎯tdrl1쎯pa쎯	-10.3381
lczs쎯od쎯,	-10.3383
vkk쎯t쎯	-10.3389
쎂쎄쎀	-10.3391
ngr쎯hini쎯	-10.3396
,xbby쎯mbq쎯	-10.3398
ucq쎯dyx쎯	-10.34
jyj쎯jkc쎯	-10.3402
kia쎯iirr쎯	-10.3404
k쎯ucgd쎯jc쎯	-10.3405
pv쎯	-10.3406
ub쎯rll쎯	-10.3407
kiw쎯jirj쎯	-10.3408
xsig쎯vl쎯	-10.3411
.쎁쎁	-10.3411
oc쎯nfa쎯	-10.3411
irc쎯	-10.3412
i쎯y쎯	-10.3414
nkk쎯yybd쎯	-10.3418
oc쎯sy쎯nsu쎯	-10.3419
tlnh쎯tl쎯	-10.3422
]	-10.3426
mazy쎯tdro쎯	-10.3426
xl쎯kojl1쎯	-10.3426
ob쎯mfz쎯jl쎯	-10.3427
.”《	-10.3429
mbds쎯odwg쎯bhj쎯	-10.3432
cejo쎯ku쎯dex쎯fsv쎯	-10.3434
uanl쎯tel쎯	-10.3434
sn쎯oc쎯	-10.3435
jk쎯od쎯	-10.3435
oml쎯vwa쎯	-10.3436
edeq쎯yk쎯	-10.3438
fekg쎯mbbd쎯	-10.3438
c쎯yya쎯	-10.3443
jc쎯ba쎯gj쎯mfjo쎯	-10.3444
kom쎯ufzm쎯yh쎯smm쎯	-10.3444
xa쎯edjr2쎯kiw쎯	-10.3445
,쎀쎀쎀	-10.345
cb쎯edgs쎯	-10.3452
qmxm쎯	-10.3452
sug쎯mc쎯d쎯	-10.3454
xc쎯	-10.3455
koqk쎯	-10.3455
vsjy쎯	-10.3461
.zj쎯kf쎯	-10.3464
mamb쎯sug쎯	-10.3465
쎂쎅쎆	-10.3466
,sj쎯k쎯	-10.3466
.mbrd쎯paj0쎯	-10.347
iy쎯	-10.3476
yi쎯aij쎯	-10.3477
vcq쎯edeq쎯	-10.3478
bmm쎯vdwy쎯cuc쎯	-10.3481
쎃쎂쎀	-10.3484
ufc쎯pfp쎯	-10.3484
쎁쎉쎆쎇mamb쎯	-10.3485
xl쎯vl쎯	-10.3485
nor쎯sjym쎯	-10.3487
md쎯vb쎯	-10.3487
、km쎯	-10.3489
wdki0쎯wd쎯	-10.349
xl쎯odxw쎯	-10.349
쎁쎃쎀	-10.3491
wr쎯wm쎯	-10.3493
od쎯gd쎯nh쎯cirh쎯	-10.3493
pde쎯	-10.3495
,hdko쎯	-10.3496
ch쎯wdz쎯	-10.3503
edfd쎯baa쎯paj0쎯	-10.3504
kv쎯kf쎯	-10.3511
mfk쎯jb쎯	-10.3512
mmh쎯rsj쎯	-10.3513
rid쎯,	-10.3514
쎀ski1쎯,	-10.3515
m2	-10.3516
zizi쎯np쎯wsb쎯:	-10.3517
llrs쎯.	-10.3518
vwj쎯vsn쎯	-10.3518
uohz쎯	-10.3519
wym쎯,jhx쎯sol쎯	-10.352
“j쎯jc쎯	-10.3521
au쎯brt쎯my쎯vkl쎯쎁	-10.3525
k쎯a쎯rsj쎯	-10.3525
kv쎯j쎯	-10.3526
쎉쎁	-10.3531
gdq쎯som쎯d쎯	-10.3534
mfte쎯wdhb쎯	-10.3538
a쎯fav쎯	-10.3541
ri쎯sbx쎯	-10.3543
dex쎯fsv쎯ym쎯kak쎯	-10.3548
gef쎯	-10.3548
ufzm쎯dwb쎯	-10.355
sf쎯rmg쎯	-10.355
muu쎯	-10.3553
edjq쎯elrs쎯id쎯	-10.3553
ffj쎯	-10.3557
#	-10.3558
sau쎯wdki0쎯	-10.3561
sf쎯dex쎯fsv쎯	-10.3561
vyou1쎯	-10.3563
dwy쎯	-10.3563
edx쎯yod쎯	-10.3564
odwg쎯mbrd쎯	-10.357
lx쎯lcq쎯	-10.3575
“”	-10.358
kgw쎯uonc쎯	-10.3583
edx쎯nds쎯	-10.3583
dpa쎯	-10.3587
er쎯wdrb쎯	-10.3592
jxs쎯	-10.3593
gxv쎯tdgd쎯	-10.3594
bzs쎯xi쎯	-10.3595
hal쎯	-10.3595
ydjy1쎯	-10.3597
rlmi쎯	-10.3603
d쎯tj쎯kag쎯	-10.3603
mh쎯vxb쎯hdko쎯	-10.3605
d쎯ecb쎯gzz쎯	-10.3606
fsv쎯sbx쎯	-10.361
쎁쎉쎃쎀mamb쎯	-10.3611
ve쎯ja쎯	-10.3611
mc쎯ckb쎯	-10.3611
wb쎯fjai쎯d쎯	-10.3613
wdml쎯hdyd쎯	-10.3617
vhg쎯	-10.3619
쎁쎅edjr2쎯	-10.362
ho쎯mfz쎯	-10.3625
tdrx쎯nr0쎯	-10.3627
tdj쎯bizi쎯	-10.3628
,pvf쎯l쎯	-10.3629
dyj쎯ceaz쎯	-10.3631
jsk1쎯	-10.3632
vnug쎯tl쎯	-10.3634
a쎯agd쎯	-10.3636
쎁쎉쎃쎈mamb쎯	-10.3637
kiym쎯od쎯	-10.3638
mw쎯ckb쎯mfj쎯	-10.364
su쎯ji쎯	-10.3641
tdow쎯bzy1쎯	-10.3643
gbs쎯zwan쎯	-10.3644
fogm쎯	-10.3645
kbx쎯mc쎯	-10.3645
ndgo쎯mfkd쎯	-10.3645
dvr쎯	-10.3646
vwo쎯sok쎯	-10.3647
trt쎯txl쎯	-10.3649
aim쎯vzj1쎯sjy0쎯	-10.3651
fx쎯mfkd쎯	-10.3651
gd쎯zrs쎯	-10.3652
mtk쎯odnd쎯:	-10.3653
b쎯ew쎯	-10.3656
xkc쎯ymo0쎯	-10.3656
dmy쎯	-10.3661
tljr쎯	-10.3668
,gi쎯ufzp쎯	-10.367
a쎯ufgd쎯	-10.3676
a쎯p쎯	-10.3677
a쎯bxgd쎯	-10.3678
wai쎯anr쎯	-10.3679
mfte쎯uakk쎯	-10.3679
xm쎯	-10.3681
nlug쎯bdzw쎯ob쎯	-10.3683
uanl쎯wdgq0쎯	-10.3683
,zj쎯kf쎯	-10.3684
tdrz쎯	-10.3684
wdgq0쎯ch쎯	-10.3693
uel쎯	-10.3693
sc쎯bdzy쎯	-10.3693
jirj쎯zhm쎯	-10.3696
wdy쎯sy쎯	-10.3698
dnxs쎯	-10.37
fow1쎯nij쎯	-10.37
mbds쎯)	-10.3707
smr쎯oi쎯	-10.3713
fav쎯ucl쎯	-10.3715
ns쎯fjrl쎯	-10.3715
fk쎯srk0쎯	-10.3716
zx쎯vsnd쎯mw쎯ckb쎯	-10.3716
vwr쎯t쎯	-10.3718
ob쎯sed쎯kal쎯	-10.3718
)mfj쎯	-10.372
ne쎯vb쎯	-10.3721
sjl쎯baz쎯	-10.3722
쎁쎉쎄쎁mamb쎯	-10.3722
eked쎯ggnk쎯	-10.3727
cirs쎯edjr2쎯qdos쎯	-10.3733
aim쎯edy쎯mfz쎯jl쎯	-10.3733
oy쎯sjya쎯	-10.3733
쎄.쎅	-10.3737
mbrw쎯l쎯	-10.3738
쎁쎈쎆	-10.3739
y쎯“	-10.374
a쎯xb쎯	-10.374
ryi쎯vxb쎯	-10.3747
boy쎯,	-10.3749
fd	-10.3759
nk	-10.376
dpj쎯	-10.3762
-쎇	-10.3763
ed쎯odmf쎯	-10.3765
ihag쎯	-10.3767
zym쎯cejo쎯mfrk0쎯	-10.3768
zoa쎯xsxi쎯	-10.3773
vqj쎯vm쎯	-10.3776
ciyg쎯	-10.3778
vew쎯	-10.3779
ー	-10.3779
did쎯	-10.3779
yj쎯ux쎯	-10.378
j쎯ko쎯odii쎯ku쎯	-10.3783
hdko쎯tirr쎯sjy0쎯	-10.3786
h쎯od쎯	-10.3786
wyk쎯	-10.3791
pe쎯kojr쎯mfz쎯	-10.3791
tdrl1쎯pdel쎯	-10.3793
bdzy쎯qs쎯	-10.3794
nmy쎯wcj쎯	-10.3795
dxi쎯	-10.3802
zhy쎯yt쎯	-10.3804
ldo쎯gdxs쎯	-10.3804
d쎯skw쎯kiw쎯	-10.3807
wdf쎯nh쎯	-10.3807
ggym쎯nh쎯	-10.3808
a쎯an쎯	-10.3808
ob쎯ajk쎯ob쎯ch쎯	-10.381
gduo쎯ryi쎯	-10.3811
bwz쎯》	-10.3813
sjr쎯	-10.3814
oaj쎯nmi쎯uag쎯mzv쎯	-10.3815
jcv쎯c쎯	-10.3818
sos쎯rsym쎯	-10.3819
yzi쎯ermm쎯	-10.3822
hdko쎯ewbr쎯sli쎯	-10.3824
ns쎯nlwz쎯dex쎯fsv쎯	-10.3824
쎁쎉쎄쎂mamb쎯	-10.3826
lczs쎯od쎯.	-10.3829
dex쎯fsv쎯mfj쎯	-10.3829
odwg쎯mbrd쎯d쎯	-10.3831
baz쎯fsz쎯	-10.3832
mfte쎯mfte쎯ch쎯	-10.3835
yia쎯fj쎯	-10.3835
fj쎯edl쎯sjy0쎯	-10.3837
zyl쎯ohy쎯dqs쎯oi쎯	-10.3837
wtds쎯	-10.3841
gd쎯ym쎯	-10.3843
.”vcq쎯	-10.3844
an쎯odmf쎯	-10.3846
nbzd쎯fb쎯	-10.3846
iirr쎯ri쎯	-10.3848
dvw쎯dub쎯	-10.3848
ajx쎯rsym쎯p쎯	-10.3848
nmi쎯zizi쎯	-10.3851
zizi쎯d쎯	-10.3852
kcx쎯zmya쎯d쎯	-10.3853
.쎁쎀	-10.3853
rscw쎯	-10.3855
jl쎯,	-10.3861
rsyw쎯	-10.3862
.fxo쎯dx쎯	-10.3864
qqd쎯qbo쎯	-10.3867
ty쎯som쎯	-10.3868
ucgd쎯xl쎯	-10.3869
nfa쎯mekb쎯	-10.3869
vwo쎯pvwx쎯	-10.3871
fq쎯,	-10.3871
vdwy쎯mc쎯d쎯	-10.3871
qwz쎯	-10.3872
sow쎯fu쎯d쎯	-10.3878
bdkv쎯d쎯	-10.3882
odod쎯ajx쎯myz쎯a쎯	-10.3887
ag쎯sor쎯	-10.3888
al쎯gd쎯	-10.3889
vb쎯mblk쎯	-10.3889
wsk쎯smi쎯	-10.389
lk쎯mfya쎯	-10.389
qf쎯soo쎯	-10.3891
rry쎯	-10.3894
mfjr0쎯rsym쎯	-10.3899
쎁.쎆	-10.39
ubi쎯yybe쎯	-10.39
쎁、	-10.39
edfd쎯baa쎯,	-10.3902
dub쎯ryt쎯	-10.3904
kdxb1쎯db쎯“	-10.3904
rhyk쎯ai1쎯	-10.3904
mfjr0쎯zimo쎯	-10.3906
ogl쎯qek쎯	-10.3908
wsk쎯mfwm쎯	-10.3911
vsm쎯wdrj쎯	-10.3912
fak쎯	-10.3914
xe쎯c쎯	-10.3916
kiym쎯vx쎯smm쎯	-10.3916
myyn쎯	-10.3916
d쎯aep쎯hbi쎯	-10.3917
ldod쎯d쎯	-10.3917
uouo쎯、	-10.3925
,ggnk쎯rsj쎯	-10.3926
whi쎯bh쎯	-10.3927
ks쎯idju쎯	-10.3928
cirh쎯suep쎯	-10.3931
ecp쎯bka쎯	-10.3931
xbkk쎯	-10.3933
zma쎯	-10.3934
hpd쎯	-10.3936
zs쎯vzj1쎯	-10.3939
oz쎯gdli쎯	-10.394
nre쎯tirr쎯	-10.3942
ka쎯ecq1쎯	-10.3943
qyx쎯rsym쎯、	-10.3945
gae쎯woqy쎯wdhb쎯	-10.3945
grl쎯njf쎯	-10.3946
qmk쎯sjy0쎯	-10.3947
xhm쎯kk쎯	-10.3948
gi쎯alb쎯	-10.3949
jnj쎯tgva쎯	-10.3951
uzj쎯	-10.3951
zzm쎯fds쎯	-10.3952
gdq쎯kd쎯	-10.3956
ldod쎯gdq쎯	-10.3958
mwl쎯,	-10.3959
pjl쎯ldod쎯	-10.396
xmyj쎯sjy0쎯	-10.3964
cd쎯zym쎯	-10.3965
,oc쎯	-10.3968
ckb쎯vdwy쎯	-10.3968
.c쎯gdq쎯	-10.3969
nfa쎯ldod쎯	-10.3971
yji쎯sl쎯	-10.3975
jo쎯f쎯	-10.3976
jl쎯、	-10.3977
wgs쎯rgs쎯	-10.3977
쎃.쎀	-10.3978
mfte쎯gae쎯bg쎯la쎯	-10.3983
,mbbd쎯jk쎯k쎯	-10.3984
dgh쎯bdzy쎯	-10.3985
.j쎯eao쎯kojr쎯jl쎯.	-10.3986
nb쎯udyw쎯	-10.3989
edl쎯kkv쎯	-10.399
yi쎯mfrk0쎯	-10.3991
udyz쎯ya쎯	-10.3992
:쎉	-10.3995
nmi쎯kk쎯	-10.3995
bi쎯nmi쎯wdhb쎯	-10.3996
tg쎯vmw쎯tgva쎯l쎯a	-10.4
wc쎯	-10.4
gdki쎯	-10.4001
xed쎯	-10.4002
qdos쎯ucq쎯	-10.4003
ldm쎯waj쎯	-10.4003
.a쎯pq쎯	-10.4005
wb쎯h쎯y쎯	-10.4007
.la쎯uaqk쎯,	-10.4008
pqj쎯	-10.4009
bdzs1쎯ku쎯rre쎯ku쎯	-10.401
wsz쎯jjj쎯	-10.4013
ldeo쎯aeb쎯d쎯	-10.4013
dxi쎯ped쎯aep쎯	-10.4014
sjy1쎯	-10.4015
ca쎯edeq쎯	-10.402
zm쎯,	-10.402
zlo쎯uf쎯	-10.4021
dgv쎯	-10.4023
oz쎯uaol쎯	-10.4024
dk쎯zizi쎯y쎯	-10.4025
nby쎯gd쎯	-10.4034
kion쎯gj쎯	-10.4034
muq쎯	-10.4035
ak쎯u쎯	-10.4035
ufc쎯mbrw쎯	-10.4035
bi쎯ob쎯	-10.4037
uo쎯ll쎯	-10.4041
쎁쎉쎄쎄mamb쎯	-10.4042
vkl쎯bxmk쎯	-10.4043
gtg쎯mbro쎯	-10.4043
sm쎯bizi쎯idjh쎯rx쎯	-10.4044
jb쎯uanw쎯	-10.4045
zizi쎯rid쎯	-10.4046
ed쎯qy쎯	-10.4048
ho쎯aim쎯tgnd쎯	-10.4049
쎂oz쎯kb쎯	-10.405
z쎯ta쎯	-10.405
j쎯ggnk쎯	-10.4059
zmh쎯	-10.4062
na쎯l쎯.	-10.4063
.쎂쎀쎀쎆mamb쎯	-10.4069
nmi쎯bm쎯:	-10.407
pfwz쎯	-10.4072
gdzn쎯ggky쎯d쎯	-10.4073
kcx쎯pdw쎯	-10.4074
km쎯、sli쎯	-10.4076
kcx쎯ko쎯	-10.4078
mc쎯mbro쎯vdwy쎯	-10.4078
mfte쎯dex쎯h쎯kf쎯	-10.4079
bm쎯d쎯	-10.408
al쎯od쎯	-10.408
》qf쎯bwz쎯	-10.4081
zzm쎯aim쎯tgnd쎯	-10.4083
xyis쎯j쎯	-10.4084
j쎯edl쎯	-10.409
uef쎯gtg쎯	-10.4091
zej쎯	-10.4096
,ggnk쎯	-10.4098
fav쎯oz쎯yaj1쎯	-10.4104
sod쎯	-10.4107
bil쎯ku쎯	-10.4108
oa쎯mamb쎯	-10.4109
oc쎯sf쎯d쎯	-10.4109
tj쎯kag쎯,	-10.4113
sds쎯	-10.4118
mdhr쎯	-10.412
sq쎯sed쎯,	-10.412
nr0쎯、	-10.4123
sc쎯f쎯l쎯ad쎯	-10.4124
nre쎯edl쎯	-10.4125
ywz쎯	-10.4125
kg쎯vlw쎯	-10.4126
iak쎯	-10.4126
d쎯la쎯d쎯	-10.4127
ekgu쎯	-10.413
gj쎯mfjo쎯쎃	-10.4131
bmm쎯mfz쎯	-10.4131
ewj쎯mbjw쎯	-10.4132
bhv쎯zzm쎯	-10.4133
wa쎯zzm쎯	-10.4137
xyis쎯akz쎯wdgq0쎯	-10.4138
mbbd쎯ryi쎯d쎯	-10.4141
drk1쎯bk쎯	-10.4144
fba쎯	-10.4146
gds1쎯ya쎯	-10.4146
nmb쎯cejo쎯	-10.4146
udjw쎯xmyj쎯	-10.4151
xjs쎯	-10.4151
vf쎯	-10.4153
k쎯zx쎯	-10.4158
id쎯	-10.4158
lok쎯k쎯	-10.4161
kku쎯bk쎯xmue쎯	-10.4162
wsb쎯mfte쎯	-10.4164
armk쎯vxbd쎯lij쎯	-10.4165
.nsu쎯ad쎯	-10.4165
pfxb쎯sm쎯	-10.4166
쎁/쎂	-10.4166
mfj쎯b쎯ho쎯	-10.4167
bzym쎯	-10.4167
쎁/	-10.4167
d쎯ld쎯kd쎯,	-10.4168
×쎂	-10.4171
vnu쎯	-10.4179
gu쎯	-10.4181
va쎯vs쎯	-10.4181
bi쎯nmi쎯od쎯jl쎯	-10.4182
gae쎯woqy쎯》	-10.4183
joqk쎯	-10.4185
ho쎯ldod쎯	-10.4185
vdwy쎯bdzs1쎯ku쎯	-10.4185
iirz쎯ryi쎯	-10.4197
od쎯tk쎯	-10.42
yza쎯	-10.4202
nji0쎯	-10.4202
sf쎯sug쎯jjj쎯	-10.4204
jc쎯ca쎯	-10.4204
zme쎯	-10.4206
heoo쎯r쎯	-10.4208
so쎯ceug쎯	-10.4209
wr쎯sug쎯jjj쎯	-10.4209
mfte쎯gae쎯bi쎯nmi쎯	-10.421
toy쎯	-10.421
en쎯mc쎯	-10.421
i쎯ldo쎯	-10.421
wsb쎯ob쎯njf쎯ysk쎯	-10.4213
au쎯uf쎯	-10.4215
.vcq쎯	-10.4216
suw0쎯	-10.422
xma쎯	-10.4221
》j쎯d쎯	-10.4222
ercw쎯	-10.4222
ymv쎯hb쎯	-10.4222
pcd쎯mbjw쎯	-10.4223
h쎯su쎯y쎯	-10.4224
ggky쎯t쎯	-10.4228
ob쎯ajk쎯sc쎯nmb쎯	-10.4228
hez쎯	-10.423
ikz쎯smx쎯	-10.4231
j쎯ldgd쎯kojr쎯fs쎯	-10.4231
b쎯ncq0쎯	-10.4235
fwb쎯	-10.4236
hdko쎯ewbr쎯	-10.4236
xl쎯idju쎯	-10.4245
rre쎯ku쎯mc쎯	-10.4246
』	-10.4251
mbro쎯mfji쎯	-10.4251
mamz1쎯are쎯	-10.4252
cgi쎯ey쎯	-10.4255
qek쎯	-10.4255
la쎯xbkv1쎯	-10.4256
mfjo쎯kiz쎯y쎯	-10.4257
ka쎯dyx쎯	-10.4258
ch쎯co쎯	-10.4258
sf쎯vao쎯	-10.4262
dyj쎯mc쎯	-10.4263
wjr쎯	-10.4264
yps쎯	-10.4264
dymb쎯	-10.4265
rgy쎯fq쎯	-10.4268
vsx쎯vklx쎯	-10.4269
,kcx쎯paj0쎯	-10.4271
eao쎯sug쎯kojr쎯jl쎯	-10.4271
쎃쎀edjr2쎯	-10.4273
ja쎯jb쎯	-10.4273
u쎯tg쎯gd쎯	-10.4274
zhgd쎯	-10.4274
zx쎯xo쎯,	-10.4275
yj쎯fjw쎯	-10.4275
paj0쎯nmb쎯	-10.4277
쎄쎀쎀쎀	-10.4277
shlq쎯oiad쎯	-10.4281
vdwy쎯baa쎯	-10.4284
kdml1쎯	-10.4286
sjy0쎯sjy0쎯ch쎯	-10.4287
bdkv쎯s쎯	-10.4288
kdml0쎯mw쎯	-10.4289
ggnk쎯bdkv쎯	-10.4289
xs쎯gdq쎯	-10.4291
mahx쎯	-10.4291
”;	-10.4292
rhk쎯	-10.4292
sj쎯setg쎯ad쎯	-10.4292
yaj1쎯xa쎯	-10.4294
mfj쎯z쎯xe쎯	-10.4298
gi쎯suc쎯	-10.4298
aij쎯mbjk쎯	-10.43
》a쎯xyis쎯	-10.4301
mfj쎯ec쎯n쎯	-10.4301
jos쎯i쎯	-10.4301
gds1쎯yk쎯zq쎯	-10.4302
udjw쎯dqx쎯tdrl1쎯	-10.4303
yu쎯um쎯	-10.4308
ajx쎯snow쎯	-10.4314
hepk쎯	-10.432
od쎯xju쎯	-10.432
bdod쎯od쎯	-10.4321
ajk쎯sc쎯nmb쎯、	-10.4324
llrs쎯d쎯	-10.4325
mmh쎯akz쎯	-10.4326
:쎅	-10.4328
zrd쎯sme쎯	-10.4329
ago쎯slg쎯	-10.433
jrod쎯	-10.433
xl쎯kg쎯	-10.4332
ajk쎯fs쎯ch쎯	-10.4332
vdwy쎯dyx쎯	-10.4333
kiym쎯um쎯	-10.4333
ghy쎯	-10.4334
gdki쎯tded쎯	-10.4334
hepd쎯	-10.4341
ld쎯vdwy쎯	-10.4342
k쎯a쎯sjy0쎯	-10.4347
zrt쎯slg쎯	-10.4356
xmyj쎯ch쎯	-10.4356
fds쎯tgb쎯	-10.4358
kcx쎯zmya쎯	-10.4363
cd쎯mfji쎯	-10.4363
giw쎯aij쎯zo쎯	-10.4363
z쎯uagw0쎯	-10.4364
,fxo쎯dx쎯	-10.4365
maiw1쎯mzs쎯	-10.4369
d쎯zwb쎯oaj쎯um쎯	-10.437
ufc쎯ucgd쎯	-10.4372
swl쎯	-10.4373
edlo쎯wbi쎯	-10.4375
nmbq쎯	-10.4378
nsr쎯mbjk쎯	-10.4383
lk쎯ed쎯	-10.4383
ciq쎯rll쎯sli쎯	-10.4386
axz쎯ya쎯	-10.4386
ㄢ	-10.4389
vr쎯	-10.4389
〔	-10.439
,jo쎯	-10.4391
sy쎯sa쎯	-10.4393
nak쎯ad쎯	-10.4393
kojr쎯zl쎯zjo쎯	-10.4393
nuo쎯	-10.4396
jc쎯wdgq0쎯nl쎯rgs쎯	-10.4397
uke쎯z쎯	-10.4398
lk	-10.44
sv쎯mbrd쎯	-10.4401
tgxk쎯hyu쎯	-10.4401
vk쎯nlwz쎯	-10.4401
.iirr쎯ri쎯,	-10.4402
bzs쎯e쎯	-10.4403
쎅edjr2쎯	-10.4409
rhys쎯aep쎯	-10.4411
mkml쎯cdv쎯	-10.4412
、nk쎯	-10.4415
,vm쎯dgx쎯	-10.4416
ucgd쎯vv쎯	-10.4418
d쎯dex쎯fsv쎯	-10.4419
kd쎯ecq1쎯d쎯	-10.442
au쎯zsj쎯,	-10.4421
zk쎯ejmf쎯	-10.4425
,vx쎯smm쎯,	-10.443
sq쎯wd쎯	-10.4435
smy쎯	-10.4436
j쎯jc쎯edj쎯nh쎯	-10.4438
d쎯ldod쎯woj쎯	-10.4439
mfj쎯qyx쎯rsym쎯	-10.4441
mw쎯ckb쎯,	-10.4447
vdwy쎯ggym쎯,	-10.4449
[	-10.4452
,ecz1쎯hb쎯	-10.4455
,xs쎯rsj쎯	-10.4455
kal쎯tdrl1쎯	-10.4456
.쎁、	-10.4458
!”	-10.4463
uoa쎯	-10.4465
,eao쎯gdq쎯	-10.4465
ys쎯kv쎯	-10.4466
bdzs1쎯ku쎯mfz쎯jl쎯	-10.4467
ll쎯b쎯	-10.4468
ggym쎯zx쎯	-10.4468
lr쎯ad쎯	-10.4475
dkc쎯kv쎯	-10.4477
쎀.쎈	-10.4477
,mtk쎯mfrk0쎯	-10.448
ja쎯oixb0쎯	-10.4481
myz쎯oa쎯	-10.4482
edyy0쎯	-10.4483
d쎯a쎯sjy0쎯	-10.4486
ajk쎯ob쎯ch쎯	-10.4488
wi쎯szr쎯	-10.4488
hd쎯mamb쎯	-10.4488
esj쎯eys쎯	-10.449
ho쎯、	-10.4491
yb쎯mzs쎯	-10.4491
ccw쎯	-10.4492
kom쎯ufzm쎯	-10.4493
nqy쎯	-10.4495
쎁bg쎯	-10.4497
vk쎯yom쎯	-10.4499
rre쎯ku쎯,	-10.4499
wa쎯rid쎯	-10.4499
rhyl쎯	-10.4499
gae쎯woqy쎯mfj쎯	-10.45
nfa쎯ch쎯	-10.45
xbby쎯jc쎯	-10.4502
ygm쎯	-10.4503
u쎯sc쎯f쎯	-10.4509
ob쎯ob쎯jl쎯	-10.451
dq쎯pvgx쎯	-10.4523
jdej쎯nfa쎯	-10.4524
k쎯ka쎯fav쎯	-10.4526
mc쎯sug쎯zq쎯ym쎯	-10.4526
uaqk쎯oisc쎯	-10.4527
dsq쎯ka쎯idjh쎯rx쎯	-10.4529
h쎯aeb쎯	-10.453
rko쎯·	-10.4533
tg	-10.4533
kal쎯odod쎯	-10.4536
hdko쎯odwy쎯	-10.4536
zcl쎯	-10.4539
sujr쎯	-10.4543
mfz쎯zl쎯zjo쎯sjy0쎯	-10.4544
fmz쎯	-10.4545
cdv쎯byo쎯	-10.455
zyy쎯mfz쎯	-10.4553
i쎯mev쎯	-10.4555
xyis쎯ywb쎯	-10.4558
쎁쎀o쎯	-10.4559
dpw1쎯xsxi쎯“	-10.456
koxb쎯rgs쎯	-10.4565
kdmk쎯v	-10.4565
쎁쎉쎃쎁mamb쎯	-10.4566
ay쎯od쎯	-10.4571
pvf쎯nif쎯	-10.4573
kaa쎯:‘	-10.458
tj쎯kag쎯d쎯	-10.458
jy쎯gdq쎯	-10.4584
ae쎯kv쎯	-10.4585
fsq쎯vdnd쎯sli쎯	-10.4585
ceug쎯ciy0쎯	-10.4587
xek쎯jddm쎯	-10.459
brt쎯zh쎯zimo쎯oda쎯	-10.4591
ldod쎯vxkz쎯	-10.4593
mkml쎯	-10.4593
nim쎯	-10.4593
cilo쎯	-10.4594
mbrw쎯md쎯	-10.4596
yb쎯o쎯	-10.4596
,edx쎯db쎯	-10.46
cejo쎯cilo쎯	-10.4601
rid쎯.	-10.4602
쎁쎉쎃쎂mamb쎯	-10.4603
xmi쎯um쎯	-10.4603
nmi쎯jjj쎯《	-10.4604
(xoy쎯	-10.4605
fjf쎯	-10.4605
soo쎯kion쎯	-10.4605
mbbd쎯idju쎯:	-10.4607
-쎂쎀	-10.461
vsc쎯oda쎯	-10.4611
쎉o쎯	-10.4612
jd쎯ec쎯	-10.4618
au쎯zsj쎯.	-10.4619
myoy쎯jby1쎯	-10.4619
oy쎯fs쎯	-10.4623
nr0쎯ga쎯	-10.4625
gi쎯nka쎯	-10.463
mfk쎯eze쎯	-10.4631
,gl쎯k쎯	-10.4632
ezk쎯	-10.4634
zl쎯h쎯sjy0쎯oy쎯	-10.4636
iek쎯	-10.4637
kcx쎯nrs쎯	-10.4638
bmm쎯dpw1쎯、	-10.4638
nc쎯i쎯	-10.4639
oaj쎯nmi쎯nuo쎯nub쎯	-10.4639
ufc쎯wsk쎯,	-10.4642
쎁쎈쎅	-10.4642
.nmi쎯u쎯	-10.4642
mfj쎯wsb쎯ob쎯	-10.4644
b쎯i쎯	-10.4644
mfte쎯vdwy쎯wdgq0쎯	-10.4645
fq쎯ob쎯	-10.4646
wdgq0쎯zzm쎯	-10.4651
gd쎯kak쎯d쎯	-10.4652
sli쎯aim쎯	-10.4655
psq쎯agd쎯	-10.4655
쎃)	-10.4656
a쎯ka쎯	-10.4659
dxe쎯	-10.4659
mamz1쎯ewf쎯	-10.4661
eaou쎯	-10.4664
sf쎯ruc쎯	-10.4666
d쎯f쎯aks쎯	-10.4666
ne쎯zizi쎯y쎯	-10.4666
쎈oz쎯kb쎯	-10.4667
r쎯kom쎯	-10.4668
hkc쎯	-10.4669
,sow쎯k쎯	-10.4671
.ld쎯kd쎯	-10.4677
쎁쎈쎇	-10.4677
d쎯mc쎯sug쎯	-10.4679
木xa쎯	-10.4679
ry쎯dmi쎯:	-10.468
sc쎯mw쎯sjy0쎯tl쎯	-10.468
ygb쎯	-10.4681
nr0쎯oaj쎯mbro쎯	-10.4685
djl쎯nmy쎯	-10.4687
vm쎯ldod쎯ri쎯	-10.4689
liqd쎯	-10.469
pdyq쎯	-10.4691
ed쎯nbb쎯	-10.4692
쎂.쎄	-10.4692
vxkz쎯uclk쎯	-10.4694
zpz쎯	-10.4695
nb쎯xkc쎯	-10.4696
zo쎯i쎯d쎯	-10.4696
,idj쎯b쎯gj쎯mfjo쎯	-10.4698
ywr쎯	-10.4706
syy1쎯·	-10.4706
sfk쎯	-10.4708
xl쎯suk쎯	-10.4708
vm쎯edl쎯km쎯	-10.4709
phzi쎯	-10.4709
edl쎯vm쎯	-10.4711
t쎯nxb쎯	-10.4711
nsc쎯wms쎯	-10.4713
oiqm쎯mc쎯mbro쎯	-10.4717
mbod쎯lm쎯	-10.4729
mzv쎯ufzm쎯	-10.4729
wz쎯xbuo쎯	-10.473
udjw쎯xbby쎯mbq쎯	-10.473
yrk쎯	-10.4731
쎅～	-10.4731
ldo쎯iai쎯	-10.4739
쎁쎉쎄쎃mamb쎯	-10.4739
wr쎯byo쎯	-10.474
ruc쎯kq쎯	-10.4741
hkd쎯oy쎯	-10.4744
elrs쎯id쎯	-10.4744
ed쎯wdya쎯	-10.4746
vwza쎯	-10.4747
ubpx쎯	-10.4749
drr쎯z쎯	-10.475
tg쎯vmw쎯d쎯	-10.4751
쎀odmf쎯od쎯	-10.4752
mb쎯ldoo쎯	-10.4753
쎅쎀edjr2쎯	-10.4757
xek쎯ucq쎯	-10.4758
sc쎯ewj쎯	-10.4759
쎁쎉쎂쎉mamb쎯	-10.476
wdel쎯t쎯	-10.4765
pjl쎯uowm쎯	-10.4765
wlw쎯gdli쎯	-10.4766
xn쎯zo쎯	-10.4766
lksx쎯	-10.4767
dyx쎯er쎯	-10.4772
、eako쎯	-10.4774
g쎯i쎯vm쎯	-10.4777
ra쎯ufgd쎯	-10.4777
u쎯wdrj쎯wm쎯	-10.4778
zbj쎯kkk쎯	-10.4783
elgd쎯so쎯rsj쎯	-10.4786
bdzs1쎯vdwy쎯ggym쎯	-10.4794
ev쎯wdtg쎯	-10.4795
bdzm쎯fl쎯	-10.4795
edl쎯sjk쎯sli쎯	-10.4797
,sow쎯mfji쎯	-10.4798
sli쎯yh쎯	-10.4799
ai1쎯gj쎯	-10.4799
%.	-10.4801
md쎯bdzy쎯	-10.4803
pfki0쎯	-10.4805
fho쎯	-10.4805
odxl쎯	-10.4806
mfkd쎯vtc쎯	-10.4806
ll쎯qs쎯	-10.4807
wdb쎯gdli쎯	-10.481
odjy쎯bdzw쎯	-10.4812
sc쎯db쎯od쎯	-10.4815
a쎯uanw쎯	-10.4815
i쎯sjy0쎯	-10.4818
fpd0쎯	-10.482
mbds쎯oi쎯ku쎯	-10.4821
wkr쎯	-10.4823
sug쎯b쎯	-10.4823
kdxs쎯	-10.4825
szz쎯	-10.4828
lw쎯aed쎯bmm쎯kal쎯	-10.4829
hbz쎯skx쎯	-10.4829
lw쎯aed쎯	-10.483
d쎯smi쎯	-10.4831
xyis쎯syy1쎯,	-10.4835
si쎯nr1쎯	-10.4835
wm쎯ri쎯	-10.4837
tuu쎯	-10.4838
fxld쎯	-10.4842
e쎯kion쎯i쎯	-10.4843
kom쎯kak쎯	-10.4845
sul쎯bhv쎯	-10.4846
nmb쎯j쎯eao쎯	-10.4848
zyl쎯ohy쎯	-10.485
mil쎯	-10.4851
zzi쎯pek쎯	-10.4857
,nr1쎯	-10.4857
jk쎯rsj쎯	-10.4858
fhc쎯	-10.4859
nl쎯zzym쎯	-10.4859
vmi쎯jimg쎯	-10.4864
ski1쎯,ec쎯j쎯	-10.4865
oc쎯pe쎯	-10.4873
mc쎯are쎯	-10.4873
mc쎯sug쎯sq쎯rki쎯	-10.4876
lk쎯lbj쎯	-10.4878
kv쎯rid쎯ckb쎯	-10.4882
sgq쎯	-10.4885
edlo쎯shv쎯	-10.4887
kai쎯	-10.4888
tgwm쎯	-10.4889
sli쎯byo쎯d쎯	-10.4905
fjvv쎯	-10.4906
mfwm쎯wdml쎯	-10.4908
jdf쎯	-10.4914
aij쎯nmi쎯u쎯	-10.4915
fqo쎯	-10.4918
ehw쎯en쎯	-10.4921
zyl쎯	-10.4922
maa쎯ns쎯	-10.4923
wdrj쎯bdzw쎯	-10.4924
.쎂쎀쎀쎈mamb쎯	-10.4924
ca쎯jc쎯	-10.493
rly쎯sm쎯wh쎯	-10.493
xek쎯ywb쎯	-10.4931
mbro쎯nfa쎯	-10.4936
biyw쎯	-10.4939
,u쎯y쎯	-10.4941
ngr쎯dqsy쎯,	-10.4941
d쎯skx쎯nr0쎯	-10.4941
ckb쎯sor쎯az쎯	-10.4943
vejn쎯木	-10.4944
pdxw쎯jdj쎯	-10.4945
ewv쎯tff쎯	-10.4947
fxd쎯qrk쎯	-10.4949
ka쎯,	-10.495
j쎯jc쎯od쎯yh쎯	-10.4951
쎀쎀ay쎯bdrd쎯	-10.4952
xmuz1쎯	-10.4954
odmw쎯oixb0쎯	-10.4955
j쎯mbds쎯	-10.4956
gae쎯woqy쎯h쎯kf쎯	-10.4958
gds1쎯ggnk쎯	-10.4958
myz쎯cd쎯xki쎯	-10.4959
yybd쎯kal쎯	-10.496
ckb쎯flw쎯	-10.4963
nkbr쎯	-10.4973
》、《j쎯jc쎯	-10.4974
nswa쎯he쎯byo쎯	-10.4975
n쎯g쎯	-10.4975
gdq쎯od쎯	-10.4979
rhko쎯jjg쎯	-10.498
jkk쎯nx쎯	-10.4983
,uagw1쎯	-10.4985
xoy쎯tird쎯	-10.4987
nrl쎯bdzw쎯	-10.4988
쎆)	-10.4989
ymo0쎯oz쎯wdhb쎯、	-10.4989
.oc쎯fds쎯	-10.499
dsn쎯	-10.499
ty쎯vb쎯	-10.4994
ym쎯aks쎯	-10.4997
sy쎯vb쎯.	-10.4998
、sf쎯	-10.4999
ceug쎯oaj쎯jc쎯	-10.4999
mw쎯ckb쎯od쎯jl쎯	-10.4999
sq쎯rki쎯、	-10.5002
ch쎯bhv쎯	-10.5003
pvgx쎯jc쎯	-10.5004
(쎃)	-10.5007
sjl쎯jjj쎯pdel쎯	-10.5007
na쎯oiad쎯	-10.5013
ih	-10.5015
djq쎯	-10.5015
,vdwy쎯fs쎯	-10.5015
wd쎯idju쎯	-10.5015
ys쎯oiiy쎯	-10.5016
쎁쎄쎀	-10.5016
mfk쎯vki쎯	-10.5017
xbby쎯mbq쎯mbro쎯	-10.5023
zk쎯qh쎯	-10.5024
deki쎯fsw쎯:	-10.5031
aizu쎯	-10.5032
sess쎯	-10.5034
.nka쎯k쎯	-10.5037
ch쎯.	-10.5039
ajk쎯bmm쎯dpw1쎯,	-10.5039
rgy쎯wcj쎯	-10.5041
rrk쎯	-10.5043
yh쎯noo쎯	-10.5047
gtg쎯sug쎯	-10.5052
쎄)	-10.5052
vsc쎯:“	-10.5053
쎅oy쎯pji쎯	-10.5057
kg쎯plk쎯	-10.5058
wdtg쎯kd쎯	-10.5059
c쎯tgs1쎯	-10.5059
doyd쎯vwa쎯	-10.5061
wdhb쎯sc쎯nmb쎯	-10.5062
쎁쎂쎀쎀	-10.5064
(,)	-10.5064
、fj쎯	-10.5064
×쎁	-10.5067
,mfjo쎯fy쎯	-10.5067
aij쎯mbrw쎯	-10.5068
b쎯bhj쎯	-10.5072
udlk쎯eqg쎯	-10.5079
kd쎯ecq1쎯,	-10.5079
bdrd쎯nm쎯	-10.508
vb쎯ywb쎯	-10.5082
gtg쎯ll쎯	-10.5085
mbro쎯tdrl1쎯	-10.5085
wdgq0쎯jbr쎯	-10.5087
fl쎯tgva쎯d쎯	-10.5088
yj쎯zo쎯	-10.509
deki쎯waz쎯	-10.5095
nlj쎯i쎯	-10.5097
ufc쎯nre쎯	-10.5099
kia쎯j쎯jc쎯	-10.5102
zx쎯vsnd쎯ae쎯z쎯ho쎯	-10.5103
,c쎯u쎯	-10.5105
nkc0쎯wdgq0쎯	-10.5106
myz쎯쎄	-10.5109
mfte쎯gae쎯h쎯kf쎯	-10.5114
kg쎯kz쎯	-10.5116
eze쎯	-10.5117
mbbd쎯wd쎯	-10.5124
.c쎯g쎯	-10.5125
zizi쎯byo쎯	-10.5128
pday쎯	-10.5128
の	-10.5132
oc쎯fds쎯zx쎯vsnd쎯	-10.5134
lch쎯	-10.5135
evyy쎯jby1쎯:	-10.5135
idjo쎯	-10.5137
kkk쎯nfa쎯	-10.5138
,h쎯su쎯ad쎯	-10.5138
qyx쎯rsym쎯ad쎯	-10.514
koxb쎯odsx쎯	-10.514
clg쎯baa쎯	-10.5148
ufya쎯	-10.5151
----	-10.5154
vwr쎯gdqy쎯	-10.5154
쎁쎀edjr2쎯	-10.5156
bw쎯	-10.5156
.yh쎯jc쎯	-10.5156
zmxr쎯	-10.5159
쎅.	-10.5162
so쎯nr0쎯eyd쎯fsv쎯	-10.5164
jc쎯akz쎯	-10.5168
i쎯fsw쎯	-10.5169
mfjo쎯kiz쎯	-10.5171
tieo쎯	-10.5173
my쎯nlwz쎯	-10.5174
pfyy쎯ukm쎯	-10.5178
ebf쎯a쎯	-10.5178
uf	-10.5181
maiw1쎯fu쎯	-10.5183
dwr쎯	-10.5191
nmi쎯l쎯,	-10.5191
sl쎯oda쎯	-10.5193
gdq쎯y쎯	-10.5196
fds쎯od쎯	-10.5197
쎀～	-10.5199
nk쎯bdzs0쎯	-10.5199
edl쎯lczs쎯	-10.52
pfxb쎯sos쎯	-10.5201
쎁.쎄	-10.5205
odii쎯ku쎯wdgq0쎯	-10.5208
veeq쎯vs쎯	-10.5209
daf쎯	-10.5211
makr쎯mblk쎯	-10.5213
sc쎯fpx쎯	-10.5214
gfl쎯	-10.5215
edy쎯nmi쎯	-10.5216
oaj쎯nmi쎯,	-10.5218
myz쎯bd쎯tdro쎯	-10.522
nre쎯nmg쎯	-10.5225
쎅쎁쎂	-10.5226
sno쎯mfrk0쎯	-10.5227
tguw쎯	-10.5228
nfa쎯mblk쎯	-10.5229
쎁%	-10.5229
쎁od쎯,	-10.5233
a쎯x쎯	-10.5236
zb쎯wh쎯	-10.5237
ew쎯bdzy쎯	-10.5239
ucgd쎯jb쎯	-10.5239
yaj0쎯dsu쎯nnk쎯	-10.524
vfbk쎯	-10.5241
mbds쎯sy쎯gj쎯d쎯	-10.5242
tk쎯d쎯	-10.5245
ku쎯kion쎯	-10.5246
kz쎯sij쎯	-10.5248
ebf쎯mfji쎯	-10.5249
oy쎯gdli쎯g쎯	-10.525
mfxb쎯xkc쎯“	-10.5251
sy쎯ped쎯	-10.5253
ajl쎯tdrl1쎯	-10.5254
dn쎯zizi쎯d쎯	-10.5261
jiyw1쎯	-10.5262
tdzj쎯	-10.5262
k쎯la쎯uaqk쎯	-10.5264
ggnk쎯gdq쎯	-10.5266
쎂%	-10.5266
ecb쎯gzz쎯sq쎯symy쎯	-10.527
jirj쎯、	-10.527
》,《	-10.5274
yji쎯gd쎯	-10.5275
zns쎯	-10.5277
kk쎯zhm쎯	-10.5282
llz쎯	-10.5283
byo쎯b쎯	-10.5286
qbu쎯	-10.5289
wsl쎯jc쎯	-10.529
d쎯ckb쎯flw쎯	-10.5293
d쎯tgva쎯l쎯	-10.5294
wzm쎯f쎯	-10.5294
dqx쎯kskp쎯	-10.5296
kcx쎯ke쎯d쎯	-10.5298
l쎯nmi쎯	-10.5299
likb쎯	-10.5299
ggym쎯mfjc쎯	-10.5306
ufc쎯bil쎯	-10.5309
oyg쎯z쎯d쎯	-10.5314
mc쎯sug쎯odii쎯ku쎯	-10.5315
kojl0쎯lr쎯d쎯	-10.5315
ldeo쎯hini쎯	-10.5316
en쎯fia쎯	-10.5316
ufc쎯t쎯	-10.5317
ybu쎯	-10.532
borx쎯dqsy쎯	-10.5321
g쎯sow쎯	-10.5322
dsl쎯	-10.5332
q쎯쎁쎀ka쎯	-10.5333
mbds쎯wr쎯nmi쎯	-10.5334
zym쎯jk쎯	-10.5336
mblk쎯tdow쎯	-10.5338
dqs쎯vb쎯	-10.5339
ucgd쎯zmya쎯	-10.5341
sul쎯wdgq0쎯	-10.5341
sc쎯rl쎯	-10.5343
zbk쎯	-10.5343
kcx쎯r쎯	-10.5343
dsz쎯ja쎯:	-10.5345
mamz0쎯	-10.5353
ke쎯mamb쎯	-10.5354
、cd쎯	-10.5354
;쎁	-10.5355
d쎯kd쎯ni쎯,	-10.5356
zx쎯rhyl쎯	-10.5357
nr0쎯tizm쎯jjj쎯	-10.5358
u쎯od쎯	-10.5358
,rlo쎯cilo쎯	-10.5362
쎁쎀oy쎯pji쎯	-10.5363
bd쎯tdro쎯	-10.5363
aim쎯vb쎯	-10.5366
wlr쎯rl쎯	-10.5366
koxb쎯mbrw쎯u쎯	-10.5366
kv쎯oy쎯	-10.5367
gd쎯bdod쎯	-10.5369
kojl0쎯bdol쎯	-10.537
oel쎯·	-10.5371
木fdm쎯	-10.5371
uaqk쎯nc쎯u쎯	-10.5372
soo쎯xss쎯	-10.5372
쎁쎅쎀쎀	-10.5375
k쎯a쎯nsu쎯	-10.5377
mamz1쎯nre쎯	-10.5378
yms쎯ec쎯n쎯	-10.538
,sug쎯jjj쎯	-10.5382
x쎯tgva쎯	-10.539
vmi쎯ym쎯	-10.5391
,oy쎯jk쎯	-10.5393
skf0쎯kojb쎯	-10.5393
uaqk쎯nc쎯k쎯	-10.5395
xa쎯bdkv쎯fj쎯aku쎯	-10.54
fq쎯frz쎯.	-10.5401
-쎁쎀	-10.5404
쎀°	-10.5405
yh쎯ewj쎯odii쎯ku쎯	-10.5406
voqk쎯	-10.5408
fl쎯zbj쎯oaj쎯	-10.5409
xsig쎯mle쎯	-10.541
ush쎯	-10.5413
qdos쎯vkk쎯	-10.5413
bdzs1쎯bg쎯	-10.5414
vmi쎯bdzy쎯d쎯	-10.5415
ewm쎯	-10.5415
hx쎯gd쎯d쎯	-10.5416
;rlo쎯cilo쎯	-10.5422
ekm쎯hi쎯	-10.5424
gl쎯h쎯d쎯	-10.5424
mfj쎯mw쎯ckb쎯	-10.5427
ll쎯bxi쎯	-10.5428
.쎄、	-10.5429
au쎯lczs쎯	-10.5432
fj쎯hma1쎯zbj쎯oaj쎯	-10.5433
a쎯kfg쎯	-10.5434
uaqk쎯vqj쎯	-10.5439
μ	-10.5439
kz쎯kskp쎯《	-10.544
jnx쎯	-10.544
jwr쎯	-10.544
bi쎯ku쎯jbr쎯ho쎯	-10.544
oc쎯xyis쎯	-10.5441
vsm쎯xhm쎯j쎯	-10.5443
nl쎯vzj1쎯lczs쎯	-10.5443
r쎯bdrd쎯nr0쎯	-10.5445
mc쎯yybd쎯kal쎯.	-10.5446
p쎯hbmo쎯	-10.5447
wdki0쎯fsz쎯	-10.5448
y쎯《	-10.5449
oy쎯rly쎯	-10.5452
fni쎯	-10.5453
zw쎯ebm쎯	-10.5454
myz쎯a쎯xki쎯	-10.5455
iiq쎯wd쎯	-10.5455
zyl쎯whi쎯	-10.5456
yugw쎯uanw쎯	-10.5457
pdro쎯kojl1쎯	-10.5459
frg쎯	-10.5461
°	-10.5468
pek쎯sja쎯	-10.5472
a쎯yc쎯	-10.5473
ngr쎯mfym쎯sor쎯so쎯	-10.5481
.쎂쎀쎀쎅mamb쎯	-10.5481
sjwm쎯	-10.5484
oiad쎯zo쎯	-10.5485
쎂쎀edjr2쎯	-10.5485
zq쎯ym쎯,	-10.549
gd쎯r쎯ufzm쎯	-10.549
nsos쎯hbi쎯	-10.5491
sjym쎯	-10.5494
uosu쎯uhg쎯	-10.5495
ao쎯	-10.5496
gd쎯b쎯	-10.5498
ufu쎯	-10.5498
oy쎯xmyj쎯	-10.55
jjg쎯,	-10.5501
bdzs1쎯cejo쎯	-10.5501
vk쎯mbod쎯	-10.5501
gdiy쎯g쎯d쎯	-10.5502
d쎯rsj쎯wdya쎯	-10.5502
ufc쎯zk쎯	-10.5505
idju쎯bizi쎯	-10.5506
h쎯biym쎯d쎯	-10.5508
ykk쎯	-10.5509
drk1쎯edl쎯	-10.5517
ae쎯ku쎯	-10.5518
wye쎯	-10.5521
,hbmo쎯ym쎯ad쎯	-10.5523
,k쎯a쎯o쎯	-10.5523
mbrd쎯paj0쎯nmb쎯	-10.5524
edjr2쎯ecp쎯	-10.5526
biqw쎯	-10.5527
hdko쎯jirj쎯	-10.5529
wsk쎯gaj쎯	-10.5531
zsj쎯tirr쎯	-10.5531
mkal쎯	-10.5535
쎂쎀쎀쎂	-10.5538
ka쎯wh쎯	-10.5539
kd쎯nh쎯d쎯	-10.5542
zw쎯xek쎯	-10.5542
bmy쎯zq쎯	-10.5543
udjw쎯k쎯	-10.5544
ldm쎯sug쎯	-10.5544
ny쎯rgs쎯	-10.5545
bmm쎯vdwy쎯fuz쎯	-10.5548
쎂jaz쎯	-10.555
skx쎯mfji쎯	-10.5551
cdv쎯aep쎯	-10.5551
u쎯fav쎯	-10.5551
,jd쎯gl쎯	-10.5551
wms쎯、	-10.5552
kdmk쎯kd쎯	-10.5554
-쎉	-10.5555
ezj1쎯	-10.5558
tgva쎯l쎯ad쎯	-10.5559
xbno쎯	-10.5562
,c쎯g쎯	-10.5562
lik쎯	-10.5565
d쎯vdwy쎯mc쎯	-10.5566
,fj쎯	-10.5566
ai1쎯yrm쎯	-10.5567
udke쎯nsu쎯,	-10.5569
ufc쎯hbmo쎯	-10.5571
sy쎯vb쎯,	-10.5572
ecb쎯pa쎯ob쎯	-10.5573
xsym쎯	-10.5573
ufxj쎯xkv쎯ta쎯	-10.5573
gdbb쎯	-10.5575
josx쎯	-10.5575
aii쎯k쎯	-10.5576
wdtg쎯nar쎯	-10.5585
skx쎯oiad쎯	-10.5586
,paj0쎯bdkv쎯	-10.5587
ag쎯ufzm쎯	-10.5587
a쎯rid쎯	-10.5589
qgk쎯	-10.5589
nrs쎯vkl쎯	-10.5594
ufzm쎯an쎯	-10.5594
ay쎯bdrd쎯.	-10.5595
oi	-10.5601
ch	-10.5603
sjl쎯ll쎯	-10.5603
wd쎯ecq1쎯	-10.561
bmye쎯	-10.561
fds쎯yh쎯ko쎯zl쎯	-10.5612
voyy쎯	-10.5612
biqw쎯ugl쎯	-10.5614
k쎯jc쎯ldod쎯	-10.562
odsx쎯mamb쎯	-10.5621
eao쎯ciq쎯jddm쎯	-10.5622
idju쎯,	-10.5623
.kia쎯	-10.5624
bi쎯mfjc쎯kal쎯.	-10.5624
ri쎯sjy0쎯	-10.5624
wjl쎯	-10.5628
eva쎯	-10.563
vdwy쎯rsj쎯	-10.5634
vwq쎯mfjo쎯	-10.5638
zizi쎯mlka쎯	-10.5641
(hj쎯	-10.5641
wa쎯ya쎯	-10.5646
hma1쎯vdwy쎯ob쎯	-10.565
(쎁쎉쎂	-10.5652
u쎯ecb쎯gzz쎯	-10.5653
cbr쎯lco쎯	-10.5658
xoy쎯na쎯	-10.5659
wtyd쎯zym쎯j쎯vdwy쎯	-10.5661
pdxs쎯x쎯	-10.5665
grl쎯	-10.5666
tgxl쎯	-10.5666
mye쎯	-10.5669
vdwy쎯ggo쎯baa쎯	-10.5681
gay쎯	-10.5682
oda쎯ja쎯	-10.5682
uae쎯g쎯	-10.5685
zmrk쎯zjd쎯	-10.5685
fq쎯tgf쎯	-10.5686
а	-10.5686
qbv쎯	-10.5688
ch쎯、	-10.5689
쎂쎀mamb쎯	-10.5692
wdki0쎯ubkd쎯	-10.5696
wdk쎯	-10.5699
ymy쎯	-10.5701
ago쎯zym쎯	-10.5701
gd쎯tl쎯	-10.5702
fwr쎯	-10.5702
쎁.쎃	-10.5702
k쎯m쎯nt쎯	-10.5703
txo쎯	-10.5704
z쎯fby쎯	-10.5705
pse쎯	-10.5706
oc쎯e쎯kion쎯	-10.5711
ン	-10.5714
oc쎯nc쎯	-10.5715
nel쎯oiad쎯	-10.5717
pm쎯jirj쎯xmyj쎯	-10.5717
ubkd쎯ufzp쎯	-10.5718
fl쎯tgva쎯	-10.5718
쎁od쎯	-10.5718
ri쎯,	-10.5721
dy쎯dxh쎯	-10.5726
ai1쎯vsm쎯	-10.5731
orn쎯	-10.5733
edlc쎯su쎯	-10.5733
,xh쎯	-10.5733
je	-10.5737
mw쎯ckb쎯mzv쎯zs쎯	-10.5739
bmm쎯kojb쎯	-10.5744
쎄oz쎯kb쎯	-10.5745
q쎯쎁쎈ka쎯	-10.5747
jy	-10.5748
ll쎯pe쎯	-10.5749
gdxs쎯zmya쎯	-10.575
paj0쎯xs쎯	-10.575
.sow쎯ib쎯	-10.5754
ajk쎯lczs쎯ch쎯	-10.5756
xmyj쎯、	-10.5758
d쎯la쎯fb쎯	-10.5759
gdq쎯uag쎯sjy0쎯tl쎯	-10.5763
sc쎯vs쎯	-10.5764
wdtg쎯ybk쎯i쎯	-10.5764
lbz쎯	-10.5765
bki쎯	-10.5765
bdol쎯evyy쎯nr0쎯	-10.5766
rd쎯ya쎯	-10.5767
eqg쎯cexs쎯	-10.5767
kdxb1쎯db쎯zo쎯	-10.5768
ohy쎯tgrs쎯	-10.5768
c쎯gdiy쎯	-10.5769
쎂.쎂	-10.5769
udjw쎯zhm쎯	-10.5771
oixi쎯	-10.5777
쎈%	-10.578
yav쎯mc쎯sjy0쎯	-10.5786
qex쎯	-10.5787
kojr쎯mfz쎯mfz쎯jl쎯	-10.5788
sau쎯mbrw쎯	-10.5791
sjer쎯	-10.5794
gj쎯i쎯	-10.5794
nh쎯bdok쎯	-10.5795
、ko쎯	-10.5795
、tirr쎯sjk쎯	-10.5796
pmb쎯	-10.5796
cexg0쎯nif쎯	-10.5796
ywb쎯ch쎯	-10.5798
vg쎯ad쎯	-10.5798
,nak쎯	-10.5798
kbm쎯	-10.5801
ffq쎯	-10.5801
yzi쎯odwg쎯	-10.5804
edl쎯jirj쎯	-10.5807
zmx쎯zmx쎯	-10.5809
oc쎯ka쎯mblk쎯	-10.5809
vab쎯ymo0쎯d쎯	-10.5811
bdrd쎯mamb쎯	-10.5812
bimo쎯setg쎯	-10.5812
mbrw쎯vab쎯	-10.5813
.ld쎯kd쎯,	-10.5814
nh쎯cirh쎯gd쎯ob쎯	-10.582
mbds쎯mbds쎯.	-10.5825
o쎯um쎯nr0쎯	-10.5825
km쎯bmm쎯szq쎯gai쎯	-10.5828
i쎯vsm쎯	-10.5828
fyg쎯jdjl쎯aep쎯	-10.583
kq쎯edeq쎯	-10.5831
jc쎯ybk쎯nr0쎯	-10.5834
zimo쎯yn쎯	-10.5835
.쎂쎀쎀쎇mamb쎯	-10.5836
ga쎯nr0쎯	-10.5836
쎆oz쎯kb쎯	-10.5838
pa쎯ldkd쎯	-10.5839
vzg쎯mfmw쎯	-10.584
쎁쎇쎀	-10.5841
wa쎯j쎯	-10.5849
cds쎯odjy쎯	-10.5849
dwy쎯dxz쎯	-10.585
wa쎯mfrk0쎯	-10.5851
mbbd쎯idju쎯k쎯	-10.5852
ngr쎯sxo쎯d쎯	-10.5854
gdsw쎯t쎯	-10.5855
clg쎯ldeo쎯	-10.5855
tirg쎯bg쎯	-10.5856
tirr쎯wdf쎯	-10.586
au쎯wdz쎯	-10.5864
foa쎯	-10.5864
miwa쎯koxb쎯	-10.5867
od쎯yh쎯vb쎯ywb쎯	-10.5868
vnug쎯	-10.5869
gak쎯nr0쎯	-10.587
mfxw1쎯wd쎯um쎯	-10.5871
vzg쎯	-10.5872
,zmxy1쎯ym쎯	-10.5873
.ld쎯mamb쎯	-10.5874
njf쎯vkl쎯	-10.5874
flf쎯	-10.5875
쎃쎆쎀	-10.5876
uobr쎯	-10.5876
xbkv1쎯》	-10.5877
wms쎯sug쎯	-10.5877
q쎯쎁쎆ka쎯	-10.5878
vejn쎯vxh쎯	-10.5878
zx쎯》	-10.5878
zgp쎯zw쎯	-10.5879
,xs쎯mfrk0쎯	-10.5883
wdtg쎯yt쎯	-10.5883
mbds쎯jc쎯wdgq0쎯	-10.5885
sc쎯od쎯	-10.5886
nlo쎯rhko쎯sjy0쎯.	-10.5887
.쎂쎀쎀쎄mamb쎯	-10.5888
r쎯u쎯	-10.5891
gd쎯ha쎯	-10.5892
wtxi쎯dpw1쎯xsxi쎯	-10.5892
rkv쎯wye쎯	-10.5894
j쎯so쎯rsj쎯:	-10.5898
gm쎯tdgd쎯	-10.5899
u쎯a쎯nfa쎯	-10.59
ku쎯odmf쎯	-10.59
sjl쎯vcq쎯	-10.5901
bioo쎯	-10.5902
vxkz쎯	-10.5905
sc쎯yc쎯	-10.5906
tirg쎯”	-10.5909
dsu쎯ecp쎯	-10.5912
ai1쎯sjy0쎯	-10.5912
쎃쎅쎀	-10.5913
me쎯edjr2쎯	-10.5914
udyw쎯	-10.5915
ugo쎯	-10.5917
gg쎯、	-10.5917
.쎅ggkb쎯uf쎯	-10.592
ciq쎯vm쎯	-10.5921
baz쎯edj쎯	-10.5924
hrd쎯	-10.5926
x쎯mfrk0쎯	-10.5929
mfjr0쎯rsym쎯xmyj쎯	-10.5929
.ygqw쎯ucl쎯	-10.5933
oel쎯szq쎯	-10.5934
mc쎯uczm쎯	-10.5936
ski1쎯.	-10.5937
aij쎯l쎯	-10.5937
wbi쎯j쎯	-10.5938
쎂～	-10.594
gi쎯l쎯	-10.5941
,vwo쎯pvwx쎯	-10.5941
.쎂쎀쎀쎉mamb쎯	-10.5947
『	-10.5948
j쎯jc쎯xyis쎯akz쎯	-10.5949
rsym쎯wdtg쎯	-10.5951
rmg쎯	-10.5952
ae쎯z쎯、	-10.5955
so쎯kq쎯udke쎯nsu쎯	-10.5955
tma쎯ta쎯d쎯	-10.5955
aij쎯oy쎯u쎯	-10.5955
f쎯ciz쎯	-10.5957
rj쎯jc쎯	-10.5958
wdel쎯ew쎯	-10.5959
d쎯dsw쎯mfjc쎯	-10.5959
doa쎯	-10.5962
oz쎯yaj1쎯h쎯su쎯ad쎯	-10.5962
tlsl쎯	-10.5966
쎇.쎅	-10.5971
jc쎯ybk쎯fq쎯byo쎯	-10.5972
fj쎯jirj쎯	-10.5974
ngr쎯mfym쎯tirg쎯	-10.5976
qsoo쎯ajer쎯	-10.598
eyq쎯	-10.5981
vdwy쎯fs쎯.	-10.5986
sjy0쎯.	-10.5989
쎀.쎆	-10.5989
쎁oz쎯kb쎯	-10.5991
edl쎯wdf쎯	-10.5991
tdrl1쎯lcym쎯	-10.5994
bi쎯nmi쎯j쎯	-10.5996
biym쎯zq쎯:	-10.5997
tur쎯	-10.6
、edl쎯	-10.6001
bka쎯edjr2쎯	-10.6002
mfij쎯	-10.6003
x쎯md쎯	-10.6003
sq쎯sed쎯d쎯	-10.6004
쎀쎀쎀쎀	-10.6005
soo쎯wxl쎯gd쎯vdwy쎯	-10.6005
heoo쎯gd쎯d쎯	-10.6006
(ry쎯dmi쎯	-10.6009
mfbj0쎯	-10.6018
d쎯gi쎯ld쎯	-10.6019
cop쎯jal쎯	-10.6019
oro쎯ufte쎯	-10.602
a쎯no쎯	-10.6023
r쎯sjy0쎯	-10.6029
、kv쎯	-10.6029
zq쎯ym쎯.	-10.603
vcq쎯sf쎯	-10.6033
gd쎯ad쎯	-10.6034
yaj1쎯odw쎯	-10.6037
쎁쎂쎅	-10.604
a쎯zhm쎯	-10.604
gdq쎯ym쎯	-10.604
oc쎯zzm쎯	-10.6045
eewz쎯	-10.6045
woj쎯jjg쎯	-10.6045
aim쎯mfz쎯	-10.6048
sor쎯fsw쎯	-10.6053
zx쎯ewj쎯mw쎯ckb쎯	-10.6055
wdrj쎯od쎯	-10.6055
klv쎯yobv쎯	-10.6057
zni쎯db쎯	-10.6057
plod쎯	-10.6058
uekb쎯	-10.6058
deki쎯zob쎯	-10.6059
k쎯nif쎯	-10.6061
l쎯vb쎯	-10.6062
gd쎯vdwy쎯so쎯nr0쎯	-10.6068
emkb쎯ajx쎯	-10.6072
suor쎯bi쎯	-10.6074
쎁쎉쎃쎅mamb쎯	-10.6074
gd쎯gd쎯	-10.6074
,wxl쎯kojl0쎯	-10.6076
odmx쎯	-10.6077
um쎯yji쎯	-10.6079
llrs쎯kd쎯	-10.6081
sp쎯sozs쎯	-10.6085
ehz쎯xyis쎯	-10.6093
fhc쎯yjf쎯	-10.6093
sjqu쎯pfwz쎯	-10.6093
ajk쎯ckb쎯ajx쎯ch쎯	-10.6094
쎃edjr2쎯	-10.6098
.pdw쎯mamb쎯bdkv쎯,	-10.6099
ngr쎯idju쎯	-10.61
dzo쎯nmb쎯	-10.6105
l쎯kv쎯	-10.6106
fdyy쎯sy쎯	-10.6107
yj쎯i쎯	-10.6107
au쎯sy쎯uf쎯.	-10.6107
d쎯ecb쎯gzz쎯i쎯,	-10.6109
zb쎯ri쎯	-10.611
yaz쎯ya쎯	-10.6112
eako쎯ll쎯	-10.6115
r쎯rsj쎯	-10.6116
,rrn쎯	-10.6117
kcq쎯	-10.6118
au쎯sy쎯oz쎯kb쎯.	-10.6119
쎅°C	-10.6124
쎆.	-10.6127
sul쎯ob쎯	-10.6127
mw쎯ckb쎯d쎯	-10.6132
njfu쎯	-10.6133
sky쎯kk쎯	-10.6133
.kq쎯	-10.6133
,sow쎯ib쎯	-10.6134
ldod쎯b쎯	-10.6135
dqx쎯tdrl1쎯bm쎯	-10.6138
tgoo쎯oxi쎯	-10.6141
쎁쎀쎅	-10.6145
ne	-10.6145
nlg쎯	-10.6146
cgi쎯zhg쎯	-10.6146
쎀.쎄	-10.6146
fq쎯nc쎯	-10.6146
q쎯쎁쎅ka쎯	-10.6149
k쎯u쎯y쎯	-10.6151
k쎯jc쎯wdgq0쎯	-10.6152
so쎯nr0쎯d쎯	-10.6153
.jd쎯iirr쎯,	-10.6157
bk쎯nar쎯	-10.6157
dp쎯	-10.6157
cd쎯kmc쎯	-10.6161
sjy0쎯nm쎯	-10.6161
q쎯쎁쎂ka쎯	-10.6163
bi쎯mfjc쎯dex쎯fsv쎯	-10.6163
/쎃	-10.6166
sug쎯jjj쎯.	-10.6171
d쎯myz쎯a쎯	-10.6173
mamb쎯zym쎯	-10.6174
tj쎯kag쎯.	-10.6174
ay쎯ski1쎯	-10.6174
miy쎯ch쎯	-10.6175
xbuo쎯bdzn쎯	-10.6176
mfr쎯yh쎯	-10.6177
nswa쎯ii쎯	-10.6177
rxy1쎯	-10.6179
mfz쎯wdb쎯nb쎯sjy0쎯	-10.6179
,idj쎯b쎯	-10.618
oc쎯nl쎯bdzy쎯	-10.6183
dsw쎯mfjc쎯j쎯,	-10.6187
kih쎯	-10.6187
xkc쎯ry쎯	-10.619
oixo쎯ux쎯	-10.6191
,ymv쎯	-10.6191
edyy2쎯	-10.6194
wli쎯	-10.6195
sq쎯rki쎯d쎯	-10.6195
wdki0쎯drr쎯	-10.6199
pa쎯ll쎯	-10.6199
fob쎯wdrb쎯	-10.62
wd쎯mblk쎯	-10.6205
yuy쎯	-10.6206
j쎯jc쎯akz쎯	-10.6206
、i쎯vm쎯	-10.6208
yybd쎯psq쎯	-10.6208
oz쎯odoo쎯	-10.6209
vm쎯uag쎯	-10.6212
z쎯xe쎯idjh쎯kirj쎯	-10.6212
qqd쎯ldoo쎯	-10.6213
쎂.쎈	-10.6213
cirh쎯kq쎯	-10.6214
h쎯jjj쎯	-10.6215
krr쎯	-10.6216
pdxs쎯ncds1쎯	-10.6221
mbbd쎯zrs쎯	-10.6221
hbz쎯nr0쎯	-10.6222
d쎯zmya쎯	-10.6224
aim쎯tgnd쎯p쎯g쎯b쎯	-10.6225
jdrt쎯xyis쎯>	-10.6226
ja쎯haw쎯	-10.6229
pug쎯	-10.6229
d쎯zq쎯ym쎯	-10.6231
su쎯xoy쎯	-10.6231
agd쎯so쎯	-10.6234
hew쎯ehe쎯	-10.6236
n쎯k쎯	-10.6237
dpk쎯zizi쎯	-10.624
vl	-10.6242
pdel쎯kak쎯mw쎯ckb쎯	-10.6243
km쎯sjy0쎯zym쎯	-10.6245
kku쎯iai쎯ewz0쎯nx쎯	-10.6252
aek쎯mbro쎯i쎯	-10.6254
vdp쎯vbi쎯gd쎯vdwy쎯	-10.6259
km쎯aim쎯tgnd쎯	-10.626
odii쎯ajx쎯ku쎯	-10.6261
n쎯od쎯	-10.6261
kg쎯kq쎯	-10.6265
odyk쎯nmi쎯d쎯	-10.6267
en쎯ecq1쎯	-10.627
u쎯j쎯wz쎯	-10.6273
j쎯ciq쎯mamb쎯	-10.6273
k쎯:	-10.6274
vkq쎯	-10.6279
,k쎯a쎯p쎯	-10.6281
yh쎯ymo0쎯	-10.6281
z쎯dxz쎯	-10.6282
nh쎯cirh쎯nmi쎯	-10.6284
bdrw쎯pkq쎯	-10.6285
dzv쎯wdtg쎯	-10.6289
maxg쎯mwv쎯	-10.629
wa쎯i쎯	-10.6291
rly쎯pfxb쎯:	-10.6293
sq쎯symy쎯sn쎯oc쎯	-10.6293
ymo1쎯ee쎯ae쎯sm쎯	-10.6294
dk쎯bk쎯	-10.6294
qb쎯ldoo쎯	-10.6296
o쎯bmm쎯vdwy쎯cuc쎯,	-10.6299
s쎯:“	-10.63
wsa쎯mfkd쎯	-10.63
borx쎯	-10.6301
j쎯nre쎯hma1쎯vdwy쎯	-10.6305
sm쎯ncds1쎯	-10.6307
ajx쎯bg쎯	-10.631
gl쎯h쎯.	-10.6311
bi쎯mfjc쎯mzv쎯	-10.6312
pkib쎯	-10.6313
zmya쎯,	-10.6314
ec쎯tk쎯	-10.6316
wai쎯vxi쎯sli쎯	-10.6316
makr쎯kav쎯	-10.6318
lloj쎯	-10.6318
so	-10.632
zm쎯rd쎯	-10.6321
xo쎯zimo쎯	-10.6321
od쎯gd쎯kojl0쎯mfz쎯	-10.6323
ty쎯	-10.6324
q쎯쎂쎅ka쎯	-10.6326
fl쎯koxb쎯ad쎯	-10.6328
llor쎯	-10.6328
dx	-10.6329
tg쎯gd쎯wdrj쎯wm쎯	-10.633
gtg쎯ku쎯	-10.633
쎁.쎁	-10.6331
mwl쎯.	-10.6333
tirr쎯vm쎯	-10.6334
kiay쎯nm쎯	-10.6336
ywb쎯ajk쎯ywb쎯ch쎯	-10.6338
q쎯쎂쎀ka쎯	-10.634
kojr쎯udjw쎯edx쎯	-10.6344
boyj쎯bh쎯	-10.6345
drk1쎯d쎯k쎯	-10.6347
bdnw쎯bimo쎯	-10.6353
gae쎯woqy쎯,	-10.6353
쎁쎉쎃쎄mamb쎯	-10.6358
snk쎯、	-10.636
쎃%	-10.636
mblk쎯rki쎯	-10.636
sc쎯f쎯sug쎯jjj쎯	-10.6363
,k쎯drk1쎯	-10.6365
wdz쎯oc쎯mc쎯sug쎯	-10.6366
a쎯zyl쎯	-10.6366
mflc쎯nmbl쎯	-10.6366
oy쎯ya쎯kak쎯	-10.6368
vdwy쎯vdwy쎯baa쎯	-10.637
a쎯gj쎯	-10.6371
ya쎯、	-10.6374
uazq쎯	-10.6375
uddw쎯oiel쎯	-10.6375
(쎁).	-10.6376
hdyd쎯wc쎯	-10.6379
bbd쎯td쎯	-10.638
ko쎯jm쎯	-10.638
쎈jaz쎯	-10.6381
eb쎯eked쎯	-10.6381
쎁쎀mamb쎯	-10.6381
....	-10.6386
na쎯odjy쎯	-10.639
deaj쎯fdyy쎯	-10.6391
fft쎯	-10.6391
wsz쎯nsos쎯	-10.6391
"="	-10.6391
쎂쎀쎀쎁	-10.6394
wsb쎯ob쎯rj쎯kion쎯	-10.6397
gae쎯sds쎯ob쎯	-10.6398
zo쎯iirr쎯	-10.6398
mbb쎯qsv쎯	-10.6402
xmi쎯ad쎯ll쎯ho쎯	-10.6403
fav쎯od쎯	-10.6405
kojr쎯zl쎯h쎯jl쎯、	-10.6408
쎂.쎁	-10.6408
쎇)	-10.6408
ucq쎯tdjr쎯ai1쎯	-10.6409
gd쎯kojl0쎯mfz쎯ob쎯	-10.6409
zry쎯zzg쎯	-10.6411
),wdya쎯	-10.6414
zhm쎯,	-10.6415
wz쎯qt쎯	-10.6416
zl쎯ch쎯	-10.6418
tdgd쎯sjy0쎯	-10.6419
bro쎯	-10.6419
gd쎯r쎯	-10.6419
aeb쎯odii쎯ku쎯	-10.642
mfrk0쎯wa쎯u쎯	-10.642
qyk1쎯	-10.6421
ad쎯iirr쎯	-10.6421
si쎯nrkw쎯	-10.6423
sbx쎯:	-10.6423
쎈)	-10.6425
vmr쎯tdrx쎯,	-10.643
ajk쎯mfte쎯ch쎯	-10.6432
sq쎯rki쎯,	-10.6433
쎄쎈쎀	-10.6433
qmps쎯	-10.6436
oy쎯seus쎯sv쎯:	-10.6436
agj쎯	-10.6438
sug쎯ku쎯od쎯ufzm쎯	-10.6438
mc쎯vmi쎯g쎯	-10.6438
vs쎯nfa쎯	-10.6441
r쎯fu쎯	-10.6444
ebm쎯gdq쎯	-10.6447
oxom쎯	-10.6451
vdwy쎯mzv쎯	-10.6452
tdjr쎯	-10.6453
,ecb쎯sjy0쎯	-10.6454
jal쎯smm쎯	-10.6456
bju쎯xek쎯	-10.6459
g쎯fs쎯vdwy쎯mc쎯	-10.6459
glr쎯	-10.6459
쎁～	-10.646
nsc쎯wdan쎯	-10.6461
el	-10.6462
oxi쎯	-10.6462
vm쎯i쎯	-10.6467
d쎯a쎯p쎯	-10.6467
mfj쎯pkq쎯nij쎯	-10.6468
”,“	-10.6471
vbo쎯ym쎯	-10.6472
ka쎯uaol쎯	-10.6473
rsj쎯sya쎯	-10.6474
udke쎯kk쎯	-10.6474
sl쎯gae쎯	-10.6477
xbby쎯fs쎯	-10.6477
suk쎯mfl쎯	-10.6477
mob쎯zrs쎯	-10.6481
cop쎯cmk쎯	-10.6483
ob쎯sso쎯wdhb쎯	-10.6483
odjy쎯rsj쎯u쎯	-10.6484
j쎯so쎯rsj쎯mfrk0쎯:	-10.6485
pvgx쎯zmya쎯	-10.6486
yzi쎯oda쎯	-10.6488
kz쎯ylc쎯	-10.6488
nh쎯snds쎯	-10.6489
idke쎯bh쎯	-10.649
cmo쎯cnj쎯	-10.6492
ya쎯oz쎯yaj1쎯	-10.6494
oy쎯eaqm쎯	-10.6494
ztk쎯	-10.6496
skw쎯ri쎯	-10.6496
mbro쎯ku쎯mw쎯ckb쎯	-10.6496
kq쎯vcq쎯	-10.6497
pe쎯aim쎯tgnd쎯	-10.6498
li	-10.6499
fav쎯mfte쎯mc쎯	-10.6503
nl쎯oi쎯	-10.6504
fj쎯nlk쎯	-10.6507
a쎯bb쎯	-10.651
zk쎯ey쎯	-10.6512
zoo쎯fe쎯	-10.6512
gd쎯uo쎯	-10.6515
、fya쎯	-10.6516
myz쎯qy쎯	-10.6516
yi쎯ob쎯	-10.6516
nid쎯	-10.6519
oi쎯aim쎯mw쎯ckb쎯	-10.6519
.l쎯ad쎯	-10.6519
ca쎯ya쎯	-10.652
h쎯sbx쎯	-10.6523
njf쎯yav쎯	-10.6524
(쎂	-10.6524
쎁쎉쎂쎇mamb쎯	-10.6524
,k쎯a쎯mfji쎯	-10.6525
tgb쎯fds쎯	-10.6526
qry쎯	-10.6528
vsm쎯vsk쎯	-10.6532
wdy쎯jl쎯	-10.6533
,nmi쎯u쎯	-10.6534
sme쎯aij쎯saii쎯	-10.6534
edfd쎯kdml1쎯ob쎯	-10.6535
、qyx쎯rsym쎯	-10.6536
;쎂、	-10.6538
fbb쎯ffv쎯	-10.6538
sl쎯jb쎯	-10.6539
da쎯bizi쎯	-10.6545
esz쎯	-10.6547
,ad쎯k쎯	-10.6547
ufoy쎯af쎯	-10.6551
jyaj쎯	-10.6551
쎁쎀쎈	-10.6556
odod쎯ko쎯	-10.6557
ecb쎯gzz쎯i쎯	-10.6559
zae쎯	-10.6564
pvf쎯l쎯y쎯	-10.6564
、kz쎯ya쎯	-10.6565
womi쎯	-10.6569
dk쎯cexs쎯	-10.6569
.쎄.	-10.657
ciq쎯lbkv쎯	-10.6571
dgk쎯	-10.6571
ja쎯qyx쎯	-10.6572
obv쎯	-10.6573
vsnd쎯edl쎯sli쎯	-10.658
?”	-10.6581
.zx쎯dsw쎯	-10.6582
zizi쎯np쎯d쎯	-10.6582
ooy쎯	-10.6583
udjw쎯ckb쎯	-10.6587
eqg쎯jc쎯wdgq0쎯	-10.6588
3	-10.6589
mfj쎯dex쎯fsv쎯	-10.659
iirr쎯kd쎯	-10.6593
deaj쎯	-10.6594
(쎄)	-10.6594
b쎯aep쎯	-10.6599
aekd쎯ajx쎯	-10.66
mbro쎯ckb쎯vdwy쎯	-10.66
ysj쎯	-10.6603
wa쎯ai1쎯	-10.6604
xkc쎯seg쎯	-10.6605
d쎯z쎯xe쎯,	-10.6605
ri쎯jc쎯sbx쎯	-10.661
tgva쎯rxw쎯	-10.6615
d쎯suk쎯rhko쎯	-10.6615
jimo쎯	-10.6616
tc쎯rsj쎯	-10.6621
,yi쎯aij쎯	-10.6622
mwv쎯	-10.6626
a쎯iiko쎯	-10.6627
bjv쎯n쎯	-10.6628
odjy쎯odw쎯	-10.6633
.jd쎯u쎯	-10.6634
ch쎯gdw쎯	-10.6637
an쎯nrl쎯	-10.6638
dwb쎯mblk쎯mzv쎯zs쎯	-10.6638
egu쎯	-10.6642
md쎯qq쎯	-10.6642
dny쎯md쎯	-10.6643
aed쎯dgr쎯	-10.6645
pq	-10.665
uddw쎯	-10.6651
ld쎯oi쎯	-10.6653
gj쎯kdmk쎯	-10.6653
aep쎯dqsy쎯	-10.6655
odwg쎯yybd쎯d쎯	-10.6658
gdq쎯yxo쎯	-10.6658
쎅)	-10.6659
tirr쎯jirj쎯	-10.666
uaqb쎯mbjw쎯	-10.6661
boy쎯y쎯	-10.6662
mc쎯vmi쎯j쎯	-10.6664
fl쎯zuz쎯	-10.6665
yms쎯fl쎯uag쎯	-10.6668
q쎯쎂쎂ka쎯	-10.6668
llqq쎯	-10.6668
xkzi쎯	-10.6671
agd쎯na쎯	-10.6672
bsu쎯byms쎯	-10.6676
dsjl쎯	-10.6681
sf쎯e쎯zyy쎯	-10.6681
,nlj쎯	-10.6682
h쎯u쎯y쎯	-10.6683
g쎯jc쎯ldod쎯ri쎯	-10.6683
fn쎯en쎯	-10.6683
udjw쎯kdml0쎯	-10.6686
ri쎯aep쎯xms쎯ds쎯	-10.6694
kv쎯lczs쎯	-10.6696
쎁쎂o쎯	-10.67
uke쎯uomi쎯	-10.6703
wtyd쎯iiko쎯	-10.6704
mik쎯	-10.671
l쎯wm쎯d쎯	-10.6715
zmxs쎯	-10.6717
rrk쎯g쎯	-10.6717
gae쎯woqy쎯.	-10.6719
wsy쎯	-10.6719
myz쎯a쎯wdgq0쎯	-10.672
ae쎯wj쎯	-10.672
xsig쎯sed쎯	-10.6721
tqx쎯	-10.6721
wdgz쎯xl쎯	-10.6723
aijr쎯marm쎯	-10.6725
why쎯	-10.673
zbj쎯zmrk쎯	-10.673
ajk쎯sc쎯nmb쎯,	-10.6732
sc쎯sb쎯	-10.6733
nd쎯lczs쎯	-10.6735
쎀*	-10.6735
wt	-10.6737
cpez쎯	-10.6737
bdkv쎯,	-10.6738
ks쎯ryi쎯	-10.6738
mbod쎯bzs쎯	-10.674
aij쎯ja쎯	-10.6743
vb쎯》	-10.6744
bdzs1쎯hejc쎯《	-10.6745
k쎯a쎯fav쎯	-10.6746
vk쎯ckmh쎯	-10.6746
쎁쎉쎉쎉	-10.6748
jc쎯wdgq0쎯a쎯zym쎯	-10.6748
gj쎯mfjo쎯u쎯	-10.6749
dsq쎯idjh쎯	-10.6749
mbj쎯sp쎯	-10.675
nkc0쎯paj0쎯	-10.6751
◎	-10.6755
sya쎯vhv쎯	-10.6756
a쎯nm쎯	-10.6756
.n쎯nt쎯	-10.6761
oxaj쎯ucnd쎯	-10.6762
koxb쎯j쎯	-10.6762
pdxs쎯makr쎯	-10.6763
rsj쎯vas쎯	-10.6763
sc쎯f쎯zx쎯ewj쎯	-10.6764
non쎯nel쎯.	-10.6765
uzg쎯	-10.6766
edlc쎯hbkd쎯	-10.6769
klv쎯	-10.6771
vx쎯wdya쎯	-10.6771
kojl0쎯kojl0쎯	-10.6772
gj쎯fpx쎯	-10.6773
u쎯a쎯	-10.6773
kd쎯d쎯	-10.6774
,aep쎯h쎯y쎯	-10.678
zizi쎯vwa쎯	-10.6782
kskp쎯jnj쎯ym쎯	-10.6784
jl쎯.	-10.6786
eejq쎯ewm쎯	-10.6791
쎁쎆쎀쎀	-10.6793
○	-10.6797
zmya쎯sau쎯.	-10.6797
ncy쎯	-10.6798
sow쎯sj쎯k쎯	-10.6798
,ucgd쎯jc쎯	-10.6799
u쎯nrkw쎯	-10.68
kiub쎯	-10.6801
zw쎯oda쎯	-10.6802
”wa쎯	-10.6802
zb쎯syme쎯	-10.6803
eh쎯	-10.6809
zgp쎯sef1쎯	-10.6811
sc쎯od쎯oz쎯	-10.6811
ak쎯sjl쎯	-10.6811
ll쎯、	-10.6814
bxm쎯vas쎯	-10.6817
zimo쎯lorz쎯	-10.6817
ne쎯y쎯	-10.6818
kv쎯gj쎯	-10.6821
vyc쎯	-10.6822
cdv쎯jl쎯	-10.6823
u쎯wbk쎯rrk쎯	-10.6823
yzs쎯dyo쎯	-10.6823
wm쎯aeb쎯	-10.6826
zizi쎯jjj쎯	-10.6826
wxl쎯dsw쎯y쎯	-10.6827
xsc쎯b쎯	-10.6829
fq쎯frz쎯,	-10.683
、ka쎯fav쎯	-10.6835
xsim쎯pde쎯	-10.6845
nr쎯	-10.6846
zmyi쎯nt쎯	-10.6849
jirj쎯,	-10.685
rl	-10.6851
kiay쎯aim쎯zw쎯gxv쎯	-10.6858
ak쎯zmya쎯d쎯	-10.6861
ngr쎯fkwz쎯	-10.6864
pe쎯nsu쎯ad쎯	-10.6865
sod쎯wd쎯	-10.6865
zx쎯zyy쎯	-10.6867
,gi쎯nxs쎯	-10.6867
d쎯eyd쎯fsv쎯	-10.6867
oz쎯soo쎯	-10.6868
od쎯my쎯	-10.6868
uaxk쎯woj쎯	-10.6869
ckb쎯sor쎯mfj쎯	-10.6871
vskd쎯kdml1쎯	-10.6871
uag쎯td쎯	-10.6873
fqq쎯	-10.6873
wa쎯skw쎯	-10.6873
oz쎯rsym쎯jl쎯	-10.6874
wlr쎯kbx쎯	-10.6874
ldod쎯woj쎯ry쎯dmi쎯	-10.6875
tird쎯ob쎯	-10.6876
udke쎯nsu쎯:	-10.6876
jjd쎯	-10.6879
aim쎯rsym쎯	-10.6879
rj쎯nl쎯	-10.6881
q쎯쎅ka쎯	-10.6882
ucu쎯ad쎯	-10.6883
alb쎯mc쎯	-10.6886
d쎯e쎯kion쎯	-10.6887
u쎯ec쎯	-10.6894
ofk쎯	-10.6895
쎆쎀쎀쎀	-10.6896
fpx쎯bxgd쎯	-10.6896
q쎯쎂쎄ka쎯	-10.6898
md쎯bi쎯	-10.69
wr쎯ku쎯sjy0쎯	-10.6901
d쎯non쎯fr쎯	-10.6903
쎉q쎯hb쎯	-10.6904
wxl쎯qdos쎯	-10.6905
nb쎯bdzy쎯	-10.6905
:쎁쎀	-10.6906
yh쎯ewj쎯	-10.6908
erf쎯erez쎯vfd쎯	-10.6908
som쎯ym쎯ad쎯	-10.6909
aij쎯zo쎯g쎯	-10.6909
wdrj쎯xl쎯	-10.6911
pni쎯	-10.6912
bdnw쎯iiko쎯tirg쎯	-10.6913
fds쎯.	-10.6914
.wxl쎯dsw쎯	-10.6917
ajk쎯sc쎯zw쎯	-10.6918
bu쎯nel쎯	-10.6918
dsw쎯d쎯	-10.692
sop쎯ty쎯	-10.692
qd쎯ed쎯	-10.6921
dyx쎯zrh쎯	-10.6921
faed쎯ejmf쎯	-10.6921
mfxw1쎯wd쎯d쎯	-10.6923
haw쎯hbkd쎯	-10.6924
쎁쎉쎂쎈mamb쎯	-10.6924
d쎯zwb쎯oaj쎯	-10.6924
fav쎯ba쎯	-10.6926
wdrr쎯k쎯	-10.6926
fdld쎯	-10.6927
쎀.쎇	-10.6927
쎂쎄ko쎯kd쎯	-10.6933
kiay쎯aim쎯	-10.6934
sq쎯g쎯	-10.6935
eeko쎯	-10.6935
gd쎯ld쎯	-10.6938
yaj1쎯odw쎯sjy0쎯	-10.694
akk쎯mev쎯u쎯	-10.6941
ceug쎯zrj쎯	-10.6941
mfya쎯ey쎯	-10.6941
s쎯kq쎯xyis쎯	-10.6943
oiom쎯vdnd쎯	-10.695
wdix쎯	-10.6951
idjh쎯jc쎯	-10.6953
쎃～	-10.6956
tgva쎯ym쎯	-10.6957
vtc쎯vlw쎯	-10.6957
sjl쎯mlka쎯gbs쎯	-10.6958
heoo쎯ko쎯	-10.6959
odod쎯iirr쎯	-10.6961
fsz쎯fvr쎯	-10.6965
rd쎯mfte쎯	-10.6966
ekq쎯	-10.6966
nre쎯anr쎯	-10.6967
shl쎯	-10.6969
ri쎯,giw쎯	-10.697
uanl쎯tgnd쎯	-10.697
,lco쎯	-10.6971
sjl쎯mbds쎯ywb쎯fs쎯	-10.6973
mamb쎯bdkv쎯,	-10.6976
kdmk쎯tgf쎯zx쎯xo쎯	-10.6977
shlq쎯	-10.6977
jaz쎯zhm쎯	-10.6977
sc쎯nmb쎯mfz쎯jl쎯	-10.6979
sc쎯ym쎯	-10.6979
sjl쎯ggnk쎯	-10.698
oixo쎯zmya쎯d쎯	-10.698
wdgq0쎯.	-10.6981
ii	-10.6982
ggud쎯	-10.6985
쎁×	-10.6985
,edjm쎯rsj쎯	-10.6987
s쎯vb쎯	-10.6987
udlk쎯r쎯tdro쎯	-10.699
hdyd쎯nx쎯	-10.6996
wr쎯yh쎯zimo쎯oda쎯	-10.6997
rstd쎯mfya쎯	-10.6998
uaqb쎯qsoo쎯	-10.6999
쎂bg쎯	-10.7
zmya쎯sau쎯	-10.7002
ajkw쎯	-10.7002
dpez쎯vszr쎯	-10.7004
vkb쎯	-10.7005
d쎯biym쎯zq쎯	-10.7006
gd쎯vdwy쎯rre쎯ku쎯	-10.7008
(쎁쎈	-10.7008
xbby쎯sq쎯d쎯	-10.7008
yrx쎯ehz쎯	-10.7012
zl쎯zjo쎯d쎯	-10.7012
xaj쎯byo쎯	-10.7013
rgos쎯	-10.7016
.쎂쎀쎀쎃mamb쎯	-10.7016
edlc쎯hb쎯	-10.7018
i쎯klg쎯	-10.7019
vcq쎯·	-10.702
ead쎯	-10.7024
gak쎯plk쎯woj쎯kak쎯	-10.7025
yji쎯arku쎯	-10.7025
jii쎯	-10.7031
mfji쎯,	-10.7032
gm쎯llg쎯	-10.7033
qfo쎯	-10.7038
mazm쎯haw쎯	-10.704
dxbi쎯	-10.704
mtk쎯udke쎯d쎯	-10.7041
pda쎯ybor쎯	-10.7041
non쎯nel쎯d쎯	-10.7043
wa쎯tk쎯,	-10.7043
о	-10.7044
haw쎯tgva쎯	-10.7045
yary쎯	-10.7047
q쎯쎁쎉ka쎯	-10.7047
yi쎯jz쎯	-10.705
ar	-10.705
gae쎯woqy쎯、	-10.7053
hdko쎯vm쎯	-10.7054
ygqw쎯fq쎯	-10.7057
kq쎯kku쎯d쎯	-10.706
iiko쎯oi쎯	-10.706
zrj쎯	-10.7061
sb쎯rly쎯	-10.7063
um쎯.	-10.7067
exa쎯	-10.7067
wcs쎯ga쎯	-10.7069
arh쎯tma쎯od쎯	-10.7069
fj쎯wdz쎯sli쎯	-10.7074
srr쎯	-10.7075
j쎯eao쎯kojr쎯jl쎯,	-10.7079
kojl0쎯mamb쎯	-10.7083
vkk쎯b쎯	-10.7084
ufc쎯grl쎯	-10.7084
,pvwx쎯hbkd쎯	-10.7085
ekgy쎯	-10.7085
fel쎯fmk쎯	-10.7087
ba쎯aju쎯	-10.7088
e쎯wdgq0쎯	-10.7089
d쎯a쎯sjy0쎯oy쎯	-10.709
ajx쎯.	-10.709
d쎯oi쎯u쎯	-10.7091
wdmb쎯	-10.7091
edlo쎯aii쎯d쎯	-10.7092
eekq쎯	-10.7093
pai쎯	-10.7094
dq쎯kv쎯	-10.7095
tirr쎯ucgd쎯	-10.7096
bdkv쎯s쎯,	-10.7097
so쎯nr0쎯jilw쎯sug쎯	-10.7097
grl쎯sod쎯	-10.71
dska쎯	-10.7104
xoo쎯	-10.7104
mfrk2쎯	-10.7106
u쎯:	-10.7107
cejo쎯ku쎯bmm쎯szq쎯	-10.7109
brt쎯aij쎯	-10.711
fuz쎯sjl쎯	-10.711
ch쎯vkm쎯sli쎯	-10.7116
lo	-10.7116
zizi쎯nmb쎯	-10.7117
쎂.쎃	-10.7118
pdw쎯qd쎯mamb쎯	-10.7118
gi쎯kro쎯	-10.7119
zgp쎯sef1쎯ch쎯	-10.7119
q쎯쎈ka쎯	-10.712
pnx쎯	-10.7123
kic쎯dyx쎯	-10.7124
zimo쎯uaol쎯	-10.7125
sj쎯gdq쎯	-10.7125
hdko쎯nlk쎯	-10.7125
zrs쎯쎂	-10.7127
byo쎯ks쎯	-10.7129
p쎯nmi쎯	-10.713
vkl쎯vdnd쎯sli쎯	-10.713
sow쎯sjy0쎯	-10.7131
jixo쎯jiwb쎯	-10.7133
ymo1쎯mblk쎯	-10.7135
se	-10.7136
boy쎯hbkd쎯	-10.7136
vke쎯gdli쎯	-10.7136
f쎯idju쎯	-10.7137
쎀쎀au쎯sy쎯uf쎯,	-10.7138
ucgd쎯vdwy쎯	-10.7138
myz쎯lk쎯xki쎯	-10.714
aij쎯l쎯ad쎯	-10.7142
j쎯wz쎯ko쎯vdwy쎯	-10.7145
mgn쎯木	-10.7145
vxw쎯vry쎯	-10.7146
z쎯xe쎯,	-10.7146
zmxb쎯sug쎯mfte쎯	-10.7151
gj쎯mfjo쎯쎄	-10.7151
,zgp쎯yj쎯y쎯	-10.7155
(쎁쎈쎉	-10.7155
jed쎯fal쎯	-10.7156
쎁tdro쎯	-10.7159
giw쎯ggnk쎯	-10.7159
jlym쎯ske쎯	-10.716
ftb쎯	-10.716
dk쎯sjl쎯y쎯	-10.716
쎂od쎯,	-10.716
ewoj쎯	-10.7164
anr쎯mfya쎯	-10.7168
akm쎯fr쎯d쎯	-10.717
pds쎯	-10.7173
,oc쎯fds쎯	-10.7174
ufgd쎯jk쎯	-10.7179
.paj0쎯bdkv쎯	-10.7181
zizi쎯c쎯g쎯	-10.7181
dka쎯njf쎯	-10.7182
pvgx쎯d쎯	-10.7183
zw쎯jaz쎯	-10.7184
zxe쎯	-10.7186
mbds쎯od쎯	-10.7192
lbb0쎯fj쎯aiaj쎯	-10.7193
fav쎯xyis쎯k쎯	-10.7193
bi쎯tdrl1쎯	-10.7193
dpk쎯mfji쎯	-10.7194
paj0쎯eacy0쎯	-10.7194
、ajk쎯	-10.7195
q쎯쎁쎇ka쎯	-10.7196
wtxi쎯vas쎯u쎯	-10.7198
heoo쎯zmya쎯	-10.72
dkib쎯	-10.7201
szz쎯mbmo쎯	-10.7201
zw쎯mfjc쎯	-10.7201
sc쎯f쎯ggnk쎯ufte쎯	-10.7205
、yc쎯	-10.7205
vai쎯	-10.7208
d쎯ae쎯z쎯	-10.7211
sug쎯mbro쎯	-10.7211
llrs쎯,	-10.7211
pfki0쎯eyj0쎯	-10.7216
df쎯	-10.7217
e쎯kion쎯rj쎯b쎯	-10.7217
zizi쎯tel쎯	-10.7217
nc쎯wym쎯	-10.7218
.wdrr쎯k쎯	-10.7218
oaz쎯	-10.722
tl쎯wm쎯	-10.7221
yaly쎯	-10.7223
kv쎯sug쎯	-10.7225
lb쎯nk쎯	-10.7227
tirq쎯gj쎯	-10.723
qdos쎯fv쎯	-10.7232
jc쎯sug쎯	-10.7232
kib쎯ecb쎯	-10.7234
.hecj쎯	-10.7235
d쎯a쎯bb쎯	-10.724
nmb쎯skw쎯	-10.724
mekb쎯makr쎯	-10.7242
sj쎯zq쎯	-10.7243
jjgs쎯	-10.7245
ma쎯	-10.7246
fwb쎯ryi쎯	-10.7251
nmi쎯y쎯	-10.7253
paj0쎯yav쎯	-10.7254
mbbd쎯ceaz쎯	-10.7255
mfr쎯fel쎯	-10.7256
ygqw쎯kd쎯	-10.7258
sq쎯sed쎯az쎯	-10.7258
ucq쎯ey쎯	-10.7261
wan쎯	-10.7263
≥	-10.7265
fav쎯mfte쎯rre쎯ku쎯	-10.7269
c쎯gdq쎯jl쎯bi쎯	-10.727
fdyy쎯uagw0쎯	-10.7271
cuc쎯sc쎯nmb쎯	-10.7272
,c쎯yya쎯	-10.7273
llm쎯	-10.7277
ew쎯ucl쎯	-10.728
sc쎯f쎯mc쎯sug쎯	-10.7281
xhk쎯	-10.7281
dgr쎯	-10.7282
cd쎯zni쎯	-10.7284
.쎂쎀쎀쎂mamb쎯	-10.7284
kd쎯sok쎯	-10.7287
xb쎯,	-10.7288
uanw쎯bmm쎯	-10.7288
au쎯brt쎯ski1쎯sug쎯	-10.7289
edy쎯ob쎯ob쎯jl쎯、	-10.7291
mnd쎯jaz쎯	-10.7291
oz쎯yaj1쎯g쎯	-10.7293
dpw0쎯e쎯	-10.7294
yav쎯wlr쎯	-10.7295
al쎯gj쎯	-10.7299
rll쎯laz쎯	-10.7299
,wdrr쎯k쎯	-10.7299
gd쎯bdol쎯fekg쎯	-10.73
.oy쎯gdli쎯ad쎯	-10.7308
ldo쎯zrj쎯vsm쎯xhm쎯	-10.7312
aim쎯fx쎯	-10.7313
uek쎯	-10.7314
mfuw쎯	-10.7315
a쎯fu쎯,	-10.7317
fbsm쎯	-10.7319
pte쎯	-10.7319
dyx쎯》、《	-10.732
rbr쎯	-10.732
oc쎯mfrk0쎯	-10.7321
fff쎯ffv쎯oz쎯jbr쎯	-10.7323
sya쎯ldeo쎯	-10.7324
,eqg쎯oiad쎯	-10.7324
zhm쎯i쎯	-10.7327
ko쎯uo쎯	-10.7327
bjex쎯ggyy1쎯	-10.7331
gd쎯bdzs1쎯so쎯nr0쎯	-10.7333
al쎯lga쎯	-10.7334
ee쎯odjy쎯tded쎯rx쎯	-10.7335
,xbkv0쎯xmi쎯	-10.7335
mfte쎯sc쎯nmb쎯	-10.7335
rhko쎯jbr쎯	-10.7337
j쎯cizy쎯	-10.7337
.쎁.	-10.7338
armk쎯	-10.7342
vuz쎯	-10.7343
.”wdf쎯	-10.7346
,zbj쎯oaj쎯	-10.7347
쎅.쎅	-10.7348
xmkr쎯oi쎯	-10.7348
d쎯wsb쎯ob쎯	-10.7348
ao쎯bdod쎯	-10.7349
uc	-10.7353
ufc쎯xbuo쎯	-10.7357
gggs쎯	-10.7358
cow쎯	-10.7359
j쎯jc쎯gd쎯ybz쎯	-10.736
maj쎯rsj쎯t쎯	-10.7361
q쎯쎆ka쎯	-10.7369
ey쎯zrs쎯	-10.7371
hbz쎯fjw쎯	-10.7371
zw쎯gxv쎯	-10.7372
vl쎯zob쎯	-10.7373
nxm쎯ecp쎯uabd쎯	-10.7374
tlwz쎯	-10.7376
mbbd쎯armk쎯d쎯	-10.738
odyk쎯mbjw쎯y쎯	-10.7381
и	-10.7381
uhg쎯dq쎯	-10.7383
fekg쎯hbi쎯,	-10.7383
exau쎯vmy쎯	-10.7384
heoo쎯yji쎯d쎯	-10.7385
ka쎯sbx쎯	-10.7386
gl쎯h쎯,	-10.7387
mbds쎯bdzs1쎯ku쎯	-10.7387
miy쎯wdz쎯	-10.7388
”)	-10.7389
mbds쎯rj쎯mfji쎯	-10.7389
쎃쎀mamb쎯	-10.7391
wdtg쎯idjh쎯	-10.7391
wcs쎯wcs쎯	-10.7394
ucgd쎯zm쎯	-10.7395
odjr쎯	-10.7397
uojf쎯	-10.7397
dex쎯vb쎯	-10.7397
qqx쎯no쎯mblk쎯	-10.74
bmy쎯aij쎯zo쎯	-10.7401
kojl0쎯vdnd쎯	-10.7404
ebor쎯	-10.7404
쎆%	-10.741
oiiy쎯jos쎯	-10.741
nkkv쎯vdnd쎯	-10.7412
쎂tdro쎯	-10.7416
wtyd쎯zym쎯	-10.7423
zizi쎯c쎯d쎯	-10.7425
쎁쎀%	-10.7425
쎀au쎯sy쎯uf쎯,	-10.7426
ehn쎯ii쎯	-10.7426
zk쎯hbmo쎯	-10.7427
boy쎯nmb쎯	-10.7429
ho쎯.	-10.743
uanw쎯kg쎯	-10.7432
u쎯ned쎯mzs쎯	-10.7438
쎃tdro쎯	-10.7438
bu쎯yj쎯y쎯	-10.7438
wdgm쎯	-10.7441
쎀쎀ski1쎯,	-10.7442
nxby쎯oc쎯	-10.7444
q쎯쎁쎁ka쎯	-10.7444
쎉)	-10.7446
r쎯bdrd쎯	-10.7447
bi쎯mfjc쎯、	-10.7448
nk쎯epf쎯	-10.745
qd쎯mamb쎯	-10.745
쎅ggkb쎯uf쎯	-10.7451
rf쎯nar쎯	-10.7453
udke쎯qi쎯	-10.7457
.sow쎯k쎯	-10.7462
vpd쎯	-10.7463
mfz쎯kojl0쎯mfz쎯	-10.7465
ajl쎯oda쎯	-10.7465
vsm쎯bizi쎯yod쎯	-10.7465
va쎯ja쎯	-10.7466
j쎯zym쎯	-10.7466
wms쎯aeb쎯	-10.7469
en쎯seps쎯	-10.7473
kmc쎯zym쎯	-10.7474
qy쎯gm쎯	-10.7474
kz쎯fuy쎯	-10.7474
ujd쎯zsj쎯	-10.7475
ld쎯rsj쎯	-10.7476
cirx쎯qs쎯	-10.7477
)mbds쎯	-10.7478
bil쎯、	-10.748
ku쎯ldod쎯	-10.748
fxd쎯su쎯	-10.7483
odob쎯fb쎯	-10.7483
oy쎯arsr쎯	-10.7486
vm쎯kv쎯	-10.7487
d쎯kiw쎯flw쎯	-10.7488
jdj쎯kdxb0쎯	-10.7489
ciz쎯gdq쎯	-10.7489
a쎯o쎯od쎯	-10.749
vwrd쎯yk쎯sli쎯	-10.7491
zrd쎯	-10.7492
tgxo쎯	-10.7492
jjg쎯wdy쎯	-10.7493
az쎯mw쎯ckb쎯	-10.7496
rid쎯ajk쎯rid쎯ch쎯	-10.7501
bi쎯mfz쎯	-10.7501
via쎯	-10.7501
ahi쎯suwl쎯	-10.7502
vwj쎯rly쎯	-10.7503
(odxj쎯	-10.7506
vrv쎯ku쎯	-10.7509
vu쎯ersw쎯	-10.7509
vkry쎯	-10.7509
jc쎯wdgq0쎯yod쎯	-10.7509
top쎯	-10.751
kv쎯kkk쎯	-10.7512
oy쎯edx쎯	-10.7514
d쎯ymo0쎯vdwy쎯	-10.7514
:쎆	-10.7515
wr쎯ezr쎯	-10.7516
vsm쎯bizi쎯	-10.7517
nsb쎯gdiy쎯	-10.752
ss쎯oz쎯yaj1쎯	-10.7521
uaqk쎯bdnw쎯	-10.7522
ahi쎯vx쎯gd쎯vdwy쎯	-10.7523
bad쎯	-10.7523
xkc쎯dsz쎯	-10.7524
wotg쎯	-10.7524
q쎯쎁쎄ka쎯	-10.7525
kiz쎯sed쎯	-10.7527
쎃jaz쎯	-10.7529
od쎯gd쎯	-10.7529
gr쎯ec쎯k쎯	-10.7529
vwa쎯jl쎯,	-10.7531
uosu쎯ufte쎯	-10.7533
dnk쎯edtg쎯	-10.7534
d쎯ckb쎯sor쎯	-10.7534
vsc쎯ncds1쎯	-10.7535
hb쎯odsx쎯,	-10.7536
mbds쎯r쎯o쎯	-10.7538
l쎯b쎯	-10.754
bzma쎯yms쎯	-10.7541
bsj쎯snd쎯j쎯wz쎯	-10.7544
oixo쎯kom쎯	-10.7547
me쎯ay쎯	-10.7551
edlc쎯vs쎯	-10.7552
mfz쎯kojr쎯fs쎯	-10.7553
q쎯쎉ka쎯	-10.7554
zzl쎯lbg쎯	-10.7555
xe쎯zizi쎯	-10.7557
lyh쎯	-10.7557
ajk쎯udjw쎯	-10.7558
쎄쎅쎀	-10.7562
qt쎯	-10.7562
u쎯odii쎯ku쎯	-10.7569
vdwl쎯oiad쎯	-10.7576
ns쎯nlwz쎯mzv쎯zs쎯	-10.7578
he쎯mfjc쎯	-10.7578
oc쎯mfjc쎯	-10.758
)(	-10.758
bi쎯wr쎯zb쎯wh쎯	-10.758
,x쎯ad쎯	-10.7586
sxl쎯	-10.7587
shb쎯idju쎯	-10.7587
szq쎯od쎯	-10.759
vkl쎯kpa쎯	-10.759
쎂od쎯	-10.7591
l쎯zo쎯	-10.7593
vxi쎯uabd쎯	-10.7597
drk1쎯odw쎯	-10.7597
odyk쎯su쎯ad쎯	-10.7598
,a쎯o쎯	-10.7599
zszb쎯	-10.76
,gdq쎯kd쎯	-10.7601
neo쎯kv쎯	-10.7601
쎇oz쎯kb쎯	-10.7602
,zo쎯“	-10.7603
j쎯wz쎯,	-10.7603
sjw쎯t쎯	-10.7604
z쎯xe쎯bdol쎯hkd쎯	-10.7605
dyo쎯bxm쎯jjg쎯	-10.761
쎈쎀%	-10.7614
ew쎯tdgd쎯od쎯	-10.7614
zo쎯paj0쎯,	-10.7618
gc쎯wms쎯	-10.7619
qi쎯su쎯d쎯	-10.7619
ymo0쎯oz쎯gai쎯	-10.7621
;《	-10.7621
oy쎯jk쎯u쎯	-10.7622
.sow쎯kb쎯	-10.7623
maj쎯lczs쎯	-10.7623
fy쎯ec쎯	-10.7624
bmm쎯szq쎯bi쎯nmi쎯	-10.7626
ci쎯waj쎯,	-10.7627
jxr쎯	-10.7627
dwb쎯mblk쎯jjg쎯	-10.7628
vb쎯od쎯	-10.763
wi쎯nkbz쎯	-10.763
ody쎯nsb쎯	-10.7631
ldoo쎯pdel쎯	-10.7631
kojr쎯aim쎯	-10.7632
ece쎯	-10.7632
、smr쎯vsm쎯	-10.7633
d쎯c쎯nh쎯nr0쎯	-10.7634
myz쎯a쎯sjy0쎯	-10.7635
wtkf쎯	-10.7636
mzv쎯sc쎯nmb쎯	-10.764
z쎯mc쎯g쎯	-10.764
oz쎯kb쎯rid쎯,	-10.7641
jy쎯a쎯o쎯	-10.7642
suf쎯nl쎯	-10.7642
.쎂쎀쎁쎀mamb쎯	-10.7644
dyj쎯sul쎯	-10.7647
ag쎯fg쎯	-10.7647
suyj쎯	-10.7649
biym쎯zq쎯,	-10.7649
쎅쎀쎀edjr2쎯	-10.765
eqg쎯oc쎯jc쎯	-10.765
wtyd쎯,	-10.7653
idj쎯b쎯gj쎯mfjo쎯쎁	-10.7654
nif쎯oaj쎯	-10.7657
smr쎯oi쎯wsb쎯	-10.7658
,jhx쎯sol쎯	-10.766
q쎯쎂쎆ka쎯	-10.7662
jdj쎯zimo쎯	-10.7668
udjw쎯ehsr쎯	-10.7669
bdnw쎯xe쎯	-10.7669
bbvv쎯	-10.7674
쎄.쎀	-10.7675
d쎯wbk쎯rrk쎯	-10.7678
kiym쎯,vx쎯smm쎯,	-10.7679
,soo쎯wxl쎯	-10.7679
qym쎯	-10.7679
rz쎯ufgd쎯	-10.7679
byo쎯oaj쎯	-10.7679
mb쎯zmym쎯	-10.768
nim쎯rsv쎯	-10.7682
쎁쎀odmf쎯	-10.7682
oaj쎯nmi쎯wsb쎯	-10.7682
a쎯xju쎯	-10.7683
zlo쎯mfjr0쎯	-10.7691
쎁쎉쎉쎆	-10.7693
z쎯mc쎯d쎯	-10.7693
g쎯odsx쎯	-10.7698
gd	-10.77
k쎯odod쎯	-10.7701
vbb쎯	-10.7704
zo쎯edl쎯	-10.7705
qbo쎯	-10.7707
ngj쎯	-10.7709
baz쎯mc쎯	-10.771
wd	-10.7714
nfa쎯d쎯	-10.7716
fbk0쎯	-10.7717
klz쎯	-10.772
bd쎯od쎯	-10.7721
nkbz쎯	-10.7723
bi쎯ku쎯jbr쎯	-10.7724
nz쎯mua쎯	-10.7724
mwz쎯fdor쎯	-10.7725
tdro쎯ob쎯sso쎯	-10.7726
my	-10.7727
aim쎯tgnd쎯mbbd쎯	-10.7727
oy쎯fdyy쎯hbkd쎯	-10.7728
cd쎯tdro쎯	-10.773
,v쎯gdq쎯	-10.7733
bmm쎯kal쎯,	-10.7735
au쎯oi쎯	-10.7735
bdok쎯nh쎯	-10.7738
tirg쎯,	-10.7738
쎁쎈쎄	-10.7741
kg쎯vxb쎯	-10.7741
wm쎯,gdq쎯zzm쎯fds쎯	-10.7743
gm쎯tdgd쎯odii쎯ku쎯	-10.7743
dkc쎯rsj쎯	-10.7745
ciq쎯vm쎯km쎯	-10.7747
쎁쎉쎉쎇	-10.7755
vwa쎯skx쎯	-10.7756
fq쎯mfl쎯	-10.7762
jddm쎯mfz쎯	-10.7762
mbfj쎯mbmc쎯.	-10.7763
wz쎯mlka쎯mw쎯	-10.7763
jdj쎯smm쎯	-10.7765
wdgm쎯mbro쎯	-10.7766
gdw쎯fb쎯	-10.7768
–	-10.7768
a쎯jirj쎯	-10.7768
vk쎯cizy쎯	-10.7769
ehe쎯nfa쎯	-10.7772
,drk1쎯	-10.7772
odkw쎯	-10.7774
mzg쎯sok쎯	-10.7776
sah쎯	-10.7776
tl쎯wm쎯ldo쎯sij쎯	-10.7777
pqrs쎯	-10.7778
d쎯haw쎯vdwl쎯	-10.778
mfte쎯ew쎯tdgd쎯od쎯	-10.778
,k쎯kia쎯	-10.7787
u쎯쎁	-10.779
gi쎯skx쎯	-10.7799
sj쎯g쎯	-10.7799
ray쎯rjg쎯	-10.7803
zwb쎯	-10.7805
(c쎯	-10.7809
eked쎯fav쎯	-10.781
k쎯a쎯uanw쎯	-10.7811
kcx쎯mekb쎯f쎯d쎯	-10.7812
sjk쎯xek쎯	-10.7812
mbbd쎯sug쎯	-10.7813
fs쎯odm쎯	-10.7813
fy쎯lco쎯	-10.7814
gak쎯t쎯	-10.7815
fow1쎯nm쎯	-10.7817
bmm쎯szq쎯、	-10.7819
pkb쎯kz쎯vyi쎯	-10.7819
fxd쎯木	-10.7819
쎀)	-10.7821
ja쎯,	-10.7822
jxr쎯?	-10.7824
myz쎯쎅	-10.7826
dw쎯tfm쎯	-10.7828
wdtg쎯l쎯um쎯	-10.7829
、bil쎯	-10.783
gdxs쎯swl쎯	-10.783
bi쎯vdwy쎯ywb쎯	-10.7831
d쎯fxh쎯odxw쎯	-10.7834
.sow쎯o쎯	-10.7835
vwr쎯ggky쎯	-10.7836
mbds쎯sug쎯jjj쎯	-10.784
mc쎯vgb쎯	-10.7841
zl쎯zl쎯ch쎯	-10.7843
jlym쎯	-10.7844
rsj쎯kal쎯	-10.7845
dny쎯ew쎯	-10.7845
ldod쎯wz쎯	-10.7849
yzi쎯z쎯	-10.7853
vs쎯kico쎯	-10.7853
ey쎯cag쎯	-10.7855
xmst쎯mw쎯	-10.7856
eklx쎯	-10.7857
mc쎯sug쎯pkq쎯nij쎯	-10.7858
ucq쎯zbm쎯	-10.7858
.dska쎯ch쎯	-10.7858
ri쎯rhyl쎯	-10.7859
wdpo쎯wdrj쎯	-10.786
ecb쎯pa쎯bg쎯la쎯	-10.7864
pdel쎯kak쎯n	-10.7865
ri쎯soo쎯	-10.7867
mc쎯yybd쎯kal쎯,	-10.7868
mfte쎯fel쎯mbro쎯	-10.7868
njte쎯	-10.7869
dtg쎯xbby쎯	-10.7873
q쎯쎁쎃ka쎯	-10.7873
ta쎯、	-10.7875
oiv쎯	-10.7878
skq1쎯wa쎯	-10.7878
wduo쎯wcj쎯	-10.7882
oz쎯rgo쎯,	-10.7883
xmkr쎯	-10.7884
uffg쎯uf쎯	-10.7887
kojl0쎯l쎯d쎯	-10.7888
sli쎯byo쎯ewj쎯pkq쎯	-10.7888
qdos쎯wmyy쎯	-10.7889
k쎯a쎯tgob1쎯	-10.789
ufc쎯wsk쎯so쎯kq쎯	-10.7893
쎂쎁e쎯zyy쎯	-10.7894
nsr쎯rgs쎯	-10.7897
mbrl쎯vas쎯	-10.7897
ler쎯	-10.7898
an쎯t쎯	-10.7901
,oc쎯gj쎯	-10.7901
gd쎯xe쎯	-10.7903
som쎯kf쎯.	-10.7904
uaqk쎯nc쎯	-10.7905
ka쎯ky쎯	-10.7908
myz쎯bix쎯xki쎯	-10.791
q쎯쎃ka쎯	-10.7913
,gr쎯ec쎯k쎯	-10.7913
kdxb1쎯wdtg쎯	-10.7914
epf쎯mzv쎯	-10.7914
ay쎯wdya쎯	-10.7916
mc쎯sug쎯、pkq쎯nij쎯	-10.792
wr쎯ggym쎯	-10.792
vmi쎯vz쎯	-10.7922
d쎯ld쎯kd쎯	-10.7925
d쎯ns쎯nlwz쎯	-10.7925
a쎯j쎯	-10.7929
kr쎯ecq1쎯	-10.7929
jc쎯yh쎯	-10.7931
jjg쎯nm쎯	-10.7934
.jc쎯ba쎯gj쎯mfjo쎯	-10.7935
gdq쎯mfkd쎯ad쎯	-10.7938
,kcx쎯zrt쎯	-10.7941
ncds1쎯bizi쎯	-10.7942
,kirr쎯odwy쎯	-10.7943
kz쎯zsj쎯	-10.7945
쎁rsj쎯	-10.7951
vdwy쎯gae쎯woqy쎯	-10.7959
rid쎯ch쎯	-10.7962
hdko쎯vx쎯	-10.7964
udke쎯a쎯	-10.7966
dkm쎯	-10.7968
ad쎯쎂쎀쎀쎉mamb쎯	-10.7971
sm쎯gd쎯	-10.7975
rr쎯zj쎯	-10.7976
ngaj쎯	-10.7977
q쎯쎇ka쎯	-10.7982
mc쎯ka쎯	-10.7982
eako쎯ps쎯	-10.7983
edj쎯odsx쎯	-10.7985
qd쎯naj쎯	-10.7986
kv쎯kak쎯	-10.7991
fl쎯shqc쎯	-10.7992
dx쎯s쎯	-10.7994
tdro쎯mamb쎯	-10.7995
kz쎯bi쎯	-10.7998
vske쎯	-10.8
ob쎯ch쎯	-10.8
、vmy쎯he쎯	-10.8001
sul쎯rsym쎯j쎯wz쎯	-10.8003
o쎯oi쎯aim쎯fds쎯,	-10.8006
.쎂쎀쎀쎁mamb쎯	-10.8006
,b쎯ckb쎯nsu쎯le쎯	-10.8009
oaj쎯tdrl1쎯	-10.801
쎅uf쎯,	-10.8014
smr쎯wdrj쎯	-10.8015
bdrd쎯.	-10.8015
kia쎯ggnk쎯	-10.8017
k쎯x쎯	-10.8018
vys쎯	-10.8018
odsx쎯ka쎯	-10.8018
dk쎯neo쎯ngr쎯pdel쎯	-10.8021
k쎯a쎯wdgq0쎯bd	-10.8021
flw쎯rjg쎯	-10.8026
mbds쎯ewf쎯vas쎯	-10.8029
teu쎯	-10.8029
yamo쎯	-10.8029
gd쎯aju쎯	-10.8031
ss쎯xyis쎯	-10.8033
agd쎯my쎯	-10.8034
kfj쎯	-10.8035
bdzs1쎯wdgq0쎯,	-10.8036
qc쎯	-10.8037
bix쎯gd쎯	-10.8038
kdml0쎯ckb쎯	-10.8039
mbro쎯ufte쎯	-10.8047
zq쎯ym쎯d쎯	-10.8048
fq쎯frz쎯ymo1쎯ee쎯	-10.8049
≤	-10.8055
eak쎯	-10.8058
oc쎯gj쎯d쎯	-10.8059
lh	-10.8061
zzm쎯kojr쎯mfz쎯	-10.8066
dk쎯zizi쎯d쎯	-10.8066
kld쎯xyis쎯	-10.8069
io쎯heor쎯	-10.8069
bi쎯ku쎯ho쎯	-10.8077
a쎯qy쎯qy쎯	-10.8077
ae쎯bbd쎯	-10.8078
odo	-10.8082
bi쎯sul쎯mw쎯ckb쎯	-10.8089
fj쎯vejq쎯	-10.8089
kq쎯cmk쎯	-10.809
.mazy쎯	-10.8091
fmk쎯sjl쎯	-10.8091
ynd쎯nm쎯	-10.8092
mfmo쎯tgxi쎯	-10.8093
lczs쎯ch쎯	-10.8093
wdol쎯ajx쎯	-10.8095
ko쎯zlc쎯	-10.8097
nif쎯《	-10.8099
wsb쎯ob쎯z쎯xe쎯	-10.81
gi쎯bub쎯	-10.8102
yj쎯gd쎯	-10.8103
dtg쎯	-10.8105
.”tgxj쎯	-10.8108
sf쎯a쎯nh쎯	-10.8109
vwj쎯snk쎯	-10.8109
kg쎯zbm쎯	-10.811
gdzn쎯ggky쎯	-10.811
rhko쎯jddm쎯	-10.811
oz쎯wdz쎯xmyj쎯	-10.8112
zizi쎯z쎯	-10.8113
vtf쎯	-10.8115
,dk쎯neo쎯	-10.8116
mfzs쎯od쎯	-10.8118
mfji쎯.	-10.8118
mbro쎯.gdq쎯cbn쎯b쎯	-10.8118
ynd쎯yj쎯	-10.8119
/쎁	-10.8119
ag쎯zhm쎯kz쎯	-10.8119
arku쎯baa쎯	-10.8119
llaj1쎯	-10.812
ckb쎯flw쎯d쎯	-10.812
,sow쎯kb쎯	-10.8121
vb쎯uabd쎯	-10.8121
쎆.쎅	-10.8122
edeq쎯mby1쎯	-10.8122
쎀×	-10.8123
xh쎯gdq쎯	-10.8123
ll쎯fds쎯	-10.8127
sl쎯ufte쎯	-10.8127
zx쎯yn쎯	-10.8128
od쎯g쎯	-10.8129
suk쎯jnj쎯	-10.8129
a쎯ecq1쎯	-10.8131
vcq쎯ffx쎯	-10.8132
ey쎯ka쎯	-10.8132
,brt쎯	-10.8133
dsw쎯mazm쎯	-10.8136
zmzj쎯ad쎯	-10.8138
uae쎯zl쎯zjo쎯	-10.814
cejw쎯	-10.8141
hb쎯kom쎯	-10.8142
pnl쎯fb쎯wdol쎯	-10.8145
wh쎯hma1쎯	-10.8147
jirj쎯gj쎯	-10.8148
aed쎯tdrx쎯	-10.8151
sli쎯byo쎯i쎯	-10.8153
g쎯ka쎯fav쎯	-10.8158
ci	-10.8159
ped쎯rsu쎯	-10.816
;쎃、	-10.8161
a쎯od쎯	-10.8161
쎁ph쎯	-10.8162
d쎯hdko쎯fj쎯	-10.8162
sop쎯vzj1쎯	-10.8166
mfte쎯vdwy쎯ggym쎯	-10.8167
zlc쎯	-10.8168
yds쎯	-10.8169
an쎯ay쎯	-10.817
xsmf쎯mh쎯	-10.817
nr	-10.8171
agd쎯rgs쎯my쎯	-10.8171
vpz쎯lczs쎯	-10.8171
vel쎯	-10.8172
som쎯ym쎯	-10.8172
um쎯tma쎯ta쎯	-10.8173
sjyu쎯omb쎯	-10.8179
쎁쎀쎄	-10.818
.쎁쎉쎉쎈mamb쎯	-10.8181
.쎂쎀쎀쎀mamb쎯	-10.8183
nmi쎯zizi쎯y쎯	-10.8187
gl쎯xs쎯	-10.8189
b쎯xb쎯	-10.819
ko쎯ad쎯	-10.8191
cmk쎯wcs쎯	-10.8192
(zo쎯ai1쎯mtk쎯	-10.8193
kg쎯zme쎯	-10.8194
d쎯a쎯uanl쎯	-10.8194
ke쎯idxo쎯	-10.8194
c쎯g쎯d쎯	-10.8194
eacy0쎯gdki쎯	-10.8196
ecb쎯iak쎯bmm쎯	-10.8196
ecq1쎯nrl쎯	-10.8196
dn쎯oi쎯	-10.8197
l쎯ezr쎯	-10.8197
gi쎯ufzp쎯dk쎯sjl쎯	-10.8198
jx쎯?	-10.8198
lb쎯ksk쎯	-10.8201
ka쎯ecq1쎯:	-10.8204
k쎯jd쎯u쎯	-10.8209
jc쎯ybk쎯fb쎯tdni쎯	-10.821
c쎯f쎯zo쎯mfji쎯fel쎯	-10.8211
gdli쎯le쎯	-10.8211
×쎄	-10.8215
jdj쎯uyd1쎯	-10.8215
mfji쎯mfji쎯	-10.8217
vrez쎯	-10.8217
od쎯dm쎯bsj쎯ucnd쎯	-10.8218
,jhx쎯lczs쎯bhv쎯	-10.8218
vsk쎯	-10.8219
cd쎯rl쎯aep쎯	-10.8221
fse쎯	-10.8222
쎅od쎯	-10.8223
gae쎯woqy쎯jl쎯,	-10.8226
odxj쎯sos쎯	-10.8226
sy쎯hbi쎯,	-10.8229
nfa쎯c쎯y쎯	-10.823
.쎁쎉쎄쎉mamb쎯	-10.8231
ibb쎯	-10.8231
boy쎯eked쎯	-10.8233
ea	-10.8233
zmgn쎯	-10.8234
au쎯sy쎯me쎯uf쎯	-10.8235
bmm쎯vdwy쎯mfj쎯	-10.8235
uo쎯muq쎯	-10.8236
kuuz쎯	-10.8238
x쎯ec쎯	-10.8239
sj쎯nrj1쎯	-10.8239
q쎯쎃쎀ka쎯	-10.824
qwr쎯	-10.8244
jc쎯ybk쎯rhyl쎯kro쎯	-10.8245
od쎯yh쎯nh쎯cirh쎯gd	-10.8246
zrt쎯nc쎯	-10.8247
x쎯rr쎯	-10.8251
j쎯wz쎯sc쎯nmb쎯	-10.8252
fwa쎯feag쎯	-10.8254
ymo0쎯ajx쎯	-10.8256
ve	-10.8257
sbd쎯nif쎯	-10.8259
(쎃	-10.8259
jd쎯ya쎯	-10.826
ub쎯yybd쎯nfa쎯	-10.8264
〉	-10.8264
nxs쎯gdq쎯	-10.8266
wdgq0쎯l쎯	-10.8267
so쎯xyis쎯	-10.8267
mtk쎯vbj쎯	-10.8268
vwa쎯zxbi쎯	-10.8268
dex쎯fsv쎯ae쎯z쎯ho쎯	-10.8268
쎃od쎯	-10.8269
쎀쎀쎀au쎯sy쎯uf쎯,	-10.8269
sug쎯mc쎯y쎯	-10.8271
,hecj쎯	-10.8271
uazw0쎯ucu쎯	-10.8276
aii쎯gj쎯	-10.8277
la쎯uaqk쎯yya쎯	-10.8278
d쎯ldo쎯zrj쎯	-10.828
uae쎯oda쎯	-10.8283
xw쎯	-10.8284
njf쎯wdz쎯	-10.8286
ns쎯nmb쎯	-10.8286
de쎯	-10.8289
jyb쎯	-10.8293
zzm쎯nsu쎯ad쎯	-10.8294
vxbi쎯	-10.8297
gur쎯fdor쎯	-10.8298
al쎯evyy쎯gd쎯vdwy쎯	-10.8298
d쎯nsu쎯le쎯	-10.8298
◆	-10.8298
ag쎯od쎯	-10.8299
gg	-10.8301
xxb쎯	-10.8302
sbm쎯r쎯	-10.8304
wsbz쎯	-10.8308
ed쎯odmf쎯mamb쎯	-10.831
ceug쎯flw쎯	-10.8313
tdgd쎯txl쎯	-10.8314
vki쎯ki쎯	-10.8314
,yi쎯gdq쎯	-10.8316
zimo쎯zwan쎯	-10.8316
tirg쎯ske쎯	-10.832
makr쎯ray쎯	-10.8322
udke쎯nsu쎯、	-10.8322
쎅uf쎯	-10.8322
um쎯zmya쎯	-10.8324
dqsy쎯ym쎯	-10.8325
ks쎯oel쎯pe쎯	-10.8326
oz쎯yh쎯	-10.833
ndgo쎯tgxi쎯	-10.833
\\	-10.8331
《》	-10.8331
wtx쎯	-10.8332
hefb쎯ufte쎯	-10.8332
yh쎯l쎯	-10.8334
m쎯sli쎯	-10.8334
xbkv0쎯	-10.8335
tizm쎯	-10.8336
쎀ggkb쎯uf쎯,	-10.8337
k쎯l쎯	-10.8338
mc쎯sug쎯、	-10.8345
mwz쎯	-10.8346
a쎯sjy0쎯oy쎯	-10.8347
yj쎯bi쎯、	-10.8347
,zmzj쎯xbby쎯ad쎯	-10.835
fkr쎯	-10.835
sau쎯wd쎯	-10.8352
sow쎯bb쎯	-10.8354
drj쎯	-10.8354
ucgd쎯fsv쎯owy쎯	-10.8358
gb쎯gdj쎯.	-10.8359
soo쎯kion쎯rid쎯	-10.836
zrs쎯u쎯	-10.836
쎃.쎃	-10.8361
jaz쎯gxv쎯	-10.8363
.ss쎯fds쎯	-10.8367
쎁-쎂	-10.8369
au쎯sy쎯	-10.8369
al쎯rf쎯	-10.837
eqg쎯km쎯	-10.8371
fga쎯	-10.8372
r쎯xb쎯	-10.8373
xbm쎯	-10.8374
mfrk1쎯	-10.8378
oylk쎯b쎯	-10.8379
jned쎯vfd쎯	-10.8379
sc쎯ymo0쎯d쎯	-10.838
uagy쎯vdnd쎯sli쎯	-10.8384
odii쎯ku쎯dk쎯neo쎯	-10.8387
쎄%	-10.8387
쎁.쎇	-10.839
vij쎯	-10.839
kf쎯fxd쎯	-10.8391
,yb쎯	-10.8393
xbby쎯sq쎯,	-10.8395
elgd쎯fr쎯uabd쎯	-10.8396
쎃.쎂	-10.8397
ae쎯ymo0쎯	-10.8397
hecj쎯ho쎯ldod쎯	-10.8397
vns쎯ucq쎯	-10.8398
vwp쎯vm쎯	-10.8398
sbd쎯so쎯	-10.84
szr쎯oy쎯z쎯dwh쎯	-10.84
쎃od쎯,	-10.8401
sc쎯f쎯ldod쎯woj쎯	-10.8406
ajk쎯udjw쎯zx쎯ckb쎯	-10.8406
bmy쎯g쎯	-10.8409
sm쎯wz쎯	-10.8409
ucgd쎯d쎯	-10.841
efk쎯	-10.841
dqx쎯sug쎯	-10.8411
rf쎯,	-10.8412
mbbd쎯ch쎯	-10.8413
sjl쎯oy쎯ya쎯	-10.8414
kskp쎯jnj쎯ym쎯d쎯	-10.8414
、jc쎯wdgq0쎯	-10.8417
nx쎯、	-10.8418
xyis쎯waz쎯	-10.842
edlc쎯zhm쎯	-10.842
:쎀쎀	-10.8421
fx쎯ym쎯	-10.8422
fob쎯edwz쎯	-10.8422
q쎯쎂쎇ka쎯	-10.8422
kojr쎯mfj쎯	-10.8422
vwa쎯eyd쎯	-10.8423
my쎯dqsy쎯	-10.8423
drll쎯	-10.8424
a쎯kav쎯	-10.8425
bg쎯la쎯d쎯	-10.8426
mcd쎯xbby쎯	-10.8427
pmeb쎯	-10.8428
〈	-10.8429
q쎯쎂ka쎯	-10.8431
ag쎯ryi쎯	-10.8435
skx쎯gbs쎯jjg쎯	-10.8435
wbk쎯rrk쎯,	-10.8439
yb쎯fu쎯	-10.844
.p쎯zo쎯	-10.8444
jlaj쎯	-10.8445
tlke쎯fsw쎯	-10.8446
udlk쎯mbrd쎯paj0쎯	-10.8446
pl쎯mw쎯	-10.8446
ad쎯쎂쎀쎀쎅mamb쎯	-10.8448
dex쎯eyd쎯	-10.8448
pm쎯uanw쎯	-10.8449
ggnk쎯fav쎯	-10.8449
mblk쎯d쎯	-10.8451
sc쎯yybd쎯	-10.8451
cuc쎯ch쎯	-10.8452
fnj쎯	-10.8455
wtxi쎯sau쎯u쎯“	-10.8455
qqak쎯yom쎯	-10.8457
pr쎯	-10.8459
rlo쎯enaj쎯	-10.8459
-쎁쎆	-10.8459
cexs쎯nh쎯	-10.8461
xs쎯k쎯	-10.8461
evp쎯	-10.8461
kobz쎯shb쎯	-10.8462
.jy쎯ri쎯,	-10.8465
qwry쎯	-10.8466
ezr쎯l쎯	-10.8466
val쎯	-10.8469
sov쎯o쎯	-10.847
bi쎯eyd쎯jjj쎯	-10.8471
drk1쎯zizi쎯	-10.8476
edx쎯vs쎯	-10.848
.drk1쎯	-10.8481
q쎯쎄ka쎯	-10.8481
wdkx쎯	-10.8486
ubyy쎯,	-10.8491
epf쎯udke쎯	-10.8491
zdfk쎯	-10.8491
eyo쎯ho쎯	-10.8492
skw쎯kiw쎯	-10.8492
vbi쎯vejq쎯	-10.8494
d쎯p쎯gdq쎯	-10.8495
uaqk쎯ks쎯	-10.8496
fq쎯jjg쎯od쎯	-10.8496
gae쎯woqy쎯p쎯p쎯ch쎯	-10.8499
yod쎯jl쎯	-10.85
、ucgd쎯jc쎯	-10.8502
wdrj쎯tgob1쎯	-10.8502
fki쎯gdw쎯	-10.8503
gd쎯ckb쎯	-10.8504
q쎯쎂쎃ka쎯	-10.8504
ecb쎯gzz쎯maj쎯sjo쎯	-10.8504
vlk쎯	-10.8504
kv쎯kz쎯sij쎯	-10.8504
bbk쎯	-10.8504
jirj쎯az쎯	-10.8505
ciq쎯ll쎯	-10.8507
va쎯kiub쎯	-10.8508
vdwy쎯ywb쎯ywb쎯ch쎯	-10.8508
bjv쎯wsuc쎯	-10.8509
wcs쎯loa쎯	-10.851
od쎯um쎯nr0쎯	-10.8512
쎁쎉쎂쎆mamb쎯	-10.8512
ark쎯he쎯	-10.8512
gsz쎯fdor쎯	-10.8514
xrz쎯ufc쎯	-10.8514
rur쎯nx쎯	-10.8514
b쎯fpx쎯	-10.8515
fj쎯vx쎯	-10.8517
zx쎯jc쎯wdgq0쎯	-10.8517
mc쎯sug쎯yj쎯bi쎯	-10.8517
wdtg쎯snd쎯	-10.8519
쎂.쎆	-10.8519
mbrd쎯prc쎯	-10.8519
oc쎯fs쎯	-10.852
fcy1쎯	-10.8521
zzi쎯	-10.8523
vs쎯bhj쎯	-10.8526
,jo쎯gdq쎯	-10.8526
agd쎯kojb쎯	-10.8526
m쎯fs쎯	-10.8528
ys쎯tgoo쎯	-10.853
woj쎯kak쎯:	-10.8535
paj0쎯g쎯	-10.8535
wr쎯yh쎯zimo쎯oda쎯s	-10.8536
、wsb쎯ob쎯	-10.8536
d쎯rl쎯t쎯	-10.8539
jjj쎯nsu쎯	-10.8539
dmi쎯	-10.854
쎁쎄쎀쎀	-10.8543
q쎯쎂쎁ka쎯	-10.8543
aij쎯db쎯ze쎯z쎯xe쎯	-10.8545
iiko쎯xcx쎯	-10.8547
gnu쎯	-10.8549
xs쎯jz쎯	-10.8551
tl쎯sop쎯	-10.8552
sjl쎯zym쎯j쎯vdwy쎯	-10.8552
wdhb쎯ri쎯	-10.8552
ns쎯nry쎯	-10.8552
쎂쎀-	-10.8553
bdrg쎯	-10.8554
drr쎯tdni쎯,	-10.8556
jgb쎯bh쎯	-10.8557
fav쎯pdel쎯	-10.8558
gae쎯woqy쎯az쎯	-10.8562
pa쎯nre쎯	-10.8564
.’”	-10.8564
oiqm쎯vxi쎯	-10.8565
sau쎯u쎯“	-10.8567
sow쎯tdro쎯	-10.8567
dpq쎯	-10.8568
az쎯z쎯xe쎯	-10.8569
ggnk쎯u쎯	-10.8571
wdse쎯	-10.8571
쎁쎀쎆	-10.8573
hbi쎯d쎯	-10.8573
xek쎯fav쎯	-10.8576
qqv쎯	-10.8576
쎁쎀쎇	-10.8576
fq쎯nfa쎯	-10.8577
wym쎯kion쎯	-10.8578
wdgq0쎯od쎯	-10.858
glds쎯tfg쎯	-10.8582
mbrw쎯szq쎯	-10.8582
jc쎯yh쎯zx쎯vsnd쎯	-10.8583
ryk쎯	-10.8584
mblk쎯mbjw쎯sul쎯	-10.8586
dcb쎯	-10.8586
,kdxb1쎯db쎯	-10.8586
yya쎯zx쎯h쎯u쎯	-10.8587
tgrs쎯sjy0쎯	-10.8587
fr쎯xmyj쎯	-10.8591
rod쎯	-10.8591
、zb쎯	-10.8593
zmya쎯gdxs쎯	-10.8594
vuzq쎯	-10.8594
fq쎯fhe쎯sq쎯rki쎯	-10.8594
쎁쎁q쎯zizi쎯mc쎯	-10.8594
uob쎯	-10.8595
horo쎯yk쎯	-10.8596
mle쎯vb쎯	-10.86
い	-10.8601
epd쎯	-10.8601
aeb쎯jaz쎯:	-10.8602
fz쎯	-10.8606
쎁쎂q쎯zizi쎯mc쎯	-10.8606
majk쎯ym쎯	-10.8607
,sow쎯o쎯	-10.8608
sij쎯、	-10.8614
pl쎯fpx쎯	-10.8615
vmr쎯sr쎯	-10.8616
jos쎯》	-10.8618
fgi쎯”	-10.8619
ggkb쎯uf쎯.	-10.862
fllz쎯	-10.8624
gl쎯oiad쎯rsj쎯.	-10.8627
:‘	-10.863
tirr쎯nlk쎯	-10.863
쎀.쎉	-10.8635
zo쎯tirr쎯	-10.8636
hja쎯	-10.8637
vcq쎯dq쎯	-10.8637
z쎯dq쎯	-10.8639
pa쎯nne쎯	-10.864
aii쎯hbi쎯h쎯su쎯	-10.8645
fxh쎯	-10.8646
kv쎯kz쎯	-10.8647
oy쎯vwm1쎯	-10.8657
쎉쎀쎀쎁	-10.8658
ajx쎯ucq쎯	-10.8658
wr쎯fq쎯	-10.866
mwz쎯ecb쎯fdor쎯	-10.8662
쎇%	-10.8662
nmi쎯so쎯	-10.8662
.쎁쎉쎈쎂mamb쎯	-10.8663
vuu쎯kv쎯	-10.8665
ody쎯tgh쎯	-10.8665
xkm쎯	-10.8666
mfte쎯vdwy쎯d쎯	-10.8668
odwg쎯wtki쎯	-10.8668
r쎯mamb쎯mc쎯eked쎯	-10.8669
dskb쎯	-10.867
ae쎯wxl쎯	-10.8671
nmi쎯qdos쎯	-10.8672
pnc쎯uh쎯	-10.8673
od쎯mfrk0쎯	-10.8675
edl쎯yk쎯	-10.8675
eao쎯sed쎯	-10.8677
vso쎯	-10.8677
bjj쎯sucq쎯	-10.8677
fl쎯fq쎯	-10.868
,ciyl쎯lcym쎯	-10.868
en쎯zso쎯	-10.8681
쎉%	-10.8682
koxb쎯mbrw쎯	-10.8683
쎇쎅쎀	-10.8683
ll쎯i쎯	-10.8684
so쎯jos쎯	-10.8684
wd쎯xej쎯	-10.8684
nrs쎯ad쎯	-10.8684
sjy0쎯sc쎯nmb쎯	-10.8686
gd쎯tirg쎯	-10.8686
nmi쎯sya쎯	-10.8689
wdya쎯zy쎯	-10.869
dex쎯fsv쎯d쎯	-10.8692
pe쎯vbi쎯	-10.8692
kion쎯d쎯	-10.8692
soo쎯wxl쎯nak쎯dax쎯	-10.8692
zhm쎯rf쎯	-10.8694
ydj쎯jrl쎯	-10.8694
kz쎯wlr쎯xek쎯《	-10.8696
en쎯tgxi쎯	-10.8701
wr쎯yh쎯od쎯brt쎯zh쎯	-10.8702
vkm쎯vekg쎯	-10.8703
ymo1쎯rsj쎯u쎯	-10.8706
oc쎯jc쎯um쎯	-10.8707
xga쎯baa쎯	-10.8707
dld쎯gdq쎯a쎯edx쎯	-10.8708
rr쎯wdol쎯j쎯	-10.8709
c쎯nh쎯nr0쎯d쎯	-10.871
tdgd쎯,	-10.8712
evfd쎯qe쎯	-10.8713
ri쎯bwq쎯	-10.8716
pvgx쎯wz쎯	-10.872
bez쎯mfrk0쎯	-10.8721
vdwy쎯ob쎯kojl0쎯	-10.8721
jo쎯fg쎯	-10.8722
쎅.쎀	-10.8724
fl쎯rr쎯	-10.8724
쎀쎀ay쎯bdrd쎯,	-10.8725
:쎁、	-10.8729
wdki0쎯fk쎯	-10.8729
zyy쎯xbkv1쎯	-10.873
xmi쎯ad쎯ub쎯ll쎯ho쎯	-10.873
a쎯zl쎯	-10.873
fvr쎯en쎯	-10.8731
sj쎯setg쎯	-10.8731
,zrt쎯	-10.8732
gj쎯mfjo쎯쎅	-10.8734
wsb쎯ob쎯d쎯	-10.8735
gj쎯uaqk쎯	-10.8736
az쎯ec쎯	-10.8737
쎂-쎃	-10.8737
ufgd쎯aeb쎯d쎯	-10.8739
nk쎯ryi쎯,	-10.8741
쎀sjwm쎯uf쎯	-10.8742
qmuo쎯	-10.8743
vtk쎯	-10.8745
,gi쎯dsw쎯	-10.8746
eyo쎯vdnd쎯sli쎯	-10.8747
ll쎯ago쎯	-10.8748
sjl쎯rko쎯bdod쎯	-10.8748
so쎯fav쎯	-10.8751
ki	-10.8752
vjl쎯	-10.8753
쎁쎉쎉쎅	-10.8754
ski1쎯;gdq쎯ffv쎯b쎯	-10.8755
sf쎯od쎯	-10.8755
vm쎯bhj쎯	-10.8756
vfd쎯jyi0쎯	-10.876
kq쎯agd쎯	-10.8762
bhv쎯uag쎯	-10.8762
d쎯zx쎯vsnd쎯	-10.8764
vfd쎯tgij쎯nsu쎯ad쎯	-10.8764
yq쎯yk쎯	-10.8764
bdol쎯hkd쎯、	-10.8766
yi쎯sj쎯k쎯	-10.8769
sov쎯ed쎯	-10.8769
ai1쎯y쎯	-10.8769
uogl쎯	-10.8769
pa쎯pxo쎯	-10.877
-쎁쎅	-10.877
zxk쎯ryi쎯,	-10.8771
fb쎯tdni쎯d쎯	-10.8771
nre쎯all쎯	-10.8771
byo쎯i쎯	-10.8772
szzn쎯	-10.8773
쎃ggkb쎯uf쎯	-10.8777
oc쎯jc쎯ngr쎯mfym쎯	-10.8777
oixo쎯gdq쎯	-10.8777
njed쎯	-10.8778
bbm쎯	-10.8778
쎂edjr2쎯	-10.8779
.(쎂)	-10.878
zyy쎯fob쎯	-10.878
bdol쎯wd쎯d쎯	-10.8782
sjy0쎯ev쎯	-10.8782
cimu쎯	-10.8783
pdxs쎯klg쎯y쎯	-10.8784
:쎈	-10.8787
ne쎯h쎯	-10.8787
bi쎯mfjc쎯xbby쎯sq쎯	-10.8787
a쎯uanl쎯	-10.8791
pmy쎯	-10.8791
,dska쎯ch쎯	-10.8792
bd쎯ed쎯mamb쎯	-10.8793
,yi쎯aij쎯zo쎯	-10.8793
zmxy1쎯	-10.8793
ajk쎯sli쎯ch쎯	-10.8796
sq쎯su쎯d쎯	-10.8796
sq쎯sed쎯mfj쎯	-10.8796
zgp쎯xl쎯	-10.8796
qqx쎯hdko쎯	-10.8799
a쎯kd쎯	-10.8805
sul쎯vdwy쎯ywb쎯	-10.8805
edjr2쎯dsu쎯	-10.8808
ark쎯oda쎯	-10.881
nkmw쎯	-10.881
mzs쎯	-10.881
nln쎯	-10.8811
tdxi쎯cexg0쎯	-10.8811
rly쎯tdxg쎯y쎯	-10.8812
ckv쎯ll쎯	-10.8815
zmux쎯	-10.8815
sy쎯aep쎯	-10.8815
sul쎯jduy쎯	-10.8819
wa쎯ri쎯	-10.882
vmi쎯bdzy쎯j쎯	-10.882
fb	-10.8821
kcx쎯gdq쎯	-10.8822
mbbd쎯gdq쎯d쎯	-10.8823
jbrk쎯	-10.8824
,yom쎯	-10.8826
ngr쎯ucgd쎯,	-10.8827
fdyy쎯ufte쎯	-10.8828
쎁al쎯,	-10.8829
uhg쎯ae쎯	-10.8829
nak쎯k쎯	-10.8829
쎂.쎇	-10.883
mblk쎯mbjw쎯、	-10.8834
hbz쎯nlj쎯	-10.8837
wlw쎯yms쎯	-10.8846
quk쎯	-10.8848
mbjk쎯pdw쎯	-10.8848
vfbk쎯sjw쎯	-10.8848
ski0쎯	-10.8851
mamb쎯yrm쎯kv쎯kak쎯	-10.8852
mfte쎯mfz쎯	-10.8852
d쎯wdtg쎯ybk쎯	-10.8854
ta쎯skx쎯	-10.8854
mbjw쎯zrh쎯	-10.8855
bix쎯nh쎯	-10.8856
yob쎯	-10.8857
:-	-10.8858
xbw쎯	-10.8859
llex쎯	-10.886
.”kq쎯	-10.8863
ybc쎯	-10.8863
fy쎯gd쎯	-10.8864
～쎁	-10.8865
쎉jaz쎯	-10.8868
od쎯wz쎯	-10.8871
udfd1쎯mekb쎯	-10.8872
,mc쎯ad쎯	-10.8873
rll쎯i쎯	-10.8875
makr쎯qf쎯d쎯	-10.8876
-쎁쎈	-10.8877
km쎯mfz쎯kojr쎯fs쎯	-10.8877
ae쎯odyk쎯	-10.8877
zmc쎯rsj쎯	-10.8878
ncl쎯	-10.8878
ekc쎯oixb1쎯wdpo쎯	-10.8879
mfxb쎯	-10.888
fao쎯	-10.888
nek쎯lcym쎯	-10.888
deaj쎯xbby쎯	-10.8884
.쎁쎉쎉쎇mamb쎯	-10.8887
udjw쎯wm쎯ufzm쎯	-10.8889
ukl쎯ukl쎯	-10.8889
ch쎯쎁	-10.889
idjh쎯byo쎯	-10.889
sy쎯ped쎯,	-10.8891
eon쎯	-10.8891
쎅/	-10.8892
nl쎯ggkw쎯	-10.8893
kd쎯tk쎯ldod쎯	-10.8894
xyis쎯,	-10.8894
pkm쎯	-10.8895
》)	-10.8895
kd쎯wbi쎯	-10.8897
pvrm쎯	-10.8897
“bix쎯	-10.8897
jiwl1쎯	-10.89
djl쎯wcj쎯	-10.89
쎉쎀%	-10.89
xsy쎯ko쎯au쎯	-10.8903
pvwx쎯xro쎯rhyw쎯	-10.8905
.zizi쎯rid쎯:	-10.8906
gr쎯ec쎯	-10.8907
▁	-10.8909
d쎯a쎯wdgq0쎯	-10.8909
,na쎯oiad쎯	-10.8913
,udjw쎯xbby쎯mbq쎯	-10.8914
due쎯suk쎯	-10.8915
yon쎯zym쎯	-10.8916
j쎯kcx쎯	-10.8917
α	-10.8918
gj쎯ry쎯	-10.8918
kiay쎯fjb쎯	-10.8919
쎂×	-10.892
ajx쎯wdtg쎯	-10.8922
wb쎯rki쎯	-10.8931
qmal쎯ya쎯	-10.8933
uaqk쎯ecq1쎯	-10.8935
”mfrk0쎯jaz쎯.	-10.8936
gi쎯pvwx쎯	-10.8938
fske쎯	-10.8938
oixo쎯gd쎯d쎯	-10.894
,nmi쎯bm쎯	-10.894
aijr쎯jkk쎯	-10.8941
a쎯sy쎯	-10.8942
쎃.쎆	-10.8943
ecq1쎯obd쎯	-10.8945
sb쎯dpw1쎯	-10.8945
kom쎯tird쎯	-10.8947
wa쎯uanw쎯	-10.8947
tgop쎯	-10.8949
xyis쎯》	-10.895
pq쎯d쎯	-10.8951
hia쎯	-10.8952
az쎯ec쎯n쎯	-10.8953
aij쎯skq1쎯	-10.8954
vdnd쎯ho쎯	-10.8954
qdos쎯bdzs0쎯	-10.8955
,rr쎯	-10.8955
sc쎯f쎯ry쎯dmi쎯	-10.8956
np쎯)	-10.8957
.쎁쎉쎉쎂mamb쎯	-10.8957
ad쎯쎂쎀쎀쎈mamb쎯	-10.896
po쎯	-10.8961
fds쎯ldod쎯	-10.8961
dk쎯rsj쎯	-10.8961
fmzy쎯en쎯	-10.8963
oaj쎯qyi쎯sli쎯	-10.8964
쎅od쎯,	-10.8965
ekg쎯ecp쎯mfte쎯	-10.8965
fho쎯zxe쎯	-10.8966
ual쎯	-10.8966
gj쎯mfjo쎯gdw쎯	-10.8967
mc쎯yybd쎯kal쎯	-10.8967
gan쎯	-10.8968
sbx쎯sa쎯vdwy쎯	-10.897
lx쎯mfte쎯	-10.8971
j쎯fj쎯	-10.8972
k쎯oc쎯jc쎯	-10.8973
bdkv쎯vg쎯ad쎯	-10.8974
쎂쎀odmf쎯	-10.8977
,gr쎯	-10.8978
edl쎯nlk쎯	-10.8978
dcx쎯nrj1쎯fq쎯	-10.898
qyx쎯l쎯	-10.898
쎁쎉쎉쎈	-10.8981
wks쎯	-10.8983
mblk쎯nmi쎯d쎯	-10.8984
sli쎯byo쎯zx쎯vsnd쎯	-10.8984
mblk쎯snk쎯	-10.8986
uaqk쎯prc쎯	-10.8987
、oc쎯jc쎯	-10.8989
dps쎯	-10.8992
”wdya쎯	-10.8993
kiq쎯qyod쎯	-10.8994
j쎯wz쎯.	-10.8996
쎁쎃쎆	-10.9
nek쎯kdmp쎯	-10.9001
ag쎯fq쎯	-10.9002
d쎯gae쎯z쎯	-10.9002
sjqu쎯zhy쎯	-10.9003
쎆od쎯,	-10.9004
wdgq0쎯kz쎯	-10.9008
mkia쎯	-10.9009
zizi쎯tdrl1쎯	-10.901
qh쎯	-10.901
쎁쎁쎂	-10.901
kom쎯rd쎯	-10.9011
bi쎯mfjc쎯sq쎯sed쎯	-10.9011
tgva쎯koxb쎯	-10.9012
(ec쎯j쎯	-10.9013
kdmk쎯tgf쎯bi쎯nmi쎯	-10.9013
lbj쎯mamb쎯	-10.9013
zgp쎯yj쎯j쎯jc쎯	-10.9018
g쎯fs쎯	-10.902
idxg쎯	-10.902
.쎁쎉쎉쎃mamb쎯	-10.902
ld쎯kql쎯	-10.9022
wbi쎯nk쎯	-10.9022
erjm쎯ku쎯	-10.9023
nlug쎯bdzw쎯	-10.9024
eczy쎯dwo쎯	-10.9025
byo쎯i쎯nsu쎯le쎯	-10.9025
fsz쎯mle쎯	-10.9029
kz쎯vyi쎯ufgd쎯aeb쎯	-10.9031
sjl쎯som쎯d쎯	-10.9036
,mazy쎯mamb쎯	-10.9039
vdwy쎯yt쎯,	-10.9041
cejw쎯kq쎯	-10.9042
mbds쎯;	-10.9043
pjj쎯oaj쎯pa쎯	-10.9043
jsoo쎯	-10.9044
ob쎯p쎯	-10.9044
nj	-10.9044
oixo쎯sjl쎯d쎯	-10.9044
nhd쎯	-10.905
hdko쎯qdos쎯	-10.905
,dw쎯	-10.9051
mekb쎯nir쎯	-10.9053
^	-10.9056
bdkv쎯kz쎯	-10.9058
qyx쎯.	-10.9059
dqy쎯	-10.9061
mzv쎯zs쎯,	-10.9062
yhk쎯ark쎯	-10.9067
ajk쎯sc쎯nmb쎯.	-10.9068
kal쎯gd쎯	-10.9068
ld쎯kd쎯yi쎯	-10.9068
wtxi쎯mfrk0쎯u쎯“	-10.9068
fmg쎯pe쎯	-10.9069
so쎯vdwy쎯wdgq0쎯	-10.907
nir쎯sai쎯	-10.9071
kku쎯oiad쎯	-10.9071
tirr쎯gj쎯	-10.9074
wtki쎯	-10.9075
nl쎯h쎯su쎯zo쎯bdkv쎯	-10.9075
쎂쎀쎀edjr2쎯	-10.9076
,grl쎯njf쎯	-10.9076
kcx쎯sf쎯d쎯	-10.9079
llyy1쎯	-10.9079
yc쎯bdzs1쎯hejc쎯	-10.9079
쎂쎀oy쎯pji쎯	-10.9084
,mfrk0쎯u쎯	-10.9084
g쎯ec쎯	-10.9089
uosu쎯my쎯	-10.9089
wb쎯ucgd쎯d쎯	-10.9091
ckb쎯ldm쎯	-10.9093
d쎯sjl쎯mfte쎯dex쎯	-10.9094
tdow쎯kv쎯	-10.9094
lbu쎯ooj쎯	-10.9095
tljr쎯kdml1쎯wdhb쎯	-10.9096
쎅jaz쎯	-10.9096
ka쎯dyx쎯》	-10.9098
maxg쎯yrn쎯	-10.9099
xn쎯t쎯	-10.9103
k쎯drk1쎯g쎯	-10.9104
lk쎯sy쎯	-10.9104
aijr쎯sya쎯	-10.9108
hex쎯	-10.9111
fdyy쎯gc쎯sq쎯symy쎯	-10.9113
uo쎯qwx쎯	-10.9116
d쎯kcx쎯nbb쎯	-10.9118
vdwy쎯fsv쎯soo쎯vs쎯	-10.912
edjq쎯ld쎯	-10.912
vwz쎯	-10.9121
udjw쎯ob쎯	-10.9122
fj쎯aku쎯	-10.9123
vdwy쎯fs쎯、	-10.9126
haz쎯rko쎯	-10.9127
a쎯t쎯	-10.9128
flw쎯f쎯	-10.9132
zoy쎯	-10.9133
쎁쎀쎂	-10.9133
km쎯uanw쎯	-10.9134
vskd쎯kdml1쎯jjg쎯	-10.9135
.쎁쎉쎈쎄mamb쎯	-10.9136
zrs쎯쎃	-10.9136
k쎯a쎯wdgq0쎯zo쎯	-10.9139
mfte쎯jl쎯	-10.9141
dpw0쎯	-10.9142
wwae쎯lr쎯	-10.9144
zau쎯smm쎯	-10.9144
rsj쎯nne쎯	-10.9145
sm쎯sz쎯	-10.9147
j쎯jc쎯wsb쎯ob쎯	-10.9149
sujr쎯dex쎯	-10.9149
(zrs쎯	-10.9153
fnk쎯ffv쎯	-10.9156
nmb쎯cejo쎯ad쎯	-10.9156
ns쎯ssy쎯	-10.9157
.쎁쎉쎈쎅mamb쎯	-10.9158
tgrs쎯,	-10.9159
ekkw쎯hbkd쎯	-10.9159
xt쎯edtg쎯	-10.916
ld쎯oi쎯ku쎯	-10.916
()d쎯	-10.9161
xyis쎯akz쎯ywb쎯	-10.9162
majk쎯zq쎯nr0쎯	-10.9162
.jiv쎯rgs쎯	-10.9162
ay쎯bdrd쎯,wr쎯yh쎯	-10.9164
qbj쎯qc쎯	-10.9165
mekb쎯zl쎯	-10.9167
gdq쎯a쎯wd쎯	-10.9168
ke쎯g쎯	-10.9168
a쎯edlc쎯odod쎯ajx쎯	-10.9169
zmc쎯rh쎯	-10.917
쎁쎀쎂쎄	-10.9171
ob쎯ob쎯ch쎯	-10.9171
hb쎯i쎯	-10.9173
qdos쎯fr쎯d쎯	-10.9175
szo	-10.9175
쎁쎈쎃	-10.9176
d쎯h쎯zcl쎯	-10.9178
ldo쎯k쎯	-10.9179
.”(쎂).	-10.9182
pdel쎯kak쎯myz쎯a쎯	-10.9182
sow쎯ufgd쎯	-10.9184
쎂쎈쎀	-10.9187
ar쎯paj0쎯	-10.9187
zj쎯ai1쎯	-10.9188
soo쎯kro쎯p쎯	-10.919
a쎯fu쎯d쎯	-10.9193
qdos쎯fq쎯	-10.9194
ymo1쎯mfrk0쎯	-10.9195
me쎯kb쎯	-10.9195
wdry쎯	-10.92
oaq쎯	-10.9201
,odod쎯ajx쎯	-10.9201
odmx쎯fsw쎯	-10.9204
ggym쎯jos쎯so쎯nr0쎯	-10.9204
vns쎯z쎯	-10.9205
쎄od쎯	-10.9208
xsxi쎯zo쎯	-10.9209
쎆jaz쎯	-10.9209
,fj쎯az쎯	-10.9211
쎂ggkb쎯uf쎯	-10.9212
쎅edjr2쎯,	-10.9213
kz쎯ya쎯mfte쎯dex쎯	-10.9214
ldo쎯zrj쎯ewj쎯pkq쎯	-10.9215
wa쎯j쎯,	-10.9219
쎁쎀oz쎯kb쎯	-10.9222
쎀ay쎯bdrd쎯,	-10.9224
,쎂쎀쎀쎄mamb쎯	-10.9226
쎁쎅oy쎯pji쎯	-10.923
ch쎯oai쎯	-10.9231
gi쎯pek쎯	-10.9232
ark쎯u쎯	-10.9234
;g쎯	-10.9234
szr쎯kz쎯jjg쎯	-10.9237
、pa쎯	-10.9239
gi쎯lr쎯	-10.9243
idju쎯.	-10.9243
(nif쎯jddm쎯)	-10.9244
zmrk쎯wsz쎯	-10.9244
kojl0쎯zxk쎯	-10.9244
kal쎯,	-10.9245
sor쎯》	-10.9246
jddm쎯lorz쎯	-10.9248
nyn쎯ll쎯sli쎯	-10.9251
ebm쎯mfrk0쎯	-10.9253
ggnk쎯ufte쎯:	-10.9256
fuz쎯、	-10.9256
vns쎯ciz쎯	-10.9257
zbj쎯fsz쎯	-10.9258
rj쎯gdq쎯	-10.926
쎅쎀쎀uf쎯	-10.9262
,bmy쎯	-10.9264
ag쎯sor쎯k쎯	-10.9267
zej쎯zmsx1쎯	-10.9267
,tirr쎯az쎯	-10.9268
odii쎯ku쎯so쎯nr0쎯	-10.927
wxl쎯noo쎯	-10.9271
fds쎯pe쎯	-10.9271
ga쎯gduo쎯	-10.9271
qu	-10.9272
ad쎯쎂쎀쎀쎆mamb쎯	-10.9276
c쎯ehz쎯	-10.9277
쎅쎀uf쎯	-10.9277
od쎯zgp쎯	-10.9279
d쎯fg쎯f쎯	-10.9279
b쎯ho쎯.	-10.9279
쎀od쎯,ec쎯j쎯	-10.928
q쎯쎂쎉ka쎯	-10.9281
udjw쎯sjy0쎯nsu쎯a	-10.9281
jjj쎯nne쎯.	-10.9282
y쎯sme쎯r쎯	-10.9284
,sow쎯fu쎯	-10.9284
xka쎯	-10.9285
sf쎯wr쎯fds쎯	-10.9287
bez쎯	-10.929
ae쎯pvf쎯	-10.9291
ufzm쎯nel쎯	-10.9294
az쎯wdtg쎯jhm쎯	-10.9295
a쎯laj쎯	-10.9297
zsj쎯,	-10.9298
zx쎯pkq쎯sul쎯	-10.9301
idol쎯	-10.9302
bbd쎯xbby쎯	-10.9303
x쎯gj쎯	-10.9303
j쎯ecq1쎯	-10.9303
kiay쎯kz쎯	-10.9304
efb쎯ki쎯	-10.9306
a쎯wd쎯f쎯	-10.9308
mbbd쎯zym쎯	-10.9308
xsmf쎯hero쎯	-10.9309
,ygqw쎯	-10.9313
db쎯gdq쎯	-10.9313
xek쎯《	-10.9314
pvyi쎯	-10.9315
wdml쎯nif쎯	-10.9317
yh쎯odoo쎯	-10.9317
vwj쎯ad쎯	-10.9319
ad쎯쎂쎀쎀쎇mamb쎯	-10.9323
쎉쎅%	-10.9324
쎉q쎯zizi쎯mc쎯	-10.9324
my쎯pdel쎯	-10.9324
wdgq0쎯tgb쎯	-10.9325
edl쎯wxl쎯	-10.9325
lksk1쎯	-10.9326
zoa쎯od쎯	-10.9327
nyn쎯ll쎯	-10.9327
cmk쎯vm쎯	-10.9328
vb쎯kal쎯	-10.9329
q쎯쎃쎁ka쎯	-10.9329
giw쎯f쎯	-10.9329
ujd쎯eked쎯	-10.933
bhk쎯	-10.9332
d쎯nb쎯zs쎯	-10.9332
bdnw쎯nr0쎯	-10.9334
sow쎯nsu쎯	-10.9337
bi쎯nmi쎯vkl쎯t쎯	-10.9339
,ld쎯kd쎯yi쎯	-10.9339
-쎁쎂	-10.9339
.쎂쎀쎁쎁mamb쎯	-10.9343
쎂/	-10.9343
eczy쎯	-10.9345
edlo쎯ejmf쎯	-10.9345
、yhk쎯	-10.9345
zbm쎯	-10.9346
sc쎯iikg쎯	-10.9347
odwg쎯yybd쎯od쎯	-10.9347
、ga쎯	-10.9349
ld쎯skw쎯	-10.935
ak쎯gdq쎯	-10.935
gd쎯hew쎯sli쎯	-10.935
cmk쎯vbi쎯	-10.9353
쎃bg쎯	-10.9353
쎁쎃쎅	-10.9353
vejq쎯vnk쎯	-10.9354
bso쎯	-10.9354
d쎯so쎯nr0쎯	-10.9354
odwy쎯pdw쎯	-10.9355
nor쎯ckb쎯	-10.9356
c쎯u쎯j쎯jc쎯	-10.9356
bi쎯mfjc쎯symy쎯bi쎯	-10.9356
ga쎯tdgd쎯	-10.9357
fav쎯ucl쎯“	-10.9358
jdsu쎯	-10.9358
veyy쎯vm쎯	-10.9362
fpx쎯、	-10.9363
yi쎯zq쎯	-10.9363
b쎯dqsy쎯	-10.9364
bd쎯ecq1쎯	-10.9364
sug쎯nel쎯	-10.9365
fjai쎯sn쎯	-10.9367
zizi쎯c쎯y쎯	-10.9368
x쎯smi쎯	-10.9368
kiym쎯yazo쎯	-10.9369
p쎯l쎯	-10.9369
g쎯sow쎯o쎯	-10.9369
soo쎯vhv쎯rid쎯	-10.9373
ehz쎯smm쎯	-10.9374
mayd쎯	-10.9375
g쎯a쎯o쎯	-10.9379
heor쎯qzj쎯	-10.9379
gi쎯urym쎯	-10.9379
sukr0쎯	-10.938
u쎯iirr쎯	-10.938
zso쎯,	-10.938
,jed쎯	-10.9381
,mfkd쎯l쎯	-10.9384
,scq쎯	-10.9386
wdtg쎯rsym쎯	-10.9388
vff1쎯yia쎯	-10.9388
hj쎯k쎯	-10.939
szr쎯ji쎯	-10.939
a쎯wym쎯	-10.939
dbo쎯oyl쎯	-10.9391
、sul쎯rsym쎯	-10.9398
zwan쎯waz쎯	-10.94
쎁/쎃	-10.9403
dxmf쎯	-10.9403
ub쎯mamb쎯	-10.9405
b쎯pnr쎯	-10.9408
(쎆	-10.9408
dex쎯fsv쎯ae쎯z쎯	-10.9408
vmr쎯aed쎯tdrx쎯	-10.9409
wr쎯fds쎯zx쎯vsnd쎯	-10.9409
myz쎯a쎯rsj쎯	-10.9412
myz쎯sov쎯xki쎯	-10.9412
쎁쎉쎂	-10.9412
mfzs쎯su쎯	-10.9413
mfym쎯all쎯	-10.9419
cd쎯lbu쎯	-10.9419
ta쎯ckb쎯	-10.942
,edl쎯az쎯	-10.9421
aij쎯wlr쎯	-10.9421
bju쎯xro쎯d쎯	-10.9421
ad쎯쎂쎀쎁쎀mamb쎯	-10.9421
ufz쎯	-10.9422
wo	-10.9424
su쎯vb쎯	-10.9425
lw쎯mfte쎯	-10.9427
ygqw쎯paj0쎯	-10.9427
pk	-10.9428
oixi쎯iirr쎯	-10.9428
d쎯edjm쎯ajx쎯.	-10.9429
cd쎯q쎯	-10.9429
haz쎯qyo쎯	-10.943
ad쎯쎂쎀쎀쎄mamb쎯	-10.9431
voa쎯suu쎯	-10.9432
zm쎯sc쎯rl쎯	-10.9434
mc쎯sug쎯bi쎯eyd쎯	-10.9436
d쎯ggnk쎯jd쎯	-10.9437
tdni쎯lok쎯	-10.9438
d쎯a쎯ib쎯	-10.9439
d쎯nmi쎯l쎯.	-10.9439
zl쎯h쎯jl쎯	-10.944
aku쎯dq쎯ew쎯	-10.9445
gi쎯wdlc쎯	-10.9446
、ca쎯	-10.9446
《sf쎯	-10.9449
mw쎯ckb쎯vdwy쎯ywb쎯	-10.9449
gi쎯fg쎯f쎯	-10.9454
쎅쎀%	-10.9454
dtg쎯yc쎯	-10.9455
.쎁쎉쎉쎉mamb쎯	-10.9456
epf쎯ogq쎯	-10.9459
uaqk쎯bdkv쎯	-10.946
쎁쎆쎈	-10.946
mc쎯nr0쎯	-10.9461
.쎁쎉쎉쎅mamb쎯	-10.9465
zsoo쎯	-10.9466
pdao쎯jddm쎯	-10.9468
tl쎯,	-10.9468
z쎯c쎯y쎯	-10.947
k쎯fxo쎯dx쎯	-10.947
dxh쎯	-10.947
tdj쎯wgs쎯	-10.9471
xbby쎯sq쎯mfj쎯	-10.9475
zk쎯ch쎯	-10.9475
nklz쎯nrj1쎯	-10.9476
mbds쎯ldod쎯woj쎯	-10.9476
edjm쎯zzm쎯	-10.9477
,gdq쎯d쎯	-10.9478
wz쎯j쎯	-10.948
.쎁쎉쎈쎈mamb쎯	-10.9482
rx쎯cexs쎯	-10.9482
p쎯xmi쎯oy쎯ufgd쎯:	-10.9483
dex쎯fsv쎯edx쎯db쎯	-10.9484
msm쎯	-10.9485
aij쎯woj쎯zlo쎯	-10.9486
kv쎯pdel쎯	-10.9486
mfrk0쎯nmi쎯	-10.9487
uo쎯he쎯	-10.9489
rbk쎯wsyy쎯	-10.9491
wz쎯ucq쎯	-10.9493
ajk쎯gae쎯woqy쎯jl쎯	-10.9495
qga쎯	-10.9496
j쎯jc쎯ucgd쎯fsv쎯	-10.9497
cuc쎯zym쎯	-10.9499
na쎯ec쎯	-10.9505
i쎯sli쎯oz쎯yaj1쎯	-10.9506
ufc쎯sxo쎯	-10.9506
tdys쎯jjg쎯	-10.9506
.쎅、	-10.9507
agd쎯wbi쎯	-10.9509
vcq쎯yom쎯	-10.9509
maj쎯rsj쎯jjj쎯nne쎯	-10.9511
nfa쎯ob쎯	-10.9512
me쎯odmf쎯	-10.9513
tdrj쎯srk0쎯、	-10.9513
н	-10.9515
fdm쎯ufte쎯d쎯	-10.9516
tirr쎯gd쎯	-10.9522
wdol쎯mfya쎯	-10.9522
bmm쎯vdwy쎯az쎯	-10.9522
쎁al쎯	-10.9525
xbkv1쎯mblk쎯	-10.9525
gl쎯sa쎯	-10.9528
gl쎯oiad쎯rsj쎯	-10.9529
s쎯smi쎯	-10.953
jgx쎯	-10.9531
쎆od쎯	-10.9531
mbbd쎯·	-10.9533
,ymo1쎯	-10.9534
mbds쎯r쎯bg쎯	-10.9535
zso쎯oml쎯	-10.9539
srl쎯	-10.954
′′	-10.9541
bd쎯mbds쎯tirg쎯.	-10.9541
,l쎯ad쎯	-10.9543
eyo쎯zni쎯bzma쎯	-10.9544
wdz쎯le쎯	-10.9545
aij쎯zq쎯k쎯	-10.9546
mbrd쎯bdnw쎯kv쎯au쎯	-10.9547
u쎯yybd쎯nlj쎯	-10.9548
mazy쎯qyx쎯	-10.9549
heoo쎯zmya쎯d쎯	-10.9552
"、"	-10.9554
fdsx쎯	-10.9555
d쎯sop쎯vzj1쎯	-10.9555
aij쎯pvgx쎯	-10.9557
od쎯wdgq0쎯	-10.9557
z쎯xe쎯h쎯u쎯	-10.9558
쎁쎉쎉쎂	-10.9559
木pdel쎯	-10.9559
b쎯rsj쎯	-10.9559
ggud쎯wms쎯	-10.9562
ko쎯s쎯《	-10.9562
ew쎯bdkv쎯d쎯	-10.9566
iai쎯dsu쎯	-10.9571
d쎯kcx쎯sf쎯	-10.9577
쎄～	-10.9579
rre쎯ku쎯.	-10.9579
fxml쎯	-10.958
ufgd쎯、	-10.958
mfld쎯hkd쎯、	-10.9582
oixo쎯zmya쎯	-10.9585
ejd쎯	-10.9585
(쎄	-10.9585
쎁쎇쎈	-10.9585
udjw쎯wdjg쎯	-10.9586
zs1쎯ku쎯odod쎯ajx쎯	-10.9586
la쎯d쎯k쎯	-10.9586
bskr쎯kion쎯	-10.9587
wwae쎯	-10.9588
nlug쎯ffv쎯hrd쎯	-10.9589
d쎯kdmk쎯tgf쎯	-10.9591
giw쎯aij쎯	-10.9591
(쎁쎉쎃	-10.9592
ago쎯sjy0쎯	-10.9593
.x쎯ad쎯	-10.9595
e쎯kion쎯gd쎯idjh쎯	-10.9596
,hj쎯bm쎯	-10.9596
a쎯hbmo쎯zmya쎯sau쎯	-10.9598
sy쎯gj쎯,	-10.9599
sno쎯gdq쎯	-10.9601
,gr쎯ec쎯	-10.9602
egiy쎯	-10.9606
pa쎯eako쎯ryi쎯	-10.9607
ufsu쎯ya쎯	-10.9608
,c쎯g쎯som쎯ym쎯ad쎯	-10.9608
cec쎯	-10.961
mc쎯sug쎯gg쎯wdgq0쎯	-10.961
eked쎯b쎯	-10.9611
mblk쎯bdzy쎯	-10.9613
mamb쎯tk쎯,	-10.9614
sooe쎯ad쎯	-10.9616
sjl쎯llrc쎯	-10.9617
eako쎯ryi쎯,	-10.9617
maa쎯ecq1쎯	-10.9623
kq쎯sjw쎯	-10.9624
dqs쎯ku쎯	-10.9624
vdwy쎯kojb쎯	-10.9626
cuc쎯vdwy쎯yt쎯	-10.9626
oa쎯rl쎯	-10.9627
idke쎯bh쎯d쎯	-10.9627
yav쎯voo쎯	-10.963
pdel쎯njf쎯	-10.9633
oyg쎯z쎯	-10.9636
xrz쎯ldoo쎯	-10.9636
uae쎯kc쎯	-10.9636
bdzs1쎯nmb쎯	-10.9637
ld쎯kd쎯giw쎯	-10.9638
sf쎯lk쎯wh쎯	-10.9638
nsr쎯fjrl쎯	-10.9639
ybr쎯	-10.9639
so쎯nr0쎯nb쎯dpk쎯	-10.9641
zmry쎯	-10.9641
,jcv쎯	-10.9641
.쎁쎉쎉쎆mamb쎯	-10.9643
rly쎯sm쎯paj0쎯	-10.9643
ee쎯odjy쎯fxo쎯dx쎯b	-10.9643
skb쎯smi쎯	-10.9645
so쎯nif쎯	-10.9645
nlj쎯uaqk쎯	-10.9649
wa쎯kmc쎯	-10.965
nkkv쎯kv쎯	-10.9654
qy쎯vbi쎯	-10.9654
odwg쎯yybd쎯ai1쎯,	-10.9654
mc쎯szq쎯ecq1쎯	-10.9655
zizi쎯np쎯z쎯oi쎯	-10.9655
uby쎯	-10.9659
d쎯vsm쎯xhm쎯	-10.966
ta쎯dpw0쎯	-10.9661
jjjf쎯suk쎯	-10.9661
aii쎯mfte쎯zym쎯	-10.9661
oi쎯,	-10.9661
쎀쎀oz쎯kb쎯	-10.9661
uzl쎯	-10.9662
mfte쎯dex쎯z쎯xe쎯	-10.9662
syme쎯ai1쎯d쎯	-10.9663
tdrl1쎯vg쎯ci쎯waj쎯	-10.9663
tgxi쎯ark쎯	-10.9664
kirr쎯	-10.9667
mamb쎯hexb쎯od쎯	-10.9668
bdrd쎯nh쎯	-10.9668
jaz쎯)	-10.9668
,zgp쎯az쎯	-10.9672
cemy쎯	-10.9672
gtg쎯tgf쎯	-10.9673
,zoa쎯	-10.9674
vfl쎯vfk쎯	-10.9675
kv쎯tdni쎯	-10.9676
wr쎯mbmo쎯	-10.9677
tff쎯fdoe쎯	-10.9677
zzm쎯ch쎯	-10.9678
.fav쎯oz쎯yaj1쎯	-10.9679
,j쎯eao쎯kojr쎯jl쎯.	-10.9679
쎁쎁쎅	-10.968
tdkv쎯mfl쎯	-10.968
j쎯jc쎯jc쎯ybk쎯	-10.9681
,zq쎯rjr쎯	-10.9681
nsy쎯edlo쎯	-10.9682
an쎯oy쎯	-10.9683
gm쎯tl쎯	-10.9686
kd쎯nmb쎯	-10.9687
aijr쎯xek쎯	-10.9688
ad쎯쎂쎀쎀쎃mamb쎯	-10.9691
nsb쎯rki쎯	-10.9692
au쎯kd쎯	-10.9692
skw쎯sos쎯.	-10.9695
an쎯oaj쎯	-10.9696
nb쎯zs쎯so쎯nr0쎯	-10.9696
sjy0쎯uanl쎯:	-10.9698
suo쎯	-10.9703
a쎯ub쎯	-10.9704
nknj쎯	-10.9707
vns쎯ggyy1쎯	-10.9707
쎂쎀쎀uf쎯	-10.9708
a쎯sij쎯hbi쎯	-10.971
쎇q쎯rre쎯ku쎯ad쎯	-10.9711
xsxs쎯mekb쎯	-10.9713
wdhb쎯,	-10.9714
vwa쎯jl쎯.	-10.9714
dxn쎯	-10.9714
nre쎯j쎯	-10.972
,wdrr쎯nt쎯	-10.9723
bcx쎯jb쎯	-10.9727
edl쎯wai쎯sli쎯	-10.9727
,udjw쎯gj쎯mfjo쎯	-10.9728
i쎯z쎯cirh쎯	-10.9728
wdki0쎯ucgd쎯	-10.973
wh쎯wdy쎯	-10.9731
r쎯tdro쎯zgp쎯yj쎯	-10.9731
vs쎯kv쎯	-10.9731
oz쎯pd쎯,	-10.9734
hero쎯nm쎯ae쎯z쎯	-10.9736
oz쎯yaj1쎯nsu쎯ad쎯	-10.9737
wdjj쎯mby1쎯	-10.9738
zizi쎯mc쎯g쎯	-10.9739
,xbkv0쎯xmi쎯ad쎯	-10.9739
ggnk쎯fdm쎯ufte쎯	-10.9742
nfa쎯aeb쎯	-10.9743
lljl쎯	-10.9743
miy쎯ze쎯	-10.9744
uanl쎯odyk쎯	-10.9747
mbbd쎯gdq쎯	-10.9747
.uae쎯	-10.9749
dyj쎯zimo쎯	-10.9749
doy쎯dvm쎯	-10.9751
z쎯dyo쎯	-10.9751
dry1쎯	-10.9755
nuo쎯nub쎯	-10.9756
aij쎯zo쎯wxl쎯dsw쎯	-10.9757
wsb쎯ob쎯vdwy쎯	-10.9758
edl쎯sjk쎯gd쎯vdwy쎯	-10.9759
쎁쎂쎃	-10.9761
dwo쎯vl쎯	-10.9761
bga쎯	-10.9762
wdf쎯·	-10.9764
ewy1쎯rsym쎯	-10.9764
gdq쎯a쎯wd쎯d쎯	-10.9764
gd쎯qka쎯	-10.9765
jirj쎯ja쎯	-10.9766
gdq쎯som쎯b쎯	-10.9768
jc쎯sbx쎯	-10.9769
d쎯som쎯kf쎯	-10.977
wa쎯p쎯	-10.9771
vea쎯smm쎯	-10.9772
、cgi쎯bskr쎯	-10.9776
fl쎯ld쎯d쎯	-10.9776
sau쎯mfz쎯	-10.9777
mbjw쎯srk1쎯	-10.9778
oiad쎯rsj쎯	-10.978
ay쎯mamb쎯	-10.978
lprm쎯tk쎯	-10.978
fdoy쎯	-10.9783
zo쎯i쎯,	-10.9784
木ce쎯	-10.9785
ed쎯r쎯mamb쎯	-10.9785
me	-10.9785
fkf쎯	-10.9785
>>	-10.9785
gj쎯pnr쎯	-10.9787
dwh쎯	-10.9788
gi쎯bdol쎯lok쎯	-10.9792
nyd쎯bdrd쎯.	-10.9792
qdos쎯kv쎯	-10.9796
mfrk0쎯jaz쎯,	-10.9797
bdzw쎯bdzy쎯ob쎯	-10.9797
frrn쎯	-10.9797
ybz쎯ze쎯	-10.9798
llz쎯rd쎯	-10.98
bx	-10.9803
yda쎯uogl쎯	-10.9804
jbr쎯eyd쎯	-10.981
aku쎯mfji쎯	-10.981
ldm쎯zx쎯gd쎯vdwy쎯	-10.9811
kojr쎯fs쎯	-10.9814
giw쎯zq쎯	-10.9815
tb쎯kib쎯	-10.9815
ul	-10.9816
d쎯ym쎯kak쎯	-10.982
、mfk쎯ve쎯	-10.982
bmy쎯f쎯	-10.9824
ri쎯cirh쎯	-10.9826
sx쎯	-10.9827
xoy쎯h쎯.	-10.9828
wdz쎯ys쎯	-10.9829
oiel쎯	-10.9829
j쎯ll쎯gd쎯vdwy쎯	-10.983
,ygqw쎯ucl쎯	-10.9831
gj쎯jddm쎯	-10.9831
,eg쎯	-10.9832
paj0쎯bm쎯	-10.9832
bmm쎯mfjc쎯	-10.9833
ymo0쎯sc쎯nmb쎯	-10.9833
udfg쎯wd쎯y쎯	-10.9838
idj쎯gdq쎯	-10.9843
sod쎯maj쎯	-10.9843
°C,mamb쎯yrm쎯kv쎯	-10.9843
fq쎯zl쎯	-10.9845
jirj쎯i쎯	-10.9845
gd쎯kair쎯	-10.9849
viv쎯	-10.985
so쎯nr0쎯sjy0쎯	-10.985
mai쎯	-10.9851
tgxj쎯edeq쎯	-10.9851
wsb쎯ho쎯nsu쎯ad쎯	-10.9853
maj쎯rsj쎯d쎯	-10.9853
uolg쎯	-10.9853
ie	-10.9854
vg쎯nl쎯	-10.9856
tso쎯	-10.9858
nl쎯rgs쎯njf쎯dwm쎯	-10.9858
cirh쎯c쎯zizi쎯	-10.9859
hirz쎯	-10.986
bdol쎯fr쎯:	-10.9863
aim쎯tgnd쎯xsc쎯b쎯	-10.9864
ag쎯p쎯	-10.9864
fxh쎯sor쎯	-10.9866
l쎯odmw쎯:	-10.9867
vyo쎯kair쎯	-10.9872
,yb쎯mzs쎯	-10.9874
edl쎯gj쎯	-10.9877
、nf쎯tlf쎯	-10.9879
akk쎯mev쎯	-10.988
zgj쎯ryki쎯	-10.9881
haz쎯vm쎯	-10.9882
ohy쎯	-10.9882
ㄐ	-10.9884
fy쎯yxo쎯	-10.9886
vki쎯,	-10.9888
biyw쎯vb쎯	-10.9889
koxb쎯kdxb0쎯	-10.989
lx쎯psk쎯	-10.989
fb쎯mob쎯	-10.989
nmb쎯rsym쎯.	-10.989
fe쎯nlj쎯	-10.9891
vik쎯ri쎯	-10.9891
pl쎯zbj쎯frz쎯	-10.9892
smx쎯oixb1쎯	-10.9892
ezr쎯ku쎯	-10.9895
jjj쎯nne쎯d쎯	-10.9895
,ka쎯fav쎯	-10.9897
ceaz쎯scq쎯	-10.9897
z쎯oi쎯d쎯	-10.9898
ggkb쎯uf쎯,wdel쎯	-10.99
쎈od쎯,	-10.9901
ld쎯ufgd쎯	-10.9901
nim쎯rsv쎯d쎯	-10.9902
gai쎯、	-10.9903
d쎯mbbd쎯ryi쎯	-10.9904
,nar쎯zj쎯	-10.9904
:쎁쎂	-10.9909
nl쎯vzj1쎯vdnd쎯	-10.991
exbd쎯	-10.9914
jdj쎯wdgq0쎯	-10.9917
bi쎯mfjc쎯kal쎯,	-10.9917
.oc쎯xyis쎯	-10.9918
gg쎯ch쎯	-10.9918
da쎯gx쎯	-10.9918
kv쎯i쎯	-10.9919
kcx쎯sjl쎯d쎯	-10.9921
bxm쎯rhko쎯	-10.9923
xs	-10.9925
oixb1쎯、vb쎯bdol쎯	-10.9926
(a쎯)	-10.9926
fv	-10.9927
:쎀.	-10.9927
gdq쎯sme쎯r쎯	-10.9927
쎁쎉쎉쎄	-10.9928
yj	-10.9929
gdiy쎯woj쎯kak쎯:	-10.9932
j쎯hma1쎯vdwy쎯ywb쎯	-10.9932
skw쎯u쎯	-10.9934
,jiv쎯rgs쎯	-10.9935
,sm쎯	-10.9939
쎄mamb쎯)	-10.9943
oz쎯hbi쎯	-10.9944
bmm쎯dpw1쎯,edfd쎯	-10.9945
xbby쎯sq쎯bg쎯la쎯	-10.9945
my쎯myoy쎯	-10.9945
doyd쎯	-10.9947
yya쎯wtxi쎯	-10.9947
obd쎯l쎯	-10.9949
쎁쎉쎂쎅mamb쎯	-10.995
쎂쎀쎁	-10.995
mbds쎯obd쎯	-10.9951
쎁쎉쎉쎃	-10.9951
frj쎯fyy쎯	-10.9952
.쎁쎉쎉쎄mamb쎯	-10.9952
wdan쎯odm쎯	-10.9953
ed쎯q쎯	-10.9955
bwz쎯ggkw쎯bm쎯	-10.9955
ufoy쎯zza쎯	-10.9956
psq쎯wbi쎯oz쎯yaj1쎯	-10.9956
°C,	-10.9958
,tirr쎯sjk쎯	-10.9959
sow쎯tgob1쎯	-10.9959
d쎯ajx쎯ucq쎯	-10.996
ad쎯쎂쎀쎁쎁mamb쎯	-10.9961
cirh쎯c쎯u쎯	-10.9962
iikg쎯sv쎯:	-10.9963
gi쎯xc쎯	-10.9963
myz쎯쎆	-10.9965
jan쎯	-10.9968
vu	-10.9971
wxl쎯dsw쎯x쎯	-10.9971
ag쎯woy쎯	-10.9971
hgy쎯	-10.9972
haw쎯bdzy쎯	-10.9972
ymo0쎯oz쎯fuz쎯	-10.9975
pvwx쎯hbkd쎯y쎯	-10.9975
iejq쎯ief쎯	-10.9976
sv쎯odwg쎯	-10.998
mc쎯sooe쎯mamb쎯	-10.9981
ssy쎯tj쎯vdwy쎯bm쎯	-10.9982
u쎯nrkw쎯dk쎯neo쎯	-10.9983
edy쎯ob쎯ob쎯jl쎯.	-10.9986
xek쎯la쎯	-10.9986
wth쎯	-10.9987
,odsx쎯	-10.9989
쎃.쎁	-10.9993
e쎯kion쎯d쎯	-10.9993
vni쎯edl쎯	-10.9993
koxb쎯kd쎯d쎯	-10.9994
∶	-10.9996
su쎯nfa쎯bxm쎯	-10.9996
waz쎯wdya쎯fuz쎯	-10.9997
nm	-10.9998
쎇mamb쎯)	-10.9998
pgs쎯	-10.9998
ad쎯a쎯nfa쎯	-11
ffj쎯nlwz쎯	-11.0001
쎁mamb쎯)	-11.0002
odyk쎯aek쎯	-11.0004
heoo쎯nrs쎯	-11.0005
ajk쎯bmm쎯dpw1쎯.	-11.0005
ufoy쎯、	-11.0006
imhm쎯	-11.0007
nsw쎯	-11.0008
,koxb쎯kd쎯	-11.0008
p쎯ch쎯	-11.001
aii쎯sos쎯	-11.001
pdw쎯an쎯	-11.0012
le쎯ad쎯	-11.0012
쎃쎀oy쎯pji쎯	-11.0013
oro쎯l쎯	-11.0015
oai쎯zimo쎯	-11.0018
wbk쎯rrk쎯k쎯	-11.0019
soo쎯oisc쎯	-11.0019
udke쎯zh쎯	-11.002
,쎂쎀쎀쎃mamb쎯	-11.0022
sb쎯tgob1쎯	-11.0023
mob쎯sai쎯	-11.0025
prt쎯	-11.0027
yji쎯arku쎯d쎯	-11.0027
쎇쎆쎈	-11.0031
bsj쎯snd쎯、	-11.0031
tfm쎯dwr쎯	-11.0031
hbmo쎯ym쎯ad쎯u쎯	-11.0032
xbby쎯mbq쎯sq쎯sed쎯	-11.0034
mw쎯mfz쎯ob쎯	-11.0035
,uaxk쎯	-11.004
nlug쎯b쎯mfkd쎯	-11.0041
oaj쎯a쎯	-11.0042
zbk쎯zbk쎯	-11.0045
wtxi쎯jc쎯wdgq0쎯	-11.0048
aij쎯mbjk쎯um쎯	-11.0048
jsz쎯jfjr쎯	-11.005
yj쎯kv쎯	-11.0052
bix쎯q쎯	-11.0052
쎁—	-11.0052
mfuo쎯mfya쎯	-11.0055
x쎯mfld쎯	-11.0058
wdmr쎯vb쎯	-11.0058
ki쎯oixb0쎯	-11.0058
kcx쎯mbrd쎯bdnw쎯d쎯	-11.0059
jdj쎯jc쎯	-11.0059
kdxz쎯yc쎯	-11.006
g쎯mfk쎯ve쎯	-11.0061
oaj쎯vb쎯	-11.0063
nl쎯nc쎯d쎯	-11.0065
mfk쎯epf쎯	-11.0067
iai쎯nx쎯	-11.0067
rko쎯ecp쎯	-11.0069
vmw쎯drk1쎯	-11.0071
cd쎯aku쎯	-11.0072
km쎯ldod쎯	-11.0073
bdzs1쎯wdgq0쎯.	-11.0073
tdaj쎯hexb쎯	-11.0075
zwb쎯oaj쎯oai쎯	-11.0076
oi쎯ku쎯edy쎯ob쎯	-11.0076
sk쎯rsv쎯	-11.0078
xjc쎯	-11.0082
bdol쎯fekg쎯kcx쎯g	-11.0083
od쎯mbro쎯.	-11.0083
mc쎯sug쎯zx쎯ewj쎯	-11.0085
zzi쎯zoy쎯	-11.0085
쎂쎅edjr2쎯	-11.0086
쎈쎀쎀쎀	-11.0086
쎁쎉쎉쎀	-11.0087
bjj쎯tgg쎯	-11.0087
d쎯qqv쎯gdxs쎯	-11.0088
an쎯wdgq0쎯	-11.0088
yjf쎯frz쎯	-11.0089
sf쎯fj쎯uabd쎯	-11.009
ae쎯xjs쎯	-11.0091
j쎯hdko쎯	-11.0094
gw쎯	-11.0094
rr쎯mfkd쎯kd쎯	-11.0095
zm쎯mc쎯	-11.0096
aiaj쎯aiaj쎯	-11.0097
mg	-11.0097
쎁쎀쎁	-11.0098
rsuo쎯	-11.0099
mh	-11.0101
idjh쎯tded쎯j쎯	-11.0102
wsb쎯ob쎯jddm쎯nfa쎯	-11.0103
xzo쎯	-11.0103
kg쎯ewf쎯	-11.0106
wr쎯ki쎯	-11.0106
szq쎯mfji쎯	-11.0107
е	-11.0108
lco쎯gdq쎯a쎯wd쎯	-11.0109
rsj쎯hma1쎯	-11.011
mamb쎯hexb쎯d쎯	-11.011
q쎯aek쎯	-11.0114
xg쎯gdq쎯	-11.0114
gd쎯sy쎯	-11.0119
p쎯fg쎯	-11.012
jbr쎯ldod쎯	-11.012
uczm쎯nx쎯	-11.0122
vm쎯lbu쎯	-11.0123
gdq쎯uaol쎯	-11.0124
ys쎯uke쎯	-11.0125
kib쎯zym쎯	-11.0125
쎀.쎀쎀	-11.0127
jc	-11.0127
dex쎯kal쎯	-11.0128
ymo1쎯xbby쎯	-11.0129
.’	-11.013
au쎯fpx쎯	-11.0131
.n쎯d쎯	-11.0131
zx쎯vsnd쎯kal쎯	-11.0132
edl쎯ll쎯	-11.0132
idj쎯odwg쎯	-11.0136
.ebm쎯gdq쎯《	-11.0138
agd쎯sc쎯bmm쎯	-11.0139
mfmw쎯dsw쎯	-11.014
zyy쎯odxw쎯owy쎯	-11.014
sjyu쎯	-11.0141
vgy쎯	-11.0142
─	-11.0143
(쎁쎅	-11.0144
bdzw쎯va쎯	-11.0145
fjuf쎯	-11.0145
au쎯vlw쎯	-11.0147
dkl쎯	-11.0148
kcsr쎯	-11.0149
쎀쎀쎀	-11.0151
sy쎯ped쎯aim쎯mfld쎯	-11.0151
쎈.쎅	-11.0152
ckb쎯ajx쎯ob쎯	-11.0152
oda쎯kojr쎯,	-11.0153
nf쎯nlwz쎯	-11.0154
so쎯nfa쎯	-11.0156
oiqm쎯uf쎯	-11.0157
bmm쎯jl쎯	-11.0159
vwo쎯nr0쎯	-11.0161
rly쎯fpd1쎯	-11.0163
edjm쎯wdjj쎯	-11.0165
kv쎯bhj쎯	-11.0166
cqq쎯cej쎯	-11.0166
hbmo쎯waj쎯	-11.0167
y쎯gd쎯kak쎯	-11.0169
az쎯tgva쎯l쎯	-11.0169
《paj0쎯vx쎯xyis쎯·	-11.0173
uaqk쎯yav쎯	-11.0174
》k쎯kia쎯	-11.0175
,yi쎯sj쎯k쎯	-11.0177
,nxs쎯	-11.0177
ck	-11.0178
쎀쎀sjwm쎯uf쎯,miwa쎯	-11.0179
tmj쎯	-11.0179
쎁쎀edjr2쎯,	-11.0183
sjy0쎯lkb쎯	-11.0183
oaj쎯ckb쎯d쎯	-11.0189
ae쎯zmzj쎯y쎯	-11.0189
ie쎯	-11.019
nl쎯vdwy쎯	-11.019
zcy쎯	-11.0191
gdw쎯hbkd쎯y쎯	-11.0192
gj쎯mfjo쎯쎆	-11.0193
ku쎯sc쎯	-11.0193
vki쎯、	-11.0196
loa쎯rko쎯	-11.0199
uag쎯ugi쎯	-11.0201
sji쎯	-11.0202
vpy쎯ldjn쎯	-11.0202
shz쎯	-11.0203
р	-11.0204
h쎯sjqu쎯d쎯	-11.0205
xaj쎯ybz쎯	-11.0206
gdli쎯dsu쎯	-11.0207
zmzy쎯ecp쎯	-11.0208
.....	-11.021
edl쎯edeq쎯	-11.021
gdq쎯oixo쎯r쎯	-11.0213
+쎁	-11.0213
쎅mamb쎯)	-11.0221
dhx쎯zry쎯	-11.0221
qsnr쎯	-11.0221
ldgd쎯kz쎯wlr쎯zsj쎯	-11.0223
ywb쎯ywb쎯ch쎯	-11.0225
쎅au쎯sy쎯oz쎯kb쎯,	-11.0226
wxl쎯maj쎯	-11.0228
rsj쎯od쎯xbkv1쎯	-11.0229
ro쎯	-11.023
,aii쎯	-11.023
oz쎯kb쎯,jhx쎯	-11.0233
zimo쎯eqg쎯	-11.0234
wr쎯ffv쎯	-11.0235
dgh쎯vao쎯	-11.0239
pdel쎯b쎯	-11.024
rx쎯sso쎯	-11.0243
aii쎯bdol쎯	-11.0243
jk쎯rsj쎯:	-11.0247
da쎯ray쎯fq쎯	-11.0247
dsw쎯vt쎯	-11.0247
biym쎯sv쎯:	-11.025
xyis쎯vb쎯nmi쎯jjj쎯	-11.0251
m쎯nt쎯tird쎯	-11.0251
xmi쎯fel쎯mbro쎯	-11.0252
nxby쎯qne쎯	-11.0257
oc쎯gj쎯z쎯xe쎯	-11.0258
쎈쎀mamb쎯nh쎯	-11.0261
ufzm쎯wdya쎯nr0쎯	-11.0262
ll쎯tgb쎯	-11.0264
edl쎯wai쎯	-11.0271
txl쎯eej쎯	-11.0271
xob쎯	-11.0273
mc쎯dki쎯	-11.0274
mw쎯ckb쎯fekg쎯hbi쎯	-11.0274
ahi쎯kkv쎯	-11.0274
ch쎯odmw쎯	-11.0276
c쎯pa쎯	-11.0277
z쎯mc쎯y쎯	-11.0279
kq쎯·	-11.0279
fl쎯dsz쎯	-11.0283
ory쎯	-11.0285
g쎯m쎯jc쎯	-11.0287
d쎯xbby쎯sq쎯	-11.0287
(쎁쎉쎄	-11.0288
fs쎯zym쎯	-11.0288
쎄od쎯,	-11.0289
d쎯jjj쎯nne쎯	-11.0289
bhv쎯edl쎯	-11.0291
mflg쎯	-11.0291
agd쎯qi쎯ggky쎯	-11.0293
fq쎯klzw쎯	-11.0295
ymo1쎯sxo쎯	-11.0295
,od쎯nt쎯	-11.0296
,r쎯tdro쎯	-11.0297
od쎯mbro쎯,	-11.0298
nyj쎯	-11.0299
poy쎯	-11.03
jzg쎯	-11.0301
akz쎯ywb쎯	-11.0301
qdos쎯ks쎯rsj쎯qm쎯	-11.0303
qyx쎯oiqx쎯	-11.0303
u쎯yy쎯nmb쎯	-11.0305
bi쎯sul쎯oi쎯aim쎯	-11.0305
drk1쎯yybd쎯jl쎯	-11.0306
vjal쎯tyo쎯	-11.0307
g쎯fs쎯mc쎯	-11.0308
bmrr쎯mamb쎯od쎯	-11.0309
ffv쎯b쎯	-11.031
rj쎯kion쎯	-11.031
yt	-11.0313
d쎯sf쎯aeb쎯	-11.0313
skwz쎯pvgx쎯	-11.0315
,nif쎯	-11.0315
hbmo쎯ym쎯	-11.0316
d쎯zmya쎯sau쎯	-11.0316
hmaa1쎯	-11.0317
dkr쎯bk쎯	-11.0317
chxb쎯	-11.0318
tlx쎯	-11.0319
.nmi쎯jjj쎯	-11.032
pow쎯bxm쎯	-11.0321
fzor쎯	-11.0322
(bd쎯)	-11.0323
zhm쎯、	-11.0323
wd쎯u쎯	-11.0324
d쎯ckb쎯odxw쎯	-11.0325
ceuo쎯	-11.0328
ak쎯drl쎯	-11.0329
lomw쎯	-11.033
esf쎯	-11.033
cd쎯xb쎯	-11.0331
yod쎯nbx쎯,	-11.0332
쎀쎀odmf쎯od쎯,	-11.0335
tgob1쎯ev쎯ad쎯	-11.0337
wzm쎯rki쎯	-11.034
ad쎯쎂쎀쎀쎂mamb쎯	-11.0341
z쎯c쎯d쎯	-11.0342
gd쎯gai쎯	-11.0343
g쎯ldod쎯d쎯	-11.0345
d쎯mc쎯odjy쎯	-11.0345
%%*/	-11.0346
ㄣ	-11.035
vzj1쎯wdz쎯	-11.0351
vx쎯nh쎯	-11.0351
bky쎯	-11.0353
d쎯pvgx쎯ucq쎯	-11.0354
sij쎯idju쎯	-11.0354
fyg쎯jdjl쎯aep쎯,	-11.0355
gd쎯na쎯	-11.0355
vcq쎯edmy쎯yra쎯	-11.0356
ufgd쎯jk쎯:	-11.0357
ak쎯zmya쎯b쎯	-11.0357
hma1쎯ty쎯mzv쎯	-11.0359
ll쎯ffv쎯	-11.0359
kdml0쎯qmgs쎯	-11.036
gd쎯ebbk쎯	-11.0361
ox쎯sukk쎯	-11.0361
dny쎯	-11.0364
z쎯kg쎯	-11.0365
,edlc쎯hbkd쎯	-11.0366
xbby쎯su쎯d쎯	-11.0367
jdj쎯dyx쎯	-11.0371
bdkv쎯vg쎯:	-11.0372
rhko쎯bcx쎯	-11.0373
udjw쎯tdrl1쎯sug쎯	-11.0373
brt쎯oirg쎯	-11.0373
gae쎯woqy쎯jl쎯.	-11.0374
(-	-11.0375
ldo쎯vsm쎯	-11.0375
es	-11.0377
쎂쎆쎀	-11.0379
wsa쎯vdnd쎯sli쎯	-11.038
zizi쎯uanw쎯	-11.038
bzy1쎯k쎯	-11.0382
od쎯fr쎯	-11.0382
a쎯jaz쎯	-11.0383
j쎯nre쎯yh쎯smm쎯	-11.0385
iiko쎯pdao쎯	-11.0386
bmy쎯gi쎯	-11.0387
voy쎯	-11.0388
oixb1쎯vb쎯bdol쎯	-11.0389
쎈쎀쎂.쎃	-11.0393
”,k쎯	-11.0394
en쎯rz쎯	-11.0395
zoo쎯yod쎯	-11.0395
xbby쎯mblk쎯	-11.0395
mfj쎯j쎯jc쎯	-11.0396
d쎯bxm쎯suk쎯	-11.0399
ys쎯uo쎯	-11.04
eao쎯oy쎯	-11.0401
sno쎯nmi쎯“	-11.0403
.쎁쎉쎈쎃mamb쎯	-11.0404
,fj쎯odwy쎯	-11.0405
mzv쎯zs쎯j쎯	-11.0405
k쎯m쎯	-11.0405
oda쎯tl쎯	-11.0405
j쎯aeb쎯	-11.0406
lah쎯xsxi쎯	-11.0408
xbby쎯sq쎯、	-11.0408
ja쎯gne쎯	-11.0409
skw쎯kiw쎯k쎯	-11.0409
kd쎯tb쎯	-11.0411
sf쎯jjj쎯mfji쎯	-11.0414
d쎯idjh쎯kirj쎯	-11.0416
fb쎯pdao쎯	-11.0417
osf쎯wcj쎯	-11.0417
sl쎯nmb쎯	-11.0417
ll쎯jirj쎯	-11.042
yajl쎯sol쎯	-11.0421
wmni쎯	-11.0422
nsos쎯、	-11.0427
sjl쎯kld쎯	-11.0427
mw쎯、	-11.043
dq쎯kak쎯	-11.0431
uoke쎯	-11.0432
llqo쎯	-11.0433
쎇jaz쎯	-11.0436
gm쎯ll쎯	-11.0436
eaek쎯vdnd쎯	-11.0438
bmm쎯ob쎯	-11.0441
쎈mamb쎯)	-11.0441
my쎯bdzy쎯	-11.0443
eako쎯wkr쎯ryi쎯	-11.0443
쎃mamb쎯)	-11.0444
vsc쎯suk쎯:	-11.0444
edlc쎯gdw쎯	-11.0445
ueo쎯	-11.0447
yi쎯sme쎯	-11.0447
kdxz쎯tca쎯	-11.0449
)wdya쎯	-11.0451
eqg쎯oiad쎯bm쎯	-11.0452
si쎯m쎯nt쎯	-11.0453
odmw쎯j쎯	-11.0454
gae쎯woqy쎯d쎯	-11.0458
kku쎯bk쎯jjg쎯	-11.0459
ersw쎯uczm쎯	-11.0464
nrs쎯gbs쎯	-11.0466
udjw쎯sjy0쎯sq쎯g쎯	-11.0469
wsyy쎯	-11.047
wtp쎯	-11.047
d쎯sjy0쎯oy쎯	-11.0471
yazo쎯ya쎯nt쎯	-11.0472
lczw쎯dbb쎯	-11.0472
gi쎯maj쎯uanw쎯	-11.0472
gj쎯ufte쎯	-11.0474
wa쎯wdgq0쎯	-11.0474
hdko쎯lczs쎯	-11.0474
kz쎯ldo쎯	-11.0478
vjal쎯	-11.0482
jc쎯ybk쎯pdel쎯kak쎯	-11.0483
쎁쎈쎀쎀	-11.0483
fsz쎯wz쎯ecq1쎯aek쎯	-11.0483
쎁쎅쎀edjr2쎯	-11.0483
jilw쎯snow쎯	-11.0484
xly쎯ad쎯	-11.0486
bmm쎯rsym쎯	-11.0487
tdow쎯tdhk쎯	-11.0488
mbjw쎯h쎯d쎯	-11.0489
()mfj쎯	-11.049
wyj0쎯	-11.0497
npya쎯	-11.0497
wdtg쎯jhm쎯j쎯	-11.0497
sjl쎯ad쎯	-11.0497
xjb쎯akz쎯	-11.0498
vag쎯yj쎯snk쎯	-11.0499
%zo쎯i쎯	-11.0505
uae쎯gi쎯k쎯	-11.0505
,jo쎯f쎯	-11.0506
oc쎯ym쎯	-11.0507
sow쎯mzs쎯	-11.0507
i쎯sy쎯	-11.0512
szr쎯kz쎯	-11.0512
llzn쎯	-11.0516
rsj쎯vdwy쎯mc쎯	-11.0516
mblk쎯mbjw쎯ku쎯	-11.0517
haz쎯tgux쎯	-11.0517
vm쎯vwp쎯	-11.0517
sij쎯g쎯	-11.0519
wak쎯	-11.0519
wdtg쎯jhm쎯zx쎯xo쎯	-11.052
mbds쎯bi쎯nmi쎯	-11.0521
nkge쎯	-11.0524
njf쎯ucnd쎯	-11.0524
,uae쎯tird쎯	-11.0525
lowa쎯	-11.0526
dex쎯fsv쎯odyk쎯sf쎯	-11.0526
jos쎯ufte쎯	-11.0528
ucrd쎯	-11.0531
쎅sjwm쎯uf쎯	-11.0532
fqqa쎯	-11.0533
vsnd쎯wai쎯	-11.0533
:쎃쎀	-11.0534
,sc쎯f쎯odod쎯ajx쎯	-11.0538
sf쎯tc쎯zizi쎯np쎯	-11.0539
gaj쎯mbbd쎯	-11.054
쎂mamb쎯)	-11.0543
,f쎯	-11.0544
dk쎯neo쎯sul쎯	-11.0544
(쎁쎆	-11.0545
skx쎯niuo쎯	-11.0547
boy쎯bdkv쎯,	-11.0549
oaj쎯jkk쎯	-11.0549
u쎯jc쎯wdgq0쎯	-11.0549
sr쎯qyx쎯	-11.055
쎂쎀odmf쎯mwl쎯	-11.055
bdol쎯hkd쎯sq쎯sed쎯	-11.0551
ev쎯jed쎯	-11.0552
oqd쎯	-11.0553
qi쎯tdrl1쎯	-11.0554
jal쎯yk쎯	-11.0554
szzn쎯aii쎯	-11.0555
ewf쎯eqg쎯“	-11.0555
ee쎯odjy쎯fxo쎯dx쎯	-11.0556
zmc쎯rsj쎯:	-11.0557
mbds쎯biym쎯zq쎯	-11.0558
pser쎯	-11.0558
ncho쎯	-11.0559
edx쎯dpa쎯	-11.0559
a쎯ld쎯	-11.056
kdxz쎯odwy쎯	-11.0561
sbx쎯vb쎯	-11.0561
d쎯zx쎯ewj쎯	-11.0562
yaj0쎯fxo쎯mby1쎯	-11.0562
dzo쎯wd쎯	-11.0564
xek쎯byo쎯	-11.0566
zq쎯ym쎯mfj쎯	-11.0569
쎀쎀r쎯ay쎯bdrd쎯	-11.0569
zob쎯mblk쎯	-11.057
bdzs1쎯vsc쎯	-11.0572
mfte쎯edy쎯	-11.0575
nbho쎯	-11.0576
ㄥ	-11.0577
edfd쎯kdml1쎯	-11.0585
nif쎯pe쎯	-11.0586
uotw쎯	-11.0587
oz쎯au쎯	-11.0588
с	-11.0588
gds1쎯wbi쎯	-11.0589
so쎯fkx쎯	-11.0592
.쎁쎉쎈쎆mamb쎯	-11.0593
gd쎯uf쎯	-11.0594
hb쎯odsx쎯nmb쎯	-11.0595
ebf쎯o쎯	-11.0595
sl쎯dwb쎯	-11.0596
kle쎯	-11.0598
mblk쎯sai쎯	-11.0602
wdd쎯dwm쎯	-11.0602
d쎯sbx쎯sa쎯	-11.0602
uaqk쎯slg쎯	-11.0602
iai쎯wxl쎯	-11.0603
ciq쎯en쎯	-11.0603
j쎯eao쎯j쎯ldgd쎯	-11.0604
kmc쎯mzv쎯	-11.0606
쎉mamb쎯)	-11.0607
iirr쎯xyis쎯	-11.0611
oy쎯bi쎯	-11.0613
fq쎯mbds쎯	-11.0614
d쎯rd쎯ya쎯	-11.0615
krrr쎯ll쎯	-11.0616
ghd쎯	-11.0618
gd쎯idjh쎯	-11.0618
oc쎯sy쎯nsu쎯d쎯	-11.0618
oiqm쎯hero쎯	-11.0619
쎁쎀쎀r쎯	-11.062
.쎁쎉쎈쎇mamb쎯	-11.062
vdnd쎯flkd쎯jos쎯	-11.062
쎅°	-11.0621
d쎯rl쎯ryi쎯	-11.0621
uddw쎯sos쎯	-11.0622
zoy쎯zoy쎯	-11.0622
d쎯fl쎯uag쎯	-11.0622
qsv쎯cirs쎯	-11.0622
ri쎯bdkv쎯	-11.0622
bo쎯zizi쎯	-11.0622
dyj쎯fb쎯	-11.0623
oy쎯jk쎯k쎯	-11.0625
쎁쎅mamb쎯	-11.0625
drjr쎯	-11.0626
dqs쎯yybd쎯	-11.0628
gmeo쎯	-11.0628
kcx쎯yji쎯	-11.0628
zym쎯zo쎯i쎯	-11.0629
mw쎯ckb쎯ymo0쎯vb쎯	-11.063
ay쎯ggym쎯	-11.0634
ekgk쎯	-11.0637
,zgp쎯yj쎯	-11.0637
ufc쎯wxl쎯	-11.0638
tqo쎯qmc쎯	-11.0639
sxg쎯	-11.0639
d쎯uag쎯pxby쎯	-11.0643
쎁쎂쎂	-11.0644
od쎯mbjw쎯	-11.0645
zzy쎯flw쎯	-11.0646
dkc쎯sm쎯	-11.0648
ll쎯zzm쎯	-11.0648
쎂쎁쎀	-11.0648
nr0쎯tizm쎯	-11.0649
mvf쎯	-11.0651
pdao쎯jjg쎯	-11.0655
nl쎯oi쎯he쎯	-11.0655
kld쎯bdko쎯	-11.0657
udjw쎯yod쎯	-11.0658
gd쎯ldeo쎯	-11.0661
llrs쎯q쎯	-11.0662
gx쎯gso쎯	-11.0665
tded쎯rx쎯mfj쎯	-11.0672
ay쎯kb쎯	-11.0673
paj0쎯wtxi쎯	-11.0674
vyn쎯kv쎯	-11.0675
nl쎯vzj1쎯	-11.0675
eki쎯smm쎯	-11.0676
mzv쎯zs쎯nif쎯h쎯	-11.0678
.쎅%	-11.0678
fx	-11.0679
쎂쎃쎀	-11.0679
、xbby쎯mbq쎯	-11.0681
drr쎯sau쎯	-11.0682
kz쎯gg쎯	-11.0682
fska쎯	-11.0685
쎃.쎈	-11.0685
쎯d쎯ba쎯b쎯ee쎯odjy쎯	-11.0686
tg쎯dpk쎯kz쎯zsj쎯	-11.0686
km쎯mfz쎯	-11.0687
sol쎯nf쎯	-11.0689
:"	-11.0691
kmc쎯ecq1쎯	-11.0694
oy쎯h쎯	-11.0694
kr쎯mamb쎯	-11.0694
hbkd쎯tgrs쎯	-11.0697
쎂쎀%	-11.0698
,cexs쎯oiad쎯y쎯	-11.07
iuk쎯	-11.0703
ffu쎯	-11.0704
tg쎯fj쎯tib쎯smm쎯	-11.0704
ldod쎯oy쎯vwm1쎯	-11.0705
sjl쎯ciz쎯pdel쎯d쎯	-11.0706
、ag쎯	-11.0707
j쎯mfte쎯ywb쎯	-11.0707
쎂—	-11.0708
ewj쎯ucnd쎯ci쎯waj쎯	-11.0709
bds쎯ywb쎯	-11.071
le쎯ku쎯	-11.071
gdiy쎯woj쎯kak쎯	-11.0711
ii쎯txl쎯	-11.0712
ka쎯kojl0쎯mc쎯vmi쎯	-11.0713
ss쎯jjj쎯mfji쎯	-11.0714
jh쎯,	-11.0716
dq쎯idju쎯	-11.0719
oop쎯	-11.0721
ba쎯ce쎯ec쎯	-11.0721
fu쎯jjj쎯	-11.0724
tlrn쎯	-11.0726
tirq쎯paj0쎯	-11.0727
boy쎯vg쎯	-11.0729
ebm쎯gdq쎯《	-11.0731
qs쎯tdj쎯	-11.0731
kak쎯d쎯	-11.0731
sme쎯aij쎯	-11.0731
sug쎯fx쎯	-11.0737
ag쎯pkr쎯sli쎯	-11.0737
mamb쎯d쎯ggym쎯jos쎯	-11.0738
edl쎯ho쎯	-11.0739
,yj쎯yji쎯	-11.0739
uae쎯v쎯gdq쎯	-11.074
sjl쎯um쎯zq쎯	-11.0741
umz쎯	-11.0742
yh쎯fob쎯wdrb쎯ywb쎯	-11.0743
oiqm쎯aeb쎯	-11.0743
pi쎯ga쎯	-11.0745
vcl쎯	-11.0745
pnf쎯	-11.0746
zyl쎯ohy쎯ev쎯wdtg쎯	-11.0749
.쎁쎈	-11.075
suwl쎯ca쎯	-11.075
gm쎯nkkv쎯	-11.075
idj쎯dx쎯	-11.0751
zgp쎯lr쎯	-11.0751
ya쎯zm쎯	-11.0752
vekg쎯	-11.0753
ewa0쎯edj쎯smm쎯	-11.0754
-쎀쎁	-11.0754
fa쎯mzv쎯sod쎯saii쎯	-11.0755
zgp쎯ufzm쎯:	-11.0757
sli쎯aim쎯edy쎯	-11.0757
쎁쎀쎀uf쎯	-11.0757
zo쎯i쎯.	-11.0758
ffp쎯	-11.076
ecb쎯b쎯.	-11.076
oc쎯yh쎯	-11.0761
xoy쎯u쎯	-11.0762
hgd쎯	-11.0764
myz쎯oa쎯xki쎯	-11.0765
fow1쎯sjy0쎯nm쎯	-11.0768
edlo쎯d쎯	-11.0769
、zsj쎯vsyz쎯	-11.0769
sul쎯tgij쎯	-11.077
oisc쎯bdkv쎯	-11.0771
xsxo쎯eej쎯	-11.0774
jc쎯ba쎯tdrl1쎯vg쎯	-11.0774
bg쎯la쎯nsu쎯ad쎯	-11.0779
ewz0쎯nx쎯zl쎯	-11.0779
l쎯xyis쎯	-11.0779
tlzr쎯	-11.0779
gi쎯odxj쎯	-11.0781
um쎯tgs1쎯	-11.0783
woj쎯zlo쎯	-11.0784
osf쎯ar쎯	-11.0786
wr쎯wdgq0쎯	-11.0786
쎁쎀쎉	-11.0787
waj쎯odxj쎯	-11.0789
쎁쎇쎆	-11.0794
wr쎯vdwy쎯ywb쎯	-11.0794
xsxs쎯nlj쎯	-11.0798
ss쎯bg쎯la쎯	-11.0798
hoys쎯	-11.0798
lk쎯qex쎯	-11.0798
qd쎯mamb쎯bdkv쎯	-11.0799
zbb쎯	-11.0801
vb쎯vdwy쎯ywb쎯	-11.0801
dzo쎯sai쎯	-11.0805
nxs쎯nxs쎯	-11.0805
uoi쎯	-11.0806
wgs쎯boy쎯	-11.0806
aks쎯wdtg쎯	-11.0807
sl쎯ufte쎯:	-11.0807
lr쎯rly쎯	-11.0808
zzym쎯ia쎯	-11.0809
odoo쎯mc쎯	-11.081
oo	-11.0812
쎁쎉쎈쎉	-11.0812
sy쎯wdzf쎯.	-11.0812
hdko쎯hb쎯	-11.0816
ga쎯sok쎯	-11.0817
、、、	-11.0822
sy쎯mfjc쎯	-11.0826
myxk쎯nr0쎯	-11.0826
sli쎯oz쎯wdz쎯xmyj쎯	-11.0827
smp쎯ryi쎯:	-11.083
d쎯ufzm쎯dx쎯	-11.0833
gi쎯ufzp쎯d쎯	-11.0836
ch쎯jdjl쎯aep쎯	-11.0837
yh쎯aim쎯	-11.0837
edj쎯od쎯	-11.0837
쎁쎃쎃	-11.084
tdaj쎯qyi쎯	-11.0844
ufzp쎯arsr쎯	-11.0845
zmx쎯	-11.0847
pdw쎯mamb쎯	-11.0847
.쎁쎉쎉쎀mamb쎯	-11.0848
k쎯wxl쎯dsw쎯	-11.0848
hdyd쎯drl쎯	-11.085
myz쎯hd쎯xki쎯	-11.085
feld쎯	-11.0851
vbo쎯wz쎯	-11.0852
uyd1쎯	-11.0852
odnd쎯oda쎯	-11.0853
kcx쎯paj0쎯a쎯	-11.0854
ymo1쎯rsj쎯	-11.0854
drr쎯tdni쎯d쎯	-11.0854
vejq쎯ho쎯	-11.0855
jlgl쎯	-11.0856
,rr쎯zj쎯	-11.0856
paj0쎯alb쎯	-11.0857
wwrs쎯	-11.0861
x쎯dsq쎯	-11.0861
tirr쎯mfzn쎯	-11.0862
udjw쎯iak쎯	-11.0864
are쎯yh쎯	-11.0864
vm쎯tgrs쎯	-11.0865
qyx쎯rsym쎯fq쎯frz쎯	-11.0865
au쎯mbds쎯	-11.0866
bo쎯bdnw쎯	-11.0867
oda쎯nxw쎯	-11.0868
oz쎯aii쎯	-11.0868
boy쎯vg쎯ad쎯	-11.0871
쎁q쎯쎁ka쎯	-11.0874
qf쎯bwz쎯》	-11.0876
cejo쎯rsym쎯.	-11.0876
uae쎯eqg쎯oiad쎯	-11.0878
o쎯nl쎯rgs쎯fds쎯	-11.0879
odsx쎯paj0쎯	-11.0882
zbj쎯frz쎯d쎯	-11.0883
sli쎯mfz쎯、sli쎯	-11.0884
vwa쎯sb쎯	-11.0885
tirq쎯kg쎯	-11.0887
sf쎯fds쎯	-11.089
setg쎯mbro쎯	-11.0891
va쎯uanw쎯	-11.0891
ncl쎯uby쎯	-11.0892
쎁쎁o쎯	-11.0892
dbb쎯nne쎯	-11.0893
paj0쎯gj쎯	-11.0894
su	-11.0894
ji쎯rjr쎯	-11.0894
dsqm쎯pkq쎯	-11.0896
쎆mamb쎯)	-11.0898
nxb쎯ka쎯	-11.0898
edl쎯kc쎯	-11.0899
쎆q쎯yj쎯oda쎯j쎯jc쎯	-11.0899
oyll쎯	-11.09
hlk쎯	-11.09
ak쎯zmya쎯	-11.09
kcx쎯ch쎯	-11.0901
sk쎯rhko쎯	-11.0903
nk쎯vfd쎯	-11.0904
sjix쎯	-11.0904
a쎯edlc쎯g쎯	-11.0907
,uae쎯zo쎯	-11.0909
mfzs쎯ewj쎯	-11.0912
쎁쎀q쎯mc쎯,	-11.0914
suk쎯rhko쎯wdgq0쎯	-11.0915
ebu쎯	-11.0919
dzj쎯	-11.092
d쎯zbj쎯frz쎯	-11.092
zo쎯hdko쎯	-11.0921
ch쎯gd쎯	-11.0921
qsn쎯	-11.0921
쎅쎀edjr2쎯,	-11.0922
dep쎯	-11.0924
dex쎯fsv쎯az쎯	-11.0925
gdzn쎯ggky쎯,	-11.0926
쎁쎉e쎯zyy쎯	-11.0927
mblk쎯h쎯d쎯	-11.093
ld쎯vzj1쎯	-11.0934
sso쎯ob쎯	-11.0934
due쎯df쎯	-11.0935
a쎯gd쎯drr쎯	-11.0937
d쎯lco쎯nfa쎯	-11.0944
ggyy0쎯	-11.0945
rxx쎯	-11.0945
uae쎯eqg쎯	-11.0949
oiqm쎯edfd쎯	-11.0949
oml쎯)	-11.0952
smi쎯xek쎯	-11.0953
idjh쎯fsv쎯	-11.0953
vrez쎯wcs쎯	-11.0954
ucl쎯ym쎯	-11.0954
qdfk쎯	-11.0957
pm	-11.0957
nob쎯	-11.0957
ucq쎯ks쎯	-11.0957
ygqw쎯skw쎯	-11.0957
edj쎯bmrr쎯d쎯	-11.096
vwo쎯ggky쎯	-11.096
wh쎯oy쎯ho쎯	-11.0961
ehj쎯	-11.0961
nt쎯d쎯	-11.0962
rki쎯wdzf쎯	-11.0964
uddw쎯wdd쎯	-11.0964
jilw쎯sug쎯	-11.0964
szz쎯mbmo쎯ku쎯	-11.0966
쎁q쎯nmb쎯	-11.0966
um쎯jk쎯	-11.0967
kg쎯sukk쎯	-11.0967
odwg쎯yybd쎯ko쎯zl쎯	-11.0969
hma1쎯ywb쎯、	-11.0973
ko쎯bxgd쎯	-11.0977
sow쎯k쎯a쎯o쎯	-11.0978
aij쎯mbjk쎯d쎯	-11.098
cd쎯mbds쎯tirg쎯.	-11.0981
sm쎯le쎯	-11.0981
oz쎯ymo0쎯	-11.0983
rmx쎯xn쎯	-11.0986
gds1쎯vejq쎯	-11.0987
ihwz쎯	-11.0988
nh쎯ckb쎯sul쎯	-11.0989
、skd쎯	-11.0989
dubd쎯	-11.0989
쎁쎀쎃	-11.0993
qcq0쎯	-11.0993
ffb쎯ii쎯	-11.0995
,obd쎯	-11.0997
ym쎯rx쎯	-11.0998
osf쎯ejmf쎯	-11.0999
fl쎯zbj쎯oaj쎯d쎯	-11.0999
mekb쎯ym쎯	-11.0999
jdrt쎯》	-11.0999
쎈od쎯	-11.1
kdmk쎯vpd쎯	-11.1003
.쎁쎉쎉쎁mamb쎯	-11.1004
쎂쎀oz쎯kb쎯	-11.1005
kkv쎯lczs쎯	-11.1005
xoy쎯kd쎯	-11.1006
al쎯bm쎯	-11.1006
ua	-11.1006
ajk쎯sc쎯tel쎯、	-11.1011
zw쎯jaz쎯:	-11.1012
yaj0쎯dsu쎯	-11.1012
lah쎯》:“	-11.1013
h쎯no쎯	-11.1014
cd쎯an쎯	-11.1015
sm	-11.1016
mcd쎯rki쎯	-11.1016
d쎯b쎯nsu쎯	-11.1016
l쎯kak쎯	-11.1016
쎂쎀쎁쎃	-11.1018
bmm쎯szq쎯wdgq0쎯	-11.1019
ngr쎯mbrd쎯	-11.1019
rsj쎯xbkv1쎯	-11.1021
β	-11.1021
mbds쎯ad쎯	-11.1022
ay쎯au쎯uf쎯	-11.1022
giw쎯g쎯	-11.1022
gdq쎯wcj쎯	-11.1022
gj쎯sjy0쎯	-11.1023
liil쎯	-11.1027
gak쎯mmh쎯xyis쎯vb쎯	-11.1028
idkf쎯gj쎯	-11.1029
,rj쎯	-11.103
nfa쎯szq쎯byo쎯	-11.103
mbds쎯b쎯.	-11.1031
xj쎯ya쎯	-11.1031
tgs1쎯bdrd쎯	-11.1033
bi쎯nmi쎯sjy0쎯tl쎯	-11.1034
uf쎯,wdel쎯	-11.1035
xl쎯mdl쎯	-11.1036
gdq쎯rsj쎯d쎯	-11.1037
e쎯kion쎯fgi쎯	-11.104
sow쎯uanl쎯	-11.1042
ik쎯bii쎯	-11.1043
),k쎯	-11.1043
-쎄쎀	-11.1045
zb쎯flt쎯	-11.1046
y쎯a쎯drr쎯	-11.1047
xmrr0쎯ecp쎯	-11.1048
ey쎯km쎯	-11.1049
j쎯so쎯rsj쎯	-11.1051
dk쎯uaqk쎯	-11.1053
zj쎯ld쎯	-11.1053
mbrw쎯dgx쎯	-11.1054
쎈ggkb쎯uf쎯	-11.1054
kib쎯tgs1쎯qnk쎯	-11.1058
mamz1쎯nre쎯d쎯	-11.1059
my쎯,	-11.1061
yh쎯mc쎯	-11.1062
쎁쎇쎅	-11.1065
tib쎯xl쎯	-11.1066
rre쎯ku쎯ad쎯j쎯jc쎯	-11.1072
uozz쎯	-11.1072
hb쎯ad쎯	-11.1074
mtk쎯nfa쎯j쎯so쎯	-11.1075
zq쎯g쎯	-11.1076
oz쎯oy쎯	-11.1076
eyd쎯fsv쎯jjj쎯	-11.1077
obd쎯klzw쎯	-11.1078
vmr쎯tdrx쎯hdyd쎯	-11.1079
ae쎯ku쎯kd쎯tk쎯	-11.108
vdwy쎯dyx쎯》	-11.108
(쎁쎈쎈	-11.1081
dyeo쎯waz쎯d쎯	-11.1081
j쎯jirj쎯	-11.1081
od쎯nt쎯d쎯	-11.1082
vhp쎯vhp쎯	-11.1083
kr쎯i쎯	-11.1084
d쎯ucq쎯tdjr쎯	-11.1086
e쎯edfd쎯	-11.1088
ldm쎯aim쎯xmyj쎯	-11.1091
gd쎯vdwy쎯ynd쎯xmi쎯	-11.1092
d쎯sod쎯aij쎯	-11.1094
쎁쎉쎈쎈	-11.1095
dkc쎯ch쎯	-11.1096
vm쎯dgx쎯쎂	-11.1098
hdko쎯ll쎯	-11.1098
bhj쎯rsj쎯	-11.11
쎁쎉쎈쎀	-11.11
fq쎯bdzy쎯	-11.1102
,uae쎯ad쎯	-11.1104
ad쎯쎂쎀쎀쎁mamb쎯	-11.1104
vsm쎯kdml1쎯	-11.1104
zs쎯mfrk0쎯	-11.1106
txl쎯,	-11.1106
ll쎯ezr쎯	-11.1106
-쎁쎁	-11.1107
쎃쎂.	-11.1108
ス	-11.1108
mc쎯mbro쎯dex쎯fsv쎯	-11.1109
zgp쎯wdol쎯	-11.1109
yda쎯fdjy쎯	-11.111
rre쎯ku쎯ad쎯i쎯vm쎯	-11.1114
tg쎯vmw쎯l쎯ad쎯	-11.1115
af쎯slg쎯	-11.1118
ngr쎯ucgd쎯d쎯	-11.1119
tgij쎯)	-11.112
zl쎯nm쎯	-11.112
ke쎯sjqu쎯	-11.1121
rjry쎯	-11.1124
.쎁쎉쎈쎉mamb쎯	-11.1127
au쎯qda쎯	-11.1127
arsr쎯nx쎯	-11.1127
a쎯mbds쎯tirg쎯.	-11.1129
zizi쎯nij쎯	-11.1129
so쎯nr0쎯soo쎯vs쎯	-11.1131
sug쎯jjj쎯ae쎯z쎯	-11.1131
gdq쎯lcym쎯ad쎯	-11.1132
".	-11.1135
sul쎯ku쎯pxo쎯oi쎯	-11.1135
쎇q쎯zizi쎯mc쎯	-11.1135
ae쎯tlvm쎯	-11.1137
lw	-11.1137
wtxi쎯dfb쎯	-11.1138
.쎁쎉쎅쎈mamb쎯	-11.1139
glg쎯fdor쎯	-11.1141
wsl쎯mcek쎯	-11.1142
쎄ggkb쎯uf쎯	-11.1145
co쎯agd쎯	-11.1146
edj쎯bmrr쎯	-11.1146
vdwy쎯s쎯	-11.1146
uaol쎯my쎯	-11.1146
mebu쎯	-11.1146
bdzs1쎯wdgq0쎯、	-11.1147
fuz쎯plk쎯	-11.1148
쎃.쎇	-11.1152
oa쎯jirj쎯wh쎯	-11.1154
wtxi쎯vas쎯u쎯“	-11.1154
oy쎯kq쎯	-11.1155
ufc쎯vez쎯	-11.1158
ae쎯en쎯	-11.1159
gd쎯hbmo쎯	-11.1159
sl쎯gae쎯jl쎯	-11.116
va쎯lczs쎯	-11.116
fq쎯ckb쎯	-11.116
qi쎯wdgq0쎯	-11.1161
wxl쎯oisc쎯	-11.1161
,jiv쎯	-11.1162
yazo쎯ya쎯d쎯	-11.1163
,uae쎯gdq쎯	-11.1163
wdrr쎯nt쎯d쎯	-11.1165
ll쎯hdko쎯gd쎯vdwy쎯	-11.1166
う	-11.1167
쎅쎅쎀	-11.1168
、wdz쎯oc쎯	-11.1169
mtk쎯zrs쎯	-11.1173
udf	-11.1174
qdos쎯noo쎯	-11.1174
tb쎯fdyy쎯	-11.1176
hgo쎯	-11.1176
wr쎯ku쎯mc쎯sug쎯	-11.1177
h쎯jl쎯.	-11.1178
vgk쎯	-11.1179
h쎯nrj1쎯	-11.1179
jdrt쎯xyis쎯wdhb쎯	-11.1179
aij쎯fxo쎯dx쎯	-11.118
nr0쎯vdwy쎯mzv쎯	-11.1181
,hdko쎯kdmk쎯	-11.1181
uflc쎯tib쎯	-11.1181
d쎯fu쎯ya쎯	-11.1182
iai쎯rko쎯	-11.1183
ucq쎯tdjr쎯,	-11.1185
》od쎯mbro쎯wa쎯a쎯.	-11.1186
ll쎯ooj쎯	-11.119
ai1쎯maed1쎯	-11.119
쎃—	-11.1192
gdq쎯tgxi쎯	-11.1192
od쎯brt쎯zimo쎯oda쎯	-11.1194
bxmk쎯	-11.1199
《vx쎯xyis쎯·	-11.1199
nuy쎯	-11.1201
fb쎯fav쎯	-11.1203
nl쎯lcym쎯	-11.1205
kk쎯dpd쎯	-11.1208
tlke쎯fsw쎯y쎯	-11.1209
gd쎯tgg쎯	-11.121
rj쎯hbi쎯	-11.1212
n쎯giw쎯	-11.1213
ago쎯kgd쎯	-11.1215
gdee쎯qux쎯	-11.1215
jdjl쎯fsc쎯aep쎯	-11.1215
wr쎯nmi쎯mbro쎯.	-11.1215
xn쎯kag쎯	-11.1216
sc쎯f쎯u쎯	-11.122
suk쎯som쎯	-11.122
skx쎯kak쎯	-11.1221
vbi쎯ho쎯	-11.1224
ybo쎯	-11.1224
pkq쎯nij쎯u쎯a쎯nfa쎯	-11.1224
lr쎯hbkd쎯	-11.1224
d쎯bju쎯pvgx쎯	-11.1225
vnug쎯vv쎯	-11.1225
zmxb쎯ceug쎯	-11.1226
mzg쎯	-11.1226
vdwy쎯fsv쎯ob쎯sso쎯	-11.1232
,wdrr쎯d쎯	-11.1234
edy쎯ld쎯	-11.1234
njf쎯dwm쎯ho쎯	-11.1234
sjl쎯hini쎯	-11.1237
쎁쎀ay쎯	-11.1237
gkq쎯	-11.1238
sjl쎯pdel쎯kak쎯	-11.124
bhv쎯njb쎯	-11.1241
xbby쎯sq쎯bi쎯mfjc쎯	-11.1243
fl쎯pdxs쎯	-11.1243
zizi쎯ryi쎯d쎯	-11.1245
gdq쎯uag쎯d쎯	-11.1246
uaqk쎯ark쎯	-11.1248
gi쎯ufzp쎯odyk쎯sf쎯	-11.1249
zkml쎯	-11.1249
ufzm쎯me쎯	-11.1251
ch쎯sy쎯aep쎯	-11.1251
rly쎯setg쎯	-11.1251
zx쎯ggym쎯y쎯	-11.1255
ucnd쎯dwm쎯	-11.1255
wsp쎯	-11.1256
udjw쎯bi쎯ob쎯	-11.1257
erf쎯erez쎯hi쎯	-11.1259
;쎄、	-11.126
쎀쎀jh쎯	-11.1261
whi쎯dsw쎯	-11.1261
boyj쎯bxm쎯	-11.1261
rf쎯nar쎯》	-11.1262
fwoj쎯	-11.1264
zo쎯fj쎯	-11.1265
lopx쎯	-11.1267
zbj쎯ku쎯	-11.1267
sya쎯sbx쎯	-11.1272
xkc쎯pvwx쎯	-11.1273
쎅쎀odmf쎯	-11.1273
ucl쎯mekb쎯	-11.1276
쎃쎀%	-11.1277
egs쎯	-11.1278
eol쎯	-11.1279
xi쎯ee쎯	-11.1281
vs쎯oi쎯d쎯	-11.1283
sor쎯saii쎯	-11.1284
yji쎯mblk쎯	-11.1284
oda쎯vdwy쎯	-11.1285
wdaj쎯mc쎯	-11.1286
sul쎯l쎯	-11.1286
쎁쎉쎉쎁	-11.1287
heoo쎯kom쎯	-11.1287
heoo쎯yji쎯	-11.1292
jiwb쎯	-11.1293
,odw쎯	-11.1294
xe쎯ob쎯	-11.1294
ufzm쎯dx쎯zhm쎯	-11.1294
fofg쎯	-11.1296
,vsc쎯mekb쎯	-11.1296
gds1쎯wsl쎯	-11.1298
jjj쎯jb쎯	-11.1298
ル	-11.1298
d쎯fq쎯ob쎯	-11.1299
dq쎯rid쎯ckb쎯	-11.13
쎁쎉쎈쎅	-11.1301
yb쎯kb쎯	-11.1304
ncds1쎯zhm쎯	-11.1307
ga쎯vki쎯nr0쎯bi쎯	-11.1308
sf쎯mc쎯	-11.1309
kro쎯ad쎯	-11.131
gan쎯tl쎯sli쎯	-11.1315
vcq쎯ckb쎯	-11.1319
bix쎯kmc쎯zym쎯	-11.1319
odjg1쎯	-11.1321
gi쎯zj쎯	-11.1321
tird쎯zo쎯	-11.1322
hbz쎯aeb쎯	-11.1323
u쎯ecb쎯gzz쎯,	-11.1324
aks쎯cejo쎯	-11.1327
tk쎯yajl쎯	-11.1328
fb쎯sjo쎯	-11.1329
wtxi쎯ark쎯u쎯	-11.1329
쎇쎂쎀	-11.133
vdwy쎯z쎯xe쎯xl쎯	-11.133
bmrr쎯fpx쎯	-11.1331
ty	-11.1333
mtk쎯udke쎯,	-11.1334
wdtg쎯mbro쎯	-11.1334
qb쎯vki쎯	-11.1334
fav쎯fds쎯	-11.1334
tff쎯vki쎯	-11.1336
쎆～	-11.1339
qgs쎯	-11.1339
woqy쎯	-11.1339
nl쎯yav쎯	-11.1342
ckb쎯um쎯	-11.1343
～쎂	-11.1345
zizi쎯pjl쎯	-11.1345
wdo쎯rko쎯	-11.1345
ucnd쎯are쎯ku쎯	-11.1346
pxe쎯io쎯	-11.1347
ob쎯xe쎯	-11.1347
,edl쎯odwy쎯	-11.1348
dpv쎯nsc쎯	-11.1349
qkm쎯	-11.1352
vcq쎯af쎯	-11.1354
iiko쎯foy쎯	-11.1355
rza쎯rkv쎯木sn쎯	-11.1358
ebo쎯ewoj쎯	-11.1358
vzn쎯bsy쎯	-11.136
bdzy쎯ym쎯vdwy쎯	-11.1365
fxh쎯fsw쎯	-11.1365
agd쎯ya쎯	-11.1367
ehn쎯hb쎯	-11.1367
xsxs쎯fsz쎯	-11.1367
ldo쎯cdv쎯	-11.1368
ersw쎯en쎯	-11.1371
oiv쎯mc쎯	-11.1371
ajk쎯sc쎯tel쎯.	-11.1371
gd쎯aeb쎯odii쎯ku쎯	-11.1371
쎀mamb쎯)	-11.1372
dvw쎯	-11.1373
sn쎯oc쎯,	-11.1376
쎁.쎉	-11.1376
jc쎯mcek쎯	-11.1377
odxi쎯miwa쎯d쎯	-11.1377
jjjf쎯bxm쎯	-11.138
zni쎯rko쎯	-11.138
d쎯fjw쎯t쎯	-11.138
herr쎯	-11.1382
cexg0쎯oaj쎯	-11.1382
ga쎯elgd쎯	-11.1383
nao쎯	-11.1383
ekkw쎯klzw쎯	-11.1386
쎅.쎆	-11.1386
biaz쎯zmkm쎯	-11.1388
wwgs쎯	-11.1388
쎁쎉쎈쎆	-11.1388
nc쎯wz쎯	-11.1389
nji1쎯ehsr쎯	-11.139
vea쎯skw쎯d쎯	-11.1393
dex쎯fsv쎯od쎯dm쎯	-11.1395
,giw쎯k쎯	-11.1396
oixo쎯yji쎯d쎯	-11.1398
ynd쎯pdw쎯d쎯	-11.1399
vki쎯epf쎯	-11.1399
d쎯oos쎯suf쎯	-11.14
rj쎯sy쎯gj쎯	-11.1402
h쎯kf쎯tirg쎯	-11.1403
zef쎯odnd쎯	-11.1403
lob쎯	-11.1403
쎀sjwm쎯mev쎯	-11.1405
kv쎯tdrl1쎯vg쎯	-11.1407
쎀lbj쎯mamb쎯	-11.1407
pdam쎯pdas쎯cdv쎯	-11.1407
쎄.쎈	-11.1409
zxk쎯b쎯	-11.141
biqw쎯gm쎯	-11.1413
udlk쎯wtxi쎯	-11.1416
ec쎯n쎯um쎯zq쎯	-11.1417
wtry쎯	-11.1417
hdyd쎯wdtg쎯	-11.142
gae쎯z쎯、mc쎯sug쎯、	-11.1421
쎀%	-11.1421
ecr쎯	-11.1422
od쎯tdro쎯	-11.1423
enu쎯	-11.1423
zjq쎯	-11.1424
wa쎯ucgd쎯	-11.1425
dex쎯fsv쎯jl쎯	-11.1425
od쎯brt쎯	-11.1425
쎆.쎀	-11.1426
mfwm쎯xyis쎯ch쎯、	-11.1429
dsz쎯ucl쎯	-11.1431
tfm쎯dmh쎯he쎯	-11.1431
xro쎯rhko쎯	-11.1433
fxcm쎯fkml1쎯	-11.1433
etfg쎯eze쎯	-11.1434
cirx쎯kz쎯	-11.1434
oy쎯fpd1쎯、	-11.1435
wdgq0쎯kb쎯	-11.1435
ajk쎯sc쎯tel쎯,	-11.1437
vkl쎯mfj쎯	-11.144
pvf쎯ssy쎯	-11.1443
d쎯zbj쎯kf쎯	-11.1445
nhl쎯	-11.1445
a쎯me쎯	-11.1447
uffg쎯	-11.1447
um쎯non쎯rr쎯	-11.1449
(쎁쎇	-11.145
bdz쎯	-11.145
wh쎯jddm쎯	-11.1451
bdrd쎯mamb쎯(	-11.1451
pxe쎯	-11.1453
pdxs쎯“jby1쎯zdfk쎯	-11.1454
sq쎯rki쎯mfj쎯	-11.1455
mbow쎯	-11.1456
zizi쎯oi쎯	-11.1457
쎇od쎯,	-11.1457
d쎯gdsw쎯t쎯	-11.1458
bd쎯ed쎯lk쎯	-11.146
nsr쎯tdro쎯	-11.1462
zo쎯oisc쎯	-11.1463
nr1쎯nt쎯	-11.1464
fds쎯zym쎯	-11.1464
pi쎯gae쎯	-11.1467
mw쎯ckb쎯mblk쎯t쎯	-11.1468
mfji쎯fel쎯ku쎯	-11.1469
tib쎯gd쎯	-11.147
쎁쎅oz쎯kb쎯	-11.1471
skx쎯u쎯	-11.1471
wdh쎯	-11.1471
ajx쎯ku쎯d쎯	-11.1472
dkml쎯	-11.1472
pvz쎯	-11.1474
ym쎯t쎯	-11.1475
gd쎯nl쎯rgs쎯	-11.1475
tgb쎯pe쎯	-11.1478
pyl쎯	-11.1478
ldo쎯idju쎯	-11.1479
al쎯slg쎯	-11.1479
/쎄	-11.1479
쎈쎀쎂.쎁	-11.1483
biys쎯	-11.1485
p쎯ebm쎯	-11.1488
vki쎯my쎯	-11.1488
uaqk쎯ark쎯qnk쎯	-11.1489
fob쎯vl쎯sq쎯rki쎯	-11.1489
bmm쎯wdhb쎯、	-11.149
(/)	-11.149
mfrk0쎯jmua쎯	-11.1491
bi쎯mfjc쎯bg쎯la쎯	-11.1492
쎁쎉쎈쎁	-11.1496
mbbd쎯nkmw쎯	-11.1496
ggnk쎯bdkv쎯d쎯	-11.1497
gi쎯kq쎯	-11.1498
oy쎯ywb쎯	-11.1499
vfb0쎯hdko쎯	-11.1504
wdrj쎯wdgq0쎯	-11.1504
soc쎯pfxb쎯	-11.1505
nsu쎯ad쎯j쎯jc쎯	-11.1505
ffv쎯j쎯	-11.1508
쎄.쎂	-11.1508
bdzs1쎯ku쎯um쎯	-11.1508
wdtg쎯xo쎯wdhb쎯、	-11.151
쎂쎀o쎯	-11.1514
ko쎯pe쎯	-11.1514
nh쎯jaz쎯	-11.1517
wd쎯non쎯	-11.1519
ry쎯jby1쎯	-11.152
,da쎯mbjw쎯	-11.152
uc쎯ldoo쎯	-11.152
a쎯xyis쎯	-11.152
ucnd쎯bmrr쎯	-11.1521
wmyd쎯odsx쎯	-11.1521
sk쎯ubk쎯	-11.1524
kdxz쎯kdxz쎯	-11.1525
h쎯mamb쎯	-11.1525
sbm쎯nxma쎯	-11.1526
ae쎯dgv쎯odyk쎯sf쎯	-11.1527
txi쎯ewy1쎯	-11.1528
z쎯kq쎯bdzs1쎯mfkd쎯	-11.1529
쎂rsj쎯	-11.1531
eyj0쎯	-11.1533
xa쎯rko쎯	-11.1533
vdwy쎯ob쎯ob쎯jl쎯,	-11.1534
wdel쎯kolm쎯	-11.1534
tgob1쎯fga쎯	-11.1534
sq쎯sed쎯ywb쎯	-11.1536
jyms쎯ynd쎯	-11.1542
xkc쎯sod쎯	-11.1542
mfj쎯kld쎯	-11.1544
r쎯mamb쎯mc쎯	-11.1545
kv쎯vg쎯	-11.1546
slg쎯ya쎯	-11.1547
ri쎯vhv쎯	-11.1547
aku쎯gds1쎯	-11.1549
ed쎯qd쎯	-11.155
al쎯bg쎯	-11.1551
paj0쎯od쎯	-11.1552
mazy쎯a쎯nsu쎯	-11.1555
wmx쎯	-11.1555
wsb쎯ob쎯som쎯uaol쎯	-11.1556
epk쎯	-11.1556
qgr쎯zj쎯	-11.1557
oa쎯gd쎯	-11.1563
ae쎯z쎯sul쎯	-11.1565
jd쎯gl쎯	-11.1566
nrg쎯odte쎯	-11.1567
gdd쎯oiad쎯	-11.1567
bdol쎯hkd쎯mfj쎯	-11.1568
hma1쎯ty쎯jjg쎯fhe쎯	-11.1571
к	-11.1572
a쎯mwl쎯	-11.1572
rkw쎯	-11.1574
rsj쎯jz쎯	-11.1574
loux쎯	-11.1578
yms쎯tgva쎯l쎯	-11.1578
쎁쎉쎈쎄	-11.1578
aim쎯vzj1쎯mfz쎯jl쎯	-11.1579
gi쎯ufzp쎯b쎯	-11.1579
udyz쎯udyz쎯	-11.158
し	-11.1582
gae쎯woqy쎯”	-11.1583
ffv쎯ku쎯xmyj쎯	-11.1584
eczy쎯wdrb쎯	-11.1586
ad쎯쎂쎀쎀쎀mamb쎯	-11.1589
sno쎯aij쎯	-11.159
в	-11.1592
cejo쎯zq쎯sjy0쎯tl쎯	-11.1592
j쎯odnd쎯	-11.1593
sc쎯f쎯kia쎯	-11.1593
mbds쎯qyx쎯rsym쎯	-11.1594
xkq쎯	-11.1594
zw쎯wdki0쎯	-11.1595
skw쎯bwz쎯	-11.1596
dyj쎯sul쎯yzi쎯	-11.1598
kcso쎯	-11.1598
fwmi쎯	-11.1599
hwl쎯	-11.16
vb쎯sbx쎯	-11.1602
《uag쎯ad쎯	-11.1605
jixo쎯ygqw쎯	-11.1606
ay쎯ski1쎯,	-11.1607
,gi쎯zq쎯	-11.1609
,mbrd쎯	-11.161
xsig쎯dyx쎯	-11.161
jdfb쎯	-11.1611
xyis쎯》:“	-11.1612
mc쎯sug쎯dex쎯fsv쎯	-11.1617
,dw쎯ky쎯	-11.1618
myz쎯a쎯nsu쎯	-11.162
〗	-11.1621
j쎯ka쎯	-11.1624
,cgi쎯bskr쎯ngr쎯	-11.1624
쎂쎅쎀edjr2쎯	-11.1626
ym	-11.1628
〖	-11.1628
vwr쎯zwan쎯	-11.1629
ec쎯oos쎯	-11.163
zpa쎯rly쎯	-11.1631
fr쎯rko쎯	-11.1634
mw쎯ckb쎯vdwy쎯	-11.1636
쎁쎂쎁	-11.1639
”skx쎯mfji쎯	-11.1639
edjr2쎯qyx쎯	-11.1639
uooj쎯idju쎯	-11.164
vry쎯vaf쎯	-11.1641
·yaj0쎯	-11.1643
uee쎯	-11.1643
bu쎯gd쎯	-11.1643
sja쎯ubi쎯	-11.1643
jhx쎯odsx쎯	-11.1644
nl쎯ns쎯	-11.1644
kd쎯pji쎯	-11.1647
ufzm쎯vdwy쎯mzv쎯	-11.1648
nr0쎯lczs쎯	-11.1648
ed쎯bix쎯mamb쎯	-11.1649
nl쎯bdkv쎯kv쎯	-11.1649
ya쎯udyz쎯	-11.165
aek쎯xaj쎯	-11.165
ery쎯	-11.165
rj쎯yybe쎯	-11.165
eb쎯ete쎯	-11.1652
zizi쎯z쎯,	-11.1654
bju쎯pvgx쎯d쎯	-11.1656
d쎯zx쎯ldeo쎯	-11.1656
zkic쎯	-11.1657
쎆쎅쎀	-11.1657
va쎯fj쎯	-11.1658
odyk쎯ymo0쎯d쎯	-11.1659
fds쎯kb쎯	-11.166
jaj쎯	-11.1663
uosj쎯	-11.1664
aep쎯la쎯	-11.1665
an쎯yji쎯	-11.1666
uoai쎯kg쎯	-11.1666
oy쎯oi쎯	-11.1667
snk쎯kak쎯	-11.1667
plx쎯baa쎯	-11.1667
dkc쎯lw쎯	-11.1673
kz쎯vg쎯miwa쎯fdyy쎯	-11.1674
maa쎯mwl쎯ko쎯s쎯	-11.1674
bsj쎯snd쎯cuc쎯	-11.1678
pxo쎯tirg쎯	-11.168
idj쎯b쎯gj쎯mfjo쎯쎂	-11.1681
、kcx쎯	-11.1681
d쎯ucq쎯tdjr쎯ai1쎯	-11.1681
a쎯sya쎯	-11.1682
:ldod쎯le쎯	-11.1683
ko쎯vsm쎯xhm쎯	-11.1683
fx쎯uaol쎯	-11.1683
쎁쎉쎇쎈	-11.1684
bmm쎯vdwy쎯h쎯kf쎯	-11.1684
dmh쎯bdzw쎯	-11.1685
bb쎯hbi쎯	-11.1686
쎂쎇쎀	-11.1686
edyy1쎯la쎯	-11.1688
bi쎯sul쎯xmyj쎯	-11.1688
gds1쎯wdd쎯	-11.1689
biym쎯bdod쎯	-11.1691
.sc쎯f쎯odod쎯ajx쎯	-11.1692
wa쎯wtyd쎯	-11.1697
,hdko쎯az쎯	-11.1697
pfxb쎯so쎯:	-11.1699
hm	-11.1699
쎅ay쎯	-11.1699
edfd쎯wdrj쎯	-11.17
쎉oz쎯kb쎯	-11.1704
mfwm쎯xyis쎯ch쎯,	-11.1707
llow쎯edl쎯	-11.1709
.wdrr쎯d쎯	-11.171
bdzs1쎯ku쎯od쎯dm쎯	-11.171
sug쎯ku쎯z쎯xe쎯	-11.1711
sli쎯ch쎯	-11.1711
fdmj쎯idol쎯	-11.1711
zmym쎯vki쎯	-11.1713
cgi쎯cdv쎯	-11.1713
wym쎯bskr쎯	-11.1717
ks쎯mfym쎯all쎯d쎯	-11.1717
pvgx쎯rko쎯uabd쎯	-11.1717
qd쎯mfji쎯	-11.1718
yu쎯mek쎯	-11.1718
nmi쎯kk쎯wdgq0쎯	-11.1719
h쎯u쎯j쎯jc쎯	-11.1719
pl쎯fdm쎯	-11.172
fq쎯fhe쎯bi쎯ku쎯	-11.172
zimo쎯hbkd쎯	-11.1721
edj쎯pe쎯	-11.1723
sjwm쎯edjr2쎯	-11.1723
sh	-11.1723
ucgd쎯zmya쎯d쎯	-11.1725
hbz쎯si쎯	-11.1727
bil쎯、jb쎯ufc쎯	-11.1729
smid쎯	-11.1732
fmz쎯ciz쎯	-11.1733
oz쎯yaj1쎯sug쎯jjj쎯	-11.1734
llzz0쎯boy쎯	-11.1734
ll쎯ai1쎯	-11.1735
《jos쎯syy1쎯·	-11.1735
miwa쎯tgva쎯taii쎯	-11.1737
biqd쎯jdej쎯	-11.1737
ywb쎯ywb쎯baa쎯	-11.1738
xo쎯saii쎯	-11.1738
tird쎯odwg쎯	-11.174
sau쎯rr쎯	-11.1741
irc쎯wdmi쎯	-11.1743
,rrk쎯g쎯	-11.1743
by쎯	-11.1747
zizi쎯ryi쎯	-11.1748
mbds쎯tirg쎯쎁bg쎯	-11.1748
gdq쎯idju쎯	-11.1748
xxsi쎯	-11.1751
zx쎯vsnd쎯xbby쎯sq쎯	-11.1753
d쎯mbbd쎯armk쎯	-11.1754
,edjm쎯mfrk0쎯	-11.1756
,k쎯a쎯wdgq0쎯nif쎯	-11.1756
wa쎯smr쎯	-11.1756
edfd쎯mbro쎯ywb쎯	-11.1756
udjr쎯	-11.1757
uanl쎯z쎯	-11.1758
maxg쎯idju쎯	-11.1758
zmxl0쎯	-11.1759
lk쎯gj쎯	-11.1761
ynd쎯xbkv1쎯	-11.1762
sed쎯mc쎯	-11.1764
aii쎯q쎯	-11.1765
edjq쎯fia쎯	-11.1765
cexs쎯rsj쎯	-11.1767
ryi쎯ciz쎯	-11.1769
ci쎯lczs쎯	-11.1772
yh쎯ajx쎯	-11.1772
ggkw쎯skw쎯	-11.1772
edl쎯lga쎯	-11.1773
qi쎯lco쎯	-11.1774
gdw쎯h쎯	-11.1775
gi쎯mw쎯	-11.1778
csc쎯idju쎯	-11.1779
쎃쎀odmf쎯	-11.1779
ox쎯l쎯.	-11.178
xbuo쎯mazm쎯t쎯	-11.1782
쎃.쎄	-11.1784
zyy쎯oixb1쎯	-11.1784
m쎯km쎯	-11.1785
쎁쎅o쎯	-11.1785
zgp쎯baz쎯xyis쎯	-11.1785
,쎁쎉쎈쎅mamb쎯	-11.1785
baa쎯pdao쎯	-11.1785
tgxi쎯》:“	-11.1785
(bzs쎯	-11.1788
shb쎯jdrt쎯	-11.1788
jfb쎯pvyz쎯	-11.1789
jx쎯	-11.1789
kv쎯vs쎯	-11.1789
vgy쎯ciq쎯	-11.179
zym쎯tdrl1쎯pdel쎯	-11.179
jgb쎯jc쎯	-11.1791
ld쎯nbd쎯	-11.1793
sl쎯shb쎯	-11.1793
ux쎯fjw쎯z쎯xe쎯	-11.1796
wxl쎯he쎯	-11.1798
,sc쎯db쎯	-11.1798
zbj쎯mle쎯	-11.1799
cgi쎯jirj쎯	-11.1799
wsl쎯oos쎯	-11.1799
tli쎯hdko쎯	-11.1799
쎅oz쎯kb쎯,	-11.18
vwq쎯vwd쎯	-11.18
zgp쎯yj쎯dsw쎯	-11.18
gmsr쎯bizi쎯	-11.18
zs쎯mcd쎯	-11.1801
mbds쎯b쎯,	-11.1802
isos쎯	-11.1802
uz쎯	-11.1802
geko쎯	-11.1804
쎉쎀쎀쎁:쎂쎀쎀쎀	-11.1804
wa쎯.”	-11.1805
kojr쎯xbby쎯	-11.1805
gi쎯zmya쎯	-11.1806
myz쎯qy쎯xki쎯	-11.1807
iirr쎯b쎯	-11.1807
yh쎯aim쎯xmyj쎯	-11.1809
grko쎯	-11.181
mc쎯ufoy쎯	-11.1811
wtxi쎯sod쎯u쎯k쎯	-11.1814
haj쎯ci쎯	-11.1814
sfl쎯	-11.1814
oixo쎯sjl쎯	-11.1816
tdrz쎯gdsw쎯	-11.1817
d쎯kcx쎯sjl쎯	-11.1817
ch쎯co쎯sli쎯	-11.1819
bpxs쎯	-11.1819
kdmp쎯kojl1쎯	-11.1819
rhys쎯tgs1쎯	-11.182
bdod쎯axz쎯	-11.182
zw쎯waz쎯d쎯	-11.1822
vske쎯vdnd쎯	-11.1823
uaqk쎯gj쎯	-11.1823
mzv쎯ark쎯、	-11.1824
myz쎯a쎯drr쎯	-11.1826
쎁쎉쎂쎄mamb쎯	-11.1829
nmh쎯sbx쎯	-11.1829
udjw쎯sug쎯nel쎯	-11.1833
dsz쎯tdgd쎯	-11.1834
zm쎯wsk쎯	-11.1834
か	-11.1835
dhx쎯	-11.1839
,soo쎯wxl쎯sy쎯nak쎯	-11.184
od쎯ja쎯쎁	-11.1841
wdo	-11.1842
eao쎯shlq쎯	-11.1842
lme쎯lyh쎯	-11.1843
qyx쎯rsym쎯ku쎯	-11.1844
ecek쎯	-11.1844
zj쎯ai1쎯:	-11.1845
쎅—	-11.1845
ory쎯mfj쎯	-11.1846
ucu쎯sxo쎯	-11.1849
kk쎯eyd쎯	-11.1849
ggym쎯jos쎯mzv쎯	-11.1851
qf쎯pdel쎯	-11.1852
nrg쎯nlj쎯	-11.1853
》;	-11.1855
tgs1쎯en쎯tgxi쎯	-11.1859
uo쎯uorn쎯	-11.186
zni쎯gaj쎯	-11.1861
anr쎯agd쎯	-11.1861
zizi쎯np쎯kd쎯tk쎯:	-11.1863
ch쎯cds쎯	-11.1864
gae쎯woqy쎯ae쎯z쎯	-11.1865
ag쎯cizy쎯	-11.1865
d쎯od쎯mc쎯	-11.1867
쎄쎀odmf쎯	-11.187
xsb쎯b쎯	-11.187
쎁쎀쎈쎀	-11.1871
uba쎯ujd쎯	-11.1872
ffv쎯byo쎯	-11.1872
vmg쎯rko쎯	-11.1875
fq쎯he쎯	-11.1875
eyo쎯hehb0쎯	-11.1875
ggym쎯mamb쎯	-11.1876
sor쎯ebm쎯	-11.1876
sjl쎯fb쎯tdni쎯	-11.1877
edj쎯fid쎯	-11.1878
sf쎯j쎯jc쎯h쎯su쎯	-11.188
njf쎯wd쎯	-11.1881
z쎯xe쎯hbkd쎯	-11.1881
lwbq쎯	-11.1884
oz쎯kb쎯jhx쎯sol쎯	-11.1885
ezr쎯fdm쎯	-11.1885
wdml쎯wtxi쎯	-11.1888
ㄒ	-11.189
uou	-11.1891
mbjw쎯non쎯	-11.1891
kg쎯vg쎯	-11.1892
smr쎯vsm쎯ho쎯	-11.1894
xmyj쎯gj쎯	-11.1896
zhm쎯mfjc쎯	-11.1897
fq쎯aeb쎯	-11.1897
ys쎯wbi쎯	-11.1899
wd쎯kak쎯	-11.19
cgi쎯bskr쎯j쎯	-11.1901
idj쎯b쎯쎁	-11.1903
oiln쎯	-11.1903
sl쎯jb쎯ufte쎯	-11.1904
쎁쎃o쎯	-11.1904
rxw쎯dvm쎯	-11.1905
mc쎯vdwy쎯ggym쎯,	-11.1906
zcl쎯som쎯	-11.1906
ai1쎯bzs쎯	-11.1907
fjw쎯sv쎯	-11.1907
쎁쎉쎈쎇	-11.1908
ka쎯syy1쎯	-11.1909
rly쎯suj쎯	-11.1909
gi쎯mbds쎯	-11.1911
ga쎯fdm쎯	-11.1912
a쎯bd쎯	-11.1912
.wxl쎯kojl0쎯	-11.1913
zgp쎯yj쎯oc쎯jc쎯	-11.1914
zx쎯ewj쎯fekg쎯hbi쎯	-11.1914
쎈ski1쎯	-11.1918
nb쎯uagw0쎯	-11.1919
u쎯l쎯wm쎯dk쎯neo쎯	-11.1923
agd쎯dm쎯	-11.1923
、sed쎯mle쎯fq쎯	-11.1925
nil쎯wdrb쎯	-11.1925
j쎯jc쎯nb쎯zs쎯	-11.1928
mbds쎯rj쎯ufgd쎯	-11.193
,tirr쎯odwy쎯	-11.193
vpm쎯	-11.1933
oy쎯ho쎯	-11.1934
baz쎯saii쎯	-11.1934
mc쎯ar쎯	-11.1934
”nne쎯	-11.1936
osf쎯od쎯	-11.1936
vyn쎯	-11.1937
ywb쎯baa쎯	-11.1937
mise쎯ldeo쎯》、《	-11.1938
hdko쎯ho쎯	-11.194
쎃q쎯nmb쎯	-11.194
setg쎯iai쎯jjg쎯	-11.1941
sc쎯da쎯	-11.1943
dsjk쎯	-11.1943
uow쎯	-11.1944
bhv쎯bbjj쎯	-11.1944
yj쎯wdml쎯	-11.1949
veeq쎯vdnd쎯	-11.195
cizy쎯um쎯	-11.1951
eyd쎯fsv쎯kion쎯	-11.1951
sl쎯ckb쎯	-11.1951
rf쎯zso쎯	-11.1951
イ	-11.1952
vki쎯qrk쎯	-11.1952
vmr쎯vrf쎯	-11.1954
myz쎯ed쎯xki쎯	-11.1956
bk쎯evyy쎯um쎯	-11.1957
쎁쎃쎄	-11.1957
bimo쎯uag쎯	-11.1957
쎁uf쎯	-11.1958
aiaj쎯nor쎯rr쎯aku쎯	-11.196
bjj쎯vao쎯	-11.196
쎁쎅ka쎯	-11.1961
u쎯《	-11.1961
cd쎯ed쎯mamb쎯	-11.1963
gdzn쎯eww쎯	-11.1963
bmu쎯sjqu쎯	-11.1964
tgva쎯x쎯	-11.1964
skx쎯bdzy쎯	-11.1964
wtxi쎯j쎯jc쎯	-11.1966
ajk쎯xyis쎯syy1쎯,	-11.1966
mfae쎯	-11.1968
jsz쎯	-11.1968
fmk쎯vv쎯	-11.1969
kojl0쎯sjqu쎯	-11.1969
tird쎯h쎯u쎯	-11.197
cd쎯od쎯	-11.1973
vhv쎯cexg0쎯	-11.1975
yt쎯um쎯	-11.1975
쎅×	-11.1977
jmh쎯	-11.1979
ykl쎯	-11.1979
kz쎯kskp쎯ey쎯	-11.1981
sjl쎯ciz쎯pdel쎯	-11.1981
zlc쎯zbk쎯	-11.1982
p쎯fg쎯d쎯	-11.1982
쎁쎀q쎯zizi쎯mc쎯,	-11.1982
gae쎯nir쎯	-11.1984
zrs쎯edyy2쎯	-11.199
eng쎯eow쎯	-11.1991
kz쎯fy쎯	-11.1991
dew쎯	-11.1995
qdos쎯pvf쎯	-11.1996
wd쎯kd쎯	-11.1996
udaj쎯hma1쎯	-11.1998
gaj쎯snow쎯	-11.2
mbro쎯ckb쎯mzv쎯	-11.2001
쎄jaz쎯	-11.2001
쎁쎂q쎯mc쎯,	-11.2002
hd쎯ed쎯	-11.2003
oixo쎯xn쎯	-11.2003
ecb쎯fav쎯i쎯	-11.2004
쎄.쎃	-11.2004
mbds쎯a쎯mzv쎯ark쎯	-11.2006
.쎁쎉쎃쎄mamb쎯	-11.2006
쎅q쎯zizi쎯mc쎯	-11.2007
zw쎯zjo쎯	-11.2007
vhv쎯nif쎯	-11.2012
gd쎯qso쎯	-11.2015
ldm쎯rsym쎯mw쎯ckb쎯	-11.2016
vkm쎯vxn쎯	-11.2017
mdl쎯lr쎯	-11.2017
wdya쎯nfa쎯	-11.2021
ndgo쎯oel쎯	-11.2023
hi쎯io쎯	-11.2024
lh쎯	-11.2024
deq쎯i쎯	-11.2025
edy쎯ob쎯kojl0쎯	-11.2026
sso쎯jl쎯	-11.203
ciq쎯pld쎯	-11.2032
dn쎯zizi쎯y쎯	-11.2033
tgxj쎯ll쎯	-11.2036
.쎁쎉쎈쎀mamb쎯	-11.2037
yi쎯sj쎯	-11.2037
lkrs쎯vx쎯	-11.2039
쎀r쎯ski1쎯	-11.2039
.aep쎯woj쎯	-11.2039
tl쎯ri쎯	-11.204
.eg쎯	-11.204
,na쎯ec쎯	-11.2041
udjw쎯gj쎯mfjo쎯쎁	-11.2041
ggym쎯kd쎯	-11.2042
zimo쎯xbkv1쎯y쎯	-11.2043
oy쎯ae쎯	-11.2043
fvff쎯	-11.2044
soo쎯bdzm쎯	-11.2046
dsz쎯oda쎯	-11.2049
pxo쎯fjvv쎯	-11.2049
jos쎯vdwy쎯	-11.2051
aii쎯grl쎯d쎯	-11.2051
qqx쎯ch쎯	-11.2051
zl쎯xbby쎯d쎯	-11.2051
uanw쎯lco쎯	-11.2052
nif쎯kiay쎯	-11.2053
ubi쎯jk쎯	-11.2054
-쎅쎀	-11.2057
pa쎯wdjg쎯	-11.2057
edx쎯fsc쎯	-11.2061
쎀쎀쎀r쎯au쎯sy쎯uf쎯	-11.2062
nc쎯sjl쎯	-11.2063
scq쎯aks쎯	-11.2066
pkq쎯oisc쎯	-11.2068
arm쎯	-11.2068
—)	-11.2071
vbj쎯tdrx쎯	-11.2071
wml쎯au쎯	-11.2073
en쎯wwrd쎯	-11.2074
oc쎯nfa쎯jl쎯bi쎯	-11.2074
vwj쎯ad쎯kv쎯	-11.2075
edl쎯ps쎯	-11.2076
nir쎯ckb쎯	-11.2076
waj쎯baa쎯	-11.2077
vkk쎯vtc쎯	-11.2078
zlc쎯zlc쎯	-11.208
al쎯nsu쎯	-11.208
dw쎯pxby쎯	-11.2081
hj쎯ec쎯n쎯	-11.2082
쎁쎆o쎯	-11.2085
쎆ggkb쎯uf쎯	-11.2085
tirg쎯、	-11.2086
smi쎯kag쎯	-11.2086
◇	-11.2087
쎁쎁q쎯mc쎯,	-11.209
rli쎯de쎯xmue쎯	-11.2093
nil쎯dwo쎯	-11.2094
dji쎯	-11.2096
c쎯gdq쎯cejo쎯bi쎯	-11.2096
ugo쎯uso쎯	-11.2098
bd쎯ed쎯e쎯zyy쎯	-11.2098
ymo0쎯ckb쎯smr쎯	-11.2098
bi쎯mfjc쎯kal쎯、	-11.21
nb쎯·	-11.21
xmg쎯	-11.2101
wtxi쎯nkw쎯	-11.2101
tg쎯gd쎯l쎯wm쎯	-11.2104
fbk쎯	-11.2105
%;	-11.2106
c쎯odsx쎯	-11.2107
j쎯d쎯tgva쎯l쎯	-11.2108
vhv쎯zw쎯	-11.2108
xld쎯	-11.2111
alb쎯yj쎯	-11.2112
dsw쎯r쎯	-11.2116
grl쎯wd쎯u쎯	-11.2117
jos쎯·	-11.2117
fj쎯ps쎯	-11.2117
biqd쎯	-11.2118
udlk쎯u쎯	-11.212
udlk쎯dka쎯nmb쎯	-11.2121
drk1쎯wd쎯d쎯	-11.2122
iirr쎯tdro쎯	-11.2123
kb쎯aku쎯	-11.2123
nre쎯ll쎯	-11.2125
fbj쎯	-11.2126
uouo쎯taii쎯	-11.2126
+쎂	-11.2128
joa쎯rko쎯vwp쎯sli쎯	-11.2128
vwo쎯ggky쎯d쎯	-11.2128
gdq쎯ryi쎯pa쎯xmi쎯	-11.2129
va쎯pe쎯	-11.2129
wdlc쎯vao쎯	-11.213
bix쎯an쎯	-11.2132
uflc쎯ufjw쎯	-11.2132
j쎯hma1쎯ywb쎯	-11.2132
wdgq0쎯fds쎯	-11.2133
ubk쎯kmc쎯	-11.2133
쎂쎅쎀쎀	-11.2134
tgob1쎯ev쎯g쎯	-11.2137
gae쎯woqy쎯》、《	-11.2137
sok쎯eej쎯	-11.2139
odyk쎯nmy쎯	-11.2139
hb쎯odsx쎯g쎯	-11.2143
mbbd쎯ho쎯	-11.2145
4	-11.2146
,uae쎯az쎯	-11.2146
fel쎯wtxi쎯	-11.2148
jddm쎯ch쎯	-11.2148
kojl0쎯nsc쎯od쎯ja쎯	-11.215
ufoy쎯gso쎯	-11.2153
eru쎯en쎯	-11.2153
zm쎯baa쎯	-11.2155
ceug쎯swl쎯ob쎯	-11.2155
nej쎯sed쎯	-11.2157
k쎯e쎯kion쎯i쎯	-11.2158
d쎯zm쎯rd쎯	-11.2158
b쎯cirh쎯	-11.2159
tgby쎯ywb쎯	-11.216
mamb쎯(oz쎯bdrd쎯	-11.216
zza쎯zlb쎯	-11.2162
nfa쎯szq쎯owy쎯	-11.2163
쎁/쎄	-11.2163
ja쎯lga쎯	-11.2165
kwh쎯	-11.2166
jdj쎯bdkv쎯	-11.2167
wdz쎯oc쎯um쎯	-11.2169
ewu쎯kg쎯	-11.2171
kr쎯ob쎯	-11.2172
b쎯mfz쎯	-11.2175
dbo쎯db쎯	-11.2176
,k쎯jc쎯ldod쎯	-11.2177
edl쎯slg쎯	-11.2178
??	-11.2178
bi쎯tgxi쎯	-11.2178
woj쎯mfjo쎯sv쎯	-11.218
neo쎯zoa쎯	-11.218
vab쎯od쎯	-11.2181
e쎯nh쎯	-11.2183
vb쎯、	-11.2183
gds1쎯ggnk쎯sli쎯	-11.2184
l쎯wm쎯dk쎯neo쎯	-11.2187
la쎯xbkv1쎯ai1쎯	-11.2187
pnc쎯	-11.2187
rsj쎯fs쎯	-11.219
a쎯zsj쎯	-11.219
ec쎯n쎯mbbd쎯idju쎯	-11.2192
tgg쎯wjr쎯	-11.2194
ll쎯kv쎯akz쎯	-11.2194
.udlk쎯g쎯	-11.2196
zxk쎯nr0쎯sv쎯	-11.2198
bmm쎯dpw1쎯、edfd쎯	-11.2198
ω	-11.2199
zw쎯mlgz1쎯	-11.2199
쎆ski1쎯	-11.2199
cd쎯rl쎯vv쎯	-11.22
oi쎯aim쎯ho쎯	-11.22
쎅.쎁	-11.2201
pm쎯gtg쎯	-11.2202
gl쎯sa쎯,	-11.2202
uxb쎯mbro쎯	-11.2203
sij쎯bii쎯g쎯	-11.2204
s쎯kq쎯:	-11.2205
xly쎯xc쎯	-11.2208
wb쎯zmya쎯	-11.2208
kmy쎯	-11.221
cejo쎯ku쎯dex쎯zq쎯	-11.221
nnr쎯	-11.221
vmi쎯mlka쎯	-11.221
oda쎯nsc쎯	-11.2213
rj쎯bg쎯bi쎯nmi쎯	-11.2215
zb쎯fia쎯	-11.2215
ldm쎯aim쎯sjy0쎯	-11.2216
ldo쎯sij쎯xbby쎯sq쎯	-11.2218
heqk쎯oda쎯vb쎯	-11.2218
oc쎯mamb쎯	-11.222
l쎯wms쎯	-11.2222
na쎯l쎯cds쎯odjy쎯	-11.2223
gdq쎯al쎯o쎯	-11.2227
qgk쎯mblk쎯	-11.2227
.zizi쎯rid쎯	-11.2227
guz쎯byo쎯	-11.2228
sjy0쎯kld쎯xyis쎯	-11.2228
vor쎯	-11.223
qgr쎯gds1쎯	-11.223
hbz쎯oda쎯	-11.2231
yms쎯rj쎯mfji쎯	-11.2234
fjai쎯vbj쎯	-11.2235
szr쎯oy쎯mfkd쎯l쎯	-11.2238
are쎯	-11.2239
boy쎯ngs쎯	-11.224
mxv쎯	-11.224
쎀odmf쎯mwl쎯	-11.2243
wxl쎯dsw쎯쎉쎀쎀쎁	-11.2245
ay쎯su쎯sy쎯uf쎯	-11.2247
wa쎯idjh쎯	-11.2247
gdiy쎯sm쎯	-11.2248
ch쎯kd쎯tk쎯	-11.2248
ncl쎯rsym쎯	-11.2249
tg쎯kz쎯	-11.2251
bzs쎯yom쎯	-11.2251
wd쎯nlj쎯	-11.2253
qqx쎯fx쎯	-11.2253
np쎯akz쎯	-11.2253
heoo쎯ch쎯	-11.2256
drs쎯dsq쎯	-11.2257
vqj쎯lga쎯	-11.2257
fb쎯syy1쎯	-11.2259
쎈au쎯sy쎯oz쎯kb쎯,	-11.226
a쎯tk쎯	-11.226
sjl쎯nrs쎯	-11.2261
p쎯oiad쎯	-11.2261
baa쎯vdwy쎯nsu쎯;	-11.2261
zpa쎯ukl쎯	-11.2263
mfkd쎯mfjr0쎯	-11.2268
zrs쎯edyy2쎯·	-11.2268
xbds쎯aks쎯	-11.2269
kg쎯zhm쎯	-11.2269
gd쎯vdwy쎯fav쎯	-11.227
gl쎯wtxi쎯	-11.227
ai1쎯sy쎯	-11.2274
paj0쎯nh쎯	-11.2275
fq쎯fhe쎯bi쎯mfjc쎯	-11.2275
ahi쎯er쎯	-11.2276
hew쎯ch쎯	-11.2278
qu쎯ev쎯	-11.2278
bdzs1쎯u쎯	-11.2279
yt쎯noo쎯	-11.2279
vg쎯lczs쎯	-11.228
sjl쎯sf쎯ho쎯	-11.228
eag쎯vejq쎯	-11.2281
dyb쎯haz쎯	-11.2282
so쎯nr0쎯mfjc쎯t쎯	-11.2283
jxn쎯	-11.2285
eoy쎯uabd쎯	-11.2286
c쎯nmb쎯j쎯eao쎯	-11.2287
bdzs1쎯ch쎯	-11.2287
od쎯brt쎯cbn쎯b쎯쎀.	-11.2288
a쎯rf쎯gm쎯	-11.2289
hbz쎯bdzy쎯	-11.229
vqf쎯ryi쎯nfa쎯	-11.229
d쎯a쎯bg쎯	-11.2294
a쎯zym쎯bmm쎯kal쎯	-11.2298
gi쎯sor쎯	-11.2301
nmh쎯jc쎯	-11.2304
pa쎯ph쎯	-11.2305
sjl쎯md쎯	-11.2306
pdal쎯yk쎯	-11.2306
wdy쎯hb쎯	-11.2306
쎃쎈쎀	-11.2306
cemy쎯bhv쎯	-11.2308
ae쎯xe쎯y쎯	-11.2309
jlc쎯	-11.231
dek쎯	-11.2312
vdwy쎯rsj쎯:	-11.2313
mftr쎯odob쎯	-11.2314
ya쎯yako쎯	-11.2315
uo쎯pjl쎯	-11.2315
all쎯vbi쎯	-11.2316
ku쎯u쎯sc쎯.	-11.2317
쎉쎀쎀쎀	-11.2319
oaj쎯vb쎯fx쎯uaol쎯	-11.2319
kcx쎯r쎯d쎯	-11.232
ym쎯yji쎯	-11.232
laz쎯	-11.2323
kojf쎯	-11.2324
fdm쎯ufte쎯:	-11.2325
lbj쎯aek쎯	-11.2326
bil쎯fdor쎯	-11.2329
aim쎯vb쎯gd쎯vdwy쎯	-11.2329
phw쎯dsz쎯	-11.2329
vnku쎯	-11.233
nb쎯vqf쎯ta쎯	-11.2331
sul쎯od쎯	-11.2331
lw쎯dpd쎯	-11.2332
yms쎯ec쎯wdrr쎯	-11.2335
myz쎯쎇	-11.2335
ufc쎯vez쎯d쎯	-11.2336
mfte쎯bmm쎯	-11.2337
oc쎯fds쎯hecj쎯	-11.2337
ylc쎯ii쎯	-11.2338
kz쎯woj쎯	-11.2339
fdyy쎯zo쎯	-11.234
so쎯od쎯	-11.2341
ㄌ	-11.2342
xsig쎯rki쎯	-11.2343
evfd쎯nx쎯	-11.2343
gdq쎯zhm쎯kz쎯wlr쎯	-11.2344
odod쎯ku쎯od쎯jl쎯	-11.2344
plrs쎯	-11.2346
nhbu쎯	-11.235
kair쎯	-11.2351
sow쎯yc쎯iai쎯	-11.2353
tfn쎯fsv쎯	-11.2355
mfk쎯ufte쎯	-11.2355
b쎯bxgd쎯	-11.2355
nmb쎯odjy쎯	-11.2357
tdgd쎯z쎯	-11.2357
kdxz쎯rxw쎯	-11.2358
,udjw쎯dqx쎯tdrl1쎯	-11.236
loa쎯bwq쎯	-11.2361
oz쎯uag쎯	-11.2362
skfr쎯	-11.2364
》(쎁쎉	-11.2364
zsmb쎯	-11.2364
[...]
