[UNK]	0
[PAD]	0
[CLS]	0
[SEP]	0
[MASK]	0
▁̇ㄉㄜ1쎯	-3.63316
,	-3.64402
.	-4.04629
、	-4.19806
ㄏㄜˊ2쎯	-5.14191
ㄗㄞˋ1쎯	-5.51379
ㄨㄟˊ0쎯	-5.51825
ㄓㄨㄥ0쎯	-5.59368
ㄕˋ15쎯	-5.6426
▁̇ㄌㄜ쎯	-5.66066
ㄧㄡˇ1쎯	-5.77969
(	-5.80789
▁̇ㄉㄜ0쎯	-5.81743
ㄩˇ0쎯	-5.84625
ㄖㄣˊ0쎯	-5.88705
:	-5.89952
ㄉㄥˇ0쎯	-5.99106
《	-6.01126
ㄉㄚˋ쎯	-6.04143
;	-6.05707
)	-6.08228
ㄕㄤˇ0쎯	-6.14485
ㄓ0쎯	-6.24374
ㄓㄨㄥ0쎯ㄍㄨㄛˊ0쎯	-6.27968
ㄧˇ2쎯	-6.33016
ㄐㄧˊ0쎯	-6.34345
”	-6.35409
“	-6.38108
ㄧ0쎯	-6.42162
ㄉㄚˋ쎯ㄒㄩㄝˊ1쎯	-6.43409
ㄅㄨˋ0쎯	-6.44187
ㄩˊ0쎯	-6.4799
ㄕˋ4쎯	-6.60021
ㄏㄡˋ0쎯	-6.6225
ㄕㄨㄟˇ쎯	-6.62593
ㄒㄧㄢˋ0쎯	-6.64156
ㄕㄢ0쎯	-6.66362
ㄒㄧㄥˋ2쎯	-6.68711
ㄏㄨㄛˋ0쎯	-6.69149
ㄍㄠ0쎯	-6.69328
ㄒㄧㄠˇ0쎯	-6.69676
》	-6.74041
ㄉㄨㄟˋ1쎯	-6.74874
ㄗˇ0쎯	-6.75693
쎂	-6.75927
ㄍㄨㄢˇ1쎯ㄌㄧˇ3쎯	-6.76542
ㄙㄢ0쎯	-6.77344
쎃	-6.77536
ㄒㄧㄚˋ0쎯	-6.77697
ㄦˊ1쎯	-6.78401
ㄍㄨㄥ2쎯ㄙ0쎯	-6.79654
ㄍㄨㄥ0쎯ㄗㄨㄛ0쎯	-6.80901
·	-6.81892
ㄩㄥˋ0쎯	-6.82063
ㄕˊ1쎯	-6.83137
ㄒㄧㄣ5쎯	-6.83525
ㄡ0쎯	-6.84561
쎁	-6.85943
ㄐㄧˋ2쎯ㄕㄨˋ0쎯	-6.87331
ㄉㄠˋ0쎯	-6.8903
ㄉㄨㄛ0쎯	-6.89588
ㄔㄨ0쎯	-6.89943
ㄐㄧㄚ3쎯	-6.91707
-	-6.91934
ㄔㄤˊ0쎯	-6.91957
ㄊㄧㄢ0쎯	-6.92342
ㄐㄧㄤ1쎯	-6.94203
ㄅㄟˋ5쎯	-6.95124
ㄋㄟˋ쎯	-6.96158
ㄓㄨㄢ0쎯ㄧㄝˋ0쎯	-6.96437
ㄙㄨㄛˇ0쎯	-6.96589
ㄕㄥ1쎯	-6.97103
ㄓˋ0쎯	-7.00575
ㄧㄢˊ6쎯ㄐㄧㄡ1쎯	-7.03053
ㄔㄥˊ0쎯	-7.03612
ㄇㄧㄥˊ0쎯	-7.04143
ㄏㄨㄟˋ2쎯	-7.04307
ㄑㄧˇ2쎯ㄧㄝˋ0쎯	-7.0464
ㄨㄣˊ0쎯	-7.05128
쎄	-7.06199
ㄨㄟˋ2쎯ㄩˊ0쎯	-7.06914
ㄏㄨㄚˋ0쎯	-7.07011
ㄔㄢˇ0쎯ㄆㄧㄣˇ쎯	-7.07088
ㄧㄡˊ1쎯	-7.07296
ㄑㄧˊ1쎯	-7.08188
ㄘㄨㄣ0쎯	-7.0852
ㄒㄧㄢˋ2쎯ㄍㄨㄥ2쎯ㄙ0쎯	-7.09606
ㄒㄧ1쎯	-7.09921
ㄇㄛˊ0쎯	-7.10424
ㄎㄜˇ0쎯	-7.10899
ㄓㄣˋ3쎯	-7.11372
ㄅㄣˇ0쎯	-7.11796
ㄨㄤˊ1쎯	-7.12259
ㄒㄩㄝˊ1쎯	-7.13084
ㄒㄩㄝˊ1쎯ㄩㄢˋ2쎯	-7.13313
ㄋㄚ1쎯	-7.13557
ㄦˋ0쎯	-7.1451
ㄨㄣˊ0쎯ㄏㄨㄚˋ0쎯	-7.14836
ㄌㄧˇ2쎯	-7.16399
ㄐㄧㄣ3쎯	-7.16642
ㄐㄧㄠ6쎯ㄩˋ3쎯	-7.16932
/	-7.17485
ㄈㄚˇ0쎯	-7.18074
ㄌㄞˊ0쎯	-7.1822
ㄈㄚ쎯ㄓㄢˇ2쎯	-7.19053
ㄘㄨㄥˊ0쎯	-7.19144
ㄐㄧˋ3쎯ㄊㄨㄥˇ0쎯	-7.19563
ㄐㄧㄥ2쎯ㄐㄧˇ3쎯	-7.19847
ㄏㄞˇ0쎯	-7.20633
ㄌㄨˋ5쎯	-7.20764
쎅	-7.20989
ㄍㄨㄛˊ0쎯	-7.21154
ㄅㄨˋ4쎯	-7.21898
ㄈㄣ0쎯	-7.22379
ㄓㄜˇ0쎯	-7.22428
4쎯	-7.22478
ㄍㄨㄛˊ0쎯ㄐㄧㄚ3쎯	-7.22739
ㄒㄧㄤ0쎯	-7.23485
ㄉㄨㄥ0쎯	-7.23718
ㄏㄨㄚ0쎯	-7.23744
,ㄕˋ15쎯	-7.23965
ㄈㄨˊ5쎯ㄨˋ2쎯	-7.25127
ㄉㄢˋ0쎯	-7.2536
2쎯	-7.26342
ㄓㄨㄥ0쎯ㄒㄧㄣ0쎯	-7.27031
ㄉㄜˊ1쎯	-7.27065
ㄍㄨㄛˊ0쎯ㄐㄧˋ5쎯	-7.27392
ㄕㄥ1쎯ㄔㄢˇ0쎯	-7.28037
ㄅㄧㄥ1쎯	-7.28816
ㄔㄥˊ4쎯	-7.28833
ㄒㄧㄣ0쎯	-7.29027
ㄑㄧㄢˊ0쎯	-7.29907
()	-7.29952
ㄧㄝˇ0쎯	-7.30081
ㄋㄧㄢˊ0쎯	-7.30481
ㄊㄧ0쎯	-7.31067
ㄙˋ1쎯	-7.31506
ㄕㄥˇ0쎯	-7.3312
ㄍㄨㄥ0쎯ㄔㄥˊ7쎯	-7.33164
ㄎㄜ2쎯	-7.34304
쎆	-7.34943
ㄇㄚˇ0쎯	-7.3505
ㄧ0쎯ㄍㄜˇ0쎯	-7.35702
ㄒㄩㄝˊ1쎯ㄐㄧㄠˋ2쎯	-7.35703
ㄐㄧㄣˋ0쎯ㄏㄤˊ0쎯	-7.36048
ㄌㄨㄥˊ0쎯	-7.37348
ㄊㄚ0쎯	-7.38243
ㄕㄜˋ0쎯ㄐㄧˋ0쎯	-7.38371
ㄢ0쎯	-7.38454
ㄉㄡ0쎯	-7.38505
쎈	-7.3897
ㄆㄧㄥˊ0쎯	-7.39188
ㄊㄡˊ0쎯	-7.39254
ㄓㄨˇ0쎯ㄧㄠ4쎯	-7.39436
ㄖˋ0쎯	-7.39479
ㄑㄩㄢˊ1쎯ㄍㄨㄛˊ0쎯	-7.3979
ㄨˇ0쎯	-7.40157
ㄏㄤˊ0쎯	-7.40248
ㄗˋ0쎯	-7.40286
ㄅㄞˊ0쎯	-7.40405
ㄉㄠˋ3쎯	-7.41109
ㄨㄞˋ쎯	-7.41469
ㄖㄣˊ3쎯	-7.42005
.”	-7.43352
3쎯	-7.44623
5쎯	-7.44796
ㄇㄧㄥˊ1쎯	-7.44907
ㄇㄣˊ0쎯	-7.45444
ㄑㄧㄥ5쎯	-7.45864
,ㄗㄞˋ1쎯	-7.46363
쎇	-7.4649
ㄕˋ5쎯	-7.46679
ㄐㄧㄢˋ2쎯ㄓㄨˋ10쎯	-7.46849
1쎯	-7.47631
ㄍㄨㄛ0쎯	-7.49339
ㄋㄥˊ쎯	-7.49648
ㄐㄧ6쎯	-7.4965
ㄇㄧㄢˋ0쎯	-7.49652
쎁쎀	-7.49938
ㄏㄜˊ3쎯	-7.50412
ㄕㄜˋ1쎯ㄏㄨㄟˋ2쎯	-7.50446
ㄖㄨˋ0쎯	-7.50681
ㄌㄧㄣˊ1쎯	-7.50747
ㄍㄨㄤ0쎯	-7.51213
ㄅㄟˇ쎯	-7.51854
ㄌㄧㄤˇ0쎯	-7.51854
ㄏㄨㄚˊ1쎯	-7.51991
ㄉㄧ2쎯ㄍㄨㄥ5쎯	-7.52029
ㄈㄥ1쎯	-7.52228
ㄓㄠ2쎯	-7.52603
ㄐㄧㄥ2쎯	-7.52919
ㄐㄧˋ3쎯	-7.53453
ㄏㄨㄤˊ1쎯	-7.5365
ㄗㄨㄥˇ0쎯	-7.53713
6쎯	-7.53791
ㄒㄧㄢˋ3쎯	-7.54179
ㄌㄧˋ0쎯	-7.54499
ㄎㄡˇ쎯	-7.54711
ㄊㄜˋ0쎯	-7.55646
》、《	-7.55685
ㄒㄧㄥˊ2쎯	-7.55725
ㄏㄨㄥˊ1쎯	-7.56637
"	-7.59301
ㄇㄛˋ0쎯	-7.59548
ㄍㄜˋ0쎯	-7.59593
ㄘㄨㄥˊ0쎯ㄕˋ8쎯	-7.5996
▁̇ㄉㄜ0쎯ㄡ0쎯	-7.60529
ㄏㄠˇ0쎯	-7.60533
ㄇㄟˇ1쎯	-7.60587
ㄓㄤ0쎯	-7.61006
ㄩㄢˊ0쎯	-7.61063
ㄐㄩˋ2쎯ㄧㄡˇ1쎯	-7.61077
ㄗㄨㄟˋ0쎯	-7.61376
ㄊㄨㄥ0쎯	-7.6146
ㄅㄟˇ쎯ㄐㄧㄥ1쎯	-7.61686
ㄒㄧㄝˊ1쎯ㄏㄨㄟˋ2쎯	-7.61881
ㄈㄚ쎯	-7.62204
ㄒㄧㄤˋ1쎯ㄇㄨˋ1쎯	-7.62293
ㄔㄨㄥˊ2쎯	-7.62377
ㄐㄧㄢˋ2쎯ㄕㄜˋ0쎯	-7.62396
ㄎㄞ0쎯	-7.62505
ㄍㄨˇ0쎯	-7.62583
ㄗㄨㄛ0쎯	-7.63049
ㄎㄜˋ0쎯	-7.63225
ㄓㄡ1쎯	-7.63875
ㄩㄢˊ4쎯	-7.64618
ㄐㄧ12쎯	-7.64742
ㄒㄧㄝˊ0쎯	-7.6491
ㄐㄧㄠ6쎯ㄒㄩㄝˊ1쎯	-7.65006
ㄉㄚˊ1쎯	-7.65069
ㄐㄧˊ8쎯	-7.65561
ㄓㄥ0쎯	-7.65652
ㄑㄧˋ0쎯	-7.65694
ㄕㄡˇ0쎯	-7.66239
ㄐㄧㄤ0쎯	-7.66295
ㄎㄜ2쎯ㄐㄧˋ2쎯	-7.67483
ㄧˇ2쎯ㄐㄧˊ0쎯	-7.67633
ㄐㄩㄣ0쎯	-7.67645
ㄉㄧㄢˇ1쎯	-7.67648
ㄊㄞ0쎯	-7.6786
ㄕㄨˇ1쎯	-7.68181
ㄈㄤ0쎯	-7.68379
ㄖㄨˊ0쎯	-7.6844
),	-7.69005
ㄑㄩㄢˊ1쎯	-7.69047
ㄨㄤˇ0쎯ㄌㄠˋ0쎯	-7.691
ㄨㄤˇ0쎯	-7.69306
ㄊㄨㄥˊ0쎯	-7.69381
ㄕㄨ0쎯	-7.69454
7쎯	-7.69574
ㄌㄟˋ2쎯	-7.69888
ㄑㄧˇ4쎯	-7.69992
ㄉㄜˊ0쎯	-7.7018
쎉	-7.70493
ㄒㄧㄤ1쎯	-7.70642
ㄕˋ3쎯ㄐㄧㄝˋ3쎯	-7.71185
ㄏㄨㄢˊ0쎯ㄐㄧㄥˋ7쎯	-7.71578
ㄒㄧㄤˋ0쎯	-7.71716
ㄒㄧㄣˋ0쎯ㄒㄧ7쎯	-7.72228
ㄉㄨˋ2쎯	-7.72247
ㄓˇ4쎯	-7.73039
ㄐㄧㄡˋ4쎯	-7.73446
ㄕˇ2쎯ㄩㄥˋ0쎯	-7.73551
ㄕㄣˊ1쎯	-7.73812
ㄔㄨˇ0쎯	-7.73922
ㄧˋ2쎯ㄕㄨˋ0쎯	-7.74093
,ㄧˇ2쎯	-7.74098
,ㄅㄧㄥ1쎯	-7.74367
ㄎㄜˇ0쎯ㄧˇ2쎯	-7.74387
ㄍㄨㄥ2쎯	-7.74722
ㄙ4쎯	-7.74738
쎁쎂	-7.74886
ㄅㄧㄥˋ0쎯	-7.7489
ㄐㄧㄚ0쎯	-7.75066
ㄉㄤ0쎯	-7.7553
ㄔㄜ0쎯	-7.75703
ㄎㄜ2쎯ㄒㄩㄝˊ1쎯	-7.75895
ㄖㄜˋ쎯	-7.76121
ㄨㄛˇ쎯	-7.76127
ㄓˋ3쎯	-7.76293
ㄌㄧˋ6쎯	-7.7641
8쎯	-7.76453
ㄌㄧˇ1쎯	-7.76489
ㄑㄩˋ0쎯	-7.76565
ㄨㄟˇ5쎯ㄩㄢˊ2쎯ㄏㄨㄟˋ2쎯	-7.76908
ㄇㄧˇ0쎯	-7.76932
ㄍㄨㄥ0쎯	-7.77509
ㄧㄠ4쎯	-7.77631
ㄆㄧㄢ0쎯	-7.77895
ㄗㄨˇ1쎯ㄓ9쎯	-7.78042
”.	-7.78081
ㄊㄨˇ0쎯	-7.78313
》:“	-7.7905
ㄧㄡˊ4쎯	-7.79287
ㄕ2쎯	-7.79754
ㄕㄨㄤ0쎯	-7.7986
ㄧㄚˋ1쎯	-7.80091
ㄦˇ0쎯	-7.80141
ㄅㄧㄠ0쎯ㄓㄨㄣˇ0쎯	-7.81131
ㄊㄨˊ0쎯	-7.82064
ㄌㄧㄡˊ3쎯	-7.82424
ㄕㄤˇ0쎯ㄏㄞˇ0쎯	-7.82473
ㄓㄨˇ0쎯	-7.82584
ㄩㄣˊ0쎯	-7.82792
ㄘㄢ0쎯ㄐㄧㄚ0쎯	-7.82948
ㄌㄠˇ0쎯	-7.83049
ㄍㄨㄢˇ1쎯	-7.83057
ㄓㄥˋ3쎯ㄈㄨˇ3쎯	-7.83173
ㄩˊ3쎯	-7.83333
ㄕㄨˇ5쎯	-7.83338
ㄗˋ1쎯	-7.83503
ㄇㄨˋ0쎯	-7.83616
ㄨㄟˋ2쎯	-7.83914
ㄒㄧㄢˋ1쎯ㄉㄞˋ0쎯	-7.8394
ㄖㄣˊ0쎯,	-7.83973
ㄊㄨㄥ0쎯ㄍㄨㄛ0쎯	-7.84058
ㄑㄧㄥ0쎯	-7.84551
ㄐㄧㄢˋ2쎯	-7.84552
ㄐㄧㄣˋ1쎯	-7.84571
ㄉㄧˋ3쎯ㄧ0쎯	-7.85204
ㄑㄧˋ7쎯	-7.85433
ㄞˋ1쎯	-7.85443
ㄌㄚ1쎯	-7.85788
ㄉㄞˋ1쎯	-7.86269
ㄧˇ1쎯	-7.86356
ㄒㄧㄤ2쎯	-7.86476
ㄔㄨㄥˊ1쎯	-7.86669
ㄌㄨㄛˊ0쎯	-7.86695
ㄙㄜˋ0쎯	-7.8681
ㄧㄤˊ2쎯	-7.86894
ㄖㄣˊ0쎯ㄇㄧㄣˊ0쎯	-7.86953
ㄕㄥ1쎯ㄏㄨㄛˊ0쎯	-7.87098
ㄕˋ3쎯	-7.87126
ㄏㄠˊ0쎯	-7.87297
ㄎㄞ0쎯ㄈㄚ쎯	-7.87297
ㄗˋ0쎯ㄐㄧˇ0쎯	-7.8755
ㄔㄥˊ4쎯ㄕˋ4쎯	-7.87788
ㄋㄩˇ0쎯	-7.87912
ㄈㄤˊ3쎯	-7.88208
ㄇㄟˇ1쎯ㄍㄨㄛˊ0쎯	-7.88519
ㄅㄧˋ2쎯ㄧㄝˋ0쎯ㄩˊ0쎯	-7.88593
9쎯	-7.88614
ㄕˋ4쎯ㄔㄤˊ1쎯	-7.89257
ㄍㄢ0쎯	-7.89681
ㄖㄣˊ0쎯.	-7.89757
ㄔㄥˊ0쎯ㄨㄟˊ0쎯	-7.90142
ㄅㄚˇ0쎯	-7.90751
ㄧㄡˋ0쎯	-7.90754
ㄍㄨㄢ2쎯	-7.90891
ㄐㄧˊ2쎯	-7.91122
ㄐㄧˊ8쎯ㄊㄨㄢˊ0쎯	-7.91153
ㄓㄨˋ7쎯ㄇㄧㄥˊ0쎯	-7.91206
ㄘˇ0쎯	-7.91856
ㄕㄣ2쎯	-7.91919
ㄕㄜˋ0쎯ㄅㄟˋ2쎯	-7.91919
ㄌㄧㄡˋ0쎯	-7.92408
ㄎㄚˇ0쎯	-7.92414
ㄧㄣ0쎯	-7.92556
ㄓㄢˋ2쎯	-7.92842
ㄒㄩㄝˊ1쎯ㄒㄧˊ0쎯	-7.93072
ㄆㄧˊ0쎯	-7.93292
쎂쎀	-7.93499
ㄍㄨㄥ0쎯ㄧㄝˋ0쎯	-7.94
ㄅㄧˇ1쎯	-7.94222
ㄋㄧˇ1쎯	-7.94225
ㄍㄞ0쎯	-7.94717
ㄧㄠ2쎯	-7.94975
ㄌㄧㄤˊ3쎯	-7.95238
ㄕˋ8쎯	-7.95355
ㄏㄨㄚˋ1쎯	-7.95538
ㄋㄨㄥˊ0쎯ㄧㄝˋ0쎯	-7.95679
ㄐㄧㄢ4쎯	-7.95968
ㄍㄜˇ1쎯	-7.96022
ㄐㄩˊ0쎯	-7.96025
ㄩㄝˋ0쎯	-7.96113
ㄅㄨˋ0쎯ㄊㄨㄥˊ0쎯	-7.96165
ㄏㄨㄛˋ2쎯	-7.96497
ㄓㄡ2쎯	-7.96905
ㄈㄨˋ8쎯	-7.97004
ㄕˇ2쎯	-7.97193
ㄌㄧˋ3쎯	-7.9733
ㄗㄨㄟˋ0쎯ㄉㄚˋ쎯	-7.97935
ㄉㄧㄢˋ0쎯	-7.98385
ㄩㄥ1쎯ㄧㄡˇ1쎯	-7.98572
ㄏㄢˋ0쎯	-7.98721
ㄍㄜˋ0쎯ㄔㄨㄥˊ1쎯	-7.98959
ㄧㄡˊ5쎯ㄒㄧˋ0쎯	-7.99197
ㄕ3쎯	-7.9934
ㄒㄧㄢ1쎯ㄐㄧㄣˋ0쎯	-7.99477
ㄔㄣˊ5쎯	-7.99499
ㄊㄧㄢˊ0쎯	-7.99878
ㄒㄩㄝˊ1쎯ㄕㄥ1쎯	-8.00564
ㄖˋ0쎯ㄅㄣˇ0쎯	-8.01248
ㄏㄨㄛˊ0쎯ㄉㄨㄥˋ0쎯	-8.01293
ㄕㄨㄟˋ0쎯	-8.01345
ㄨˇ3쎯	-8.01584
ㄐㄧ13쎯	-8.01792
!	-8.01859
ㄐㄧㄣˋ0쎯	-8.02057
ㄐㄧㄠ6쎯	-8.02547
ㄨˋ3쎯	-8.02779
ㄍㄨㄥ3쎯ㄋㄥˊ쎯	-8.02784
ㄔㄢˊ0쎯	-8.02819
,ㄨㄟˊ0쎯	-8.0307
ㄘㄥˊ0쎯	-8.03168
ㄧ3쎯ㄩㄢˋ2쎯	-8.03199
ㄔㄤˊ1쎯	-8.03204
ㄕㄣ5쎯	-8.03403
ㄓㄨㄥ0쎯ㄒㄩㄝˊ1쎯	-8.03706
ㄉㄧㄢˋ0쎯ㄗˇ0쎯	-8.03791
ㄉㄨㄟˋ0쎯	-8.04177
ㄅㄚ0쎯	-8.0418
ㄐㄧㄠ0쎯ㄊㄨㄥ0쎯	-8.0464
ㄘㄠˇ쎯	-8.04746
ㄐㄧㄢˋ0쎯	-8.04909
ㄐㄩㄢˇ0쎯	-8.04986
ㄗㄨㄛˋ2쎯	-8.04999
ㄎㄞ0쎯ㄕˇ3쎯	-8.05014
ㄅㄠˇ1쎯	-8.05078
0쎯	-8.05084
ㄏㄤˊ0쎯ㄧㄝˋ0쎯	-8.05124
ㄏㄨˊ5쎯	-8.05213
ㄒㄧㄥˊ1쎯	-8.05259
ㄒㄧㄥ1쎯	-8.05717
ㄐㄧㄚ0쎯ㄖㄨˋ0쎯	-8.06082
ㄉㄧㄥˋ1쎯	-8.06097
ㄐㄧˊ4쎯	-8.0642
ㄕㄥ2쎯	-8.06569
ㄌㄜˋ0쎯	-8.06867
쎁쎁	-8.07036
ㄖㄨㄢˇ0쎯ㄐㄧㄢˋ1쎯	-8.07089
ㄓ1쎯ㄔˊ4쎯	-8.07204
ㄗㄨㄛ0쎯ㄆㄧㄣˇ쎯	-8.0721
ㄏㄨㄛˇ0쎯	-8.07343
ㄏㄨㄟˊ0쎯	-8.0743
ㄓㄨㄤˋ1쎯	-8.07509
ㄔㄨㄢˊ0쎯	-8.07613
ㄔㄢˊ0쎯ㄨㄟˋ2쎯	-8.07627
ㄩˇ6쎯	-8.07738
ㄖㄣˊ0쎯ㄩㄢˊ2쎯	-8.07869
ㄧㄡ0쎯ㄒㄧㄡˋ0쎯	-8.07871
ㄐㄧㄝ0쎯	-8.08379
ㄓˋ4쎯ㄌㄧㄤˊ3쎯	-8.08386
ㄩˋ0쎯	-8.08415
ㄏㄟ0쎯	-8.08418
ㄊㄨㄢˊ0쎯	-8.08541
쎁쎅	-8.08568
ㄌㄧㄢˊ0쎯	-8.08814
ㄧㄣ4쎯ㄌㄜˋ0쎯	-8.09017
ㄚ0쎯	-8.09055
ㄔㄥˊ0쎯ㄌㄧˋ3쎯	-8.09101
ㄌㄧˋ1쎯ㄕˇ0쎯	-8.09367
ㄊㄡˊ1쎯ㄗ2쎯	-8.09583
쎁쎉	-8.09836
ㄇㄨˋ1쎯	-8.10066
ㄕˊ1쎯ㄐㄧㄢ4쎯	-8.10516
ㄗㄜˊ0쎯	-8.10675
ㄑㄧㄠˊ2쎯	-8.10808
ㄔㄤˇ0쎯	-8.1085
ㄑㄧ0쎯	-8.10905
쎃쎀	-8.10942
ㄊㄧㄠˊ0쎯	-8.11092
ㄓˋ4쎯	-8.11145
ㄅㄧㄢ0쎯	-8.11274
.ㄗㄞˋ1쎯	-8.11364
ㄇㄧㄣˊ0쎯	-8.11389
ㄅㄨˋ1쎯	-8.11591
ㄉㄞˋ0쎯ㄅㄧㄠˇ0쎯	-8.11752
ㄍㄨㄥˋ0쎯	-8.11897
ㄔㄨ1쎯	-8.1193
ㄕˇ0쎯	-8.1286
ㄗㄨㄛ0쎯ㄨㄟˊ0쎯	-8.13025
ㄊㄚ2쎯	-8.13038
ㄧㄝˋ0쎯	-8.1311
——	-8.13127
ㄔㄣˋ1쎯	-8.13128
ㄐㄧㄝ3쎯ㄍㄡˋ0쎯	-8.1344
ㄕㄨˋ3쎯	-8.13503
ㄅㄠ0쎯ㄎㄨㄛˋ1쎯	-8.1383
ㄩㄢˋ2쎯	-8.13907
ㄕˊ4쎯	-8.13934
ㄇㄠˊ0쎯	-8.14152
ㄘㄞˊ1쎯ㄌㄧㄠˋ0쎯	-8.14172
ㄌㄢˊ0쎯	-8.1425
ㄨㄟ3쎯	-8.14373
ㄏㄨㄛˋ2쎯ㄉㄜˊ0쎯	-8.14454
ㄈㄟ2쎯	-8.14516
ㄔㄨ0쎯ㄅㄢˇ1쎯	-8.14649
ㄧㄥ0쎯ㄩㄥˋ0쎯	-8.14804
ㄉㄧㄠˋ2쎯	-8.14918
ㄗㄨˇ1쎯	-8.15067
ㄐㄧㄥ2쎯ㄧㄥˊ5쎯	-8.15234
ㄎㄨㄥˋ0쎯ㄓˋ3쎯	-8.15647
ㄑㄧㄥˊ0쎯	-8.15728
ㄏㄞˊ0쎯	-8.15738
ㄊㄚ1쎯	-8.15853
ㄐㄧㄤˋ2쎯	-8.16418
ㄌㄧㄡˊ0쎯	-8.16493
ㄐㄧㄡˇ0쎯	-8.16722
ㄉㄚˊ0쎯	-8.16823
ㄩㄢˊ9쎯	-8.16851
ㄨㄣˊ0쎯ㄒㄩㄝˊ1쎯	-8.17065
ㄘˋ0쎯	-8.17283
ㄉㄥˇ0쎯.	-8.17389
ㄓㄢ0쎯	-8.17547
ㄉㄤˇ1쎯	-8.17582
～	-8.17625
ㄐㄧㄡˇ5쎯ㄉㄧㄢˋ3쎯	-8.17634
ㄓㄣ4쎯	-8.17637
ㄊㄚˇ0쎯	-8.17727
ㄓㄢˋ1쎯	-8.17749
ㄕㄜˋ1쎯ㄡ0쎯	-8.18141
ㄐㄩˋ2쎯	-8.18212
ㄕㄡˇ2쎯	-8.18258
ㄖㄡˋ쎯	-8.18352
ㄧㄠˋ0쎯	-8.18364
ㄕㄚ2쎯	-8.18596
ㄘㄥˊ1쎯	-8.18609
ㄍㄨㄛˇ0쎯	-8.18748
ㄉㄞˋ0쎯	-8.18906
ㄘㄞˋ0쎯	-8.18951
ㄢ0쎯ㄑㄩㄢˊ1쎯	-8.1905
ㄌㄧˇ3쎯ㄌㄨㄣˊ2쎯	-8.19162
ㄔㄨㄣ0쎯	-8.19249
ㄍㄜˇ0쎯	-8.19251
ㄆㄧㄣˇ쎯	-8.19296
ㄐㄧˋ3쎯ㄌㄧㄝˋ0쎯	-8.19369
).	-8.19392
ㄐㄧ6쎯ㄍㄡˋ0쎯	-8.19513
ㄑㄩ0쎯	-8.20074
ㄅㄞˇ0쎯	-8.20107
ㄉㄠˇ1쎯	-8.20442
ㄏㄨˋ1쎯	-8.20483
ㄉㄨㄥˋ0쎯	-8.20556
ㄍㄥ0쎯	-8.20832
ㄆㄧㄣˇ쎯ㄆㄞˊ2쎯	-8.21046
ㄐㄧㄡˇ5쎯	-8.21089
ㄘㄞˇ0쎯ㄩㄥˋ0쎯	-8.21116
ㄍㄨㄤˇ0쎯	-8.21239
ㄔㄨㄢˊ0쎯ㄊㄨㄥˇ0쎯	-8.21671
ㄒㄧㄣˋ0쎯	-8.21684
ㄩㄢˊ1쎯	-8.21738
ㄐㄧㄠˇ0쎯	-8.21941
ㄗㄨˊ0쎯ㄑㄧㄡˊ2쎯	-8.22357
ㄧˋ1쎯	-8.22776
ㄍㄠ0쎯ㄐㄧˊ2쎯	-8.22809
ㄧˋ18쎯	-8.22906
ㄌㄡˊ1쎯	-8.2298
ㄧㄢˊ2쎯	-8.23002
ㄓㄨㄢˇ쎯	-8.23158
ㄐㄧㄠˋ2쎯	-8.23214
ㄕㄤ1쎯	-8.23267
ㄅㄚ1쎯	-8.23333
ㄒㄧㄥ0쎯	-8.23339
ㄓˋ1쎯	-8.23346
ㄔㄤˊ4쎯	-8.23469
ㄙ1쎯	-8.23573
ㄙㄨㄥ0쎯	-8.23654
ㄌㄩˋ2쎯	-8.23771
ㄌㄨㄣˊ2쎯	-8.24079
ㄐㄧㄥ8쎯	-8.24142
ㄩㄢˇ쎯	-8.2423
ㄅㄢˇ0쎯	-8.24254
ㄔㄨㄥˊ2쎯ㄉㄧㄢˇ1쎯	-8.24548
ㄐㄧㄝ7쎯	-8.24593
ㄧㄢˇ2쎯	-8.24612
ㄕㄡˋ1쎯	-8.24636
ㄒㄧㄠˇ0쎯ㄒㄩㄝˊ1쎯	-8.24641
,ㄉㄢˋ2쎯	-8.24776
ㄓㄜˋ0쎯	-8.24851
ㄋㄧㄥˊ0쎯	-8.24899
ㄌㄧㄢˊ4쎯	-8.25056
ㄧㄥ0쎯	-8.25525
ㄓㄤ1쎯	-8.2573
ㄓˋ3쎯ㄗㄨㄛ0쎯	-8.25941
ㄒㄧㄝˇ1쎯	-8.26006
ㄍㄣ0쎯	-8.26265
ㄐㄧㄡˋ4쎯ㄕˋ15쎯	-8.26825
쎁쎆	-8.27297
ㄅㄢˋ1쎯	-8.27525
ㄐㄧㄠ6쎯ㄕ2쎯	-8.27641
ㄍㄜˊ2쎯	-8.27777
ㄅㄛ1쎯	-8.27806
ㄒㄩㄢˇ0쎯	-8.27849
ㄕˋ1쎯	-8.28119
ㄐㄩ1쎯	-8.2867
ㄈㄨˊ12쎯	-8.29026
ㄒㄧㄢ1쎯	-8.29095
ㄅㄨˋ4쎯ㄈㄣ0쎯	-8.29119
ㄗ2쎯ㄩㄢˊ9쎯	-8.29143
ㄧㄢˊ7쎯	-8.29325
ㄐㄧㄝˋ3쎯	-8.29374
ㄍㄟˇ쎯	-8.29799
ㄋㄟˋ쎯ㄖㄨㄥˊ4쎯	-8.29936
ㄔㄨㄢ0쎯	-8.3003
ㄕˋ18쎯	-8.30116
ㄋㄢˊ0쎯	-8.30178
ㄊㄤˊ0쎯	-8.30179
ㄑㄧㄡˊ2쎯	-8.30437
쎅쎀	-8.30466
ㄔㄠ4쎯	-8.30492
ㄨˊ2쎯	-8.30549
ㄓˊ1쎯	-8.30612
ㄅㄢˇ1쎯	-8.30797
ㄉㄧ0쎯	-8.31064
,ㄑㄧˊ1쎯	-8.31317
ㄓˋ5쎯	-8.31564
ㄗˋ0쎯ㄖㄢˊ0쎯	-8.31714
ㄅㄠˇ2쎯	-8.31749
ㄍㄨㄢ0쎯	-8.31788
ㄐㄧㄥˇ1쎯	-8.31789
ㄈㄤˋ쎯	-8.31875
ㄍㄨㄟ2쎯ㄏㄨㄚˊ0쎯	-8.32037
ㄉㄧˇ1쎯	-8.32071
ㄒㄩㄝˊ1쎯ㄏㄨㄟˋ2쎯	-8.3264
ㄧㄣ4쎯	-8.32642
ㄎㄢ1쎯	-8.32684
ㄗㄨㄥ0쎯	-8.32718
ㄈㄟ0쎯	-8.32754
ㄋㄚ0쎯	-8.32902
ㄊㄧㄝˇ쎯	-8.33029
쎄쎀	-8.3318
ㄈㄣˇ쎯	-8.33298
ㄅㄢ1쎯	-8.33407
ㄅㄧㄢˋ0쎯	-8.3349
ㄉㄧㄢˋ0쎯ㄧㄥˇ1쎯	-8.33522
ㄑㄧㄢ0쎯	-8.336
ㄌㄟˋ2쎯ㄒㄧㄥˊ2쎯	-8.33611
ㄕㄤ1쎯ㄨˋ2쎯	-8.33837
ㄔㄢˇ0쎯	-8.34295
ㄅㄧㄥ2쎯	-8.34446
ㄆㄢˊ1쎯	-8.34599
ㄌㄩˇ2쎯ㄧㄡˊ5쎯	-8.34975
ㄈㄤ0쎯ㄈㄚˇ0쎯	-8.34991
ㄧㄤˊ3쎯	-8.35067
ㄔㄚˊ1쎯	-8.35332
ㄧㄥ1쎯	-8.35352
—	-8.35824
ㄅㄠˇ2쎯ㄏㄨˋ2쎯	-8.35834
ㄈㄣ0쎯ㄒㄧ5쎯	-8.35932
ㄒㄧㄥˊ1쎯ㄔㄥˊ0쎯	-8.3597
ㄇㄧㄢˋ0쎯ㄐㄧ11쎯	-8.36016
ㄐㄧ6쎯ㄒㄧㄝˋ4쎯	-8.36028
ㄘㄨㄣ0쎯ㄨㄟˇ5쎯ㄏㄨㄟˋ2쎯	-8.36034
,ㄧㄡˇ1쎯	-8.361
ㄈㄨˋ7쎯	-8.36137
ㄩㄣˋ1쎯ㄉㄨㄥˋ0쎯	-8.36171
ㄐㄧㄚˇ0쎯	-8.36208
ㄕˋ0쎯	-8.36237
쎁쎈	-8.36277
ㄒㄧˋ1쎯	-8.36331
ㄑㄩˇ0쎯	-8.36756
ㄧㄤˇ1쎯	-8.36809
ㄓˋ5쎯ㄌㄧㄠˊ1쎯	-8.36957
ㄒㄧㄠ6쎯ㄕㄡˋ3쎯	-8.37042
ㄎㄨㄥ0쎯	-8.3705
ㄕㄥˋ0쎯	-8.372
ㄓ0쎯ㄐㄧㄢ4쎯	-8.37378
ㄗㄞˋ0쎯	-8.37398
ㄐㄩㄣ1쎯	-8.37418
ㄈㄢˇ0쎯	-8.37896
ㄇㄧㄣˊ0쎯ㄗㄨˊ1쎯	-8.37969
ㄉㄨㄢˋ0쎯	-8.38137
ㄕㄢ0쎯ㄉㄨㄥ0쎯	-8.3821
ㄍㄨㄥˋ0쎯ㄔㄢˇ0쎯ㄉㄤˇ1쎯	-8.38323
ㄈㄤ0쎯ㄇㄧㄢˋ0쎯	-8.38464
ㄓˊ5쎯ㄨˋ3쎯	-8.38511
ㄏㄤˊ0쎯ㄓㄥˋ3쎯	-8.38518
ㄓㄨㄥ0쎯ㄧㄤ0쎯	-8.38564
ㄏㄨㄚˋ0쎯ㄒㄩㄝˊ1쎯	-8.38732
”,	-8.38831
ㄔㄨㄥˊ2쎯ㄧㄠ4쎯	-8.38952
ㄔㄥˊ0쎯ㄌㄧˋ3쎯ㄩˊ0쎯	-8.3932
ㄍㄣ0쎯ㄐㄩ4쎯	-8.39613
ㄕㄨㄛˋ1쎯ㄕˋ0쎯	-8.39864
ㄅㄠ0쎯	-8.40057
ㄓˊ4쎯ㄧㄝˋ0쎯	-8.40074
ㄗㄥˋ0쎯ㄍㄜˇ1쎯	-8.40121
ㄈㄥ0쎯ㄈㄨˋ11쎯	-8.40202
ㄍㄨㄛˊ0쎯ㄋㄟˋ쎯	-8.40219
ㄧㄝˋ0쎯ㄨˋ2쎯	-8.40271
ㄧㄢˊ3쎯	-8.40274
ㄧㄡˊ5쎯	-8.40501
ㄆㄟˊ1쎯ㄒㄩㄣˋ0쎯	-8.40759
ㄕㄠˇ쎯	-8.40788
ㄆㄞˋ0쎯	-8.40938
▁̇ㄉㄜ1쎯ㄧ0쎯ㄔㄨㄥˊ1쎯	-8.41068
ㄑㄧˊ1쎯ㄊㄚ0쎯	-8.41184
ㄊㄞˋ0쎯	-8.41524
ㄉㄧˋ3쎯ㄦˋ0쎯	-8.41539
ㄗㄨˇ1쎯ㄔㄥˊ0쎯	-8.4155
ㄙㄨㄟˋ0쎯	-8.41699
ㄕˊ3쎯	-8.41871
ㄐㄧㄤˇ1쎯	-8.41946
ㄓ0쎯ㄧ0쎯.	-8.41976
ㄑㄩㄢˊ0쎯	-8.42201
ㄓ7쎯	-8.4221
ㄊㄤ0쎯	-8.4224
ㄑㄧˊ1쎯ㄓㄨㄥ0쎯	-8.42286
ㄔㄠˊ1쎯	-8.42409
ㄔㄢˇ0쎯ㄧㄝˋ0쎯	-8.42681
ㄏㄡˋ0쎯,	-8.42795
ㄋㄚˋ1쎯	-8.4288
ㄍㄜˇ1쎯ㄗㄨㄛ0쎯	-8.43087
ㄨㄛˇ쎯ㄇㄣˊ1쎯	-8.43279
ㄩㄥˇ0쎯	-8.4355
ㄓㄨㄥ0쎯ㄏㄨㄚˊ1쎯	-8.43591
▁̇ㄉㄜ1쎯ㄧ0쎯ㄍㄜˇ0쎯	-8.43876
ㄓ0쎯ㄧ0쎯	-8.4411
ㄘㄞˊ0쎯	-8.44193
ㄙˋ2쎯	-8.44195
ㄩㄥˋ0쎯ㄩˊ0쎯	-8.44196
ㄇㄟˊ0쎯ㄧㄡˇ1쎯	-8.44327
ㄕˊ1쎯,	-8.4439
ㄍㄨ5쎯	-8.444
ㄐㄧㄝˋ0쎯ㄕㄠˋ1쎯	-8.44429
ㄈㄨˊ12쎯ㄐㄧㄢˋ2쎯	-8.44512
ㄋㄧㄡˊ쎯	-8.44549
ㄧˋ7쎯	-8.44602
ㄐㄧ12쎯ㄅㄣˇ0쎯	-8.44764
ㄧˋ12쎯	-8.44776
쎂쎅	-8.44928
ㄏㄨㄢˊ0쎯	-8.44971
ㄒㄧㄝˇ0쎯	-8.45004
ㄎㄨㄢ0쎯	-8.45148
ㄌㄧㄥˇ1쎯ㄩˋ7쎯	-8.45166
ㄍㄨㄥ0쎯ㄧˋ2쎯	-8.4521
ㄊㄤˊ1쎯	-8.45253
ㄔㄨㄤ0쎯ㄒㄧㄣ5쎯	-8.45275
ㄅㄠˋ0쎯	-8.4543
ㄑㄩㄣˊ1쎯	-8.45597
ㄨㄟˋ3쎯	-8.45959
ㄅㄛˊ5쎯	-8.46055
ㄐㄧㄝ4쎯	-8.46518
ㄗㄨㄛˋ1쎯	-8.46542
ㄠˋ2쎯	-8.46544
쎆쎀	-8.46569
ㄋㄧˊ0쎯	-8.46605
ㄒㄧㄡ1쎯	-8.46681
ㄐㄧˋ0쎯ㄏㄨㄚˊ0쎯	-8.46704
ㄒㄩㄝˊ1쎯ㄕㄨˋ0쎯	-8.46833
ㄔㄨㄤ0쎯ㄗㄨㄛ0쎯	-8.46992
ㄎㄨㄥˇ0쎯	-8.47102
,ㄦˊ1쎯	-8.47298
ㄨㄟˋ1쎯	-8.47309
ㄨㄤˇ0쎯ㄓㄢˋ2쎯	-8.4747
ㄍㄢˇ3쎯	-8.4749
ㄅㄧㄠˇ0쎯	-8.47566
.《	-8.47698
”、“	-8.47749
ㄒㄧㄠˇ0쎯ㄕㄨㄟˋ0쎯	-8.47819
?	-8.48071
......	-8.4808
ㄒㄧ14쎯	-8.4808
ㄐㄧ12쎯ㄔㄨˇ1쎯	-8.48166
ㄙㄨㄥˋ1쎯	-8.48292
ㄙㄨ0쎯	-8.48364
ㄌㄧㄢˊ4쎯ㄍㄜˇ1쎯	-8.48554
ㄐㄧˊ3쎯	-8.48562
ㄌㄚˋ0쎯	-8.48599
ㄨㄣ0쎯	-8.48723
ㄐㄧㄝ4쎯ㄎㄡˇ쎯	-8.48771
ㄒㄧㄢˋ1쎯	-8.48852
ㄓㄨㄤ3쎯	-8.48865
ㄧㄥˇ1쎯ㄒㄧㄤˇ1쎯	-8.48886
ㄧㄢˊ6쎯ㄐㄧㄡ1쎯ㄕㄥ1쎯	-8.49005
ㄩㄢˊ5쎯	-8.4908
ㄐㄧㄚ0쎯ㄍㄨㄥ0쎯	-8.49273
ㄌㄨˋ3쎯	-8.49314
ㄓ2쎯	-8.49344
쎁쎀쎀	-8.49478
ㄌㄧㄥˊ2쎯	-8.495
ㄏㄣˇ0쎯	-8.49518
ㄕˋ15쎯ㄓˇ4쎯	-8.49552
ㄎㄜˋ2쎯ㄏㄨˋ1쎯	-8.49727
▁̇ㄇㄜ쎯	-8.50081
ㄕㄜˋ1쎯	-8.5017
ㄒㄧㄤ2쎯ㄍㄤˇ쎯	-8.50257
ㄓㄨˊ0쎯	-8.50389
ㄧㄡˇ1쎯ㄍㄨㄢ0쎯	-8.50626
ㄐㄧ9쎯	-8.50656
ㄌㄧㄣˊ2쎯ㄔㄨㄤˊ0쎯	-8.50667
ㄘˊ0쎯	-8.50716
ㄐㄧㄢˋ2쎯ㄌㄧˋ3쎯	-8.50725
ㄧ3쎯ㄒㄩㄝˊ1쎯	-8.50795
쎁쎃	-8.50872
ㄩㄥˋ0쎯ㄏㄨˋ1쎯	-8.50914
ㄔㄨˇ0쎯ㄌㄧˇ3쎯	-8.51119
ㄈㄚ쎯ㄕㄥ1쎯	-8.51142
ㄐㄧㄠ0쎯	-8.51248
ㄌㄧㄣˊ2쎯	-8.51319
ㄉㄨㄢˇ쎯	-8.51418
ㄨㄟˊ6쎯	-8.51478
ㄓㄨˇ0쎯ㄧˋ1쎯	-8.51514
ㄓㄜˋ1쎯ㄐㄧㄤ0쎯	-8.51572
ㄊㄞ0쎯ㄨㄢ1쎯	-8.51582
ㄑㄧㄝ쎯	-8.516
ㄅㄧˇ3쎯	-8.51782
ㄕㄥ1쎯ㄨˋ3쎯	-8.51786
ㄌㄧㄥˇ1쎯ㄉㄠˇ0쎯	-8.52154
ㄇㄟˊ4쎯	-8.52366
ㄖㄣˊ0쎯ㄘㄞˊ0쎯	-8.5239
ㄐㄧ8쎯	-8.52461
ㄓㄨㄢ0쎯ㄐㄧㄚ3쎯	-8.52643
ㄔㄥˊ6쎯	-8.52654
ㄙㄨㄛˇ0쎯ㄧㄡˇ1쎯	-8.52701
ㄖㄤˋ쎯	-8.52748
ㄅㄢˋ0쎯	-8.52818
ㄉㄧㄢˋ0쎯ㄕˋ12쎯	-8.52845
ㄆㄨˇ2쎯	-8.52865
,ㄋㄢˊ0쎯,	-8.52868
+	-8.53118
ㄑㄧˋ3쎯ㄔㄜ0쎯	-8.53132
▁̇ㄉㄜ0쎯ㄈㄤ0쎯	-8.53242
ㄈㄚ쎯ㄒㄧㄢˋ1쎯	-8.53368
ㄧˇ1쎯ㄐㄧㄥ2쎯	-8.53404
:“	-8.53405
쎁쎇	-8.53515
ㄧ0쎯ㄅㄢ2쎯	-8.5355
ㄅㄢˋ0쎯ㄍㄨㄥ2쎯ㄕˋ18쎯	-8.53683
ㄌㄟˊ1쎯	-8.53822
ㄓㄨㄤ1쎯	-8.53897
ㄌ	-8.53974
ㄕˋ8쎯ㄧㄝˋ0쎯	-8.54002
ㄌㄧˋ6쎯ㄩㄥˋ0쎯	-8.54086
ㄕㄜˋ0쎯	-8.54177
ㄈㄨ0쎯	-8.54287
ㄌㄧˋ9쎯ㄕㄨˇ1쎯ㄩˊ0쎯	-8.54457
ㄓㄥˋ3쎯	-8.54493
ㄨㄣˋ0쎯ㄊㄧˊ1쎯	-8.54514
ㄓ7쎯ㄕˊ2쎯	-8.54563
ㄢˋ1쎯	-8.54583
ㄘㄠ0쎯ㄗㄨㄛ0쎯	-8.54715
ㄍㄜ7쎯	-8.54737
ㄕˋ15쎯ㄧ0쎯ㄍㄜˇ0쎯	-8.54834
ㄉㄧㄢˋ3쎯	-8.54891
ㄇㄧˋ1쎯	-8.54916
ㄗㄨˊ1쎯	-8.55021
ㄅㄨˋ4쎯ㄇㄣˊ0쎯	-8.55143
ㄧ0쎯ㄔㄨㄥˊ1쎯	-8.55238
ㄋㄥˊ쎯ㄌㄧˋ0쎯	-8.55397
ㄕㄨˇ1쎯ㄩˊ0쎯	-8.55453
ㄕ2쎯ㄈㄢˋ3쎯	-8.55553
쎁쎄	-8.55554
,ㄧㄡˊ1쎯	-8.55625
ㄐㄧㄠˋ4쎯	-8.55721
ㄧㄚ1쎯	-8.55772
ㄨㄢˊ1쎯ㄔㄥˊ0쎯	-8.55784
ㄍㄨˇ1쎯	-8.55813
ㄕˊ0쎯	-8.55824
ㄐㄧㄝ3쎯	-8.55952
ㄐㄧˋ0쎯ㄙㄨㄢˋ1쎯ㄐㄧ6쎯	-8.56028
ㄓㄥˋ3쎯ㄓˋ5쎯	-8.56079
ㄕㄜˋ0쎯ㄕ5쎯	-8.56184
ㄊㄚ0쎯ㄇㄣˊ1쎯	-8.56232
ㄋㄨㄥˊ0쎯	-8.56262
ㄉㄧ2쎯ㄍㄠ0쎯	-8.56367
ㄐㄧㄝ3쎯ㄍㄜˇ1쎯	-8.56599
ㄖㄣˊ2쎯	-8.5672
ㄈㄨˋ2쎯ㄗㄜˊ1쎯	-8.56735
ㄔㄨˊ0쎯	-8.56798
ㄐㄧㄝˇ1쎯	-8.57075
ㄙㄨㄢ0쎯	-8.57093
ㄖㄣˊ0쎯ㄎㄡˇ쎯	-8.57118
ㄙˋ1쎯ㄔㄨㄢ0쎯	-8.5725
ㄅㄣˇ0쎯ㄕㄨ0쎯	-8.57287
ㄉㄨㄥˋ0쎯ㄨˋ3쎯	-8.57445
ㄐㄧㄢ8쎯	-8.57494
ㄘㄤˊ쎯	-8.57684
ㄧㄥˊ5쎯	-8.58151
ㄌㄧˊ3쎯	-8.58213
ㄍㄨㄢˇ0쎯	-8.58233
ㄓㄥ0쎯ㄕˋ5쎯	-8.58251
ㄈㄨˇ3쎯	-8.58317
ㄖㄢˊ0쎯	-8.58332
ㄇㄨˇ0쎯	-8.59029
ㄉㄧㄥ0쎯	-8.59501
ㄈㄥ5쎯	-8.59556
ㄓˋ3쎯ㄗㄠˋ2쎯	-8.59574
ㄓˊ3쎯	-8.5959
ㄧㄢˊ6쎯ㄐㄧㄡ1쎯ㄙㄨㄛˇ0쎯	-8.59606
ㄒㄧㄤ1쎯ㄍㄨㄢ0쎯	-8.59709
ㄐㄧㄠ6쎯ㄕㄡˋ2쎯	-8.59792
ㄈㄤ0쎯ㄕˋ5쎯	-8.59837
ㄍㄨㄥ6쎯	-8.59869
ㄙㄢˇ1쎯	-8.59913
ㄍㄜˊ0쎯ㄇㄧㄥˋ쎯	-8.59969
ㄒㄧㄤˋ3쎯	-8.60046
ㄍㄜˇ0쎯ㄖㄣˊ0쎯	-8.60049
ㄈㄤˊ0쎯	-8.60306
ㄕˊ4쎯ㄆㄧㄣˇ쎯	-8.60365
ㄧㄚˇ쎯	-8.60441
ㄎㄜ2쎯ㄧㄢˊ6쎯	-8.60592
ㄌㄧˇ3쎯	-8.60683
▁̇ㄉㄜ0쎯ㄔㄨˇ0쎯	-8.60686
ㄍㄨㄥ0쎯ㄗㄨㄛ0쎯,	-8.60721
ㄐㄧㄢˋ6쎯ㄎㄤ0쎯	-8.60936
ㄕˊ1쎯ㄐㄧ13쎯	-8.6103
ㄗㄨˊ0쎯	-8.61137
ㄔㄥˊ1쎯	-8.61166
ㄊㄞˋ3쎯	-8.61323
ㄙㄨˋ2쎯	-8.61399
쎂쎄	-8.61411
ㄕㄤ1쎯ㄧㄝˋ0쎯	-8.61475
ㄎㄤ0쎯	-8.61504
ㄒㄧㄚˋ1쎯	-8.61743
ㄇㄛˊ3쎯ㄕˋ5쎯	-8.6184
ㄩˊ2쎯	-8.61877
ㄨㄟˇ5쎯	-8.62023
ㄐㄧˊ1쎯	-8.62047
ㄑㄧㄣ2쎯	-8.62095
ㄧㄝˇ2쎯	-8.62097
쎈쎀	-8.62199
ㄨㄣˊ0쎯ㄐㄧㄢˋ1쎯	-8.62327
ㄆㄧㄥˊ0쎯ㄊㄞ0쎯	-8.62443
ㄉㄢ1쎯ㄖㄣˊ3쎯	-8.62645
ㄐㄧˋ8쎯	-8.63024
ㄇㄛˋ1쎯	-8.63257
ㄍㄨㄥ2쎯ㄌㄨˋ5쎯	-8.63387
ㄌㄨˇ2쎯	-8.63412
ㄩㄣˋ1쎯	-8.63443
ㄙ3쎯	-8.63484
ㄓˇ3쎯	-8.63577
ㄩˇ4쎯	-8.63732
ㄙˇ쎯	-8.63898
ㄔㄨ0쎯ㄒㄧㄢˋ1쎯	-8.63982
ㄧˋ6쎯	-8.63982
ㄗㄡˇ쎯	-8.6399
ㄊㄜˋ0쎯ㄙㄜˋ0쎯	-8.64206
ㄍㄞˋ3쎯	-8.64225
ㄉㄨㄢ0쎯	-8.6428
,ㄊㄚ0쎯	-8.64283
ㄌㄧㄠˋ0쎯	-8.64488
ㄍㄤˇ쎯	-8.64573
ㄦˊ0쎯	-8.64636
ㄩㄢˊ2쎯	-8.64677
ㄕㄢˋ0쎯	-8.6472
ㄅㄛˊ5쎯ㄕˋ0쎯	-8.6472
ㄒㄧˋ1쎯ㄅㄠ2쎯	-8.64785
ㄓˇ4쎯ㄉㄠˇ0쎯	-8.64912
▁̇ㄉㄜ1쎯“	-8.64984
ㄕˋ15쎯ㄧㄡˊ1쎯	-8.65031
ㄓㄜˋ0쎯ㄍㄜˇ0쎯	-8.65101
ㄧㄣˊ1쎯	-8.65508
ㄑㄧㄡ1쎯	-8.65583
ㄊㄤˊ5쎯	-8.65696
ㄆㄧㄢ2쎯	-8.65789
ㄅㄧㄢ1쎯	-8.65797
ㄈㄨˊ5쎯	-8.65806
ㄕㄡ쎯	-8.66228
ㄉㄚˋ쎯ㄒㄧㄥˊ2쎯	-8.66242
ㄍㄞˇ쎯	-8.66305
ㄈㄟ2쎯ㄔㄤˊ4쎯	-8.66355
ㄑㄧㄥ0쎯ㄋㄧㄢˊ0쎯	-8.66482
ㄒㄩ4쎯ㄧㄠ4쎯	-8.66537
ㄨ0쎯	-8.66541
ㄐㄧˊ6쎯ㄅㄧㄥˋ0쎯	-8.66602
ㄨㄤˋ3쎯	-8.66614
ㄙㄨㄣ0쎯	-8.66653
ㄧ1쎯	-8.66722
ㄕˊ3쎯ㄒㄧㄢˋ1쎯	-8.67049
ㄅㄨˋ0쎯ㄉㄨㄢˋ1쎯	-8.67119
ㄧㄣˇ0쎯	-8.67125
ㄧㄣˋ0쎯	-8.67133
ㄙㄨㄟˊ1쎯	-8.67176
ㄒㄧㄤˇ2쎯	-8.67215
ㄐㄩˋ5쎯	-8.67357
ㄆㄞˊ0쎯	-8.67371
ㄨㄟˇ3쎯	-8.67372
ㄧˇ2쎯ㄕㄤˇ0쎯	-8.67378
ㄉㄨㄥˋ3쎯	-8.67416
ㄑㄧㄢˊ1쎯	-8.67445
ㄐㄧㄠ0쎯ㄌㄧㄡˊ3쎯	-8.67577
ㄍㄨㄥ3쎯	-8.67667
ㄍㄨㄤˇ0쎯ㄉㄨㄥ0쎯	-8.67704
ㄐㄧㄝˋ2쎯	-8.67748
ㄔㄢˇ0쎯ㄕㄥ1쎯	-8.6783
ㄅㄧㄢˋ1쎯	-8.67861
ㄕㄥ1쎯ㄩˊ0쎯	-8.67963
ㄒㄧㄥˋ2쎯ㄋㄥˊ쎯	-8.6811
ㄒ	-8.68197
ㄊ	-8.68359
ㄑㄩㄢˊ1쎯ㄇㄧㄢˋ0쎯	-8.68407
ㄨㄟˋ0쎯ㄕㄥ1쎯	-8.68436
ㄔㄨ0쎯ㄅㄢˇ1쎯ㄕㄜˋ1쎯	-8.68691
ㄕㄢ0쎯ㄉㄨㄥ0쎯ㄕㄥˇ0쎯	-8.68709
ㄕˊ1쎯ㄉㄞˋ0쎯	-8.69132
ㄍㄨㄟ0쎯	-8.69276
ㄈㄨˋ11쎯	-8.69306
ㄕˋ15쎯ㄧ0쎯ㄔㄨㄥˊ1쎯	-8.69323
ㄊㄨㄛ0쎯	-8.69338
ㄅㄧㄝˊ0쎯	-8.69489
ㄈㄛˊ쎯	-8.69517
*	-8.69568
ㄌㄧㄤˊ2쎯	-8.69584
ㄆㄟˊ1쎯ㄧㄤˇ1쎯	-8.69634
ㄌㄧㄤˇ0쎯ㄍㄜˇ0쎯	-8.69668
ㄍㄨㄢ1쎯	-8.69677
ㄧㄝˋ2쎯	-8.69718
ㄉㄨˊ1쎯ㄌㄧˋ3쎯	-8.69754
ㄇㄟˇ0쎯	-8.69766
ㄇㄟˇ1쎯ㄕㄨˋ0쎯	-8.69851
ㄕㄡ쎯ㄖㄨˋ0쎯	-8.69956
ㄏㄜˊ1쎯	-8.69991
ㄏㄡˋ1쎯	-8.70013
ㄍㄨㄤˇ0쎯ㄒㄧ1쎯	-8.7007
ㄗㄨㄛ0쎯ㄐㄧㄚ3쎯	-8.70385
ㄨㄚˇ0쎯	-8.70469
ㄕㄥ0쎯	-8.70603
ㄨㄛˇ쎯ㄍㄨㄛˊ0쎯	-8.70632
ㄓㄢˇ2쎯	-8.70662
ㄒㄩㄝˇ0쎯	-8.70669
ㄐㄩˋ5쎯ㄌㄧˊ3쎯	-8.70702
ㄆㄧㄥˊ0쎯ㄈㄤ0쎯ㄇㄧˇ0쎯,	-8.70905
ㄕㄨㄣˋ0쎯	-8.70913
ㄧ2쎯	-8.71009
ㄌㄧㄥˊ0쎯	-8.7102
ㄒㄧㄢ0쎯	-8.71055
ㄩㄝˋ5쎯	-8.71088
,ㄨㄟˋ2쎯ㄩˊ0쎯	-8.71132
ㄊㄠˋ쎯	-8.71195
ㄏㄨㄟˋ2쎯ㄩㄢˊ2쎯	-8.71213
ㄍㄨㄥ2쎯ㄩㄢˊ1쎯	-8.71302
ㄓㄨ0쎯	-8.7138
ㄍㄨㄤˇ0쎯ㄓㄡ1쎯	-8.71451
ㄌㄧˇ0쎯	-8.71519
쎂쎂	-8.71666
ㄊㄧ0쎯ㄩˋ3쎯	-8.71696
ㄑㄧㄥˊ0쎯ㄎㄨㄤˋ1쎯	-8.71734
ㄧㄠ4쎯ㄑㄧㄡˊ1쎯	-8.71782
ㄔㄥˊ0쎯ㄍㄨㄥ3쎯	-8.72365
ㄋㄚ1쎯ㄐㄧㄥ1쎯	-8.72374
ㄓㄠˋ1쎯	-8.72673
ㄒㄩㄢˇ0쎯ㄗㄜˊ2쎯	-8.7278
ㄨㄢ1쎯	-8.7279
ㄈㄥ0쎯	-8.72879
쎂쎀쎀	-8.72899
ㄗㄨㄛ0쎯ㄩㄥˋ0쎯	-8.7291
ㄨㄟˋ0쎯	-8.72967
ㄕˋ12쎯	-8.73088
ㄑㄩㄢˊ2쎯	-8.7321
ㄒㄧㄣ5쎯ㄨㄣˊ2쎯	-8.7327
ㄎㄜˋ2쎯	-8.73357
ㄓㄨˋ3쎯ㄘㄜˋ0쎯	-8.73402
ㄉㄧˋ3쎯ㄙㄢ0쎯	-8.7352
ㄐㄩㄣ2쎯	-8.73583
,ㄓㄨˇ0쎯ㄧㄠ4쎯	-8.73615
ㄍㄨㄢ0쎯ㄐㄧˋ3쎯	-8.73749
ㄑㄧㄥ1쎯	-8.73822
ㄧㄣ1쎯	-8.7396
ㄌㄨㄣˊ2쎯ㄨㄣˊ0쎯	-8.73974
,ㄑㄧˊ1쎯ㄓㄨㄥ0쎯	-8.73999
ㄩˇ6쎯ㄧㄢˊ2쎯	-8.74113
ㄏㄥˊ1쎯	-8.74123
ㄉㄥ0쎯	-8.74193
ㄐㄧㄣˋ0쎯ㄖㄨˋ0쎯	-8.74263
ㄔㄥˊ0쎯ㄍㄨㄛˇ0쎯	-8.74471
ㄎㄨˋ0쎯	-8.7449
ㄑㄧˊ0쎯	-8.74494
ㄧㄣˊ1쎯ㄏㄤˊ0쎯	-8.74509
ㄌㄧˊ0쎯	-8.7456
ㄐㄧㄣ2쎯	-8.74614
ㄕㄨˇ5쎯ㄐㄩ4쎯	-8.74727
ㄡ0쎯ㄩˋ7쎯	-8.74797
쎇쎀	-8.75009
ㄇㄢˇ0쎯	-8.75032
ㄈㄚ쎯ㄅㄧㄠˇ0쎯	-8.75215
ㄊㄧㄝˇ쎯ㄌㄨˋ5쎯	-8.75219
ㄉㄨㄛ0쎯ㄋㄧㄢˊ0쎯	-8.75439
ㄋㄢˊ1쎯	-8.75655
ㄒㄧㄡˋ0쎯	-8.75727
ㄩ3쎯	-8.75735
ㄦˇ1쎯	-8.75912
ㄊㄧㄠˊ0쎯ㄐㄧㄢˋ1쎯	-8.75958
ㄐㄧㄢˋ1쎯	-8.75993
ㄗㄞˇ1쎯	-8.76067
ㄧㄥ1쎯ㄩˇ6쎯	-8.76151
ㄉㄠ0쎯	-8.76244
ㄑㄧㄡˊ1쎯	-8.7642
ㄑㄩㄝˋ0쎯	-8.7644
ㄍㄨㄤˇ0쎯ㄈㄢˋ2쎯	-8.76449
ㄆㄞˊ2쎯	-8.76501
)、	-8.76531
ㄈㄚ쎯ㄏㄤˊ0쎯	-8.76634
ㄉㄧ2쎯	-8.76656
ㄓㄨㄥ0쎯ㄨㄣˊ0쎯	-8.76683
--	-8.76886
ㄉㄧㄢˋ0쎯ㄩㄢˊ9쎯	-8.76911
ㄕㄥˋ1쎯	-8.76945
ㄨㄣˊ1쎯	-8.77022
ㄋ	-8.77078
ㄍㄨㄥ0쎯ㄗㄨㄛ0쎯.	-8.77114
ㄐㄧㄥˇ0쎯	-8.77263
ㄓㄨㄥ0쎯ㄍㄨㄥˋ0쎯	-8.7741
ㄑㄩㄢˊ1쎯ㄑㄧㄡˊ2쎯	-8.77436
ㄎㄨㄞˋ0쎯	-8.77459
ㄏㄜˊ5쎯	-8.77816
ㄇㄨˋ1쎯ㄑㄧㄢˊ0쎯	-8.77833
ㄐㄧㄡˋ0쎯	-8.77863
ㄏㄨˊ5쎯ㄋㄚ1쎯	-8.77968
ㄙㄞˋ쎯	-8.78065
ㄔㄨㄥˊ0쎯	-8.78161
ㄏㄨˊ2쎯	-8.78164
ㄗㄨㄛˇ0쎯	-8.7827
ㄣ0쎯	-8.78299
ㄉㄚˊ1쎯ㄉㄠˋ0쎯	-8.78327
ㄕˊ3쎯ㄧㄢˋ5쎯	-8.78349
ㄌㄧㄝˋ0쎯	-8.7835
ㄌㄥˇ쎯	-8.78457
ㄔ0쎯	-8.78472
ㄅㄞˇ1쎯	-8.7861
ㄉㄜˊ0쎯ㄉㄠˋ0쎯	-8.78826
ㄎㄜˋ1쎯	-8.78833
ㄉㄧㄥˇ0쎯	-8.78966
ㄐㄧㄣ3쎯ㄖㄨㄥˊ9쎯	-8.79095
ㄍㄨㄤˇ0쎯ㄉㄨㄥ0쎯ㄕㄥˇ0쎯	-8.79299
쎃쎂	-8.79354
ㄧㄥˇ1쎯	-8.79381
ㄌㄟˋ2쎯ㄒㄧㄥˊ2쎯:	-8.79408
ㄔㄨ0쎯ㄕㄥ1쎯ㄩˊ0쎯	-8.79458
ㄈㄥ3쎯	-8.79495
ㄎㄤˋ1쎯	-8.79589
ㄗˋ0쎯ㄉㄨㄥˋ0쎯	-8.79732
ㄕㄨㄟˇ쎯ㄆㄧㄥˊ0쎯	-8.79855
ㄔㄤ0쎯	-8.79943
ㄔㄨㄢˊ1쎯	-8.79946
ㄓㄨ3쎯	-8.80082
ㄒㄩㄝˊ1쎯ㄎㄜ2쎯	-8.80138
ㄓ1쎯	-8.80154
ㄌㄧㄡˊ2쎯	-8.80254
ㄐㄧˋ1쎯	-8.80435
ㄨㄟ1쎯	-8.80464
.ㄍㄞ0쎯	-8.80521
ㄅㄧˇ1쎯ㄐㄧㄠˋ4쎯	-8.80559
ㄙ3쎯ㄒㄧㄤˇ2쎯	-8.80587
ㄐㄧㄚ3쎯ㄊㄧㄥˊ2쎯	-8.80662
ㄕˋ15쎯ㄧ0쎯ㄐㄧㄚ3쎯	-8.80695
ㄐㄧ0쎯	-8.80749
ㄍㄤ6쎯	-8.80807
ㄐㄩㄝˊ2쎯	-8.80838
쎁쎂ㄩㄝˋ0쎯	-8.80843
ㄊㄨㄥˊ3쎯	-8.8095
,ㄐㄧˊ4쎯	-8.81033
ㄍㄨˋ1쎯	-8.8104
ㄊㄨㄥˊ0쎯ㄕˊ1쎯	-8.81092
ㄧ0쎯ㄒㄧㄝ0쎯	-8.81167
ㄙ0쎯	-8.81285
ㄐㄧˇ1쎯	-8.81323
ㄑ	-8.81405
ㄅㄧㄥˋ0쎯ㄉㄨˊ0쎯	-8.81475
ㄐㄧㄝˇ1쎯ㄐㄩㄝˊ0쎯	-8.81572
ㄗˇ3쎯	-8.81869
ㄌㄢˊ4쎯	-8.81876
ㄌㄨㄣˊ4쎯	-8.81972
ㄓㄥˋ0쎯	-8.82249
ㄕㄤ0쎯	-8.82345
ㄉㄢ0쎯	-8.82441
ㄕ1쎯	-8.82615
ㄒㄧㄢˋ1쎯ㄧㄡˇ1쎯	-8.82648
ㄐㄧㄣˇ1쎯	-8.82744
ㄐㄧㄣˋ3쎯	-8.82816
ㄔㄤˊ0쎯ㄐㄧ13쎯	-8.82822
ㄕㄥ1쎯ㄊㄞˋ2쎯	-8.82916
ㄖㄣˊ0쎯ㄨˋ3쎯	-8.82984
ㄩㄢˊ7쎯	-8.82994
ㄨㄟˋ6쎯	-8.83002
ㄒㄧㄢ1쎯ㄕㄥ1쎯	-8.83032
ㄌㄧㄡˋ1쎯	-8.83282
쎀	-8.83331
ㄐㄧㄥ1쎯	-8.83492
ㄗㄨㄛ0쎯ㄓㄜˇ0쎯	-8.83568
ㄍㄨㄥˋ0쎯ㄊㄨㄥˊ0쎯	-8.83671
ㄓㄥˋ3쎯ㄘㄜˋ4쎯	-8.83689
ㄉㄢˋ2쎯	-8.83741
ㄓㄨˇ0쎯ㄖㄣˊ3쎯	-8.83782
ㄈㄥ1쎯ㄍㄜˊ2쎯	-8.83783
ㄔㄨㄥ0쎯	-8.83825
쎃쎅	-8.83848
ㄧㄥˊ5쎯ㄒㄧㄠ6쎯	-8.8402
ㄒㄧ1쎯ㄋㄚ1쎯	-8.84026
ㄐㄧㄠˇ5쎯	-8.84081
ㄉㄧˋ1쎯	-8.84147
ㄕㄚ0쎯	-8.84233
ㄧˋ2쎯	-8.84308
ㄍㄨˋ1쎯ㄕˋ8쎯	-8.84314
ㄎㄠˇ0쎯	-8.84333
ㄧㄥ1쎯ㄍㄨㄛˊ0쎯	-8.84385
ㄐㄧㄢˋ5쎯	-8.84439
ㄖㄣˊ0쎯ㄇㄣˊ1쎯	-8.84488
ㄐㄧㄠ5쎯	-8.84572
,ㄕˇ2쎯	-8.84664
ㄏㄚ0쎯	-8.84734
ㄍㄞˇ쎯ㄍㄜˊ0쎯	-8.84873
ㄊㄧㄥ0쎯	-8.84925
ㄍㄜˋ0쎯ㄌㄟˋ2쎯	-8.85033
쎂쎃	-8.85205
ㄧ3쎯ㄌㄧㄠˊ1쎯	-8.85285
ㄔㄥˊ7쎯ㄒㄩˋ1쎯	-8.85333
ㄓㄨㄥ0쎯,	-8.85401
,ㄉㄨㄟˋ1쎯	-8.85419
ㄐㄩㄣ4쎯	-8.85503
ㄌㄧㄥˇ0쎯	-8.8559
ㄅㄧˋ13쎯	-8.85652
ㄘㄞˇ1쎯	-8.85703
ㄏㄨㄟˋ2쎯ㄧˋ4쎯	-8.85773
ㄌㄧㄤˊ0쎯	-8.85835
ㄧ3쎯	-8.85879
10쎯	-8.85922
ㄍㄨˇ0쎯ㄉㄞˋ0쎯	-8.85926
ㄏㄜˊ3쎯ㄋㄚ1쎯	-8.86004
ㄨㄟˊ0쎯ㄓㄨˇ0쎯	-8.8603
ㄇㄛˊ4쎯	-8.8616
ㄈㄤ0쎯ㄒㄧㄤˋ0쎯	-8.86235
쎁.	-8.86241
ㄉㄡˋ2쎯	-8.86293
ㄧㄝˋ3쎯	-8.86453
ㄍㄡ2쎯	-8.86468
ㄋㄨㄥˊ0쎯ㄇㄧㄣˊ0쎯	-8.86607
ㄈㄚˇ0쎯ㄌㄩˋ0쎯	-8.8671
ㄎㄜˋ3쎯ㄔㄥˊ7쎯	-8.86766
ㄓˋ13쎯	-8.86879
ㄅㄨˋ0쎯ㄋㄥˊ쎯	-8.86882
~	-8.86951
ㄈㄨˋ8쎯ㄓㄨˇ0쎯ㄖㄣˊ3쎯	-8.8703
ㄒㄩˊ쎯	-8.8705
ㄏㄨㄥˊ4쎯	-8.87266
ㄒㄧㄤˋ1쎯	-8.87318
ㄢˋ2쎯	-8.87352
ㄋㄧㄠˇ0쎯	-8.87382
ㄕˋ12쎯ㄆㄧㄣˊ1쎯	-8.87394
ㄆㄟˋ2쎯	-8.87424
ㄍㄨㄥˋ0쎯ㄉㄤˇ1쎯ㄩㄢˊ2쎯	-8.87426
ㄒㄩㄝˊ1쎯ㄌㄧˋ1쎯	-8.8746
ㄏㄢˊ1쎯	-8.8751
ㄅㄧㄠˇ0쎯ㄒㄧㄢˋ1쎯	-8.87521
ㄨㄟˊ0쎯ㄧ0쎯ㄊㄧ0쎯	-8.87556
ㄕㄡˇ1쎯	-8.87577
ㄘㄢ0쎯ㄕㄨˇ5쎯	-8.87804
ㄌㄩㄝˋ1쎯	-8.88061
ㄅㄧˋ2쎯ㄧㄝˋ0쎯	-8.88086
ㄐㄧㄚˋ2쎯	-8.88089
ㄐㄧㄤ0쎯ㄙㄨ0쎯	-8.88189
ㄈㄢˋ3쎯ㄨㄟˊ2쎯	-8.88194
ㄐㄧㄝ7쎯ㄉㄠˋ3쎯	-8.88286
ㄉㄨㄥ0쎯ㄅㄟˇ쎯	-8.88372
ㄅㄣˇ0쎯ㄎㄜ2쎯	-8.88394
ㄖㄨㄛˋ0쎯	-8.88449
ㄘㄢ0쎯ㄩˇ0쎯	-8.88635
ㄊㄧ0쎯ㄐㄧˋ3쎯	-8.8866
ㄩㄣˊ0쎯ㄋㄚ1쎯ㄕㄥˇ0쎯	-8.88677
,ㄎㄜˇ0쎯	-8.88737
ㄔ	-8.88852
ㄐㄧㄥ8쎯ㄕㄣˊ1쎯	-8.8891
ㄇㄣˊ1쎯	-8.88987
ㄍㄨㄟ2쎯ㄇㄛˊ3쎯	-8.89003
ㄧㄡ0쎯ㄓˋ4쎯	-8.89021
ㄨㄟˇ5쎯ㄩㄢˊ2쎯	-8.8905
ㄇㄧㄥˋ쎯	-8.89171
ㄉ	-8.8923
ㄐㄧㄥˋ6쎯	-8.89238
ㄌㄨㄛˋ0쎯	-8.89398
ㄧㄡˇ1쎯ㄒㄧㄠˋ3쎯	-8.89416
ㄕㄨ0쎯ㄏㄨㄚˋ1쎯	-8.89482
ㄓˊ4쎯	-8.89569
ㄓˊ1쎯ㄐㄧㄝ4쎯	-8.89649
쎈ㄩㄝˋ0쎯	-8.89656
ㄈㄥˋ0쎯	-8.89777
ㄉㄢˋ5쎯	-8.89859
ㄍㄢ0쎯ㄅㄨˋ4쎯	-8.89885
ㄐㄧㄥ2쎯ㄧㄢˋ5쎯	-8.89901
ㄏㄢˊ5쎯	-8.8995
ㄉㄡˋ0쎯	-8.90217
ㄧㄤˊ1쎯	-8.90267
▁̇ㄕ쎯	-8.9027
ㄔㄨ0쎯ㄕㄥ1쎯	-8.90407
ㄑㄧㄥˋ0쎯	-8.90493
ㄔㄥˊ0쎯ㄩㄢˊ2쎯	-8.90774
ㄓㄨˇ0쎯ㄔˊ4쎯	-8.90789
.ㄍㄨㄥ2쎯ㄙ0쎯	-8.90925
ㄒㄧㄥˊ1쎯ㄕˋ5쎯	-8.90932
ㄗ2쎯ㄌㄧㄠˋ0쎯	-8.90988
ㄎㄞ0쎯ㄓㄢˇ2쎯	-8.91158
ㄐㄩˋ4쎯	-8.91276
ㄅㄟ2쎯	-8.91347
ㄕˋ15쎯ㄓㄨㄥ0쎯ㄍㄨㄛˊ0쎯	-8.91489
ㄕㄣˊ0쎯	-8.91714
ㄙㄨㄥˋ2쎯	-8.91718
쎂쎁	-8.91867
쎂쎈	-8.91958
ㄦˊ0쎯ㄊㄨㄥˊ4쎯	-8.91962
ㄐㄧㄚˋ0쎯ㄓˊ3쎯	-8.92043
ㄔㄣˋ1쎯ㄨㄟˊ0쎯	-8.92091
ㄏㄨㄚˋ2쎯	-8.92094
ㄉㄠˇ0쎯	-8.92144
ㄉㄨㄢˋ1쎯	-8.92191
ㄙㄨˋ3쎯	-8.92218
,ㄊㄚ1쎯	-8.92267
ㄆㄨˇ2쎯ㄊㄨㄥ0쎯	-8.92381
ㄧㄢ2쎯	-8.92402
ㄓㄜˋ1쎯ㄐㄧㄤ0쎯ㄕㄥˇ0쎯	-8.92452
ㄖㄨㄟˋ1쎯	-8.92478
ㄇㄚˊ1쎯	-8.92644
ㄏㄨㄞˊ0쎯	-8.92668
쎂쎆	-8.92736
ㄏㄨˇ0쎯	-8.92749
ㄓˋ3쎯ㄉㄨˋ2쎯	-8.92751
ㄐㄧㄠ6쎯ㄘㄞˊ1쎯	-8.92826
ㄐㄩˇ2쎯	-8.92962
ㄕㄨ0쎯ㄈㄚˇ0쎯	-8.92977
ㄙㄞ1쎯	-8.93057
ㄐㄧㄣˇ0쎯	-8.9311
ㄈㄣ0쎯ㄨㄟˊ0쎯	-8.93154
ㄇㄛˋ8쎯	-8.93169
ㄖㄨㄢˇ0쎯	-8.93185
ㄌㄧㄠˊ0쎯ㄋㄧㄥˊ0쎯	-8.9319
ㄇㄥˋ1쎯	-8.93191
ㄅㄨˋ2쎯	-8.93192
ㄒㄧ1쎯ㄅㄟˇ쎯	-8.93357
ㄉㄧㄢˋ0쎯ㄋㄠˇ1쎯	-8.93433
ㄓˋ7쎯	-8.9353
ㄉㄡ0쎯ㄕˋ15쎯	-8.93542
ㄧ4쎯	-8.93668
ㄕ	-8.93688
ㄨㄣˊ0쎯ㄇㄧㄥˊ1쎯	-8.93714
ㄔㄚ1쎯	-8.93894
ㄇㄛˋ5쎯	-8.93933
ㄓㄢˋ1쎯ㄓㄥ1쎯	-8.93945
ㄧ0쎯ㄘˋ0쎯	-8.93979
ㄒㄧㄢˋ1쎯ㄖㄣˊ3쎯	-8.94146
ㄈㄟˋ4쎯	-8.9425
ㄐㄧㄤ0쎯ㄙㄨ0쎯ㄕㄥˇ0쎯	-8.9425
ㄅㄧㄥ0쎯	-8.94295
ㄗㄨˇ2쎯	-8.94319
ㄧˊ0쎯	-8.94451
ㄅㄧㄠ0쎯	-8.94566
ㄅㄨˇ0쎯	-8.94847
ㄅㄧㄠˇ0쎯ㄇㄧㄢˋ0쎯	-8.949
ㄈㄚˇ0쎯ㄍㄨㄛˊ0쎯	-8.94925
ㄔˊ0쎯	-8.95007
쎄쎅	-8.95083
ㄒㄩㄥˊ0쎯	-8.95138
ㄒㄧㄢ3쎯	-8.95195
ㄓ0쎯ㄧ0쎯,	-8.95212
ㄈㄨˋ12쎯	-8.95228
ㄓˊ0쎯ㄏㄤˊ0쎯	-8.95263
ㄓㄨˋ4쎯	-8.95295
ㄉㄧ2쎯ㄔㄨ0쎯	-8.95389
>	-8.95476
쎉쎀	-8.95506
ㄊㄧˊ1쎯	-8.9551
ㄉㄜˊ1쎯ㄍㄨㄛˊ0쎯	-8.95529
ㄓㄨㄢ0쎯	-8.95603
ㄎㄨㄞˋ1쎯	-8.95661
ㄐㄧˊ0쎯ㄑㄧˊ1쎯	-8.95732
ㄕˊ3쎯ㄕ5쎯	-8.95817
ㄧㄡˇ0쎯	-8.9589
ㄗㄨㄟˋ0쎯ㄍㄠ0쎯	-8.95913
ㄢˋ3쎯	-8.9594
쎁쎀ㄩㄝˋ0쎯	-8.95953
ㄍ	-8.96022
ㄍㄨㄤˇ0쎯ㄍㄠˋ0쎯	-8.96029
ㄐㄧㄥ2쎯ㄍㄨㄛ0쎯	-8.96162
ㄓㄨㄥ3쎯	-8.96431
ㄓㄨㄤ3쎯ㄕˋ10쎯	-8.9644
ㄐㄧˋ0쎯	-8.96447
ㄗㄚˊ0쎯	-8.96488
.ㄊㄚ0쎯	-8.96511
ㄉㄠˇ3쎯	-8.96534
,ㄖㄨˊ0쎯	-8.96705
ㄐㄧㄣ3쎯ㄕㄨˇ1쎯	-8.96823
ㄢ0쎯ㄏㄨㄟ4쎯	-8.96867
ㄏㄨˊ5쎯ㄅㄟˇ쎯	-8.96912
ㄒㄧㄤˋ2쎯	-8.96939
ㄎㄨㄥ0쎯ㄐㄧㄢ4쎯	-8.97162
ㄋㄠˇ1쎯	-8.97249
ㄩˊ4쎯ㄌㄜˋ0쎯	-8.97403
ㄎㄨˇ쎯	-8.97439
ㄉㄥ1쎯	-8.97507
ㄧ0쎯ㄉㄧㄥˋ1쎯	-8.97534
ㄕㄡˊ쎯	-8.97548
ㄐㄧㄤˋ1쎯	-8.9764
ㄅㄟˋ0쎯	-8.97668
ㄐㄩˋ8쎯	-8.97681
ㄧㄝˇ0쎯ㄕˋ15쎯	-8.9772
ㄈㄤˋ쎯ㄖㄨˋ0쎯	-8.97725
ㄋㄨㄥˊ0쎯ㄘㄨㄣ0쎯	-8.97736
▁̇ㄉㄜ0쎯ㄔㄢˇ0쎯	-8.97759
ㄘㄨㄣˊ쎯	-8.97867
ㄧˊ3쎯	-8.9787
ㄐㄧㄢ7쎯ㄉㄨ0쎯	-8.97897
ㄐㄧㄚ2쎯	-8.98055
ㄧㄥ1쎯ㄨㄣˊ0쎯	-8.98132
ㄎㄜˊ쎯	-8.98159
ㄐㄧ6쎯ㄍㄨㄢ0쎯	-8.98186
ㄍㄨㄢ0쎯ㄩˊ0쎯	-8.98225
ㄖㄨㄥˊ2쎯	-8.98231
ㄇㄧㄠˋ1쎯	-8.98453
ㄒㄧㄠˋ3쎯ㄍㄨㄛˇ0쎯	-8.98573
ㄩㄣˊ0쎯ㄋㄚ1쎯	-8.98599
.ㄑㄧˊ1쎯	-8.98697
ㄕㄡˋ0쎯	-8.987
ㄑㄧㄢˇ0쎯	-8.98835
,ㄅㄨˋ0쎯	-8.9907
ㄏㄜˊ3쎯ㄋㄚ1쎯ㄕㄥˇ0쎯	-8.9911
ㄕˊ1쎯ㄕㄤˋ0쎯	-8.99171
ㄅㄧㄢˋ0쎯ㄏㄨㄚˋ0쎯	-8.99235
ㄊㄧㄥˊ1쎯	-8.99261
ㄉㄨㄛ0쎯ㄔㄨㄥˊ1쎯	-8.99298
ㄌㄠˊ0쎯ㄉㄨㄥˋ0쎯	-8.99445
ㄨㄢˊ1쎯ㄑㄩㄢˊ1쎯	-8.99463
,ㄐㄧㄤ1쎯	-8.99469
ㄓㄥ2쎯	-8.99586
ㄔㄨㄤ0쎯	-8.99724
ㄇㄞˋ3쎯	-8.99735
ㄅ	-8.99743
.ㄓㄨˇ0쎯ㄧㄠ4쎯	-8.99778
ㄋㄨㄛˋ0쎯	-8.99863
ㄉㄧˋ3쎯	-8.99887
ㄇㄢˋ0쎯	-8.99945
ㄏㄨㄛˋ1쎯	-8.99964
ㄩㄣˋ1쎯ㄏㄤˊ0쎯	-9.00052
ㄏㄜˊ3쎯ㄅㄟˇ쎯	-9.00194
쎁쎁ㄩㄝˋ0쎯	-9.00273
ㄢ0쎯ㄓㄨㄤ3쎯	-9.00321
》ㄕˋ15쎯	-9.0033
ㄆㄧㄣˇ쎯ㄔㄨㄥˊ1쎯	-9.00413
》ㄉㄥˇ0쎯	-9.00415
ㄨˇ7쎯	-9.0048
ㄇㄠˋ2쎯ㄧˋ12쎯	-9.00564
ㄕˋ11쎯	-9.00621
ㄔˋ1쎯	-9.00623
ㄜˊ7쎯	-9.00656
ㄏㄨㄛˊ0쎯	-9.00809
ㄆㄧㄥˊ0쎯ㄈㄤ0쎯ㄇㄧˇ0쎯	-9.00852
ㄇㄨˋ5쎯	-9.00896
ㄇㄥ쎯	-9.00937
ㄌㄨˋ3쎯ㄙㄜˋ0쎯	-9.00968
ㄓㄜˋ0쎯ㄔㄨㄥˊ1쎯	-9.01008
ㄅㄟ0쎯	-9.01225
ㄒㄧㄢˇ0쎯ㄕˋ2쎯	-9.01242
ㄒㄧˇ2쎯	-9.01358
ㄨㄣˇ2쎯ㄉㄧㄥˋ1쎯	-9.01362
ㄇㄧㄠˊ1쎯ㄕㄨˋ2쎯	-9.0137
ㄓㄢˋ1쎯ㄌㄩㄝˋ1쎯	-9.0137
ㄘㄜˋ2쎯	-9.01415
ㄐㄩㄢ2쎯	-9.01542
ㄔㄨㄥˊ1쎯ㄓˊ5쎯	-9.01569
ㄏㄨˋ2쎯	-9.01591
ㄨㄤˇ2쎯	-9.01614
ㄖㄨˇ1쎯	-9.01719
ㄅㄟˋ5쎯ㄆㄧㄥˊ1쎯ㄨㄟˊ0쎯	-9.01772
ㄙㄨㄛˇ1쎯	-9.01783
ㄕㄨˋ0쎯	-9.01796
ㄑㄧㄣˊ1쎯	-9.0186
ㄕ5쎯	-9.01882
ㄋㄧˊ1쎯	-9.01885
ㄌㄧㄤˊ0쎯ㄏㄠˇ0쎯	-9.02051
ㄖㄨㄥˊ4쎯	-9.02073
ㄌㄧˋ1쎯	-9.02082
,ㄩˇ0쎯	-9.02084
ㄓ6쎯	-9.02101
ㄒㄩ2쎯	-9.02141
ㄔㄜˇ0쎯ㄘㄨㄣˋ쎯	-9.02193
ㄏㄜˊ5쎯ㄒㄧㄣ0쎯	-9.02263
ㄅㄠˊ1쎯	-9.02337
ㄗㄠˇ0쎯	-9.02455
ㄏㄢˊ4쎯	-9.02549
ㄨˇ3쎯ㄏㄢˋ0쎯	-9.02573
ㄉㄡˇ0쎯	-9.02617
쎂쎇	-9.02771
ㄓㄜˋ0쎯ㄒㄧㄝ0쎯	-9.02982
ㄐㄧㄡˇ1쎯	-9.02995
ㄧ0쎯ㄓˊ1쎯	-9.03018
ㄨˋ2쎯	-9.0305
ㄙㄨㄛˇ0쎯ㄗㄞˋ1쎯	-9.03205
ㄌㄧˋ15쎯	-9.03206
ㄧㄢˊ4쎯	-9.03234
ㄌㄧㄥˊ6쎯	-9.03309
ㄕˋ7쎯	-9.03458
ㄨㄣˊ2쎯	-9.03742
ㄌㄨㄥˊ5쎯	-9.03745
,ㄘㄨㄥˊ0쎯	-9.0375
ㄊㄧㄥ1쎯	-9.03833
ㄓㄡˊ0쎯	-9.03838
쎉ㄩㄝˋ0쎯	-9.03986
ㄕ6쎯	-9.04022
ㄓㄥˋ1쎯	-9.04093
ㄐㄧ2쎯	-9.04097
ㄉㄨˊ0쎯	-9.04196
ㄎㄜˋ3쎯	-9.04228
ㄐㄧㄢˇ8쎯ㄔㄢˊ0쎯	-9.04252
ㄍㄨㄥ5쎯	-9.04273
ㄏ	-9.04376
ㄡ1쎯ㄓㄡ3쎯	-9.04425
ㄕˊ0쎯ㄈㄣ0쎯	-9.04449
ㄖㄣˊ0쎯ㄌㄟˋ2쎯	-9.04451
ㄐㄧㄥˋ8쎯	-9.04532
ㄍㄨㄥ0쎯ㄐㄩˋ2쎯	-9.04677
ㄓ3쎯	-9.04724
》,	-9.04929
ㄆㄠ1쎯	-9.04948
ㄘ0쎯	-9.04951
ㄌㄞˊ1쎯	-9.05145
ㄒㄩㄝˊ1쎯ㄨㄟˋ2쎯	-9.05155
ㄅㄟˇ쎯ㄐㄧㄥ1쎯ㄕˋ4쎯	-9.0521
ㄒㄩㄢ1쎯	-9.05277
ㄉㄚˊ0쎯ㄗㄠˋ2쎯	-9.05346
▁̇ㄉㄜ1쎯ㄈㄚ쎯ㄓㄢˇ2쎯	-9.05382
ㄓㄨ1쎯	-9.05468
ㄔㄥˊ7쎯	-9.05512
ㄔㄨㄣˊ0쎯	-9.05517
ㄅㄧㄥˇ4쎯ㄇㄨˋ6쎯	-9.05522
ㄋㄢˊ0쎯,ㄏㄢˋ0쎯ㄗㄨˊ1쎯	-9.05531
ㄓˋ11쎯	-9.05532
ㄌㄜˋ1쎯	-9.05561
ㄋㄥˊ쎯ㄍㄡˋ3쎯	-9.05605
ㄗㄥ0쎯	-9.0562
ㄐㄧㄚˋ0쎯ㄍㄜˊ2쎯	-9.05998
ㄌㄧㄢˊ0쎯ㄐㄧㄝ4쎯	-9.0602
ㄕㄤˋ0쎯	-9.0619
ㄗ0쎯ㄒㄩㄣˊ3쎯	-9.06208
ㄐㄧㄝ2쎯	-9.06343
ㄉㄨˊ1쎯	-9.06432
ㄑㄧˊ1쎯ㄊㄚ1쎯	-9.06501
ㄍㄨㄛˊ0쎯ㄋㄟˋ쎯ㄨㄞˋ쎯	-9.0674
ㄐㄧㄚ4쎯	-9.06812
▁̇ㄉㄜ1쎯ㄔㄨㄥˊ2쎯ㄧㄠ4쎯	-9.06873
ㄕㄥˇ0쎯ㄐㄧˊ2쎯	-9.06919
ㄌㄧˋ0쎯ㄌㄧㄤˊ3쎯	-9.06993
ㄓㄠˋ2쎯	-9.07008
ㄓ7쎯ㄇㄧㄥˊ0쎯	-9.07016
ㄍㄨˇ2쎯	-9.07069
ㄆㄟˋ2쎯ㄊㄠˋ쎯	-9.07103
ㄧㄤˊ4쎯	-9.07145
ㄐㄧㄠˋ0쎯	-9.07199
ㄊㄧㄢ0쎯ㄐㄧㄣ4쎯	-9.07442
ㄩㄣˋ1쎯ㄕㄨ9쎯	-9.0745
ㄗㄥ0쎯ㄐㄧㄚ0쎯	-9.07508
쎁ㄍㄜˇ0쎯	-9.07587
ㄍㄜˊ5쎯	-9.07626
ㄕˋ3쎯ㄐㄧˇ1쎯	-9.07671
ㄈㄤ0쎯ㄅㄧㄢˋ1쎯	-9.0772
ㄆ	-9.07825
ㄉㄢˋ4쎯	-9.07835
ㄏㄨㄤˊ0쎯	-9.07951
ㄎㄨㄤˋ2쎯	-9.0796
쎅쎀쎀	-9.08013
ㄓㄜˋ0쎯ㄧ0쎯	-9.08022
ㄙㄣ쎯	-9.08114
ㄍㄨㄢ3쎯	-9.08118
》ㄓㄨㄥ0쎯	-9.0827
ㄊㄤˊ3쎯	-9.08278
ㄧㄥˊ5쎯ㄧㄤˇ1쎯	-9.08372
쎃쎆	-9.08508
ㄅㄤ1쎯ㄓㄨˋ0쎯	-9.08518
ㄨㄣˋ0쎯	-9.08589
ㄍㄡ1쎯	-9.0859
ㄏㄨㄟˋ9쎯	-9.08631
ㄒㄧㄢˇ0쎯	-9.08724
ㄙˋ1쎯ㄔㄨㄢ0쎯ㄕㄥˇ0쎯	-9.08743
ㄋㄧㄣˊ쎯	-9.08819
ㄖㄣˊ0쎯,ㄑㄧˊ1쎯ㄓㄨㄥ0쎯	-9.08825
ㄔㄨㄥˊ2쎯ㄑㄧㄥˋ0쎯	-9.09065
쎂쎀쎁쎀ㄋㄧㄢˊ0쎯	-9.09214
ㄧㄡˋ1쎯	-9.09303
ㄓㄨ4쎯	-9.09438
ㄇㄧㄣˊ0쎯ㄐㄧㄢ4쎯	-9.09465
ㄌㄧˇ3쎯ㄋㄧㄢˋ0쎯	-9.09485
ㄓㄨˋ1쎯	-9.09503
ㄇㄛˋ0쎯ㄩㄢˊ0쎯	-9.09535
ㄓˋ7쎯ㄌㄧˋ0쎯ㄩˊ0쎯	-9.09537
ㄓㄨㄥˋ1쎯	-9.09609
ㄏㄨㄚˋ0쎯ㄍㄨㄥ0쎯	-9.09721
ㄉㄧˊ0쎯	-9.09757
=	-9.09757
ㄐㄩㄣˋ4쎯	-9.09757
ㄓㄨㄥ0쎯ㄧ3쎯	-9.0976
ㄐㄧㄢˇ5쎯ㄘㄜˋ3쎯	-9.09777
ㄋㄟˋ쎯ㄘㄨㄣˊ쎯	-9.09799
ㄧㄡ0쎯	-9.09911
ㄌㄨˋ0쎯	-9.09913
쎃쎀쎀	-9.09918
ㄕ5쎯ㄍㄨㄥ0쎯	-9.09924
ㄉㄨˊ1쎯ㄊㄜˋ0쎯	-9.09925
ㄒㄩㄢ1쎯ㄔㄨㄢˊ0쎯	-9.0995
ㄅㄞˊ0쎯ㄙㄜˋ0쎯	-9.09955
ㄩㄣˋ1쎯ㄉㄨㄥˋ0쎯ㄩㄢˊ2쎯	-9.09972
ㄊㄠˊ2쎯	-9.10013
》(	-9.10032
ㄘㄢ0쎯	-9.10035
ㄍㄠ0쎯ㄙㄨˋ3쎯	-9.1004
ㄅㄢ4쎯	-9.10044
ㄊㄜˋ0쎯ㄉㄧㄢˇ1쎯	-9.10071
ㄇㄧㄥˊ0쎯ㄔㄣˋ1쎯	-9.1013
ㄊㄨㄟ0쎯ㄍㄨㄤˇ0쎯	-9.10214
ㄆㄛ0쎯	-9.10237
ㄒㄧㄢˋ1쎯ㄗㄞˋ1쎯	-9.10324
ㄓㄨˋ3쎯	-9.10405
ㄨˋ3쎯ㄌㄧˇ3쎯	-9.10417
쎂쎀쎀쎆ㄋㄧㄢˊ0쎯	-9.10469
ㄕㄜˋ0쎯ㄧㄡˇ1쎯	-9.10503
ㄑㄩㄢˊ1쎯ㄅㄨˋ4쎯	-9.10526
ㄉㄨˋ0쎯	-9.10745
ㄐㄩˋ0쎯	-9.1087
ㄊㄨㄥˋ0쎯	-9.10877
쎂쎉	-9.10944
ㄌㄨㄣˊ1쎯	-9.10983
ㄓㄥˇ1쎯	-9.11086
ㄨㄣ0쎯ㄉㄨˋ2쎯	-9.11152
ㄔㄣˊ0쎯	-9.11166
ㄍㄨㄛ0쎯ㄔㄥˊ7쎯	-9.11178
ㄗㄠˋ2쎯	-9.11182
.ㄒㄧㄢˋ1쎯ㄖㄣˊ3쎯	-9.11234
,ㄓㄨㄥ0쎯ㄍㄨㄛˊ0쎯	-9.11243
ㄕㄜˊ1쎯	-9.11261
ㄓㄣ1쎯	-9.11353
ㄗ2쎯ㄔㄢˇ0쎯	-9.11374
ㄐㄧ6쎯ㄔㄤˊ1쎯	-9.11381
ㄆㄧ0쎯ㄓㄨㄣˇ0쎯	-9.11468
ㄙㄚˋ0쎯	-9.11516
ㄧㄣˇ0쎯ㄑㄧˇ4쎯	-9.11532
ㄏㄨㄛˋ0쎯ㄓㄜˇ0쎯	-9.11563
ㄐㄩ3쎯ㄌㄜˋ0쎯ㄅㄨˋ4쎯	-9.1159
ㄒㄧˋ0쎯	-9.11623
ㄈㄢˇ0쎯ㄧㄥ0쎯	-9.11653
ㄕㄡˇ0쎯ㄐㄧ6쎯	-9.11677
ㄐㄧㄢ0쎯	-9.11758
ㄉㄤ0쎯ㄉㄞˋ0쎯	-9.11827
ㄇㄧㄥˊ0쎯ㄔㄣˋ1쎯:	-9.1185
ㄧ0쎯ㄑㄧˇ4쎯	-9.11898
쎄쎈	-9.11938
ㄙㄢ0쎯ㄍㄜˇ0쎯	-9.11945
ㄉㄨㄥ1쎯	-9.12035
ㄌㄧㄡˇ0쎯	-9.12083
ㄐㄧˋ11쎯	-9.12138
.ㄊㄚ1쎯	-9.12145
》.	-9.12225
ㄅㄧㄠˇ0쎯ㄕˋ2쎯	-9.12274
ㄎㄨㄢˇ쎯	-9.12282
ㄕˋ10쎯	-9.12307
ㄅㄠˇ2쎯ㄒㄧㄢˇ1쎯	-9.12318
ㄧㄡˊ1쎯ㄩˊ0쎯	-9.12381
ㄔㄨㄢˊ0쎯ㄅㄛ4쎯	-9.1242
ㄗㄜˊ3쎯	-9.12432
ㄧㄢˊ6쎯ㄈㄚ쎯	-9.1248
ㄈㄣ0쎯ㄅㄧㄝˊ0쎯	-9.12578
ㄕㄤˇ0쎯ㄏㄞˇ0쎯ㄕˋ4쎯	-9.12588
ㄓㄥ5쎯	-9.12614
ㄔㄤˊ4쎯ㄐㄧㄢˋ0쎯	-9.12641
ㄩㄝ0쎯	-9.1267
ㄕㄣˊ1쎯ㄐㄧㄥ2쎯	-9.1272
ㄨㄢˇ2쎯	-9.12739
ㄕㄨ9쎯ㄔㄨ0쎯	-9.12889
ㄊㄨㄟ0쎯	-9.12975
ㄏㄨㄟ0쎯	-9.13017
ㄩㄢˊ2쎯ㄍㄨㄥ0쎯	-9.13159
ㄘㄞˇ0쎯	-9.13159
ㄍㄠ0쎯ㄉㄥˇ0쎯	-9.13171
ㄨㄢˊ1쎯ㄕㄢˋ0쎯	-9.13197
ㄎㄠˇ0쎯ㄕˋ11쎯	-9.13246
,ㄧㄡˋ0쎯	-9.13274
ㄔㄠˇ쎯	-9.13354
ㄧㄥˋ1쎯	-9.13506
ㄇㄧㄣˊ0쎯ㄓㄥˋ3쎯ㄈㄨˇ3쎯	-9.13727
ㄖㄨㄛˋ1쎯	-9.1375
ㄍㄨㄛˊ0쎯ㄐㄧㄚ3쎯ㄐㄧˊ2쎯	-9.13752
ㄗㄨㄛˇ0쎯ㄧㄡˋ1쎯	-9.13837
ㄑㄩˇ0쎯ㄉㄜˊ0쎯	-9.13855
ㄐㄧㄚˋ0쎯	-9.13972
ㄍㄠ0쎯ㄓㄨㄥ0쎯	-9.14099
ㄍㄨㄟ2쎯ㄉㄧㄥˋ1쎯	-9.14162
ㄌㄧㄥˇ1쎯	-9.14165
ㄍㄨˋ0쎯	-9.14206
ㄘㄨ쎯	-9.14269
ㄕㄠ1쎯	-9.14304
▁̇ㄉㄜ1쎯ㄓㄨㄢ0쎯ㄧㄝˋ0쎯	-9.14326
ㄔㄥˊ4쎯ㄡ0쎯	-9.14473
ㄉㄚˋ쎯ㄌㄧㄡˋ1쎯	-9.14565
ㄌㄧㄤˊ1쎯	-9.14592
ㄌㄧˋ8쎯	-9.146
ㄗㄨㄛˋ0쎯	-9.14619
ㄘㄨˋ1쎯ㄐㄧㄣˋ0쎯	-9.1469
ㄒㄧˇ2쎯ㄏㄨㄢ0쎯	-9.14695
ㄍㄥ2쎯	-9.14699
ㄎㄨㄞˋ1쎯ㄙㄨˋ3쎯	-9.14771
▁̇ㄉㄜ1쎯ㄧㄢˊ6쎯ㄐㄧㄡ1쎯	-9.14796
ㄕㄨ8쎯	-9.14812
ㄏㄨˊ5쎯ㄅㄟˇ쎯ㄕㄥˇ0쎯	-9.14919
ㄇㄨˋ1쎯ㄅㄧㄠ0쎯	-9.14957
ㄧˋ15쎯	-9.15003
ㄏㄢˊ4쎯ㄍㄨㄛˊ0쎯	-9.15217
ㄒㄧㄥˊ1쎯ㄒㄧㄤˋ2쎯	-9.15234
쎂쎀쎀쎈ㄋㄧㄢˊ0쎯	-9.15266
ㄊㄨㄛ2쎯	-9.15302
ㄒㄧㄢ1쎯ㄏㄡˋ0쎯	-9.15326
ㄐㄧㄥˋ7쎯	-9.15419
ㄜˇ쎯	-9.1564
ㄐㄩ1쎯ㄇㄧㄣˊ0쎯	-9.15698
ㄑㄧˊ8쎯	-9.15847
ㄐㄧㄤˇ0쎯	-9.15905
ㄞˋ0쎯	-9.15927
ㄉㄤˇ1쎯ㄨㄟˇ5쎯	-9.15954
ㄆㄛˋ0쎯	-9.15977
ㄉㄤˇ1쎯ㄩㄢˊ2쎯	-9.15988
ㄑㄧㄝˇ쎯	-9.16027
ㄉㄚˋ쎯ㄌㄧㄤˊ3쎯	-9.16078
ㄒㄩˇ0쎯	-9.16092
ㄊㄜˋ0쎯ㄓㄥ2쎯	-9.16138
ㄈㄣ0쎯ㄅㄨˋ1쎯	-9.16178
ㄇㄛˊ7쎯	-9.16237
ㄐㄧㄤ2쎯	-9.16356
ㄒㄧㄚˋ0쎯,	-9.16496
ㄕㄜˋ0쎯ㄌㄧˋ3쎯	-9.16503
ㄗˋ0쎯ㄧㄡˊ1쎯	-9.16521
ㄕㄡˋ1쎯ㄉㄠˋ0쎯	-9.16677
ㄊㄨㄢˊ0쎯ㄉㄨㄟˋ0쎯	-9.16753
ㄖㄨˊ0쎯ㄏㄜˊ1쎯	-9.16834
ㄍㄨㄤˇ0쎯ㄉㄚˋ쎯	-9.16864
ㄐㄧㄚˇ2쎯	-9.16879
ㄐㄧㄤ0쎯ㄒㄧ1쎯	-9.16955
ㄓㄨˋ7쎯	-9.1697
ㄉㄡˋ2쎯ㄓㄜˇ0쎯	-9.1699
ㄔㄥˊ3쎯	-9.17092
ㄓㄨㄤˋ1쎯ㄊㄞˋ2쎯	-9.17173
ㄓㄨˇ2쎯	-9.17188
쎂쎀쎀쎉ㄋㄧㄢˊ0쎯	-9.17212
ㄗㄨㄟˋ0쎯ㄐㄧㄚ2쎯	-9.17228
ㄐㄩㄝˊ0쎯ㄉㄧㄥˋ1쎯	-9.17266
ㄕˊ3쎯ㄐㄧㄢˋ10쎯	-9.17378
ㄨㄟˊ3쎯ㄧ0쎯	-9.1748
,ㄗㄞˋ0쎯	-9.1752
ㄔㄣˊ3쎯	-9.17572
ㄊㄜˋ0쎯ㄅㄧㄝˊ0쎯	-9.17753
ㄐㄧㄠ0쎯ㄧˋ12쎯	-9.17763
,ㄐㄩˋ2쎯ㄧㄡˇ1쎯	-9.178
ㄓ0쎯ㄏㄡˋ0쎯	-9.17869
ㄢ0쎯ㄏㄨㄟ4쎯ㄕㄥˇ0쎯	-9.17879
ㄍㄨㄟˋ1쎯	-9.18052
ㄏㄨㄟˋ1쎯	-9.18066
ㄓㄨˋ5쎯	-9.18086
ㄧㄢ5쎯	-9.181
ㄌㄠˊ0쎯	-9.18142
1	-9.18167
ㄍㄨˇ4쎯	-9.18169
ㄓㄜˇ0쎯,	-9.18411
ㄧㄢˊ0쎯	-9.18438
ㄔˇ0쎯	-9.18527
ㄈㄤ0쎯ㄢˋ2쎯	-9.18533
▁̇ㄅㄛ0쎯	-9.18549
쎂쎀쎀쎅ㄋㄧㄢˊ0쎯	-9.18555
ㄍㄤ3쎯	-9.18599
ㄐㄧㄝ0쎯ㄇㄨˋ1쎯	-9.18637
ㄆㄧㄢ1쎯	-9.18752
ㄏㄨˊ5쎯ㄋㄚ1쎯ㄕㄥˇ0쎯	-9.18766
ㄇㄞˋ1쎯	-9.18767
ㄗㄥˋ0쎯ㄍㄜˇ1쎯ㄒㄧㄥˋ2쎯	-9.18789
ㄒㄩˇ0쎯ㄉㄨㄛ0쎯	-9.18863
ㄗㄚˊ0쎯ㄓˋ1쎯	-9.18874
ㄌㄧㄢˊ0쎯ㄒㄩˋ6쎯	-9.18892
ㄒㄧㄢˊ1쎯	-9.19004
'	-9.19133
ㄕㄤ1쎯ㄆㄧㄣˇ쎯	-9.19136
ㄔㄨㄤ0쎯ㄐㄧㄢˋ2쎯	-9.19166
ㄕㄜˋ3쎯	-9.19203
ㄧ0쎯ㄐㄧˊ2쎯	-9.19525
ㄊㄨㄟ0쎯ㄔㄨ0쎯	-9.19536
ㄕㄨㄟˋ1쎯	-9.19696
ㄒㄩㄥ4쎯	-9.19823
ㄐㄧㄝˊ1쎯	-9.19909
ㄕㄥ1쎯,	-9.20006
ㄩˋ8쎯	-9.20049
ㄕˇ3쎯	-9.20221
,ㄧㄝˇ0쎯ㄕˋ15쎯	-9.20252
ㄧㄣˇ3쎯	-9.20284
ㄙㄣ쎯ㄌㄧㄣˊ1쎯	-9.2034
ㄏㄤˊ0쎯ㄨㄟˊ0쎯	-9.20385
ㄇㄛˊ5쎯	-9.20441
ㄌㄨㄢˋ쎯	-9.20563
ㄧㄤˊ0쎯	-9.2058
ㄈㄨˊ7쎯	-9.20596
ㄓㄥˇ1쎯ㄍㄜˇ0쎯	-9.20636
,ㄧㄝˇ0쎯	-9.20646
ㄇㄟˊ0쎯	-9.20661
ㄇㄧㄥˊ1쎯ㄒㄧㄢˇ0쎯	-9.20923
ㄕㄨˇ5쎯ㄗˋ1쎯	-9.20985
쎅ㄩㄝˋ0쎯	-9.2111
쎂쎀쎀쎇ㄋㄧㄢˊ0쎯	-9.21263
ㄒㄧㄝˋ5쎯	-9.21275
,ㄍㄨˋ1쎯	-9.21352
ㄔㄥˊ5쎯	-9.21468
ㄍㄨㄥ2쎯ㄍㄨㄥˋ0쎯	-9.21494
ㄈㄨˋ0쎯	-9.21512
ㄏㄤˊ3쎯ㄎㄨㄥ0쎯	-9.21612
ㄕㄨˇ5쎯ㄒㄩㄝˊ1쎯	-9.21641
ㄍㄨㄥ0쎯ㄗㄨㄛ0쎯ㄓㄜˇ0쎯	-9.21648
ㄐㄧㄢˇ8쎯	-9.21673
ㄕㄣ5쎯ㄓㄣˋ4쎯	-9.2173
쎁ㄩㄝˋ0쎯	-9.21751
쎄ㄩㄝˋ0쎯	-9.21795
ㄩˊ0쎯ㄧ0쎯ㄊㄧ0쎯	-9.21814
ㄒㄧㄡ0쎯ㄒㄧㄢˊ0쎯	-9.21833
ㄏㄨㄢˊ0쎯ㄅㄠˇ2쎯	-9.21847
ㄏㄨㄟˋ2쎯ㄐㄧˋ0쎯	-9.21942
ㄏㄤˊ2쎯ㄓㄡ1쎯	-9.21949
ㄍㄢ1쎯	-9.22004
ㄕˊ3쎯ㄐㄧˋ5쎯	-9.22005
ㄊㄨㄟˋ0쎯	-9.22054
ㄗㄨㄟˋ0쎯ㄒㄧㄣ5쎯	-9.22083
ㄕㄢ0쎯ㄒㄧ1쎯	-9.22177
ㄑㄩㄢˊ1쎯ㄘㄨㄣ0쎯	-9.2218
쎃쎄	-9.22253
ㄕˋ11쎯ㄧㄢˋ5쎯	-9.22323
ㄖㄣˋ1쎯ㄨㄟˊ0쎯	-9.22331
쎆쎀쎀	-9.22338
ㄐㄧ13쎯ㄐㄧㄢ4쎯	-9.2236
ㄐㄧˊ4쎯ㄎㄜˇ0쎯	-9.22439
ㄐㄧ11쎯ㄐㄧˊ3쎯	-9.22496
ㄧˋ4쎯	-9.22561
,ㄏㄡˋ0쎯	-9.22564
ㄉㄨㄥ0쎯ㄋㄚ1쎯	-9.22571
,ㄩㄥˋ0쎯	-9.22628
》《	-9.22688
ㄍㄨㄤˇ0쎯ㄔㄤˊ1쎯	-9.22894
ㄐㄧ11쎯	-9.22908
ㄌㄧˇ2쎯,	-9.22927
ㄕㄢˇ1쎯ㄒㄧ1쎯	-9.23002
ㄒㄧㄥˋ3쎯	-9.23011
ㄐㄧㄥˋ7쎯ㄋㄟˋ쎯	-9.23019
ㄒㄧㄠˇ0쎯ㄡ0쎯	-9.23044
′	-9.23154
ㄈㄢˊ0쎯	-9.23275
ㄌㄡˋ2쎯	-9.23275
ㄧㄣ0쎯ㄨㄟˊ0쎯	-9.23416
ㄎㄨㄥˋ0쎯	-9.23449
ㄐㄧㄥ0쎯	-9.2348
쎃쎈	-9.23496
ㄖㄨㄣˋ1쎯	-9.23523
ㄐㄧㄢˇ8쎯ㄔㄣˋ1쎯	-9.23569
ㄅㄠ0쎯ㄓㄨㄤ3쎯	-9.23586
ㄈㄨˋ4쎯	-9.23618
ㄩˋ6쎯	-9.23663
ㄔㄨㄤ0쎯ㄗㄠˋ2쎯	-9.23693
ㄒㄧㄣ5쎯ㄐㄧㄤ6쎯	-9.23878
ˋ	-9.23897
ㄍㄨㄟˋ2쎯	-9.23963
ㄒㄧ1쎯ㄅㄨˋ4쎯	-9.23982
ㄅㄧˋ1쎯	-9.23996
ㄓㄡ3쎯	-9.24005
ㄉㄠˇ0쎯ㄧㄢˇ3쎯	-9.2404
ㄔㄠˊ3쎯	-9.24046
ㄐㄧㄥ2쎯ㄉㄧㄢˇ0쎯	-9.2408
ㄑㄧㄢ1쎯	-9.24217
ㄨㄟˊ2쎯	-9.24219
쎂쎀쎀쎀	-9.24219
ㄏㄞˊ0쎯ㄧㄡˇ1쎯	-9.24243
ㄔㄚˊ2쎯	-9.24244
쎇쎅	-9.24397
ㄊㄜˋ0쎯ㄕㄨ4쎯	-9.24418
ㄓㄨㄥ1쎯	-9.24514
ㄉㄧˊ1쎯	-9.24622
쎂쎀쎀쎀ㄋㄧㄢˊ0쎯	-9.24647
ㄉㄧㄢˋ0쎯ㄌㄧˋ0쎯	-9.24656
쎆ㄩㄝˋ0쎯	-9.24658
ㄧㄡˋ0쎯ㄔㄣˋ1쎯	-9.24757
ㄅㄟˋ3쎯	-9.2478
ㄑㄧㄤˊ0쎯	-9.24782
ㄏㄟ0쎯ㄌㄨㄥˊ0쎯ㄐㄧㄤ0쎯	-9.24923
ㄇㄟˇ1쎯ㄌㄧˊ0쎯	-9.24946
ㄧ3쎯ㄒㄩㄝˊ1쎯ㄩㄢˋ2쎯	-9.24977
,ㄙㄨㄛˇ0쎯ㄧˇ2쎯	-9.25052
ㄇㄟˊ5쎯ㄊㄧ0쎯	-9.25068
▁̇ㄉㄜ0쎯ㄓˋ4쎯	-9.25071
ㄉㄧㄢˋ9쎯	-9.25173
ㄘㄨㄣˊ쎯ㄗㄞˋ1쎯	-9.25276
ㄅㄧㄢ1쎯ㄐㄧˊ9쎯	-9.25344
ㄨㄟˋ2쎯ㄓˋ13쎯	-9.25429
ㄧㄚˊ0쎯	-9.25505
ㄧˋ11쎯	-9.25591
ㄅㄠˇ3쎯	-9.25615
ㄒㄧㄢˋ0쎯ㄔㄥˊ4쎯	-9.25675
ㄗˋ0쎯ㄖㄢˊ0쎯ㄘㄨㄣ0쎯	-9.25771
ㄈㄟˊ0쎯	-9.25801
ㄒㄩㄣˋ0쎯ㄌㄧㄢˋ0쎯	-9.25818
ㄧˇ2쎯ㄌㄞˊ0쎯	-9.25958
▁̇ㄉㄜ1쎯ㄓㄨˇ0쎯ㄧㄠ4쎯	-9.26027
ㄨㄞˋ쎯ㄎㄜ2쎯	-9.26101
ㄅㄢˋ0쎯ㄒㄩㄝˊ1쎯	-9.26103
ㄅㄟ4쎯	-9.26221
ㄌㄞˊ0쎯ㄗˋ0쎯	-9.26255
쎂ㄩㄝˋ0쎯	-9.26263
ㄓㄞˋ1쎯	-9.263
ㄗㄨˇ1쎯ㄍㄜˇ1쎯	-9.26375
ㄌㄧㄥˊ10쎯	-9.2641
ㄈㄥˋ1쎯	-9.26552
ㄈㄚ쎯ㄅㄨˋ1쎯	-9.26633
ㄕㄜˇ쎯	-9.26726
▁̇ㄉㄜ1쎯ㄖㄣˊ0쎯	-9.26785
ㄐㄧˋ0쎯ㄙㄨㄢˋ1쎯	-9.26834
ㄕㄜˋ0쎯ㄓˋ13쎯	-9.26891
ㄑㄩㄣˊ1쎯ㄓㄨㄥˋ1쎯	-9.26969
ㄋㄚ1쎯ㄅㄨˋ4쎯	-9.27004
ㄒㄧㄤˊ1쎯	-9.2705
ㄧˊ7쎯ㄉㄨㄥˋ0쎯	-9.27111
ㄙㄨㄢˋ1쎯	-9.27117
ㄕˋ6쎯	-9.2712
쎃쎇	-9.27139
ㄈㄢˊ3쎯	-9.27174
쎃ㄩㄝˋ0쎯	-9.27183
ㄗㄨㄣ0쎯	-9.27213
×	-9.27219
ㄓㄤˇ1쎯	-9.2726
ㄈㄥ1쎯ㄐㄧㄥˇ1쎯	-9.27293
ㄘㄠˊ0쎯	-9.2733
ㄏㄨㄚˊ3쎯	-9.27343
ㄒㄧㄚˊ5쎯	-9.27346
ㄧˋ0쎯	-9.2736
ㄙ	-9.27362
ㄘㄜˋ0쎯	-9.27456
ㄉㄧˋ3쎯ㄙˋ1쎯	-9.2747
ㄏㄜˊ3쎯ㄅㄟˇ쎯ㄕㄥˇ0쎯	-9.27642
쎆쎄	-9.27693
ㄓˋ0쎯ㄐㄧㄣ2쎯	-9.27856
ㄦˋ0쎯ㄕˊ0쎯	-9.27876
ㄧㄣˋ0쎯ㄉㄨˋ2쎯	-9.27879
ㄍㄨㄛˊ0쎯ㄇㄧㄣˊ0쎯	-9.27905
ㄊㄡˋ쎯	-9.27938
ㄊㄨㄥ0쎯ㄒㄧㄣˋ0쎯	-9.27974
ㄅㄚˋ0쎯	-9.28095
ㄌㄤˊ0쎯	-9.2813
ㄐㄧㄠˋ2쎯ㄩㄢˊ1쎯	-9.28147
쎂쎀쎀쎄ㄋㄧㄢˊ0쎯	-9.28284
ㄧㄤˋ0쎯	-9.28396
ㄐㄧˋ10쎯	-9.2845
ㄉㄨㄥˋ0쎯ㄏㄨㄚˋ1쎯	-9.28569
ㄐㄧㄡˋ3쎯	-9.28613
ㄖㄣˊ3쎯ㄨˋ2쎯	-9.28631
쎂쎀쎀쎂ㄋㄧㄢˊ0쎯	-9.2864
ㄗ2쎯	-9.28706
ㄊㄡˊ1쎯	-9.28724
ㄖㄣˋ1쎯ㄓㄥˋ0쎯	-9.28856
ㄌㄧㄤˋ0쎯	-9.28861
ㄍㄤ2쎯	-9.28886
ㄕㄜˋ6쎯ㄧㄥˇ1쎯	-9.28897
ㄉㄨㄛ0쎯ㄘˋ0쎯	-9.28974
ㄔㄤˋ2쎯	-9.29068
ㄕㄨ9쎯ㄖㄨˋ0쎯	-9.29073
ㄨㄟˋ12쎯	-9.29081
ㄧㄠ5쎯	-9.29159
,ㄧˇ2쎯ㄐㄧˊ0쎯	-9.29177
ㄧㄢˇ3쎯	-9.29191
ㄉㄚˋ쎯ㄒㄧㄠˇ0쎯	-9.29208
ㄕㄢ0쎯ㄡ0쎯	-9.29257
ㄍㄨㄛ1쎯	-9.29289
ㄍㄨㄥˋ0쎯ㄧㄡˇ1쎯	-9.29354
ㄐㄧ12쎯ㄐㄧㄣ3쎯	-9.29529
ㄍㄨˋ0쎯ㄉㄧㄥˋ1쎯	-9.29539
ㄉㄞˋ0쎯ㄌㄧˇ3쎯	-9.29595
ㄑㄧㄤ2쎯	-9.29614
ㄗ2쎯ㄐㄧㄣ3쎯	-9.29683
ㄕˊ3쎯ㄩㄥˋ0쎯	-9.29689
ㄐㄧㄣˇ3쎯	-9.29694
ㄐㄧˇ3쎯	-9.29754
ㄓˊ4쎯ㄍㄨㄥ0쎯	-9.29757
ㄉㄞ1쎯	-9.29779
ㄕˊ3쎯ㄧㄢˋ5쎯ㄕˋ18쎯	-9.29813
ㄧˋ18쎯ㄉㄚˋ쎯ㄌㄧˋ6쎯	-9.29844
ㄎㄜˋ3쎯ㄊㄧˊ1쎯	-9.29875
ㄗㄨㄟˋ0쎯ㄗㄠˇ0쎯	-9.29878
ㄒㄧㄠˋ2쎯	-9.29966
ㄔㄠ4쎯ㄍㄨㄛ0쎯	-9.30028
ㄙㄨˋ3쎯ㄉㄨˋ2쎯	-9.30063
ㄊㄨ2쎯ㄔㄨ0쎯	-9.30092
ㄔㄨㄤ0쎯ㄅㄢˋ0쎯	-9.30222
ㄙㄤ1쎯	-9.30266
ㄐㄧˋ7쎯	-9.30314
ㄓ	-9.30365
ㄩㄣˋ1쎯ㄩㄥˋ0쎯	-9.30451
ㄐㄧˋ2쎯ㄋㄥˊ쎯	-9.30463
ㄕˋ16쎯ㄌㄧㄤˊ3쎯	-9.30543
ㄕㄡ쎯ㄘㄤˊ쎯	-9.30609
ㄒㄧㄣ2쎯	-9.30704
쎁쎉쎉쎈ㄋㄧㄢˊ0쎯	-9.3078
ㄅㄧˋ1쎯ㄒㄩ1쎯	-9.30798
ㄒㄩㄢˊ0쎯	-9.30859
ㄧㄢˊ1쎯	-9.30885
ㄒㄧㄤ5쎯	-9.30919
ㄔㄥˊ0쎯ㄉㄡ0쎯	-9.30985
쎂쎀쎀쎃ㄋㄧㄢˊ0쎯	-9.30988
ㄇㄢˋ1쎯ㄏㄨㄚˋ1쎯	-9.31009
ㄉㄧㄠˋ2쎯ㄔㄚˊ2쎯	-9.31058
ㄓㄨˇ0쎯ㄍㄨㄢˇ1쎯	-9.31076
ㄌㄧㄡˊ3쎯ㄏㄤˊ0쎯	-9.31154
ㄐㄧㄣˋ0쎯ㄅㄨˋ2쎯	-9.31161
ㄐㄩㄣ0쎯ㄕˋ8쎯	-9.31168
ㄏㄟ0쎯ㄙㄜˋ0쎯	-9.31182
ㄐㄧㄥˇ2쎯	-9.31198
쎇ㄩㄝˋ0쎯	-9.31237
ㄖㄣˊ3쎯ㄏㄜˊ1쎯	-9.31291
ㄓㄨㄢ0쎯ㄇㄣˊ0쎯	-9.31306
ㄊㄢˊ1쎯	-9.31354
ㄋㄞˋ1쎯	-9.31413
ㄧㄢˊ6쎯ㄐㄧㄡ1쎯ㄩㄢˋ2쎯	-9.31431
ㄒㄧ1쎯ㄢ0쎯	-9.3146
ㄓㄥˋ3쎯ㄒㄧㄝˊ1쎯	-9.31485
ㄐㄧㄥˇ1쎯ㄍㄨㄢ1쎯	-9.31524
쎂쎀쎁쎁ㄋㄧㄢˊ0쎯	-9.31572
ㄇㄧㄥˊ0쎯.	-9.31668
ㄋㄩˇ0쎯ㄒㄧㄥˋ2쎯	-9.31693
ㄨˋ3쎯ㄌㄧㄡˊ3쎯	-9.31731
,ㄊㄨㄥˊ0쎯ㄕˊ1쎯	-9.31798
ㄇㄧˊ1쎯	-9.31811
ㄓㄨㄤ3쎯ㄅㄟˋ2쎯	-9.32039
ㄅㄛˊ5쎯ㄨˋ3쎯ㄍㄨㄢˇ0쎯	-9.32048
ㄎㄜ2쎯ㄐㄧˋ2쎯ㄧㄡˇ1쎯	-9.32107
▁̇ㄉㄜ1쎯ㄕˋ15쎯	-9.32114
쎂쎀쎀쎁ㄋㄧㄢˊ0쎯	-9.32137
ㄌㄧㄢˊ3쎯	-9.32143
ㄆㄞ쎯ㄕㄜˋ6쎯	-9.32193
ㄇㄢˇ0쎯ㄗㄨˊ0쎯	-9.32295
ㄊㄧㄢˊ2쎯	-9.32303
ㄅㄧˇ1쎯ㄙㄞˋ쎯	-9.32314
ㄅㄧㄢ1쎯ㄒㄧㄝˇ0쎯	-9.32336
ㄍㄨㄟ2쎯ㄈㄢˋ3쎯	-9.32363
,ㄒㄧㄢˋ1쎯ㄖㄣˊ3쎯	-9.32399
ㄕㄥ1쎯ㄇㄧㄥˋ쎯	-9.32504
ㄋㄟˋ쎯ㄇㄥ쎯ㄍㄨˇ0쎯	-9.32569
ㄐ	-9.32637
ㄐㄩˇ2쎯ㄅㄢˋ0쎯	-9.32669
ㄍㄨㄛ3쎯	-9.32705
쎂ㄍㄜˇ0쎯	-9.32723
ㄎㄜ2쎯ㄒㄩㄝˊ1쎯ㄩㄢˋ2쎯	-9.32808
ㄕˋ15쎯ㄗㄞˋ1쎯	-9.32831
ㄡ1쎯	-9.32878
ㄉㄨㄛ0쎯ㄍㄜˇ0쎯	-9.32938
ㄅㄧㄥˇ4쎯	-9.32945
ㄨˋ3쎯ㄓˋ4쎯	-9.32991
▁̇ㄉㄜ1쎯ㄌㄧˋ1쎯ㄕˇ0쎯	-9.33029
ㄒㄧㄣ0쎯ㄌㄧˇ3쎯	-9.33076
ㄩㄢˊ4쎯ㄌㄧㄠˋ0쎯	-9.33112
ㄕˇ3쎯ㄐㄧㄢˋ2쎯ㄩˊ0쎯	-9.33184
ㄍㄨˇ2쎯ㄈㄣˋ0쎯ㄧㄡˇ1쎯	-9.33198
ㄕㄡˋ4쎯	-9.33215
쎈쎀쎀	-9.33298
ㄊㄨㄥˇ0쎯ㄧ0쎯	-9.3337
ㄋㄞˇ0쎯	-9.33408
ㄏㄡˊ0쎯	-9.33411
ㄨㄥˋ0쎯ㄏㄜˊ2쎯ㄍㄨㄛˊ0쎯	-9.33437
ㄩㄣˋ3쎯	-9.33487
ㄇㄨˇ4쎯	-9.33617
ㄊㄨㄥ0쎯ㄔㄤˊ4쎯	-9.33669
°	-9.33679
▁̇ㄌㄜ쎯ㄐㄧㄝˇ1쎯	-9.33835
ㄅㄠˇ2쎯ㄐㄧㄢˋ6쎯	-9.33847
ㄅㄧˊ0쎯	-9.33968
ㄇㄚˇ1쎯	-9.34097
<	-9.34099
ㄆㄨˇ1쎯	-9.34122
쎁쎉쎉쎅ㄋㄧㄢˊ0쎯	-9.34137
ㄩˇ3쎯	-9.34227
ㄉㄨㄥ0쎯ㄈㄤ0쎯	-9.34254
ㄓㄜˋ0쎯ㄧㄤˋ0쎯	-9.34289
ㄧㄢˇ3쎯ㄩㄢˊ2쎯	-9.34363
ㄒㄧㄠˋ3쎯	-9.34367
쎃쎁	-9.34378
ㄕㄨˇ1쎯ㄩˊ0쎯ㄕㄢ0쎯ㄡ0쎯	-9.34395
쎃쎃	-9.34398
쎅쎅	-9.34451
ㄅㄟˇ쎯ㄅㄨˋ4쎯	-9.34472
ㄑㄧㄣˊ2쎯	-9.34485
쎆쎅	-9.34506
ㄓˋ11쎯ㄋㄥˊ쎯	-9.34521
ㄅㄠˇ2쎯ㄓㄤˋ6쎯	-9.34555
,ㄐㄩˋ5쎯	-9.34602
ㄒㄧㄠˋ0쎯	-9.34634
ㄊㄧㄢ0쎯ㄒㄧㄚˋ0쎯	-9.34667
ㄓㄨˇ0쎯ㄖㄣˊ3쎯ㄧ3쎯ㄕ2쎯	-9.34671
ㄙㄜˋ0쎯ㄘㄞˇ1쎯	-9.34864
ㄐㄧㄠˇ0쎯ㄙㄜˋ0쎯	-9.34941
ㄇㄞˋ2쎯	-9.34972
ㄊㄧㄝ1쎯	-9.35031
ㄩㄢˊ4쎯ㄌㄧˇ3쎯	-9.3513
ㄉㄤ0쎯ㄕˊ1쎯	-9.35135
ㄐㄧˊ5쎯	-9.35184
ㄑㄧㄥˇ1쎯	-9.3519
ㄍㄡˋ0쎯ㄔㄥˊ0쎯	-9.35241
ㄒㄧㄠˇ0쎯ㄕˊ1쎯	-9.35311
ㄒㄩ1쎯	-9.35354
ㄘㄜˋ3쎯	-9.35365
ㄘㄞˊ2쎯ㄨˋ2쎯	-9.35386
ㄐㄧㄥˋ1쎯	-9.35435
’	-9.35476
ㄒㄧㄤˇ0쎯ㄕㄡˋ1쎯	-9.35534
ㄍㄞˋ5쎯ㄋㄧㄢˋ0쎯	-9.35568
ㄐㄧˋ1쎯ㄌㄨˋ0쎯	-9.35568
ㄍㄢ3쎯	-9.35621
ㄔㄨㄢ1쎯	-9.35678
ㄨ5쎯	-9.35705
ㄅㄧㄠˇ0쎯ㄧㄢˇ3쎯	-9.35722
ㄔㄥˊ0쎯ㄔㄤˊ0쎯	-9.35723
ㄎㄠˋ1쎯	-9.35758
ㄒㄧˇ0쎯	-9.35806
ㄋㄟˋ쎯ㄅㄨˋ4쎯	-9.35823
,ㄅㄟˋ5쎯	-9.35853
ㄧㄢˊ5쎯	-9.35907
ㄊㄨㄥˇ0쎯ㄐㄧˋ0쎯	-9.35952
ㄨㄢˊ2쎯	-9.36003
ㄅㄨˋ4쎯ㄉㄨㄟˋ0쎯	-9.36079
ㄍㄨㄛ0쎯ㄔㄥˊ7쎯ㄓㄨㄥ0쎯	-9.36097
ㄕㄠ3쎯	-9.36105
ㄕˊ0쎯ㄦˋ0쎯	-9.36131
▁̇ㄉㄜ0쎯ㄌㄧˇ3쎯	-9.36207
ㄐㄧˊ8쎯ㄔㄥˊ0쎯	-9.3634
ㄕˋ16쎯ㄍㄜˇ1쎯	-9.36427
ㄏㄨㄢˋ2쎯	-9.3644
ㄅㄠˇ2쎯ㄔˊ4쎯	-9.36447
ㄔㄨ0쎯ㄌㄞˊ0쎯	-9.36532
ㄕ3쎯ㄖㄣˊ0쎯	-9.36647
ㄧˋ21쎯	-9.36737
ㄊㄧㄥˊ2쎯	-9.36868
ㄓㄨˋ7쎯ㄗㄨㄛ0쎯	-9.36878
ㄐㄧㄥˋ0쎯	-9.36889
ㄎㄞˇ0쎯	-9.36981
ㄘㄢˊ0쎯	-9.37108
ㄕㄚ4쎯	-9.37119
ㄓ2쎯ㄧㄡˇ1쎯	-9.37181
ㄉㄢˋ0쎯ㄧㄡˊ4쎯	-9.37196
ㄓㄜˊ0쎯ㄒㄩㄝˊ1쎯	-9.37235
ㄎㄜˇ0쎯ㄋㄥˊ쎯	-9.37253
ㄆㄧㄥˊ0쎯ㄐㄩㄣ1쎯	-9.37331
(ㄐㄧㄣ2쎯	-9.37351
ㄐㄧㄢˇ6쎯	-9.37407
ㄔㄥˊ7쎯ㄉㄨˋ2쎯	-9.37413
ㄎㄢ0쎯	-9.37532
ㄌㄧㄝˋ4쎯	-9.37533
쎄쎀쎀	-9.37544
ㄊㄨㄢˊ0쎯ㄊㄧ0쎯	-9.37547
ㄒㄧㄠˋ3쎯ㄌㄧˋ0쎯ㄩˊ0쎯	-9.37555
ㄒㄩ4쎯ㄑㄧㄡˊ1쎯	-9.37676
ㄑㄧˇ4쎯ㄌㄞˊ0쎯	-9.3771
ㄕˋ8쎯ㄐㄧㄢˋ1쎯	-9.37724
ㄅㄞˊ1쎯	-9.37876
ㄇㄧㄥˊ2쎯	-9.37893
ㄐㄧㄢˋ6쎯	-9.37896
...	-9.38093
ㄈㄨˊ1쎯	-9.38135
ㄊㄨˊ1쎯	-9.38208
쎅-	-9.38229
ㄧˊ8쎯	-9.38292
ㄈㄨˋ2쎯	-9.38336
ㄓˇ0쎯	-9.3835
ㄇㄡˇ쎯	-9.3843
ㄗˋ0쎯ㄓˋ5쎯ㄡ0쎯	-9.38437
ㄈㄢˋ3쎯	-9.38445
ㄍㄨㄥ4쎯	-9.38447
ㄨㄟˋ1쎯ㄌㄞˊ0쎯	-9.38523
ㄘㄜˋ3쎯ㄌㄧㄤˊ3쎯	-9.3855
쎄쎄	-9.38615
ㄇㄛˊ3쎯	-9.38703
,ㄒㄧㄢˋ1쎯	-9.38731
ㄧˊ7쎯	-9.38861
ㄦˊ1쎯ㄔㄥˊ0쎯	-9.38939
ㄅㄨˋ0쎯ㄕˋ15쎯	-9.38958
ㄒㄧㄤ1쎯ㄉㄨㄟˋ1쎯	-9.39112
ㄧㄡˊ3쎯	-9.3915
ㄗㄨㄥˋ0쎯	-9.39153
ㄈㄨˋ4쎯ㄐㄧㄣˋ1쎯	-9.39192
ㄋㄟˋ쎯ㄓˋ13쎯	-9.39198
ㄅㄨˋ0쎯ㄎㄜˇ0쎯	-9.39199
ㄌㄨˊ0쎯	-9.39206
ㄍㄢˇ3쎯ㄖㄢˇ1쎯	-9.39235
ㄐㄩ4쎯	-9.39322
ㄨㄟˋ5쎯	-9.39518
ㄕㄨ0쎯ㄐㄧˋ1쎯	-9.39586
ㄏㄞˊ1쎯ㄗˇ0쎯	-9.39608
ㄒㄧ3쎯	-9.3962
ㄈㄢ2쎯	-9.39697
ㄍㄨㄛˊ0쎯ㄨˋ2쎯ㄩㄢˋ2쎯	-9.39794
ㄈㄨˊ5쎯ㄓㄨㄤ3쎯	-9.39798
ㄖㄨㄥˊ9쎯	-9.39801
ㄧ0쎯ㄋㄧㄢˊ0쎯	-9.39802
ㄔㄥˊ3쎯ㄉㄢ1쎯	-9.39816
쎉쎈	-9.39825
▁̇ㄉㄜ0쎯.	-9.39869
ㄎㄞ0쎯ㄈㄤˋ쎯	-9.3989
ㄅㄠ3쎯	-9.40035
ㄓㄢˇ2쎯ㄕˋ2쎯	-9.40064
ㄍㄨㄟˇ2쎯	-9.40094
ㄔㄨㄤˊ0쎯	-9.40482
ㄅㄛ2쎯ㄌㄧˊ7쎯	-9.40526
ㄉㄧㄢˋ0쎯ㄕˋ12쎯ㄊㄞ0쎯	-9.40574
ㄔㄥˊ0쎯ㄐㄧˋ15쎯	-9.40579
ㄒㄧㄢˋ0쎯ㄖㄣˊ0쎯	-9.40638
(),	-9.40847
ㄘㄨㄣ0쎯ㄇㄧㄣˊ0쎯	-9.40858
ㄗㄨㄟˋ0쎯ㄏㄡˋ0쎯	-9.40882
-쎁	-9.4089
ㄖㄨㄥˊ2쎯ㄏㄨㄛˋ2쎯	-9.40932
ㄍㄨㄥ0쎯ㄔㄥˊ7쎯ㄕ2쎯	-9.41127
ㄨㄣˊ0쎯ㄧˋ2쎯	-9.41222
ㄗㄞˋ1쎯ㄓㄨㄥ0쎯ㄍㄨㄛˊ0쎯	-9.41315
ㄌㄧㄢˊ4쎯ㄐㄧˋ3쎯	-9.41348
ㄇㄥˋ0쎯	-9.41393
ㄆㄧㄥˊ1쎯	-9.41424
ㄆㄨ2쎯	-9.41428
ㄉㄚˋ쎯ㄉㄠˋ3쎯	-9.41559
ㄧˇ2쎯ㄒㄧㄚˋ0쎯	-9.41634
ㄧˊ0쎯ㄑㄧˋ7쎯	-9.4167
ㄅㄢˋ0쎯ㄍㄨㄥ2쎯	-9.41714
ㄘㄢ0쎯ㄎㄠˇ0쎯	-9.41815
ㄐㄧㄤ0쎯ㄒㄧ1쎯ㄕㄥˇ0쎯	-9.41854
ㄏㄞˊ0쎯ㄕˋ15쎯	-9.41881
ㄑㄧˊ8쎯ㄒㄧㄚˋ0쎯	-9.42015
쎄쎂	-9.4209
ㄧ0쎯ㄧㄤˋ0쎯	-9.42109
ㄕㄢ0쎯ㄒㄧ1쎯ㄕㄥˇ0쎯	-9.42112
ㄍㄜ7쎯ㄕㄡˇ0쎯	-9.42186
쎄쎃	-9.42188
쎁쎉쎉쎃ㄋㄧㄢˊ0쎯	-9.4222
ㄢˋ1쎯ㄓㄠˋ2쎯	-9.42245
,ㄧㄣ0쎯	-9.42331
ㄒㄧㄣˋ0쎯ㄏㄠˊ0쎯	-9.42352
ㄒㄧ2쎯	-9.42422
ㄍㄞˇ쎯ㄅㄧㄢˋ0쎯	-9.42454
ㄉㄨㄣˋ3쎯	-9.42494
ㄕㄣˋ1쎯	-9.42538
쎁쎉쎉쎆ㄋㄧㄢˊ0쎯	-9.4255
ㄧㄝˇ0쎯.”	-9.42706
▁̇ㄉㄜ0쎯ㄒㄧㄚˋ0쎯	-9.4271
쎂.	-9.42834
ㄧㄡˇ1쎯ㄓㄠ2쎯	-9.42869
》ㄕ3쎯:“	-9.42876
ㄒㄧㄢˇ0쎯ㄎㄚˇ0쎯	-9.4293
,ㄎㄜˇ0쎯ㄧˇ2쎯	-9.42961
ㄒㄧㄠ2쎯	-9.43153
ㄒㄧㄢˋ0쎯ㄨㄟˇ5쎯	-9.43243
쎃쎉	-9.43305
ㄓˋ3쎯ㄉㄧㄥˋ1쎯	-9.43323
ㄨㄟˊ0쎯“	-9.43355
ㄧㄚ1쎯ㄌㄧˋ0쎯	-9.43358
ㄌㄨˊ3쎯	-9.43385
ㄘㄨㄥ2쎯	-9.43509
ㄓㄨˋ0쎯	-9.43546
ㄒㄧㄝˊ5쎯	-9.43593
쎆쎆	-9.43755
ㄓㄠ0쎯	-9.43773
ㄏㄤˊ3쎯	-9.43814
ㄉㄨㄟˋ1쎯ㄒㄧㄤˋ2쎯	-9.43824
ㄔㄨˇ3쎯	-9.4387
ㄏㄨㄥˊ1쎯ㄙㄜˋ0쎯	-9.43904
ㄧㄚ6쎯	-9.44059
ㄏㄨㄥˊ2쎯	-9.44067
ㄓㄨㄤˋ0쎯	-9.4407
ㄧㄝˋ1쎯	-9.44173
ㄨㄢˊ2쎯ㄐㄧㄚ3쎯	-9.44215
ㄧㄠˋ0쎯ㄨˋ3쎯	-9.44255
ㄉㄞˋ5쎯	-9.44266
ㄧㄢˊ6쎯ㄓˋ3쎯	-9.4429
ㄜˊ1쎯ㄌㄨㄛˊ0쎯ㄙ4쎯	-9.4432
ㄑㄩㄝˋ1쎯ㄉㄧㄥˋ1쎯	-9.44329
ㄒㄧㄤˊ0쎯ㄒㄧˋ1쎯	-9.44397
ㄍㄠ0쎯ㄐㄧㄠˋ2쎯	-9.44399
ㄘㄨㄣ0쎯ㄨㄟˋ2쎯ㄩˊ0쎯	-9.44403
ㄏㄜˋ2쎯	-9.44419
ㄩㄝˋ1쎯	-9.44439
ㄧㄚˋ1쎯ㄓㄡ3쎯	-9.44594
ㄓㄨㄤ3쎯ㄓˋ13쎯	-9.44609
ㄅㄟˋ2쎯	-9.44702
ㄩㄝˋ2쎯ㄉㄡˋ2쎯	-9.44738
ㄈㄨˋ6쎯	-9.44844
ㄔㄤˊ4쎯ㄩㄥˋ0쎯	-9.44885
ㄧㄡˇ1쎯ㄐㄧ6쎯	-9.44909
ㄓㄨㄥˋ1쎯ㄉㄨㄛ0쎯	-9.44948
ㄒㄧㄣ5쎯ㄒㄧㄥˊ2쎯	-9.45007
ㄐㄧㄥ4쎯	-9.45016
ㄏㄠˊ2쎯	-9.45205
ㄍㄨㄚˋ1쎯	-9.45303
「	-9.45409
쎁쎉쎉쎂ㄋㄧㄢˊ0쎯	-9.45456
쎅쎂	-9.45476
ㄧㄢˊ10쎯ㄙㄜˋ0쎯	-9.45508
ㄕㄣ5쎯ㄓㄣˋ4쎯ㄕˋ4쎯	-9.45525
ㄧㄥˇ1쎯ㄕˋ12쎯	-9.45534
」	-9.4558
ㄒㄩㄝˊ1쎯ㄓㄜˇ0쎯	-9.45598
ㄐㄧㄢˇ5쎯ㄔㄚˊ2쎯	-9.45614
ㄒㄩˋ1쎯	-9.4565
ㄘㄜˋ3쎯ㄕˋ11쎯	-9.45665
ㄐㄧㄢˋ2쎯ㄔㄥˊ0쎯	-9.45671
ㄨㄣˊ0쎯ㄗˋ1쎯	-9.45672
ㄐㄧㄤˇ0쎯ㄕㄨˋ2쎯	-9.45767
ㄍㄨㄚ0쎯	-9.45777
,ㄓㄢ0쎯	-9.45798
ㄒㄧㄠˇ1쎯	-9.45944
ㄓㄨㄟ0쎯	-9.46007
ㄐㄧㄥˋ4쎯	-9.46016
ㄖㄣˊ0쎯ㄇㄧㄣˊ0쎯ㄍ	-9.46016
ㄕㄥ1쎯ㄔㄤˊ0쎯	-9.46022
,ㄔㄥˊ0쎯ㄨㄟˊ0쎯	-9.4608
ㄇㄚˇ2쎯	-9.46115
ㄊㄠˊ1쎯	-9.46128
ㄓㄨㄥ0쎯ㄅㄨˋ4쎯	-9.46177
ㄧㄢˇ3쎯ㄔㄨ0쎯	-9.46207
ㄕˋ2쎯ㄈㄢˋ3쎯	-9.46245
ㄐㄧㄝ3쎯ㄍㄨㄛˇ0쎯	-9.46352
ㄏㄞˇ0쎯ㄧㄤˊ4쎯	-9.4637
ㄉㄧㄠˋ2쎯ㄓㄥˇ1쎯	-9.46437
ㄅㄞˇ2쎯	-9.46456
ㄉㄧㄢˋ0쎯ㄔˊ0쎯	-9.46468
ㄏㄨˋ0쎯ㄌㄧㄢˊ4쎯ㄨㄤˇ0쎯	-9.46495
ㄓㄨㄥˇ0쎯ㄌㄧㄡˊ8쎯	-9.46558
ㄇㄚ2쎯	-9.46605
ㄓㄣˋ1쎯	-9.46635
,ㄅㄠ0쎯ㄎㄨㄛˋ1쎯	-9.46679
ㄩˇ2쎯	-9.46683
ㄧㄡˋ2쎯	-9.46727
ㄐㄧㄢ3쎯ㄔˊ4쎯	-9.46753
ㄒㄧㄚ0쎯	-9.46754
ㄉㄧㄢˋ0쎯ㄏㄨㄚˋ2쎯	-9.468
ㄓㄥ1쎯	-9.46805
ㄐㄩ1쎯ㄓㄨˋ1쎯	-9.46828
ㄔㄨ0쎯ㄎㄡˇ쎯	-9.46964
ㄋㄩˇ0쎯ㄗˇ0쎯	-9.46976
ㄘˊ4쎯	-9.47065
ㄍㄨㄤˇ0쎯ㄅㄛ4쎯	-9.47134
ㄙㄨ0쎯ㄓㄡ1쎯	-9.4714
ㄗㄨㄥˇ0쎯ㄐㄧㄥ2쎯ㄌㄧˇ3쎯	-9.47178
ㄧˊ9쎯	-9.47182
ㄍㄡˋ1쎯ㄨˋ3쎯	-9.47251
ㄈㄢˇ0쎯ㄧㄥˋ0쎯	-9.47256
쎁쎉쎉쎇ㄋㄧㄢˊ0쎯	-9.47285
ㄈㄣ0쎯ㄗˇ0쎯	-9.47339
쎁쎉쎉쎄ㄋㄧㄢˊ0쎯	-9.47379
ㄔㄥˊ2쎯	-9.4745
ㄑㄧㄢˋ1쎯ㄨㄟˊ6쎯	-9.47486
ㄩˋ11쎯	-9.47486
ㄇㄟˊ6쎯	-9.47497
ㄕˋ15쎯ㄧ0쎯ㄇㄧㄥˊ0쎯	-9.4755
ㄔㄥˊ0쎯ㄕㄡˊ쎯	-9.47608
ㄌㄤˇ0쎯	-9.47717
ㄓㄨˋ1쎯ㄓㄞˊ쎯	-9.47766
ㄉㄥˇ0쎯ㄈㄤ0쎯ㄇㄧㄢˋ0쎯	-9.47775
ㄌㄧˇ3쎯ㄒㄧㄤˇ2쎯	-9.47871
ㄅㄤ0쎯	-9.47941
ㄔㄨㄢˊ0쎯》:“	-9.47961
ㄈㄟˋ2쎯	-9.47965
ㄩㄣˋ1쎯ㄧㄥˊ5쎯	-9.48005
ㄆㄧˊ0쎯ㄈㄨ1쎯	-9.48094
ㄖㄨㄥˊ4쎯ㄌㄧㄤˊ3쎯	-9.48097
ㄢˋ0쎯	-9.48163
ㄕㄠˇ쎯ㄋㄧㄢˊ0쎯	-9.48169
ㄘㄜˋ4쎯ㄏㄨㄚˊ0쎯	-9.48266
ㄐㄧㄝ1쎯ㄉㄨㄢˋ0쎯	-9.48329
ㄍㄨㄥ0쎯ㄕㄤ1쎯	-9.48385
ㄔㄤˊ2쎯	-9.4841
ㄒㄧ7쎯	-9.4843
%	-9.4852
,ㄧㄣ0쎯ㄘˇ0쎯	-9.48556
ㄒㄧㄝˊ1쎯	-9.48574
ㄧˇ0쎯	-9.48609
ㄧㄢˊ6쎯	-9.48697
ㄧㄥˋ1쎯ㄆㄢˊ1쎯	-9.48731
ㄨㄞˋ쎯ㄒㄧㄥˊ1쎯	-9.48798
ㄐㄧˊ8쎯ㄓㄨㄥ0쎯	-9.48844
ㄏㄨㄚ0쎯ㄩㄢˊ1쎯	-9.48984
ㄉㄨㄥ0쎯ㄒㄧ1쎯	-9.48997
▁̇ㄉㄜ1쎯ㄒㄧㄠˇ0쎯	-9.49008
ㄔㄨㄥˊ3쎯	-9.49028
ㄈㄟˋ1쎯	-9.49034
ㄐㄩˋ2쎯ㄊㄧ0쎯	-9.49042
ㄉㄧ2쎯ㄕㄥ0쎯	-9.49137
ㄋㄢˊ0쎯,	-9.49148
ㄐㄧˋ11쎯ㄒㄩˋ6쎯	-9.49169
ㄏㄣˇ0쎯ㄉㄨㄛ0쎯	-9.49222
ㄍㄜ2쎯	-9.49263
ㄎㄞ0쎯ㄈㄚ쎯ㄡ0쎯	-9.49385
ㄧㄡˋ2쎯ㄦˊ0쎯ㄩㄢˊ1쎯	-9.49426
ㄉㄧㄢˇ0쎯ㄒㄧㄥˊ2쎯	-9.49614
쎁쎉쎉쎉ㄋㄧㄢˊ0쎯	-9.497
ㄕㄡˇ0쎯ㄕㄨˋ0쎯	-9.49724
ㄧㄡˋ0쎯ㄇㄧㄥˊ0쎯	-9.49739
ㄏㄥˊ0쎯	-9.49742
ㄘㄨㄣˊ쎯ㄔㄨˇ2쎯	-9.49749
ㄐㄧㄣˇ2쎯	-9.49778
ㄧˇ2쎯ㄌㄞˊ0쎯,	-9.49779
▁̇ㄉㄜ1쎯ㄐㄧ12쎯ㄅㄣˇ0쎯	-9.49828
ㄐㄧㄝ4쎯ㄕㄡˋ1쎯	-9.49846
ㄏㄨㄚˋ1쎯ㄐㄧㄚ3쎯	-9.4986
ㄌㄩˇ2쎯	-9.49886
쎄쎆	-9.49898
,ㄋㄩˇ0쎯,	-9.49974
ㄓㄤˇ1쎯ㄨㄛˋ2쎯	-9.50011
ㄑㄧˇ3쎯	-9.5002
쎃ㄍㄜˇ0쎯	-9.50048
ㄘˊ6쎯	-9.50064
ㄈㄤ2쎯	-9.50104
ㄆㄧㄣˇ쎯ㄓˋ4쎯	-9.50115
ㄙㄨˋ4쎯	-9.50198
ㄐㄧˇ1쎯ㄋㄧㄢˋ0쎯	-9.50257
ㄔㄨㄢˊ0쎯ㄕㄨㄟˋ0쎯	-9.50264
ㄨㄟˊ6쎯ㄏㄨˋ2쎯	-9.50265
ㄉㄨㄥˋ2쎯	-9.50293
ㄓㄨㄢ0쎯ㄐㄧˊ9쎯	-9.50305
ㄍㄜˊ2쎯ㄕˋ5쎯	-9.50344
ㄧˊ8쎯ㄓˇ2쎯	-9.50357
ㄙ2쎯	-9.50413
ㄒㄧ3쎯ㄨㄤˋ3쎯	-9.50461
ㄗㄚ0쎯	-9.50515
,ㄗㄨㄥˇ0쎯	-9.50582
ㄊㄢˋ2쎯	-9.50719
ㄊㄞˋ2쎯	-9.50758
ㄧㄣ4쎯ㄆㄧㄣˊ1쎯	-9.50784
ㄅㄢˋ0쎯ㄕˋ8쎯ㄔㄨˇ0쎯	-9.5087
ㄐㄧㄝˇ1쎯ㄕˋ20쎯	-9.50899
ㄆㄣ쎯	-9.50913
ㄌㄧㄤˇ0쎯ㄔㄨㄥˊ1쎯	-9.50948
《ㄓㄨㄥ0쎯ㄍㄨㄛˊ0쎯	-9.50973
ㄉㄠˋ3쎯ㄌㄨˋ5쎯	-9.51034
쎀ㄆㄧㄥˊ0쎯ㄈㄤ0쎯ㄇㄧˇ0쎯	-9.5105
ㄓㄨˇ0쎯ㄅㄧㄢ1쎯	-9.51056
ㄐㄧˊ12쎯	-9.51091
ㄇㄧㄢˇ0쎯	-9.51116
ㄈㄣ0쎯ㄌㄟˋ2쎯	-9.51118
);	-9.51207
ㄐㄧㄠˋ1쎯	-9.5121
ㄆㄧㄥˊ2쎯	-9.51262
ㄕˋ16쎯ㄩㄥˋ0쎯ㄩˊ0쎯	-9.51264
ㄉㄨㄟˋ1쎯ㄩˊ0쎯	-9.51388
쎂쎀쎁쎂ㄋㄧㄢˊ0쎯	-9.51388
ㄉㄞˋ4쎯	-9.51392
ㄕㄢˇ1쎯ㄒㄧ1쎯ㄕㄥˇ0쎯	-9.5141
ㄖㄥˊ쎯	-9.51413
ㄊㄨˊ0쎯ㄕㄨ0쎯	-9.51435
-쎂	-9.51436
ㄗㄨˇ1쎯ㄐㄧㄢˋ2쎯	-9.5145
ㄉㄧˋ4쎯	-9.51499
ㄆㄤˊ1쎯	-9.51555
ㄌㄩˇ0쎯	-9.51556
ㄆㄣˊ0쎯	-9.51559
ㄓㄥ0쎯ㄔㄤˊ4쎯	-9.51577
ㄏㄨㄟˋ2쎯ㄩㄢˊ2쎯,	-9.51668
ㄏㄨㄢˋ5쎯ㄓㄜˇ0쎯	-9.51705
ㄓㄥ8쎯	-9.51719
ㄐㄧㄤ3쎯	-9.51726
쎁쎀쎀쎀	-9.51788
ㄉㄧㄢˇ0쎯	-9.51901
ㄕㄠˇ쎯ㄒㄩˇ0쎯	-9.51962
쎃-	-9.51994
ㄌㄨˋ2쎯	-9.52014
쎄ㄍㄜˇ0쎯	-9.52078
ㄘㄞˊ1쎯	-9.52121
ㄆㄧㄠˋ0쎯	-9.52175
ㄇㄟˊ2쎯	-9.52199
ㄆㄧㄥˊ5쎯	-9.52242
ㄧㄤˇ2쎯	-9.52252
ㄍㄡˋ1쎯	-9.52258
▁̇ㄉㄜ0쎯ㄑㄧㄡˊ2쎯	-9.52271
쎄쎇	-9.52281
ㄓㄡˊ0쎯ㄔㄥˊ3쎯	-9.52307
ㄅㄠˋ0쎯ㄍㄠˋ0쎯	-9.52319
ㄕㄣˇ0쎯	-9.5232
ㄇㄞˇ0쎯	-9.5234
ㄍㄨㄛˊ0쎯ㄊㄨˇ0쎯	-9.52582
ㄩˋ9쎯	-9.52608
ㄔˋ2쎯	-9.52626
ㄍㄢ2쎯	-9.52699
ㄩㄢˋ0쎯	-9.52699
ㄅㄧㄣ0쎯	-9.52711
ㄘㄤ1쎯	-9.52715
ㄒㄧˊ0쎯	-9.52732
ㄉㄨˋ3쎯	-9.52801
ㄕㄜˊ2쎯	-9.5281
ㄗㄠˋ2쎯ㄒㄧㄥˊ2쎯	-9.52842
ㄏㄞˇ0쎯ㄅㄚˊ0쎯	-9.52889
ㄧ0쎯ㄑㄧㄝ쎯	-9.52908
ㄐㄩˇ2쎯ㄏㄤˊ0쎯	-9.52924
ㄆㄧㄣˊ1쎯ㄌㄩˋ2쎯	-9.52954
ㄗㄨㄟˋ1쎯	-9.52988
ㄓㄣˋ0쎯	-9.52997
ㄐㄧㄥ2쎯ㄌㄧˋ1쎯	-9.53039
ㄔㄨㄥˊ2쎯ㄑㄧㄥˋ0쎯ㄕˋ4쎯	-9.53043
ㄊㄧㄥˊ3쎯	-9.53077
쎉쎉	-9.5313
ㄖㄡˊ0쎯	-9.5326
ㄑㄧㄡ0쎯	-9.53285
▁̇ㄉㄜ1쎯ㄕㄥ1쎯ㄏㄨㄛˊ0쎯	-9.53374
ㄉㄨㄥˋ0쎯ㄌㄧˋ0쎯	-9.53463
ㄒㄩㄢˊ2쎯	-9.53491
ㄔㄨㄤ0쎯ㄧㄝˋ0쎯	-9.53496
ˊ	-9.53541
ㄙㄨㄟˋ2쎯	-9.53567
ㄍㄜˇ1쎯ㄅㄧㄥ1쎯	-9.53639
ㄐㄩㄣ1쎯ㄩㄣˊ1쎯	-9.53639
ㄇㄨˇ2쎯	-9.53965
ㄅㄚ5쎯	-9.54016
ㄉㄧㄠ2쎯	-9.54218
ㄓㄥˇ1쎯ㄊㄧ0쎯	-9.5424
ㄎ	-9.54243
ㄒㄧㄥˊ1쎯ㄊㄞˋ2쎯	-9.54244
ㄐㄧㄠ6쎯ㄩˋ3쎯ㄅㄨˋ4쎯	-9.54303
ㄅㄠˇ2쎯ㄓㄥˋ0쎯	-9.54326
ㄇㄧㄠˊ0쎯	-9.54346
ㄇㄛˊ0쎯ㄒㄧㄢˋ3쎯	-9.544
ㄨㄣˊ0쎯ㄨˋ3쎯	-9.54446
▁̇ㄉㄜ0쎯ㄓㄣˋ2쎯	-9.545
ㄔㄥˊ0쎯ㄅㄣˇ0쎯	-9.54555
ㄖㄣˊ0쎯ㄕˋ0쎯	-9.54567
ㄕㄡˋ2쎯	-9.54622
ㄕㄨˇ5쎯ㄌㄧㄤˊ3쎯	-9.54625
ㄩㄢˊ3쎯	-9.54642
ㄏㄨㄣˋ0쎯	-9.54677
ㄈㄢˋ1쎯	-9.54708
ㄧ0쎯ㄌㄧㄡˊ3쎯	-9.54715
ㄍㄚ0쎯	-9.54724
ㄍㄜˇ1쎯ㄌㄧˇ3쎯	-9.54735
ㄏㄨㄤˊ1쎯ㄙㄜˋ0쎯	-9.5474
ㄧㄝˇ0쎯ㄧㄡˇ1쎯	-9.54744
ㄇㄧㄝˋ0쎯	-9.54798
ㄍㄜˊ1쎯	-9.54809
,ㄓㄜˋ0쎯	-9.54816
쎅쎈	-9.5484
ㄓˋ3쎯ㄆㄧㄣˇ쎯	-9.54855
ㄕˊ2쎯	-9.54858
ㄕˋ16쎯ㄩㄥˋ0쎯	-9.54897
ㄇㄟˇ1쎯ㄖㄨㄥˊ4쎯	-9.5491
ㄒㄧㄢˋ1쎯ㄒㄧㄤˋ2쎯	-9.54928
ㄕˋ15쎯ㄧˇ2쎯	-9.5493
ㄧ	-9.54959
ㄐㄧㄤˋ3쎯	-9.54959
ㄘㄞˋ1쎯	-9.55017
ㄧ3쎯ㄧㄠˋ0쎯	-9.55046
ㄅㄧˋ10쎯	-9.55082
ㄓㄨㄥˋ0쎯	-9.55088
ㄦˋ0쎯ㄐㄧˊ2쎯	-9.55112
ㄕㄜˋ4쎯ㄐㄧˊ0쎯	-9.55125
,ㄗㄜˊ0쎯	-9.55141
ㄍㄨㄟ2쎯ㄍㄜˊ2쎯	-9.55163
쎁.쎅	-9.55182
ㄉㄨㄥ0쎯ㄅㄨˋ4쎯	-9.55244
ㄕˊ3쎯ㄌㄧˋ0쎯	-9.55244
ㄒㄧㄤ4쎯	-9.55377
ㄕㄜˋ0쎯ㄐㄧˋ0쎯、	-9.55414
ㄨㄣˊ0쎯ㄓㄤ1쎯	-9.55542
ㄋㄧㄢˋ0쎯	-9.55551
,ㄐㄧㄠ0쎯ㄊㄨㄥ0쎯	-9.55564
ㄒㄧㄠ2쎯ㄈㄟˋ4쎯ㄓㄜˇ0쎯	-9.55564
ㄆㄧㄥˊ1쎯ㄐㄧㄚˋ0쎯	-9.55572
ㄗㄨㄟˇ쎯	-9.55589
ㄔㄣˊ1쎯	-9.55625
ㄏㄜˋ4쎯	-9.55646
ㄐㄧㄝˇ1쎯ㄈㄤˋ쎯ㄐㄩㄣ0쎯	-9.55678
ㄕˋ4쎯ㄨㄟˇ5쎯	-9.55785
▁̇ㄉㄜ1쎯ㄔㄢˇ0쎯ㄆㄧㄣˇ쎯	-9.55823
ㄒㄩㄣˋ3쎯ㄙㄨˋ3쎯	-9.55879
ㄐㄧㄣ4쎯	-9.56023
ㄓㄨㄢ1쎯	-9.56057
ㄓㄨㄟ0쎯ㄑㄧㄡˊ1쎯	-9.56146
ㄆㄚˋ0쎯	-9.56159
쎅쎆	-9.56162
ㄊㄨˊ3쎯	-9.56176
ㄗ2쎯ㄅㄣˇ0쎯	-9.56176
ㄇ	-9.5625
ㄌㄧㄢˋ0쎯	-9.563
ㄘㄨㄛˋ2쎯	-9.56335
ㄆㄞ쎯	-9.56337
ㄧㄢˊ6쎯ㄐㄧㄡ1쎯ㄏㄨㄟˋ2쎯	-9.56406
,ㄦˊ1쎯ㄑㄧㄝˇ쎯	-9.56569
ㄆㄨˇ3쎯	-9.56597
ㄩㄢˋ3쎯	-9.56613
ㄧㄠˊ3쎯	-9.56692
ㄗㄠˋ2쎯ㄔㄥˊ0쎯	-9.56792
ㄊㄨㄥˇ0쎯	-9.56793
ㄕㄣ2쎯ㄊㄧ0쎯	-9.56796
▁̇ㄌㄜ쎯ㄧ0쎯ㄍㄜˇ0쎯	-9.5695
ㄕㄤˇ0쎯ㄕˋ4쎯	-9.56962
ㄌㄧㄢˋ3쎯	-9.56985
ㄩˋ0쎯ㄇㄧˇ0쎯	-9.57014
ㄓㄣ1쎯ㄉㄨㄟˋ1쎯	-9.57036
ㄐㄧㄥ2쎯ㄐㄧˇ3쎯ㄒㄩㄝˊ1쎯	-9.57044
ㄓㄠ1쎯	-9.57045
ㄊㄜˋ0쎯ㄒㄧㄥˋ2쎯	-9.57173
ㄉㄧㄢˋ0쎯ㄕˋ12쎯ㄐㄩˋ4쎯	-9.57182
ㄉㄢˋ6쎯	-9.57195
ㄉㄞˋ1쎯ㄌㄞˊ0쎯	-9.57244
ㄙㄢ0쎯ㄋㄧㄢˊ0쎯	-9.57258
ㄕㄣ5쎯ㄖㄨˋ0쎯	-9.57311
ㄐㄧㄚ0쎯ㄐㄧㄤˋ2쎯	-9.57387
.“	-9.57409
ㄋㄨˇ0쎯ㄌㄧˋ0쎯	-9.57422
ㄑㄩㄝ0쎯	-9.57458
ㄒㄧ13쎯	-9.57463
,ㄖㄢˊ0쎯ㄏㄡˋ0쎯	-9.57479
ㄍㄠˋ0쎯	-9.57563
ㄏㄨㄥˊ5쎯	-9.57634
,ㄍㄞ0쎯	-9.57636
ㄕㄣˋ0쎯	-9.57655
ㄘㄞˊ2쎯ㄓㄥˋ3쎯	-9.57809
ㄈㄨˊ10쎯	-9.57873
‘	-9.57938
▁̇ㄉㄜ1쎯ㄈㄨˊ5쎯ㄨˋ2쎯	-9.57943
ㄏㄨㄛˋ5쎯	-9.58004
ㄏㄤˊ0쎯ㄓㄥˋ3쎯ㄘㄨㄣ0쎯,	-9.58007
ㄓㄞ0쎯	-9.58049
ㄩˋ6쎯ㄈㄤˊ0쎯	-9.58102
ㄐㄧㄣ6쎯	-9.58118
ㄒㄩˋ6쎯	-9.58121
ㄋㄣˋ0쎯	-9.58122
ㄔㄨㄥ1쎯	-9.58149
ㄍㄨㄥˋ1쎯ㄒㄧㄢˋ8쎯	-9.58199
ㄑㄧㄣˊ4쎯	-9.58201
쎄-	-9.58254
ㄉㄚˋ쎯ㄙㄞˋ쎯	-9.58298
ㄑㄧˇ2쎯ㄧㄝˋ0쎯.	-9.58367
쎈쎅	-9.58409
ㄓㄡ1쎯ㄕˋ4쎯	-9.58499
ㄋㄨㄥˊ1쎯	-9.58588
ㄒㄧㄝˊ1쎯ㄉㄧㄠˋ2쎯	-9.58608
ㄗㄜˊ1쎯ㄖㄣˊ3쎯	-9.58686
ㄨㄢˊ1쎯ㄓㄥˇ1쎯	-9.58782
쎁쎉쎈쎄ㄋㄧㄢˊ0쎯	-9.58784
,ㄇㄟˇ0쎯	-9.5882
ㄊㄨㄥˊ4쎯	-9.5884
ㄉㄧㄥˇ1쎯	-9.58931
ㄉㄡ0쎯ㄧㄡˇ1쎯	-9.59013
쎁쎉쎈쎅ㄋㄧㄢˊ0쎯	-9.59055
쎂-	-9.59128
ㄒㄩㄝˊ1쎯ㄌㄧˋ1쎯,	-9.5918
ㄊㄧㄢ0쎯ㄖㄢˊ0쎯	-9.5922
ㄓㄨˊ1쎯ㄐㄧㄢˋ9쎯	-9.59223
ㄎㄨㄥ0쎯ㄑㄧˋ0쎯	-9.59274
ㄍㄥ0쎯ㄉㄨㄛ0쎯	-9.59284
ㄐㄧㄝˋ5쎯	-9.59319
ㄉㄚˋ쎯ㄐㄧㄚ3쎯	-9.59342
ㄇㄨˋ3쎯	-9.59367
ㄍㄠ0쎯ㄉㄨˋ2쎯	-9.59377
,ㄊㄚ2쎯	-9.59409
ㄍㄨㄟˋ1쎯ㄓㄡ1쎯	-9.59437
ㄎㄨㄚˋ1쎯	-9.59455
ㄒㄩㄣˊ1쎯	-9.5946
ㄍㄨˋ2쎯ㄨㄣˋ0쎯	-9.59524
ㄖㄣˊ0쎯ㄕㄥ1쎯	-9.59761
ㄔㄨㄥ1쎯ㄇㄢˇ0쎯	-9.59793
쎅쎄	-9.59821
ㄒㄧㄤ1쎯ㄊㄨㄥˊ0쎯	-9.59992
ㄔㄨㄥˊ2쎯ㄉㄚˋ쎯	-9.60003
,ㄊㄨㄥ0쎯ㄍㄨㄛ0쎯	-9.60015
쎁쎉쎉쎀ㄋㄧㄢˊ0쎯	-9.60041
ㄇㄧㄢˋ0쎯ㄐㄧ11쎯쎃	-9.60135
ㄓㄨㄣˇ0쎯	-9.6016
ㄊㄢˊ0쎯	-9.60164
ㄈㄣ0쎯ㄓㄨㄥ3쎯	-9.60187
ㄅㄨˋ0쎯ㄐㄧㄣˇ0쎯	-9.60301
ㄏㄨㄟ3쎯	-9.60328
ㄊㄨㄥ0쎯ㄒㄩㄣˋ1쎯	-9.60375
ㄧㄢˇ3쎯ㄔㄤˋ2쎯	-9.60422
ㄍㄨㄢ0쎯ㄓㄨˋ3쎯	-9.60483
ㄔㄨㄥ1쎯ㄈㄣ0쎯	-9.60505
ㄓㄡ2쎯ㄅㄧㄢ0쎯	-9.60519
ㄧㄥ1쎯ㄒㄩㄥˊ0쎯	-9.60569
쎅쎇	-9.60578
ㄑㄩㄢˊ1쎯ㄕˋ4쎯	-9.60612
ㄓㄨㄥ2쎯	-9.60617
ㄅㄛ4쎯ㄈㄤˋ쎯	-9.60634
ㄋㄧㄢˊ1쎯	-9.60674
ㄍㄣ1쎯	-9.6077
ㄓㄡ2쎯ㄨㄟˊ2쎯	-9.60816
ㄨㄢˊ1쎯	-9.60883
ㄇㄧㄥˊ0쎯,	-9.60911
ㄩㄢˊ0쎯ㄙㄨˋ2쎯	-9.60912
ㄈㄨˊ0쎯	-9.60929
ㄑㄩㄢˊ1쎯ㄒㄧㄣ5쎯	-9.60992
ㄍㄜ7쎯ㄑㄩ0쎯	-9.61034
ㄏㄞˋ2쎯	-9.61035
ㄔㄨㄤ0쎯ㄐㄧㄢˋ2쎯ㄩˊ0쎯	-9.61039
쎁쎅쎀	-9.61061
ㄒㄧㄠˇ0쎯ㄗㄨˇ1쎯	-9.61087
ㄨㄟˊ6쎯ㄒㄧㄡ1쎯	-9.61089
ㄩㄢˊ1쎯ㄌㄧㄣˊ1쎯	-9.61136
ㄞ2쎯	-9.61189
ㄙㄨˋ6쎯ㄌㄧㄠˋ0쎯	-9.61223
----------------	-9.61229
ㄒㄧㄠ2쎯ㄈㄟˋ4쎯	-9.61322
ㄓㄨㄢ0쎯ㄎㄜ2쎯	-9.61323
쎁쎉쎈쎈ㄋㄧㄢˊ0쎯	-9.61405
쎁-	-9.6144
ㄘㄥˊ1쎯ㄖㄣˊ3쎯	-9.61504
ㄆㄥˊ0쎯ㄧㄡˇ0쎯	-9.61677
ㄆㄧㄣˊ1쎯	-9.61683
ㄒㄧㄣ1쎯ㄆㄧㄢ0쎯	-9.6181
ㄗㄨㄛˋ0쎯ㄌㄚˋ0쎯ㄩˊ0쎯	-9.61819
ㄓㄣ4쎯ㄓㄥ0쎯	-9.61826
쎆쎈	-9.61836
ㄌㄧˇ3쎯ㄍㄨㄥ0쎯	-9.61856
ㄒㄧㄝˊ8쎯	-9.61872
ㄕˋ4쎯ㄓㄥˋ3쎯ㄈㄨˇ3쎯	-9.61918
ㄏㄨㄥˊ1쎯ㄐㄩㄣ0쎯	-9.61937
ㄓㄨˋ3쎯ㄧˋ18쎯	-9.62099
ㄗㄨㄛ0쎯ㄓㄢˋ1쎯	-9.621
ㄍㄨㄥ4쎯ㄐㄧ2쎯	-9.62144
ㄒㄧˇ0쎯ㄐㄧㄥˋ1쎯	-9.62153
ㄑㄧㄥ0쎯ㄉㄠˇ1쎯	-9.62156
ㄌㄧㄢˋ2쎯	-9.62192
ㄍㄥ0쎯ㄐㄧㄚ0쎯	-9.62219
ㄇㄧㄠˋ0쎯	-9.62264
:쎁	-9.62328
ㄐㄩㄣ0쎯ㄡ0쎯	-9.62389
ㄧㄣˇ1쎯	-9.62398
ㄗㄨㄛˋ0쎯ㄌㄚˋ0쎯ㄗㄞˋ1쎯	-9.62404
ㄇㄧㄢˇ0쎯ㄈㄟˋ4쎯	-9.62465
ㄩˋ3쎯	-9.62469
쎇쎂	-9.62544
ㄞˋ1쎯ㄑㄧㄥˊ0쎯	-9.62549
ㄈㄨˇ5쎯	-9.62585
ㄈㄨˋ7쎯ㄗㄚˊ0쎯	-9.62627
ㄕㄨ10쎯ㄘㄞˋ0쎯	-9.6265
ㄐㄧㄥˇ1쎯ㄡ0쎯	-9.62713
쎉쎆	-9.62792
ㄊㄨˊ0쎯ㄕㄨ0쎯ㄍㄨㄢˇ0쎯	-9.62835
)ㄕˋ15쎯	-9.62864
.ㄘˇ0쎯	-9.62891
ㄈㄢ2쎯ㄧˋ11쎯	-9.62906
ㄌㄠˊ0쎯ㄉㄨㄥˋ0쎯ㄌㄧˋ0쎯	-9.62958
ㄓˊ5쎯	-9.63225
ㄨㄟˇ5쎯ㄩㄢˊ2쎯、	-9.63284
ㄕˊ1쎯ㄐㄧㄢ4쎯:	-9.63311
ㄕㄡ쎯ㄌㄨˋ0쎯	-9.63358
ㄓㄢˋ1쎯ㄉㄡˇ0쎯	-9.6336
ㄒㄧㄡ0쎯	-9.63458
ㄉㄚˋ쎯ㄕ2쎯	-9.63494
ㄍㄜˇ1쎯ㄔㄥˊ0쎯	-9.63517
ㄨㄟˇ5쎯ㄩㄢˊ2쎯,	-9.63521
ㄍㄨˇ3쎯	-9.63759
ㄩㄢˊ4쎯ㄇㄧㄥˊ0쎯	-9.63776
ㄙㄥ쎯	-9.63793
ㄑㄩㄢˊ1쎯ㄒㄧㄢˋ0쎯	-9.63821
ㄍㄨㄢ3쎯ㄐㄩㄣ0쎯	-9.63833
ㄙㄨˋ2쎯ㄓˋ4쎯	-9.63852
2	-9.63854
ㄐㄧㄠˇ0쎯ㄉㄨˋ2쎯	-9.63876
ㄅㄧㄢ1쎯ㄓˋ3쎯	-9.63889
▁̇ㄉㄜ1쎯ㄒㄧㄣ5쎯	-9.63916
ㄔㄤˊ0쎯ㄐㄧㄤ0쎯	-9.63938
,ㄖㄤˋ쎯	-9.63984
ㄗㄨㄛˇ1쎯	-9.64019
ㄔㄥˊ4쎯ㄓㄣˋ3쎯	-9.64023
ㄍㄨㄢˇ1쎯ㄌㄧˇ3쎯ㄐㄩˊ0쎯	-9.64025
ㄧ3쎯ㄎㄜ2쎯	-9.64052
ㄐㄧ13쎯ㄎㄢ0쎯	-9.64193
ㄓㄨㄢ0쎯ㄩㄥˋ0쎯	-9.64214
ㄌㄩˋ0쎯	-9.64247
,ㄘㄥˊ1쎯	-9.64318
ㄐㄧㄠ8쎯	-9.64369
쎁쎉쎉쎁ㄋㄧㄢˊ0쎯	-9.64427
ㄊㄨㄣˊ0쎯	-9.64468
.ㄧㄡˊ1쎯ㄩˊ0쎯	-9.64542
ㄐㄧㄢˋ13쎯	-9.64619
ㄙㄨˊ쎯	-9.64641
쎈쎈	-9.64659
ㄨㄟˊ0쎯ㄓㄨˇ0쎯,	-9.64789
쎀쎇	-9.64811
ㄖㄣˊ0쎯ㄊㄧ0쎯	-9.64822
쎅쎃	-9.64829
ㄌㄧㄥˇ1쎯ㄒㄧㄢ1쎯	-9.64888
ㄍㄜˇ0쎯ㄒㄧㄥˋ2쎯	-9.64891
ㄨˇ7쎯ㄉㄠˇ5쎯	-9.64911
ㄐㄧㄤˋ2쎯ㄉㄚˋ쎯	-9.6494
ㄉㄧㄥˋ1쎯ㄨㄟˋ2쎯	-9.64944
ㄉㄨㄟˋ0쎯ㄨˇ2쎯	-9.64946
ㄧ0쎯ㄊㄧㄠˊ0쎯	-9.64951
ㄕˋ2쎯	-9.64976
,ㄩㄥ1쎯ㄧㄡˇ1쎯	-9.65018
ㄔㄚ2쎯	-9.6506
ㄘㄨㄟˋ3쎯	-9.65096
ㄐㄧㄠˋ4쎯ㄍㄠ0쎯	-9.65128
ㄕˋ4쎯ㄡ0쎯	-9.65141
ㄊㄡˊ1쎯ㄖㄨˋ0쎯	-9.65146
ㄉㄨㄥˋ0쎯ㄗㄨㄛ0쎯	-9.65185
ㄊㄧㄠˋ0쎯	-9.65221
ㄘㄞˊ2쎯	-9.6524
ㄏㄨㄟ2쎯ㄈㄨˋ7쎯	-9.65286
ㄗˋ0쎯ㄕㄣ2쎯	-9.65295
ㄓㄥˋ0쎯ㄑㄩㄢˋ1쎯	-9.65437
쎆ㄍㄜˇ0쎯	-9.65488
ㄅㄛ4쎯	-9.65522
ㄔˊ4쎯	-9.65552
ㄅㄧˋ3쎯	-9.65578
ㄐㄧㄥ8쎯ㄆㄧㄣˇ쎯	-9.65668
ㄐㄧ12쎯ㄔㄨˇ1쎯ㄕㄤˇ0쎯	-9.65715
쎁쎉쎈쎆ㄋㄧㄢˊ0쎯	-9.65719
ㄔㄣˋ1쎯ㄏㄠˊ0쎯	-9.65742
ㄇㄛˊ0쎯ㄈㄚˇ0쎯	-9.6575
ㄏㄢˊ1쎯ㄌㄧㄤˊ3쎯	-9.65777
ㄏㄚ0쎯ㄦˇ0쎯ㄅㄧㄣ3쎯	-9.65832
ㄐㄧ8쎯ㄉㄢˋ6쎯	-9.65833
ㄘㄢ1쎯	-9.65858
ㄐㄧㄠˋ2쎯ㄔㄤˊ0쎯	-9.65873
ㄉㄢˇ0쎯	-9.65921
11쎯	-9.65967
ㄒㄧㄝˇ1쎯ㄍㄨㄢˇ1쎯	-9.65989
ㄌㄧㄢˊ4쎯ㄇㄥˊ1쎯	-9.65989
ㄑㄧˋ0쎯ㄏㄡˋ2쎯	-9.66003
ㄧㄣˋ0쎯ㄕㄨㄚ0쎯	-9.66046
ㄊㄥˊ3쎯	-9.66056
ㄈㄚ쎯ㄏㄨㄟ1쎯	-9.66068
ㄕㄜˊ0쎯	-9.66089
ㄅㄧㄥˇ3쎯	-9.66103
쎄쎉	-9.66189
ㄔㄨㄢˊ0쎯ㄕㄨ9쎯	-9.66193
ㄇㄧㄣˊ0쎯ㄍㄨㄛˊ0쎯	-9.66262
ㄨㄞˋ쎯ㄍㄨㄢ1쎯	-9.66333
ㄍㄨㄥ2쎯ㄌㄧˇ2쎯	-9.66339
ㄇㄡˊ0쎯	-9.66362
ㄕㄨ7쎯	-9.664
ㄌㄠˇ0쎯ㄕ2쎯	-9.66428
ㄔㄨㄥˊ1쎯ㄌㄟˋ2쎯	-9.66436
ㄓˇ4쎯ㄏㄨㄟ1쎯	-9.66478
ㄅㄞˇ0쎯ㄉㄨˋ2쎯	-9.66501
ㄍㄨㄞˋ0쎯	-9.66505
ㄉㄧˋ3쎯ㄨˇ0쎯	-9.66522
쎁쎂쎀	-9.66537
ㄍㄨㄣˇ0쎯	-9.66544
ㄓㄥˇ1쎯ㄍㄜˇ1쎯	-9.66597
,ㄖㄣˊ3쎯	-9.66602
▁̇ㄉㄜ1쎯ㄉㄚˋ쎯ㄒㄧㄥˊ2쎯	-9.66606
ㄔㄨㄥˊ2쎯ㄌㄧㄤˊ3쎯	-9.66678
ㄇㄧㄢˋ0쎯ㄒㄧㄤˋ0쎯	-9.66761
ㄐㄧㄢˇ5쎯ㄧㄢˋ5쎯	-9.66765
ㄏㄨㄤ0쎯	-9.66791
ㄍㄥˇ3쎯	-9.66815
ㄙㄨㄛˇ3쎯	-9.66866
ㄈㄣˋ0쎯	-9.66908
ㄨㄛˋ1쎯	-9.66915
ㄓㄨㄢ0쎯ㄌㄧˋ6쎯	-9.66965
ㄉㄨㄥˋ0쎯ㄊㄞˋ2쎯	-9.67007
ㄐㄧㄥ5쎯	-9.67141
ㄒㄧㄤ1쎯ㄏㄨˋ0쎯	-9.6716
ㄎㄜˋ2쎯ㄈㄤˊ3쎯	-9.67182
,ㄇㄛˊ0쎯	-9.67189
ㄕㄨ0쎯ㄈㄚˇ0쎯ㄐㄧㄚ3쎯	-9.67239
ㄙㄨㄛˇ0쎯ㄕㄨˇ1쎯	-9.67265
ㄐㄧㄝˇ1쎯ㄈㄤˋ쎯	-9.67328
ㄈㄤ1쎯	-9.67397
ㄒㄩㄣˋ0쎯	-9.67398
ㄨㄤˋ2쎯	-9.67436
ㄧㄥˇ1쎯ㄆㄧㄢ0쎯	-9.6758
ㄧㄢˊ10쎯	-9.67607
ㄗㄠˇ0쎯ㄐㄧ13쎯	-9.67653
ㄒㄧ2쎯ㄕㄡ쎯	-9.6773
ㄅㄧㄥˇ2쎯	-9.67742
,ㄘㄨㄥˊ0쎯ㄦˊ1쎯	-9.67751
ㄋㄧˋ0쎯	-9.67786
ㄙㄨㄟˋ4쎯	-9.67813
ㄓㄣˇ0쎯ㄉㄨㄢˋ1쎯	-9.67835
.ㄅㄣˇ0쎯	-9.67849
ㄉㄧㄠˋ2쎯ㄐㄧㄝ0쎯	-9.67954
ㄑㄧㄥ5쎯ㄉㄞˋ0쎯	-9.67963
ㄉㄢˋ6쎯ㄅㄞˊ0쎯	-9.67977
ㄇㄠˋ4쎯	-9.68019
ㄕㄤˇ0쎯,	-9.68032
쎀쎈	-9.68041
ㄨㄟˇ0쎯	-9.68055
ㄓㄣ3쎯	-9.68076
ㄓㄥ0쎯ㄗㄞˋ1쎯	-9.68117
ㄕㄨㄟˇ쎯ㄌㄧˋ6쎯	-9.68131
쎁쎉쎈쎇ㄋㄧㄢˊ0쎯	-9.68143
ㄒㄧㄢˇ1쎯	-9.68204
ㄔㄥˊ0쎯ㄈㄣ0쎯	-9.68209
ㄉㄧㄢˋ0쎯ㄧㄚ1쎯	-9.68225
ㄅㄧㄢ0쎯ㄩㄢˊ7쎯	-9.68286
쎂.쎀	-9.68387
ㄑㄧㄥ3쎯	-9.684
ㄖㄨˊ0쎯ㄍㄨㄛˇ0쎯	-9.68575
ㄕㄨㄟˇ쎯ㄌㄧㄤˊ3쎯	-9.68615
쎅쎁	-9.68629
ㄙㄨㄟ0쎯	-9.68638
ㄔㄤˊ4쎯ㄨˋ2쎯	-9.68698
ㄕㄡˇ0쎯ㄉㄨㄢˋ0쎯	-9.68723
ㄊㄧ0쎯ㄒㄧㄢˋ1쎯	-9.68775
ㄏㄜˊ2쎯ㄕㄜˋ1쎯ㄏㄨㄟˋ2쎯	-9.68787
쎈쎆	-9.68798
ㄏㄨㄣˋ0쎯ㄍㄜˇ1쎯	-9.68836
ㄓˊ1쎯ㄐㄧㄥˋ0쎯	-9.68839
ㄅㄢˇ1쎯ㄅㄣˇ0쎯	-9.68843
쎆쎃	-9.68875
ㄊㄧ0쎯ㄧㄢˋ5쎯	-9.68921
ㄇㄧˋ1쎯ㄉㄨˋ2쎯	-9.69024
ㄕㄣ0쎯	-9.69026
쎀쎁	-9.69029
ㄈㄟ3쎯	-9.6906
ㄏㄤˊ0쎯ㄓㄥˋ3쎯ㄘㄨㄣ0쎯	-9.69107
ㄊㄨˊ0쎯ㄆㄧㄢ0쎯	-9.69108
쎉쎅	-9.69137
ㄓㄨˇ0쎯ㄒㄧˊ1쎯	-9.69145
ㄨㄢˊ1쎯ㄇㄟˇ1쎯	-9.69262
ㄏㄜˊ2쎯ㄒㄧㄝˊ6쎯	-9.6929
ㄍㄠˇ2쎯	-9.69329
ㄒㄧㄥˊ1쎯,	-9.69371
ㄅㄤ1쎯	-9.6938
ㄖㄨㄥˊ2쎯ㄩˋ15쎯	-9.69442
ㄐㄩㄣˋ0쎯	-9.69456
쎆쎇	-9.69479
ㄗˋ0쎯ㄉㄨㄥˋ0쎯ㄏㄨㄚˋ0쎯	-9.69494
ㄇㄧㄢˊ2쎯	-9.69509
ㄈㄨˋ9쎯	-9.69624
쎁쎉쎈쎉ㄋㄧㄢˊ0쎯	-9.69639
.ㄘㄥˊ1쎯ㄖㄣˊ3쎯	-9.69646
ㄩㄥˋ0쎯ㄌㄞˊ0쎯	-9.69693
ㄕˇ3쎯ㄓㄨㄥ2쎯	-9.69701
ㄍㄨㄥˋ1쎯	-9.69708
쎅쎉	-9.69729
ㄊㄠˊ2쎯ㄘˊ3쎯	-9.69773
ㄏㄢˋ0쎯ㄗㄨˊ1쎯	-9.69801
ㄕㄨ7쎯ㄕˋ16쎯	-9.69811
ㄏㄜˊ6쎯	-9.69813
ㄓ10쎯	-9.69869
ㄋㄚ1쎯ㄅㄟˇ쎯	-9.69894
,ㄇㄨˋ1쎯ㄑㄧㄢˊ0쎯	-9.69929
ㄌㄩˇ3쎯	-9.69967
ㄓㄨㄤ3쎯ㄒㄧㄡ1쎯	-9.69983
ㄧㄢˊ1쎯ㄔㄨㄥˊ2쎯	-9.70097
ㄅㄧㄣ0쎯ㄍㄨㄢˇ0쎯	-9.70135
ㄐㄧㄢˇ6쎯ㄕㄠˇ쎯	-9.70136
ㄓㄣˋ2쎯	-9.70195
ㄩˋ7쎯	-9.70206
ㄨˋ4쎯	-9.70237
ㄇㄟˊ13쎯	-9.70275
ㄒㄩ4쎯	-9.70321
ㄔㄨˇ0쎯ㄩˊ0쎯	-9.70336
ㄌㄨㄛˊ6쎯	-9.70378
ㄕˋ18쎯ㄋㄟˋ쎯	-9.70385
ㄩㄢˋ2쎯ㄐㄧㄠˋ2쎯	-9.70391
ㄡˇ1쎯	-9.70467
ㄧㄡ2쎯	-9.70549
ㄦˊ1쎯ㄅㄨˋ0쎯	-9.70562
ㄨㄛˋ0쎯	-9.70641
ㄅㄧˋ2쎯ㄧㄝˋ0쎯ㄏㄡˋ0쎯	-9.70699
ㄗ	-9.70715
ㄐㄧㄢ7쎯	-9.70718
ㄐㄧㄣˋ0쎯ㄧ0쎯ㄅㄨˋ2쎯	-9.70776
ㄈㄨˋ14쎯ㄍㄞˋ3쎯	-9.70821
ㄘ	-9.70838
ㄕㄣˇ0쎯ㄧㄤˊ2쎯	-9.70881
ㄌㄧㄢˊ0쎯ㄙㄨㄛˇ3쎯	-9.70934
ㄍㄨˋ2쎯	-9.70954
ㄏㄨㄤˊ1쎯ㄐㄧㄣ3쎯	-9.71013
6쎯ㄧˊ3쎯ㄔㄨㄥˊ1쎯ㄓˊ5쎯	-9.71025
,ㄅㄧㄥ1쎯ㄑㄧㄝˇ쎯	-9.71028
ㄖ	-9.71089
ㄧ0쎯ㄇㄧㄥˊ0쎯	-9.71093
ㄓㄨㄥ0쎯ㄐㄧㄢ4쎯	-9.71129
ㄨˇ3쎯ㄑㄧˋ7쎯	-9.71131
ㄈㄛˊ쎯ㄐㄧㄠ6쎯	-9.71173
ㄕㄠˇ쎯ㄕㄨˇ5쎯	-9.71186
ㄍㄨㄛˊ0쎯ㄨㄞˋ쎯	-9.713
ㄉㄡ0쎯ㄕˋ4쎯	-9.71318
ㄋㄧˇ0쎯	-9.71436
ㄌㄞˊ0쎯ㄩㄢˊ9쎯ㄩˊ0쎯	-9.71479
ㄓˇ2쎯	-9.71564
ㄔㄨㄥˊ2쎯ㄒㄧㄣ5쎯	-9.716
ㄈㄚˊ3쎯	-9.71624
ㄐㄧ7쎯	-9.71694
.ㄅㄣˇ0쎯ㄕㄨ0쎯	-9.71714
ㄢˋ5쎯	-9.71721
ㄐㄧㄤˋ1쎯ㄉㄧ0쎯	-9.71792
ㄓㄢˋ1쎯ㄕˋ0쎯	-9.71858
ㄩˊ5쎯	-9.71878
ㄒㄧㄢˊ3쎯	-9.71911
ㄏㄨㄚˊ0쎯	-9.71917
ㄌㄨㄣˊ2쎯ㄊㄢˊ0쎯	-9.7192
ㄐㄧㄠ6쎯ㄕㄡˋ2쎯,	-9.71944
쎆쎂	-9.71951
ㄅㄠˋ5쎯	-9.72036
ㄗ2쎯ㄍㄜˊ2쎯	-9.72058
ㄈㄨˋ8쎯ㄕㄨ0쎯ㄐㄧˋ1쎯	-9.72261
ㄒㄧˋ0쎯ㄐㄩˋ4쎯	-9.7228
ㄇㄟˇ0쎯ㄋㄧㄢˊ0쎯	-9.72281
ㄏㄜˋ1쎯	-9.72377
ㄘㄥˊ1쎯ㄐㄧㄥ2쎯	-9.72392
、ㄓㄨㄥ0쎯ㄍㄨㄛˊ0쎯	-9.72452
ㄘㄞˊ0쎯ㄋㄥˊ쎯	-9.72459
ㄔㄨˇ0쎯ㄌㄧˇ3쎯ㄑㄧˋ7쎯	-9.72542
〕	-9.72559
ㄘㄤ0쎯	-9.72615
쎉쎇	-9.72625
ㄓˋ3쎯ㄔㄥˊ0쎯	-9.7266
ㄊㄢ2쎯	-9.72664
쎀쎆	-9.72695
▁̇ㄉㄜ0쎯ㄨㄟˋ2쎯	-9.72749
ㄋㄧㄢˊ0쎯ㄑㄧㄥ1쎯	-9.7275
ㄗㄡˋ0쎯	-9.7277
ㄕˊ3쎯ㄏㄤˊ0쎯	-9.7281
ㄒㄧㄢˋ1쎯ㄕˊ3쎯	-9.7285
ㄏㄨㄤˊ0쎯ㄉㄧˋ1쎯	-9.72871
,ㄧ0쎯	-9.72929
ㄐㄧㄤ1쎯ㄐㄩㄣ0쎯	-9.72945
ㄐㄧㄢˇ5쎯	-9.72966
ㄅㄧˋ2쎯ㄧㄝˋ0쎯,	-9.72974
ㄊㄞˋ0쎯ㄧㄤˊ2쎯	-9.72993
ㄒㄧ1쎯ㄅㄢ1쎯ㄧㄚˊ0쎯	-9.73045
ㄕㄟˊ쎯	-9.73118
ㄐㄧㄝ4쎯ㄔㄨˋ1쎯	-9.73225
ㄇㄠˋ0쎯	-9.73322
ㄧˇ2쎯“	-9.73333
ㄨㄢˊ0쎯	-9.73425
ㄑㄧㄢˊ3쎯ㄌㄨㄥˊ5쎯	-9.7345
ㄐㄧˋ2쎯ㄑㄧㄠˇ0쎯	-9.73516
ㄨㄣˊ0쎯ㄒㄧㄢˋ8쎯	-9.73536
ㄧㄣˇ0쎯ㄐㄧㄣˋ0쎯	-9.73572
ㄕㄨˇ4쎯	-9.73618
ㄕˋ16쎯ㄧㄥ0쎯	-9.73647
ㄨㄛ0쎯	-9.73694
ㄇㄧㄠˇ0쎯	-9.73701
ㄕㄢˋ1쎯ㄔㄤˊ0쎯	-9.73721
ㄕˋ15쎯ㄧ0쎯ㄎㄨㄢˇ쎯	-9.73752
,ㄏㄨㄛˋ0쎯	-9.73764
ㄧㄡ0쎯ㄇㄟˇ1쎯	-9.73792
ㄔㄥˊ2쎯ㄒㄧㄣˋ0쎯	-9.73931
》ㄉㄥˇ0쎯.	-9.73936
ㄉㄨㄛ0쎯ㄇㄟˊ5쎯ㄊㄧ0쎯	-9.73937
ㄧㄡˇ1쎯ㄒㄧㄢˋ2쎯ㄗㄜˊ1쎯	-9.73946
ㄖㄣˊ3쎯ㄍㄨㄥ2쎯ㄙ0쎯	-9.73986
ㄩㄥˇ3쎯	-9.73995
ㄋㄚˊ0쎯	-9.74
ㄍㄨㄢˇ1쎯ㄌㄧˇ3쎯、	-9.74003
ㄗㄨㄥ0쎯ㄐㄧㄠ6쎯	-9.74011
ㄐㄧㄢ5쎯	-9.74034
ㄑㄩㄢˊ3쎯	-9.7406
ㄏㄞˇ0쎯ㄋㄚ1쎯	-9.74065
ㄅㄧㄢˋ1쎯ㄌㄧˋ6쎯	-9.74147
ㄍㄞˇ쎯ㄕㄢˋ0쎯	-9.7422
ㄒㄧㄥˋ2쎯ㄓˋ4쎯	-9.74293
ㄐㄧㄢˋ7쎯	-9.74313
ㄖㄣˊ0쎯ㄨㄣˊ0쎯	-9.74458
ㄔㄤˊ0쎯,	-9.74487
.ㄒㄩㄝˊ1쎯ㄐㄧㄠˋ2쎯	-9.74487
ㄒㄧㄠˇ0쎯ㄒㄧㄥˊ2쎯	-9.74501
ㄌㄧㄝˋ2쎯	-9.74594
ㄨˇ1쎯	-9.74627
ㄇㄠ쎯	-9.7464
ㄍㄤ5쎯	-9.74674
ㄑㄧㄤ3쎯	-9.74705
ㄐㄧㄢ9쎯	-9.74714
ㄏㄨˊ3쎯	-9.74724
ㄉㄨㄟˋ1쎯ㄨㄞˋ쎯	-9.74726
ㄇㄧㄣˇ1쎯	-9.74727
ㄍㄢ1쎯ㄙㄨˋ1쎯	-9.74729
ㄓˊ0쎯	-9.7476
ㄑㄧ7쎯	-9.74796
ㄋㄨㄢˇ쎯	-9.74802
ㄧㄣ0쎯ㄙㄨˋ2쎯	-9.74825
ㄍㄨㄥ3쎯ㄌㄩˋ2쎯	-9.74896
ㄕˋ20쎯	-9.74901
ㄉㄧㄢˋ0쎯ㄑㄧˋ0쎯	-9.74924
ㄇㄨˋ6쎯	-9.74939
ㄧ0쎯ㄨㄟˋ2쎯	-9.74955
ㄘㄢ1쎯ㄧㄣˇ1쎯	-9.74988
ㄍㄨㄤˇ0쎯ㄓㄡ1쎯ㄕˋ4쎯	-9.74991
▁̇ㄉㄜ1쎯ㄐㄧˋ2쎯ㄕㄨˋ0쎯	-9.75001
ㄕˊ4쎯ㄩㄥˋ0쎯	-9.75006
ㄕㄨˇ2쎯	-9.75029
ㄈㄨˋ4쎯ㄕㄨˇ1쎯	-9.75066
ㄐㄧˊ8쎯ㄊㄧ0쎯	-9.75068
ㄨㄟˊ7쎯	-9.75085
ㄧㄡ0쎯ㄕˋ7쎯	-9.75145
ㄦˋ0쎯ㄉㄥˇ0쎯ㄐㄧㄤˇ1쎯	-9.75184
&	-9.7523
ㄊㄚ1쎯ㄇㄣˊ1쎯	-9.75262
ㄅㄧˋ7쎯ㄕㄨ0쎯	-9.75278
ㄧㄤˊ2쎯ㄒㄧㄢˋ0쎯	-9.75319
ㄐㄧㄚ0쎯ㄋㄚˊ0쎯ㄉㄚˋ쎯	-9.75368
쎀쎀	-9.75387
ㄊㄨㄟˇ쎯	-9.75396
ㄕㄡˇ2쎯ㄘˋ0쎯	-9.75493
ㄊㄢˋ2쎯ㄙㄨㄛˇ1쎯	-9.75497
ㄈㄨˋ7쎯ㄍㄜˇ1쎯	-9.75515
ㄧㄝ1쎯	-9.75573
ㄌㄧˊ4쎯	-9.75582
ㄧㄡˊ0쎯	-9.75632
ㄆㄥˊ1쎯	-9.757
▁̇ㄉㄜ1쎯ㄗㄨㄛ0쎯ㄩㄥˋ0쎯	-9.75702
ㄌㄤˋ0쎯	-9.75749
ㄓㄚˊ1쎯	-9.75757
ㄇㄟˇ1쎯ㄕˊ4쎯	-9.7576
ㄓˊ4쎯ㄋㄥˊ쎯	-9.758
ㄕㄢ0쎯ㄕㄨㄟˇ쎯	-9.75801
ㄩㄥˋ0쎯ㄆㄧㄣˇ쎯	-9.75806
ㄗㄞ2쎯ㄆㄟˊ1쎯	-9.75821
ㄒㄧㄤ1쎯ㄉㄤ0쎯	-9.75838
ㄇㄧㄣˊ0쎯ㄓㄨˇ0쎯	-9.75851
ㄑㄧㄝ쎯ㄔㄥˊ0쎯	-9.75878
ㄍㄨㄢˇ1쎯ㄒㄧㄚˊ5쎯	-9.75938
ㄧㄢˊ1쎯ㄍㄜˊ2쎯	-9.75942
ㄗㄥ0쎯ㄐㄧㄤˋ2쎯	-9.76008
ㄆㄟˋ1쎯	-9.76071
ㄙˋ1쎯ㄍㄜˇ0쎯	-9.7613
쎅ㄍㄜˇ0쎯	-9.76184
ㄑㄧㄥ4쎯	-9.7619
ㄖˋ0쎯ㄔㄤˊ4쎯	-9.76191
ㄅㄧㄠˇ0쎯ㄉㄚˊ1쎯	-9.76271
ㄊㄞ2쎯	-9.76278
ㄍㄨㄥ2쎯ㄎㄞ0쎯	-9.76308
ㄉㄤˇ1쎯ㄓ1쎯ㄅㄨˋ4쎯	-9.7632
ㄏㄨㄛˇ0쎯ㄔㄜ0쎯ㄓㄢˋ2쎯	-9.76346
쎃.	-9.76358
ㄇㄧㄢˋ0쎯ㄐㄧ11쎯ㄧㄠ2쎯	-9.76391
쎄쎁	-9.76402
▁̇ㄉㄜ1쎯ㄕˊ1쎯ㄏㄡˋ2쎯	-9.76421
ㄧˇ2쎯ㄏㄡˋ0쎯	-9.76431
.ㄒㄧㄢˋ1쎯	-9.76447
▁̇ㄉㄜ1쎯ㄍㄨˋ1쎯ㄕˋ8쎯	-9.76504
ㄕㄨˋ2쎯	-9.76508
ㄧˋ17쎯	-9.76556
ㄍㄜˇ1쎯ㄊㄨㄥˊ0쎯	-9.76569
ㄉㄨㄥˇ0쎯	-9.76591
쎀쎃	-9.76651
ㄈㄨˊ5쎯ㄨˋ2쎯.	-9.76672
ㄊㄨㄥˇ3쎯	-9.7679
ㄇㄧㄣˇ3쎯	-9.76824
,ㄉㄢˋ2쎯ㄕˋ15쎯	-9.76845
쎂.쎅	-9.76925
ㄐㄩˋ2쎯ㄅㄟˋ2쎯	-9.76954
ㄑㄧㄢˊ4쎯	-9.76965
ㄒㄧㄝˇ0쎯ㄗㄨㄛ0쎯	-9.76994
ㄨˋ6쎯	-9.77009
ㄕㄣˇ1쎯	-9.7701
ㄅㄞˋ0쎯	-9.77016
ㄅㄠ0쎯ㄏㄢˊ1쎯	-9.77033
ㄌㄧㄥˋ0쎯ㄧ0쎯	-9.77048
ㄨㄢˇ6쎯	-9.77059
ㄐㄧㄢˋ2쎯ㄩˊ0쎯	-9.77063
ㄙㄨˋ6쎯	-9.77123
ㄐㄧㄢˋ12쎯ㄉㄧㄥˋ1쎯	-9.77193
ㄨˋ3쎯ㄧㄝˋ0쎯	-9.7724
ㄊㄨㄥˊ0쎯ㄓˋ1쎯	-9.77245
ㄩˋ2쎯	-9.77248
ㄧㄝˇ0쎯.	-9.77362
ㄉㄧˋ3쎯쎁	-9.77407
ㄉㄥˇ0쎯ㄐㄧˊ2쎯	-9.77489
ㄉㄨㄥˇ0쎯ㄕˋ8쎯ㄔㄤˊ0쎯	-9.77504
ㄋㄤ0쎯	-9.77507
ㄐㄧㄠˋ4쎯ㄉㄚˋ쎯	-9.77534
ㄉㄡˋ0쎯ㄈㄨˇ7쎯	-9.77546
ㄓㄨㄣˇ0쎯ㄅㄟˋ2쎯	-9.77569
ㄐㄧˋ2쎯	-9.7757
ㄔㄨㄣˊ3쎯	-9.77571
ㄕㄚˋ0쎯ㄇㄣˊ0쎯	-9.77577
,ㄗˋ0쎯	-9.77606
ㄒㄧㄠ6쎯	-9.77619
ㄍㄠ0쎯ㄎㄜ2쎯ㄐㄧˋ2쎯	-9.77738
ㄕㄨㄟˇ쎯ㄎㄨˋ0쎯	-9.77743
ㄍㄡˇ1쎯	-9.77768
ㄇㄛˊ3쎯ㄋㄧˇ0쎯	-9.77869
ㄐㄧㄣˋ4쎯	-9.77911
ㄒㄧ1쎯ㄈㄤ0쎯	-9.77946
ㄌㄧˊ8쎯	-9.78096
ㄇㄛˊ3쎯ㄒㄧㄥˊ2쎯	-9.78102
ㄓㄨˇ0쎯ㄊㄧˊ1쎯	-9.7816
ㄌㄧㄤˊ4쎯	-9.7818
ㄧˋ2쎯ㄕㄨˋ0쎯ㄐㄧㄚ3쎯	-9.78199
ㄍㄜˋ0쎯ㄒㄧㄤˋ1쎯	-9.78242
ㄏㄨ1쎯	-9.78253
ㄈㄨˋ3쎯ㄋㄩˇ0쎯	-9.78319
ㄇㄟˇ1쎯ㄕㄨˋ0쎯ㄐㄧㄚ3쎯	-9.78323
ㄔㄨㄥˊ1쎯ㄗˇ0쎯	-9.78347
ㄆㄠˊ1쎯	-9.78347
ㄈㄨˊ8쎯ㄍㄜˇ1쎯	-9.78359
ㄉㄧ3쎯	-9.7841
ㄊㄜˋ0쎯ㄅㄧㄝˊ0쎯ㄕˋ15쎯	-9.78452
ㄋㄥˊ쎯ㄩㄢˊ9쎯	-9.78491
ㄧ0쎯ㄐㄧˋ3쎯ㄌㄧㄝˋ0쎯	-9.78571
ㄈㄨˋ8쎯ㄏㄨㄟˋ2쎯ㄔㄤˊ0쎯	-9.78631
ㄙㄨㄢˋ0쎯	-9.7865
쎃ㄋㄧㄢˊ0쎯	-9.7865
ㄊㄠˊ0쎯	-9.78659
ㄨㄤˊ0쎯	-9.78729
ㄒㄧˊ1쎯	-9.78733
ㄓㄨㄥ0쎯ㄕㄢ0쎯	-9.78808
ㄌㄧㄠˊ0쎯	-9.78878
ㄧㄡ0쎯ㄌㄧㄤˊ0쎯	-9.78935
ㄒㄧㄤ0쎯ㄓㄣˋ3쎯	-9.78984
ㄙㄨㄛˇ0쎯ㄨㄟˋ6쎯	-9.79029
쎆쎉	-9.79047
ㄏㄢˊ0쎯	-9.79083
ㄔㄨ0쎯ㄕㄥ1쎯,	-9.79247
ㄒㄩㄣˊ4쎯ㄏㄨㄢˊ0쎯	-9.79264
ㄐㄧㄥ2쎯ㄔㄤˊ4쎯	-9.79277
쎈쎂	-9.79282
ㄕˋ15쎯ㄈㄡˇ0쎯	-9.79291
ㄒㄧㄢˋ2쎯	-9.79344
ㄧ3쎯ㄕ2쎯	-9.79361
ㄗㄞˋ1쎯ㄘˇ0쎯	-9.79365
ㄅㄢ2쎯	-9.79526
ㄐㄧˊ1쎯ㄌㄧㄣˊ1쎯	-9.79528
ㄎㄢ1쎯ㄉㄠˋ0쎯	-9.79545
ㄘˊ1쎯	-9.79603
ㄓㄜˋ0쎯ㄌㄧˇ2쎯	-9.79624
ㄇㄟˇ0쎯ㄍㄜˇ0쎯	-9.79678
ㄉㄚˋ쎯ㄒㄩㄝˊ1쎯ㄕㄥ1쎯	-9.79689
ㄧ4쎯ㄐㄩ4쎯	-9.79711
ㄉㄚˋ쎯ㄅㄨˋ4쎯ㄈㄣ0쎯	-9.79779
ㄌㄧㄤˊ4쎯ㄕˊ4쎯	-9.798
ˇ	-9.79812
ㄍㄢˇ3쎯ㄐㄧㄠˋ1쎯	-9.79845
ㄊㄢˋ3쎯	-9.79886
ㄌㄧˊ1쎯ㄇㄧˇ0쎯	-9.7991
ㄐㄧㄣˋ0쎯ㄔㄥˊ7쎯	-9.79946
,ㄏㄨㄛˋ2쎯	-9.79991
ㄏㄨㄟˋ5쎯	-9.80008
ㄖㄣˊ0쎯ㄉㄚˋ쎯	-9.80059
ㄐㄧˋ13쎯	-9.80098
ㄊㄧㄢ0쎯ㄐㄧㄣ4쎯ㄕˋ4쎯	-9.80312
ㄈㄨˋ1쎯	-9.80351
ㄅㄢˋ6쎯	-9.80371
ㄒㄧㄢˋ8쎯	-9.80421
ㄘˊ3쎯	-9.80455
쎁쎉쎈쎃ㄋㄧㄢˊ0쎯	-9.80518
쎇쎃	-9.80541
ㄓˋ11쎯ㄏㄨㄟˋ11쎯	-9.80565
쎁쎉쎈쎂ㄋㄧㄢˊ0쎯	-9.80596
ㄒㄧㄠˋ3쎯ㄌㄩˋ2쎯	-9.80634
ㄆㄛˋ0쎯ㄏㄨㄞˋ쎯	-9.8075
ㄔㄥˊ0쎯ㄐㄧㄡˋ4쎯	-9.80773
ㄍㄜˇ0쎯ㄘㄨㄣ0쎯ㄇㄧㄣˊ0쎯	-9.80795
ㄗㄨㄛˋ2쎯ㄔㄨ0쎯	-9.80824
,ㄕㄨˇ1쎯ㄩˊ0쎯	-9.80833
,ㄏㄠˊ0쎯	-9.80964
ㄨˊ1쎯	-9.81
ㄐㄧˋ9쎯	-9.81014
ㄍㄨ3쎯	-9.81051
쎀.쎅	-9.81073
ㄙㄨㄟˊ2쎯	-9.81078
ㄑㄧㄡˊ2쎯ㄉㄨㄟˋ0쎯	-9.81182
ㄋㄧˊ0쎯ㄧㄚˋ1쎯	-9.81213
ㄈㄨˋ0쎯ㄑㄧㄣ2쎯	-9.8124
쎇쎈	-9.81377
ㄏㄨㄟˋ5쎯ㄏㄨㄚˋ1쎯	-9.81387
ㄔㄜ0쎯ㄓㄢˋ2쎯	-9.81408
ㄒㄧ1쎯ㄘㄤˊ쎯	-9.8141
ㄈㄚˇ0쎯ㄍㄨㄟ2쎯	-9.81435
ㄘㄨˋ2쎯	-9.81455
ㄉㄧˋ3쎯ㄌㄧㄡˋ0쎯	-9.8153
ㄗˋ0쎯ㄨㄛˇ쎯	-9.81534
ㄊㄨㄟ0쎯ㄐㄧㄣˋ0쎯	-9.81561
ㄏㄤˋ0쎯	-9.81574
ㄒㄧㄝˊ0쎯ㄆㄧㄢ0쎯	-9.81595
ㄒㄧㄝˊ1쎯ㄧˋ4쎯	-9.81636
ㄌㄧˋ1쎯ㄖㄣˊ3쎯	-9.81675
ㄆㄧㄥˊ0쎯ㄏㄥˊ2쎯	-9.81679
ㄓㄨˇ0쎯ㄅㄢˋ0쎯	-9.81688
ㄏㄞˇ0쎯ㄐㄩㄣ0쎯	-9.81822
ㄕㄨˇ5쎯ㄇㄚˇ2쎯	-9.81825
.ㄇㄨˋ1쎯ㄑㄧㄢˊ0쎯	-9.81868
ㄍㄠ0쎯ㄒㄧㄣ5쎯ㄐㄧˋ2쎯	-9.81899
,ㄉㄤ0쎯	-9.81948
ㄐㄧㄤ0쎯ㄋㄚ1쎯	-9.81987
.ㄘㄨㄥˊ0쎯	-9.82033
ㄍㄜˊ3쎯	-9.82078
ㄅㄨˋ0쎯ㄏㄨㄟˋ2쎯	-9.8208
ㄏㄠˋ1쎯	-9.8209
ㄒㄧㄝˊ1쎯ㄓㄨˋ0쎯	-9.82149
쎅%	-9.82155
ㄆㄢ0쎯	-9.82221
쎀쎅	-9.82249
ㄗㄨㄟˋ0쎯ㄏㄠˇ0쎯	-9.82265
ㄧ0쎯ㄉㄥˇ0쎯ㄐㄧㄤˇ1쎯	-9.82282
ㄈㄥ1쎯ㄒㄧㄢˇ1쎯	-9.82325
ㄈㄥˊ0쎯	-9.82406
ㄈㄚ쎯ㄇㄧㄥˊ1쎯	-9.82453
ㄐㄩㄝˊ0쎯	-9.82463
ㄏㄨ0쎯	-9.82481
ㄗㄨㄛ0쎯ㄩㄥˋ0쎯.	-9.82559
ㄔㄨㄤ0쎯ㄌㄧˋ3쎯	-9.82588
ㄗㄨˇ0쎯	-9.82595
▁̇ㄉㄜ1쎯ㄑㄧˇ2쎯ㄧㄝˋ0쎯	-9.82668
ㄩㄢˊ1쎯ㄡ0쎯	-9.82793
ㄒㄧㄢˊ0쎯	-9.82819
ㄇㄧㄥˋ쎯ㄇㄧㄥˊ0쎯	-9.82821
ㄎㄜ2쎯、	-9.82845
ㄏㄨㄚˋ1쎯ㄇㄧㄢˋ0쎯	-9.8288
ㄖㄨㄥˊ4쎯ㄧˋ12쎯	-9.82929
ㄅㄣ0쎯	-9.82952
,ㄕㄨˇ1쎯	-9.82984
ㄐㄧㄣˋ0쎯ㄒㄧㄡ1쎯	-9.82993
ㄈㄣ0쎯ㄅㄨˋ1쎯ㄩˊ0쎯	-9.83015
ㄌㄨˋ3쎯ㄏㄨㄚˋ0쎯	-9.83042
ㄍㄨㄥ0쎯ㄔㄤˇ0쎯	-9.83082
ㄒㄧㄥˊ0쎯	-9.83096
ㄏㄨㄣ2쎯	-9.83166
ㄗㄢˋ1쎯	-9.83231
ㄉㄧㄢˋ0쎯ㄑㄧˋ7쎯	-9.8327
.쎂.	-9.83339
ㄆㄧㄥˊ0쎯ㄈㄤ0쎯ㄇㄧˇ0쎯.	-9.83363
ㄗㄨㄟˋ0쎯ㄐㄩˋ2쎯	-9.83366
ㄓㄨˇ0쎯ㄧㄢˇ3쎯	-9.83378
ㄌㄧˇ3쎯ㄐㄧㄝˇ1쎯	-9.83396
ㄐㄧㄤˋ2쎯ㄉㄨˋ2쎯	-9.83445
ㄈㄣ0쎯ㄍㄨㄢˇ1쎯	-9.83468
ㄋㄟˋ쎯ㄎㄜ2쎯	-9.83584
ㄕˊ0쎯ㄋㄧㄢˊ0쎯	-9.836
ㄓㄨㄥ0쎯ㄨㄣˊ0쎯ㄇㄧㄥˊ0쎯	-9.83603
ㄒㄧㄝˊ2쎯	-9.83688
ㄗㄨㄟˋ0쎯ㄓㄨㄥ2쎯	-9.83723
ㄉㄧㄠˋ3쎯	-9.83726
ㄋㄧㄢˊ0쎯ㄐㄧㄢ4쎯	-9.8373
ㄞˊ0쎯	-9.83738
ㄆㄟˋ2쎯ㄍㄜˇ1쎯	-9.83876
ㄕˋ3쎯ㄐㄧㄝˋ3쎯ㄕㄤˇ0쎯	-9.83876
ㄐㄧˋ12쎯	-9.83884
ㄌㄨㄛˊ0쎯ㄇㄚˇ0쎯	-9.83923
ㄓㄣ4쎯ㄕˊ3쎯	-9.83965
ㄌㄧㄢˇ1쎯	-9.84002
,ㄐㄧㄡˋ4쎯	-9.84022
ㄨㄢ0쎯	-9.84111
ㄒㄧㄚˋ0쎯ㄒㄧㄚˊ5쎯	-9.84176
ㄉㄧˋ3쎯ㄧ0쎯ㄍㄜˇ0쎯	-9.84233
ㄈㄟ0쎯ㄐㄧ6쎯	-9.84233
ㄇㄧㄢˋ0쎯ㄐㄧ11쎯쎄	-9.8426
ㄅㄧˋ7쎯	-9.8434
ㄒㄩㄥ1쎯ㄉㄧˋ0쎯	-9.84349
ㄆㄟˋ2쎯ㄓˋ13쎯	-9.8436
ㄎㄨㄥ0쎯ㄉㄧㄠˋ2쎯	-9.84383
ㄕˋ16쎯	-9.84387
,ㄗˋ1쎯	-9.84499
ㄈㄣ0쎯ㄅㄧㄢˋ3쎯ㄌㄩˋ2쎯	-9.84512
ㄉㄤˇ1쎯ㄗㄨˇ1쎯	-9.84646
ㄏㄨㄢˋ5쎯	-9.84646
ㄕˋ0쎯ㄕㄥ1쎯ㄉㄠˇ0쎯ㄕ2쎯	-9.84691
ㄔㄨ1쎯ㄓㄨㄥ0쎯	-9.84787
ㄎㄨㄞˋ1쎯ㄌㄜˋ0쎯	-9.84832
ㄒㄧㄠ4쎯	-9.84835
ㄗㄞˋ1쎯ㄒㄧㄢˋ3쎯	-9.84854
쎆-	-9.84885
ㄈㄨˋ8쎯ㄐㄧㄠ6쎯ㄕㄡˋ2쎯	-9.84972
ㄊㄨㄛˇ1쎯ㄩㄢˊ5쎯	-9.85004
.ㄒㄧㄢˋ1쎯ㄨㄟˊ0쎯	-9.85113
ㄙㄨㄟˊ1쎯ㄓㄠ2쎯	-9.85121
ㄉㄚˋ쎯ㄌㄧㄢˊ0쎯	-9.85132
ㄧㄡˇ1쎯ㄧ0쎯	-9.85141
ㄔㄨˋ1쎯	-9.85161
-쎃	-9.85164
ㄙ4쎯ㄊㄜˋ0쎯	-9.85166
,ㄐㄧㄥ2쎯	-9.85168
ㄕㄨㄞ0쎯	-9.85187
ㄔㄤˊ0쎯ㄕㄚ2쎯	-9.85214
ㄗㄨㄥˇ0쎯ㄅㄨˋ4쎯	-9.85279
ㄐㄧㄢ8쎯ㄖㄣˊ3쎯	-9.85326
ㄧㄚˊ1쎯	-9.85344
ㄓㄠˋ0쎯	-9.85393
ㄆㄧˊ6쎯ㄌㄧㄣˊ0쎯	-9.85402
.ㄓㄜˋ0쎯	-9.85412
ㄐㄩˊ0쎯ㄐㄩˊ0쎯ㄔㄤˊ0쎯	-9.85437
ㄎㄥ0쎯	-9.85447
ㄏㄤˊ0쎯ㄉㄨㄥˋ0쎯	-9.85471
ㄨㄟˇ5쎯ㄩㄢˊ2쎯.	-9.85496
ㄐㄧㄚ3쎯ㄗㄨˊ1쎯	-9.855
ㄋㄧㄢˊ0쎯ㄉㄞˋ0쎯	-9.8551
ㄧ0쎯ㄗㄨㄛˋ1쎯	-9.85519
ㄨ1쎯ㄖㄢˇ1쎯	-9.8555
ㄓㄢˇ2쎯ㄌㄢˇ0쎯	-9.856
ㄈㄣ0쎯ㄏㄨㄟˋ2쎯	-9.85615
ㄘˊ5쎯	-9.85628
ㄧㄠˋ2쎯	-9.857
ㄒㄧㄥˊ1쎯ㄖㄨㄥˊ4쎯	-9.8571
ㄧ0쎯ㄐㄧㄚ3쎯	-9.85718
ㄕㄣˇ1쎯ㄐㄧˋ0쎯	-9.85746
ㄐㄧ12쎯ㄧㄣ0쎯	-9.85757
ㄉㄧˋ3쎯쎂	-9.85852
ㄔㄨㄢˊ0쎯ㄇㄟˊ5쎯	-9.85852
ㄙˇ쎯ㄨㄤˊ0쎯	-9.85987
ㄅㄠˇ2쎯ㄘㄨㄣˊ쎯	-9.85994
ㄒㄧ6쎯ㄕㄥ3쎯	-9.86002
ㄉㄤˋ1쎯ㄢˋ2쎯	-9.86016
ㄔㄨㄤ0쎯ㄧˋ18쎯	-9.86035
ㄐㄧˋ1쎯ㄓㄜˇ0쎯	-9.8606
ㄧㄤˇ2쎯ㄏㄨㄚˋ0쎯	-9.86095
ㄘㄨㄛˋ1쎯ㄕ5쎯	-9.86105
ㄒㄧㄥˋ1쎯ㄈㄨˊ12쎯	-9.86156
ㄕㄢ0쎯ㄒㄧㄢˋ0쎯	-9.86189
ㄕˊ0쎯ㄨˇ0쎯	-9.8619
ㄏㄨㄟˊ0쎯:“	-9.86197
°C	-9.86278
ㄉㄧㄢˋ0쎯ㄌㄨˋ5쎯	-9.86282
ㄉㄨㄛ0쎯ㄋㄧㄢˊ0쎯ㄌㄞˊ0쎯	-9.86298
▁̇ㄉㄜ1쎯ㄗㄨㄛ0쎯ㄆㄧㄣˇ쎯	-9.86326
ㄓㄨˋ0쎯ㄌㄧˇ3쎯	-9.86373
ㄤˊ0쎯	-9.86412
()ㄕˋ15쎯	-9.86509
쎁쎉쎅쎈ㄋㄧㄢˊ0쎯	-9.86542
ㄏㄢˊ1쎯ㄧㄡˇ1쎯	-9.86591
,ㄍㄨㄥ2쎯ㄙ0쎯	-9.86635
ㄐㄧˇ0쎯	-9.86689
ㄐㄧㄢˋ2쎯ㄧˋ4쎯	-9.86696
쎇쎆	-9.86737
ㄔㄠˊ1쎯ㄒㄧㄢ3쎯	-9.86804
ㄧㄥˊ0쎯	-9.86812
쎂쎀ㄕˋ3쎯ㄐㄧˇ1쎯	-9.86843
ㄅㄟ2쎯ㄐㄧㄥˇ1쎯	-9.86861
ㄍㄜ0쎯	-9.86882
ㄉㄧˋ0쎯	-9.86885
ㄧㄣ0쎯ㄘˇ0쎯	-9.869
ㄈㄨˋ8쎯ㄕㄨ0쎯ㄐㄧˋ1쎯、	-9.86905
ㄘㄨˋ0쎯	-9.86915
,ㄑㄧㄝˇ쎯	-9.86973
ㄕㄤˇ2쎯	-9.87
ㄅㄣˇ1쎯	-9.87108
ㄐㄧˇ3쎯ㄋㄚ1쎯	-9.87142
ㄖㄨㄥˊ6쎯	-9.87145
ㄒㄧㄠˋ3쎯ㄧˋ15쎯	-9.87146
ㄌㄧㄥˊ11쎯	-9.87157
ㄗㄥˋ1쎯	-9.87174
ㄇㄟˊ3쎯	-9.87207
ㄆㄧㄥˊ0쎯ㄇㄧㄢˋ0쎯	-9.8722
ㄌㄧㄥˋ0쎯ㄨㄞˋ쎯	-9.87228
ㄍㄥ0쎯ㄇㄧㄥˊ0쎯ㄨㄟˊ0쎯	-9.87257
ㄈㄨˋ0쎯ㄇㄨˇ0쎯	-9.87274
ㄌㄧˇ3쎯ㄋㄧㄢˋ0쎯,	-9.87286
ㄊㄨˊ0쎯ㄒㄧㄤˋ3쎯	-9.87295
ㄉㄚˋ쎯ㄕㄚˋ0쎯	-9.87461
쎂쎀쎁쎃ㄋㄧㄢˊ0쎯	-9.87461
ㄍㄞˇ쎯ㄨㄟˊ0쎯	-9.8747
ㄉㄥ1쎯ㄐㄧˋ1쎯	-9.87483
ㄐㄧㄥˋ5쎯	-9.87487
ㄠˋ3쎯ㄉㄚˋ쎯ㄌㄧˋ6쎯	-9.87496
ㄖㄣˊ0쎯ㄍㄨㄥ0쎯	-9.87505
ㄎㄤˋ1쎯ㄖˋ0쎯	-9.87578
ㄑㄧˊ0쎯ㄑㄩㄢˊ1쎯	-9.87585
ㄎㄨㄛˋ0쎯ㄓㄢˇ2쎯	-9.87731
ㄇㄧㄥˊ1쎯ㄉㄞˋ0쎯	-9.87733
ㄓㄥˋ1쎯ㄓㄡ1쎯	-9.87807
ㄌㄧㄡˊ3쎯ㄉㄨㄥˋ0쎯	-9.87815
ㄅㄧˋ14쎯	-9.87902
ㄔㄨㄤ2쎯	-9.87934
ㄕˋ15쎯ㄧ0쎯ㄙㄨㄛˇ0쎯	-9.87967
ㄎㄨㄤˊ0쎯	-9.88012
쎀쎉	-9.88065
ㄐㄧㄥˋ2쎯ㄓㄥ1쎯	-9.88087
ㄒㄧㄢˇ0쎯ㄓㄨˋ7쎯	-9.88122
ㄓ9쎯	-9.88136
쎇쎇	-9.88145
쎁ㄋㄧㄢˊ0쎯	-9.88167
ㄓˇ4쎯ㄉㄧㄥˋ1쎯	-9.88232
ㄓㄨ2쎯	-9.88235
ㄗㄨ0쎯	-9.8824
ㄇㄞˋ0쎯	-9.88244
ㄓˊ1쎯ㄕㄨˇ1쎯	-9.88264
쎇쎉	-9.88296
▁̇ㄉㄜ1쎯ㄕㄥ1쎯ㄔㄢˇ0쎯	-9.88311
ㄓㄨㄤˋ1쎯,	-9.88346
ㄓ7쎯ㄉㄠˋ3쎯	-9.88346
ㄓˇ4쎯ㄅㄧㄠ0쎯	-9.88376
ㄗㄠˇ1쎯	-9.88461
ㄐㄧ6쎯ㄓˋ3쎯	-9.8849
():	-9.88491
ㄅㄚˊ0쎯	-9.88523
ㄒㄩㄥˊ1쎯	-9.88588
):	-9.88621
ㄐㄧㄡˋ4쎯ㄧㄝˋ0쎯	-9.88638
ㄐㄧㄚ3쎯ㄐㄩˋ2쎯	-9.88709
쎁쎂쎈	-9.88729
ㄐㄧ0쎯ㄏㄨ0쎯	-9.88729
ㄑㄧˊ1쎯ㄕˊ3쎯	-9.88783
ㄐㄧㄢ3쎯	-9.88827
ㄍㄠ0쎯ㄒㄧㄠˋ3쎯	-9.88839
ㄈㄨˊ11쎯ㄕㄜˋ3쎯	-9.88854
ㄧ0쎯ㄉㄞˋ1쎯	-9.88862
ㄍㄨㄟ1쎯	-9.88897
ㄧˇ3쎯	-9.88902
쎁쎉쎅쎇ㄋㄧㄢˊ0쎯	-9.88903
ㄘㄞˊ2쎯ㄐㄧㄥ2쎯	-9.88903
ㄌㄧㄢˋ1쎯	-9.88904
ㄖㄣˊ0쎯ㄐㄩㄣ1쎯ㄔㄨㄣˊ0쎯	-9.88953
,ㄈㄤˋ쎯ㄖㄨˋ0쎯	-9.88986
ㄍㄞˇ쎯ㄗㄠˋ2쎯	-9.89
쎉쎄	-9.89004
ㄐㄧㄣˋ0쎯ㄕˋ0쎯	-9.89019
ㄕˋ4쎯ㄖㄣˊ0쎯ㄇㄧㄣˊ0쎯	-9.89021
ㄓㄜˇ0쎯.	-9.89087
ㄒㄧㄚˋ0쎯ㄗㄞˇ1쎯	-9.89145
▁̇ㄉㄜ1쎯ㄈㄤ0쎯ㄈㄚˇ0쎯	-9.89176
ㄐㄧㄝˋ1쎯	-9.89183
ㄕㄨ3쎯	-9.89206
ㄉㄠˇ3쎯ㄖㄨˋ0쎯	-9.89236
ㄕㄡˇ2쎯ㄉㄡ0쎯	-9.89273
ㄑㄧㄠˇ0쎯	-9.89312
ㄕㄨㄟˋ0쎯ㄇㄧㄥˊ1쎯	-9.89347
ㄉㄥˋ0쎯	-9.89431
ㄆㄛ2쎯	-9.89534
ㄔㄤˊ1쎯ㄙㄨㄛˇ0쎯	-9.89538
ㄍㄨㄥ2쎯ㄩˋ12쎯	-9.89545
ㄘㄠˊ1쎯	-9.8959
ㄌㄧㄤˇ0쎯ㄘㄜˋ2쎯	-9.89609
ㄊㄨ2쎯	-9.89619
ㄈㄣ0쎯ㄌㄧˊ3쎯	-9.89642
,ㄕˋ15쎯ㄧ0쎯ㄐㄧㄚ3쎯	-9.8968
,ㄒㄧㄥˊ1쎯ㄔㄥˊ0쎯	-9.89705
ㄌㄧㄣˊ3쎯	-9.89718
ㄩㄢˊ4쎯ㄗㄜˊ0쎯	-9.89754
ㄆㄧㄥˊ1쎯ㄨㄟˊ0쎯	-9.89819
ㄐㄧ6쎯、	-9.89879
.ㄉㄢˋ2쎯	-9.89942
ㄈㄥ6쎯	-9.89949
ㄨˋ5쎯	-9.89949
쎀쎂	-9.89975
ㄕㄤˇ0쎯ㄒㄧㄚˋ0쎯	-9.89982
ㄐㄧ12쎯ㄩˊ0쎯	-9.89987
ㄧㄡ1쎯	-9.90005
ㄔㄡ0쎯	-9.90017
ㄅㄠˋ2쎯	-9.90037
쎇-	-9.90053
ㄌㄧˋ0쎯ㄗ2쎯ㄩㄢˊ9쎯	-9.90111
ㄅㄠˋ8쎯	-9.90144
ㄏㄨㄟˇ1쎯	-9.90183
ㄢ2쎯	-9.90195
ㄔㄤˊ4쎯ㄨㄟˇ5쎯ㄏㄨㄟˋ2쎯	-9.90199
ㄊㄨˇ0쎯ㄖㄤˇ0쎯	-9.90221
ㄧㄥˊ7쎯ㄉㄜˊ0쎯	-9.90227
ㄊㄨㄟ0쎯ㄉㄨㄥˋ0쎯	-9.90288
ㄒㄧㄤ1쎯ㄧㄥ0쎯	-9.90335
ㄌㄜˋ0쎯ㄉㄨㄟˋ0쎯	-9.90337
ㄗㄨㄢ0쎯	-9.90349
ㄘㄨㄥˊ1쎯ㄕㄨ0쎯	-9.90358
,ㄧㄣ0쎯ㄨㄟˊ0쎯	-9.90376
ㄈㄤˊ0쎯ㄓˋ5쎯	-9.90395
ㄕㄡˋ2쎯ㄩˊ1쎯	-9.90413
ㄅㄢˋ0쎯ㄈㄚˇ0쎯	-9.90421
ㄐㄧˊ1쎯ㄌㄧㄣˊ1쎯ㄕㄥˇ0쎯	-9.90429
ㄍㄢ1쎯ㄙㄨˋ1쎯ㄕㄥˇ0쎯	-9.90435
ㄌㄧㄥˊ5쎯	-9.90454
ㄐㄧㄢˋ2쎯ㄗㄠˋ2쎯	-9.90469
ㄖㄨㄥˊ4쎯ㄌㄧㄤˊ3쎯:	-9.90502
ㄨˇ2쎯	-9.90541
ㄨㄤˇ0쎯ㄕㄤˇ0쎯	-9.90559
ㄅㄟ3쎯	-9.90629
ㄉㄡˋ2쎯ㄕㄨ0쎯	-9.90652
ㄉㄠˇ0쎯ㄓˋ7쎯	-9.90654
,ㄏㄞˊ0쎯	-9.90735
ㄑㄧㄥ5쎯ㄕㄨㄟˇ쎯	-9.9075
ㄧˇ1쎯ㄧㄡˇ1쎯	-9.90835
ㄐㄧㄣˋ0쎯ㄎㄡˇ쎯	-9.90852
ㄇㄨˋ10쎯	-9.90902
ㄙㄨˋ3쎯ㄍㄨㄥ2쎯ㄌㄨˋ5쎯	-9.90929
ㄒㄧˇ2쎯ㄞˋ1쎯	-9.9097
ㄇㄥˊ1쎯	-9.90971
ㄧㄡˇ1쎯ㄒㄧㄝ0쎯	-9.90985
ㄒㄧㄢˋ1쎯ㄔㄤˊ1쎯	-9.90996
ㄖㄨㄥˊ9쎯ㄍㄜˇ1쎯	-9.91
ㄠˋ1쎯	-9.91044
ㄉㄤˋ0쎯	-9.91187
ㄔㄨㄣ0쎯ㄑㄧㄡ1쎯	-9.91233
ㄕㄥ1쎯ㄘㄨㄣˊ쎯	-9.91268
ㄌㄨㄥˋ0쎯	-9.91298
ㄑㄧˊ6쎯	-9.91304
ㄗㄨㄥˇ0쎯ㄕㄡ쎯ㄖㄨˋ0쎯	-9.91399
ㄒㄧㄢˋ1쎯ㄨㄟˊ0쎯	-9.91478
ㄍㄨㄟ2쎯ㄌㄩˋ0쎯	-9.91497
ㄔㄨㄢˊ0쎯ㄐㄧ9쎯	-9.91534
ㄌㄧˇ3쎯ㄕˋ8쎯	-9.91548
ㄔㄨ0쎯ㄗˋ0쎯	-9.91552
ㄙㄨㄛˇ0쎯ㄧˇ2쎯	-9.91567
ㄔㄚˊ3쎯	-9.91584
ㄗˇ0쎯,	-9.91667
ㄊㄥˊ1쎯	-9.91733
ㄔㄨㄟˊ0쎯	-9.91762
,ㄅㄚˇ0쎯	-9.91769
ㄨˇ7쎯ㄊㄞ0쎯	-9.91833
ㄅㄧㄢˋ0쎯ㄔㄥˊ0쎯	-9.91841
ㄧㄤˊ2쎯ㄍㄨㄤ0쎯	-9.91845
ㄈㄤˇ2쎯ㄓ9쎯	-9.9185
ㄔㄜˇ0쎯ㄘㄨㄣˋ쎯:	-9.91881
ㄐㄧㄝˊ2쎯	-9.91896
쎈ㄍㄜˇ0쎯	-9.9197
ㄉㄚ1쎯	-9.92018
ㄩㄢˊ4쎯ㄧㄣ0쎯	-9.92031
ㄗㄥ0쎯ㄔㄤˊ0쎯	-9.92033
ㄕˋ8쎯ㄨˋ2쎯	-9.92035
ㄧˋ9쎯	-9.92054
ㄕㄤ1쎯ㄅㄧㄠ0쎯	-9.92072
ㄒㄧㄣ0쎯ㄌㄧˇ3쎯ㄒㄩㄝˊ1쎯	-9.92086
ㄨㄥ0쎯	-9.92095
ㄘˋ2쎯	-9.92101
ㄐㄧㄠ6쎯ㄕㄡˋ2쎯.	-9.92132
ㄅㄧㄢˇ1쎯	-9.92166
ㄇㄛˊ3쎯ㄈㄢˋ3쎯	-9.92179
ㄏㄢˋ0쎯ㄩˇ6쎯	-9.92302
,ㄋㄥˊ쎯	-9.92309
ㄨ1쎯	-9.92362
ㄐㄩ3쎯ㄌㄜˋ0쎯ㄅㄨˋ4쎯.	-9.92406
쎀.쎀	-9.92424
ㄧˋ18쎯ㄕˊ2쎯	-9.92437
ㄍㄨㄛˊ0쎯ㄉㄠˋ3쎯	-9.92451
ㄌㄟˊ0쎯	-9.92475
ㄍㄨㄛˊ0쎯ㄧㄡˇ1쎯	-9.92486
ㄕㄣˊ1쎯ㄅㄧˋ7쎯	-9.92494
ㄍㄨㄥ0쎯ㄖㄣˊ0쎯	-9.92539
ㄍㄨㄥ2쎯ㄐㄧㄣ1쎯	-9.92543
ㄉㄚˋ쎯ㄏㄨㄟˋ2쎯	-9.92548
ㄧㄡˋ9쎯	-9.92569
ㄔㄢˊ0쎯ㄩㄢˊ0쎯	-9.9258
,ㄍㄥ0쎯	-9.92627
,ㄐㄧㄚ0쎯ㄖㄨˋ0쎯	-9.92657
ㄍㄡˋ0쎯ㄗㄠˋ2쎯	-9.92672
쎁쎉쎄쎉ㄋㄧㄢˊ0쎯	-9.92703
ㄑㄧㄥ5쎯ㄏㄨㄚˊ1쎯	-9.92726
ㄇㄧㄥˊ0쎯:	-9.92735
,ㄑㄩㄝˋ0쎯	-9.92735
ㄑㄩㄢˇ0쎯	-9.92799
ㄘㄢ1쎯ㄊㄧㄥ0쎯	-9.92852
ㄧㄢˋ10쎯	-9.92862
ㄈㄤˋ쎯ㄗㄞˋ1쎯	-9.92892
ㄎㄜ8쎯	-9.92898
ㄏㄨㄢ0쎯ㄧㄥˊ0쎯	-9.92929
ㄔˊ4쎯ㄒㄩˋ6쎯	-9.92972
쎯	-9.92975
ㄅㄟˇ쎯ㄈㄤ0쎯	-9.93024
ㄧㄠˊ2쎯	-9.93072
ㄕㄨˋ1쎯	-9.93114
ㄦˊ1쎯ㄑㄧㄝˇ쎯	-9.93133
ㄕˋ4쎯ㄐㄧˊ2쎯	-9.93183
ㄌㄞˊ0쎯ㄩㄢˊ9쎯	-9.93187
ㄏㄨㄣˊ1쎯	-9.93206
ㄈㄨˋ8쎯ㄐㄩˊ0쎯ㄔㄤˊ0쎯	-9.93211
ㄒㄧˊ2쎯	-9.93259
ㄖㄨˋ0쎯ㄒㄩㄢˇ0쎯	-9.93267
ㄕˋ9쎯	-9.93323
ㄧㄥˋ0쎯	-9.93367
▁̇ㄌㄜ쎯“	-9.93453
ㄧㄥ1쎯ㄘㄨㄣˋ쎯	-9.93464
ㄍㄨㄟˋ1쎯ㄓㄡ1쎯ㄕㄥˇ0쎯	-9.93495
ㄧ0쎯ㄉㄨㄢˋ0쎯	-9.93547
ㄏㄡˋ2쎯	-9.93562
ㄍㄨㄥ0쎯ㄋㄨㄥˊ0쎯	-9.93675
ㄑㄧㄢˊ0쎯ㄏㄡˋ0쎯	-9.93716
ㄒㄧㄣˋ0쎯ㄒㄧ7쎯ㄏㄨㄚˋ0쎯	-9.93741
ㄈㄨˋ14쎯	-9.93791
ㄇㄧˋ2쎯	-9.93818
ㄒㄧㄢˋ0쎯ㄓㄥˋ3쎯ㄈㄨˇ3쎯	-9.93825
ㄧ4쎯ㄊㄨㄛ0쎯	-9.93828
ㄏㄨㄟˋ11쎯	-9.93834
ㄏㄨㄟˋ2쎯ㄔㄤˊ0쎯	-9.93855
ㄙㄢ0쎯ㄉㄥˇ0쎯ㄐㄧㄤˇ1쎯	-9.93864
ㄍㄨㄛ0쎯ㄑㄩˋ0쎯	-9.93881
ㄅㄧˇ1쎯ㄌㄧˋ8쎯	-9.93902
쎀쎄	-9.93939
ㄑㄧㄠˊ0쎯	-9.93982
ㄉㄧㄥˋ1쎯ㄧˋ1쎯	-9.94
ㄒㄧㄚˊ6쎯	-9.94016
ㄐㄧㄤˋ3쎯ㄧㄡˊ4쎯	-9.94034
ㄕˊ0쎯ㄅㄚ0쎯	-9.94052
쎁쎉쎈쎀ㄋㄧㄢˊ0쎯	-9.94058
ㄆㄟˋ2쎯ㄐㄧㄢˋ1쎯	-9.94166
ㄓㄨˋ10쎯	-9.94169
ㄅㄤˋ1쎯	-9.94212
ㄎㄨㄛˋ0쎯ㄉㄚˋ쎯	-9.94243
ㄉㄧㄢˋ6쎯ㄈㄣˇ쎯	-9.94274
ㄉㄚˋ쎯ㄓㄨㄢ0쎯	-9.94377
쎁쎉쎅쎉ㄋㄧㄢˊ0쎯	-9.94407
ㄖㄣˊ0쎯ㄇㄧㄣˊ0쎯ㄅㄧˋ0쎯	-9.94408
ㄧˋ18쎯ㄧˋ1쎯	-9.94424
ㄆㄧㄥˊ0쎯ㄩㄢˊ4쎯	-9.94448
ㄧㄠˊ5쎯	-9.94483
ㄅㄞˇ3쎯	-9.94488
ㄐㄧˋ1쎯ㄗㄞˇ1쎯	-9.94524
ㄓㄣ0쎯	-9.94561
ㄕˋ15쎯ㄍㄜˇ0쎯	-9.94571
ㄅㄧㄥ1쎯ㄑㄧㄝˇ쎯	-9.9458
ㄋㄚ1쎯ㄈㄤ0쎯	-9.94581
ㄐㄧㄝ0쎯ㄋㄥˊ쎯	-9.94598
ㄕ3쎯ㄍㄜ7쎯	-9.94644
▁̇ㄉㄜ0쎯ㄓˇ2쎯	-9.94661
ㄐㄧㄥ2쎯ㄌㄧˇ3쎯	-9.94785
▁̇ㄉㄜ0쎯ㄇㄧㄢˋ0쎯	-9.94794
ㄐㄧ0쎯ㄍㄜˇ0쎯	-9.94802
ㄕㄨㄟˇ쎯ㄋㄧˊ1쎯	-9.94885
ㄧㄡ0쎯ㄏㄨㄚˋ0쎯	-9.94892
ㄐㄧㄢˇ9쎯	-9.94903
ㄐㄩˋ0쎯ㄉㄚˋ쎯	-9.94935
ㄔㄜ0쎯ㄌㄧㄤˋ2쎯	-9.94947
ㄐㄧㄢˇ7쎯	-9.94966
ㄞ1쎯	-9.94978
ㄍㄜˋ0쎯ㄍㄜˇ0쎯	-9.94983
ㄉㄨㄟ쎯	-9.94995
ㄉㄧㄝˊ2쎯	-9.95032
ㄓㄜˋ0쎯ㄕˋ15쎯	-9.95064
ㄑㄩㄢˊ1쎯ㄕㄥˇ0쎯	-9.95074
ㄓㄨㄛˊ2쎯	-9.95107
ㄍㄨㄟ4쎯	-9.95111
ㄈㄚ쎯ㄕㄜˋ3쎯	-9.95113
ㄆㄧㄥˊ4쎯ㄐㄧㄝˋ5쎯	-9.95179
,ㄊㄚ0쎯ㄇㄣˊ1쎯	-9.95223
ㄒㄧㄤˇ1쎯	-9.95224
ㄊㄢˊ4쎯	-9.9523
ㄗˋ0쎯ㄓㄨˇ0쎯	-9.95243
,ㄧ0쎯ㄅㄢ2쎯	-9.95294
ㄉㄚˊ0쎯ㄧㄣˋ0쎯	-9.95341
ㄅㄨˋ0쎯ㄒㄧㄡˋ3쎯ㄍㄤ6쎯	-9.95364
ㄍㄢ0쎯ㄗㄠˋ4쎯	-9.95368
ㄌㄚˋ3쎯	-9.95422
ㄓㄨˇ0쎯ㄖㄣˊ3쎯,	-9.95448
ㄅㄨˋ0쎯ㄗㄨˊ0쎯	-9.95494
ㄐㄧㄠ7쎯	-9.95519
ㄘㄨㄥˊ1쎯	-9.95531
ㄈㄤˇ1쎯	-9.95629
ㄙㄢˇ1쎯ㄨㄣˊ0쎯	-9.95634
ㄌㄧㄣˊ6쎯	-9.95647
ㄓㄨㄥ0쎯ㄒㄧㄣ0쎯、	-9.95683
ㄅㄠˋ0쎯ㄉㄠˋ3쎯	-9.95729
-쎄	-9.95758
ㄗ2쎯ㄒㄩㄣˋ1쎯	-9.95801
ㄇㄧㄢˋ0쎯ㄐㄧ11쎯쎂	-9.95914
ㄏㄠˊ2쎯ㄏㄨㄚˊ1쎯	-9.96008
,ㄐㄧㄚ0쎯	-9.96019
ㄨㄤ0쎯	-9.96021
ㄕㄡˇ2쎯ㄐㄧㄝˋ2쎯	-9.96098
ㄈㄨˇ5쎯ㄓㄨˋ0쎯	-9.9611
ㄐㄧˊ2쎯ㄐㄧㄠ6쎯ㄕ2쎯	-9.96127
쎁쎉쎅쎄ㄋㄧㄢˊ0쎯	-9.96149
ㄒㄧㄥˋ2쎯ㄍㄜˊ2쎯	-9.96187
ㄍㄨㄟ2쎯	-9.96188
ㄌㄧㄥˋ0쎯	-9.96194
ㄐㄧˊ4쎯ㄎㄜˇ0쎯.	-9.96263
ㄏㄥˊ2쎯	-9.96274
ㄔㄜˇ0쎯	-9.96293
ㄎㄞ0쎯ㄊㄚˋ0쎯	-9.96367
ㄇㄡˇ쎯ㄒㄧㄝ0쎯	-9.96372
ㄨㄟˊ6쎯ㄕㄥ1쎯ㄙㄨˋ2쎯	-9.96372
ㄒㄧㄥˊ1쎯ㄓㄨㄤˋ1쎯	-9.96379
쎈쎇	-9.96382
ㄔㄨㄣˊ1쎯	-9.96412
ㄙㄢ0쎯ㄉㄚˋ쎯	-9.96459
ㄙ0쎯ㄈㄚˇ0쎯	-9.96461
ㄈㄢˋ0쎯	-9.96474
ㄓㄢˇ2쎯ㄎㄞ0쎯	-9.96624
ㄈㄨˋ3쎯	-9.96625
ㄈㄨˊ8쎯	-9.96651
ㄧㄥ6쎯	-9.96665
.ㄊㄤˊ0쎯	-9.96673
ㄒㄧㄣ5쎯ㄐㄧㄚ0쎯ㄆㄛ0쎯	-9.96673
ㄉㄨㄛˊ0쎯	-9.96681
쎁쎉쎈쎁ㄋㄧㄢˊ0쎯	-9.96711
ㄑㄧㄥ0쎯ㄕㄠˇ쎯ㄋㄧㄢˊ0쎯	-9.96752
ㄧˋ18쎯ㄐㄧㄢˋ0쎯	-9.96769
쎇쎄	-9.96798
ㄙㄚ0쎯	-9.9681
ㄨˇ0쎯ㄋㄧㄢˊ0쎯	-9.96816
ㄖㄢˇ1쎯	-9.96836
ㄒㄧㄚˋ0쎯ㄕㄜˋ0쎯	-9.9684
ㄍㄨˇ0쎯ㄉㄧㄢˇ0쎯	-9.96865
쎃쎀쎀쎀	-9.96892
쎁쎉쎇쎈ㄋㄧㄢˊ0쎯	-9.96896
ㄧㄥ0쎯ㄩㄥˋ0쎯ㄩˊ0쎯	-9.96967
ㄌㄧㄣˊ1쎯ㄧㄝˋ0쎯	-9.97011
ㄆㄧㄣˊ1쎯ㄉㄠˋ3쎯	-9.97047
ㄏㄨˊ2쎯ㄐㄧㄠ7쎯ㄈㄣˇ쎯	-9.97104
ㄔㄢˊ2쎯	-9.97105
ㄉㄧㄠˋ2쎯ㄨㄟˋ3쎯	-9.97305
ㄓㄞˊ쎯	-9.97358
ㄅㄥˋ0쎯	-9.97368
ㄖㄣˊ0쎯ㄐㄩㄣ1쎯ㄍㄥ2쎯	-9.97372
ㄕㄨˇ3쎯	-9.97376
ㄊㄨㄟ0쎯ㄐㄧㄢˋ3쎯	-9.97399
ㄩㄢˊ4쎯ㄕˇ3쎯	-9.97443
ㄘㄜˋ4쎯	-9.97452
ㄎㄠˇ2쎯	-9.97508
ㄕㄨ0쎯·	-9.97602
쎁쎈쎀	-9.97638
ㄖㄣˋ1쎯ㄕˊ2쎯	-9.97639
ㄓㄨㄢ0쎯ㄓㄨˋ7쎯	-9.97648
.쎂、	-9.97691
ㄓㄥ5쎯ㄓㄨㄤˋ1쎯	-9.97742
ㄈㄢˊ3쎯ㄏㄨㄚˊ1쎯	-9.97757
ㄍㄨㄥ2쎯ㄌㄧˇ2쎯.	-9.97809
ㄉㄨㄛˇ0쎯	-9.97821
ㄑㄧㄥ1쎯ㄙㄨㄥ0쎯	-9.97832
ㄢˋ2쎯ㄌㄧˋ8쎯	-9.97857
ㄐㄧㄥˋ8쎯ㄊㄡˊ0쎯	-9.97861
ㄏㄠˊ0쎯:	-9.97861
ㄐㄧㄠˋ4쎯ㄨㄟˊ0쎯	-9.97865
ㄍㄨㄢ1쎯ㄔㄚˊ3쎯	-9.97906
ㄍㄨㄢ0쎯ㄐㄧㄢˋ13쎯	-9.97917
ㄎㄡˋ1쎯	-9.97955
ㄓㄨˊ1쎯	-9.97978
ㄇㄢˋ2쎯	-9.97989
,ㄨㄛˇ쎯ㄇㄣˊ1쎯	-9.98018
ㄍㄨㄢ1쎯ㄓㄨㄥˋ1쎯	-9.98071
ㄐㄧˋ1쎯ㄧˋ3쎯	-9.98096
ㄘㄨㄣˋ쎯	-9.98106
ㄏㄢˊ2쎯ㄕㄨˇ5쎯	-9.98113
ㄔㄢˇ0쎯ㄌㄧㄤˊ3쎯	-9.98119
ㄌㄧˋ0쎯ㄒㄩㄝˊ1쎯	-9.9818
ㄓㄨˋ9쎯	-9.98184
ㄐㄧㄝ3쎯ㄕㄨˋ1쎯	-9.98198
ㄗㄞˋ1쎯ㄓˊ4쎯	-9.98216
ㄐㄧˊ8쎯ㄊㄨㄢˊ0쎯ㄧㄡˇ1쎯	-9.98272
ㄧㄢˊ6쎯ㄐㄧㄡ1쎯ㄩㄢˊ2쎯	-9.98328
ㄆㄧㄥˊ1쎯ㄍㄨ0쎯	-9.98349
ㄩˋ16쎯	-9.98359
ㄓㄨㄚ0쎯	-9.9836
,ㄧˋ6쎯	-9.98361
ㄖㄣˊ0쎯ㄕˋ8쎯	-9.98389
ㄕㄢ5쎯	-9.9841
ㄉㄨㄢ0쎯ㄎㄡˇ쎯	-9.98419
:쎂	-9.98441
ㄖㄜˋ쎯ㄉㄞˋ1쎯	-9.98466
ㄕㄥ1쎯ㄉㄨㄥˋ0쎯	-9.98479
ㄐㄧㄚ0쎯ㄖㄜˋ쎯	-9.98541
ㄩㄢˊ5쎯ㄒㄧㄥˊ1쎯	-9.9856
ㄓㄨㄢˇ쎯ㄏㄨㄢˋ2쎯	-9.98569
ㄉㄨㄛ0쎯ㄐㄧㄚ3쎯	-9.98586
ㄋㄧㄠˋ0쎯	-9.98624
ㄊㄨˇ1쎯	-9.98628
ㄐㄧㄣˋ2쎯	-9.98634
ㄒㄧㄤ0쎯ㄓㄥˋ3쎯ㄈㄨˇ3쎯	-9.98657
.쎉	-9.98676
ㄌㄢˋ0쎯	-9.98682
ㄅㄤˇ1쎯	-9.98693
ㄔㄥˊ4쎯ㄒㄧㄢˋ0쎯	-9.98741
ㄔㄨ1쎯ㄐㄧˊ2쎯	-9.98811
쎃.쎅	-9.98857
ㄠ	-9.98918
ㄍㄨㄢˋ2쎯	-9.98973
쎅ㄋㄧㄢˊ0쎯	-9.98997
★	-9.99083
ㄧ0쎯ㄉㄧㄢˇ1쎯	-9.99127
ㄌㄧˋ9쎯ㄕㄨˇ1쎯	-9.99173
쎁쎉쎇쎇ㄋㄧㄢˊ0쎯	-9.9919
▁̇ㄉㄜ1쎯ㄐㄧㄥ2쎯ㄧㄥˊ5쎯	-9.99199
ㄍㄞ0쎯ㄘㄨㄣ0쎯	-9.99262
ㄋㄚ0쎯ㄒㄧㄝ0쎯	-9.9928
ㄗˋ0쎯ㄓˋ5쎯ㄒㄧㄢˋ0쎯	-9.993
ㄕㄡˇ2쎯ㄆㄧ0쎯	-9.99308
ㄅㄧㄣ3쎯	-9.99329
ㄐㄧㄤˇ1쎯.	-9.99354
.ㄌㄧˋ1쎯ㄖㄣˊ3쎯	-9.99358
ㄕˋ18쎯、	-9.9947
ㄌㄤˊ1쎯	-9.99483
.ㄐㄩ4쎯	-9.99519
ㄖㄢˊ0쎯ㄏㄡˋ0쎯	-9.99534
▁̇ㄉㄜ1쎯ㄕㄜˋ0쎯ㄐㄧˋ0쎯	-9.99582
ㄑㄧㄥ0쎯ㄔㄨㄣ0쎯	-9.99616
ㄕㄜˋ1쎯ㄊㄨㄢˊ0쎯	-9.99642
ㄉㄨㄛ0쎯ㄒㄧㄤˋ1쎯	-9.99757
ㄍㄨˇ2쎯ㄆㄧㄠˋ0쎯	-9.99761
(ㄒㄩㄝˊ1쎯ㄇㄧㄥˊ0쎯:)	-9.99793
ㄏㄨˋ0쎯	-9.99823
쎈쎄	-9.99824
ㄕˊ0쎯ㄙㄢ0쎯	-9.99876
ㄑㄧˇ3쎯ㄉㄨㄥˋ0쎯	-9.99908
ㄐㄧ11쎯ㄌㄟˊ0쎯	-9.99924
쎂쎀쎁쎀	-9.99929
쎈쎉	-9.99993
ㄨㄟˊ3쎯	-10.0001
ㄎㄞ0쎯ㄕㄜˋ0쎯	-10.0006
쎄ㄋㄧㄢˊ0쎯	-10.0006
ㄧ3쎯ㄕㄥ1쎯	-10.001
ㄌㄨㄢˇ쎯	-10.0019
ㄌㄧˋ1쎯ㄕˇ0쎯ㄕㄤˇ0쎯	-10.0019
ㄎㄨㄣ1쎯ㄔㄨㄥˊ0쎯	-10.0021
ㄐㄩㄣ0쎯ㄉㄨㄟˋ0쎯	-10.0023
ㄧㄡˇ1쎯“	-10.0026
ㄨㄟ0쎯	-10.0028
ㄓㄡ0쎯	-10.0028
ㄆㄧ0쎯	-10.0028
ㄉㄧㄢˋ0쎯ㄌㄧㄡˊ3쎯	-10.0032
ㄧㄚˊ2쎯	-10.0033
ㄅㄧㄥˇ0쎯	-10.0033
ㄇㄛˊ7쎯ㄈㄚˇ0쎯	-10.0036
,ㄒㄧㄢˋ1쎯ㄗㄞˋ1쎯	-10.004
ㄋㄧㄢˊ0쎯ㄌㄧㄥˊ11쎯	-10.0042
ㄦˋ0쎯ㄋㄧㄢˊ0쎯	-10.0044
ㄐㄧㄢˋ9쎯	-10.0048
ㄐㄧㄢˋ12쎯	-10.005
ㄉㄚˋ쎯ㄉㄨㄟˋ0쎯	-10.0058
ㄒㄩㄝˊ0쎯	-10.006
ㄋㄢˊ0쎯ㄗˇ0쎯	-10.0061
ㄏㄨㄢˇ0쎯	-10.0062
ㄒㄩㄢˊ1쎯	-10.0065
ㄧㄠ3쎯	-10.0066
ㄓㄨㄣˇ0쎯ㄑㄩㄝˋ1쎯	-10.0072
ㄍㄠ0쎯ㄉㄨㄢ0쎯	-10.0072
ㄉㄧㄝˊ4쎯	-10.008
ㄘㄞˇ1쎯ㄙㄜˋ0쎯	-10.0086
ㄌㄧㄥˊ0쎯ㄖㄣˊ0쎯	-10.0088
ㄉㄨㄥˋ0쎯ㄇㄢˋ1쎯	-10.0093
ㄓㄨㄢˋ1쎯	-10.0093
ㄙㄨˋ8쎯	-10.0094
쎁쎉쎇쎉ㄋㄧㄢˊ0쎯	-10.0094
ㄐㄧㄣ5쎯	-10.0097
ㄗㄨㄛ0쎯ㄨˋ3쎯	-10.01
ㄔㄢˇ0쎯ㄑㄩㄢˊ0쎯	-10.0101
ㄕˋ16쎯ㄧˊ3쎯	-10.0106
』『	-10.0107
ㄓㄠˋ2쎯ㄆㄧㄢ0쎯	-10.0108
ㄓㄨˇ0쎯ㄊㄧ0쎯	-10.0109
ㄧㄡˇ1쎯ㄋㄨㄥˊ0쎯ㄏㄨˋ1쎯	-10.0113
ㄉㄚˋ쎯ㄐㄧㄝ7쎯	-10.0125
ㄒㄧㄠ0쎯	-10.0125
쎆쎁	-10.0141
ㄑㄧˊ7쎯	-10.0142
쎁쎉쎆쎄ㄋㄧㄢˊ0쎯	-10.0142
ㄔㄣˋ1쎯“	-10.0145
ㄉㄠˋ1쎯	-10.0147
ㄇㄧㄥˊ0쎯ㄨㄟˊ0쎯	-10.0149
.ㄙㄨㄥˋ1쎯	-10.0152
ㄅㄧˋ2쎯	-10.0157
ㄊㄧㄥˊ0쎯	-10.0161
ㄓ2쎯ㄕˋ15쎯	-10.0162
ㄢ0쎯ㄒㄧㄢˋ0쎯	-10.0164
ㄒㄧㄤˊ2쎯	-10.017
ㄋㄚˋ3쎯	-10.0181
ㄖㄨˊ1쎯	-10.0182
ㄒㄧˊ0쎯ㄍㄨㄢˋ1쎯	-10.0184
ㄨㄟˇ1쎯	-10.0194
ㄍㄜˇ1쎯ㄐㄧㄣ3쎯	-10.0195
▁̇ㄉㄜ1쎯ㄧㄥ0쎯ㄩㄥˋ0쎯	-10.0208
ㄓ0쎯ㄏㄡˋ0쎯,	-10.021
ㄓㄨㄢˋ1쎯ㄒㄧㄝˇ0쎯	-10.0211
ㄊㄡˋ쎯ㄇㄧㄥˊ1쎯	-10.0213
ㄧ0쎯ㄕㄥ1쎯	-10.0221
ㄐㄩ1쎯ㄨㄟˇ5쎯ㄏㄨㄟˋ2쎯	-10.0222
▁̇ㄉㄜ1쎯ㄐㄧ12쎯ㄔㄨˇ1쎯	-10.0223
ㄇㄧㄥˊ1쎯ㄒㄧㄥ1쎯	-10.0225
ㄉㄧˋ1쎯ㄍㄨㄛˊ0쎯	-10.0234
ㄨㄟ0쎯ㄒㄧㄢˇ1쎯	-10.0235
ㄍㄞˋ2쎯	-10.0238
ㄐㄧㄠ6쎯ㄧㄢˊ6쎯ㄕˋ18쎯	-10.0239
쎁쎆쎀	-10.024
ㄓㄨˇ0쎯ㄖㄣˊ3쎯、	-10.0245
쎁쎀-	-10.0245
ㄧㄝˋ3쎯ㄊㄧ0쎯	-10.0247
ㄈㄤˊ3쎯ㄨ5쎯	-10.0252
ㄋㄧㄡˇ1쎯ㄧㄠ2쎯	-10.0257
ㄗㄟˊ0쎯	-10.0258
ㄏㄨㄢ0쎯	-10.0262
ㄕㄠˊ0쎯	-10.0266
ㄐㄧˋ11쎯ㄔㄥˊ3쎯	-10.0268
ㄐㄧㄢ7쎯ㄘㄜˋ3쎯	-10.0269
ㄕˋ15쎯ㄧ0쎯ㄉㄠˋ3쎯	-10.027
ㄧ0쎯ㄅㄨˋ4쎯ㄈㄣ0쎯	-10.0273
ㄔㄣˊ2쎯	-10.0274
ㄍㄨㄥ2쎯ㄩㄢˊ0쎯	-10.0277
ㄊㄨㄢˊ0쎯ㄐㄧㄝ3쎯	-10.0278
ㄐㄧㄠˇ6쎯ㄅㄢˋ4쎯	-10.0281
ㄏㄨˋ0쎯ㄉㄨㄥˋ0쎯	-10.0281
ㄍㄨㄟˋ0쎯	-10.0292
ㄧㄡˇ1쎯《	-10.0293
ㄘㄨㄣ0쎯ㄌㄧˋ9쎯ㄕㄨˇ1쎯	-10.0294
ㄌㄧˋ12쎯	-10.0294
ㄨㄟˇ5쎯ㄕㄨ0쎯ㄐㄧˋ1쎯	-10.0301
쎁쎉쎇쎀ㄋㄧㄢˊ0쎯	-10.0306
ㄈㄣ1쎯	-10.0308
ㄋㄧㄤˊ쎯	-10.0312
ㄨㄟˋ0쎯ㄒㄧㄥ1쎯	-10.0315
ㄑㄧˋ0쎯ㄊㄧ0쎯	-10.0318
ㄆㄧㄠˊ0쎯	-10.0319
ㄋㄥˊ쎯ㄌㄧㄤˊ3쎯	-10.0322
ㄙˋ1쎯ㄋㄧㄢˊ0쎯	-10.0323
ㄧㄣˇ1쎯ㄕˊ4쎯	-10.0327
ㄓㄠˇ1쎯ㄉㄠˋ0쎯	-10.0344
▁̇ㄉㄜ1쎯ㄈㄤ0쎯ㄕˋ5쎯	-10.0349
쎁쎉쎆쎃ㄋㄧㄢˊ0쎯	-10.035
ㄒㄧㄢˇ0쎯ㄘㄨㄣˊ쎯	-10.0351
ㄊㄨˋ0쎯	-10.0351
ㄑㄩㄢˊ0쎯ㄨㄟ1쎯	-10.0352
ㄔㄤˊ0쎯ㄉㄨˋ2쎯	-10.0353
ㄈㄢˋ3쎯ㄉㄚˋ쎯ㄒㄩㄝˊ1쎯	-10.0357
ㄗㄞ0쎯	-10.0358
ㄙㄨㄟ0쎯ㄖㄢˊ0쎯	-10.0358
ㄇㄧㄢˋ0쎯ㄐㄧ11쎯쎅	-10.0362
ㄌㄧㄡˋ1쎯ㄐㄩㄣ0쎯	-10.0364
ㄗㄠˇ4쎯	-10.0365
ㄧㄠˋ0쎯ㄆㄧㄣˇ쎯	-10.0367
ㄎㄜ4쎯ㄌㄧˋ15쎯	-10.0371
ㄉㄡˇ0쎯ㄓㄥ1쎯	-10.0372
,ㄧㄡˊ1쎯ㄩˊ0쎯	-10.0372
ㄗㄞˋ1쎯ㄅㄟˇ쎯ㄐㄧㄥ1쎯	-10.0372
쎁쎉쎇쎆ㄋㄧㄢˊ0쎯	-10.0374
(쎂)	-10.0374
ㄒㄧ2쎯ㄧㄣˇ0쎯	-10.0379
ㄘㄨㄟˋ0쎯	-10.0384
ㄌㄧㄠˋ0쎯ㄐㄧㄡˇ5쎯	-10.039
ㄓㄨˇ0쎯ㄧㄠ4쎯ㄕˋ15쎯	-10.039
.ㄘㄥˊ1쎯	-10.0393
ㄒㄧㄥˇ0쎯	-10.0394
ㄔㄣˋ1쎯ㄏㄠˊ0쎯.	-10.0395
ㄕㄨ0쎯ㄐㄧˊ12쎯	-10.0404
ㄨㄣˇ2쎯	-10.041
ㄓㄥˋ0쎯ㄕㄨ0쎯	-10.0412
ㄎㄨ0쎯	-10.0413
ㄅㄧˇ1쎯ㄩˋ10쎯	-10.0415
ㄒㄩㄝˊ1쎯ㄕㄨㄛˋ1쎯ㄕˋ0쎯	-10.0417
ㄙ3쎯ㄨㄟˊ6쎯	-10.0419
ㄉㄧˊ1쎯ㄖㄣˊ0쎯	-10.0424
ㄇㄧㄥˊ4쎯	-10.0425
ㄨㄤˋ1쎯	-10.0433
ㄉㄧㄠˋ0쎯	-10.0435
ㄍㄠ0쎯ㄉㄤˋ1쎯	-10.0438
ㄏㄜˊ2쎯ㄆㄧㄥˊ0쎯	-10.0439
ㄍㄥ0쎯ㄏㄠˇ0쎯	-10.0444
ㄓㄨㄥ0쎯ㄨㄞˋ쎯	-10.0445
ㄍㄨㄥ0쎯ㄏㄨㄟˋ2쎯	-10.0447
ㄙㄡ0쎯ㄙㄨㄛˇ1쎯	-10.0447
ㄐㄧˊ0쎯ㄕˊ1쎯	-10.0449
ㄏㄨˋ2쎯ㄌㄧˇ3쎯	-10.0449
쎁쎉쎅쎆ㄋㄧㄢˊ0쎯	-10.0458
ㄈㄟ2쎯ㄓㄡ3쎯	-10.046
ㄉㄧㄥˋ0쎯	-10.0468
,ㄍㄨㄥˋ0쎯	-10.0468
ㄏㄠˋ0쎯	-10.0477
ㄐㄧㄡˋ4쎯ㄏㄨㄟˋ2쎯	-10.0486
ㄓㄤˋ6쎯ㄞˋ3쎯	-10.0487
ㄕ3쎯ㄘˊ0쎯	-10.0491
ㄨㄣ0쎯ㄑㄩㄢˊ2쎯	-10.0491
ㄋㄧㄢˊ0쎯ㄉㄨˋ2쎯	-10.0492
쎉쎂	-10.0492
ㄜˋ2쎯	-10.0497
ㄐㄩㄝˊ0쎯ㄘㄜˋ4쎯	-10.0499
ㄅㄨˋ4쎯、	-10.0499
ㄧㄢˊ3쎯ㄉㄢˋ0쎯	-10.0508
ㄇㄣˊ0쎯ㄏㄨˋ1쎯	-10.0508
ㄕㄣˋ1쎯ㄓˋ0쎯	-10.051
.”《	-10.051
ㄅㄧㄝˊ0쎯ㄕㄨˋ7쎯	-10.0517
ㄔㄨㄤ0쎯ㄅㄢˋ0쎯ㄩˊ0쎯	-10.052
ㄞˋ1쎯ㄏㄠˇ0쎯ㄓㄜˇ0쎯	-10.0524
ㄧ0쎯ㄊㄠˋ쎯	-10.0524
ㄅㄞˇ0쎯ㄋㄧㄢˊ0쎯	-10.0526
ㄨㄤˇ0쎯ㄎㄚˇ0쎯	-10.0528
ㄒㄧㄚˊ1쎯	-10.0529
”ㄉㄥˇ0쎯	-10.0535
ㄉㄢˋ6쎯ㄅㄞˊ0쎯ㄓˋ4쎯	-10.0536
ㄅㄧˋ0쎯	-10.0539
ㄐㄧ6쎯ㄉㄧㄢˋ0쎯	-10.0544
ㄒㄩㄢ0쎯	-10.0544
ㄇㄥˇ0쎯	-10.0548
▁̇ㄉㄜ0쎯ㄊㄧㄝˇ쎯	-10.0549
,ㄐㄩˋ5쎯ㄌㄧˊ3쎯	-10.0555
ㄇㄧㄢˋ0쎯ㄐㄧ11쎯쎁	-10.0558
ㄍㄤ0쎯	-10.0562
ㄗㄨㄟˋ0쎯ㄨㄟˊ0쎯	-10.0563
ㄔㄠ4쎯ㄐㄧˊ2쎯	-10.0566
ㄐㄧㄝ1쎯	-10.0571
ㄨㄟˊ5쎯	-10.0571
ㄌㄠˇ0쎯ㄋㄧㄢˊ0쎯	-10.0576
ㄧˇ2쎯ㄨㄟˊ0쎯	-10.0577
ㄍㄨㄥˋ0쎯ㄒㄧㄤˇ0쎯	-10.0578
ㄑㄩˊ0쎯	-10.0578
ㄘㄜˋ4쎯ㄌㄩㄝˋ1쎯	-10.0587
ㄒㄧㄤ1쎯ㄕˋ6쎯	-10.0589
쎀×	-10.0589
ㄒㄧㄡ1쎯ㄍㄞˇ쎯	-10.059
ㄐㄧㄢˋ6쎯ㄕㄣ2쎯	-10.0593
ㄘˊ8쎯	-10.0596
ㄧˇ2쎯ㄑㄧㄢˊ0쎯	-10.0596
ㄐㄧ18쎯	-10.0599
쎁쎉쎆쎅ㄋㄧㄢˊ0쎯	-10.0601
ㄌㄧˊ3쎯ㄗˇ0쎯	-10.0611
ㄧㄥˊ2쎯	-10.0611
ㄐㄧㄚˋ1쎯	-10.0611
.ㄊㄚ2쎯	-10.0613
ㄐㄧ12쎯ㄅㄨˋ4쎯	-10.0615
ㄌㄟˋ2쎯ㄕˋ6쎯	-10.0616
쎈쎃	-10.0617
ㄕˊ0쎯ㄌㄧㄡˋ0쎯	-10.0618
ㄉㄞˋ1쎯ㄌㄧㄥˇ1쎯	-10.0619
ㄐㄧㄢˋ13쎯ㄆㄢˊ1쎯	-10.0622
ㄔㄨㄟ0쎯	-10.0624
ㄐㄧㄥ3쎯	-10.0631
ㄒㄧㄢˋ3쎯ㄌㄨˋ5쎯	-10.0639
ㄉㄚˋ쎯ㄓㄨㄥˋ1쎯	-10.0642
ㄏㄡˋ0쎯ㄌㄞˊ0쎯	-10.0643
ㄘㄨㄣ0쎯、	-10.0651
ㄅㄧㄢ0쎯,ㄐㄩˋ5쎯ㄌㄧˊ3쎯	-10.0654
ㄅㄨˋ1쎯ㄐㄩˊ0쎯	-10.0655
ㄓㄥ0쎯ㄑㄩㄝˋ1쎯	-10.0657
ㄗㄨㄛ0쎯ㄔㄨ0쎯	-10.066
ㄉㄠˋ3쎯ㄉㄜˊ1쎯	-10.0663
ㄩㄢˊ4쎯ㄌㄞˊ0쎯	-10.0672
ㄔㄨㄢˊ0쎯》	-10.068
ㄐㄩㄣ1쎯ㄑㄧˋ0쎯ㄨㄣ0쎯쎁	-10.0685
ㄑㄧ1쎯	-10.0688
ㄔㄤˇ0쎯ㄐㄧㄚ3쎯	-10.0692
ㄇㄧㄢˋ0쎯ㄉㄨㄟˋ1쎯	-10.0694
ㄇㄢˋ2쎯ㄒㄧㄥˋ2쎯	-10.07
ㄕˋ8쎯ㄍㄨˋ1쎯	-10.0702
ㄕˋ15쎯“	-10.0704
쎂쎂쎀	-10.0704
ㄧ0쎯ㄒㄧㄤˋ1쎯	-10.0707
ㄗㄨㄥˇ0쎯ㄊㄨㄥˇ0쎯	-10.0713
ㄑㄧㄥˊ0쎯ㄍㄢˇ3쎯	-10.0714
ㄕㄨ9쎯	-10.0717
ㄥ	-10.0717
ㄅㄞˊ0쎯ㄊㄤˊ5쎯	-10.0723
ㄕㄣ0쎯ㄑㄧㄥˇ1쎯	-10.0727
ㄌㄥ쎯	-10.0728
ㄕˋ23쎯	-10.0728
ㄘ0쎯ㄐㄧ18쎯	-10.0728
ㄆㄞˊ0쎯ㄌㄧㄝˋ0쎯	-10.0729
ㄉㄨㄥˋ1쎯	-10.073
ㄓㄨㄥ0쎯ㄧ3쎯ㄧㄠˋ0쎯	-10.0732
ㄧㄡ3쎯ㄐㄧㄡˇ1쎯	-10.0734
ㄍㄡˋ0쎯	-10.0734
ㄈㄤˇ1쎯ㄨㄣˋ0쎯	-10.0737
ㄓㄢˇ2쎯ㄒㄧㄢˋ1쎯	-10.074
ㄙˋ1쎯ㄉㄚˋ쎯	-10.0741
ㄓㄨˋ3쎯:“	-10.0745
ㄨㄟˊ0쎯ㄓㄨㄥ0쎯ㄍㄨㄛˊ0쎯	-10.0747
ㄉㄧˋ3쎯ㄧ0쎯ㄘˋ0쎯	-10.0747
ㄍㄨㄛˇ0쎯ㄕˊ3쎯	-10.0747
ㄅㄨˋ0쎯ㄉㄜˊ0쎯	-10.075
ㄑㄩˋ1쎯	-10.0753
ㄐㄧㄤˇ0쎯ㄕ2쎯	-10.076
ㄍㄨㄥ0쎯ㄗㄨㄛ0쎯;	-10.0761
ㄇㄧㄣˊ0쎯ㄧㄥˊ5쎯	-10.0761
ㄏㄨㄤˊ1쎯ㄏㄜˊ3쎯	-10.0763
ㄕㄥˋ1쎯ㄌㄧˋ6쎯	-10.0763
쎁.쎂	-10.0763
ㄈㄨˇ0쎯	-10.0767
쎂ㄋㄧㄢˊ0쎯	-10.0767
ㄘㄥˊ1쎯ㄗㄞˋ1쎯	-10.0767
ㄌㄧㄣˊ0쎯	-10.0768
쎅쎀쎀쎀	-10.077
ㄌㄢˊ2쎯	-10.0774
ㄕㄠˇ쎯ㄋㄩˇ0쎯	-10.0775
쎉쎃	-10.0777
ㄍㄨㄢˋ3쎯	-10.0781
ㄎㄨㄞˋ1쎯ㄐㄧㄝˊ4쎯	-10.0784
ㄔㄨ0쎯ㄊㄨˇ0쎯	-10.0788
ㄔㄨㄢˋ0쎯	-10.0789
ㄊㄜˋ0쎯ㄉㄧㄥˋ1쎯	-10.079
ㄨㄟˊ0쎯ㄓㄨˇ0쎯ㄧㄠ4쎯	-10.0791
ㄐㄧ18쎯ㄍㄨㄤ0쎯	-10.0791
ㄎㄠˇ0쎯ㄖㄨˋ0쎯	-10.0797
ㄈㄚˇ0쎯ㄒㄩㄝˊ1쎯	-10.0801
ㄖㄣˊ0쎯ㄕㄨˇ5쎯	-10.0808
ㄒㄧㄤˋ4쎯ㄐㄧㄠ5쎯	-10.0809
ㄧㄢˋ2쎯	-10.081
ㄈㄤˇ0쎯	-10.0815
ㄗㄤˋ0쎯	-10.0817
ㄐㄧㄝˋ0쎯	-10.0821
ㄘㄨㄟ0쎯	-10.0822
쎁쎉쎇쎅ㄋㄧㄢˊ0쎯	-10.083
ㄒㄧㄚˊ5쎯ㄡ0쎯	-10.083
ㄒㄩㄥˊ0쎯ㄏㄡˋ1쎯	-10.0831
쎁쎉쎅쎁ㄋㄧㄢˊ0쎯	-10.0832
ㄇㄨˇ0쎯ㄑㄧㄣ2쎯	-10.0839
ㄓㄣˋ3쎯ㄓㄥˋ3쎯ㄈㄨˇ3쎯	-10.0847
―	-10.0847
ㄋㄨˋ0쎯	-10.0848
ㄅㄟˋ2쎯ㄩㄥˋ0쎯	-10.0853
ㄈㄟ0쎯ㄏㄤˊ0쎯	-10.0854
ㄒㄧㄡˋ0쎯ㄌㄧˊ0쎯	-10.0858
ㄧㄢˋ5쎯	-10.086
ㄅㄟˋ5쎯ㄔㄣˋ1쎯ㄨㄟˊ0쎯	-10.0864
ㄈㄨˊ5쎯ㄨˋ2쎯ㄑㄧˋ7쎯	-10.0865
ㄕㄡ쎯ㄐㄧˊ8쎯	-10.0867
ㄓㄜˋ1쎯	-10.0867
ㄩˋ13쎯	-10.0868
ㄏㄜˊ4쎯	-10.087
.ㄑㄧˊ1쎯ㄓㄨㄥ0쎯	-10.0881
ㄈㄥ1쎯ㄐㄧㄥˇ1쎯ㄡ0쎯	-10.0882
ㄧˋ10쎯	-10.0884
ㄈㄣ0쎯ㄅㄨˋ1쎯ㄗㄞˋ1쎯	-10.0886
ㄔㄨㄤ0쎯ㄕˇ3쎯ㄖㄣˊ0쎯	-10.0888
ㄓㄤ0쎯)	-10.0888
ㄏㄜˋ3쎯ㄙㄜˋ0쎯	-10.089
ㄈㄣ0쎯ㄓ6쎯	-10.0891
ㄕㄥˊ쎯	-10.0893
ㄆㄨˊ2쎯	-10.0898
ㄌㄚˋ3쎯ㄐㄧㄠ7쎯	-10.09
(쎁)	-10.0912
쎇쎀쎀	-10.0914
ㄐㄧˊ6쎯	-10.0914
ㄍㄥ0쎯ㄒㄧㄣ5쎯	-10.0915
ㄅㄧㄠ0쎯ㄓˋ1쎯	-10.092
ㄌㄩˋ4쎯	-10.0922
ㄍㄨㄥ2쎯ㄓㄨˇ0쎯	-10.0924
ㄌㄨˋ0쎯ㄧㄣ4쎯	-10.0924
ㄐㄧˋ5쎯	-10.0936
ㄈㄚ쎯ㄑㄧˇ4쎯	-10.0937
ㄊㄞˋ0쎯ㄆㄧㄥˊ0쎯	-10.0937
-쎅	-10.0943
ㄨㄟˊ2쎯ㄖㄠˋ쎯	-10.0948
ㄔㄥˊ0쎯ㄉㄡ0쎯ㄕˋ4쎯	-10.0954
ㄌㄧㄝˋ3쎯	-10.0955
ㄏㄨㄟˋ2쎯ㄩㄢˊ2쎯、	-10.0957
ㄙㄢ0쎯ㄕˊ0쎯	-10.0961
ㄍㄡ3쎯	-10.0965
ㄍㄨㄤ0쎯ㄒㄩㄝˊ1쎯	-10.0967
쎁쎉쎆쎂ㄋㄧㄢˊ0쎯	-10.0973
ㄅㄧㄢˋ3쎯	-10.0974
쎁쎉쎆쎈ㄋㄧㄢˊ0쎯	-10.0976
ㄅㄣˇ0쎯ㄕㄨˇ5쎯ㄐㄩ4쎯	-10.098
쎈ㄩㄝˋ0쎯ㄘㄢ0쎯ㄐㄧㄚ0쎯	-10.0982
ㄐㄧㄝˊ4쎯	-10.0988
쎁쎉쎇쎁ㄋㄧㄢˊ0쎯	-10.099
ㄒㄧ11쎯	-10.099
▁̇ㄉㄜ1쎯ㄍㄨㄥ0쎯ㄗㄨㄛ0쎯	-10.0993
▁̇ㄉㄜ0쎯ㄊㄨˊ0쎯ㄕㄨˇ5쎯	-10.0998
ㄚ0쎯ㄦˇ0쎯	-10.1004
ㄓㄨㄥ0쎯ㄧㄠˋ0쎯	-10.1005
ㄧˇ2쎯ㄅㄞˇ0쎯ㄉㄨˋ2쎯	-10.1006
ㄍㄨㄥ2쎯ㄕㄜˋ1쎯	-10.1007
쎂쎅쎀	-10.101
ㄗㄨㄥˇ0쎯ㄐㄧㄝ3쎯	-10.1014
ㄋㄧㄥˊ0쎯ㄅㄛ1쎯	-10.1016
ㄧ3쎯ㄒㄩㄝˊ1쎯ㄏㄨㄟˋ2쎯	-10.1016
ㄈㄣ0쎯ㄍㄨㄥ2쎯ㄙ0쎯	-10.1018
ㄌㄩˋ0쎯ㄕ2쎯	-10.102
ㄒㄧㄣˋ0쎯ㄩㄥˋ0쎯	-10.1024
ㄐㄧㄥ8쎯ㄒㄧㄣ0쎯	-10.1026
ㄐㄧ6쎯ㄍㄡˋ0쎯.	-10.1028
ㄐㄩ4쎯ㄨㄟˊ0쎯ㄓㄨㄣˇ0쎯.	-10.1028
ㄈㄨˋ8쎯ㄓㄨˇ0쎯ㄖㄣˊ3쎯、	-10.1028
ㄙㄨㄣˇ0쎯	-10.1029
ㄆㄧㄥˊ1쎯ㄌㄨㄣˊ2쎯	-10.1033
.",(){(	-10.1034
.("/////	-10.1034
ㄈㄨˋ11쎯ㄧㄡˇ1쎯	-10.1037
ㄒㄧㄥˋ2쎯ㄏㄜˊ2쎯	-10.1038
쎁쎀쎀쎀쎀쎈쎀쎁);});	-10.1039
ㄏㄨ1쎯ㄒㄧ2쎯	-10.1042
ㄖㄨˊ0쎯ㄘˇ0쎯	-10.1042
ㄕˊ2쎯ㄅㄧㄝˊ0쎯	-10.1048
.”ㄑㄧㄥ5쎯	-10.1049
ㄨㄟˊ0쎯ㄓㄨˇ0쎯.	-10.1054
ㄓㄨㄥ2쎯ㄐㄧㄝ3쎯ㄍㄨㄛˇ0쎯	-10.1064
ㄅㄠˋ0쎯》	-10.1069
쎈-	-10.1069
ㄓㄨㄤˋ1쎯ㄎㄨㄤˋ1쎯	-10.107
ㄕㄨㄟˇ쎯ㄉㄠˋ4쎯	-10.107
ㄎㄨㄛˋ2쎯	-10.107
ㄓ0쎯ㄑㄧㄢˊ0쎯	-10.1072
,ㄒㄧㄢ1쎯ㄏㄡˋ0쎯	-10.1077
ㄔㄢˇ2쎯ㄕㄨˋ2쎯	-10.108
ㄧ0쎯ㄔㄤˊ1쎯	-10.1083
ㄒㄧㄤ1쎯ㄌㄧㄣˊ0쎯	-10.1088
ㄅㄧㄢˋ2쎯	-10.1091
ㄅㄨˋ4쎯ㄨㄟˋ2쎯	-10.1093
ㄉㄚˋ쎯ㄑㄧㄠˊ2쎯	-10.1096
ㄏㄨㄞˋ쎯	-10.1099
ㄜˊ1쎯	-10.1099
쎁쎉쎅쎂ㄋㄧㄢˊ0쎯	-10.11
ㄎㄜˇ0쎯ㄉㄚˊ1쎯	-10.1106
ㄇㄛˊ3쎯ㄐㄩˋ2쎯	-10.1108
ㄆㄢˋ0쎯	-10.1111
ㄈㄨˊ2쎯	-10.112
ㄌㄢˊ4쎯ㄙㄜˋ0쎯	-10.1121
ㄓㄨㄥ0쎯ㄨㄣˊ0쎯ㄐㄧˋ3쎯	-10.1121
ㄔㄨㄥˊ2쎯ㄕˋ12쎯	-10.1121
ㄕㄜˋ6쎯ㄒㄧㄤˋ3쎯ㄊㄡˊ0쎯	-10.1121
ㄇㄠˊ2쎯	-10.1125
ㄏㄨㄛˊ0쎯ㄒㄧㄥˋ2쎯	-10.113
ㄕㄥ1쎯ㄩˋ3쎯	-10.1134
ㄅㄧㄥ1쎯ㄅㄨˋ0쎯	-10.1135
ㄕㄨㄛˋ1쎯	-10.1136
ㄈㄥ0쎯ㄈㄨˋ11쎯,	-10.1136
.ㄨㄟˋ2쎯ㄩˊ0쎯	-10.1138
ㄉㄞˋ1쎯ㄧㄡˇ1쎯	-10.1139
ㄈㄚ쎯ㄉㄚˊ1쎯	-10.1143
,ㄒㄧㄢˋ1쎯ㄧㄡˇ1쎯	-10.1143
ㄍㄜˇ0쎯ㄊㄧ0쎯	-10.1145
▁̇ㄉㄜ1쎯ㄧ0쎯ㄅㄨˋ4쎯	-10.1146
▁̇ㄉㄜ0쎯ㄊㄨˊ0쎯	-10.1147
ㄨㄟˇ5쎯ㄉㄤˇ1쎯ㄐㄧㄠˋ2쎯	-10.1151
ㄧㄡˊ2쎯	-10.1151
ㄔㄨㄟˊ0쎯ㄓˊ1쎯	-10.1152
ㄊㄨˊ0쎯ㄢˋ2쎯	-10.1152
ㄘˊ2쎯	-10.1154
ㄒㄩㄝˊ1쎯、	-10.1156
ㄑㄧㄥ5쎯ㄒㄧ10쎯	-10.1157
ㄕㄜˋ0쎯ㄐㄧˋ0쎯ㄕ2쎯	-10.1161
ㄕˊ4쎯ㄨˋ3쎯	-10.1161
ㄒㄧㄥˊ2쎯ㄏㄠˊ0쎯	-10.1165
ㄊㄧ2쎯	-10.1168
ㄐㄩˊ1쎯	-10.1171
(-)	-10.1173
ㄌㄧˋ4쎯	-10.1182
ㄌㄧㄡˊ8쎯	-10.1186
ㄍㄨˋ2쎯ㄎㄜˋ2쎯	-10.1186
ㄆㄧㄣˊ0쎯	-10.1187
ㄏㄢˊ3쎯ㄍㄞˋ3쎯	-10.1188
ㄐㄧㄢ7쎯ㄔㄚˊ3쎯	-10.1192
ㄨㄟˋ7쎯	-10.1198
ㄐㄧㄝ4쎯ㄎㄡˇ쎯:	-10.1199
ㄈㄚ쎯ㄩˋ3쎯	-10.12
ㄋㄧㄥˊ4쎯	-10.12
ㄏㄞˇ0쎯ㄨㄞˋ쎯	-10.12
ㄌㄧㄡˊ3쎯ㄌㄧㄤˊ3쎯	-10.1203
ㄐㄧㄢ7쎯ㄎㄨㄥˋ0쎯	-10.1209
)ㄖㄣˊ0쎯.	-10.1211
ㄧㄥˊ5쎯ㄧㄝˋ0쎯	-10.1213
ㄊㄨㄥ0쎯ㄉㄠˋ3쎯	-10.1215
ㄒㄩㄣˊ1쎯ㄓㄠˇ1쎯	-10.1215
ㄇㄧㄢˇ0쎯ㄧˋ14쎯	-10.1216
ㄓㄥˇ1쎯ㄌㄧˇ3쎯	-10.1219
ㄒㄩㄣˊ2쎯	-10.1219
ㄩㄝˋ6쎯	-10.122
▁̇ㄉㄜ1쎯ㄊㄨㄥˊ0쎯ㄕˊ1쎯	-10.1221
ㄉㄨㄟˋ0쎯ㄔㄤˊ0쎯	-10.1228
ㄒㄧㄥ0쎯ㄐㄧㄢˋ2쎯	-10.1228
쎇ㄩㄝˋ0쎯ㄘㄢ0쎯ㄐㄧㄚ0쎯	-10.1228
ㄅㄢˋ4쎯	-10.1231
ㄩㄝˋ3쎯	-10.1237
ㄗㄨㄟˋ2쎯	-10.1242
ㄒㄧㄣ1쎯	-10.1242
ㄒㄩㄥ1쎯	-10.1244
ㄑㄧˋ2쎯	-10.1248
ㄐㄧˊ9쎯	-10.1248
ㄒㄧㄢˋ9쎯	-10.1253
ㄧㄝˇ1쎯ㄐㄧㄣ3쎯	-10.1253
ㄎㄨㄥˋ0쎯ㄍㄨˇ2쎯	-10.1254
ㄔㄣˋ1쎯ㄨㄟˊ0쎯“	-10.126
ㄕˋ15쎯ㄇㄟˇ1쎯ㄍㄨㄛˊ0쎯	-10.1262
ㄑㄧㄥ2쎯	-10.1268
ㄌㄢˊ0쎯ㄓㄡ1쎯	-10.1269
ㄓㄨˊ1쎯ㄅㄨˋ2쎯	-10.1271
/쎂	-10.1273
ㄊㄨˊ0쎯,ㄗㄨㄟˋ0쎯	-10.1274
ㄍㄠ2쎯	-10.1278
ㄖㄠˋ쎯	-10.1282
ㄊㄤˊ0쎯ㄉㄞˋ0쎯	-10.1283
ㄌㄞˋ1쎯	-10.1286
ㄩㄢˊ4쎯ㄔㄨㄤ0쎯	-10.1288
ㄉㄧˋ3쎯ㄧ0쎯ㄔㄢˇ0쎯	-10.1293
(.)	-10.1294
.ㄉㄤ0쎯	-10.1301
ㄔㄥˊ0쎯ㄖㄣˊ0쎯	-10.1302
쎉.	-10.1308
ㄓㄠˇ1쎯	-10.1313
ㄕㄚ3쎯	-10.1316
ㄇㄥˋ1쎯ㄒㄧㄤˇ2쎯	-10.1321
ㄕㄤˇ0쎯ㄧㄡˇ1쎯	-10.1323
ㄐㄧㄥˇ1쎯ㄉㄧㄢˇ1쎯	-10.1323
〔	-10.1328
ㄨㄣˊ0쎯ㄨˋ3쎯ㄅㄠˇ2쎯	-10.1331
ㄈㄨˊ12쎯ㄓㄡ1쎯	-10.1332
ㄇㄢˋ1쎯	-10.1337
ㄊㄨˊ0쎯ㄒㄧㄥˊ1쎯	-10.1339
ㄅㄨˋ0쎯ㄧㄠ4쎯	-10.134
ㄓㄢˋ1쎯ㄧˋ10쎯	-10.134
ㄗㄞˋ1쎯ㄇㄟˇ1쎯ㄍㄨㄛˊ0쎯	-10.1341
ㄕˋ8쎯ㄨˋ3쎯	-10.1342
쎁.쎀	-10.1342
ㄍㄨㄟ2쎯ㄗㄜˊ0쎯	-10.1344
ㄅㄢˋ3쎯	-10.1347
ㄊㄨㄥ0쎯ㄩㄥˋ0쎯	-10.135
ㄉㄞˋ0쎯ㄅㄧㄠˇ0쎯ㄗㄨㄛ0쎯	-10.1351
ㄇㄧㄢˋ0쎯ㄐㄧ11쎯ㄨㄟˊ0쎯	-10.1351
ㄑㄩㄣˊ1쎯ㄊㄧ0쎯	-10.1355
ㄐㄧㄣ2쎯ㄊㄧㄢ0쎯	-10.1356
(쎁쎉쎁	-10.1358
ㄔㄨㄥˊ2쎯ㄌㄧㄤˊ3쎯:	-10.1359
ㄗㄨˇ1쎯ㄔㄥˊ0쎯.	-10.1361
ㄏㄨㄟˋ2쎯ㄩㄢˊ2쎯.	-10.1362
ㄕㄤ1쎯ㄇㄠˋ2쎯	-10.1362
ㄨㄟˋ3쎯ㄐㄧㄥ8쎯	-10.1363
ㄓㄨˇ0쎯ㄖㄣˊ3쎯.	-10.1364
ㄕㄥ1쎯ㄔㄥˊ0쎯	-10.1368
ㄅㄚˋ4쎯	-10.1376
쎇ㄍㄜˇ0쎯	-10.1377
ㄉㄨㄣ0쎯	-10.138
ㄅㄠˋ0쎯ㄎㄢ0쎯	-10.1381
ㄌㄧˇ2쎯.	-10.1383
,“	-10.1385
쎅)	-10.1386
ㄌㄡˋ1쎯	-10.1386
ㄘㄥˊ0쎯ㄘˋ0쎯	-10.139
ㄖㄣˊ3쎯ㄐㄧㄠ6쎯	-10.1391
ㄏㄨㄚˊ1쎯ㄖㄣˊ0쎯	-10.1393
쎀°C	-10.1398
ㄧˇ1쎯ㄔㄥˊ0쎯ㄨㄟˊ0쎯	-10.1398
ㄉㄨㄥ0쎯ㄐㄧㄥ1쎯	-10.1398
ㄔㄚ0쎯	-10.1404
ㄐㄧㄠ6쎯ㄓˊ4쎯ㄍㄨㄥ0쎯	-10.1414
ㄎㄣˇ0쎯	-10.1417
ㄩˊ1쎯	-10.1424
쎂)	-10.1425
ㄘㄞˇ0쎯ㄑㄩˇ0쎯	-10.1426
ㄅㄣˇ0쎯ㄆㄧㄣˇ쎯	-10.1435
ㄕㄥ0쎯ㄐㄧˊ2쎯	-10.1435
,ㄔㄤˊ4쎯	-10.1436
ㄧㄠˊ6쎯	-10.1438
ㄏㄨㄢˋ0쎯	-10.1441
ㄈㄨˋ2쎯ㄗㄜˊ1쎯ㄖㄣˊ0쎯	-10.1445
ㄍㄨㄥ2쎯ㄢ0쎯	-10.1445
ㄅㄛ0쎯	-10.1448
ㄧㄢˋ4쎯	-10.1461
ㄑㄩㄥˊ1쎯	-10.1464
ㄗㄨㄥˇ0쎯ㄊㄡˊ1쎯ㄗ2쎯	-10.147
ㄍㄨㄢˋ2쎯ㄇㄨˋ0쎯	-10.1471
ㄊㄠ0쎯	-10.1479
ㄓㄨˋ3쎯ㄔㄨㄥˊ2쎯	-10.148
,ㄘˇ0쎯	-10.149
ㄨㄟˇ5쎯ㄏㄨㄟˋ2쎯	-10.1491
ㄧˊ8쎯ㄔㄢˇ0쎯	-10.1493
ㄏㄨㄛˋ1쎯ㄨˋ3쎯	-10.1493
쎁쎉쎅쎀ㄋㄧㄢˊ0쎯	-10.1503
(쎁쎉쎀	-10.1504
ㄩㄥˋ0쎯ㄊㄨˊ2쎯	-10.1505
쎁쎉쎆쎉ㄋㄧㄢˊ0쎯	-10.1509
ㄑㄩ2쎯ㄉㄨㄥˋ0쎯	-10.1516
ㄧㄥˇ1쎯ㄒㄧㄤˇ1쎯ㄌㄧˋ0쎯	-10.1519
쎀.쎁	-10.1519
ㄍㄨ	-10.1526
.ㄏㄡˋ0쎯	-10.1527
ㄅㄢˋ2쎯ㄧㄢˇ3쎯	-10.1527
ㄆㄛˊ0쎯	-10.1528
쎆ㄋㄧㄢˊ0쎯	-10.1529
ㄔㄚˊ1쎯ㄒㄧㄝˊ0쎯	-10.1529
ㄔㄥˊ4쎯ㄒㄧㄤ0쎯	-10.153
ㄔㄜ0쎯ㄔㄥˊ7쎯	-10.1534
ㄆㄟˋ2쎯ㄅㄟˋ2쎯	-10.1539
ㄓㄥˇ1쎯ㄒㄧㄥˊ1쎯	-10.1539
ㄕㄡˇ2쎯ㄒㄧㄢ1쎯	-10.1541
ㄖㄨˇ0쎯	-10.1544
ㄈㄢˋ3쎯ㄨㄟˊ2쎯ㄋㄟˋ쎯	-10.1545
ㄐㄧ12쎯ㄘㄥˊ0쎯	-10.1553
ㄏㄣˋ쎯	-10.1554
ㄏㄨㄛˋ1쎯ㄅㄧˋ0쎯	-10.1558
ㄧㄥ0쎯ㄍㄞ0쎯	-10.156
ㄓˊ4쎯ㄨˋ2쎯	-10.1561
ㄔㄥˊ9쎯	-10.1563
ㄒㄧㄢˊ2쎯	-10.1564
ㄏㄜˊ4쎯ㄌㄢˊ0쎯	-10.1577
ㄒㄧㄤ1쎯ㄌㄧㄢˊ0쎯	-10.1581
ㄇㄟˇ0쎯ㄊㄧㄢ0쎯	-10.1582
ㄒㄧㄠ2쎯ㄏㄨㄚˋ0쎯	-10.1583
ㄏㄨˊ2쎯ㄌㄨㄛˊ1쎯	-10.1589
ㄐㄧㄠˋ0쎯ㄗㄨㄛˋ2쎯	-10.159
ㄌㄧˋ6쎯ㄧˋ15쎯	-10.1592
ㄙㄨㄛˇ0쎯ㄔㄤˊ0쎯	-10.1594
ㄍㄡˋ1쎯ㄇㄞˇ0쎯	-10.1595
ㄕㄨˇ5쎯ㄐㄩ4쎯ㄎㄨˋ0쎯	-10.1597
ㄨˇ3쎯ㄏㄢˋ0쎯ㄕˋ4쎯	-10.1597
ㄖㄣˇ0쎯	-10.1601
().	-10.1602
ㄇㄥ쎯ㄍㄨˇ0쎯	-10.1602
ㄗㄨㄟˋ0쎯ㄉㄨㄛ0쎯	-10.1606
▁̇ㄉㄜ1쎯ㄕˊ1쎯ㄐㄧㄢ4쎯	-10.1607
ㄍㄨㄞˋ0쎯ㄕㄡˋ4쎯	-10.1609
ㄧㄤˇ1쎯ㄕㄥ1쎯	-10.161
ㄆㄧㄠ1쎯	-10.1614
ㄒㄩㄥ0쎯	-10.1618
ㄉㄢˋ1쎯	-10.1622
ㄐㄩㄣ1쎯ㄨㄟˊ0쎯	-10.1627
쎁)	-10.163
ㄔㄤˋ2쎯ㄆㄧㄢ0쎯	-10.1633
▁̇ㄉㄜ0쎯ㄕㄤˇ0쎯	-10.1635
쎈쎁	-10.1638
ㄆㄟˊ1쎯	-10.1639
ㄈㄨˋ8쎯ㄓㄨˇ0쎯ㄒㄧˊ1쎯	-10.1642
ㄌㄞˊ0쎯ㄉㄠˋ0쎯	-10.1644
ㄍㄨㄢ0쎯ㄐㄧㄝ0쎯	-10.1651
-쎆	-10.1656
ㄩㄝˋ4쎯	-10.1658
ㄈㄥˋ0쎯ㄏㄨㄤˊ2쎯	-10.166
쎁쎉쎅쎃ㄋㄧㄢˊ0쎯	-10.1665
ㄊㄢˋ2쎯ㄊㄠˇ쎯	-10.1666
ㄕㄣ2쎯ㄈㄣˋ0쎯	-10.1667
ㄏㄨㄥˊ3쎯	-10.1668
ㄉㄧㄢˋ5쎯	-10.1672
ㄗㄡˇ쎯ㄒㄧㄤˋ0쎯	-10.1672
ㄌㄧˇ2쎯,ㄏㄞˇ0쎯ㄅㄚˊ0쎯	-10.1672
ㄍㄨㄥ5쎯ㄧㄥ0쎯	-10.1673
ㄠ0쎯	-10.168
ㄌㄧㄢˊ5쎯	-10.1683
ㄅㄢˋ4쎯ㄩㄣˊ1쎯	-10.1688
ㄐㄧˋ1쎯》	-10.169
ㄊㄨㄥˊ0쎯ㄧㄤˋ0쎯	-10.1691
ㄒㄧㄠˋ3쎯ㄧㄥ0쎯	-10.1693
%,	-10.1695
ㄋㄞˋ0쎯	-10.1698
ㄕˋ4쎯ㄓㄨㄥ0쎯ㄒㄧㄣ0쎯	-10.17
▁̇ㄅㄟ0쎯	-10.1702
ㄓㄨㄛˊ2쎯ㄩㄝˋ5쎯	-10.1704
ㄆㄧㄥˊ3쎯ㄍㄨㄛˇ0쎯	-10.1707
ㄈㄥ1쎯ㄨㄟˋ3쎯	-10.1708
ㄕㄜˋ4쎯	-10.1708
ㄍㄢˇ3쎯ㄑㄧㄥˊ0쎯	-10.171
ㄊㄧㄢˊ3쎯	-10.1719
.ㄑㄧㄥ5쎯	-10.1723
ㄉㄥˇ0쎯ㄉㄨㄛ0쎯ㄔㄨㄥˊ1쎯	-10.1725
:쎁.	-10.1727
ㄒㄧ1쎯ㄋㄚ1쎯ㄅㄨˋ4쎯	-10.1727
ㄙㄢ0쎯ㄍㄨㄛˊ0쎯	-10.1727
ㄗㄞˋ0쎯ㄘˋ0쎯	-10.1729
쎁쎉쎇쎂ㄋㄧㄢˊ0쎯	-10.1729
쎁쎉쎄쎇ㄋㄧㄢˊ0쎯	-10.1731
ㄐㄧㄢ4쎯,	-10.1732
ㄐㄧㄝˋ0쎯ㄓˋ4쎯	-10.1738
ㄧㄤˇ0쎯	-10.1738
ㄕˊ0쎯ㄉㄚˋ쎯	-10.1738
ㄎㄨㄣ1쎯	-10.1743
ㄈㄢˋ0쎯ㄗㄨㄟˋ1쎯	-10.1743
ㄓˋ5쎯ㄌㄧˇ3쎯	-10.1744
ㄎㄢ0쎯ㄨˋ3쎯	-10.1744
ㄒㄧㄤˋ3쎯ㄙㄨˋ2쎯	-10.1745
ㄐㄩ	-10.175
ㄇㄧˋ1쎯ㄇㄚˇ2쎯	-10.176
ㄎㄞ0쎯ㄍㄨㄢ0쎯	-10.1762
ㄧㄝˇ0쎯ㄅㄨˋ0쎯	-10.1763
ㄎㄜˇ0쎯ㄐㄧㄢˋ0쎯	-10.177
ㄈㄨˊ5쎯ㄕˋ10쎯	-10.1771
ㄧˋ2쎯ㄖㄣˊ0쎯	-10.1771
쎂쎀쎀쎇	-10.1773
ㄈㄥ7쎯	-10.1773
ㄧ4쎯ㄈㄚˇ0쎯	-10.1774
ㄊㄢˇ0쎯	-10.1776
.쎇	-10.1778
ㄐㄧㄤˋ2쎯ㄌㄧㄝˋ2쎯	-10.178
ㄧㄡˇ1쎯ㄧ0쎯ㄍㄜˇ0쎯	-10.178
ㄡ0쎯ㄅㄧㄝˊ0쎯	-10.1781
,ㄨㄛˇ쎯	-10.1781
ㄨㄟˊ0쎯ㄎㄜˋ2쎯ㄏㄨˋ1쎯	-10.1783
ㄅㄧㄢˋ1쎯ㄌㄧˋ6쎯,	-10.1783
ㄊㄧㄝ0쎯	-10.1796
ㄈㄢˇ1쎯	-10.1796
ㄐㄧㄝˊ1쎯ㄔㄨ0쎯	-10.1796
,ㄅㄧㄥ1쎯ㄗㄞˋ1쎯	-10.1798
,ㄋㄚ1쎯	-10.18
ㄏㄣˇ0쎯ㄏㄠˇ0쎯	-10.1801
ㄆㄨˊ1쎯ㄊㄠˊ3쎯	-10.1801
ㄊㄨ2쎯ㄆㄛˋ0쎯	-10.1806
ㄐㄧㄡˋ4쎯ㄎㄜˇ0쎯ㄧˇ2쎯	-10.1806
ㄗㄠ0쎯	-10.1808
ㄉㄨㄛ0쎯ㄍㄨㄥ3쎯ㄋㄥˊ쎯	-10.1809
ㄅㄣˇ0쎯ㄕㄣ2쎯	-10.181
ㄇㄧㄢˋ0쎯ㄈㄣˇ쎯	-10.1811
쎁쎉쎄쎆ㄋㄧㄢˊ0쎯	-10.1811
ㄩㄢˋ2쎯ㄔㄤˊ0쎯	-10.1819
ㄏㄨㄟˋ2쎯ㄔㄤˊ4쎯ㄨˋ2쎯	-10.1822
ㄩㄝˋ5쎯ㄋㄚ1쎯	-10.1824
ㄈㄣ0쎯ㄆㄟˋ2쎯	-10.1825
쎂쎀쎀쎃	-10.1827
ㄒㄧㄠˇ0쎯ㄦˊ0쎯	-10.1828
ㄑㄧㄢˊ0쎯ㄕㄣ2쎯ㄕˋ15쎯	-10.1828
ㄉㄚˊ0쎯ㄎㄞ0쎯	-10.1831
ㄉㄨㄛ0쎯ㄕㄨˇ5쎯	-10.1836
ㄙㄨㄟˊ1쎯ㄐㄧ6쎯	-10.1841
ㄉㄞˋ0쎯ㄇㄚˇ2쎯	-10.1841
ㄧˊ1쎯	-10.1843
ㄕㄢˇ0쎯	-10.1847
ㄗㄣˇ쎯	-10.1848
ㄧㄢˋ1쎯	-10.1851
ㄎㄨˋ2쎯	-10.1854
ㄈㄨˇ5쎯ㄉㄠˇ0쎯	-10.1855
ㄙㄨ1쎯	-10.1865
ㄉㄧㄢˋ0쎯ㄐㄧ6쎯	-10.1867
ㄆㄨˇ2쎯ㄅㄧㄢˋ2쎯	-10.1875
ㄐㄧㄠˋ2쎯ㄡ0쎯	-10.1878
ㄒㄧㄢˋ5쎯	-10.1879
ㄐㄧ6쎯ㄑㄧˋ7쎯	-10.188
ㄧ0쎯ㄒㄧㄚˋ0쎯	-10.1884
ㄠ1쎯	-10.1885
ㄏㄨˋ3쎯	-10.1887
ㄒㄧㄣ5쎯ㄔㄥˊ4쎯	-10.189
ㄉㄨˋ2쎯ㄐㄧㄚˇ2쎯	-10.189
ㄋㄞˇ1쎯	-10.1892
ㄌㄧㄡˊ2쎯ㄒㄧㄚˋ0쎯	-10.1896
ㄖㄣˋ1쎯ㄎㄜˇ0쎯	-10.1897
ㄐㄩˋ5쎯ㄒㄧㄢˋ0쎯ㄔㄥˊ4쎯	-10.1897
ㄍㄜˊ0쎯	-10.1898
ㄗㄞˋ1쎯ㄩˊ0쎯	-10.1904
//	-10.1904
ㄕㄨㄤˇ쎯	-10.1905
ㄒㄧㄤˊ0쎯	-10.1905
쎁쎉쎆쎆ㄋㄧㄢˊ0쎯	-10.1908
ㄉㄤ0쎯ㄋㄧㄢˊ0쎯	-10.1909
ㄍㄚ1쎯ㄈㄟ4쎯	-10.192
ㄏㄨ3쎯	-10.192
ㄑㄧˇ4쎯ㄧˋ1쎯	-10.1922
ㄍㄨㄥ2쎯ㄢ0쎯ㄐㄩˊ0쎯	-10.1925
ㄒㄧㄡˋ2쎯	-10.1926
ㄇㄛˊ3쎯ㄊㄜˋ0쎯	-10.1928
ㄉㄞˋ1쎯ㄊㄡˊ0쎯ㄖㄣˊ0쎯	-10.1929
ㄙㄤ0쎯	-10.1929
ㄓㄥˋ3쎯ㄈㄚˇ0쎯	-10.193
ㄎㄡˇ쎯ㄑㄧㄤ3쎯	-10.1937
ㄙㄨ0쎯ㄌㄧㄢˊ4쎯	-10.1938
ㄒㄧㄢˋ4쎯	-10.1939
쎅ㄎㄜˋ0쎯	-10.194
ㄑㄩㄢˊ1쎯ㄈㄤ0쎯ㄨㄟˋ2쎯	-10.1941
ㄕㄚ7쎯	-10.1942
ㄇㄢˇ0쎯ㄧˋ18쎯	-10.1944
ㄗㄨㄟˋ0쎯ㄔㄨ1쎯	-10.1949
▁̇ㄉㄜ1쎯ㄧㄠ4쎯ㄑㄧㄡˊ1쎯	-10.195
ㄔㄣˊ6쎯	-10.1953
ㄘㄨㄣ0쎯ㄖㄣˊ0쎯.	-10.1958
ㄉㄥˇ0쎯ㄉㄥˇ0쎯	-10.1959
ㄊㄧˊ1쎯ㄘㄞˊ1쎯	-10.1959
ㄑㄧㄢ0쎯ㄋㄧㄢˊ0쎯	-10.196
ㄧ0쎯ㄓ2쎯	-10.1961
.쎀쎀ㄍㄨㄥ2쎯ㄌㄧˇ2쎯	-10.1965
ㄋㄢˊ0쎯ㄏㄢˋ0쎯ㄗㄨˊ1쎯	-10.197
ㄒㄩㄣˋ1쎯	-10.1984
ㄍㄤ6쎯ㄊㄧㄝˇ쎯	-10.1987
쎁쎃쎀	-10.1988
ㄅㄨˋ0쎯ㄓ7쎯	-10.1992
ㄉㄨㄟˋ1쎯ㄈㄤ0쎯	-10.1994
쎅ㄈㄣ0쎯ㄓㄨㄥ3쎯	-10.1995
ㄐㄧㄠ0쎯ㄏㄨㄢˋ2쎯	-10.2
ㄍㄤ6쎯ㄑㄧㄣˊ2쎯	-10.2001
ㄇㄧㄢˊ1쎯	-10.2004
ㄍㄨㄟˇ0쎯ㄉㄠˋ3쎯	-10.2007
ㄐㄧˇ4쎯	-10.2009
.ㄧㄣ0쎯	-10.2013
쎁쎉쎃쎇ㄋㄧㄢˊ0쎯	-10.2017
ㄒㄧㄥˋ2쎯、	-10.2023
]	-10.2023
ㄅㄚ1쎯ㄌㄧˊ8쎯	-10.2024
ㄍㄨㄥ2쎯ㄙ0쎯.	-10.2024
ㄊㄢˋ1쎯	-10.2026
ㄊㄧ0쎯ㄐㄧ11쎯	-10.2028
ㄐㄧㄚ3쎯ㄐㄩ1쎯	-10.2028
ㄉㄡ0쎯ㄏㄨㄟˋ2쎯	-10.203
ㄏㄡˋ0쎯ㄐㄧ13쎯	-10.2031
ㄆㄧㄣ0쎯	-10.2032
ㄇㄧㄢˋ0쎯ㄐㄧ11쎯쎆	-10.2033
ㄑㄩˇ0쎯ㄔㄨ0쎯	-10.2034
ㄒㄩㄝ1쎯	-10.2037
.쎁쎂	-10.2038
ㄧㄡˊ5쎯ㄐㄧ2쎯ㄉㄨㄟˋ0쎯	-10.2043
ㄉㄨㄣ2쎯	-10.2047
ㄐㄩㄝˊ2쎯ㄉㄨㄟˋ1쎯	-10.2049
ㄔㄨˇ0쎯ㄔㄨˇ0쎯ㄔㄤˊ0쎯	-10.2051
ㄧㄡ0쎯ㄩㄝˋ5쎯	-10.2051
,ㄐㄧㄥ2쎯ㄍㄨㄛ0쎯	-10.2052
ㄅㄢˋ1쎯ㄉㄠˇ1쎯	-10.2052
ㄌㄧㄡˊ3쎯ㄔㄨㄢˊ0쎯	-10.2054
ㄍㄜˋ0쎯ㄐㄧˊ2쎯	-10.2054
ㄏㄨㄣˊ0쎯	-10.2056
쎁ㄏㄠˊ0쎯	-10.2056
ㄨㄞˋ쎯ㄍㄨㄛˊ0쎯	-10.2062
ㄉㄧㄝˊ3쎯	-10.2063
ㄗㄨˇ1쎯ㄓ9쎯ㄅㄨˋ4쎯	-10.2065
ㄒㄧㄠˇ0쎯ㄇㄞˋ1쎯	-10.2065
ㄧ0쎯ㄉㄞˋ0쎯	-10.2065
ㄔㄨ1쎯ㄐㄧ13쎯	-10.2067
ㄒㄧㄢˋ2쎯ㄓˋ3쎯	-10.2069
ㄑㄩ3쎯	-10.2071
ㄕˋ12쎯ㄐㄧㄠˋ1쎯	-10.2074
ㄘㄠ0쎯	-10.2074
ㄐㄧㄤˇ3쎯	-10.2081
ㄋㄨㄥˊ0쎯ㄗㄨㄛ0쎯ㄨˋ3쎯	-10.2082
ㄩㄝ0쎯:‘	-10.2082
ㄨㄟˇ5쎯ㄔㄤˊ4쎯ㄨㄟˇ5쎯、	-10.2084
ㄧˊ2쎯	-10.2087
ㄕㄨㄚ0쎯	-10.2088
ㄅㄢˋ0쎯ㄌㄧˇ3쎯	-10.2088
ㄊㄞˋ0쎯ㄆㄧㄥˊ0쎯ㄧㄤˊ4쎯	-10.2089
ㄈㄨˇ7쎯	-10.2091
ㄗㄨㄥˇ0쎯ㄍㄨㄥ2쎯ㄙ0쎯	-10.2094
ㄕˋ15쎯ㄖˋ0쎯ㄅㄣˇ0쎯	-10.2096
ㄕㄠˋ0쎯	-10.2096
ㄏㄨㄛˋ2쎯ㄐㄧㄤˇ1쎯	-10.2098
ㄓㄠˋ5쎯	-10.21
쎇.	-10.2104
ㄋㄧㄥˊ0쎯ㄒㄧㄚˋ1쎯	-10.2108
ㄧㄡˊ4쎯ㄏㄨㄚˋ1쎯	-10.2108
ㄕㄣ5쎯ㄉㄨˋ2쎯	-10.2109
ㄈㄢˋ2쎯	-10.2109
ㄑㄧㄣˊ3쎯	-10.2111
ㄏㄨㄚ0쎯ㄏㄨㄟˋ0쎯	-10.2116
ㄗㄞˇ0쎯	-10.2117
ㄍㄨㄥ2쎯ㄌㄧˇ2쎯,	-10.2119
ㄍㄠ0쎯ㄧㄚ1쎯	-10.2119
ㄐㄧㄣˋ1쎯ㄉㄞˋ0쎯	-10.2119
ㄕㄨㄞˋ0쎯	-10.212
ㄈㄟˋ4쎯ㄩㄥˋ0쎯	-10.2121
ㄎㄜˇ0쎯ㄍㄨㄥ5쎯	-10.2123
ㄩㄢˊ4쎯ㄗˇ0쎯	-10.213
ㄔㄨㄢ1쎯ㄩㄝˋ5쎯	-10.2131
,ㄓㄨㄥ0쎯ㄍㄨㄥˋ0쎯	-10.2133
ㄅㄧㄢ1쎯ㄨㄟˇ5쎯	-10.2133
ㄓˊ4쎯ㄔㄣˋ1쎯	-10.2134
ㄑㄩㄣˊ1쎯ㄉㄠˇ1쎯	-10.2136
ㄍㄨˇ0쎯ㄔㄥˊ4쎯	-10.2137
ㄉㄨㄛ0쎯ㄆㄧㄢ2쎯	-10.2138
ㄕㄡˋ2쎯ㄑㄩㄢˊ0쎯	-10.2139
ㄎㄨㄣˋ쎯ㄋㄢˊ1쎯	-10.2143
ㄘˊ7쎯	-10.2152
ㄇㄞˊ0쎯	-10.2155
쎂쎅쎆	-10.2156
ㄌㄨㄥˊ0쎯ㄊㄡˊ0쎯	-10.2158
ㄐㄧㄢˋ2쎯ㄘㄞˊ1쎯	-10.2159
ㄧㄡ0쎯ㄧㄚˇ쎯	-10.2168
ㄓㄨㄥˇ0쎯	-10.2168
ㄒㄧㄤ1쎯ㄐㄧㄝ3쎯ㄍㄜˇ1쎯	-10.2174
”ㄏㄜˊ2쎯“	-10.2175
ㄧㄢˋ8쎯	-10.2176
ㄓㄨㄥ0쎯ㄧㄡˇ1쎯	-10.2176
ㄎㄜ4쎯	-10.2178
쎄.	-10.2182
ㄌㄧㄣˊ4쎯	-10.2182
ㄒㄧㄚˋ0쎯ㄌㄞˊ0쎯	-10.2183
ㄨˋ3쎯ㄔㄨㄥˊ1쎯	-10.2184
ㄐㄧㄝˊ6쎯	-10.2185
ㄩˇ2쎯ㄓㄡˋ1쎯	-10.2186
▁̇ㄉㄜ1쎯ㄍㄨㄢ0쎯ㄐㄧˋ3쎯	-10.2187
ㄊㄡ쎯	-10.2187
ㄊㄜˋ0쎯ㄉㄧㄢˇ1쎯:	-10.2191
쎀.쎂	-10.2198
ㄒㄧ15쎯	-10.2198
ㄍㄢˋ0쎯	-10.2198
ㄓㄣˋ3쎯ㄉㄤˇ1쎯ㄨㄟˇ5쎯	-10.2201
ㄑㄧㄠˊ2쎯ㄌㄧㄤˊ2쎯	-10.2201
ㄧˋ7쎯ㄔㄤˊ4쎯	-10.2206
ㄌㄨˋ4쎯	-10.2207
ㄒㄧㄝˋ7쎯	-10.2207
ㄏㄢˋ4쎯	-10.2216
ㄩㄢˋ1쎯	-10.2217
ㄑㄩㄥˊ0쎯	-10.2219
ㄑㄧㄠ1쎯	-10.222
쎁쎉쎇쎄ㄋㄧㄢˊ0쎯	-10.222
ㄐㄧˋ1쎯·	-10.2222
ㄓ4쎯	-10.2224
ㄒㄩ	-10.2226
ㄧㄥˋ1쎯ㄐㄧㄢˋ1쎯	-10.2228
ㄙㄢˇ0쎯	-10.2228
쎅ㄌㄧˊ1쎯ㄇㄧˇ0쎯	-10.2228
ㄓ2쎯ㄋㄥˊ쎯	-10.223
ㄩˋ4쎯	-10.2236
ㄎㄜˇ0쎯ㄎㄠˋ1쎯	-10.2237
ㄩˋ14쎯	-10.2238
ㄧˋ0쎯ㄩㄢˊ0쎯	-10.2238
ㄧㄡˇ1쎯ㄧ0쎯ㄉㄧㄥˋ1쎯	-10.2239
ㄏㄨㄥˊ0쎯	-10.224
,ㄔㄤˊ0쎯	-10.2241
ㄐㄧㄢˋ2쎯ㄧㄡˇ1쎯	-10.2241
ㄋㄢˊ0쎯ㄖㄣˊ0쎯	-10.2245
ㄕˊ1쎯ㄏㄡˋ2쎯	-10.2246
ㄍㄡ2쎯ㄊㄨㄥ0쎯	-10.2248
ㄓㄠˇ0쎯	-10.2248
ㄧㄡˋ2쎯ㄦˊ0쎯	-10.2249
ㄖㄨˊ0쎯ㄐㄧㄣ2쎯	-10.2257
ㄢ0쎯ㄆㄞˊ0쎯	-10.2257
ㄩㄝˋ5쎯ㄌㄞˊ0쎯ㄩㄝˋ5쎯	-10.2257
ㄏㄨㄟ0쎯ㄙㄜˋ0쎯	-10.2262
ㄔㄤˋ0쎯	-10.2265
ㄊㄨˊ2쎯	-10.227
ㄩㄥˇ1쎯	-10.227
ㄩㄢˇ쎯ㄔㄥˊ7쎯	-10.2272
ㄩㄥˋ0쎯ㄈㄚˇ0쎯	-10.2274
ㄈㄚ쎯ㄅㄧㄠˇ0쎯ㄌㄨㄣˊ2쎯	-10.2275
ㄧ0쎯ㄓˋ7쎯	-10.2276
ㄈㄚ쎯ㄉㄨㄥˋ0쎯ㄐㄧ6쎯	-10.2279
ㄓㄨㄛ2쎯	-10.228
ㄐㄧㄝ6쎯	-10.2281
▁̇ㄉㄜ1쎯ㄋㄟˋ쎯ㄖㄨㄥˊ4쎯	-10.2282
ㄕㄠˋ1쎯	-10.2284
ㄋㄧㄥˊ0쎯ㄒㄧㄢˋ0쎯	-10.2292
.ㄓㄜˋ0쎯ㄔㄨㄥˊ1쎯	-10.2297
ㄐㄩㄣ1쎯ㄧㄡˇ1쎯	-10.2302
ㄈㄤ0쎯ㄕˋ5쎯:	-10.2305
ㄒㄩㄝˊ1쎯ㄅㄛˊ5쎯ㄕˋ0쎯	-10.2305
ㄅㄨˋ0쎯ㄌㄧㄤˊ0쎯	-10.2308
ㄇㄧㄥˊ0쎯ㄖㄣˊ0쎯	-10.2312
:《	-10.2312
ㄌㄧˇ2쎯ㄇㄧㄢˋ0쎯	-10.2312
ㄈㄥˊ2쎯	-10.2316
ㄒㄧㄝˇ1쎯ㄧㄝˋ3쎯	-10.2318
ㄒㄧㄥˋ1쎯	-10.2319
ㄉㄥˇ0쎯ㄋㄨㄥˊ0쎯ㄗㄨㄛ0쎯	-10.232
ㄦˇ1쎯ㄐㄧ6쎯	-10.2321
ㄌㄨㄥˊ4쎯	-10.2327
ㄇㄧㄥˊ0쎯ㄗˋ1쎯	-10.2329
ㄕㄥ1쎯.	-10.2334
ㄒㄧㄣ5쎯ㄐㄧˋ2쎯ㄕㄨˋ0쎯	-10.2336
ㄑㄧㄥ5쎯ㄔㄠˊ1쎯	-10.2338
ㄍㄨㄥ3쎯ㄒㄧㄠˋ3쎯	-10.234
ㄆㄧˊ3쎯	-10.2345
ㄖㄣˋ1쎯ㄓㄣ4쎯	-10.2348
ㄙㄨㄥˋ4쎯	-10.235
ㄍㄜˇ1쎯ㄈㄟˊ0쎯	-10.2354
ㄏㄨㄞˊ2쎯	-10.2357
ㄙ4쎯·	-10.2358
ㄒㄩㄝˊ1쎯ㄐㄧㄚ3쎯	-10.2359
ㄎㄜ2쎯ㄒㄩㄝˊ1쎯ㄩˇ0쎯	-10.2359
ㄔㄞˊ0쎯	-10.236
ㄩˋ10쎯	-10.2361
ㄍㄨㄥ2쎯ㄧˋ15쎯	-10.2364
ㄍㄠ0쎯ㄨㄣ0쎯	-10.2364
ㄩˋ9쎯ㄉㄠˋ0쎯	-10.237
ㄅㄨˇ1쎯	-10.2372
쎈ㄋㄧㄢˊ0쎯	-10.2382
ㄨ	-10.2387
ㄔㄨㄤ1쎯	-10.2388
ㄐㄧˊ3쎯ㄨㄟˊ0쎯	-10.2395
ㄕˊ0쎯ㄧ0쎯	-10.2396
ㄈㄤ0쎯ㄓㄣ1쎯	-10.2397
ㄧ0쎯ㄓ1쎯	-10.2398
쎇쎁	-10.2404
ㄓˊ4쎯ㄗㄜˊ1쎯	-10.2404
ㄋㄩˇ0쎯ㄖㄣˊ0쎯	-10.2409
ㄧˇ2쎯ㄑㄧˊ1쎯	-10.241
ㄓㄨˇ0쎯ㄧㄠ4쎯ㄧˇ2쎯	-10.2411
ㄉㄧㄢˋ2쎯	-10.2414
쎁쎉쎃쎆ㄋㄧㄢˊ0쎯	-10.2415
ㄧㄝˇ0쎯ㄎㄜˇ0쎯ㄧˇ2쎯	-10.2416
ㄗㄨㄛˋ2쎯ㄈㄚˇ0쎯	-10.2419
ㄐㄧㄤ1쎯ㄑㄧˊ1쎯	-10.2421
ㄉㄧˋ3쎯ㄑㄧ0쎯	-10.2421
ㄅㄧㄢˋ1쎯ㄐㄧㄝˊ4쎯	-10.2429
ㄗㄞˋ1쎯ㄧ0쎯ㄑㄧˇ4쎯	-10.243
ㄙ0쎯ㄇㄚˇ0쎯	-10.2433
ㄒㄧ5쎯	-10.2433
ㄒㄧㄝ0쎯	-10.2434
ㄔㄤˊ3쎯	-10.2435
ㄉㄨㄟˋ0쎯ㄩㄢˊ2쎯	-10.2436
ㄎㄨㄥ0쎯ㄐㄩㄣ0쎯	-10.2441
ㄕˋ20쎯ㄧˋ1쎯	-10.2442
ㄕㄨ0쎯ㄓㄨㄥ0쎯	-10.2444
ㄅㄧˋ14쎯ㄇㄧㄢˇ0쎯	-10.2446
ー	-10.2448
ㄩㄥ1쎯	-10.2449
ㄒㄧㄠˇ0쎯ㄕㄨㄟˋ0쎯《	-10.245
ㄐㄩ3쎯	-10.2452
ㄩˋ15쎯	-10.2453
ㄩㄣˊ1쎯	-10.2454
ㄌㄩˋ3쎯	-10.2459
ㄇㄨˇ2쎯,ㄑㄧˊ1쎯ㄓㄨㄥ0쎯	-10.2461
ㄗㄨㄥˇ0쎯ㄒㄧㄢˋ3쎯	-10.2467
ㄕˋ15쎯ㄧ0쎯ㄅㄨˋ4쎯	-10.2476
쎁쎉쎆쎁ㄋㄧㄢˊ0쎯	-10.2476
ㄍㄞ0쎯ㄐㄧㄠˋ2쎯	-10.2477
ㄖㄨㄥˊ8쎯	-10.2478
,ㄉㄨㄛ0쎯	-10.248
ㄓ10쎯ㄈㄤˊ2쎯	-10.248
ㄍㄨㄥˇ2쎯	-10.2485
ㄈㄨˋ12쎯ㄅㄨˋ4쎯	-10.2486
ㄉㄧ1쎯	-10.2488
ㄑㄧㄢ5쎯	-10.249
ㄈㄨˋ10쎯	-10.2492
ㄅㄞˇ0쎯ㄒㄧㄥˋ3쎯	-10.2493
ㄈㄥ1쎯ㄍㄨㄤ0쎯	-10.2494
ㄘㄨㄣ0쎯,	-10.2496
±	-10.2497
ㄏㄨㄚˊ1쎯ㄉㄨㄥ0쎯	-10.2498
ㄧ0쎯ㄅㄨˋ4쎯	-10.25
ㄧㄝˇ0쎯ㄐㄧㄡˋ4쎯ㄕˋ15쎯	-10.2501
ㄧˋ19쎯	-10.2501
ㄘㄞˊ1쎯ㄓˋ4쎯	-10.2503
ㄑㄩㄢˊ1쎯ㄖˋ0쎯ㄓˋ3쎯	-10.2503
ㄍㄨㄛˊ0쎯ㄌㄧˋ3쎯	-10.2507
ㄌㄧㄡˊ3쎯ㄔㄥˊ7쎯	-10.2514
ㄅㄛˊ1쎯	-10.2514
ㄊㄧㄠ0쎯ㄓㄢˋ1쎯	-10.2516
ㄕㄡˋ5쎯	-10.2517
ㄑㄧˋ0쎯ㄒㄧㄤˋ2쎯	-10.2517
ㄎㄤ0쎯ㄈㄨˋ7쎯	-10.2523
ㄨㄣˇ0쎯	-10.2525
ㄇㄛˋ0쎯ㄉㄨㄣ0쎯	-10.2525
ㄊㄨㄥˊ0쎯ㄅㄨˋ2쎯	-10.2526
ㄉㄠˇ0쎯ㄉㄢˋ5쎯	-10.2527
쎀%	-10.2531
ㄐㄧ26쎯	-10.2535
”ㄕˋ15쎯	-10.2535
ㄔㄠ4쎯ㄕˋ4쎯	-10.2538
ㄘㄜˋ3쎯ㄉㄧㄥˋ1쎯	-10.2539
ㄊㄨㄥˊ2쎯	-10.2542
ㄔㄤˊ1쎯ㄕㄤˇ0쎯	-10.2545
ㄒㄩㄝˊ1쎯ㄨㄟˋ2쎯.	-10.2546
ㄍㄨㄥ0쎯ㄧㄝˋ0쎯ㄩㄢˊ1쎯	-10.255
ㄨㄤˇ0쎯ㄧㄝˋ1쎯	-10.2552
ㄒㄧㄢˇ0쎯ㄕˋ2쎯ㄅㄧㄥˇ4쎯	-10.2554
▁̇ㄉㄜ1쎯ㄨㄣˋ0쎯ㄊㄧˊ1쎯	-10.2554
ㄒㄧㄤˇ0쎯	-10.2556
쎅.	-10.2558
,ㄘㄥˊ1쎯ㄖㄣˊ3쎯	-10.2558
ㄉㄢˋ0쎯ㄐㄧㄚ3쎯ㄓㄨㄤ1쎯	-10.2561
ㄙㄜˋ0쎯ㄗㄜˊ3쎯	-10.2563
-쎈	-10.2569
ㄏㄨㄟ4쎯	-10.2573
ㄗㄞˋ1쎯ㄓㄜˋ0쎯ㄌㄧˇ2쎯	-10.2574
|	-10.2575
ㄍㄞˇ쎯ㄅㄧㄢ1쎯	-10.2576
ㄗㄨㄛ0쎯ㄑㄩ0쎯	-10.2576
ㄍㄨㄢˇ1쎯ㄉㄠˋ3쎯	-10.258
ㄕㄥ1쎯ㄉㄠˇ0쎯ㄕ2쎯.	-10.2583
ㄅㄧˋ7쎯ㄕㄨ0쎯ㄔㄤˊ0쎯	-10.2586
,ㄉㄧ2쎯ㄍㄠ0쎯	-10.2587
ㄌㄧㄡˋ0쎯ㄋㄧㄢˊ0쎯	-10.2588
ㄆㄧㄢ0쎯,	-10.2591
ㄙ3쎯ㄎㄠˇ0쎯	-10.2592
ㄦˊ1쎯ㄔㄥˊ0쎯.	-10.2596
ㄅㄚ1쎯ㄒㄧ1쎯	-10.2599
ㄕㄨˇ4쎯ㄅㄧㄠ0쎯	-10.26
ㄧˋ8쎯ㄓˋ3쎯	-10.2605
쎁쎉쎆쎇ㄋㄧㄢˊ0쎯	-10.2605
ㄌㄨㄣˊ1쎯ㄉㄨㄣ1쎯	-10.2607
ㄖㄤˋ쎯ㄖㄣˊ0쎯	-10.2611
ㄕㄨㄤ1쎯	-10.2612
ㄨㄣ0쎯ㄓㄡ1쎯	-10.2623
쎁쎀ㄈㄣ0쎯ㄓㄨㄥ3쎯	-10.2626
ㄗㄨㄛ0쎯ㄓㄜˇ0쎯:	-10.2627
ㄑㄧˇ4쎯ㄉㄧㄢˇ1쎯	-10.2631
▁̇ㄉㄜ1쎯ㄧ0쎯ㄙㄨㄛˇ0쎯	-10.2631
ㄅㄨˋ0쎯ㄕㄠˇ쎯	-10.2631
▁̇ㄉㄜ1쎯ㄨㄤˇ0쎯ㄌㄠˋ0쎯	-10.2633
ㄧㄣˇ0쎯ㄉㄠˇ0쎯	-10.264
後	-10.2641
ㄧㄠ2쎯쎁	-10.2646
쎁쎉쎇쎃ㄋㄧㄢˊ0쎯	-10.2648
ㄅㄧㄝˊ0쎯ㄖㄣˊ0쎯	-10.2648
ㄓㄨˇ0쎯ㄅㄢˇ0쎯	-10.2648
ㄑㄧㄢˊ3쎯	-10.2651
ㄠˋ2쎯ㄩㄣˋ1쎯ㄏㄨㄟˋ2쎯	-10.2652
ㄨㄤˇ0쎯ㄧㄡˇ0쎯	-10.2654
ㄔㄨ0쎯ㄅㄢˇ1쎯ㄕㄜˋ1쎯:	-10.2654
ㄑㄧㄥ5쎯ㄒㄧㄣ5쎯	-10.2654
、ㄉㄚˋ쎯	-10.2656
ㄈㄢˋ1쎯ㄉㄧㄢˋ3쎯	-10.266
,ㄧㄡˋ0쎯ㄇㄧㄥˊ0쎯	-10.2665
ㄔㄨㄣˊ2쎯	-10.2669
---	-10.2669
ㄞˋ1쎯ㄍㄨㄛˊ0쎯	-10.2669
ㄍㄤ7쎯	-10.2672
ㄒㄧㄣ3쎯	-10.2673
ㄊㄤˋ0쎯	-10.2676
ㄉㄞˋ2쎯ㄎㄨㄢˇ쎯	-10.2676
ㄉㄧㄠ2쎯ㄎㄜˋ1쎯	-10.2679
ㄔㄢˇ0쎯ㄩˊ0쎯	-10.2681
ㄎㄜ2쎯ㄩㄢˊ2쎯	-10.2686
ㄙㄨㄥˋ1쎯ㄉㄞˋ0쎯	-10.2694
ㄍㄜˋ0쎯ㄉㄚˋ쎯	-10.2695
ㄉㄥˇ0쎯ㄓˊ4쎯.	-10.2703
ㄒㄩㄝˊ1쎯ㄩㄢˊ2쎯	-10.2705
ㄉㄠˋ0쎯ㄉㄚˊ1쎯	-10.2706
ㄓㄥˋ0쎯ㄇㄧㄥˊ1쎯	-10.2709
ㄇㄟˋ3쎯ㄌㄧˋ0쎯	-10.2715
ㄒㄩㄢ1쎯ㄔㄨㄢˊ0쎯ㄅㄨˋ4쎯	-10.2719
ㄅㄧㄝˊ0쎯ㄇㄧㄥˊ0쎯	-10.2727
ㄘㄞˇ0쎯ㄍㄡˋ1쎯	-10.273
ㄉㄨㄣˋ5쎯	-10.273
ㄍㄞˇ쎯ㄐㄧㄣˋ0쎯	-10.273
,ㄋㄚ0쎯	-10.2731
▁̇ㄉㄜ1쎯ㄊㄨˇ0쎯	-10.2733
ㄋㄢˊ0쎯ㄋㄩˇ0쎯	-10.2736
ㄎㄜˇ0쎯ㄞˋ1쎯	-10.2737
쎁、	-10.2739
ㄗ2쎯ㄕㄣ5쎯	-10.2742
.ㄍㄨㄛˊ0쎯ㄊㄨˇ0쎯	-10.2745
ㄉㄤˇ1쎯ㄩㄢˊ2쎯,	-10.2754
ㄒㄧㄠˇ0쎯ㄗㄨˇ1쎯,	-10.2757
ㄒㄧㄚˋ0쎯ㄕㄨˇ1쎯	-10.2759
ㄌㄧˊ3쎯ㄎㄞ0쎯	-10.2761
ㄗㄨㄛ0쎯ㄧㄝˋ0쎯	-10.2768
ㄒㄧㄤˇ0쎯ㄧㄡˇ1쎯	-10.2768
ㄓˊ0쎯ㄈㄚˇ0쎯	-10.2768
,ㄏㄞˊ0쎯ㄧㄡˇ1쎯	-10.277
ㄧㄤˊ2쎯ㄕˋ4쎯	-10.2774
ㄕˋ15쎯ㄇㄨˋ1쎯ㄑㄧㄢˊ0쎯	-10.2774
ㄌㄧㄡˊ2쎯ㄒㄩㄝˊ1쎯	-10.2775
ㄌㄨㄛˋ0쎯ㄧㄤˊ2쎯	-10.2777
ㄆㄧ	-10.2782
ㄆㄥˊ4쎯	-10.2782
쎅쎀ㄎㄜˋ0쎯	-10.2785
ㄍㄨㄥ2쎯ㄩㄢˊ0쎯ㄑㄧㄢˊ0쎯	-10.2787
ㄓㄡ2쎯ㄐㄧ13쎯	-10.2787
,ㄒㄧㄢˋ1쎯ㄨㄟˊ0쎯	-10.2787
ㄑㄧˋ3쎯	-10.2788
ㄕㄨㄟˇ쎯ㄓㄨㄥ0쎯	-10.279
ㄉㄠˋ4쎯	-10.2792
ㄔㄤˊ0쎯ㄢ0쎯	-10.2794
ㄒㄧㄣ5쎯ㄡ0쎯	-10.2795
ㄌㄧㄝˋ2쎯ㄕˋ0쎯	-10.2796
ㄐㄧㄤ0쎯ㄒㄧㄢˋ0쎯	-10.2796
ㄉㄨㄛ0쎯ㄖㄣˊ0쎯	-10.28
ㄔㄨㄢˊ1쎯ㄅㄛˊ3쎯	-10.2804
ㄗ1쎯	-10.2804
ㄧㄣˇ5쎯	-10.2811
ㄈㄤ0쎯ㄧㄢˊ2쎯	-10.2815
ㄕㄠˋ3쎯	-10.2816
,ㄐㄧㄡˋ4쎯ㄕˋ15쎯	-10.2817
ㄐㄧㄥ8쎯ㄧㄢˊ7쎯	-10.2817
ㄊㄞˋ3쎯ㄍㄨㄛˊ0쎯	-10.2817
ㄓˇ4쎯ㄕㄨˇ5쎯	-10.2817
ㄊㄢˋ0쎯	-10.282
쎂쎀쎁쎂	-10.2823
ㄐㄧˊ5쎯ㄒㄧㄥˋ2쎯	-10.2825
ㄒㄧㄤ2쎯ㄧㄡˊ4쎯	-10.2825
ㄉㄧˋ3쎯쎃	-10.283
ㄇㄧㄥˊ0쎯ㄐㄧㄚ3쎯	-10.2831
ㄐㄧㄢˇ8쎯ㄐㄧㄝˋ0쎯:	-10.2833
ㄕˇ2쎯ㄩㄥˋ0쎯.	-10.2837
、ㄍㄠ0쎯	-10.2838
ㄕˋ10쎯ㄧㄢˇ3쎯	-10.284
쎁/	-10.2843
ㄇㄧˋ1쎯ㄈㄥ3쎯	-10.2844
▁̇ㄉㄜ1쎯ㄧㄣ4쎯ㄌㄜˋ0쎯	-10.285
ㄙㄠˇ0쎯ㄇㄧㄠˊ1쎯	-10.2851
ㄈㄨˋ8쎯ㄅㄨˋ4쎯ㄔㄤˊ0쎯	-10.2853
ㄌㄚˋ1쎯	-10.2855
ㄧㄢˊ0쎯ㄕㄣ1쎯	-10.2855
ㄐㄧㄥ8쎯ㄇㄧˋ1쎯	-10.2856
ㄨㄟˋ3쎯ㄉㄠˋ3쎯	-10.2856
ㄇㄟˇ0쎯ㄖˋ0쎯	-10.2859
쎀-	-10.2862
ㄌㄧㄥˊ4쎯	-10.2863
ㄅㄧㄢˋ0쎯ㄒㄧㄥˊ1쎯	-10.2871
ㄇㄟˇ1쎯ㄏㄠˇ0쎯	-10.2872
ㄞˇ0쎯	-10.2872
×쎂	-10.2874
ㄍㄨㄢ1쎯ㄕㄤˇ2쎯	-10.2874
ㄍㄠ0쎯ㄉㄚˊ1쎯	-10.2887
』	-10.2891
&;	-10.2893
ㄩˇ6쎯ㄨㄣˊ0쎯	-10.2893
ㄐㄧㄥ2쎯ㄧㄢˋ5쎯,	-10.2901
ㄈㄟ1쎯	-10.2904
ㄒㄧㄤ2쎯ㄍㄨ6쎯	-10.2906
ㄓㄥˋ3쎯ㄈㄨˇ3쎯ㄓㄨˋ4쎯	-10.2906
ㄉㄚˋ쎯ㄓㄢˋ1쎯	-10.2915
ㄔㄤˊ0쎯.	-10.2918
ㄓㄨㄢ0쎯ㄊㄧˊ1쎯	-10.2918
▁̇ㄉㄜ0쎯ㄓˇ2쎯:	-10.2921
ㄍㄨㄛ3쎯ㄓㄨㄥ0쎯	-10.2923
ㄊㄥˊ0쎯ㄊㄨㄥˋ0쎯	-10.2924
,ㄕˊ3쎯ㄒㄧㄢˋ1쎯	-10.2924
ㄆㄧ2쎯	-10.2931
ㄊㄨ0쎯	-10.2931
,ㄘㄨˋ1쎯ㄐㄧㄣˋ0쎯	-10.2932
ㄎㄨㄣ1쎯ㄇㄧㄥˊ1쎯	-10.2934
ㄕ1쎯ㄑㄩˋ0쎯	-10.2936
ㄑㄩ2쎯	-10.2936
ㄒㄩ2쎯ㄋㄧˇ0쎯	-10.294
ㄩㄣˋ1쎯ㄗㄨㄛ0쎯	-10.2941
ㄉㄚˋ쎯ㄐㄧㄡˇ5쎯ㄉㄧㄢˋ3쎯	-10.2944
ㄌㄧˋ13쎯	-10.2947
ㄆㄞˇ쎯	-10.2947
ㄉㄧㄠ2쎯ㄙㄨˋ6쎯	-10.2947
ㄉㄚˋ쎯ㄉㄨㄛ0쎯ㄕㄨˇ5쎯	-10.2952
ㄐㄧㄤˇ1쎯ㄌㄧˋ5쎯	-10.2955
▁̇ㄉㄜ0쎯ㄉㄞˋ1쎯	-10.2955
ㄗㄨㄛˇ0쎯ㄧㄡˋ1쎯,	-10.296
ㄦˇ0쎯·	-10.296
ㄐㄧㄢ8쎯ㄓˊ4쎯	-10.2961
ㄕㄜˋ6쎯	-10.2963
ㄕㄡˇ0쎯ㄈㄚˇ0쎯	-10.2964
ㄒㄧㄡ1쎯ㄐㄧㄢˋ2쎯	-10.2968
ㄍㄡ0쎯	-10.2969
ㄅㄠˇ2쎯ㄌㄧㄡˊ2쎯	-10.2969
ㄊㄨㄥˊ0쎯ㄒㄩㄝˊ1쎯	-10.2971
ㄓˋ12쎯	-10.2972
ㄧㄥˇ1쎯ㄒㄧㄤˋ3쎯	-10.2972
.”ㄙㄨㄥˋ1쎯	-10.2972
ㄧㄢˇ0쎯	-10.2975
ㄅㄨˋ0쎯ㄉㄠˋ0쎯	-10.2976
ㄐㄧㄝ4쎯ㄕㄡ쎯	-10.298
ㄎㄞ0쎯ㄈㄚ쎯、	-10.2982
ㄨˋ3쎯ㄆㄧㄣˇ쎯	-10.2984
쎂쎀쎀쎉	-10.2984
ㄕㄥˇ0쎯ㄕˋ4쎯	-10.2986
쎉쎀쎀	-10.2992
ㄐㄧㄠˋ4쎯ㄏㄠˇ0쎯	-10.2995
ㄊㄨㄟˋ0쎯ㄒㄧㄡ0쎯	-10.2996
ㄑㄩˋ0쎯ㄆㄧˊ0쎯	-10.2998
쎁쎁쎀	-10.3001
ㄅㄨˋ4쎯ㄐㄧㄢˋ1쎯	-10.3001
ㄕㄡˇ2쎯ㄒㄧˊ1쎯	-10.3005
ㄅㄠ0쎯ㄎㄨㄛˋ1쎯:	-10.3005
[	-10.3006
ㄌㄧˋ3쎯ㄊㄧ0쎯	-10.3006
ㄨˇ0쎯ㄍㄜˇ0쎯	-10.3008
ㄊㄨㄥ0쎯ㄏㄨㄚˋ2쎯	-10.3008
ㄐㄧㄣ1쎯	-10.3012
ㄒㄧㄣ5쎯ㄐㄧㄢˋ2쎯	-10.3012
ㄖㄨㄛˋ0쎯ㄍㄢ0쎯	-10.3015
ㄏㄨㄛˇ0쎯ㄕㄢ0쎯	-10.3016
”ㄨㄟˊ0쎯	-10.3017
ㄉㄤˇ0쎯	-10.3019
ㄎㄡˇ쎯ㄨㄟˋ3쎯	-10.3021
ㄨㄤˇ2쎯ㄨㄤˇ2쎯	-10.3021
\	-10.3024
ㄒㄩㄝˊ1쎯ㄓㄨㄢ0쎯ㄧㄝˋ0쎯	-10.3024
▁̇ㄉㄜ0쎯ㄍㄜˊ0쎯ㄇㄧㄥˋ쎯	-10.3028
ㄈㄤˊ0쎯ㄓˇ0쎯	-10.3035
ㄌㄨㄛˊ1쎯	-10.3035
▁̇ㄉㄜ1쎯ㄒㄧㄥˊ1쎯ㄕˋ5쎯	-10.3039
×쎁	-10.3043
ㄨˇ3쎯ㄓㄨㄤ3쎯	-10.3044
ㄌㄧㄡˊ5쎯	-10.3044
ㄒㄧㄠ1쎯	-10.3048
,ㄊㄨㄥˊ0쎯ㄋㄧㄢˊ0쎯	-10.3052
ㄌㄟˋ1쎯	-10.3052
”(	-10.3056
ㄏㄨㄛˊ0쎯ㄉㄨㄥˋ0쎯.	-10.3057
ㄔㄡˇ0쎯	-10.3058
ㄖㄨㄟˋ0쎯	-10.3059
ㄏㄜˊ3쎯ㄌㄧㄡˊ3쎯	-10.3061
ㄓㄨㄢ0쎯ㄓㄨˋ3쎯ㄩˊ0쎯	-10.3066
ㄍㄨㄥ1쎯	-10.3071
ㄎㄜ2쎯ㄎㄜ2쎯ㄔㄤˊ0쎯	-10.3073
ㄙㄨㄣˇ1쎯	-10.3073
ㄑㄧˇ2쎯ㄧㄝˋ0쎯,	-10.3074
쎁쎀ㄎㄜˋ0쎯	-10.3075
ㄐㄧㄠ6쎯ㄩˋ3쎯ㄐㄩˊ0쎯	-10.3076
ㄓㄠˋ2쎯ㄇㄧㄥˊ1쎯	-10.3077
ㄕㄨ9쎯ㄙㄨㄥˋ2쎯	-10.308
ㄕㄤˇ0쎯ㄈㄚ쎯ㄅㄧㄠˇ0쎯	-10.3081
ㄇㄨˋ0쎯ㄇㄚˇ0쎯	-10.3081
ㄐㄧㄣˋ0쎯ㄔㄨ0쎯ㄎㄡˇ쎯	-10.3083
쎁쎉쎃쎉ㄋㄧㄢˊ0쎯	-10.3083
ㄐㄧㄥ8쎯ㄘㄞˇ1쎯	-10.3089
ㄐㄧㄡˇ0쎯ㄋㄧㄢˊ0쎯	-10.3089
ㄊㄨㄥˊ0쎯ㄋㄧㄢˊ0쎯	-10.309
ㄩㄢ2쎯	-10.3091
ㄌㄨㄛˊ2쎯ㄐㄧˊ9쎯	-10.3092
ㄕˊ0쎯ㄙˋ1쎯	-10.3093
ㄐㄧㄠ0쎯ㄐㄧㄝˋ3쎯	-10.3095
ㄈㄥˊ1쎯	-10.3096
ㄐㄩˋ4쎯ㄑㄧㄥˊ0쎯	-10.3098
ㄐㄧㄝ4쎯ㄐㄧㄣˋ1쎯	-10.3098
ㄗㄞˋ1쎯《	-10.3098
ㄗㄨˇ1쎯ㄔㄥˊ0쎯,	-10.31
ㄉㄚˋ쎯ㄑㄧˋ0쎯	-10.3102
ㄔˊ2쎯	-10.3104
ㄊㄠˇ쎯ㄌㄨㄣˊ2쎯	-10.3109
.쎃、	-10.3113
쎈.	-10.3122
쎁쎉쎄쎀ㄋㄧㄢˊ0쎯	-10.3123
ㄒㄧㄥ0쎯ㄑㄩˋ1쎯	-10.3123
ㄑㄧㄢˊ0쎯ㄕㄣ2쎯ㄨㄟˊ0쎯	-10.3123
ㄔㄤˊ0쎯ㄆㄧㄢ2쎯	-10.3124
ㄐㄧㄣˋ1쎯ㄋㄧㄢˊ0쎯	-10.3127
ㄆㄧㄥˊ0쎯ㄈㄤ0쎯ㄍㄨㄥ2쎯	-10.3134
ㄒㄧㄢˋ0쎯ㄐㄧˊ2쎯	-10.3135
쎉쎁	-10.3135
ㄧㄡˊ5쎯ㄒㄧˋ0쎯ㄓㄨㄥ0쎯	-10.3137
ㄅㄧˇ3쎯ㄐㄧˋ1쎯ㄅㄣˇ0쎯	-10.3141
,ㄉㄨㄥ0쎯	-10.3142
▁̇ㄉㄜ1쎯ㄗㄥˋ0쎯ㄍㄜˇ1쎯	-10.3143
ㄋㄧㄢˊ0쎯ㄌㄞˊ0쎯	-10.3144
ㄈㄣˋ1쎯	-10.315
ㄍㄨㄤ0쎯ㄗㄜˊ3쎯	-10.3151
ㄕㄨㄟˇ쎯ㄍㄨㄛˇ0쎯	-10.3152
ㄊㄧ0쎯ㄔㄤˊ0쎯	-10.3153
ㄙ4쎯ㄊㄢˇ0쎯	-10.3154
ㄗㄨㄛˋ2쎯ㄏㄠˇ0쎯	-10.3157
,ㄌㄧˋ1쎯ㄖㄣˊ3쎯	-10.3168
ㄕㄥ2쎯ㄧㄣ4쎯	-10.3169
ㄨㄟˊ1쎯	-10.3173
ㄓㄢˋ1쎯ㄍㄨㄛˊ0쎯	-10.3174
ㄧ0쎯ㄆㄧㄢ0쎯	-10.3176
ㄐㄧㄠ6쎯ㄒㄩㄝˊ1쎯ㄅㄢ1쎯	-10.3177
ㄍㄢˇ3쎯ㄕㄡˋ1쎯	-10.3178
ㄕㄥ1쎯ㄧㄚˊ3쎯	-10.3179
ㄍㄨㄤ0쎯ㄏㄨㄚˊ3쎯	-10.3179
ㄒㄧ3쎯ㄌㄚˋ1쎯	-10.3183
.쎃.	-10.3185
ㄧˊ0쎯ㄅㄧㄠˇ0쎯	-10.3185
ㄍㄠ0쎯ㄘㄥˊ0쎯	-10.3186
ㄧㄢˇ2쎯ㄐㄧㄥ6쎯	-10.3189
ㄓ0쎯ㄔㄨˇ0쎯	-10.3193
ㄌㄧㄤˇ0쎯ㄘˋ0쎯	-10.3197
ㄇㄛˊ0쎯ㄒㄧㄢˋ2쎯	-10.3198
ㄧㄡˋ4쎯	-10.3201
ㄑㄩㄢˊ1쎯ㄕㄨ0쎯	-10.3202
ㄢˋ2쎯ㄐㄧㄢˋ1쎯	-10.3206
쎁쎉쎄쎅ㄋㄧㄢˊ0쎯	-10.3206
ㄗㄨㄥˇ0쎯ㄊㄧ0쎯	-10.3207
ㄐㄧㄢˋ15쎯	-10.3207
ㄆㄧㄥˊ0쎯ㄊㄞ0쎯.	-10.3208
ㄇㄧˊ2쎯	-10.3209
ㄓㄚˊ0쎯	-10.321
ㄕㄢ0쎯ㄇㄞˋ3쎯	-10.3214
ㄉㄢˋ2쎯ㄕˋ15쎯	-10.3217
ㄇㄟˊ6쎯ㄊㄢˋ1쎯	-10.3219
ㄕㄡˋ3쎯	-10.322
ㄕˋ15쎯ㄨㄟˊ0쎯	-10.3221
ㄑㄧㄢ2쎯	-10.3223
ㄕㄥ1쎯ㄏㄨㄛˊ0쎯ㄓㄨㄥ0쎯	-10.3225
ㄖㄢˊ0쎯ㄦˊ1쎯	-10.3226
ㄧㄡ3쎯	-10.3229
▁̇ㄉㄜ1쎯ㄇㄨˋ1쎯	-10.3229
ㄊㄞˋ0쎯ㄗˇ0쎯	-10.323
ㄧㄡˇ1쎯ㄙㄨㄛˇ0쎯	-10.3231
ㄊㄢˊ2쎯	-10.3231
ㄓㄜˊ0쎯	-10.3233
ㄐㄧㄥˇ2쎯ㄔㄚˊ3쎯	-10.3233
ㄏㄨㄚ0쎯ㄕㄥ1쎯	-10.3236
ㄒㄩㄢˊ2쎯ㄓㄨㄢˇ쎯	-10.3237
)、《	-10.324
,ㄍㄠ0쎯	-10.3241
ㄋㄟˋ쎯ㄕㄜˋ0쎯	-10.3241
ㄩㄝ0쎯:“	-10.3243
ㄓˇ11쎯	-10.3246
ㄙㄠˇ0쎯	-10.3248
ㄋㄧㄡˊ쎯ㄖㄡˋ쎯	-10.3249
ㄔㄨㄥˊ2쎯ㄐㄧㄢˋ2쎯	-10.325
ㄅㄢ3쎯ㄈㄚ쎯	-10.3252
ㄌㄩˇ2쎯ㄏㄤˊ0쎯	-10.3254
ㄍㄨ4쎯	-10.3255
ㄈㄨˋ3쎯ㄎㄜ2쎯	-10.3256
ㄩˊ3쎯ㄌㄟˋ2쎯	-10.3257
.ㄑㄩㄢˊ1쎯ㄘㄨㄣ0쎯	-10.3267
ㄉㄚˋ쎯ㄧㄠ2쎯	-10.327
쎆.	-10.3274
ㄌㄧㄡˊ3쎯ㄊㄨㄥ0쎯	-10.3275
쎁쎉쎃쎈ㄋㄧㄢˊ0쎯	-10.3277
(ㄖㄨˊ0쎯	-10.3279
ㄐㄧˋ4쎯	-10.3281
ㄒㄧㄣ12쎯	-10.3284
ㄔㄡˊ0쎯	-10.3284
ㄦˊ1쎯ㄌㄞˊ0쎯	-10.3286
ㄍㄜˇ1쎯ㄍㄜˊ2쎯	-10.3286
ㄨˇ3쎯ㄕㄨˋ0쎯	-10.3288
ㄏㄨㄟˊ0쎯ㄉㄠˋ0쎯	-10.3288
:쎃	-10.329
ㄐㄧˊ8쎯》	-10.329
ㄌㄧㄤˇ0쎯ㄋㄧㄢˊ0쎯	-10.3291
ㄘㄢˊ1쎯	-10.3292
ㄌㄢˊ6쎯ㄑㄧㄡˊ2쎯	-10.3293
ㄎㄡˇ쎯ㄐㄧㄥˋ0쎯	-10.3294
ㄐㄧㄠ6쎯ㄕˋ18쎯	-10.3298
ㄒㄩㄣˋ5쎯	-10.3306
ㄈㄚ쎯ㄔㄨ0쎯	-10.3307
ㄔㄢˊ0쎯ㄨㄟˋ2쎯.	-10.331
ㄔㄨㄤ2쎯ㄎㄡˇ쎯	-10.3314
ㄐㄧㄝˇ1쎯ㄕˋ20쎯:	-10.3314
.ㄦˊ1쎯	-10.3316
쎂쎀쎀쎆	-10.3318
ㄉㄚˋ쎯ㄈㄨ0쎯	-10.3321
ㄘㄠˇ쎯ㄩㄢˊ4쎯	-10.3321
ㄒㄩㄝˊ1쎯ㄒㄩㄝˊ1쎯ㄕˋ0쎯	-10.3323
▁̇ㄉㄜ0쎯ㄉㄨㄢˋ0쎯	-10.3327
ㄑㄧㄣ0쎯	-10.3328
ㄇㄧㄥˊ0쎯ㄩˋ15쎯	-10.3337
ㄕ2쎯ㄕㄥ1쎯	-10.334
▁̇ㄉㄜ0쎯ㄉㄧㄢˇ1쎯	-10.3344
ㄌㄧㄥˊ2쎯ㄏㄨㄛˊ0쎯	-10.3346
ㄊㄧㄢ1쎯ㄐㄧㄚ0쎯	-10.3354
ㄒㄧㄠ2쎯ㄈㄤˊ0쎯	-10.3363
ㄏㄨㄚˊ1쎯ㄋㄚ1쎯	-10.3363
_	-10.3367
ㄒㄧㄡ1쎯ㄈㄨˋ7쎯	-10.3367
ㄏㄜ1쎯	-10.3368
ㄇㄧㄠˊ1쎯ㄕㄨˋ2쎯:	-10.3368
쎂쎀쎀쎈	-10.3373
ㄨㄤˊ1쎯ㄔㄠˊ1쎯	-10.3373
ㄕㄨˇ5쎯ㄕˊ0쎯	-10.3373
ㄕㄣˋ3쎯	-10.3375
ㄈㄨ	-10.3376
ㄅㄠ4쎯	-10.3376
▁̇ㄉㄜ1쎯ㄧˋ2쎯ㄕㄨˋ0쎯	-10.3381
ㄧˇ2쎯ㄔㄨㄥˊ1쎯ㄓˊ5쎯	-10.3381
,ㄩˊ0쎯	-10.3382
ㄐㄧㄥ8쎯ㄧㄥ1쎯	-10.3382
ㄑㄧㄢ4쎯	-10.3387
""	-10.3388
ㄈㄨ0쎯ㄖㄣˊ0쎯	-10.3393
ㄌㄧˇ8쎯ㄉㄧㄢˋ0쎯ㄔˊ0쎯	-10.3394
ㄎㄨㄤˋ2쎯ㄨˋ3쎯	-10.3401
ㄔㄠˊ0쎯	-10.3401
ㄕㄨ0쎯ㄐㄧˋ1쎯、	-10.3403
ㄑㄩㄢˊ0쎯ㄌㄧˋ6쎯	-10.3404
ㄋㄟˋ쎯ㄨㄞˋ쎯	-10.3405
ㄍㄢˇ1쎯	-10.3408
ㄍㄨㄢ2쎯ㄈㄤ0쎯	-10.3408
ㄕˋ8쎯,	-10.341
ㄒㄩㄝˊ1쎯ㄐㄧㄠˋ2쎯.	-10.341
ㄓㄨㄢˇ쎯ㄧˊ7쎯	-10.3414
ㄧㄢ1쎯	-10.3419
ㄍㄠ0쎯ㄆㄧㄣˇ쎯ㄓˋ4쎯	-10.3425
쎅ㄍㄨㄥ2쎯ㄌㄧˇ2쎯	-10.3426
▁̇ㄉㄜ0쎯ㄌㄧˇ3쎯ㄨㄟˋ2쎯	-10.3426
ㄅㄧㄥˋ0쎯ㄖㄣˊ0쎯	-10.3431
ㄕㄨㄟˋ2쎯	-10.3435
ㄍㄢˇ2쎯	-10.344
ㄒㄩㄝˊ1쎯ㄕˋ0쎯	-10.3442
ㄧ0쎯ㄌㄟˋ2쎯	-10.3442
ㄇㄟˇ0쎯ㄧ0쎯	-10.3445
ㄉㄤ0쎯ㄑㄧㄢˊ0쎯	-10.3453
ㄧㄝˇ0쎯ㄎㄜˇ0쎯	-10.3454
ㄍㄨㄛ3쎯ㄋㄟˋ쎯	-10.3455
ㄇㄛˊ3쎯ㄎㄨㄞˋ0쎯	-10.3459
ㄐㄧˋ3쎯ㄊㄨㄥˇ0쎯、	-10.346
ㄙㄜˋ2쎯	-10.346
ㄍㄨㄛˊ0쎯ㄈㄤˊ0쎯	-10.3462
ㄧㄢˊ5쎯ㄏㄞˇ0쎯	-10.3463
ㄏㄨㄛˇ1쎯ㄅㄢˋ3쎯	-10.3467
ㄔㄨㄢˊ0쎯ㄍㄢˇ3쎯ㄑㄧˋ7쎯	-10.3468
》ㄏㄜˊ2쎯《	-10.3469
ㄇㄨˋ8쎯	-10.3474
ㄐㄧ	-10.3475
ㄎㄠˇ0쎯ㄔㄚˊ3쎯	-10.3476
ㄕˊ0쎯ㄑㄧ0쎯	-10.3477
ㄕㄣ5쎯ㄎㄜˋ1쎯	-10.3479
ㄐㄧㄠ1쎯	-10.348
ㄉㄧㄢˋ0쎯ㄒㄧㄣˋ0쎯	-10.3484
,ㄓˇ4쎯	-10.3487
ㄌㄧㄢˊ4쎯ㄙㄞˋ쎯	-10.3488
ㄇㄛˋ9쎯	-10.3488
ㄐㄧㄠˋ4쎯ㄐㄧㄤˋ2쎯	-10.3492
ㄍㄨㄥ2쎯ㄅㄨˋ1쎯	-10.3493
ㄧㄡˊ2쎯ㄐㄧㄢˋ1쎯	-10.3496
ㄌㄧㄣˊ5쎯	-10.3496
ㄈㄚˊ1쎯	-10.3497
ㄈㄤ0쎯ㄈㄚˇ0쎯.	-10.3497
ㄍㄡˋ0쎯ㄐㄧㄢˋ2쎯	-10.3498
(,)	-10.3505
쎃)	-10.3507
ㄌㄢˊ2쎯ㄇㄨˋ1쎯	-10.3509
,ㄗㄨㄟˋ0쎯ㄏㄡˋ0쎯	-10.3511
(쎁).	-10.3518
ㄓㄨㄥ0쎯ㄒㄧ1쎯ㄧ3쎯	-10.3523
ㄓ4쎯ㄇㄚˊ1쎯	-10.3526
ㄧ0쎯ㄐㄧㄚ3쎯ㄐㄧˊ8쎯	-10.3529
ㄈㄤˊ3쎯ㄐㄧㄢ4쎯	-10.3533
ㄓㄚ0쎯	-10.3534
)ㄏㄜˊ2쎯	-10.3539
ㄊㄧㄝˇ쎯ㄌㄨˋ5쎯ㄐㄩˊ0쎯	-10.354
ㄒㄩㄢˇ0쎯ㄕㄡˇ0쎯	-10.3541
,ㄧˇ1쎯	-10.3543
ㄋㄢˊ0쎯ㄒㄧㄥˋ2쎯	-10.3546
ㄕㄤˇ0쎯ㄅㄨˋ4쎯	-10.355
ㄏㄨㄚ0쎯ㄐㄧㄠ7쎯	-10.355
▁̇ㄉㄜ1쎯ㄏㄜˊ5쎯ㄒㄧㄣ0쎯	-10.3553
ㄏㄣˇ0쎯ㄉㄚˋ쎯	-10.3554
ㄕˋ15쎯ㄐㄧㄥ2쎯	-10.3555
ㄒㄩㄝˊ1쎯ㄇㄧㄥˊ0쎯	-10.3557
ㄉㄧㄢˋ0쎯ㄧㄥˇ1쎯《	-10.3558
ㄊㄜˋ0쎯ㄔㄨㄥˊ1쎯	-10.3559
ㄐㄧㄥ8쎯ㄒㄩㄢˇ0쎯	-10.356
ㄨㄟˋ4쎯	-10.3567
ㄈㄢ2쎯ㄔㄠˇ쎯	-10.3569
ㄆㄧㄥˊ0쎯ㄈㄤ0쎯	-10.3574
,ㄔㄨˊ0쎯	-10.3574
ㄌㄧㄤˇ0쎯ㄖㄣˊ0쎯	-10.3577
▁̇ㄉㄜ1쎯ㄐㄧㄥ8쎯ㄕㄣˊ1쎯	-10.3577
ㄗㄨˇ1쎯ㄓ9쎯ㄕˊ3쎯ㄕ5쎯	-10.3578
쎁쎉쎆쎀ㄋㄧㄢˊ0쎯	-10.3579
쎅ㄆㄧㄥˊ0쎯ㄈㄤ0쎯ㄍㄨㄥ2쎯	-10.358
ㄏㄜˋ3쎯	-10.3581
ㄓ8쎯	-10.3581
ㄆㄨ1쎯	-10.3584
.ㄖㄨˊ0쎯	-10.3588
ㄆㄧㄥˊ0쎯ㄇㄧˇ0쎯	-10.359
쎉-	-10.359
ㄍㄨ6쎯	-10.3593
(ㄩㄢˊ4쎯	-10.3593
ㄏㄤˊ2쎯	-10.3594
쎄.쎅	-10.3594
ㄙㄡ0쎯	-10.3595
ㄐㄧㄢˇ8쎯ㄐㄧㄝˋ0쎯	-10.3596
ㄌㄠˇ0쎯ㄖㄣˊ0쎯	-10.36
ㄑㄧ1쎯ㄗˇ0쎯	-10.36
ㄏㄠˇ0쎯ㄆㄧㄥˊ1쎯	-10.3601
ㄌㄤˋ0쎯ㄇㄢˋ1쎯	-10.3603
ㄌㄧㄢˋ0쎯ㄒㄧˊ0쎯	-10.3607
ㄗㄨㄥˇ0쎯ㄖㄣˊ0쎯ㄎㄡˇ쎯	-10.3611
ㄇㄧㄠˊ1쎯ㄒㄧㄝˇ0쎯	-10.3613
ㄊㄧ0쎯ㄓˋ3쎯	-10.362
ㄑㄧㄠˊ1쎯	-10.3621
ㄊㄨ2쎯ㄖㄢˊ0쎯	-10.3622
ㄕㄤ0쎯ㄏㄞˋ2쎯	-10.3622
ㄓㄨˇ0쎯ㄐㄧㄠˇ0쎯	-10.3623
ㄖㄨㄥˊ6쎯ㄧㄝˋ3쎯	-10.3624
(ㄐㄧㄢˇ8쎯ㄔㄣˋ1쎯	-10.3625
ㄌㄨㄥˇ2쎯	-10.3626
ㄒㄧˇ0쎯ㄐㄧㄥˋ1쎯,	-10.3627
ㄓㄨˇ0쎯ㄧㄥˊ5쎯	-10.3627
ㄍㄨㄥ0쎯ㄗㄨㄛ0쎯ㄕˋ18쎯	-10.3628
ㄏㄣˊ쎯	-10.3634
쎄)	-10.3634
ㄔㄚ2쎯ㄘㄠˊ1쎯	-10.3635
ㄐㄧㄠ0쎯ㄏㄨㄟˋ1쎯ㄔㄨˇ0쎯	-10.3636
ㄐㄧㄡˋ4쎯ㄉㄡˋ2쎯ㄩˊ0쎯	-10.3639
ㄇㄠˋ3쎯	-10.3639
ㄌㄧˋ1쎯ㄉㄞˋ0쎯	-10.3642
ㄇㄛˊ0쎯ㄒㄧ13쎯	-10.3644
ㄖˋ0쎯ㄐㄧ13쎯	-10.3645
ㄨㄟ0쎯ㄐㄧ6쎯	-10.3648
쎀.쎃	-10.3651
ㄧㄡˊ1쎯ㄘˇ0쎯	-10.3656
ㄅㄧˋ9쎯	-10.3658
ㄧˋ8쎯	-10.3658
ㄏㄡˋ0쎯ㄖㄣˊ3쎯	-10.3659
ㄗˇ3쎯ㄙㄜˋ0쎯	-10.3663
ㄐㄧㄠ2쎯	-10.3666
,쎀쎀쎀	-10.3668
ㄕㄨˋ0쎯ㄒㄩㄝˊ1쎯ㄩㄢˋ2쎯	-10.367
ㄕˊ0쎯ㄋㄧㄢˊ0쎯ㄉㄞˋ0쎯	-10.367
ㄧㄝˋ0쎯ㄖㄣˊ0쎯ㄕㄨˇ5쎯	-10.367
(쎂	-10.3671
ㄎㄤ0쎯ㄒㄧ15쎯	-10.3671
ㄊㄠ	-10.3673
ㄅㄠˇ2쎯ㄏㄨˋ2쎯ㄡ0쎯	-10.3677
ㄔㄨˇ2쎯	-10.3679
ㄉㄤˋ1쎯	-10.3685
ㄅㄧㄢ1쎯ㄇㄚˇ2쎯	-10.3692
ㄈㄨˋ8쎯ㄐㄧㄠ6쎯ㄕㄡˋ2쎯,	-10.3697
ㄧㄡˊ2쎯ㄓㄥˋ3쎯	-10.3697
ㄘㄞˊ3쎯	-10.3699
ㄔㄤˇ0쎯ㄕㄤ1쎯	-10.3699
“”	-10.37
쎃ㄎㄜˋ0쎯	-10.3711
ㄊㄧ0쎯ㄋㄟˋ쎯	-10.3712
ㄧㄢ3쎯	-10.3714
ㄧ0쎯ㄘㄥˊ0쎯	-10.3718
ㄚ3쎯	-10.3719
ㄧㄝˇ2쎯ㄕㄥ1쎯	-10.3719
ㄉㄨㄥ0쎯ㄍㄨㄢˇ2쎯ㄕˋ4쎯	-10.3723
ㄓ1쎯ㄉㄨㄟˋ0쎯	-10.3723
ㄓˋ1쎯》	-10.3725
ㄢ3쎯	-10.3728
ㄅㄧㄥˇ1쎯ㄔㄥˊ3쎯	-10.3729
쎁쎉쎄쎁ㄋㄧㄢˊ0쎯	-10.373
ㄇㄧㄥˋ쎯ㄇㄧㄥˊ0쎯ㄨㄟˊ0쎯	-10.374
ㄖㄣˊ0쎯ㄎㄡˇ쎯쎁	-10.3742
ㄐㄧㄥˋ3쎯	-10.3742
ㄍㄨㄢˋ0쎯	-10.3749
ㄔㄤˇ0쎯ㄈㄤˊ3쎯	-10.3751
▁̇ㄉㄜ1쎯ㄕˋ3쎯ㄐㄧㄝˋ3쎯	-10.3757
,ㄘㄞˇ0쎯ㄩㄥˋ0쎯	-10.3757
ㄇㄟˇ1쎯ㄨㄟˋ3쎯	-10.3758
ㄙㄨㄛˇ0쎯ㄓˋ7쎯	-10.376
ㄕㄨㄤ0쎯ㄈㄤ0쎯	-10.3763
()、	-10.3764
ㄔㄥˊ1쎯ㄒㄧㄢˋ1쎯	-10.3765
ㄕˊ0쎯ㄐㄧㄡˇ0쎯	-10.3767
ㄇㄤˊ0쎯	-10.3767
ㄢ	-10.3768
,ㄘㄢ0쎯ㄐㄧㄚ0쎯	-10.3768
ㄗㄨㄟˋ0쎯ㄉㄧ0쎯	-10.3769
ㄅㄧㄢˋ0쎯ㄔㄨㄥˊ1쎯	-10.377
ㄉㄧㄢˋ0쎯ㄌㄢˇ2쎯	-10.3772
ㄑㄧㄢˊ0쎯ㄈㄥ6쎯	-10.3774
ㄙㄨㄟˋ0쎯.	-10.3776
ㄓㄢˇ0쎯	-10.3777
▁̇ㄌㄜ쎯ㄊㄚ0쎯	-10.3782
ㄧ0쎯ㄙㄨㄛˇ0쎯	-10.3787
쎁쎉쎄쎂ㄋㄧㄢˊ0쎯	-10.3789
ㄉㄨㄣˋ1쎯	-10.3791
ㄔㄨㄥ2쎯	-10.3794
ㄍㄨㄥ7쎯	-10.3794
ㄉㄧˇ0쎯	-10.3798
ㄠˋ3쎯ㄇㄣˊ0쎯	-10.38
ㄅㄛˊ5쎯ㄕˋ0쎯ㄏㄡˋ0쎯	-10.38
ㄓㄨˇ0쎯ㄓˋ5쎯	-10.3803
ㄆㄟˋ2쎯ㄧㄡˇ1쎯	-10.3804
▁̇ㄉㄜ1쎯ㄧ0쎯ㄎㄨㄢˇ쎯	-10.3809
ㄧㄚ1쎯ㄙㄨˋ8쎯	-10.3809
ㄐㄩˊ0쎯ㄅㄨˋ4쎯	-10.3815
쎂쎀쎀쎅	-10.3819
,ㄧㄡˋ0쎯ㄔㄣˋ1쎯	-10.3821
ㄩˇ5쎯	-10.3823
ㄇㄚˇ0쎯ㄎㄜˋ0쎯ㄙ3쎯	-10.3825
ㄙㄚˇ0쎯	-10.3829
ㄍㄨˋ1쎯ㄓㄤˋ6쎯	-10.383
ㄏㄡˊ2쎯	-10.383
ㄏㄣˇ0쎯ㄍㄠ0쎯	-10.3836
ㄨˇ0쎯ㄕˊ0쎯	-10.3837
ㄑㄩˊ0쎯ㄉㄠˋ3쎯	-10.3837
ㄧ0쎯ㄅㄞˇ0쎯	-10.3841
ㄒㄧㄚˊ3쎯	-10.3846
쎉ㄍㄜˇ0쎯	-10.3847
,ㄋㄧㄢˊ0쎯	-10.3848
ㄍㄨㄟˇ0쎯	-10.3848
ㄎㄠˇ0쎯ㄌㄩˋ1쎯	-10.3852
ㄏㄠˊ1쎯ㄇㄧˇ0쎯	-10.3859
ㄓㄨˇ0쎯ㄔˊ4쎯ㄖㄣˊ0쎯	-10.3859
ㄅㄢˋ0쎯ㄍㄨㄥ2쎯ㄊㄧㄥ0쎯	-10.386
ㄈㄚˇ0쎯ㄩㄢˋ2쎯	-10.3863
ㄕㄨ0쎯ㄩㄢˋ2쎯	-10.3863
.ㄇㄧㄥˊ1쎯	-10.3867
ㄒㄧㄢˋ0쎯ㄖㄣˊ0쎯,	-10.3867
ㄋㄚ1쎯ㄔㄤ0쎯	-10.3872
ㄌㄧˋ6쎯ㄧㄚˋ1쎯	-10.3872
쎇ㄋㄧㄢˊ0쎯	-10.3873
ㄉㄧˋ0쎯ㄗˇ0쎯	-10.3876
ㄊㄢˊ3쎯	-10.3881
ㄙˋ1쎯ㄐㄧˋ7쎯	-10.3882
쎁쎉쎄쎈ㄋㄧㄢˊ0쎯	-10.3882
,ㄕˋ15쎯ㄧ0쎯ㄙㄨㄛˇ0쎯	-10.3883
,ㄕˋ15쎯ㄓˇ4쎯	-10.3894
ㄗㄨㄛ0쎯ㄆㄧㄣˇ쎯《	-10.3895
ㄕㄥ1쎯ㄉㄠˇ0쎯ㄕ2쎯	-10.3896
쎅쎁쎂	-10.3899
ㄕㄡˇ2쎯ㄐㄧㄚ3쎯	-10.39
、ㄒㄧ1쎯	-10.3901
ㄓㄨㄢ0쎯ㄧㄝˋ0쎯ㄏㄨㄚˋ0쎯	-10.3904
ㄕˋ15쎯ㄧ0쎯ㄨㄟˋ2쎯	-10.3904
ㄧ0쎯ㄎㄨㄞˋ0쎯	-10.3907
ㄕㄤˇ0쎯ㄇㄧㄢˋ0쎯	-10.3909
ㄓㄨˋ6쎯	-10.391
쎂쎄쎀	-10.3922
쎁쎈쎆	-10.3931
쎆)	-10.3931
ㄓ1쎯ㄈㄨˋ1쎯	-10.3934
#	-10.3934
ㄓㄣˇ0쎯	-10.3934
ㄉㄚˋ쎯ㄌㄧˋ0쎯	-10.3936
а	-10.3941
ㄅㄨˋ4쎯ㄅㄨˋ4쎯ㄔㄤˊ0쎯	-10.3942
ㄈㄥ1쎯ㄑㄧㄥˊ0쎯	-10.3944
ㄡ0쎯ㄨㄟˇ5쎯	-10.3944
ㄕㄣ2쎯ㄕㄤˇ0쎯	-10.3947
ㄏㄨㄚˋ0쎯ㄉㄢˋ0쎯	-10.3951
ㄒㄧㄣˋ0쎯ㄩˋ15쎯	-10.3952
ㄍㄨㄛˊ0쎯ㄨㄤˊ1쎯	-10.3955
▁̇ㄉㄜ1쎯ㄇㄧㄥˊ0쎯ㄗˋ1쎯	-10.3956
ㄏㄨㄚˋ0쎯、	-10.3957
ㄧㄢ0쎯	-10.396
ㄅㄨˋ0쎯ㄒㄧㄤˊ0쎯	-10.3962
ㄔㄥˊ10쎯	-10.3962
쎁쎀쎀%	-10.3973
ㄈㄢ1쎯	-10.3975
ㄕㄥ1쎯ㄌㄧˇ3쎯	-10.3978
》ㄗㄚˊ0쎯ㄓˋ1쎯	-10.3982
쎁쎉쎄쎄ㄋㄧㄢˊ0쎯	-10.3984
ㄔㄥˊ0쎯ㄩˇ6쎯	-10.3985
ㄕ6쎯ㄉㄨˋ2쎯	-10.3987
-쎇	-10.3989
ㄧㄝˋ3쎯ㄧㄚ1쎯	-10.3989
ㄌㄧㄢˊ0쎯ㄗㄞˇ1쎯	-10.399
.ㄧ0쎯ㄅㄢ2쎯	-10.3991
ㄐㄧㄤˋ0쎯	-10.3992
쎁쎉쎅쎅ㄋㄧㄢˊ0쎯	-10.3992
ㄕㄥ1쎯ㄔㄢˇ0쎯ㄒㄧㄢˋ3쎯	-10.3993
ㄍㄨㄤ0쎯ㄒㄩˋ5쎯	-10.3995
ㄣ	-10.3997
ㄍㄨㄥ5쎯ㄉㄧㄢˋ0쎯	-10.3997
ㄊㄨㄛ1쎯	-10.3998
ㄩㄢˊ6쎯	-10.4003
ㄔˊ3쎯	-10.4003
ㄇㄧㄥˊ1쎯ㄑㄩㄝˋ1쎯	-10.4008
ㄍㄜˋ0쎯ㄐㄧㄝˋ3쎯	-10.4009
ㄍㄥ0쎯ㄕˋ15쎯	-10.401
ㄔㄢˊ0쎯ㄨㄟˋ2쎯,	-10.4013
ㄉㄨㄥ0쎯ㄋㄚ1쎯ㄧㄚˋ1쎯	-10.4014
ㄕㄤˇ0쎯ㄐㄧˊ2쎯	-10.402
ㄍㄨˇ0쎯ㄌㄠˇ0쎯	-10.4021
ㄈㄣ0쎯ㄒㄧㄤˇ0쎯	-10.4022
쎁쎀ㄍㄜˇ0쎯	-10.4024
》ㄧ0쎯ㄕㄨ0쎯	-10.4028
ㄧˋ20쎯	-10.4031
ㄅㄧㄢˋ1쎯ㄌㄧˋ6쎯.	-10.4031
ㄓˋ3쎯ㄧㄠˋ0쎯	-10.4032
、ㄒㄧㄠˇ0쎯	-10.4033
ㄧㄢˊ6쎯ㄐㄧㄡ1쎯ㄕˋ18쎯	-10.4034
,ㄍㄣ0쎯ㄐㄩ4쎯	-10.4035
ㄙㄨㄣˇ0쎯ㄕ1쎯	-10.4037
ㄒㄧㄝ1쎯	-10.4041
ㄐㄧㄠˋ4쎯ㄉㄨㄛ0쎯	-10.4041
ㄐㄧ6쎯ㄍㄡˋ0쎯,	-10.4041
ㄕㄨˋ4쎯	-10.4042
ㄉㄚˋ쎯ㄌㄡˊ1쎯	-10.4042
ㄏㄢˋ4쎯ㄐㄧㄝ4쎯	-10.4043
ㄑㄩㄢˊ1쎯ㄊㄧ0쎯	-10.4044
:ㄓ1쎯ㄔˊ4쎯	-10.4046
ㄘㄨㄣ0쎯ㄖㄣˊ0쎯	-10.4048
ㄏㄤˊ3쎯ㄊㄧㄢ0쎯	-10.405
ㄊㄢ0쎯	-10.4052
ㄊㄧㄠ0쎯	-10.4052
.ㄩㄥˋ0쎯ㄩˊ0쎯	-10.4052
ㄐㄧ7쎯ㄈㄨ1쎯	-10.4054
,ㄩㄢˊ4쎯ㄇㄧㄥˊ0쎯	-10.4055
ㄓㄨˋ3쎯ㄖㄨˋ0쎯	-10.4056
ㄨㄤˊ1쎯ㄍㄨㄛˊ0쎯	-10.4057
ㄒㄧˋ0쎯ㄑㄩ0쎯	-10.4059
ㄐㄧㄠ6쎯ㄕㄡˋ2쎯、	-10.4061
ㄕ4쎯	-10.4063
ㄑㄧ3쎯	-10.4063
ㄑㄧㄢˋ1쎯	-10.4063
ㄏㄨㄚˋ0쎯ㄍㄜˇ1쎯ㄨˋ3쎯	-10.4064
ㄧˊ8쎯ㄔㄨㄢˊ0쎯	-10.4069
ㄓㄥˋ3쎯ㄓˋ5쎯ㄅㄨˋ4쎯	-10.4072
ㄒㄧㄣ5쎯ㄧㄥˇ0쎯	-10.4075
ㄑㄩˋ0쎯ㄕˋ3쎯	-10.4081
ㄒㄧㄢˋ0쎯ㄖㄣˊ0쎯.	-10.4085
ㄨㄟˊ0쎯ㄍㄨㄤˇ0쎯ㄉㄚˋ쎯	-10.4088
ㄔㄨˇ0쎯,	-10.4091
ㄑㄧㄢ3쎯	-10.4093
ㄨ2쎯	-10.4093
ㄩㄥˋ0쎯ㄗㄨㄛ0쎯	-10.4099
ㄘㄞˇ0쎯ㄐㄧˊ8쎯	-10.4101
ㄏㄨㄟˋ2쎯ㄐㄧˋ0쎯ㄕ2쎯	-10.4101
ㄋㄟˋ쎯ㄧㄡˇ1쎯	-10.4101
ㄓㄨㄥ0쎯ㄓㄨㄢ0쎯	-10.4102
ㄨㄟˇ5쎯ㄊㄨㄛ0쎯	-10.4104
ㄑㄧㄚˋ1쎯	-10.4105
ㄅㄨˋ0쎯ㄗㄞˋ0쎯	-10.4107
ㄨㄞˋ쎯ㄩˇ6쎯	-10.411
ㄐㄧㄝ3쎯ㄐㄧㄥ5쎯	-10.4111
ㄉㄧㄢˋ0쎯ㄉㄨㄥˋ0쎯	-10.4111
ㄐㄧㄥˋ2쎯ㄙㄞˋ쎯	-10.4112
ㄕㄥ1쎯ㄐㄧㄤ2쎯	-10.4112
ㄔㄨ0쎯ㄕㄣ2쎯	-10.4124
ㄔㄜˋ1쎯	-10.4125
ㄍㄤ3쎯ㄨㄟˋ2쎯	-10.4125
ㄋㄩˇ0쎯ㄏㄞˊ1쎯	-10.4127
ㄈㄨˋ8쎯ㄓㄨˇ0쎯ㄖㄣˊ3쎯,	-10.4128
ㄎㄜˇ0쎯ㄗㄨㄛ0쎯ㄨㄟˊ0쎯	-10.4129
ㄧㄡˇ1쎯ㄒㄧㄤ0쎯ㄘㄨㄣ0쎯	-10.4132
ㄏㄨㄛˇ1쎯	-10.4132
ㄒㄧㄥˋ0쎯	-10.4133
ㄕˊ3쎯ㄌㄧˋ8쎯	-10.4136
ㄧㄠˊ0쎯	-10.414
ㄘㄨㄥˊ0쎯ㄦˊ1쎯	-10.4141
ㄐㄧ13쎯ㄐㄧㄢ4쎯,	-10.4146
ㄕㄤ1쎯ㄔㄤˊ1쎯	-10.415
ㄏㄞˇ0쎯ㄢˋ0쎯	-10.4151
▁̇ㄉㄜ1쎯ㄒㄩ4쎯ㄑㄧㄡˊ1쎯	-10.4158
ㄈㄨˋ4쎯ㄐㄧㄢˋ1쎯	-10.4158
ㄍㄨㄥ0쎯ㄔㄥˊ7쎯ㄕ2쎯.	-10.4159
ㄇㄟˋ0쎯	-10.4161
ㄕㄠˇ쎯ㄌㄧㄤˊ3쎯	-10.4163
ㄕㄥ1쎯ㄨˋ3쎯ㄒㄩㄝˊ1쎯	-10.4167
ㄖㄣˊ0쎯ㄐㄧㄢ4쎯	-10.4168
ㄉㄨㄥ0쎯ㄋㄚ1쎯ㄅㄨˋ4쎯	-10.417
ㄓˊ1쎯ㄌㄧˋ3쎯	-10.4173
ㄙㄨˊ쎯ㄔㄣˋ1쎯	-10.4173
▁̇ㄉㄜ1쎯ㄐㄧㄠ6쎯ㄩˋ3쎯	-10.4176
ㄒㄧㄣ5쎯ㄒㄧㄥ0쎯	-10.4179
ㄧㄣˇ0쎯ㄑㄧㄥˊ2쎯	-10.4182
ㄧㄤˊ0쎯ㄓㄡ1쎯	-10.4183
쎁쎉쎃쎂ㄋㄧㄢˊ0쎯	-10.4185
?”	-10.4187
ㄕˋ12쎯ㄐㄧㄠˇ0쎯	-10.4189
ㄅㄧㄢ1쎯ㄐㄩˋ4쎯	-10.4193
ㄊㄠˇ쎯	-10.4196
ㄧ0쎯ㄊㄧ0쎯ㄏㄨㄚˋ0쎯	-10.4198
ㄗㄨㄟˋ0쎯ㄒㄧㄠˇ0쎯	-10.4199
ㄊㄨㄥˇ0쎯ㄓˋ5쎯	-10.4201
ㄏㄡˊ1쎯	-10.4207
ㄐㄩㄝˊ6쎯	-10.4208
,ㄑㄩㄢˊ1쎯	-10.4215
ㄕㄨˇ1쎯ㄒㄧㄥˋ2쎯	-10.4215
ㄗㄜˊ0쎯ㄕˋ15쎯	-10.4218
ㄇㄠˋ1쎯ㄒㄧㄢˇ1쎯	-10.4232
!”	-10.4237
ㄍㄨㄥˋ1쎯ㄒㄧㄢˋ8쎯.	-10.4238
ㄒㄧㄤ0쎯ㄘㄨㄣ0쎯	-10.4238
ㄍㄤˇ쎯ㄎㄡˇ쎯	-10.4238
ㄍㄨㄥ0쎯ㄔㄥˊ7쎯ㄐㄧˋ3쎯	-10.424
ㄠˋ3쎯	-10.4241
ㄕㄠˋ1쎯ㄒㄧㄥ0쎯	-10.4244
ㄑㄧㄣ1쎯	-10.4245
▁̇ㄉㄜ1쎯ㄉㄧˋ3쎯ㄧ0쎯	-10.4246
ㄨㄣˊ2쎯ㄇㄧㄥˊ0쎯	-10.4247
ㄩㄝˋ0쎯쎂쎈ㄖˋ0쎯	-10.4249
ㄉㄧㄢˋ0쎯ㄘˊ6쎯	-10.4253
ㄌㄨˋ5쎯ㄒㄧㄢˋ3쎯	-10.4258
,ㄓ1쎯ㄔˊ4쎯	-10.4259
ㄓㄡ4쎯	-10.426
ㄑㄧˇ2쎯ㄧㄝˋ0쎯ㄐㄧㄚ3쎯	-10.4261
ㄧ0쎯ㄊㄧ0쎯	-10.4267
ㄒㄧㄣ5쎯ㄒㄧㄢ3쎯	-10.4267
ㄇㄡˇ쎯ㄧ0쎯	-10.4268
ㄍㄨㄛ0쎯ㄌㄩˋ4쎯	-10.4269
ㄒㄧ1쎯ㄅㄟˇ쎯ㄅㄨˋ4쎯	-10.427
ㄧˋ0쎯ㄩㄢˊ0쎯,	-10.4273
ㄐㄧˋ0쎯ㄌㄧㄤˊ3쎯	-10.4273
ㄩㄢˊ0쎯ㄋㄧㄢˊ0쎯	-10.4275
ㄙㄨˋ0쎯	-10.4275
쎀.쎈	-10.4278
ㄧˋ3쎯	-10.4279
%.	-10.4281
,ㄕㄥ1쎯ㄩˊ0쎯	-10.4283
ㄍㄨㄢ1쎯ㄘㄜˋ3쎯	-10.4285
ㄒㄧㄚˊ2쎯	-10.4288
ㄑㄧㄤ0쎯	-10.4288
、ㄅㄞˊ0쎯	-10.4289
ㄌㄧˇ3쎯ㄒㄩㄝˊ1쎯	-10.4291
ㄧㄡˊ1쎯ㄓㄨㄥ0쎯ㄍㄨㄛˊ0쎯	-10.4293
,ㄋㄧˇ1쎯	-10.4295
▁̇ㄌㄜ쎯ㄉㄚˋ쎯ㄌㄧㄤˊ3쎯	-10.4298
ㄕㄚ1쎯	-10.4301
ㄇㄧㄢˋ0쎯ㄐㄧ11쎯쎇	-10.4303
ㄌㄧㄢˊ4쎯ㄅㄤ0쎯	-10.4304
ㄅㄚ	-10.4304
ㄔㄚ1쎯ㄧˋ7쎯	-10.4315
ㄙㄢ0쎯ㄔㄨㄥˊ1쎯	-10.4319
ㄒㄧㄣ0쎯ㄌㄧㄥˊ2쎯	-10.432
ㄐㄧㄚ0쎯ㄇㄥˊ1쎯	-10.432
ㄐㄧㄥ8쎯ㄇㄟˇ1쎯	-10.4322
ㄌㄨˊ2쎯	-10.4324
,ㄔㄥˊ0쎯ㄌㄧˋ3쎯ㄩˊ0쎯	-10.4324
.쎆	-10.4326
ㄐㄧㄥ8쎯ㄒㄧˋ1쎯	-10.4327
の	-10.4328
ㄉㄧㄢˋ0쎯ㄓㄢˋ2쎯	-10.4329
ㄋㄧ쎯	-10.433
ㄏㄞˇ0쎯ㄋㄚ1쎯ㄕㄥˇ0쎯	-10.4333
ㄇㄡˇ쎯ㄔㄨㄥˊ1쎯	-10.4337
≤	-10.4339
→	-10.434
ㄍㄣ0쎯ㄅㄣˇ0쎯	-10.4343
ㄉㄥˇ0쎯ㄓˊ4쎯	-10.4347
ㄖㄤˋ쎯ㄋㄧˇ1쎯	-10.435
ㄌㄨˇ0쎯	-10.4353
ㄐㄧㄚˋ3쎯	-10.4355
ㄊㄜˋ0쎯ㄧㄡˇ1쎯	-10.4356
ㄕˋ20쎯ㄈㄤˋ쎯	-10.4357
ㄔㄡˊ6쎯	-10.4358
ㄚ1쎯	-10.4359
ㄒㄧㄢˋ1쎯ㄓㄨㄤˋ1쎯	-10.4363
ㄕˋ4쎯ㄓㄥˋ3쎯	-10.4367
▁̇ㄌㄜ쎯ㄗˋ0쎯ㄐㄧˇ0쎯	-10.4368
ㄉㄢ1쎯	-10.4369
ㄍㄢ1쎯ㄘㄠˇ쎯	-10.4369
,ㄓ2쎯	-10.4371
ン	-10.4371
ㄐㄧㄚ0쎯ㄕㄤˇ0쎯	-10.4372
ㄑㄧˇ2쎯	-10.4373
ㄌㄚˋ2쎯	-10.4374
“ㄙㄢ0쎯	-10.4375
ㄒㄧ9쎯	-10.4375
,ㄖㄨˊ0쎯ㄍㄨㄛˇ0쎯	-10.4378
,ㄕㄣˋ1쎯ㄓˋ0쎯	-10.4378
“ㄓㄨㄥ0쎯ㄍㄨㄛˊ0쎯	-10.4378
ㄐㄧˊ7쎯	-10.4379
ㄉㄨㄛ0쎯ㄕㄠˇ쎯	-10.4381
ㄑㄧㄡ3쎯	-10.4381
ㄉㄨ0쎯	-10.4383
.쎄	-10.4384
쎁쎂쎀쎀	-10.4386
ㄒㄧㄣ5쎯ㄏㄨㄚˊ1쎯	-10.4386
ㄔㄤˊ0쎯ㄔㄨㄣ0쎯	-10.4386
ㄒㄧˋ1쎯ㄋㄧˋ2쎯	-10.4387
ㄈㄨˋ8쎯ㄐㄧㄠˋ2쎯ㄔㄤˊ0쎯	-10.4387
ㄌㄧㄥˋ0쎯ㄧㄡˇ1쎯	-10.4388
,ㄑㄩㄢˊ1쎯ㄘㄨㄣ0쎯	-10.4389
ㄊㄚˋ0쎯ㄓㄢˇ2쎯	-10.439
ㄩˋ6쎯ㄘㄜˋ3쎯	-10.439
ㄌㄨˇ2쎯ㄒㄩㄣˋ3쎯	-10.4399
ㄒㄧㄢˋ1쎯ㄧˇ1쎯	-10.4402
▁̇ㄉㄜ1쎯ㄩㄢˊ4쎯ㄗㄜˊ0쎯	-10.4409
ㄏㄢˋ1쎯	-10.4413
ㄓㄠ0쎯ㄆㄧㄣˋ0쎯	-10.4413
ㄉㄧㄢˇ1쎯ㄐㄧ2쎯	-10.4414
ㄘㄞˊ2쎯ㄈㄨˋ11쎯	-10.4414
ㄧ0쎯ㄉㄨㄟˋ1쎯	-10.4417
ㄌㄧㄢˊ3쎯ㄏㄨㄚ0쎯	-10.4419
ㄇㄟˇ1쎯ㄍㄨㄢ1쎯	-10.4421
ㄏㄜˊ2쎯ㄑㄧˊ1쎯ㄊㄚ0쎯	-10.4422
ㄧˋ1쎯ㄨˋ2쎯	-10.4425
ㄕㄨㄟˋ1쎯ㄨˋ2쎯ㄐㄩˊ0쎯	-10.4426
ㄊㄚˋ0쎯	-10.4435
ㄊㄧㄥˇ0쎯	-10.4437
ㄐㄩㄝˊ14쎯	-10.4439
ㄘㄨㄣ0쎯ㄓㄨㄤ1쎯	-10.4441
ㄖㄨˋ0쎯ㄓㄨˇ0쎯ㄧㄠ4쎯	-10.4442
ㄍㄨㄢ1쎯ㄉㄧㄢˇ1쎯	-10.4443
ㄕㄨㄟˋ1쎯ㄨˋ2쎯	-10.4445
ㄎㄨㄥˇ1쎯ㄅㄨˋ3쎯	-10.4445
ㄆㄨˇ2쎯ㄐㄧˊ0쎯	-10.4448
ㄈㄥ2쎯	-10.4449
ㄌㄨˊ1쎯	-10.445
ㄇㄧㄢˋ0쎯ㄐㄧ11쎯쎈	-10.4452
ㄊㄞ1쎯	-10.4463
ㄅㄨˋ0쎯ㄍㄨㄛ0쎯	-10.4463
ㄔㄤˊ4쎯ㄨㄟˇ5쎯	-10.4469
ㄩㄝˋ0쎯쎈ㄖˋ0쎯	-10.4471
ㄈㄣ0쎯ㄐㄩˊ0쎯	-10.4476
ㄡ1쎯ㄇㄟˇ1쎯	-10.4476
ㄧㄢˊ4쎯、	-10.4477
ㄅㄧㄝˊ0쎯ㄇㄧㄥˊ0쎯:	-10.4481
ㄈㄣ0쎯ㄐㄧㄠˋ2쎯	-10.4483
ㄒㄧˋ1쎯ㄐㄩㄣ4쎯	-10.4484
ㄈㄚ쎯ㄉㄨㄥˋ0쎯	-10.4484
ㄐㄧㄣˇ2쎯ㄇㄧˋ1쎯	-10.4486
ㄈㄤˊ0쎯ㄏㄨˋ2쎯	-10.4489
,ㄅㄟˇ쎯	-10.449
ㄏㄨㄛˋ1쎯ㄩㄣˋ1쎯	-10.4491
ㄔㄤˊ0쎯ㄧㄠ2쎯	-10.4494
ㄩㄝˋ0쎯쎁쎀ㄖˋ0쎯	-10.4496
ㄐㄧㄝ4쎯ㄉㄞ1쎯	-10.4501
ㄧㄡˇ1쎯:	-10.4502
ㄌㄞˊ0쎯ㄕㄨㄟˋ0쎯	-10.4506
ㄓㄨㄥ0쎯ㄋㄚ1쎯	-10.4506
ㄩㄥˇ0쎯ㄩㄢˇ쎯	-10.4509
ㄒㄧㄤ1쎯ㄒㄧㄣˋ0쎯	-10.4514
ㄙㄨㄟˊ0쎯	-10.4515
ㄅㄠ6쎯ㄗˇ0쎯	-10.4518
ㄓ2쎯ㄧㄠ4쎯	-10.452
ㄇㄟˇ0쎯ㄧ0쎯ㄍㄜˇ0쎯	-10.4523
ㄆㄧㄥˊ0쎯ㄊㄞ0쎯,	-10.4524
ㄎㄨㄣˋ쎯	-10.4524
ㄌㄢˊ6쎯	-10.4525
ㄜˊ3쎯	-10.4526
ㄋㄨㄥˊ1쎯ㄩˋ2쎯	-10.4527
ㄈㄢˊ2쎯	-10.4527
ㄓ0쎯ㄗˇ0쎯	-10.4529
ㄔㄨ0쎯ㄧㄢˇ3쎯	-10.453
ㄔㄣˋ0쎯	-10.4534
,ㄕˋ15쎯ㄧ0쎯ㄍㄜˇ0쎯	-10.4534
ㄐㄧˋ2쎯ㄕㄨˋ0쎯、	-10.4535
▁̇ㄉㄜ1쎯ㄓˋ4쎯ㄌㄧㄤˊ3쎯	-10.4537
ㄙㄨㄟˊ3쎯	-10.4539
ㄑㄧㄥˊ0쎯ㄅㄠˋ0쎯	-10.454
ㄓㄣˋ3쎯ㄨㄟˋ2쎯ㄩˊ0쎯	-10.454
ㄌㄧˋ2	-10.454
ㄐㄧㄤˋ2쎯ㄉㄧㄠˋ2쎯	-10.4542
ㄖㄣˊ0쎯ㄎㄡˇ쎯쎂	-10.4542
ㄧ0쎯ㄉㄠˋ3쎯	-10.4542
ㄈㄨˊ23쎯	-10.4543
○	-10.4544
ㄈㄚ쎯ㄉㄧㄢˋ0쎯	-10.4544
,ㄓㄜˋ0쎯ㄕˋ15쎯	-10.4544
ㄆㄧㄥˊ4쎯	-10.4546
ㄏㄞˊ0쎯ㄎㄜˇ0쎯ㄧˇ2쎯	-10.4549
ㄉㄧㄥ6쎯	-10.4549
ㄉㄧˋ3쎯ㄐㄧㄡˇ0쎯	-10.4552
ㄒㄧ8쎯	-10.4552
ㄈㄤˇ2쎯	-10.4554
ㄉㄢˋ3쎯ㄕㄥ1쎯	-10.4558
ㄧㄢˊ11쎯	-10.4561
ㄕㄨˋ0쎯ㄩˇ6쎯	-10.4561
ㄓˇ1쎯	-10.4562
▁̇ㄉㄜ1쎯ㄒㄩㄝˊ1쎯ㄕㄥ1쎯	-10.4563
ㄍㄜˊ0쎯ㄇㄧㄥˋ쎯ㄉㄡˇ0쎯ㄓ	-10.4564
,ㄓㄜˋ0쎯ㄔㄨㄥˊ1쎯	-10.4564
ㄋㄨㄥˊ1쎯ㄉㄨˋ2쎯	-10.4567
ㄇㄚ1쎯	-10.4568
쎈ㄆㄧㄥˊ0쎯ㄈㄤ0쎯ㄍㄨㄥ2쎯	-10.4573
ㄙㄨˋ1쎯	-10.4574
ㄎㄨㄥˇ1쎯	-10.4575
ㄓㄨ4쎯ㄖㄡˋ쎯	-10.4575
ㄌㄟˋ2쎯ㄅㄧㄝˊ0쎯:	-10.4577
ㄓㄨㄥ0쎯ㄒㄧㄣ0쎯,	-10.458
▁̇ㄉㄜ1쎯ㄐㄧㄥ2쎯ㄐㄧˇ3쎯	-10.458
ㄓ1쎯ㄅㄨˋ4쎯	-10.4581
ㄓㄨㄥ0쎯ㄩㄢˊ4쎯	-10.4581
ㄔㄞ0쎯	-10.4582
쎁쎈쎇	-10.4582
ㄒㄩㄢ1쎯ㄅㄨˋ1쎯	-10.4583
》ㄏㄨㄛˋ2쎯	-10.4583
ㄍㄨㄤ0쎯ㄆㄢˊ1쎯	-10.4584
ㄏㄨˋ0쎯ㄒㄧㄤ1쎯	-10.4587
ㄨㄟ0쎯ㄏㄞˋ2쎯	-10.459
ㄇㄚˇ2쎯ㄊㄡˊ0쎯	-10.4591
ㄊㄚ4쎯	-10.4593
馀	-10.4593
ㄨㄟˊ0쎯ㄏㄜˊ5쎯ㄒㄧㄣ0쎯	-10.4593
,ㄒㄧ1쎯	-10.4595
ㄎㄜˋ0쎯ㄙ4쎯	-10.4597
ㄒㄧˇ2쎯ㄐㄩˋ4쎯	-10.4599
ㄌㄧˋ1쎯ㄐㄧㄥ2쎯	-10.4602
ㄖㄣˊ0쎯ㄑㄩㄣˊ1쎯	-10.4603
ㄐㄧㄤˋ2쎯ㄏㄨㄚˋ0쎯	-10.4604
ㄍㄥˇ2쎯	-10.4605
ㄨㄣˊ0쎯ㄌㄧㄢˊ4쎯	-10.4608
ㄔㄨˇ0쎯.	-10.4609
ㄉㄡˇ0쎯ㄓㄥ1쎯ㄏㄜˊ2쎯	-10.461
ㄐㄧˋ15쎯	-10.4611
ㄈㄚˇ0쎯ㄓˋ3쎯	-10.4611
ㄏㄨㄚˊ1쎯ㄅㄟˇ쎯	-10.4613
ㄍㄨㄢ1쎯ㄋㄧㄢˋ0쎯	-10.4619
(쎁	-10.462
ㄕㄡˇ2쎯ㄈㄨˇ3쎯	-10.4621
ㄍㄠ0쎯ㄕㄢ0쎯	-10.4623
ㄍㄨㄥ3쎯ㄌㄩˋ2쎯:	-10.4624
ㄇㄛˊ0쎯ㄌㄨㄣˊ2쎯	-10.4625
ㄏㄨㄣˋ0쎯ㄋㄧㄥˊ4쎯	-10.4627
ㄌㄧㄥˊ10쎯ㄕㄡˋ3쎯	-10.4631
,ㄊㄨㄥ0쎯ㄔㄤˊ4쎯	-10.4632
ㄈㄨˇ1쎯	-10.4635
ㄕˋ15쎯ㄨㄛˇ쎯ㄍㄨㄛˊ0쎯	-10.4635
ㄊㄧ0쎯ㄔㄨㄥˊ2쎯	-10.4637
ㄨㄣ0쎯ㄒㄧㄣ7쎯	-10.4638
ㄧㄢˊ1쎯ㄐㄧㄣˇ4쎯	-10.4638
ㄍㄨˋ0쎯ㄊㄧ0쎯	-10.4639
,ㄕˋ15쎯ㄧ0쎯ㄔㄨㄥˊ1쎯	-10.4641
ㄆㄧㄣˋ0쎯	-10.4644
ㄍㄨㄥˋ0쎯ㄏㄜˊ2쎯	-10.4649
ㄔㄨㄢˊ0쎯ㄉㄧˋ2쎯	-10.4651
ㄖㄣˊ0쎯ㄇㄧㄣˊ0쎯ㄓㄥˋ3쎯	-10.4652
ㄅㄠˋ4쎯	-10.4653
ㄖㄨㄥˊ4쎯ㄑㄧˋ7쎯	-10.4662
ㄏㄨㄤˊ0쎯ㄐㄧㄚ3쎯	-10.4666
쎁쎀쎀ㄎㄜˋ0쎯	-10.4667
ㄔㄤˊ0쎯、	-10.4668
ㄆㄨˊ0쎯ㄙㄚˋ0쎯	-10.4669
ㄅㄟˇ쎯ㄙㄨㄥˋ1쎯	-10.4671
ㄓㄨˋ1쎯ㄈㄤˊ3쎯	-10.4676
ㄔㄨ0쎯ㄙㄜˋ0쎯	-10.4676
ㄖㄣˊ3쎯ㄓˊ4쎯	-10.4678
,ㄦˊ1쎯ㄕˋ15쎯	-10.4679
ㄈㄨˋ8쎯ㄓㄨˇ0쎯ㄖㄣˊ3쎯.	-10.4679
ㄘㄤ2쎯	-10.4679
ㄑㄧㄢˊ5쎯	-10.468
ㄋㄚ1쎯ㄏㄞˇ0쎯	-10.4683
ㄔㄜ0쎯ㄐㄧㄢ4쎯	-10.4686
ㄒㄧㄚˋ0쎯ㄅㄨˋ4쎯	-10.4686
ㄖˋ0쎯,	-10.4689
ㄐㄧˊ2쎯ㄅㄧㄝˊ0쎯	-10.469
쎃쎂쎀	-10.469
ㄈㄤˊ0쎯ㄩˋ11쎯	-10.4691
ㄇㄛˋ0쎯ㄒㄧㄤˋ3쎯ㄙㄨˋ2쎯	-10.4692
ㄏㄨㄟ3쎯ㄏㄨㄤˊ4쎯	-10.4692
ㄌㄨˋ5쎯、	-10.4694
ㄐㄧㄥˋ2쎯	-10.4694
ㄅㄞˊ0쎯ㄩㄣˊ0쎯	-10.4697
ㄧㄝˋ3쎯ㄐㄧㄥ5쎯	-10.4698
ㄨˋ3쎯ㄊㄧ0쎯	-10.4698
.ㄈㄣ0쎯ㄅㄨˋ1쎯ㄩˊ0쎯	-10.4699
),ㄈㄨˊ12쎯ㄐㄧㄢˋ2쎯	-10.4699
ㄕˋ3쎯ㄐㄧㄝˋ3쎯ㄍㄜˋ0쎯	-10.4699
ㄇㄥˇ2쎯	-10.47
.ㄒㄧㄢˋ1쎯ㄧㄡˇ1쎯	-10.4701
ㄗㄣˇ쎯ㄧㄤˋ0쎯	-10.4704
ㄅㄨˋ4쎯ㄔㄤˊ0쎯	-10.4705
ㄅㄚ0쎯ㄋㄧㄢˊ0쎯	-10.4707
ㄙㄢ0쎯ㄐㄧㄠˇ0쎯	-10.4708
ㄎㄜ2쎯ㄒㄩㄝˊ1쎯ㄐㄧㄚ3쎯	-10.4713
ㄑㄧˇ4쎯,	-10.4714
ㄐㄧㄢ7쎯ㄍㄨㄢˇ1쎯	-10.4714
ㄕ1쎯ㄅㄞˋ0쎯	-10.4715
ㄒㄧㄢ1쎯ㄏㄡˋ0쎯ㄗㄞˋ1쎯	-10.4719
ㄑㄧㄢˊ0쎯ㄨㄤˇ2쎯	-10.472
쎁쎉쎄쎃ㄋㄧㄢˊ0쎯	-10.472
ㄊㄜˋ0쎯ㄉㄧㄢˇ1쎯ㄕˋ15쎯	-10.472
ㄐㄧㄝˋ3쎯ㄇㄧㄢˋ0쎯	-10.4721
ㄒㄩㄝˊ1쎯ㄐㄧˋ3쎯	-10.4724
ㄓㄨˇ0쎯ㄧㄠ4쎯ㄧㄡˇ1쎯	-10.4725
ㄧㄢˇ3쎯ㄗㄡˋ0쎯	-10.4725
-쎉	-10.4728
ㄌㄜˋ0쎯ㄑㄧˋ7쎯	-10.4729
ㄍㄨ5쎯ㄍㄢ0쎯	-10.4732
ㄐㄧㄚ0쎯ㄧˇ2쎯	-10.4739
ㄌㄠ쎯ㄔㄨ0쎯	-10.4739
ㄊㄨˊ3쎯ㄌㄧㄠˋ0쎯	-10.4741
ㄌㄥˇ쎯ㄑㄩㄝˋ0쎯	-10.4743
ㄕㄨˋ3쎯ㄓ10쎯	-10.4744
ㄧㄣˊ0쎯	-10.4746
ㄔㄨㄥ0쎯ㄐㄧ2쎯	-10.4749
쎂쎀쎁쎄ㄋㄧㄢˊ0쎯	-10.475
ㄌㄨㄣˊ2쎯ㄕㄨˋ2쎯	-10.4752
ㄅㄣˇ0쎯ㄕㄨ0쎯ㄕˋ15쎯	-10.4756
ㄡ0쎯ㄋㄟˋ쎯	-10.4756
쎆ㄆㄧㄥˊ0쎯ㄈㄤ0쎯ㄍㄨㄥ2쎯	-10.4756
,ㄊㄨㄥˊ0쎯ㄕˊ1쎯ㄧㄝˇ0쎯	-10.4756
ㄒㄧㄠ2쎯ㄒㄧ7쎯	-10.4756
ㄩㄝˋ0쎯쎁쎆ㄖˋ0쎯	-10.4757
ㄌㄨㄛˊ6쎯ㄒㄩㄢˊ2쎯	-10.4758
ㄆㄧ0쎯ㄈㄚ쎯	-10.4758
(ㄏㄨㄛˋ0쎯	-10.476
ㄐㄧㄥ5쎯ㄊㄧ0쎯	-10.4763
ㄒㄧㄠˇ0쎯ㄏㄨㄛˇ0쎯	-10.4763
ㄏㄨㄛˊ0쎯ㄉㄨㄥˋ0쎯,	-10.4764
ㄋㄚ1쎯ㄒㄧㄢˋ0쎯	-10.4764
.ㄖㄨˊ0쎯ㄍㄨㄛˇ0쎯	-10.4766
ㄙㄢˇ1쎯ㄖㄜˋ쎯	-10.477
ㄩㄢˊ2쎯、	-10.4774
ㄏㄨㄛˊ0쎯ㄌㄧˋ0쎯	-10.4775
(쎁쎈	-10.4775
”“	-10.4785
ㄨㄚ0쎯	-10.4785
ㄒㄧㄠˇ0쎯ㄔ0쎯	-10.4786
ㄏㄠˊ0쎯ㄒㄧㄢˋ3쎯	-10.4788
ㄉㄨㄥˋ0쎯ㄇㄞˋ3쎯	-10.4791
ㄎㄜ2쎯ㄕˋ18쎯	-10.4792
,ㄩㄢˊ4쎯	-10.4794
ㄕㄥ1쎯ㄏㄨㄛˊ0쎯ㄗㄞˋ1쎯	-10.4795
쎅～	-10.4796
ㄉㄨㄣ1쎯	-10.4801
ㄅㄨˋ0쎯ㄐㄧㄡˇ1쎯	-10.4802
쎂ㄍㄨㄥ2쎯ㄌㄧˇ2쎯	-10.4802
ㄉㄥˇ0쎯ㄌㄧㄥˇ1쎯ㄩˋ7쎯	-10.4805
ㄆㄧㄥˊ0쎯ㄒㄧㄢˋ0쎯	-10.4807
(ㄐㄧˊ4쎯	-10.4807
ㄌㄟˋ2쎯ㄅㄧㄝˊ0쎯	-10.4809
ㄗㄨㄟˋ0쎯ㄐㄧㄣˋ1쎯	-10.4811
ㄩˊ10쎯	-10.4811
～쎁	-10.4813
ㄓㄥ	-10.4814
ˋ1쎯	-10.4814
ㄇㄛˊ0쎯ㄇㄠˊ0쎯	-10.4817
ㄎㄜˋ2쎯ㄩㄣˋ1쎯	-10.4819
ㄧ0쎯ㄆㄧ0쎯	-10.4821
《ㄓㄨㄥ0쎯ㄏㄨㄚˊ1쎯	-10.4829
ㄒㄧㄢ3쎯ㄇㄧㄥˊ1쎯	-10.4831
ㄒㄧㄚˋ0쎯ㄇㄧㄢˋ0쎯	-10.4831
▁̇ㄌㄜ쎯《	-10.4831
ㄇㄧˊ0쎯	-10.4832
ㄑㄧ0쎯ㄋㄧㄢˊ0쎯	-10.4833
ㄨˇ0쎯ㄐㄧㄣ3쎯	-10.4833
.ㄧˇ2쎯	-10.4838
ㄧㄠ6쎯ㄑㄧㄥˇ1쎯	-10.484
ㄕㄥ1쎯ㄔㄢˇ0쎯ㄐㄧ12쎯	-10.4842
ㄒㄩㄝˊ1쎯ㄐㄧㄠˋ2쎯ㄓㄢ0쎯	-10.4846
ㄒㄩㄢˇ0쎯ㄩㄥˋ0쎯	-10.4847
ㄐㄧˊ3쎯ㄉㄚˋ쎯	-10.4849
μ	-10.4855
ㄏㄨㄣ2쎯ㄧㄣ5쎯	-10.4857
ㄙˋ1쎯ㄓㄡ2쎯	-10.486
ㄎㄞ0쎯ㄧㄝˋ0쎯	-10.4864
ㄅㄨˇ0쎯ㄔㄨㄥ1쎯	-10.4864
.ㄧㄡˊ1쎯	-10.4864
쎄쎀쎀쎀	-10.4866
ㄓㄤˋ3쎯	-10.4869
ㄓㄨˇ0쎯ㄖㄣˊ0쎯ㄍㄨㄥ2쎯	-10.4873
ㄏㄤˊ2쎯ㄓㄡ1쎯ㄕˋ4쎯	-10.4876
ㄐㄧˊ4쎯ㄐㄧㄤ1쎯	-10.4877
ㄉㄨㄥ0쎯ㄅㄟˇ쎯ㄅㄨˋ4쎯	-10.4877
ㄕˋ15쎯ㄧ0쎯ㄅㄣˇ0쎯	-10.4879
▁̇ㄉㄜ1쎯ㄍㄨㄛ0쎯ㄔㄥˊ7쎯	-10.488
ㄧㄡˇ1쎯ㄕˊ1쎯	-10.4883
ㄋㄚˋ1쎯ㄇㄧˇ0쎯	-10.4884
쎃ㄍㄨㄥ2쎯ㄌㄧˇ2쎯	-10.4886
ㄖㄣˋ1쎯	-10.4888
ㄍㄨㄛˊ0쎯ㄏㄨㄚˋ1쎯	-10.4889
ㄏㄨㄛˊ0쎯ㄩㄝˋ4쎯	-10.489
ㄇㄞˋ1쎯ㄎㄜˋ0쎯ㄈㄥ1쎯	-10.4893
ㄡ0쎯ㄓㄥˋ3쎯ㄈㄨˇ3쎯	-10.4896
ㄍㄜˋ0쎯ㄍㄨㄛˊ0쎯	-10.4898
ㄐㄧㄠˋ2쎯ㄒㄩㄝˊ1쎯ㄕㄥ1쎯	-10.49
ㄇㄠˊ0쎯ㄗㄜˊ3쎯ㄉㄨㄥ0쎯	-10.4902
ㄅㄧㄢˋ4쎯	-10.4904
쎁쎈쎅	-10.4906
ㄓㄠ0쎯ㄕㄥ1쎯	-10.4908
ㄙㄨㄛˇ0쎯ㄒㄩ4쎯	-10.4909
ㄇㄨˋ1쎯ㄌㄨˋ0쎯	-10.4911
ㄕㄨㄟˇ쎯ㄈㄣ0쎯	-10.4911
ㄒㄧ20쎯	-10.4911
ㄇㄛˋ0쎯ㄩˊ2쎯	-10.4914
ㄒㄧㄝˋ1쎯	-10.4915
ㄆㄧㄥˊ6쎯	-10.4917
ㄗㄜˊ1쎯	-10.4918
m2	-10.492
ㄋㄚ1쎯ㄙㄨㄥˋ1쎯	-10.4922
、ㄏㄨㄤˊ1쎯	-10.4923
ㄅㄨˋ5쎯	-10.4924
ㄉㄞˋ0쎯ㄒㄧㄝˋ5쎯	-10.4925
,ㄏㄡˋ0쎯ㄌㄞˊ0쎯	-10.4925
,ㄙㄨㄟˊ2쎯	-10.4927
ㄒㄧㄤ9쎯	-10.4929
ㄈㄨˋ8쎯ㄒㄧㄢˋ0쎯ㄔㄤˊ0쎯	-10.493
ㄍㄜ6쎯	-10.4932
ㄕㄣ5쎯ㄕㄡˋ1쎯	-10.4935
ㄉㄨㄥ0쎯ㄌㄨˋ5쎯	-10.4936
ㄓㄨˇ0쎯ㄐㄧ6쎯	-10.4937
쎂쎀쎀쎄	-10.4938
ㄕㄨˇ5쎯ㄎㄨㄥˋ0쎯	-10.4941
ㄐㄧˊ0쎯ㄑㄧˊ1쎯ㄊㄚ0쎯	-10.4941
ㄧ0쎯ㄎㄜ4쎯	-10.4945
쎂ㄆㄧㄥˊ0쎯ㄈㄤ0쎯ㄍㄨㄥ2쎯	-10.4946
ㄒㄧㄤ2쎯ㄨㄟˋ3쎯	-10.4947
ㄍㄠ0쎯ㄎㄠˇ0쎯	-10.4947
.ㄒㄧㄚˊ5쎯	-10.4948
ㄜˊ5쎯	-10.495
ㄉㄢˋ5쎯ㄒㄧㄥˋ2쎯	-10.4951
ㄕㄨ0쎯ㄏㄨㄚˋ1쎯ㄐㄧㄚ3쎯	-10.4954
ㄅㄧˇ2쎯	-10.4955
쎁.쎆	-10.4955
ㄌㄧˋ1쎯ㄔㄥˊ7쎯	-10.4956
ㄉㄨㄥˇ0쎯ㄕˋ8쎯	-10.4956
ㄇㄧㄥˊ1쎯ㄔㄠˊ1쎯	-10.4959
ㄇㄚ0쎯ㄇㄚ0쎯	-10.496
ㄕㄨ2쎯ㄋㄧㄡˇ1쎯	-10.4963
ㄉㄧˋ3쎯ㄅㄚ0쎯	-10.4965
ㄕㄣ1쎯	-10.4966
ㄆㄟˊ1쎯ㄩˋ3쎯	-10.4966
ㄕㄢ0쎯ㄓㄣˋ3쎯	-10.497
ㄐㄩˊ0쎯ㄔㄤˊ0쎯	-10.4972
ㄉㄧㄠˋ2쎯ㄖㄨˋ0쎯	-10.4974
ㄎㄜ2쎯ㄆㄨˇ2쎯	-10.4975
ㄩㄝˋ0쎯쎁쎂ㄖˋ0쎯	-10.4978
ㄎㄨㄟˊ2쎯	-10.498
ㄑㄧㄡˊ2쎯ㄩㄢˊ2쎯	-10.4982
ㄈㄚ쎯ㄙㄨㄥˋ2쎯	-10.4985
ㄑㄧˇ4쎯ㄉㄠˋ0쎯	-10.4986
ㄍㄨㄤ0쎯ㄑㄩ2쎯	-10.4986
ㄓㄣˇ1쎯	-10.4987
ㄏㄨˊ1쎯	-10.4987
ㄩㄢˊ2쎯,	-10.4988
ㄗˋ0쎯ㄖㄢˊ0쎯ㄎㄜ2쎯	-10.4989
ㄆㄧㄠ0쎯	-10.4991
ㄐㄧㄥ2쎯ㄐㄧˇ3쎯ㄕ2쎯	-10.4993
,ㄐㄧㄝ2쎯	-10.4994
ㄇㄟˇ0쎯ㄘˋ0쎯	-10.4999
ㄑㄧㄥ5쎯ㄐㄧㄝˊ2쎯	-10.4999
ㄊㄞˋ0쎯ㄩㄢˊ4쎯	-10.5013
ㄕㄣ5쎯ㄏㄡˋ1쎯	-10.5014
ㄇㄧㄥˊ0쎯ㄘˊ0쎯	-10.5016
ㄋㄢˊ1쎯ㄧˇ2쎯	-10.5016
ㄔˋ	-10.5017
ㄋㄚ1쎯ㄌㄨˋ5쎯	-10.5021
.쎂쎀쎀쎆ㄋㄧㄢˊ0쎯	-10.5026
ㄗㄞˋ1쎯ㄍㄨㄛˊ0쎯ㄋㄟˋ쎯	-10.5027
ㄙㄨㄣˇ0쎯ㄕㄤ0쎯	-10.503
ㄅㄟˋ6쎯	-10.5031
ㄌㄞˊ0쎯,	-10.5034
ㄓ0쎯ㄓㄨㄥ0쎯	-10.5035
ㄑㄧˋ6쎯	-10.5037
ㄉㄧˋ3쎯ㄦˋ0쎯ㄐㄧㄝˋ2쎯	-10.5038
쎈)	-10.5039
ㄒㄧㄠˋ3쎯ㄌㄧˋ0쎯	-10.5039
ㄩㄝˋ0쎯쎁쎈ㄖˋ0쎯	-10.5039
ㄧㄥˇ0쎯	-10.5041
ㄑㄧㄡˊ2쎯ㄔㄤˊ1쎯	-10.5045
ㄓㄤˋ0쎯	-10.5046
ㄐㄩˋ4쎯ㄩㄢˋ2쎯	-10.5047
ㄕˋ8쎯ㄒㄧㄤˋ1쎯	-10.5053
ㄈㄟˇ0쎯	-10.5053
ㄔㄤˊ0쎯ㄔㄥˊ4쎯	-10.5054
ㄐㄧㄠ6쎯ㄌㄧㄢˋ0쎯	-10.5056
ㄐㄧˋ3쎯ㄕㄨˇ5쎯	-10.5056
ㄍㄨㄢ1쎯ㄍㄨㄤ0쎯	-10.5065
ㄓㄨㄤ1쎯ㄘㄨㄣ0쎯	-10.5065
ㄓ1쎯ㄔㄥ1쎯	-10.5066
ㄑㄧˋ0쎯ㄒㄧ7쎯	-10.5067
ㄉㄤ0쎯ㄐㄧㄣ2쎯	-10.5068
ㄕㄜˋ0쎯ㄐㄧˋ0쎯,	-10.507
ㄑㄧㄢˇ1쎯	-10.5071
ㄇㄧˋ1쎯ㄑㄧㄝ쎯	-10.5079
ㄕㄨㄟˋ1쎯ㄕㄡ쎯	-10.5079
ㄏㄡˋ1쎯ㄉㄨˋ2쎯	-10.508
ㄩㄝˋ0쎯쎂쎃ㄖˋ0쎯	-10.5083
,ㄒㄧㄚˋ0쎯	-10.5087
ㄍㄥ0쎯ㄨㄟˊ0쎯	-10.5088
ㄔㄢˊ0쎯ㄑㄩ0쎯	-10.5089
ㄐㄧ12쎯ㄔㄨˇ1쎯ㄕㄤˇ0쎯,	-10.509
ㄧㄡˊ5쎯ㄎㄜˋ2쎯	-10.5095
ㄕㄤ1쎯ㄔㄥˊ4쎯	-10.5096
ㄕㄥˇ0쎯、ㄕˋ4쎯	-10.5098
ㄧㄣ3쎯	-10.5099
ㄩㄣˇ0쎯ㄒㄩˇ0쎯	-10.5101
ㄖㄜˋ쎯ㄑㄧㄥˊ0쎯	-10.5101
ㄍㄨㄢ1쎯ㄧㄣ4쎯	-10.5102
ㄏㄨˋ1쎯ㄒㄧㄥˊ2쎯	-10.5106
ㄌㄧˇ3쎯ㄌㄨㄣˊ2쎯ㄩˇ0쎯	-10.5107
ㄊㄢˇ0쎯ㄎㄜˋ0쎯	-10.5112
ㄖㄨㄥˊ3쎯	-10.5114
ㄓㄣˇ2쎯	-10.5114
ㄌㄧㄣˊ14쎯	-10.5115
ㄕㄨˇ0쎯	-10.5116
ㄉㄨㄥ0쎯ㄍㄨㄢˇ2쎯	-10.5117
ㄌㄧˋ3쎯ㄈㄤ0쎯ㄇㄧˇ0쎯	-10.5118
ㄕˋ8쎯ㄐㄧˋ9쎯	-10.5119
『	-10.5122
ㄓˊ3쎯ㄉㄜˊ0쎯	-10.5122
ㄎㄜ	-10.5122
ㄋㄚ0쎯ㄍㄜˇ0쎯	-10.5123
ㄇㄧㄣˊ0쎯ㄙㄨˊ쎯	-10.5124
ㄘㄥˊ0쎯,	-10.5125
ㄇㄧㄠˊ1쎯ㄏㄨㄟˋ5쎯	-10.5126
ㄔㄨ0쎯ㄆㄧㄣˇ쎯	-10.513
ㄑㄩㄢˊ1쎯ㄕㄣ2쎯	-10.513
ㄈㄢˋ3쎯ㄨㄟˊ2쎯:	-10.5133
ㄅㄧˋ7쎯ㄇㄧˋ1쎯	-10.5135
ㄩㄢˊ9쎯ㄩˊ0쎯	-10.5139
ㄔㄨㄤˊ1쎯	-10.5147
ㄍㄨㄥ3쎯ㄋㄥˊ쎯:	-10.5148
.ㄗˋ0쎯	-10.5149
ㄍㄨㄢˋ0쎯ㄔㄨㄢ1쎯	-10.5151
ㄐㄧㄝˊ0쎯	-10.5152
ㄑㄧˋ7쎯ㄘㄞˊ1쎯	-10.5153
:쎄	-10.5155
ㄋㄞˇ0쎯ㄓˋ0쎯	-10.5159
쎁/쎂	-10.5162
ㄧㄡˊ5쎯ㄐㄧ2쎯	-10.5162
(쎁쎉쎂	-10.5164
(쎃)	-10.5171
.ㄐㄧㄡˇ5쎯ㄉㄧㄢˋ3쎯	-10.5174
ㄙㄢ0쎯ㄐㄧˊ2쎯	-10.5174
ㄉㄨㄛ0쎯ㄨㄟˊ0쎯	-10.5175
ㄋㄨㄥˊ0쎯ㄗㄨㄛ0쎯ㄨˋ3쎯.	-10.5177
ㄏㄞˇ0쎯ㄅㄚˊ0쎯쎁	-10.5178
ㄉㄨㄣˋ2쎯	-10.5178
ㄕㄥ1쎯ㄉㄠˇ0쎯ㄕ2쎯,	-10.5178
ㄗㄞˋ1쎯ㄕㄤˇ0쎯ㄏㄞˇ0쎯	-10.5179
ㄇㄧˇ0쎯.	-10.518
ㄇㄤˊ1쎯	-10.5181
쎁쎅쎀쎀	-10.5183
ㄈㄨˋ16쎯	-10.5184
ㄖㄜˋ쎯ㄞˋ1쎯	-10.5186
ㄐㄧㄢˋ2쎯ㄓㄨˋ10쎯ㄨˋ3쎯	-10.5191
ㄔㄨㄥˊ1쎯,	-10.5192
ㄆㄧㄢ2쎯,	-10.5195
ㄩˊ8쎯	-10.5196
ㄧˇ5쎯	-10.5196
ㄒㄧ1쎯ㄌㄨˋ5쎯	-10.5198
ㄩˇ6쎯ㄧㄣ4쎯	-10.5201
ㄓㄨㄥ0쎯ㄒㄧㄣ0쎯.	-10.5207
ㄒㄩㄝˊ1쎯ㄐㄧ12쎯ㄐㄧㄣ3쎯	-10.5208
ㄕㄨㄛˋ4쎯	-10.5209
ㄅㄧㄢ1쎯ㄓㄨˋ7쎯	-10.5211
,ㄓˋ7쎯ㄌㄧˋ0쎯ㄩˊ0쎯	-10.5211
ㄉㄜˊ1쎯·	-10.5212
ㄩㄝˋ0쎯쎂쎁ㄖˋ0쎯	-10.5216
ㄕㄢ0쎯ㄆㄛ0쎯	-10.5221
ㄏㄨㄤˊ0쎯ㄏㄡˋ0쎯	-10.5221
ㄍㄨㄤˇ0쎯ㄅㄛ4쎯ㄉㄧㄢˋ0쎯	-10.5223
ㄕˋ15쎯ㄍㄨㄛˊ0쎯ㄋㄟˋ쎯	-10.5226
ㄕˊ3쎯ㄧㄝˋ0쎯	-10.5232
ㄐㄧ6쎯,	-10.5233
ㄒㄧ3	-10.5235
ㄓㄜ0쎯	-10.5235
ㄖㄣˊ0쎯ㄑㄧˋ0쎯	-10.5235
ㄉㄚˋ쎯ㄔㄣˊ0쎯	-10.5235
ㄈㄤ0쎯ㄈㄚˇ0쎯,	-10.5237
ㄏㄡˋ0쎯ㄨㄟˋ0쎯	-10.5239
ㄕˋ15쎯ㄍㄨㄛˊ0쎯ㄐㄧㄚ3쎯	-10.524
ㄖㄨㄟˋ1쎯ㄕˋ0쎯	-10.524
ㄌㄧˇ3쎯ㄕˋ8쎯,	-10.5245
ㄕㄜˋ0쎯ㄉㄧㄥˋ1쎯	-10.5246
ㄉㄧˋ3쎯ㄦˋ0쎯ㄘˋ0쎯	-10.5246
ㄊㄨㄥˊ0쎯ㄇㄧㄥˊ0쎯	-10.5247
쎁쎂쎅	-10.5248
ㄅㄞˇ0쎯ㄩˊ2쎯	-10.5249
,ㄋㄞˇ0쎯	-10.5249
.ㄍㄣ0쎯ㄐㄩ4쎯	-10.5249
ㄕˇ0쎯ㄕㄤˇ0쎯	-10.5253
쎁.쎈	-10.5253
ㄑㄩㄢˋ0쎯	-10.5261
ㄕㄨˋ	-10.5261
쎁쎉쎃쎅ㄋㄧㄢˊ0쎯	-10.5263
ㄗㄨㄥˇ0쎯ㄕㄨˇ5쎯	-10.5264
ㄔㄨ0쎯ㄔㄨˇ0쎯	-10.5266
ㄎㄞ0쎯ㄕㄨㄟˇ쎯	-10.5268
ㄧˇ2쎯ㄨㄞˋ쎯	-10.527
ㄎㄜˇ0쎯ㄎㄡˇ쎯	-10.5276
ㄙˋ4쎯ㄌㄧㄠˋ0쎯	-10.5278
ㄧㄣ4쎯ㄒㄧㄤ5쎯	-10.5281
ㄨˋ1쎯	-10.5283
ㄋㄨㄥˊ0쎯ㄔㄤˊ1쎯	-10.5283
,ㄅㄨˋ0쎯ㄉㄨㄢˋ1쎯	-10.5283
ㄕㄡˋ0쎯ㄇㄧㄥˋ쎯	-10.5284
ㄘㄥˊ1쎯ㄏㄨㄛˋ2쎯	-10.5286
ㄩㄝˋ0쎯쎁쎅ㄖˋ0쎯	-10.5289
ㄅㄠˇ2쎯ㄒㄧㄡ1쎯	-10.5291
ㄔㄣˋ1쎯ㄓ0쎯ㄨㄟˊ0쎯	-10.5291
ㄕㄤˇ0쎯ㄕㄥ0쎯	-10.5292
ㄧㄡˇ1쎯ㄒㄧㄢˋ2쎯	-10.5294
ㄆㄢ1쎯	-10.5296
ㄌㄩˇ4쎯	-10.5297
ㄧ0쎯ㄓㄤ0쎯	-10.53
ㄔㄤˋ1쎯ㄉㄠˇ0쎯	-10.5301
ㄉㄞˋ0쎯ㄊㄧˋ4쎯	-10.5303
ㄋㄠˋ0쎯	-10.5305
▁̇ㄌㄜ쎯ㄧ0쎯	-10.5306
.”ㄇㄧㄥˊ1쎯	-10.5308
ㄩˊ30쎯	-10.5308
ㄧˋ4	-10.5309
....	-10.5309
ㄍㄟˇ쎯ㄩˊ1쎯	-10.5312
ㄅㄧˋ2쎯ㄧㄝˋ0쎯ㄕㄥ1쎯	-10.5312
쎁쎈쎈	-10.5314
ㄈㄚˇ0쎯ㄖㄣˊ0쎯	-10.5314
ㄧㄝˇ0쎯ㄐㄧㄠˋ0쎯	-10.5318
ㄇㄛˊ0쎯ㄕㄨˇ5쎯	-10.5321
ㄑㄩㄢˊ1쎯ㄡ0쎯	-10.5321
ㄎㄨㄤˋ3쎯	-10.5322
ㄗㄨㄥˇ0쎯ㄐㄩˊ0쎯	-10.5324
ㄍㄨㄢˋ0쎯ㄔㄜˋ0쎯ㄓˊ0쎯	-10.5325
ㄑㄧˊ0쎯ㄑㄩㄢˊ1쎯,	-10.5326
ㄋㄟˋ쎯ㄏㄢˊ3쎯	-10.5327
ㄅㄚˋ3쎯	-10.533
ㄕㄣˊ1쎯ㄏㄨㄚˋ2쎯	-10.5332
ㄙ3쎯ㄌㄨˋ5쎯	-10.5334
ㄩˇ6쎯:	-10.5337
ㄉㄚˋ쎯ㄏㄨㄛˇ0쎯	-10.5339
쎁쎄쎀	-10.5346
ㄓㄨˇ0쎯ㄖㄣˊ0쎯	-10.5348
쎅쎀ㄇㄧˇ0쎯	-10.5348
ㄐㄧㄥ8쎯ㄏㄨㄚˊ1쎯	-10.535
ㄖㄨㄣˋ1쎯ㄏㄨㄚˊ3쎯	-10.5354
ㄍㄨㄥ5쎯ㄧㄥ0쎯ㄕㄤ1쎯	-10.5354
ㄔㄨㄢˊ0쎯ㄔㄥˊ3쎯	-10.5361
ㄒㄧㄠ2쎯ㄔㄨˊ0쎯	-10.5364
ㄧㄠˊ11쎯	-10.5364
ㄎㄢˇ0쎯	-10.5368
ㄑㄩㄢˊ1쎯ㄔㄣˋ1쎯	-10.537
ㄎㄡˇ쎯ㄍㄢˇ3쎯	-10.5371
ㄧㄝˋ0쎯ㄧㄡˇ1쎯ㄒㄧㄢˋ2쎯	-10.5371
ㄋㄧㄢˊ0쎯ㄑㄧㄢˊ0쎯	-10.5373
,ㄐㄩˋ2쎯	-10.5374
▁̇ㄉㄜ1쎯ㄧㄡˊ5쎯ㄒㄧˋ0쎯	-10.5375
ㄕˊ0쎯ㄗˋ1쎯	-10.538
、ㄉㄧㄢˋ0쎯ㄗˇ0쎯	-10.538
ㄐㄧㄚ0쎯ㄙㄨˋ3쎯	-10.5383
ㄢ1쎯	-10.5384
ㄔㄡˋ쎯	-10.5384
ㄎㄜˇ0쎯ㄈㄣ0쎯ㄨㄟˊ0쎯	-10.539
ㄕㄡˋ3쎯ㄏㄡˋ0쎯	-10.539
4쎯ㄨˋ2쎯ㄌㄧˇ3쎯ㄕˋ8쎯	-10.5392
ㄉㄤ0쎯ㄖㄢˊ0쎯	-10.5394
ㄩㄝˋ0쎯쎂쎀ㄖˋ0쎯	-10.5394
쎇)	-10.5398
ㄒㄧㄤ3쎯	-10.5399
ㄌㄨˋ16쎯	-10.5399
ㄆㄧˇ0쎯	-10.5404
ㄕㄤˇ0쎯ㄨㄤˇ0쎯	-10.5405
ㄇㄧㄢˋ0쎯ㄕㄤˇ0쎯	-10.5405
ㄗㄨˇ1쎯ㄔㄥˊ0쎯ㄩㄢˊ2쎯	-10.5406
ㄐㄩˋ4쎯ㄊㄨㄢˊ0쎯	-10.5409
ㄅㄧㄢˋ0쎯ㄉㄜˊ0쎯	-10.5413
ㄒㄧㄢˋ1쎯ㄘㄨㄣˊ쎯	-10.5419
ㄍㄨㄢˇ1쎯ㄌㄧˇ3쎯ㄏㄜˊ2쎯	-10.542
쎃.쎀	-10.5421
ㄏㄨㄢˊ0쎯ㄖㄠˋ쎯	-10.5423
ㄨㄢˊ6쎯	-10.5426
ㄍㄢ0쎯ㄕˋ8쎯	-10.543
ㄧˋ18쎯ㄨㄞˋ쎯	-10.5434
ㄒㄧㄠ2쎯ㄕ1쎯	-10.5434
ㄑㄩㄢˊ1쎯ㄕˋ3쎯ㄐㄧㄝˋ3쎯	-10.5438
,ㄓㄨˋ3쎯ㄘㄜˋ0쎯ㄗ2쎯	-10.5441
ㄋㄧㄢˊ0쎯,	-10.5443
ㄐㄧˋ17쎯	-10.5443
ㄔㄨㄢˊ0쎯·	-10.545
ㄗㄨㄛˋ2쎯ㄉㄠˋ0쎯	-10.5455
ㄓ0쎯ㄗㄨㄛ0쎯	-10.5457
ㄕˊ0쎯ㄩˊ2쎯	-10.5462
ㄈㄨˊ5쎯ㄨˋ2쎯,	-10.5463
ㄨㄢ0쎯ㄑㄩ0쎯	-10.5464
ㄨㄤˊ1쎯ㄗˇ0쎯	-10.5465
ㄧ0쎯ㄔㄨˇ0쎯	-10.5466
ㄧㄝˇ1쎯	-10.5467
о	-10.5468
쎁.쎄	-10.5473
,ㄐㄧˋ10쎯	-10.5474
ㄕㄨˇ6쎯	-10.5475
ㄘㄞˊ2쎯ㄔㄢˇ0쎯	-10.5475
ㄩㄢˊ0쎯ㄐㄧㄢˋ1쎯	-10.5479
ㄉㄨㄟˋ1쎯ㄔㄣˋ1쎯	-10.5481
ㄩㄣˋ0쎯	-10.5481
ㄙˋ1쎯ㄕˊ0쎯	-10.5485
.ㄒㄧㄢˋ1쎯ㄗㄞˋ1쎯	-10.549
ㄩㄥˇ2쎯	-10.549
ㄐㄧㄠ6쎯ㄊㄤˊ1쎯	-10.5494
ㄊㄧㄢ0쎯ㄕˇ2쎯	-10.5499
ㄓㄣˋ1쎯ㄉㄨㄥˋ0쎯	-10.55
▁̇ㄉㄜ1쎯ㄒㄧㄣˋ0쎯ㄒㄧ7쎯	-10.5507
ㄕㄨㄣˋ0쎯ㄌㄧˋ6쎯	-10.5507
ㄅㄢˋ0쎯ㄍㄨㄥ2쎯ㄕˋ18쎯、	-10.5507
ㄒㄧ1쎯ㄘㄜˋ2쎯	-10.5508
ㄈㄣ0쎯ㄐㄧㄝˇ1쎯	-10.5508
ㄗㄨㄥ1쎯ㄙㄜˋ0쎯	-10.5509
ㄡ0쎯,	-10.5511
ㄧ0쎯ㄖˋ0쎯	-10.5511
ㄑㄧㄥ0쎯ㄉㄠˇ1쎯ㄕˋ4쎯	-10.5512
ㄒㄧㄝˋ0쎯	-10.5513
ㄩㄝˋ0쎯쎂쎅ㄖˋ0쎯	-10.5515
ㄈㄢˇ1쎯ㄏㄨㄟˊ0쎯	-10.5517
쎁ㄒㄧㄤˋ1쎯	-10.5519
ㄇㄟˊ1쎯ㄍㄨㄟ5쎯	-10.5523
ㄊㄨˇ0쎯ㄉㄡˋ0쎯	-10.5524
ㄇㄠˋ2쎯	-10.5526
ㄏㄨˊ0쎯	-10.5527
ㄓㄨˋ9쎯ㄗㄠˋ2쎯	-10.5527
ㄗㄨㄥ0쎯ㄓˇ1쎯	-10.5531
ㄅㄛ4쎯ㄔㄨ0쎯	-10.5533
ㄔㄚˊ2쎯ㄒㄩㄣˊ3쎯	-10.5535
ㄌㄠˋ0쎯	-10.5537
ㄑㄩㄢˊ1쎯ㄔㄤˊ0쎯	-10.5539
ㄆㄨ0쎯	-10.5539
(?	-10.5539
ㄐㄧㄢ1쎯	-10.5539
쎃ㄆㄧㄥˊ0쎯ㄈㄤ0쎯ㄍㄨㄥ2쎯	-10.554
ㄎㄞ0쎯ㄈㄚ쎯ㄧㄡˇ1쎯	-10.5542
ㄕㄠˋ0쎯ㄎㄞ0쎯	-10.5543
ㄉㄠˇ1쎯ㄩˇ1쎯	-10.5543
ㄎㄨㄥˇ0쎯ㄗˇ0쎯	-10.5544
ㄕˊ3쎯ㄊㄧ0쎯	-10.5545
▁̇ㄉㄜ0쎯ㄩˋ7쎯	-10.555
ㄩㄝˋ0쎯쎂쎂ㄖˋ0쎯	-10.555
ㄐㄧㄣ0쎯	-10.5551
ㄐㄧㄢˋ2쎯ㄍㄨㄛˊ0쎯	-10.5552
ㄗㄞˇ2쎯	-10.5554
ㄐㄧㄚ3쎯,	-10.5556
ㄙㄢ0쎯ㄒㄧㄥ1쎯	-10.5557
》、《ㄓㄨㄥ0쎯ㄍㄨㄛˊ0쎯	-10.5566
ㄉㄚˋ쎯ㄇㄣˊ0쎯	-10.5567
ㄐㄧˇ1쎯ㄨㄟˇ5쎯	-10.5568
ㄍㄨㄢ0쎯ㄒㄧㄣ0쎯	-10.557
.ㄓˇ4쎯	-10.5571
ㄩㄝˋ2쎯	-10.5571
ㄓㄞ1쎯	-10.5571
ㄧㄤˊ4쎯ㄘㄨㄥ2쎯	-10.5573
●	-10.5581
ㄅㄨˋ0쎯ㄉㄢˋ2쎯	-10.5581
ㄇㄟˊ6쎯ㄎㄨㄤˋ2쎯	-10.5581
ㄐㄧㄥ8쎯ㄓˋ7쎯	-10.5586
ㄏㄨㄚˊ1쎯ㄑㄧㄠˊ1쎯	-10.5589
ㄌㄧㄠˊ1쎯ㄒㄧㄠˋ3쎯	-10.5593
ㄑㄧㄝ쎯ㄆㄧㄢ0쎯	-10.5597
ㄒㄧㄤˋ0쎯ㄕㄤˇ0쎯	-10.5605
ㄍㄨㄛˊ0쎯ㄔㄢˇ0쎯	-10.5611
ㄖㄨㄟˋ1쎯ㄉㄧㄢˇ0쎯	-10.5612
ㄒㄧㄣ5쎯ㄋㄨㄥˊ0쎯ㄘㄨㄣ0쎯	-10.5615
ㄧˋ6쎯ㄔㄣˋ1쎯	-10.5626
ㄕㄨ4쎯ㄐㄧㄣ4쎯ㄊㄧㄝ1쎯	-10.5627
ㄗㄨㄛ0쎯ㄆㄧㄣˇ쎯.	-10.5628
ㄇㄧㄠˊ0쎯ㄗㄨˊ1쎯	-10.5629
ㄐㄧ7쎯ㄖㄡˋ쎯	-10.563
ㄎㄨㄥ0쎯ㄓㄨㄥ0쎯	-10.5631
ㄩˋ23쎯	-10.5631
ㄧ0쎯ㄐㄧ13쎯	-10.5633
ㄔㄡˊ5쎯	-10.5633
ㄒㄧㄥˊ2쎯ㄑㄧˇ2쎯ㄧㄝˋ0쎯	-10.5635
ㄕˊ3쎯ㄐㄧˋ5쎯ㄕㄤˇ0쎯	-10.5636
▁̇ㄉㄜ1쎯ㄕˊ1쎯ㄏㄡˋ2쎯,	-10.564
ㄗˋ0쎯ㄓˋ5쎯ㄓㄡ1쎯	-10.5641
ㄨˋ3쎯.ㄧㄡˇ1쎯ㄍㄥ2쎯	-10.5644
ㄓㄨㄥ0쎯ㄉㄥˇ0쎯	-10.5647
ㄘㄨㄛˋ2쎯ㄨˋ4쎯	-10.5647
ㄒㄧㄝˊ0쎯ㄅㄧㄥˇ2쎯	-10.565
ㄐㄧㄚ3쎯ㄒㄧㄤ0쎯	-10.5652
쎂쎀쎁쎁	-10.5652
ㄌㄧㄠˊ1쎯ㄈㄚˇ0쎯	-10.5653
、ㄒㄧㄣ5쎯	-10.5655
ㄗㄨˇ1쎯ㄔㄥˊ0쎯ㄩㄢˊ2쎯、	-10.5656
ㄑㄧㄥˊ1쎯	-10.5659
ㄨㄟ3쎯ㄕㄥ1쎯ㄨˋ3쎯	-10.566
ㄊㄧˋ4쎯	-10.5662
ㄗˇ2쎯	-10.5664
ㄍㄨㄢˋ0쎯ㄔㄜˋ0쎯	-10.5665
▁̇ㄉㄜ1쎯ㄏㄤˊ0쎯ㄨㄟˊ0쎯	-10.5665
ㄑㄧㄥ5쎯·	-10.5665
,ㄧㄣ0쎯ㄦˊ1쎯	-10.5668
ㄐㄧㄢˋ0쎯ㄩˊ0쎯	-10.5668
ㄋㄨˊ0쎯	-10.5671
ㄏㄜˊ2쎯ㄈㄚ쎯ㄓㄢˇ2쎯	-10.5676
ㄐㄧㄣˋ0쎯ㄑㄩˇ0쎯	-10.5677
ㄎㄨㄤˋ2쎯ㄔㄢˇ0쎯	-10.5679
▁̇ㄉㄜ1쎯ㄧˋ18쎯ㄙ3쎯	-10.568
ㄍㄨㄢ2쎯ㄩㄢˊ2쎯	-10.5683
ㄆㄥˊ3쎯	-10.5685
ㄗㄨㄥˇ0쎯ㄕˋ15쎯	-10.5686
,ㄐㄧㄢˋ2쎯ㄓㄨˋ10쎯	-10.569
.ㄨㄛˇ쎯ㄇㄣˊ1쎯	-10.569
ㄗㄢˋ0쎯	-10.5691
ㄐㄧㄤˇ0쎯ㄐㄧㄝˇ1쎯	-10.5691
ㄋㄧㄢˊ0쎯ㄌㄞˊ0쎯,	-10.5691
ㄗㄚˊ0쎯ㄐㄧㄠ0쎯	-10.5694
ㄅㄧㄥˋ0쎯、	-10.5694
쎁쎉쎂쎉ㄋㄧㄢˊ0쎯	-10.5697
ㄉㄢˋ7쎯	-10.5698
쎅쎀쎀ㄎㄜˋ0쎯	-10.5703
ㄑㄧㄢ5쎯ㄧㄠ2쎯	-10.5704
ㄓˇ4쎯ㄋㄚ1쎯	-10.5704
쎀ㄇㄨˇ2쎯,	-10.5711
ㄒㄧㄚˋ0쎯ㄧㄡˊ5쎯	-10.5711
ㄓˋ3쎯ㄌㄥˇ쎯	-10.5718
ㄌㄨˋ0쎯》	-10.5719
ㄨㄞˋ쎯ㄍㄨㄛˊ0쎯ㄩˇ6쎯	-10.5723
ㄖㄢˊ1쎯	-10.5727
ㄇㄟˇ1쎯ㄋㄩˇ0쎯	-10.5729
ㄅㄟˇ쎯ㄌㄨˋ5쎯	-10.573
ㄨㄟˇ4쎯	-10.5735
ㄕˋ18쎯ㄓㄨˇ0쎯ㄖㄣˊ3쎯	-10.5735
ㄐㄧ6쎯ㄕㄣ2쎯	-10.5737
ㄇㄨˋ0쎯ㄘㄞˊ1쎯	-10.5738
ㄋㄩˇ0쎯,	-10.574
쎁ㄖㄣˊ0쎯	-10.5742
ㄆㄧㄥˊ1쎯ㄕㄣˇ1쎯	-10.5746
ㄐㄧㄚ3쎯ㄩㄢˊ1쎯	-10.5746
ㄘㄨˋ1쎯	-10.5747
ㄔㄨ0쎯ㄒㄧㄝˇ1쎯	-10.5747
ㄏㄨㄚˋ0쎯ㄓㄨㄤ0쎯ㄆㄧㄣˇ쎯	-10.5752
ㄖㄣˊ3쎯ㄓㄨㄥ0쎯ㄍㄨㄥˋ0쎯	-10.5753
ㄔㄢˇ0쎯ㄆㄧㄣˇ쎯.	-10.5757
ㄐㄧㄠ6쎯ㄩˋ3쎯ㄊㄧㄥ0쎯	-10.5758
▁̇ㄉㄜ1쎯ㄋㄥˊ쎯ㄌㄧˋ0쎯	-10.5763
ㄊㄨㄣ0쎯	-10.5764
ㄅㄧˇ	-10.5765
ㄔㄨ	-10.5766
ㄏㄢˊ3쎯	-10.5769
쎂～	-10.5771
.ㄗㄨㄛ0쎯ㄨㄟˊ0쎯	-10.5772
◎	-10.5775
ㄩㄝˋ0쎯쎂쎄ㄖˋ0쎯	-10.5776
ㄏㄨㄚ0쎯ㄅㄢˋ6쎯	-10.5777
、ㄕㄨㄟˇ쎯	-10.5778
ㄙㄨㄛˇ0쎯ㄗㄨㄛ0쎯	-10.5781
쎁쎂ㄍㄜˇ0쎯	-10.5785
ㄐㄧㄝˊ1	-10.5787
ㄐㄧㄚ3쎯ㄔㄤˊ0쎯	-10.5788
ㄓˇ5쎯	-10.579
,ㄇㄟˇ1쎯ㄍㄨㄛˊ0쎯	-10.5793
ㄈㄨˋ8쎯ㄩㄢˋ2쎯ㄔㄤˊ0쎯	-10.5798
ㄆㄨˊ	-10.5799
ㄤ	-10.5799
ㄑㄩ0쎯ㄒㄧㄢˋ3쎯	-10.5801
ㄨㄞˋ쎯ㄅㄨˋ4쎯	-10.5807
ㄡ0쎯、	-10.5809
ㄕㄨˋ0쎯ㄑㄧˇ2쎯ㄧㄝˋ0쎯	-10.5809
ㄊㄨㄥˊ0쎯ㄧ0쎯	-10.5814
ㄎㄞ0쎯ㄔㄨㄤ0쎯	-10.5818
и	-10.5821
ㄓˋ0쎯ㄕㄤˇ0쎯	-10.5823
ㄩㄝˋ0쎯쎁쎉ㄖˋ0쎯	-10.5823
ㄉㄧㄢˇ0쎯ㄧㄚˇ쎯	-10.5825
ㄧㄚˋ0쎯	-10.5826
ㄖㄠˊ0쎯	-10.5827
ㄗㄡ0쎯	-10.5827
ㄆㄢˋ3쎯	-10.5829
ㄉㄥ1쎯ㄔㄤˊ1쎯	-10.5829
ㄑㄧˋ7쎯、	-10.583
ㄏㄞˇ0쎯ㄍㄨㄢ0쎯	-10.583
ㄅㄧˋ2쎯ㄧㄝˋ0쎯.	-10.583
ㄊㄡˊ0쎯ㄅㄨˋ4쎯	-10.5836
ㄙㄨˋ8쎯ㄒㄧㄝˇ0쎯	-10.5836
ㄥˋ0쎯ㄉㄤˇ1쎯ㄩㄢˊ2쎯.	-10.5841
ㄩㄝˋ0쎯쎅ㄖˋ0쎯	-10.5843
쎁쎉쎃쎃ㄋㄧㄢˊ0쎯	-10.5845
ㄑㄧㄥ0쎯ㄏㄞˇ0쎯	-10.5847
ㄇㄥˊ0쎯	-10.5847
ㄏㄨㄢˊ0쎯ㄐㄧㄝ0쎯	-10.585
ㄕㄣˇ1쎯ㄉㄧㄥˋ1쎯	-10.5851
ㄐㄧㄣ3쎯ㄍㄤ2쎯	-10.5854
3	-10.5856
ㄆㄢˋ0쎯ㄉㄨㄢˋ1쎯	-10.5857
ㄊㄧㄥˇ1쎯	-10.5859
ㄑㄧˊ11쎯	-10.5859
ㄌㄧˇ0쎯ㄆㄧㄣˇ쎯	-10.5861
ㄒㄧㄢˊ4쎯	-10.5862
ㄊㄡˊ1쎯ㄧㄥˇ1쎯	-10.5866
----	-10.5868
ㄓㄣ3쎯ㄍㄨㄟˋ1쎯	-10.5869
ㄋㄚˋ2쎯	-10.5869
ㄑㄧˋ5쎯	-10.587
ㄒㄧㄣ3쎯ㄕㄤˇ2쎯	-10.5873
ㄍㄨㄥ2쎯ㄌㄧˇ2쎯ㄔㄨˇ0쎯	-10.5876
ㄩˊ7쎯	-10.5879
ㄧㄠ4쎯ㄙㄨˋ2쎯	-10.5879
,ㄈㄣ0쎯ㄅㄧㄝˊ0쎯	-10.588
ㄉㄧㄥˋ1쎯ㄉㄧㄢˇ1쎯	-10.588
ㄉㄥˇ0쎯)	-10.5882
ㄕㄢ0쎯ㄕˋ4쎯	-10.5885
ㄐㄩㄣˋ1쎯	-10.5885
ㄐㄧㄥ2쎯》	-10.589
ㄏㄜˊ2쎯ㄍㄨㄢˇ1쎯ㄌㄧˇ3쎯	-10.589
.ㄘˇ0쎯ㄨㄞˋ쎯,	-10.5892
.ㄉㄢˋ2쎯ㄕˋ15쎯	-10.5895
ㄓㄨˇ0쎯ㄉㄨㄥˋ0쎯	-10.5896
ㄏㄢˋ0쎯ㄗˋ1쎯	-10.5897
쎃쎀ㄎㄜˋ0쎯	-10.5899
.’”	-10.5899
ㄦˊ1쎯ㄔㄥˊ0쎯,	-10.5902
ㄋㄚ1쎯ㄐㄧㄥ1쎯ㄕˋ4쎯	-10.5909
ㄧ0쎯ㄊㄧㄢ0쎯	-10.5909
ㄨㄟˇ0쎯ㄉㄚˋ쎯	-10.591
ㄕㄜˋ0쎯ㄅㄟˋ2쎯,	-10.5911
쎁쎉쎃쎄ㄋㄧㄢˊ0쎯	-10.5912
ㄨㄟˊ0쎯ㄓˇ0쎯	-10.5914
쎂쎀쎀쎂	-10.5917
ㄍㄨㄥˋ0쎯ㄑㄧㄥ0쎯	-10.592
ㄧㄝˋ0쎯ㄐㄧˋ15쎯	-10.5921
ㄘㄚ0쎯	-10.5926
ㄅㄞˊ0쎯ㄘㄞˋ0쎯	-10.5935
쎄ㄆㄧㄥˊ0쎯ㄈㄤ0쎯ㄍㄨㄥ2쎯	-10.5936
▁̇ㄉㄜ1쎯ㄏㄠˇ0쎯	-10.5941
ㄐㄧㄝ3쎯ㄏㄨㄣ2쎯	-10.5942
ㄓㄜˋ0쎯ㄅㄨˋ4쎯	-10.5944
ㄌㄧㄤˇ0쎯ㄇㄧㄢˋ0쎯	-10.5944
ㄐㄧ6쎯ㄏㄨㄟˋ2쎯	-10.5947
쎀.	-10.5947
ㄌㄨˋ5쎯,	-10.5948
ㄡ0쎯.	-10.5948
.쎁쎀	-10.595
ㄨㄟˋ6쎯ㄓ0쎯	-10.5952
ㄘˊ0쎯ㄏㄨㄟˋ1쎯	-10.5952
ㄋㄨㄥˊ0쎯ㄔㄢˇ0쎯ㄆㄧㄣˇ쎯	-10.5956
ㄌㄢˇ0쎯	-10.5957
ㄋㄩˇ0쎯ㄦˊ0쎯	-10.5958
쎁쎅ㄎㄜˋ0쎯	-10.5963
ㄈㄚ쎯ㄓㄢˇ2쎯ㄧㄡˇ1쎯	-10.5966
ㄐㄧ12쎯ㄐㄧㄣ3쎯ㄏㄨㄟˋ2쎯	-10.5967
×쎄	-10.5967
ㄖㄡˋ쎯ㄓˋ4쎯	-10.5969
ㄖㄨˋ0쎯ㄎㄡˇ쎯	-10.597
ㄓㄞˇ쎯	-10.5971
쎁ㄍㄨㄥ2쎯ㄌㄧˇ2쎯	-10.5972
ㄊㄨˊ2쎯ㄐㄧㄥˋ0쎯	-10.5974
ㄨˋ3쎯ㄌㄧˇ3쎯ㄒㄩㄝˊ1쎯	-10.5975
;ㄧㄡˇ1쎯ㄌㄧㄣˊ1쎯	-10.5976
ㄑㄧㄡ0쎯ㄌㄧㄥˊ6쎯	-10.5976
쎀)	-10.5979
ㄉㄨㄛ0쎯ㄅㄨˋ4쎯	-10.598
ㄧㄝˊ0쎯	-10.5981
쎀～	-10.5981
ㄍㄠ0쎯ㄑㄧㄥ5쎯	-10.5981
쎉)	-10.5981
ㄎㄜˇ0쎯ㄒㄩㄢˇ0쎯	-10.5983
ㄅㄧˋ1쎯ㄧㄠ4쎯	-10.5984
ㄔㄥˊ0쎯ㄒㄧㄥˊ2쎯	-10.5989
ㄩㄥˇ	-10.5992
ㄆㄚˋ1쎯	-10.5993
ㄦˊ0쎯ㄗˇ0쎯	-10.5993
ㄇㄛˋ0쎯ㄖㄣˊ0쎯	-10.5993
쎁쎆쎀쎀	-10.5994
ㄈㄣ4쎯ㄨㄟˊ2쎯	-10.5995
.쎁쎁	-10.5995
ㄉㄥˇ0쎯ㄉㄥˇ0쎯.	-10.5997
ㄩㄝˋ0쎯쎁쎇ㄖˋ0쎯	-10.5997
ㄎㄜˇ0쎯ㄩㄥˋ0쎯	-10.5998
ㄓㄨˇ0쎯ㄌㄧㄡˊ3쎯	-10.5999
ㄑㄩㄢˊ1쎯ㄒㄧㄤ0쎯	-10.6001
ㄖㄢˊ1쎯ㄕㄠ1쎯	-10.6003
ㄐㄧㄣˋ4쎯ㄆㄠ1쎯	-10.6006
쎁쎀%	-10.6008
ㄉㄧㄥˇ0쎯ㄐㄧˊ2쎯	-10.601
ㄏㄨˋ1쎯ㄨㄞˋ쎯	-10.6015
ㄏㄨ2쎯	-10.6016
-)	-10.6017
ㄊㄨㄥˇ2쎯	-10.6019
ㄓㄠˋ3쎯	-10.6023
ㄅㄧㄢ1쎯ㄏㄠˊ0쎯	-10.6023
ㄉㄚˋ쎯ㄉㄨㄛ0쎯	-10.6026
ㄐㄩˋ8쎯ㄐㄧˊ8쎯	-10.6028
ㄧㄡˇ1쎯ㄖㄣˊ0쎯	-10.6028
ㄓㄨㄢˇ쎯ㄅㄧㄢˋ0쎯	-10.6029
ㄏㄞˇ0쎯ㄕㄤˇ0쎯	-10.6032
ㄏㄨㄚ0쎯ㄋㄧㄠˇ0쎯	-10.6034
ㄌㄧㄥˊ2쎯ㄏㄨㄣˊ1쎯	-10.6037
ㄧ6쎯	-10.6039
ㄐㄧˋ27쎯	-10.604
.쎁、	-10.6042
ㄕˋ4쎯ㄇㄧㄣˊ0쎯	-10.6043
ㄇㄛˋ8쎯ㄒㄧ1쎯ㄍㄜ2쎯	-10.6043
ㄐㄧˋ2쎯ㄕㄨˋ0쎯ㄏㄜˊ2쎯	-10.6044
ㄏㄨㄟˊ0쎯ㄗㄨˊ1쎯	-10.6046
.ㄊㄚ1쎯ㄕˋ15쎯	-10.6047
ㄗㄨㄥˋ0쎯ㄏㄥˊ1쎯	-10.6057
ㄅㄨˋ0쎯ㄩㄥˋ0쎯	-10.6059
ㄐㄧ6쎯ㄒㄧㄤ5쎯	-10.6059
ㄌㄤˊ3쎯	-10.606
ㄩˋ5쎯	-10.6061
,ㄅㄧㄢˋ1쎯	-10.6062
,ㄋㄧㄢˊ0쎯ㄆㄧㄥˊ0쎯	-10.6064
、ㄋㄚ1쎯	-10.6066
ㄏㄠˊ1쎯	-10.6066
ㄘㄨㄥˊ0쎯ㄒㄧㄠˇ0쎯	-10.6067
ㄈㄢˊ3쎯ㄖㄨㄥˊ2쎯	-10.6068
ㄌㄧㄡˊ3쎯ㄕㄨㄟˇ쎯	-10.6069
쎂쎀쎀쎁	-10.6069
ㄑㄩㄢˊ0쎯ㄧˋ15쎯	-10.6073
,ㄧ0쎯ㄍㄜˇ0쎯	-10.6073
ㄊㄨㄥˊ0쎯ㄕˊ1쎯ㄧㄝˇ0쎯	-10.6077
ㄓ0쎯ㄌㄨˋ5쎯	-10.6079
ㄊㄧㄠˊ0쎯ㄌㄧˋ8쎯	-10.6081
ㄗ2쎯ㄓˋ4쎯	-10.6082
▁̇ㄉㄜ0쎯ㄕˋ7쎯	-10.6083
ㄌㄧㄣˊ2쎯ㄕˊ1쎯	-10.6086
ㄇㄣ쎯	-10.6087
ㄐㄧㄥˋ1쎯ㄏㄨㄚˋ0쎯	-10.6088
ㄏㄡˋ0쎯ㄧㄡˋ0쎯	-10.6091
ㄐㄧˋ3쎯ㄖㄣˋ1쎯ㄓㄥˋ0쎯	-10.6091
ㄓㄣ3쎯ㄓㄨ1쎯	-10.6093
ㄍㄨㄤ0쎯ㄉㄧㄢˋ0쎯	-10.6094
ㄏㄠˇ0쎯ㄆㄧㄥˊ1쎯.	-10.6095
ㄉㄨㄥ0쎯ㄘㄜˋ2쎯	-10.61
.쎂쎀쎀쎉ㄋㄧㄢˊ0쎯	-10.61
ㄏㄨㄤˊ1쎯ㄍㄨㄚ0쎯	-10.61
ㄈㄨˋ7쎯ㄉㄢˋ1쎯	-10.6101
ㄍㄨㄟˋ1쎯ㄗㄨˊ1쎯	-10.6102
ㄩㄝˋ0쎯쎁쎁ㄖˋ0쎯	-10.6102
ㄗ4쎯	-10.6103
ㄇㄨˇ1쎯ㄉㄢ0쎯	-10.6103
ㄅㄧㄢ3쎯	-10.6103
ㄎㄚ1쎯	-10.6104
쎃쎆쎀	-10.6105
ㄕ2쎯ㄗ2쎯	-10.6106
ㄐㄧㄚ0쎯ㄎㄨㄞˋ1쎯	-10.6107
ㄍㄨㄥ0쎯ㄗㄨㄛ0쎯ㄓㄨㄥ0쎯	-10.6108
ㄒㄧㄤ1쎯ㄔㄨㄢˊ0쎯	-10.6112
.쎂쎀쎀쎈ㄋㄧㄢˊ0쎯	-10.6118
ㄓ0쎯ㄒㄧㄚˋ0쎯	-10.6132
ㄏㄜˊ2쎯ㄈㄨˊ5쎯ㄨˋ2쎯	-10.6133
ㄖˋ0쎯ㄅㄠˋ0쎯	-10.6134
,ㄍㄨㄥˋ0쎯ㄧㄡˇ1쎯	-10.6135
ㄔㄥˊ3쎯ㄅㄢˋ0쎯	-10.6139
ㄧㄣˇ3쎯ㄘㄤˊ쎯	-10.6141
ㄋㄧㄠˇ0쎯ㄌㄟˋ2쎯	-10.6141
ㄧㄡˊ5쎯ㄩㄥˇ2쎯	-10.6148
ㄕㄨ0쎯ㄐㄧˋ1쎯.	-10.6149
ㄐㄧㄚˇ0쎯ㄐㄧ12쎯	-10.615
ㄩˋ0쎯ㄇㄧˇ0쎯、	-10.6151
ㄍㄨㄥ2쎯ㄐㄧㄠ0쎯	-10.6151
ㄑㄩ5쎯	-10.6151
ㄘˋ0쎯ㄏㄨㄟˋ2쎯ㄧˋ4쎯	-10.6154
ㄒㄧㄤ0쎯ㄨㄟˋ2쎯ㄩˊ0쎯	-10.6155
ㄉㄚ0쎯ㄆㄟˋ2쎯	-10.6158
ㄌㄟˋ0쎯	-10.6158
쎄쎈쎀	-10.6159
ㄅㄠˋ8쎯ㄈㄚ쎯	-10.6161
ㄕˋ0쎯ㄒㄩㄝˊ1쎯ㄨㄟˋ2쎯	-10.6172
ㄗㄞˋ1쎯ㄐㄧㄣ2쎯	-10.6174
▁̇ㄉㄜ1쎯ㄧㄢˊ6쎯ㄈㄚ쎯	-10.6174
》,《	-10.6177
ㄎㄠˇ0쎯ㄏㄜˊ5쎯	-10.6178
ㄊㄚ0쎯ㄗㄞˋ1쎯	-10.618
ㄐㄧ12쎯ㄅㄣˇ0쎯ㄘㄢ0쎯	-10.6181
ㄑㄩ5쎯ㄕˋ7쎯	-10.6181
ㄑㄧㄥˊ0쎯ㄐㄧㄝ0쎯	-10.6182
ㄍㄜˇ1쎯ㄗ2쎯	-10.6183
ㄉㄧㄠˋ2쎯ㄌㄧㄠˋ0쎯	-10.6184
ㄇㄧㄢˋ0쎯ㄐㄧ11쎯쎁쎀	-10.6184
ㄗˋ0쎯ㄧㄡˋ2쎯	-10.6184
ㄑㄧˇ2쎯ㄕˋ8쎯ㄧㄝˋ0쎯	-10.6185
ㄉㄤˇ1쎯ㄗㄨˇ1쎯ㄓ9쎯	-10.6188
쎁ㄌㄧㄤˇ0쎯,	-10.6192
ㄓㄨㄥ2쎯ㄩˊ0쎯	-10.6192
ㄨㄟˊ0쎯ㄐㄧ12쎯ㄔㄨˇ1쎯	-10.6203
ㄐㄧㄤˇ1쎯ㄒㄧㄤˋ1쎯	-10.6203
ㄋㄧㄢˊ0쎯ㄐㄧˊ2쎯	-10.6206
ㄔㄨˋ0쎯	-10.6209
ㄈㄤˊ0쎯ㄏㄨㄛˇ0쎯	-10.6209
ㄓˇ1쎯ㄗㄞˋ1쎯	-10.621
ㄅㄠ8쎯	-10.6213
ㄈㄚ쎯ㄕㄥ1쎯ㄗㄞˋ1쎯	-10.6215
ㄎㄨㄤˋ3쎯ㄐㄧㄚˋ2쎯	-10.6218
ㄩㄢˋ2쎯ㄩㄢˋ2쎯ㄔㄤˊ0쎯	-10.6219
ㄋㄨㄛˋ2쎯ㄇㄧˇ0쎯	-10.622
ㄅㄟ2쎯ㄇㄧㄢˋ0쎯	-10.6222
ㄩㄝˋ0쎯쎂쎆ㄖˋ0쎯	-10.6228
ㄩㄝˋ0쎯쎆ㄖˋ0쎯	-10.6231
ㄍㄠ0쎯ㄩㄢˊ4쎯	-10.6232
ㄇㄛˋ1쎯,	-10.6233
ㄌㄧˋ2쎯	-10.6233
ㄍㄨㄥ4쎯ㄉㄡˋ2쎯	-10.6233
ㄔㄨㄥˇ쎯	-10.6235
ㄨㄚ2쎯	-10.6236
ㄒㄧㄥˋ2쎯.	-10.6237
ㄔㄡˊ4쎯	-10.6238
ㄗㄨㄟˋ0쎯ㄔㄨㄥˊ2쎯ㄧㄠ4쎯	-10.6245
ㄍㄜ4쎯	-10.6245
,ㄈㄨˋ2쎯ㄗㄜˊ1쎯	-10.6246
ㄐㄧㄥˋ2쎯ㄓㄥ1쎯ㄌㄧˋ0쎯	-10.6249
ㄒㄩˋ0쎯	-10.6249
ㄊㄚ1쎯ㄕˋ15쎯	-10.6249
ㄓㄣ4쎯ㄎㄨㄥ0쎯	-10.6249
ㄨㄟˋ0쎯ㄕˋ12쎯	-10.625
ㄉㄨㄟˋ1쎯ㄕㄡˇ0쎯	-10.6252
ㄈㄚ쎯ㄐㄧㄠˋ6쎯	-10.6255
ㄧㄥˊ5쎯ㄗㄠˋ2쎯	-10.6255
ㄇㄧㄣˊ0쎯ㄈㄚˇ0쎯ㄩㄢˋ2쎯	-10.6259
ㄕㄥ1쎯ㄘㄠˇ쎯ㄅㄣˇ0쎯	-10.6259
ㄇㄧㄣˊ0쎯ㄅㄢˋ0쎯	-10.626
ㄅㄛˊ2쎯	-10.6266
ㄕㄡˊ쎯ㄒㄧ8쎯	-10.6267
ㄋㄟˋ쎯,	-10.6271
ㄏㄥ1쎯	-10.6272
ㄏㄜˊ5쎯ㄊㄠˊ1쎯	-10.6272
ㄨˋ3쎯ㄗ2쎯	-10.6275
ㄓㄤ5쎯	-10.6277
쎅쎀쎀ㄇㄧˇ0쎯	-10.6283
ㄐㄧㄠ6쎯ㄨㄟˇ5쎯	-10.6284
ㄩㄝˋ0쎯쎁쎄ㄖˋ0쎯	-10.6284
;쎁	-10.6285
ㄎㄜˇ1쎯	-10.6286
ㄐㄧㄥ8쎯ㄌㄧㄥˊ2쎯	-10.6287
ㄉㄧˋ3쎯쎄	-10.6289
ㄏㄨㄛˋ2쎯ㄑㄩˇ0쎯	-10.6293
ㄕˋ3쎯ㄐㄧㄚ3쎯	-10.6294
ㄍㄨ5쎯ㄍㄢ0쎯ㄐㄧㄠ6쎯ㄕ2쎯	-10.6297
ㄍㄨㄥ2쎯ㄑㄧㄥˇ0쎯,	-10.6297
ㄩㄥˋ0쎯ㄕㄨㄟˇ쎯	-10.6302
ㄐㄧㄢˇ5쎯ㄔㄚˊ3쎯ㄩㄢˋ2쎯	-10.6303
ㄕㄤˇ0쎯ㄧㄥˋ0쎯	-10.6307
ㄇㄧㄥˊ1쎯ㄑㄧㄥ5쎯	-10.631
ㄒㄧㄤ1쎯ㄉㄤ0쎯ㄩˊ0쎯	-10.631
ㄧㄥ1쎯ㄍㄜˊ2쎯ㄌㄢˊ0쎯	-10.6311
ㄩˋ6쎯ㄙㄨㄢˋ1쎯	-10.6314
ㄌㄧˋ6쎯ㄖㄨㄣˋ1쎯	-10.6317
ㄓㄨㄟ1쎯	-10.6318
ㄧ4쎯ㄎㄠˋ1쎯	-10.632
ㄩㄢˊ4쎯ㄨㄟˊ0쎯	-10.6326
ㄏㄢˋ6쎯	-10.6327
ㄕㄜˋ0쎯ㄅㄟˋ2쎯ㄧㄡˇ1쎯	-10.6329
ㄍㄜ	-10.633
ㄧㄢˊ6쎯ㄐㄧㄡ1쎯ㄩㄢˊ2쎯,	-10.633
ㄒㄧㄤˋ2쎯ㄓㄥ2쎯	-10.6331
ㄎㄠˇ0쎯ㄍㄨˇ0쎯	-10.6333
,ㄐㄧㄢˇ8쎯ㄔㄣˋ1쎯	-10.6333
ㄐㄧㄝ4쎯ㄖㄤˇ0쎯	-10.6334
ㄍㄨㄛˊ0쎯ㄐㄧㄚ3쎯ㄏㄜˊ2쎯	-10.6336
ㄅㄠ2쎯	-10.634
ㄓㄨ	-10.6341
ㄩㄥˋ0쎯ㄧˇ2쎯	-10.6346
/쎃	-10.6346
ㄒㄧㄤ1쎯ㄨㄤˋ3쎯	-10.635
ㄓㄨˇ0쎯ㄌㄧˋ0쎯	-10.635
ㄖㄣˊ0쎯.ㄓㄨㄥ0쎯ㄍㄨ	-10.6352
▁̇ㄉㄜ1쎯ㄗˋ0쎯ㄖㄢˊ0쎯	-10.6356
》ㄖㄣˊ0쎯ㄨˋ3쎯ㄓ0쎯ㄧ0쎯	-10.6356
쎅、	-10.6357
.쎂쎀쎁쎀ㄋㄧㄢˊ0쎯	-10.6357
ㄧˊ0쎯ㄕˋ5쎯	-10.6358
-쎁쎀	-10.6359
쎁～	-10.6361
ㄅㄧˇ3쎯ㄇㄧㄥˊ0쎯	-10.6361
ㄓㄤˋ0쎯ㄈㄨ0쎯	-10.6362
ㄑㄧ	-10.6365
ㄨㄟˊ0쎯:	-10.6365
ㄎㄨ1쎯	-10.6365
.”(쎂).	-10.6367
,ㄐㄧ11쎯ㄐㄧˊ3쎯	-10.6368
ㄕˇ2쎯ㄉㄜˊ0쎯	-10.6368
ㄧˊ7쎯ㄇㄧㄣˊ0쎯	-10.6369
▁̇ㄉㄜ0쎯ㄡ0쎯.	-10.637
ㄦˋ0쎯ㄘˋ0쎯	-10.637
ㄌㄨˋ5쎯ㄩˇ0쎯	-10.6371
ㄉㄚˋ쎯ㄩˊ0쎯	-10.6373
쎄ㄍㄨㄥ2쎯ㄌㄧˇ2쎯	-10.6373
쎂ㄏㄠˊ0쎯	-10.6374
ㄉㄧˋ3쎯ㄧ0쎯ㄅㄨˋ4쎯	-10.6377
ㄖㄨㄥˊ1쎯	-10.6377
ㄑㄩㄝ0쎯ㄈㄚˊ0쎯	-10.6378
ㄊㄚ2쎯ㄇㄣˊ1쎯	-10.6379
ㄐㄧㄚ3쎯ㄩㄥˋ0쎯	-10.638
쎂.쎁	-10.6384
ㄨㄣˋ0쎯ㄊㄧˊ1쎯,	-10.6384
ㄖㄥˊ쎯ㄖㄢˊ0쎯	-10.6385
ㄨㄟˊ0쎯ㄧ0쎯	-10.6385
ㄗㄨㄛ0쎯ㄘˊ0쎯	-10.6386
ㄙㄨㄟˋ3쎯ㄉㄠˋ3쎯	-10.6387
쎀.쎆	-10.6388
ㄑㄧㄠˊ0쎯ㄇㄨˋ0쎯	-10.6388
ㄋㄧㄡˇ1쎯	-10.6391
.”ㄊㄤˊ0쎯	-10.6391
ㄒㄧㄚˋ0쎯ㄐㄧㄤˋ1쎯	-10.6392
ㄗㄜˊ2쎯	-10.6395
ㄐㄩㄢ0쎯	-10.6396
ㄌㄧㄤˇ0쎯ㄉㄚˋ쎯	-10.6397
ㄉㄠˇ0쎯ㄕ2쎯	-10.64
ㄊㄡˊ1쎯ㄗ2쎯ㄓㄜˇ0쎯	-10.64
ㄧ0쎯ㄒㄧㄢˋ3쎯	-10.6401
ㄏㄨㄛˋ3쎯	-10.6402
ㄘㄢˇ0쎯	-10.6403
ㄈㄚ쎯ㄓㄢˇ2쎯,	-10.6407
ㄊㄤˊ5쎯ㄋㄧㄠˋ0쎯	-10.6407
ㄑㄧㄥ5쎯ㄒㄧˇ0쎯	-10.6407
ㄧ0쎯ㄇㄧㄢˋ0쎯	-10.6409
ㄨㄟˊ6쎯ㄔˊ4쎯	-10.6411
ㄒㄧㄣ5쎯ㄓㄨㄥ0쎯ㄍㄨㄛˊ0쎯	-10.6411
ㄗㄨㄥˇ0쎯ㄐㄧㄢ7쎯	-10.6413
쎅ㄇㄧˇ0쎯	-10.6413
ㄞˋ1쎯ㄏㄠˇ0쎯	-10.6417
쎈쎀ㄋㄧㄢˊ0쎯ㄉㄞˋ0쎯	-10.6418
ㄨㄟˇ5쎯ㄔㄤˊ4쎯ㄨㄟˇ5쎯	-10.6419
ㄕㄨㄟˇ쎯ㄇㄧㄢˋ0쎯	-10.642
ㄧˊ12쎯	-10.6422
ㄗㄞˋ1쎯ㄓㄜˋ0쎯	-10.6422
쎀쎀ㄇㄨˇ2쎯	-10.6425
ㄑㄧㄥ5쎯ㄖㄜˋ쎯	-10.6427
ㄧˇ2쎯ㄋㄚ1쎯	-10.6427
ㄧㄡ2쎯ㄇㄛˋ9쎯	-10.6427
ㄎㄨㄤˋ1쎯	-10.643
ㄩˋ11쎯ㄕˇ0쎯	-10.6431
ㄔㄠˊ3쎯ㄌㄧㄡˊ3쎯	-10.6444
.ㄒㄧㄢ1쎯ㄏㄡˋ0쎯	-10.6444
,ㄗㄨㄛ0쎯ㄨㄟˊ0쎯	-10.6445
ㄋㄥˊ쎯ㄌㄧˋ0쎯.	-10.6446
ㄕˊ3쎯ㄕˊ1쎯	-10.6449
ㄆㄟˋ2쎯ㄈㄤ0쎯	-10.6451
ㄕㄤ1쎯ㄏㄨㄟˋ2쎯	-10.6453
ㄗˇ0쎯ㄍㄨㄥ2쎯ㄙ0쎯	-10.6455
쎁쎉쎀	-10.6458
ㄐㄧㄥˇ1쎯ㄙㄜˋ0쎯	-10.6461
,ㄕˋ15쎯ㄧㄡˊ1쎯	-10.6461
ㄏㄢˊ2쎯ㄕㄡˋ2쎯	-10.6462
ㄓㄨㄥ2쎯ㄉㄨㄢ0쎯	-10.6462
,ㄊㄚ1쎯ㄕˋ15쎯	-10.6463
ㄧ0쎯ㄍㄜˇ0쎯ㄖㄣˊ0쎯	-10.6466
ㄕㄨ4쎯	-10.647
ㄏㄨㄟˋ2쎯ㄓㄢˇ2쎯	-10.6475
ㄓㄨㄢ0쎯ㄐㄧˊ9쎯《	-10.6475
ㄗㄨㄛ0쎯ㄩㄥˋ0쎯,	-10.6476
ㄋㄧㄥˊ0쎯ㄅㄛ1쎯ㄕˋ4쎯	-10.6476
ㄉㄨㄥ1쎯ㄐㄧˋ7쎯	-10.6476
ㄏㄨㄥˊ1쎯ㄨㄞˋ쎯	-10.6477
ㄕˋ15쎯ㄐㄧˊ8쎯	-10.648
쎁.쎁	-10.6481
▁̇ㄉㄜ1쎯ㄉㄨㄥ0쎯ㄒㄧ1쎯	-10.6481
ㄓㄨˇ0쎯ㄓㄤ0쎯	-10.6485
쎉쎀%	-10.6489
),ㄗˋ1쎯	-10.649
▁̇ㄉㄜ1쎯ㄍㄨㄥ3쎯ㄋㄥˊ쎯	-10.649
▁̇ㄉㄜ1쎯ㄍㄜ7쎯ㄑㄩ0쎯	-10.649
ㄕㄥˇ0쎯ㄓㄥˋ3쎯ㄈㄨˇ3쎯	-10.6492
ㄖㄨㄥˊ9쎯ㄗ2쎯	-10.6493
쎀쎀쎀쎀	-10.6494
ㄇㄛˋ0쎯ㄩㄢˊ0쎯.	-10.6494
ㄈㄚˊ3쎯ㄇㄣˊ0쎯	-10.6495
,ㄏㄨㄛˋ2쎯ㄉㄜˊ0쎯	-10.6495
ㄗㄞ0쎯ㄏㄞˋ2쎯	-10.6496
ㄉㄧㄢˇ1쎯,	-10.6498
ㄑㄧㄥˊ0쎯ㄐㄧㄥˇ1쎯	-10.6499
ㄍㄨㄟˋ2쎯ㄌㄧㄣˊ1쎯	-10.65
ㄩㄢˊ4쎯ㄧㄡˇ1쎯	-10.6501
ㄔㄤˊ4쎯ㄔㄤˊ4쎯	-10.6502
ㄉㄨㄟˋ1쎯ㄧㄥ0쎯	-10.6505
ㄎㄜˇ0쎯ㄩㄥˋ0쎯ㄩˊ0쎯	-10.6505
ㄩㄝˋ0쎯쎉ㄖˋ0쎯	-10.651
ㄒㄧㄢˇ0쎯ㄕˋ2쎯ㄑㄧˋ7쎯	-10.6512
ㄧ0쎯ㄎㄨㄢˇ쎯	-10.6512
.ㄧㄣ0쎯ㄨㄟˊ0쎯	-10.6515
ㄩㄢˊ4쎯ㄌㄧㄠˋ0쎯:	-10.6516
ㄅㄢˇ0쎯ㄎㄨㄞˋ0쎯	-10.6517
ㄐㄧㄠ6쎯ㄕ2쎯,	-10.6518
ㄉㄞˋ0쎯ㄅㄧㄠˇ0쎯ㄉㄚˋ쎯	-10.6522
ㄈㄢˇ0쎯ㄉㄨㄟˋ1쎯	-10.6524
ㄈㄥ1쎯ㄕㄢ5쎯	-10.6527
ㄗˇ0쎯.	-10.6528
ㄧ0쎯ㄅㄣˇ0쎯	-10.6529
ㄗ3쎯	-10.6529
ㄒㄧㄠˇ0쎯ㄑㄧˇ2쎯ㄧㄝˋ0쎯	-10.653
ㄆㄧㄢ2쎯.	-10.653
ㄎㄡˇ쎯ㄈㄨˊ5쎯	-10.653
ㄗㄨㄥˇ0쎯ㄌㄧˇ3쎯	-10.6532
ㄍㄨㄥ2쎯ㄑㄧㄥˇ0쎯	-10.6533
,ㄓㄜˋ0쎯ㄒㄧㄝ0쎯	-10.6533
ㄏㄨˊ4쎯ㄌㄨˊ1쎯	-10.6533
ㄉㄧˋ2쎯	-10.6534
ㄧㄢˇ3쎯ㄩㄢˊ2쎯,	-10.6538
ㄐㄧㄡ0쎯ㄘㄨㄛˋ2쎯	-10.6541
ㄕㄜˋ0쎯ㄅㄟˋ2쎯、	-10.6544
ㄔㄤˊ0쎯ㄉㄚˊ1쎯	-10.6544
ㄗㄞ2쎯	-10.6545
ㄊㄧㄢ1쎯	-10.6545
ㄊㄧㄥ2쎯	-10.6545
ㄊㄨㄛˊ	-10.6546
ㄕㄢˋ1쎯	-10.6548
ㄊㄚ0쎯ㄖㄣˊ0쎯	-10.6553
ㄒㄧ4쎯	-10.6559
ㄈㄤˊ3쎯ㄔㄢˇ0쎯	-10.6568
ㄩㄝˋ0쎯쎁쎃ㄖˋ0쎯	-10.6569
,ㄕㄣ5쎯ㄕㄡˋ1쎯	-10.6572
ㄧㄝˇ0쎯ㄔㄣˋ1쎯	-10.6573
ㄖˋ0쎯ㄩˇ6쎯	-10.6573
ㄓㄨㄢˋ3쎯ㄎㄜˋ1쎯	-10.6574
ㄌㄧㄥˊ3쎯	-10.6576
.ㄐㄧㄣˋ1쎯ㄋㄧㄢˊ0쎯	-10.6577
ㄒㄧㄤ0쎯ㄉㄤˇ1쎯ㄨㄟˇ5쎯	-10.6577
쎁ㄖㄣˊ0쎯,	-10.6578
ㄩˊ0쎯쎂쎀쎀쎉ㄋㄧㄢˊ0쎯	-10.6579
ㄏㄜˊ3쎯ㄎㄡˇ쎯	-10.6583
ㄅㄟˋ5쎯ㄩˋ15쎯ㄨㄟˊ0쎯	-10.6588
ㄍㄨㄥ2쎯ㄓㄨㄥˋ1쎯	-10.6589
ㄐㄧˇ3쎯ㄋㄚ1쎯ㄕˋ4쎯	-10.659
ㄉㄨˇ0쎯	-10.6594
ㄙㄜˋ1쎯	-10.6595
ㄌㄧˇ0쎯ㄧˊ0쎯	-10.6595
▁̇ㄉㄜ1쎯ㄧ0쎯ㄐㄧㄚ3쎯	-10.6595
ㄓㄨㄢ0쎯ㄓˊ4쎯	-10.6595
쎁쎇쎀	-10.6601
ㄕㄨㄟˋ0쎯ㄈㄚˇ0쎯	-10.6601
ㄑㄧˇ4쎯ㄖㄣˊ3쎯	-10.6602
ㄉㄨㄥ0쎯ㄏㄞˇ0쎯	-10.6602
ㄔㄤˊ1쎯ㄐㄧㄥˇ1쎯	-10.6603
ㄧˇ2쎯ㄘˇ0쎯	-10.6603
ㄕㄣˊ1쎯ㄐㄧ9쎯	-10.6604
ㄔㄨㄥˊ2쎯ㄧㄠ4쎯ㄘㄢ0쎯	-10.6607
ㄩˊ0쎯ㄘˇ0쎯	-10.661
▁̇ㄉㄜ1쎯ㄙ3쎯ㄒㄧㄤˇ2쎯	-10.6613
쎁ㄌㄧㄤˇ0쎯	-10.6614
ㄉㄨㄥ0쎯ㄏㄢˋ0쎯	-10.6615
ㄅㄠˇ1쎯ㄉㄢˋ0쎯	-10.6615
ㄅㄠˋ8쎯ㄓㄚˊ1쎯	-10.6617
ㄓˋ2	-10.6618
ㄧㄢˋ0쎯	-10.6619
ㄩˋ12쎯	-10.662
ㄉㄧ2쎯ㄇㄧㄥˊ0쎯	-10.6622
ㄈㄢˇ0쎯ㄕㄜˋ3쎯	-10.6627
ㄊㄨㄥˊ9쎯	-10.6631
ㄉㄜˊ0쎯ㄧˇ2쎯	-10.6631
ㄊㄞˋ0쎯ㄧㄤˊ2쎯ㄋㄥˊ쎯	-10.6631
ㄅㄧㄢˋ2쎯ㄅㄨˋ1쎯	-10.6635
쎂쎀ㄋㄧㄢˊ0쎯	-10.6636
ㄈㄣˇ쎯ㄇㄛˋ1쎯	-10.6641
ㄕㄡˇ0쎯ㄘㄜˋ0쎯	-10.6645
ㄧ0쎯ㄈㄣˋ0쎯	-10.6646
ㄏㄨㄟˋ2쎯ㄌㄧˇ3쎯ㄕˋ8쎯	-10.665
ㄏㄨㄢˊ3쎯	-10.665
ㄒㄩㄢˇ0쎯ㄐㄩˇ2쎯	-10.6651
쎂쎀ㄈㄣ0쎯ㄓㄨㄥ3쎯	-10.6651
ㄏㄨㄥˊ1쎯ㄑㄧˊ8쎯	-10.6656
ㄈㄣ0쎯ㄗˇ0쎯ㄌㄧㄤˊ3쎯	-10.6657
ㄜˊ7쎯ㄉㄧㄥˋ1쎯	-10.6658
ㄙㄨㄟˋ0쎯ㄕˊ1쎯	-10.6658
ㄐㄧㄠ5쎯ㄋㄤ0쎯	-10.666
ㄅㄨˋ4쎯ㄕㄡˇ2쎯:	-10.6663
ㄔㄨ0쎯ㄒㄧㄢˋ1쎯ㄗㄞˋ1쎯	-10.6664
ㄕˇ1쎯	-10.6667
쎁쎅ㄈㄣ0쎯ㄓㄨㄥ3쎯	-10.667
(ㄅㄠ0쎯ㄎㄨㄛˋ1쎯	-10.6674
ㄐㄧㄠ0쎯ㄔㄚ0쎯	-10.6678
ㄧˋ31쎯	-10.6681
▁̇ㄌㄜ쎯ㄓㄨㄥ0쎯ㄍㄨㄛˊ0쎯	-10.6685
ㄋㄧㄡˊ쎯ㄋㄞˇ1쎯	-10.6685
ㄨㄟˊ8쎯	-10.6689
ㄌㄧㄣˊ6쎯ㄆㄧㄢ0쎯	-10.669
ㄕㄨˇ5쎯ㄅㄞˇ0쎯	-10.6693
ㄍㄞ0쎯ㄕㄨ0쎯	-10.6693
ㄒㄧㄣ4쎯	-10.6693
ㄩㄥ2쎯	-10.6694
ㄩˊ0쎯쎂쎀쎁쎀ㄋㄧㄢˊ0쎯	-10.6695
ㄙㄨˋ2쎯ㄧㄡˇ1쎯	-10.6703
ㄐㄧˋ7쎯ㄐㄧㄝ0쎯	-10.6704
ㄗˇ0쎯、	-10.6706
쎇.쎅	-10.6711
ㄅㄠˇ2쎯ㄨㄟˋ0쎯	-10.6712
ㄍㄨㄤ0쎯ㄇㄧㄥˊ1쎯	-10.6713
ㄧㄢˊ0쎯ㄔㄤˊ0쎯	-10.6714
ㄉㄡˋ4쎯	-10.6715
ㄅㄠˇ1쎯ㄅㄠˇ1쎯	-10.6715
,ㄩˊ0쎯ㄕˋ15쎯	-10.6717
ㄧㄥˊ7쎯	-10.6718
ㄈㄢˇ0쎯“ㄨㄟˊ2쎯	-10.6722
ㄒㄩㄝˊ1쎯ㄅㄠˋ0쎯	-10.6724
ㄧ0쎯ㄑㄩㄣˊ1쎯	-10.6727
ㄕㄥˇ0쎯ㄨㄟˇ5쎯	-10.673
쎁쎉쎃쎀ㄋㄧㄢˊ0쎯	-10.6732
ㄔㄨㄢ0쎯ㄒㄧㄢˋ0쎯	-10.6738
ㄅㄠ6쎯	-10.6738
ㄓㄤˋ4쎯	-10.6739
▁̇ㄉㄜ1쎯ㄔㄥˊ4쎯ㄕˋ4쎯	-10.6739
ㄇㄠˋ1쎯	-10.6743
ㄏㄜˊ0쎯	-10.6745
ㄕㄨㄟˋ0쎯,	-10.6747
ㄨㄢˋ0쎯	-10.6755
ㄏㄨㄚ0쎯ㄒㄩˋ1쎯	-10.6758
ㄔㄢˊ3쎯	-10.676
ㄕˋ15쎯ㄉㄨㄟˋ1쎯	-10.6765
ㄖㄡˊ0쎯ㄇㄠˊ0쎯	-10.6769
ㄕㄨ6쎯	-10.6773
ㄉㄤ0쎯ㄓㄨㄥ0쎯	-10.6776
ㄧㄡ0쎯ㄇㄟˇ1쎯,	-10.6777
ㄓㄨㄟ2쎯	-10.6778
ㄒㄧㄚˋ1쎯ㄐㄧˋ7쎯	-10.6779
ㄅㄛ1쎯ㄌㄢˊ0쎯	-10.6779
ㄒㄧㄥˊ0쎯ㄕˋ8쎯	-10.678
ㄉㄚ0쎯	-10.6781
ㄇㄧㄢˋ0쎯ㄌㄧㄣˊ2쎯	-10.6781
쎀쎀ㄇㄨˇ2쎯,	-10.6782
ㄅㄧ0쎯	-10.6782
쎅°C	-10.6787
(쎁쎈쎉	-10.6788
ㄉㄤ0쎯ㄒㄩㄢˇ0쎯ㄨㄟˊ0쎯	-10.679
쎀ㄆㄧㄥˊ0쎯ㄈㄤ0쎯ㄍㄨㄥ2쎯	-10.679
ㄗㄨㄥ1쎯	-10.6792
ㄊㄨㄛˊ3쎯	-10.6795
ㄉㄠˋ3쎯ㄐㄧㄠ6쎯	-10.6797
ㄒㄧㄢˋ3쎯ㄕㄤˇ0쎯	-10.6797
쎂.쎄	-10.6797
ㄕㄚ0쎯ㄏㄞˋ2쎯	-10.6798
ㄓㄥ0쎯ㄕˋ15쎯	-10.6798
ㄧ0쎯ㄐㄧㄢˋ1쎯	-10.6806
ㄕㄢ0쎯ㄘㄨㄣ0쎯	-10.6807
ㄐㄧ6쎯ㄔㄨㄤˊ0쎯	-10.6808
ㄎㄨㄤˋ2쎯ㄕㄢ0쎯	-10.6809
ㄍㄨㄥ2쎯ㄨˋ2쎯ㄩㄢˊ2쎯	-10.6811
ㄩˇ0쎯ㄍㄨㄢˇ1쎯ㄌㄧˇ3쎯	-10.6812
ㄐㄧㄣˋ0쎯ㄍㄨㄥ4쎯	-10.6815
ㄧㄝˋ0쎯ㄩˊ2쎯	-10.6818
쎃쎅쎀	-10.682
ㄈㄢ0쎯	-10.6822
ii	-10.6827
ㄐㄧˊ2쎯ㄓˊ4쎯ㄔㄣˋ1쎯	-10.6828
ㄍㄨㄚ1쎯	-10.6828
ㄔㄨㄥˇ쎯ㄨˋ3쎯	-10.6828
ㄔㄤˊ0쎯ㄕㄚ2쎯ㄕˋ4쎯	-10.6831
쎇ㄆㄧㄥˊ0쎯ㄈㄤ0쎯ㄍㄨㄥ2쎯	-10.6832
ㄇㄧㄢˋ0쎯ㄅㄢˇ0쎯	-10.6832
ㄔㄤˋ0쎯ㄒㄧㄠ6쎯	-10.6833
ㄎㄞ0쎯ㄑㄧˇ3쎯	-10.6836
ㄐㄩㄣˋ3쎯ㄍㄨㄥ0쎯	-10.684
ㄎㄜ2쎯ㄓˊ5쎯ㄨˋ3쎯	-10.6841
ㄕˋ15쎯ㄧ0쎯ㄗㄨㄛˋ1쎯	-10.6842
ㄧㄝ0쎯	-10.6842
ㄕㄤˇ0쎯ㄕㄨˋ2쎯	-10.6842
ㄎㄡˋ2쎯	-10.6844
ㄐㄧㄤ0쎯ㄏㄨˊ5쎯	-10.6844
ㄗㄨㄣ1쎯	-10.6844
.ㄓㄜˋ0쎯ㄒㄧㄝ0쎯	-10.6846
ㄇㄟˇ2쎯	-10.6848
ㄧㄡˋ0쎯ㄐㄧㄠˋ0쎯	-10.685
ㄒㄧㄣ0쎯ㄗㄤ1쎯	-10.6851
ㄋㄧㄢˊ0쎯ㄔㄢˇ0쎯	-10.6851
ㄍㄥ1쎯	-10.6853
ㄐㄧˊ0쎯ㄒㄧㄤ1쎯ㄍㄨㄢ0쎯	-10.6853
ㄍㄨㄚˇ0쎯	-10.6856
ㄐㄧㄥ8쎯ㄓㄢˋ4쎯	-10.6858
ㄔㄨㄥˊ1쎯.	-10.6858
ㄗㄨˇ2쎯ㄍㄨㄛˊ0쎯	-10.6859
ㄈㄨˊ8쎯ㄏㄠˊ0쎯	-10.6859
ㄨㄟˊ0쎯ㄑㄧˊ1쎯	-10.686
▁̇ㄉㄜ1쎯ㄆㄧㄣˇ쎯ㄆㄞˊ2쎯	-10.6862
ㄕㄞ쎯	-10.6863
ㄌㄧˇ3쎯ㄌㄨㄣˊ2쎯ㄏㄜˊ2쎯	-10.6865
ㄉㄠˇ0쎯ㄏㄤˊ3쎯	-10.6865
ㄓ1쎯ㄌㄧㄡˊ3쎯	-10.6865
ㄉㄡ0쎯ㄋㄥˊ쎯	-10.6866
.ㄊㄚ0쎯ㄇㄣˊ1쎯	-10.687
쎂쎀쎀ㄇㄧˇ0쎯	-10.6872
ㄕㄣ2쎯ㄅㄧㄢ0쎯	-10.6874
ㄒㄧㄠˇ0쎯ㄐㄧㄝˇ0쎯	-10.6881
쎃～	-10.6881
ㄉㄥˇ0쎯ㄖㄣˊ0쎯	-10.6882
ㄍㄠ3쎯	-10.6882
ㄆㄢˋ2쎯	-10.6882
ㄓㄨˋ1쎯ㄙㄨˋ4쎯	-10.6884
ㄕㄨㄟˇ쎯ㄒㄧㄢˋ0쎯	-10.6885
ㄕˊ0쎯ㄐㄧㄚ2쎯	-10.6888
ㄒㄧ1쎯ㄢ0쎯ㄕˋ4쎯	-10.6888
ㄔㄢˇ0쎯ㄨˋ3쎯	-10.6889
ㄍㄨㄢ0쎯ㄅㄧˋ3쎯	-10.689
ㄐㄧㄢ8쎯ㄖㄨㄥˊ4쎯	-10.6894
、ㄕㄜˋ1쎯ㄏㄨㄟˋ2쎯	-10.6901
ㄌㄧˋ3쎯ㄗㄨˊ0쎯	-10.6905
ㄐㄧㄣ3쎯ㄐㄧㄤˇ1쎯	-10.6907
,ㄇㄟˊ0쎯ㄧㄡˇ1쎯	-10.6909
ㄈㄤˊ0쎯ㄕㄨㄟˇ쎯	-10.691
ㄐㄧˊ12쎯ㄍㄨㄢˋ0쎯	-10.6913
ㄧㄣ4쎯ㄒㄧㄠˋ3쎯	-10.6914
”ㄓ0쎯	-10.6915
ㄌㄧㄠˊ1쎯	-10.6919
ㄉㄧ0쎯ㄨㄣ0쎯	-10.6921
ㄈㄥˋ1쎯ㄒㄧㄢˋ8쎯	-10.6923
ㄙˋ4쎯ㄧㄤˇ1쎯	-10.6925
.ㄓㄜˋ0쎯ㄕˋ15쎯	-10.6926
ㄎㄨㄢ0쎯ㄉㄨˋ2쎯	-10.6926
ㄧㄡˊ1쎯ㄩㄢˊ4쎯	-10.6927
ㄑㄧㄢ0쎯ㄎㄜˋ0쎯	-10.6927
ㄦˊ1쎯ㄉㄜˊ0쎯ㄇㄧㄥˊ0쎯.	-10.6927
ㄔㄨㄤ0쎯ㄌㄧˋ3쎯ㄩˊ0쎯	-10.693
ㄕㄜˋ0쎯ㄗㄞˋ1쎯	-10.6931
ㄧㄡˋ3쎯	-10.6933
ㄌㄧㄡˊ3쎯ㄩˋ7쎯	-10.6934
쎁쎉쎂쎇ㄋㄧㄢˊ0쎯	-10.6934
ㄘㄨㄣ0쎯.	-10.6936
ㄇㄟˇ1쎯ㄓㄡ3쎯	-10.6936
ㄐㄧㄚˋ0쎯ㄓˊ3쎯.	-10.6937
ㄧˊ21쎯ㄗㄨˊ1쎯	-10.6943
쎀.쎄	-10.6944
ㄐㄧㄠˋ4쎯ㄒㄧㄠˇ0쎯	-10.6945
〉	-10.6945
ㄨㄣ0쎯ㄋㄨㄢˇ쎯	-10.6945
、ㄕㄤˇ0쎯ㄏㄞˇ0쎯	-10.6947
ㄅㄧㄥ1쎯ㄗㄞˋ1쎯	-10.6947
ㄓˇ4쎯ㄌㄧㄥˊ0쎯	-10.6947
ㄈㄣˋ1쎯ㄉㄡˇ0쎯	-10.6949
ㄍㄜˋ0쎯ㄗˋ0쎯	-10.6951
ㄧㄣˇ1쎯ㄩㄥˋ0쎯	-10.6951
ㄕㄤˋ0쎯ㄕㄨ0쎯	-10.6953
ㄐㄧˋ2쎯ㄈㄚˇ0쎯	-10.6955
ㄈㄣ0쎯ㄙㄢˇ1쎯	-10.6956
ㄦˋ0쎯ㄖㄣˊ0쎯	-10.6959
ㄋㄟˋ쎯ㄒㄧㄣ0쎯	-10.6959
ㄐㄧㄠ0쎯ㄐㄧㄝˋ3쎯ㄔㄨˇ0쎯	-10.6961
ㄌㄚˋ0쎯ㄕˊ3쎯	-10.6969
ㄕㄨㄟˋ0쎯ㄇㄧㄥˊ1쎯ㄕㄨ0쎯	-10.6971
ㄇㄧㄥˋ쎯ㄌㄧㄥˊ0쎯	-10.6973
ㄒㄧㄢˋ6쎯	-10.6973
ㄑㄧˊ5쎯	-10.6973
ㄔㄠˊ1쎯ㄧㄤˊ2쎯	-10.6973
ㄗㄨㄛˋ0쎯ㄅㄧㄠ0쎯	-10.6973
ㄉㄧˋ3쎯ㄧ0쎯ㄐㄧㄝˋ2쎯	-10.6973
ㄓㄤˇ0쎯	-10.6974
ㄩㄢˊ2쎯.	-10.6974
ㄇㄧㄢˋ0쎯ㄐㄧ11쎯쎀.	-10.6974
ㄅㄨˋ2쎯ㄏㄤˊ0쎯	-10.6975
–	-10.6975
ㄆㄧㄣˊ1쎯ㄌㄩˋ2쎯:	-10.6976
ㄖㄨˋ0쎯ㄨˇ2쎯	-10.6978
ㄔㄤˊ4쎯ㄌㄨˋ3쎯	-10.698
ㄈㄣ0쎯ㄌㄧㄝˋ4쎯	-10.6981
ㄑㄧˋ7쎯,	-10.6981
ㄉㄨㄛ0쎯ㄧㄤˋ0쎯	-10.6984
ㄕㄚ	-10.6989
ㄔ1쎯	-10.699
ㄗㄨˊ1쎯ㄗˋ0쎯ㄓˋ5쎯ㄡ0쎯	-10.6992
-쎀	-10.6994
ㄩㄝˋ0쎯쎃ㄖˋ0쎯	-10.7
ㄙㄨㄥˋ1쎯·	-10.7
ㄕˋ16쎯ㄉㄤ0쎯	-10.7001
ㄐㄧㄠ6쎯ㄒㄩㄝˊ1쎯ㄌㄡˊ1쎯	-10.7005
ㄅㄚˇ0쎯ㄨㄛˋ2쎯	-10.7005
ㄕˊ5쎯	-10.7007
ㄌㄚ1쎯ㄙ4쎯	-10.7007
ㄧㄣˇ0쎯ㄈㄚ쎯	-10.701
쎆쎀쎀쎀	-10.7013
ㄐㄧㄠ11쎯	-10.7015
ㄉㄤˇ1쎯ㄗㄨㄥˇ0쎯ㄓ1쎯	-10.7016
ㄈㄚ쎯ㄅㄧㄥˋ0쎯	-10.7017
ㄕㄣˋ2쎯	-10.7024
ㄊㄧㄥˊ3쎯ㄓˇ0쎯	-10.7024
ㄇㄤˊ2쎯	-10.7026
ㄐㄧㄣˇ3쎯ㄅㄧㄠ0쎯ㄙㄞˋ쎯	-10.703
ㄏㄨㄥˊ2쎯ㄍㄨㄢ1쎯	-10.7034
ㄧㄣ0쎯ㄑㄧˊ1쎯	-10.7035
ㄍㄨㄥ0쎯ㄒㄩㄝˊ1쎯ㄩㄢˋ2쎯	-10.7036
ㄑㄧㄢˊ0쎯ㄧㄢˊ5쎯	-10.7038
ㄕㄜˋ3쎯ㄐㄧ2쎯	-10.7039
ㄉㄞˋ1쎯ㄓㄠ2쎯	-10.704
ㄓˊ5쎯ㄨˋ3쎯.	-10.7041
-쎁쎈	-10.7042
ㄍㄨㄥˋ0쎯ㄈㄣ0쎯	-10.7044
ㄧㄣ	-10.7045
ㄐㄧㄠ3쎯	-10.7046
ㄑㄧˊ1쎯ㄐㄧㄢ4쎯	-10.7047
-쎂쎀	-10.7048
ㄓ7쎯ㄒㄧㄢˋ0쎯	-10.7049
ㄈㄚ쎯ㄐㄩㄝˊ4쎯	-10.7051
ㄉㄨㄢˇ쎯ㄒㄧㄣˋ0쎯	-10.7051
ㄓㄜˋ0쎯ㄐㄧㄡˋ4쎯ㄕˋ15쎯	-10.7055
ㄒㄩㄝˊ1쎯ㄨㄟˋ2쎯,	-10.7056
ㄌㄧˇ3쎯ㄨㄟˋ2쎯ㄓˋ13쎯	-10.7059
쎃ㄌㄧˊ1쎯ㄇㄧˇ0쎯	-10.7061
▁̇ㄉㄜ1쎯ㄍㄨˋ1쎯ㄕˋ8쎯.	-10.7064
ㄐㄧㄡˇ0쎯ㄌㄨㄥˊ0쎯	-10.7065
ㄇㄧㄢˋ0쎯ㄐㄧ11쎯ㄉㄚˊ1쎯	-10.7066
ㄅㄞˇ0쎯ㄏㄨㄛˋ1쎯	-10.7072
ㄖㄠˇ쎯	-10.7073
ㄧㄝˇ0쎯ㄏㄨㄟˋ2쎯	-10.7074
ㄌㄧㄥˊ1	-10.7074
▁̇ㄌㄜ쎯ㄒㄩˇ0쎯ㄉㄨㄛ0쎯	-10.7076
ㄧㄣˇ0쎯ㄖㄨˋ0쎯	-10.7076
ㄓㄨㄥ0쎯ㄐㄧ13쎯	-10.7077
ㄌㄩˇ6쎯	-10.7077
ㄧㄚˋ1쎯ㄔㄨㄥˊ1쎯	-10.7078
ㄚ	-10.7078
▁̇ㄉㄜ1쎯ㄧ0쎯ㄒㄧㄝ0쎯	-10.7079
ㄧㄡˇ1쎯ㄇㄧㄥˊ0쎯	-10.708
쎂쎀쎀ㄎㄜˋ0쎯	-10.708
、ㄌㄧˇ1쎯	-10.7082
ㄉㄧˋ3쎯ㄧ0쎯ㄐㄧㄚ3쎯	-10.7083
、ㄙㄢ0쎯	-10.7083
ㄔㄤˊ4쎯ㄍㄨㄟ2쎯	-10.7084
ㄨㄢˊ2쎯ㄐㄩˋ2쎯	-10.7084
ㄧㄣˇ1쎯ㄌㄧㄠˋ0쎯	-10.7085
.ㄊㄨㄥˊ0쎯ㄕˊ1쎯	-10.7085
ㄑㄧㄥ0쎯ㄏㄞˇ0쎯ㄕㄥˇ0쎯	-10.709
ㄓㄨㄥ0쎯ㄗㄨㄟˋ0쎯	-10.7091
ㄇㄟˇ1쎯ㄒㄩㄝˊ1쎯	-10.7092
ㄎㄠˇ2쎯ㄧㄢ2쎯	-10.7094
.쎂쎀쎁쎃ㄋㄧㄢˊ0쎯	-10.7095
ㄊㄨˇ0쎯ㄇㄨˋ0쎯	-10.7096
ㄑㄧˋ7쎯ㄍㄨㄢ2쎯	-10.7096
ㄔㄨ0쎯ㄔㄤˊ1쎯	-10.7102
ㄌㄧㄣˊ1쎯ㄓㄨㄥ0쎯	-10.7104
ㄔㄢˇ0쎯ㄧㄝˋ0쎯ㄏㄨㄚˋ0쎯	-10.7105
ㄩㄝˋ0쎯쎃쎀ㄖˋ0쎯	-10.7106
,ㄆㄧˊ6쎯ㄌㄧㄣˊ0쎯	-10.7107
ㄅㄣˇ0쎯ㄎㄜ2쎯ㄕㄥ1쎯	-10.7108
ㄨㄟˊ0쎯ㄅㄣˇ0쎯	-10.7112
-쎁쎆	-10.7115
ㄕㄢ0쎯、	-10.7115
ㄏㄨㄟˊ0쎯ㄍㄨㄛˊ0쎯	-10.7116
쎁쎉쎂쎈ㄋㄧㄢˊ0쎯	-10.7118
ㄋㄚˇ0쎯	-10.712
ㄉㄧㄠ	-10.7128
ㄕˋ15쎯ㄘㄨㄥˊ0쎯	-10.7129
ㄍㄠ0쎯ㄒㄧㄝˇ1쎯ㄧㄚ1쎯	-10.713
ㄈㄤˋ쎯ㄕㄜˋ3쎯	-10.713
ㄑㄧˋ1쎯ㄐㄧㄣ2쎯	-10.7131
ㄨㄣˋ0쎯ㄊㄧˊ1쎯.	-10.7131
ㄆㄧㄥˊ0쎯ㄢ0쎯	-10.7132
ㄏㄞˇ0쎯ㄋㄟˋ쎯ㄨㄞˋ쎯	-10.7133
ㄐㄧㄢˋ2쎯ㄐㄧㄠˋ2쎯	-10.7136
ㄉㄧˋ3쎯ㄙㄢ0쎯ㄐㄧㄝˋ2쎯	-10.714
ㄊㄜˋ0쎯ㄔㄢˇ0쎯	-10.7142
ㄅㄞˊ0쎯ㄙㄜˋ0쎯,	-10.7142
ㄍㄨˇ0쎯ㄐㄧㄣ2쎯	-10.7142
ㄏㄣˇ0쎯ㄎㄨㄞˋ1쎯	-10.7144
ㄅㄧㄢ1쎯ㄔㄥˊ7쎯	-10.7145
ㄌㄨㄢˇ쎯ㄒㄧㄥˊ1쎯	-10.7146
ㄗㄨㄥˇ0쎯ㄘㄞˊ3쎯	-10.7147
ㄒㄩㄝˊ1쎯ㄧㄢˊ6쎯ㄐㄧㄡ1쎯	-10.7149
ㄉㄧˋ3쎯ㄕˊ0쎯	-10.715
ㄗㄞˋ1쎯ㄖˋ0쎯ㄅㄣˇ0쎯	-10.7151
ㄎㄜ2쎯ㄔㄤˊ0쎯	-10.7157
ㄈㄣ0쎯ㄅㄧㄢˋ3쎯ㄌㄩˋ2쎯:	-10.7158
ㄆㄧㄥˊ0쎯ㄏㄤˊ0쎯	-10.7158
ㄐㄧㄝˇ0쎯	-10.7159
ㄙㄡ1쎯	-10.7162
ㄈㄚˇ0쎯》	-10.7163
ㄅㄨˋ4쎯,	-10.7164
(/	-10.7165
ㄞ2쎯ㄐㄧˊ0쎯	-10.7166
ㄐㄩㄢˇ0쎯,	-10.7167
ㄧㄢˇ3쎯ㄅㄧㄢˋ0쎯	-10.7168
ㄌㄧㄡˊ1쎯ㄌㄢˇ0쎯	-10.7168
ㄋㄨˇ0쎯	-10.7169
쎈ㄏㄠˊ0쎯	-10.717
ㄒㄧㄤˇ1쎯ㄧㄥ0쎯	-10.7171
ㄍㄨㄛ0쎯ㄔㄥˊ7쎯ㄓㄨㄥ0쎯,	-10.7172
ㄉㄚˊ0쎯ㄐㄧ2쎯	-10.7172
ㄨˇ0쎯ㄉㄞˋ0쎯	-10.7172
ㄏㄠˇ0쎯,	-10.7173
ㄎㄜˋ2쎯ㄍㄨㄢ1쎯	-10.7174
ㄕㄤ1쎯ㄐㄧㄚ3쎯	-10.7175
ㄍㄞˋ1쎯	-10.7175
ㄈㄨ1쎯	-10.7177
.쎂쎀쎀쎇ㄋㄧㄢˊ0쎯	-10.7181
ㄅㄟˇ쎯ㄇㄟˇ1쎯	-10.7181
쎁쎀ㄋㄧㄢˊ0쎯	-10.7183
▁̇ㄉㄜ1쎯ㄍㄜˇ1쎯ㄗㄨㄛ0쎯	-10.7184
ㄩㄝˋ0쎯쎂쎇ㄖˋ0쎯	-10.7189
ㄕˋ12쎯ㄧㄝˇ2쎯	-10.7189
.쎂쎀쎀쎅ㄋㄧㄢˊ0쎯	-10.719
,ㄅㄟˇ쎯ㄩˇ0쎯	-10.719
,ㄗㄨㄟˋ0쎯ㄓㄨㄥ2쎯	-10.7193
▁̇ㄉㄜ1쎯ㄈㄚ쎯ㄓㄢˇ2쎯,	-10.7193
ㄈㄨˊ5쎯ㄨˋ2쎯、	-10.7194
ㄉㄧ2쎯ㄕˋ2쎯	-10.7195
▁̇ㄉㄜ0쎯ㄒㄧㄥˊ1쎯	-10.7197
ㄌㄧˇ3쎯ㄕˋ8쎯、	-10.7198
ㄎㄜˋ2쎯ㄖㄣˊ0쎯	-10.7199
ㄕㄨˋ0쎯ㄎㄞ0쎯ㄈㄚ쎯ㄡ0쎯	-10.7201
▁̇ㄉㄜ1쎯ㄖㄣˊ0쎯ㄨˋ3쎯	-10.7202
ㄩˋ2	-10.7204
ㄨㄟˋ0쎯ㄕㄥ1쎯ㄅㄨˋ4쎯	-10.7204
ㄐㄧˊ8쎯ㄍㄜˇ1쎯	-10.7205
ㄈㄨˊ12쎯ㄌㄧˋ6쎯	-10.7206
ㄖㄣˊ0쎯ㄨㄟˊ0쎯ㄅㄣˇ0쎯	-10.7206
ㄧㄢˋ7쎯	-10.7208
ㄊㄞˋ2쎯ㄉㄨˋ2쎯	-10.721
ㄒㄧㄠ2쎯ㄏㄠˋ0쎯	-10.721
ㄧㄡˇ1쎯ㄑㄩˋ1쎯	-10.7212
ㄧㄢˇ1쎯	-10.7215
ㄏㄨㄣ0쎯	-10.7216
ㄓˊ1쎯ㄉㄠˋ0쎯	-10.7217
ㄕㄡ쎯ㄧˋ15쎯	-10.7217
ㄏㄞˇ0쎯ㄕㄨㄟˇ쎯	-10.7218
쎅ㄇㄧˇ0쎯,	-10.7219
ㄔㄜˋ0쎯ㄉㄧˇ1쎯	-10.7221
ㄐㄧㄠ6쎯ㄒㄩㄝˊ1쎯ㄅㄢ1쎯,	-10.7221
ㄒㄩㄣ0쎯	-10.7222
ㄇㄛˊ0쎯ㄙㄜˋ0쎯	-10.7223
ㄓˇ4쎯ㄕˋ2쎯	-10.7225
쎁.쎃	-10.7226
ㄕㄠˊ3쎯	-10.7227
ㄏㄢˊ2쎯	-10.7228
ㄏㄞˇ0쎯ㄩˋ7쎯	-10.723
ㄌㄢˊ5쎯	-10.723
쎀쎀ㄏㄠˊ1쎯ㄇㄧˇ0쎯,ㄕˋ1	-10.7231
ㄧㄡ0쎯ㄧˋ7쎯	-10.7231
▁̇ㄉㄜ1쎯ㄕˋ4쎯ㄔㄤˊ1쎯	-10.7233
ㄕㄠ1쎯ㄖㄜˋ쎯	-10.7233
ㄉㄥˇ0쎯ㄏㄤˊ0쎯ㄧㄝˋ0쎯	-10.7234
ㄏㄢˊ1쎯ㄧˋ1쎯	-10.7235
ㄇㄧㄣˇ3쎯ㄍㄢˇ3쎯	-10.7238
ㄍㄠ0쎯ㄒㄧㄣ5쎯	-10.7241
ㄈㄨˋ3쎯ㄔㄢˇ0쎯ㄎㄜ2쎯	-10.7242
ㄊㄠˊ4쎯	-10.7244
;ㄈㄨˋ2쎯ㄗㄜˊ1쎯	-10.7244
≥	-10.7246
ㄈㄣ0쎯ㄓ1쎯	-10.7248
;쎂、	-10.7248
—쎁	-10.7249
ㄐㄧㄚˋ1쎯ㄕˇ4쎯	-10.7253
ㄓㄨㄢ0쎯ㄐㄧㄚ3쎯,	-10.7254
ㄏㄜˊ2쎯ㄒㄧㄠ6쎯ㄕㄡˋ3쎯	-10.7254
ㄘㄢ0쎯ㄇㄡˊ0쎯ㄔㄤˊ0쎯	-10.7255
ㄇㄠˊ1쎯ㄉㄨㄣˋ2쎯	-10.7256
,쎁쎉쎈쎄ㄋㄧㄢˊ0쎯	-10.7262
ㄏㄨㄟˋ1쎯ㄐㄧˊ8쎯	-10.7262
ㄚ0쎯ㄌㄚ1쎯ㄅㄞˇ1쎯	-10.7264
ㄏㄜˊ3쎯ㄆㄢˋ3쎯	-10.7264
ㄕˋ15쎯ㄩㄥˋ0쎯	-10.7265
ㄒㄩㄝˊ1쎯ㄐㄧㄠˋ2쎯,	-10.7265
ㄒㄧㄠˋ3쎯ㄍㄨㄛˇ0쎯.	-10.7266
ㄧㄠˇ0쎯	-10.7268
ㄏㄞˊ0쎯ㄩㄢˊ4쎯	-10.7269
ㄙㄨㄟˊ1쎯ㄏㄡˋ0쎯	-10.727
ㄈㄢˇ0쎯ㄈㄨˋ7쎯	-10.727
,ㄌㄧˋ9쎯ㄕㄨˇ1쎯	-10.727
ㄅㄧㄠˇ0쎯ㄇㄧㄥˊ1쎯	-10.7271
ㄕˊ3쎯ㄓㄢˋ1쎯	-10.7272
ㄍㄨㄛ3쎯ㄌㄨˊ3쎯	-10.7273
ㄙㄢ0쎯ㄐㄧㄠˇ0쎯ㄒㄧㄥˊ1쎯	-10.7273
ㄨㄚ0쎯ㄐㄩㄝˊ4쎯	-10.7273
ㄏㄟ0쎯ㄢˋ3쎯	-10.7276
쎁쎀ㄍㄨㄥ2쎯ㄌㄧˇ2쎯	-10.7278
ㄓㄣˋ3쎯,	-10.7283
ㄒㄧˋ1쎯ㄐㄧㄝ0쎯	-10.7285
ㄓㄨˋ3쎯ㄧㄣ4쎯:	-10.7288
ㄨㄞˋ쎯ㄎㄜˊ쎯	-10.7289
ㄅㄠˋ3쎯	-10.7289
ㄖㄜˋ쎯ㄕㄨㄟˇ쎯	-10.729
ㄧ0쎯ㄅㄨˋ2쎯	-10.7293
》ㄕˋ15쎯ㄧㄡˊ1쎯	-10.7294
ㄏㄣˇ0쎯ㄕㄠˇ쎯	-10.7295
ㄎㄨㄤˋ2쎯ㄧㄝˋ0쎯	-10.7295
ㄕㄣˇ0쎯ㄧㄤˊ2쎯ㄕˋ4쎯	-10.7301
.ㄕㄥ1쎯ㄩˊ0쎯	-10.7304
ㄍㄨㄢˋ2쎯ㄍㄞˋ4쎯	-10.7306
쎁쎀쎈	-10.731
ㄕˊ3쎯ㄩㄥˋ0쎯ㄒㄧㄥˋ2쎯	-10.731
ㄙㄨㄥˋ3쎯	-10.7311
ㄅㄠˋ6쎯ㄅㄨˋ1쎯	-10.7311
ㄈㄥ1쎯ㄩˇ4쎯	-10.7312
ㄒㄩˊ쎯ㄓㄡ1쎯	-10.7315
ㄉㄠˇ2쎯	-10.7317
ㄨㄣ0쎯ㄓㄡ1쎯ㄕˋ4쎯	-10.732
,ㄒㄧㄢˋ1쎯ㄧˇ1쎯	-10.7322
ㄨㄟˊ0쎯ㄖㄣˊ0쎯	-10.7323
▁̇ㄉㄜ1쎯ㄞˋ1쎯ㄑㄧㄥˊ0쎯	-10.7325
ㄉㄧㄥ3쎯	-10.7325
ㄍㄢˇ3쎯ㄉㄠˋ0쎯	-10.7327
:쎉	-10.7329
ㄎㄨㄟˊ1쎯	-10.7329
《ㄏㄡˋ0쎯ㄏㄢˋ0쎯ㄕㄨ0쎯·	-10.7329
▁̇ㄉㄜ1쎯ㄏㄢˋ0쎯ㄗㄨˊ1쎯	-10.7334
ㄏㄨㄛˇ0쎯ㄊㄨㄟˇ쎯	-10.7334
ㄨㄢˇ5쎯	-10.7335
ㄐㄧˊ4쎯ㄔㄥˊ0쎯.	-10.7335
ㄐㄧˊ3쎯ㄑㄧˊ1쎯	-10.734
(쎂쎀쎀	-10.734
ㄐㄧㄡˋ4쎯ㄧㄡˇ1쎯	-10.7343
ㄑㄧㄠˋ5쎯	-10.7343
ㄉㄨㄛ0쎯ㄩㄢˊ0쎯ㄏㄨㄚˋ0쎯	-10.7344
ㄗˋ0쎯ㄏㄤˊ0쎯	-10.7347
ㄧˋ18쎯ㄙ3쎯	-10.7348
ㄇㄧㄢˊ2쎯ㄏㄨㄚ0쎯	-10.7348
쎅.쎅	-10.7349
ㄧㄡˇ0쎯ㄏㄠˇ0쎯	-10.7351
ㄧㄡˋ0쎯ㄧㄡˇ1쎯	-10.7351
ㄎㄨㄟˊ0쎯	-10.7351
ㄎㄡˇ쎯,	-10.7356
(ㄧˇ2쎯ㄒㄧㄚˋ0쎯	-10.7359
ㄎㄜˇ0쎯ㄧˇ2쎯ㄗㄞˋ1쎯	-10.7362
ㄋㄩˇ0쎯ㄓㄨˇ0쎯ㄐㄧㄠˇ0쎯	-10.7363
ㄧˇ2쎯ㄅㄟˇ쎯	-10.7363
ㄘㄠˇ쎯ㄅㄣˇ0쎯	-10.7365
ㄕㄨˋ6쎯	-10.7367
ㄊㄜˋ0쎯ㄆㄧㄣˋ0쎯	-10.7367
ㄕㄣˇ1쎯ㄆㄢˋ0쎯	-10.7375
▁̇ㄉㄜ1쎯ㄏㄨㄚˋ2쎯	-10.7377
ㄅㄨˋ0쎯ㄧˋ12쎯	-10.738
ㄨㄢˇ2쎯ㄐㄧ13쎯	-10.7383
ㄌㄠˊ1쎯	-10.7384
쎀.쎇	-10.7384
ㄒㄧ1쎯ㄏㄢˋ0쎯	-10.7385
ㄘㄢ0쎯ㄇㄡˊ0쎯	-10.7385
”)	-10.7386
ㄈㄢ4쎯	-10.7389
ㄕˋ8쎯.	-10.7391
ㄖˋ0쎯ㄐㄩㄣ0쎯	-10.7393
ㄐㄧㄤ6쎯	-10.7393
ㄩㄝˋ0쎯쎂ㄖˋ0쎯	-10.7394
ㄌㄞˊ0쎯ㄕㄨㄟˋ0쎯,	-10.7398
ㄘㄨㄥˊ0쎯ㄘˇ0쎯	-10.7399
ㄖㄣˋ0쎯	-10.7402
ㄕㄣ	-10.7404
ㄎㄠˇ0쎯ㄕㄥ1쎯	-10.7406
ㄘㄥˊ1쎯ㄉㄨㄛ0쎯ㄘˋ0쎯	-10.7406
ㄊㄞ0쎯ㄅㄟˇ쎯	-10.7406
ㄒㄩˋ2쎯	-10.7406
ㄉㄧㄝ1쎯	-10.7407
ㄋㄥˊ쎯ㄌㄧˋ0쎯,	-10.741
ㄙㄨㄟˋ0쎯,	-10.741
ㄇㄛˋ0쎯ㄇㄨˇ2쎯	-10.7414
ㄕㄨ0쎯,	-10.7415
ㄒㄧㄣ1쎯ㄆㄧㄢ0쎯ㄗㄨˇ1쎯	-10.7418
ㄩㄣˇ0쎯	-10.742
ㄈㄟ	-10.7421
ㄨㄞˋ쎯ㄐㄧㄠ0쎯	-10.7422
▁̇ㄉㄜ1쎯ㄇㄨˋ1쎯ㄅㄧㄠ0쎯	-10.7423
ㄙㄨㄟˊ1쎯ㄕˊ1쎯	-10.7424
ㄅㄧㄣ2쎯	-10.7425
)(	-10.7425
ㄅㄣˇ0쎯ㄊㄨˇ0쎯	-10.7432
、ㄕㄥˇ0쎯	-10.7432
ㄅㄧㄥˋ0쎯ㄌㄧˇ3쎯	-10.7432
ㄕㄣˋ2쎯ㄊㄡˋ쎯	-10.7433
ㄑㄧˊ6쎯ㄕˋ0쎯	-10.7435
ㄌㄧㄤˇ0쎯ㄢˋ0쎯	-10.7437
ㄓㄨˇ0쎯ㄐㄧㄤˇ0쎯	-10.7441
ㄉㄧ2쎯ㄑㄩˇ0쎯	-10.7443
ㄨㄚ3쎯	-10.7446
,ㄋㄚ1쎯ㄩˇ0쎯	-10.7447
ㄆㄥˊ2쎯	-10.7448
ㄧㄢˊ6쎯ㄐㄧㄡ1쎯ㄏㄜˊ2쎯	-10.7452
,ㄅㄧˋ2쎯ㄧㄝˋ0쎯ㄩˊ0쎯	-10.7454
ㄧㄠˋ0쎯ㄩㄥˋ0쎯	-10.7455
ㄜˊ6쎯	-10.7456
ㄩㄝˋ0쎯쎄ㄖˋ0쎯	-10.7457
ㄕㄤ1쎯ㄐㄩㄢ2쎯	-10.7459
ㄧㄢˊ6쎯ㄐㄧㄡ1쎯ㄩㄢˊ2쎯.	-10.7464
ㄎㄤˋ1쎯ㄓㄢˋ1쎯	-10.7468
ㄅㄛˊ7쎯	-10.7468
ㄋㄧㄢˊ3쎯	-10.7469
ㄉㄡ0쎯ㄎㄜˇ0쎯ㄧˇ2쎯	-10.7469
ㄗㄨㄥˇ0쎯ㄏㄨˋ1쎯ㄕㄨˇ5쎯	-10.7471
ㄌㄧㄡˊ3쎯ㄊㄧ0쎯	-10.7473
ㄉㄧㄢˋ0쎯ㄊㄞ0쎯	-10.7481
ㄆㄥ1쎯ㄖㄣˋ6쎯	-10.7481
ㄅㄟˇ쎯ㄘㄜˋ2쎯	-10.7482
쎁쎀쎅	-10.7484
,ㄕˇ3쎯ㄐㄧㄢˋ2쎯ㄩˊ0쎯	-10.7485
ㄧㄢˇ3쎯ㄧˋ13쎯	-10.7486
ㄉㄧㄥˇ0쎯ㄉㄨㄢ0쎯	-10.7489
ㄆㄟˊ3쎯	-10.7489
ㄦˊ0쎯ㄎㄜ2쎯	-10.7491
.ㄇㄨˋ1쎯ㄑㄧㄢˊ0쎯,	-10.7491
ㄐㄧㄥ1쎯ㄐㄩˋ4쎯	-10.7495
ㄋㄨㄥˊ0쎯ㄌㄧˋ1쎯	-10.7499
ㄊㄧㄢ0쎯ㄊㄤˊ1쎯	-10.75
ㄔㄣˊ3쎯ㄐㄧ11쎯	-10.7504
ˊ쎯	-10.7506
ㄅㄟˇ쎯ㄇㄧㄢˋ0쎯	-10.7506
ㄧㄝˋ0쎯ㄐㄧㄝˋ3쎯	-10.7509
ㄕˋ6쎯ㄏㄨ0쎯	-10.7509
ㄐㄧㄥ8쎯ㄉㄨˋ2쎯	-10.7511
ㄓㄨㄢ0쎯ㄒㄧㄤˋ1쎯	-10.7511
(ㄧㄠ2쎯	-10.7512
ㄉㄨㄢˇ쎯ㄆㄧㄢ2쎯	-10.7512
ㄕㄠˋ0쎯ㄏㄨㄢˋ3쎯	-10.7515
ㄕㄨㄟˇ쎯ㄐㄧㄥ5쎯	-10.7516
ㄕㄨ0쎯》	-10.7518
ㄧˋ6쎯ㄗㄨㄛ0쎯“	-10.7518
:쎅	-10.7523
,ㄧㄝˇ0쎯ㄧㄡˇ1쎯	-10.7524
ㄉㄧㄢ1쎯	-10.7526
▁̇ㄉㄜ1쎯ㄨㄟˋ2쎯ㄓˋ13쎯	-10.7527
ㄐㄧㄣ2쎯ㄋㄧㄢˊ0쎯	-10.7527
ㄌㄧㄥˋ0쎯ㄧ0쎯ㄍㄜˇ0쎯	-10.7527
쎁ㄩㄝˋ0쎯쎁ㄖˋ0쎯	-10.7527
ㄍㄠˇ0쎯	-10.7529
ㄖㄨㄥˊ6쎯ㄐㄧㄝˇ1쎯	-10.7529
ㄩˋ6쎯ㄐㄧˋ0쎯	-10.7533
ㄕㄡˇ0쎯ㄍㄨㄥ0쎯	-10.7533
ㄔㄨ0쎯ㄖㄣˊ3쎯	-10.7534
ㄧ0쎯ㄓㄨㄥ0쎯	-10.7534
ㄓㄢ1쎯	-10.7535
い	-10.7538
ㄧㄡˊ4쎯,	-10.7538
ㄑㄧㄢˊ4쎯ㄌㄧˋ0쎯	-10.7539
쎂ㄘˋ0쎯	-10.7543
ㄇㄨˋ4쎯	-10.7544
ㄕˋ19쎯ㄕˋ3쎯	-10.7546
ㄗㄨㄥˇ0쎯ㄓㄢ0쎯	-10.7547
ㄙˋ13쎯	-10.7547
▁̇ㄉㄜ0쎯쎁	-10.7547
ㄓㄜˋ0쎯ㄎㄨㄢˇ쎯	-10.7548
쎀*	-10.7549
ㄅㄣˇ0쎯ㄓㄠ2쎯	-10.7549
,ㄅㄨˋ0쎯ㄐㄧㄣˇ0쎯	-10.755
쎂.쎂	-10.755
ㄈㄨ3쎯	-10.7552
쎈ㄍㄨㄥ2쎯ㄌㄧˇ2쎯	-10.7555
ㄈㄨˊ5쎯ㄨˋ2쎯ㄩˊ0쎯	-10.7556
ㄐㄧ0쎯ㄋㄧㄢˊ0쎯	-10.7556
ㄐㄧㄢˇ8쎯ㄔㄣˋ1쎯“	-10.7557
ㄗㄞˋ1쎯ㄋㄟˋ쎯	-10.7557
;쎄	-10.7557
ㄑㄩ6쎯	-10.7558
쎅ㄎㄜˋ0쎯,	-10.7558
、ㄒㄧㄡ0쎯ㄒㄧㄢˊ0쎯	-10.7559
ㄓㄨˇ0쎯ㄉㄠˇ0쎯	-10.7559
ㄒㄧˇ0쎯ㄍㄢ0쎯ㄐㄧㄥˋ1쎯	-10.7562
.ㄏㄡˋ0쎯ㄌㄞˊ0쎯	-10.7565
ㄅㄣˇ0쎯ㄍㄨㄥ2쎯ㄙ0쎯	-10.7566
ㄧㄡˇ0쎯ㄧˋ16쎯	-10.7566
ㄇㄧㄥˋ쎯ㄩㄣˋ1쎯	-10.7568
ㄓㄨㄤ0쎯	-10.757
쎂ㄌㄧˊ1쎯ㄇㄧˇ0쎯	-10.7574
ㄩㄥ5쎯	-10.7578
ㄇㄢˊ0쎯	-10.758
ㄧㄤˊ	-10.7581
ㄆㄞˊ0쎯ㄕㄨㄟˇ쎯	-10.7585
ㄦˊ1쎯ㄧㄡˋ0쎯	-10.7586
ㄕㄜˋ0쎯ㄐㄧˋ0쎯ㄩˇ0쎯	-10.7588
ㄕㄨˋ3쎯ㄇㄨˋ0쎯	-10.7593
ㄉㄚˋ쎯ㄌㄧˇ3쎯	-10.7594
ㄩㄢˊ4쎯ㄅㄣˇ0쎯	-10.7597
ㄓˋ5쎯ㄢ0쎯	-10.7597
ㄒㄧˋ1쎯ㄔㄤˊ0쎯	-10.7597
ㄐㄧㄝˋ2쎯ㄖㄣˊ0쎯ㄉㄚˋ쎯	-10.7597
ㄓㄣˇ0쎯ㄌㄧㄠˊ1쎯	-10.7598
ㄈㄢˋ2쎯ㄓˇ4쎯	-10.7599
ㄈㄨˇ7쎯ㄕˊ5쎯	-10.76
ㄈㄣ0쎯ㄌㄟˋ2쎯:	-10.7603
▁̇ㄉㄜ0쎯:	-10.7605
ㄈㄨˋ8쎯ㄗㄨㄥˇ0쎯	-10.7606
ㄏㄨㄛˊ0쎯ㄆㄛ1쎯	-10.7607
ㄗㄨㄥˇ0쎯ㄅㄨˋ4쎯ㄕㄜˋ0쎯	-10.7608
ㄕㄜˋ1쎯ㄎㄜ2쎯	-10.7609
ㄐㄧㄥˇ1쎯ㄉㄜˊ1쎯ㄓㄣˋ3쎯	-10.761
ㄩㄢˊ11쎯	-10.761
ㄇㄧㄥˊ3쎯	-10.7611
ㄙㄞˋ쎯ㄐㄧˋ7쎯	-10.7611
ㄓㄨㄤ2쎯	-10.7612
ㄊㄨㄥ0쎯ㄙㄨˊ쎯	-10.7612
ㄌㄧㄡˊ3쎯ㄔㄤˋ0쎯	-10.7614
ㄏㄨㄚ0쎯ㄨㄣˊ1쎯	-10.7616
ㄘˇ0쎯ㄕˊ1쎯	-10.7617
,ㄧㄡˇ1쎯ㄕˊ1쎯	-10.7621
ㄐㄧㄡˋ4쎯ㄋㄥˊ쎯	-10.7621
ㄑㄩㄣˊ0쎯	-10.7622
ㄌㄜˋ0쎯ㄩㄢˊ1쎯	-10.7625
,ㄔㄣˋ1쎯ㄨㄟˊ0쎯	-10.7626
”;	-10.7626
ㄡˇ1쎯ㄒㄧㄤˋ3쎯	-10.7627
ㄕˋ15쎯:	-10.763
ㄉㄠˇ1쎯ㄕㄤˇ0쎯	-10.7633
ㄏㄨㄤˊ	-10.7635
ㄧ0쎯ㄌㄨˋ5쎯	-10.7635
쎂ㄖㄣˊ0쎯	-10.7637
ㄎㄨㄣ0쎯	-10.7638
ㄏㄨㄛˋ4쎯	-10.764
ㄅㄟ1쎯	-10.7643
쎁ㄘˋ0쎯	-10.7645
ㄗㄨ0쎯ㄌㄧㄣˋ1쎯	-10.7647
ㄇㄧㄢˋ0쎯ㄐㄧ11쎯쎉	-10.7649
쎁%	-10.7653
ㄕˋ15쎯ㄓˇ4쎯ㄗㄞˋ1쎯	-10.7656
ㄑㄧㄥˊ0쎯ㄒㄩˋ5쎯	-10.7656
ㄇㄛˊ3쎯ㄕˋ5쎯,	-10.7657
、ㄌㄩˇ2쎯ㄧㄡˊ5쎯	-10.7659
ㄨㄣˊ0쎯ㄒㄩㄝˊ1쎯ㄐㄧㄚ3쎯	-10.766
ㄍㄨㄢ0쎯ㄐㄧˋ3쎯.	-10.7665
ㄐㄧㄚ4쎯ㄐㄧㄥˋ5쎯	-10.7668
ㄐㄧㄣˋ3쎯ㄕㄥ0쎯ㄨㄟˊ0쎯	-10.7669
쎂쎀ㄎㄜˋ0쎯	-10.7673
ㄕㄢˋ0쎯ㄩˊ0쎯	-10.7673
ㄧㄡˇ1쎯ㄌㄧˋ0쎯	-10.7676
ㄅㄠˋ0쎯ㄐㄧㄥˇ2쎯	-10.7676
ㄆㄧ2쎯ㄓㄣ1쎯ㄒㄧㄥˊ1쎯	-10.7681
ㄔㄤˊ4쎯ㄓㄡ1쎯	-10.7682
ㄑㄧˇ1쎯	-10.7682
ㄌㄧㄝˋ0쎯ㄔㄜ0쎯	-10.7684
ㄐㄧㄝ0쎯ㄖˋ0쎯	-10.7684
ㄓㄥˋ3쎯ㄨˋ2쎯	-10.7685
ㄔㄠ4쎯ㄩㄝˋ5쎯	-10.7689
ㄒㄩㄣ0쎯ㄓㄤ1쎯	-10.7692
,ㄐㄧ12쎯ㄅㄨˋ4쎯	-10.7692
ㄑㄧㄢˋ2쎯	-10.7698
ㄔㄢˊ0쎯ㄉㄨˊ1쎯	-10.7698
쎁×	-10.7698
ㄐㄧ13쎯ㄏㄨㄛˋ1쎯	-10.7699
ㄌㄟˇ0쎯	-10.77
ㄙㄨˋ6쎯ㄗㄠˋ2쎯	-10.7702
쎁쎀쎂쎄	-10.7702
ㄒㄧ14쎯ㄒㄧㄢˋ0쎯	-10.7704
ㄧ0쎯ㄖㄣˊ0쎯	-10.7707
ㄔㄨㄥˊ1쎯ㄔㄨㄥˊ1쎯	-10.7707
ㄐㄧˋ14쎯	-10.7708
ㄕ3쎯ㄨㄣˊ0쎯	-10.771
ㄙㄞˋ쎯ㄕˋ8쎯	-10.7711
ㄏㄣˇ0쎯ㄐㄧㄤˋ2쎯	-10.7712
ㄩˊ11쎯	-10.7712
ㄌㄞˊ0쎯ㄒㄧ1쎯ㄧㄚˋ1쎯	-10.7716
ㄩㄝˋ0쎯쎂쎉ㄖˋ0쎯	-10.7716
ㄏㄨㄚˊ1쎯ㄒㄧㄚˋ1쎯	-10.7717
ㄐㄧㄚ3쎯.	-10.7718
ㄖㄣˊ0쎯ㄘㄢ0쎯	-10.7718
ㄐㄩˇ1쎯	-10.7719
ㄧㄚ3쎯	-10.772
ㄇㄛˊ0쎯ㄖㄣˊ0쎯	-10.7721
ㄅㄧㄣ0쎯ㄎㄜˋ2쎯	-10.7723
.ㄓㄜˋ0쎯ㄍㄜˇ0쎯	-10.7725
ㄑㄩㄝˋ1쎯ㄖㄣˋ1쎯	-10.7726
.쎄.	-10.7728
ㄐㄧ8쎯ㄖㄡˋ쎯	-10.773
ㄑㄧˋ7쎯ㄒㄧㄝˋ4쎯	-10.7732
ㄓˊ4쎯ㄧㄝˋ0쎯ㄐㄧˋ2쎯	-10.7735
ㄗˇ5쎯	-10.7738
ㄐㄧㄡˋ4쎯ㄗㄞˋ1쎯	-10.7738
쎅ㄖㄣˊ0쎯	-10.7738
ㄧㄣˇ0쎯ㄌㄧㄥˇ1쎯	-10.7738
(ㄒㄧㄢˋ1쎯	-10.7739
ㄏㄨㄞˊ3쎯	-10.774
ㄍㄨㄥ2쎯ㄌㄧˇ2쎯ㄔㄨˇ0쎯,	-10.774
ㄡ0쎯ㄖㄣˊ0쎯ㄇㄧㄣˊ0쎯	-10.7743
ㄔㄠˊ1쎯ㄊㄧㄥˊ0쎯	-10.7748
ㄧㄥ0쎯ㄌㄧˋ0쎯	-10.7749
ㄕㄨ0쎯ㄏㄨㄚˋ1쎯ㄩㄢˋ2쎯	-10.775
ㄐㄩㄣ1쎯ㄎㄜˇ0쎯	-10.7754
▁̇ㄋㄜ쎯	-10.7754
ㄋㄨㄥˊ0쎯ㄇㄧㄣˊ0쎯ㄕㄡ쎯	-10.7756
ㄅㄧㄢ1쎯ㄏㄠˊ0쎯:	-10.7757
"="	-10.7761
ㄕㄨˇ1쎯ㄓˊ5쎯ㄨˋ3쎯	-10.7767
ㄐㄧㄤ1쎯ㄏㄨㄟˋ2쎯	-10.7769
ㄩˊ0쎯쎂쎀쎁쎁ㄋㄧㄢˊ0쎯	-10.7769
ㄏㄨˋ2쎯ㄔㄢˊ0쎯ㄨㄟˋ2쎯.	-10.7769
▁̇ㄉㄜ1쎯ㄩˇ6쎯ㄧㄢˊ2쎯	-10.777
ㄕㄨ0쎯.	-10.777
ㄆㄨˊ1쎯ㄊㄠˊ3쎯ㄐㄧㄡˇ5쎯	-10.7771
ㄅㄧㄢ1쎯ㄖㄨˋ0쎯	-10.7772
ㄓㄨˋ7쎯ㄧㄡˇ1쎯	-10.7774
ㄒㄧ1쎯ㄏㄨˊ5쎯	-10.7775
ㄌㄟˇ2쎯	-10.7777
▁̇ㄉㄜ1쎯ㄒㄧㄣ0쎯	-10.7783
ㄧㄣˋ0쎯ㄒㄧㄤˋ2쎯	-10.7783
ㄕㄨㄟˇ쎯ㄉㄠˋ4쎯、	-10.7785
ㄐㄩˊ0쎯、	-10.7786
ㄌㄞˊ0쎯ㄉㄧㄢˋ0쎯	-10.7789
ㄏㄨㄛˇ0쎯ㄐㄧㄢˋ15쎯	-10.7792
(쎄)	-10.7794
쎀ㄩˊ2쎯ㄖㄣˊ0쎯	-10.7795
ㄔˋ0쎯	-10.7795
ㄇㄧㄢˋ0쎯ㄐㄧ11쎯쎁.	-10.7796
ㄓㄥˋ3쎯ㄑㄩㄢˊ0쎯	-10.7797
н	-10.7799
.ㄊㄨㄥˊ0쎯ㄋㄧㄢˊ0쎯	-10.7801
ㄘㄨㄥ3쎯	-10.7802
ㄓ0쎯ㄐㄧㄢ4쎯,	-10.7803
ㄕㄚ2쎯ㄇㄛˋ6쎯	-10.7805
ㄐㄧㄥˋ2쎯ㄐㄧˋ2쎯	-10.7807
,ㄉㄨㄟˋ1쎯ㄩˊ0쎯	-10.7807
ㄔㄨㄥˊ2쎯ㄈㄨˋ7쎯	-10.7807
ㄊㄨㄥˊ	-10.7808
ㄐㄧㄥˋ6쎯ㄇㄞˋ3쎯	-10.7808
ㄐㄧˋ3쎯ㄓㄨˇ0쎯ㄖㄣˊ3쎯	-10.7809
ㄊㄡˊ0쎯ㄊㄨㄥˋ0쎯	-10.7811
ㄇㄧㄢˋ0쎯ㄅㄠ0쎯	-10.7811
ㄘㄨㄣ0쎯ㄒㄧㄚˊ5쎯쎁	-10.7812
ㄅㄠˋ0쎯ㄓˇ3쎯	-10.7813
ㄠˊ0쎯	-10.7814
ㄓㄤˋ2쎯	-10.7814
ㄐㄧㄣˋ0쎯쎀ㄑㄧㄡˊ2쎯	-10.7816
쎃쎀ㄈㄣ0쎯ㄓㄨㄥ3쎯	-10.782
ㄈㄢ1쎯ㄐㄧㄚ1쎯	-10.782
ㄒㄧㄥˋ3쎯ㄕˋ1쎯	-10.7821
ㄐㄧㄢˋ8쎯	-10.7821
ㄆㄧㄥˊ1쎯ㄒㄩㄢˇ0쎯	-10.7823
ㄉㄧˊ5쎯	-10.7823
ㄅㄟˋ5쎯ㄕㄡˋ2쎯ㄩˊ1쎯	-10.7827
ㄉㄤ0쎯ㄍㄨㄟ0쎯	-10.7828
ㄐㄧㄚ0쎯ㄍㄨㄥ0쎯、	-10.7833
̇ㄉㄜ0쎯	-10.7833
ㄧㄢˇ3쎯ㄧˋ2쎯	-10.7834
ㄨㄞˋ쎯,	-10.7834
ㄗㄨㄛˋ2쎯ㄔㄥˊ0쎯	-10.7839
▁̇ㄉㄜ1쎯ㄖㄣˊ0쎯ㄕㄥ1쎯	-10.784
ㄈㄢˋ6쎯	-10.7841
ㄧㄢˊ0쎯ㄢ0쎯	-10.7845
.ㄓㄜˋ0쎯ㄌㄧˇ2쎯	-10.7846
ㄒㄧ12쎯	-10.7846
▁̇ㄉㄜ1쎯ㄓ7쎯ㄕˊ2쎯	-10.7849
ㄐㄩˊ2쎯	-10.7855
ㄅㄣˇ0쎯ㄖㄣˊ0쎯	-10.7856
ㄧㄢ2쎯ㄊㄞ0쎯	-10.786
ㄐㄧㄥ10쎯	-10.786
ㄕˊ1쎯ㄐㄧ13쎯,	-10.7861
ㄔㄚˋ1쎯	-10.7862
ㄌㄧˇ	-10.7863
ㄗㄞˋ0쎯ㄕㄥ1쎯	-10.7865
ㄖㄢˊ1쎯ㄌㄧㄠˋ0쎯	-10.7865
ㄒㄧㄥˋ2쎯ㄋㄥˊ쎯:	-10.7865
쎄쎅쎀	-10.7866
ㄔㄥˊ11쎯	-10.7868
ㄏㄠˇ0쎯ㄧㄡˇ0쎯	-10.7869
ㄏㄨㄚˊ0쎯ㄈㄣ0쎯	-10.7872
ㄏㄨㄟˊ0쎯ㄧˋ3쎯	-10.7872
ㄕㄥ1쎯ㄘㄨˋ0쎯ㄋㄧㄢˊ0쎯	-10.7872
쎃ㄖㄣˊ0쎯	-10.7879
ㄕㄜˋ2쎯	-10.788
ㄌㄚ0쎯ㄐㄧ5쎯	-10.7882
ㄨㄟ4쎯	-10.7887
ㄐㄧㄥ2쎯ㄧㄢˋ5쎯.	-10.7889
ㄇㄟˇ1쎯ㄩˋ15쎯	-10.789
ㄓˋ3쎯ㄅㄟˋ2쎯	-10.789
ㄐㄧㄤˇ1쎯”	-10.7893
▁̇ㄉㄜ0쎯쎂	-10.7895
ㄅㄨˋ0쎯ㄒㄧㄥˋ1쎯	-10.7895
α	-10.7896
ㄧㄥ0쎯ㄐㄧˊ5쎯	-10.7897
ㄌㄧㄡˋ0쎯ㄕˊ0쎯	-10.7897
ㄏㄡˋ0쎯ㄗㄞˋ1쎯	-10.7897
ㄒㄧㄤ1쎯ㄐㄧ6쎯	-10.79
ㄌㄧˊ1	-10.79
ㄆㄧㄣˊ0쎯ㄎㄨㄣˋ쎯ㄘㄨㄣ0쎯	-10.79
ㄋㄨㄥˊ1쎯ㄏㄡˋ1쎯	-10.7902
ㄨㄛ	-10.7902
ㄈㄤˊ3쎯、	-10.7903
ㄅㄟˋ5쎯ㄔㄣˋ1쎯ㄨㄟˊ0쎯“	-10.7903
ㄔㄥˊ3쎯ㄅㄠ0쎯	-10.7905
ㄐㄧㄤ2쎯ㄆㄧㄢ0쎯	-10.7905
ㄐㄩ4쎯ㄕㄨㄟˋ0쎯	-10.7908
ㄅㄛˊ5쎯ㄨˋ3쎯ㄩㄢˋ2쎯	-10.7908
ㄐㄧㄢˇ8쎯ㄐㄧㄝˊ2쎯	-10.791
ㄎㄜˇ0쎯ㄔˊ4쎯ㄒㄩˋ6쎯	-10.791
▁̇ㄉㄜ1쎯ㄈㄤ0쎯ㄓㄣ1쎯	-10.791
ㄍㄢ0쎯ㄖㄠˇ쎯	-10.791
ㄦˊ1쎯ㄉㄜˊ0쎯ㄇㄧㄥˊ0쎯	-10.7916
ㄊㄧㄝˇ쎯ㄉㄠˋ3쎯	-10.7916
ㄧㄢˊ8쎯	-10.7917
ㄒㄩˋ2쎯ㄕㄨˋ2쎯	-10.7918
ㄉㄨㄛ0쎯ㄋㄧㄢˊ0쎯ㄕㄥ1쎯	-10.7919
ㄉㄨㄥˇ1쎯	-10.7919
쎁쎈쎉	-10.7922
ㄐㄧㄝ0쎯ㄗㄡˋ0쎯	-10.7924
ㄔㄤˊ4쎯ㄓㄨˋ1쎯	-10.7924
ㄐㄧ0쎯ㄏㄜˊ1쎯	-10.7924
ㄓㄨㄟˋ0쎯	-10.7925
▁̇ㄉㄜ0쎯ㄘㄥˊ0쎯	-10.7926
ㄧㄚˋ1쎯ㄖㄜˋ쎯ㄉㄞˋ1쎯	-10.7927
▁̇ㄉㄜ1쎯ㄕㄤ1쎯ㄧㄝˋ0쎯	-10.7927
ㄉㄢˋ4쎯ㄕㄨㄟˇ쎯	-10.7929
ㄋㄚ1쎯ㄘㄜˋ2쎯	-10.793
ㄕㄥ1쎯ㄔㄡ0쎯	-10.7932
ㄐㄧˇ2쎯	-10.7933
ㄕˋ15쎯ㄧㄣ0쎯ㄨㄟˊ0쎯	-10.7933
,ㄒㄧ1쎯ㄩˇ0쎯	-10.7933
ㄎㄜˋ0쎯ㄌㄚ1쎯	-10.7933
ㄇㄟˊ7쎯	-10.7935
ㄅㄧㄣ3쎯ㄏㄞˇ0쎯	-10.7936
ㄌㄧㄥˊ8쎯	-10.7936
.ㄧㄣ0쎯ㄘˇ0쎯,	-10.7937
쎁쎀ㄎㄜˋ0쎯,	-10.7937
ㄧㄝˋ0쎯ㄨㄟˊ0쎯ㄓㄨˇ0쎯.	-10.7937
ㄘㄤˊ쎯ㄕㄨ0쎯	-10.7939
ㄑㄧˊ14쎯	-10.7939
ㄌㄜˋ0쎯ㄊㄨㄢˊ0쎯	-10.794
ㄌㄩˋ2쎯ㄒㄧㄢ1쎯	-10.7941
ㄐㄧˊ3쎯ㄐㄩˋ2쎯	-10.7943
ㄨㄣˊ0쎯ㄕㄨ0쎯	-10.7944
ㄧㄢˊ7쎯ㄧㄝˋ0쎯	-10.7945
ㄏㄟ0쎯ㄅㄞˊ0쎯	-10.7947
ㄨㄟˊ0쎯ㄕㄣˊ0쎯	-10.7948
ㄕㄨㄣˋ2쎯	-10.7948
ㄔㄢˇ0쎯、ㄒㄧㄠ6쎯ㄕㄡˋ3쎯	-10.7949
ㄓㄨㄥ0쎯ㄉㄨˊ0쎯	-10.7951
,ㄕˋ16쎯ㄍㄜˇ1쎯	-10.7953
ㄐㄧˋ3쎯ㄊㄨㄥˇ0쎯ㄓㄨㄥ0쎯	-10.7953
ㄨㄟˊ6쎯ㄨˊ1쎯ㄦˇ0쎯	-10.7954
ㄑㄧㄢˊ0쎯ㄕㄣ2쎯	-10.7955
ㄒㄧㄤˇ2쎯ㄒㄧㄤˋ2쎯	-10.7957
ㄒㄧㄥˋ3쎯ㄇㄧㄥˊ0쎯	-10.7958
—)	-10.7959
ㄧㄥ3쎯	-10.796
ㄑㄩ	-10.7961
ㄙˋ9쎯	-10.7961
ㄎㄠˋ1쎯ㄐㄧㄣˋ1쎯	-10.7961
ㄔㄨ0쎯ㄉㄠˋ3쎯	-10.7962
ㄕㄨㄣˋ0쎯ㄒㄩˋ1쎯	-10.7962
ㄆㄞˊ0쎯ㄇㄧㄥˊ0쎯	-10.7964
ㄍㄨˇ2쎯ㄈㄣˋ0쎯ㄓˋ3쎯	-10.7965
ㄌㄧˋ9쎯	-10.7966
쎁쎀쎀ㄇㄧˇ0쎯	-10.7967
ㄕㄤˇ0쎯ㄧㄡˊ5쎯	-10.7968
ㄕㄡˇ0쎯ㄉㄨㄥˋ0쎯	-10.7969
ㄉㄞ1쎯ㄩㄥˋ0쎯	-10.7971
ㄕˋ21쎯	-10.7973
ㄒㄧㄝˊ7쎯ㄉㄞˋ1쎯	-10.7975
ㄅㄞˇ0쎯ㄍㄜˇ1쎯	-10.7976
ㄉㄧㄥˋ1쎯ㄓˋ3쎯	-10.7978
ㄧ0쎯ㄗㄨˇ1쎯	-10.7979
,ㄧㄝˇ0쎯ㄎㄜˇ0쎯ㄧˇ2쎯	-10.7981
ㄐㄧㄠˋ1쎯ㄉㄜˊ0쎯	-10.7981
쎁ㄆㄧㄥˊ0쎯ㄈㄤ0쎯ㄍㄨㄥ2쎯	-10.7983
ㄑㄩㄢˊ2쎯ㄓㄡ1쎯	-10.7986
ㄩ	-10.7986
ㄌㄧㄠˊ	-10.7987
ㄐㄧㄢˋ2쎯ㄕㄜˋ0쎯、	-10.7987
ㄔㄨㄢˊ0쎯ㄖㄢˇ1쎯	-10.7989
ㄨㄤˇ0쎯ㄕˋ15쎯	-10.799
쎂.쎈	-10.799
ㄓˇ	-10.7992
ㄏㄨㄚˊ1쎯ㄌㄧˊ0쎯	-10.7993
ㄧㄣˊ3쎯	-10.7997
쎂%	-10.7997
▁̇ㄋㄜ쎯?	-10.8002
ㄊㄠˊ1쎯ㄏㄨㄚ0쎯	-10.8003
ㄔㄨˊ1쎯	-10.8005
,ㄅㄨˋ0쎯ㄍㄨㄛ0쎯	-10.8006
ㄑㄧˊ9쎯	-10.8006
ㄕㄡ쎯ㄍㄡˋ1쎯	-10.8007
,ㄗㄨㄛ0쎯ㄓㄜˇ0쎯	-10.8007
ㄑㄧㄢ0쎯ㄇㄧˇ0쎯	-10.8008
ㄑㄧㄢˊ1쎯,	-10.8009
ㄧ4쎯ㄖㄢˊ0쎯	-10.801
ㄓㄨㄢˇ쎯ㄏㄨㄚˋ0쎯	-10.801
ㄑㄧㄢ0쎯ㄇㄛˋ0쎯	-10.8012
ㄈㄣ0쎯ㄅㄧˋ5쎯	-10.8015
ㄔㄠ2쎯	-10.8017
ㄍㄞ0쎯ㄍㄨㄥ2쎯ㄙ0쎯	-10.8017
ㄕㄨ0쎯ㄐㄧˋ1쎯,	-10.8021
ㄨㄟˊ0쎯ㄋㄧㄣˊ쎯	-10.8022
ㄋㄢˊ0쎯ㄏㄞˊ1쎯	-10.8023
ㄑㄧ5쎯	-10.8023
쎀쎀ㄇㄛˋ0쎯ㄩㄢˊ0쎯	-10.8023
ㄐㄧ12쎯ㄉㄨ0쎯ㄐㄧㄠ6쎯	-10.8024
ㄈㄤ0쎯ㄒㄧㄤˋ0쎯ㄨㄟˊ0쎯	-10.8027
ㄕㄠˇ쎯ㄐㄧㄤ1쎯	-10.803
ㄐㄩㄝˊ2쎯ㄩㄢˊ7쎯	-10.803
ㄐㄧㄚ0쎯ㄕㄨㄟˇ쎯	-10.8032
《》	-10.8034
ㄒㄧㄤ2쎯ㄘㄞˋ0쎯	-10.8034
ㄕㄨˇ1쎯ㄒㄧㄚˋ0쎯	-10.8035
ㄔㄠ0쎯	-10.8038
.ㄇㄟˇ0쎯	-10.8039
▁̇ㄉㄜ1쎯ㄕˊ3쎯ㄐㄧˋ5쎯	-10.804
:쎁쎀	-10.804
ㄌㄧㄢˊ4쎯ㄌㄠˋ0쎯	-10.804
ㄅㄢ1쎯ㄔㄤˊ0쎯	-10.8042
ㄖㄣˊ0쎯ㄔㄣˋ1쎯	-10.8043
ㄅㄧㄥ1쎯ㄖㄨˋ0쎯	-10.8043
쎁쎈쎄	-10.8044
”,“	-10.8047
ㄅㄧㄠˇ0쎯ㄓㄤ2쎯	-10.805
ㄕˊ3쎯ㄒㄧˊ0쎯	-10.8052
ㄧㄥ1쎯ㄨㄣˊ0쎯ㄇㄧㄥˊ0쎯	-10.8053
ㄉㄧㄢˋ0쎯ㄗㄨˇ0쎯	-10.8053
(ㄍㄨㄥ2쎯ㄩㄢˊ0쎯	-10.8054
ㄇㄧㄥˊ1쎯·	-10.8056
ㄊㄧㄥˊ3쎯ㄔㄜ0쎯ㄔㄤˊ1쎯	-10.8057
ㄐㄧㄣ2쎯ㄖˋ0쎯	-10.8057
ㄒㄩˋ5쎯	-10.8059
ㄌㄩˇ2쎯ㄏㄤˊ0쎯ㄕㄜˋ1쎯	-10.806
ㄕˊ4쎯ㄆㄨˇ3쎯	-10.8063
ㄑㄩㄢˊ1쎯ㄓㄣˋ3쎯	-10.8063
ㄙ0쎯ㄌㄧㄥˊ0쎯ㄅㄨˋ4쎯	-10.8067
ㄨˋ8쎯	-10.8067
ㄔㄥˊ0쎯ㄆㄧㄣˇ쎯	-10.8068
ㄌㄨˋ3쎯ㄙㄜˋ0쎯,	-10.8069
ㄊㄚ0쎯ㄕˋ15쎯	-10.8071
ㄒㄧㄣˋ0쎯ㄌㄞˋ1쎯	-10.8072
ㄕㄤ1쎯ㄒㄩㄝˊ1쎯ㄩㄢˋ2쎯	-10.8073
ㄊㄜˋ0쎯·	-10.8078
ㄑㄩㄢˊ0쎯ㄌㄧˋ0쎯	-10.8078
ㄖˋ0쎯ㄓㄠˋ2쎯	-10.8082
ㄌㄧㄤˋ2쎯	-10.8083
ㄒㄧㄠˇ0쎯ㄕㄨㄟˋ0쎯,	-10.8083
ㄐㄧㄣ3쎯ㄏㄨㄤˊ1쎯ㄙㄜˋ0쎯	-10.8084
ㄇㄚˊ0쎯?	-10.8085
.쎂쎀쎁쎁ㄋㄧㄢˊ0쎯	-10.8086
ㄖㄣˊ3쎯ㄧˋ18쎯	-10.8087
ㄅㄢ1쎯ㄗˇ0쎯	-10.8088
ㄘˊ0쎯ㄉㄧㄢˇ0쎯	-10.8089
ㄕˊ1쎯ㄎㄨㄥ0쎯	-10.8091
,ㄈㄤˋ쎯	-10.8092
》)	-10.8092
ㄉㄧˇ1쎯ㄅㄨˋ4쎯	-10.8092
ㄕㄣˇ1쎯ㄏㄜˊ5쎯	-10.8093
ㄓˋ17쎯	-10.8093
ㄕˊ1쎯ㄎㄜˋ1쎯	-10.8095
ㄐㄧㄚ3쎯ㄖㄣˊ0쎯	-10.8096
ㄨㄟˋ13쎯	-10.8097
ㄉㄥˇ0쎯ㄓㄨㄢ0쎯ㄧㄝˋ0쎯	-10.8098
ㄎㄣˇ0쎯ㄉㄧㄥˋ1쎯	-10.8099
ㄔㄢˊ	-10.8102
i	-10.8105
ㄓㄨㄢ0쎯ㄒㄩㄝˊ1쎯ㄌㄧˋ1쎯	-10.8106
ㄓㄨㄤˋ2쎯	-10.8112
ㄈㄨˋ9쎯》:“	-10.8113
ㄐㄧ8쎯ㄐㄧㄥ8쎯	-10.8114
ㄐㄧˊ1쎯ㄒㄧㄤˊ1쎯	-10.8116
ㄇㄧㄥˊ1쎯ㄓㄨ1쎯	-10.8116
ㄗㄥˋ0쎯	-10.8117
ㄙ2쎯ㄖㄣˊ0쎯	-10.8119
.ㄐㄧㄥ2쎯ㄍㄨㄛ0쎯	-10.8121
ㄕㄨˋ3쎯ㄌㄧˋ3쎯	-10.8122
ㄋㄧㄝˋ	-10.8129
ㄑㄩㄝˋ1쎯ㄅㄠˇ2쎯	-10.8129
ㄧㄤ0쎯ㄉㄤˇ1쎯ㄐㄧㄠˋ2쎯	-10.8129
ㄗˋ1쎯ㄇㄨˇ0쎯	-10.813
ㄏㄨㄟˊ0쎯ㄍㄨㄟ0쎯	-10.8132
ㄗ2쎯ㄓㄨˋ0쎯	-10.8132
ㄅㄥ0쎯	-10.8134
ㄅㄧㄢ0쎯ㄐㄧㄝˋ3쎯	-10.8135
ㄅㄞˇ0쎯ㄇㄛˋ0쎯	-10.8136
ㄕˋ7쎯ㄌㄧˋ0쎯	-10.8138
、ㄅㄟˇ쎯ㄐㄧㄥ1쎯	-10.8141
ㄧㄡˊ0쎯ㄑㄧˊ1쎯	-10.8142
ㄉㄜˊ0쎯ㄇㄧㄥˊ0쎯	-10.8142
ㄖㄨㄥˊ5쎯	-10.8142
ㄓㄥ0쎯ㄇㄧㄢˋ0쎯	-10.8143
ㄒㄧㄣ5쎯ㄕˋ3쎯ㄐㄧˇ1쎯	-10.8143
ㄧ0쎯ㄕˊ1쎯	-10.8146
ㄨㄟˊ0쎯ㄑㄧˇ2쎯ㄧㄝˋ0쎯	-10.815
ㄩㄢˊ1	-10.815
쎁-쎂	-10.8152
ㄖˋ0쎯ㄧˋ15쎯	-10.8154
,ㄋㄟˋ쎯ㄖㄨㄥˊ4쎯	-10.8157
ㄉㄧㄥˋ1쎯ㄐㄩ1쎯	-10.8158
^	-10.8158
ㄧㄥˇ1쎯ㄒㄧㄤˇ1쎯.	-10.8158
ㄏㄨㄟˋ18쎯	-10.8159
,ㄐㄧㄝ3쎯ㄍㄜˇ1쎯	-10.8159
쎁쎉쎉쎈	-10.816
쎅ㄏㄠˊ1쎯ㄇㄧˇ0쎯	-10.8161
ㄖㄨㄥˊ9쎯ㄖㄨˋ0쎯	-10.8162
ㄊㄜˋ0쎯ㄧㄠ2쎯	-10.8162
ㄐㄧ6쎯ㄊㄧ0쎯	-10.8164
ㄒㄧㄥˊ1쎯ㄕˋ7쎯	-10.8164
ㄎㄜ2쎯ㄓㄨˇ0쎯ㄖㄣˊ3쎯	-10.8169
ㄖㄣˊ0쎯ㄒㄧㄣ0쎯	-10.8172
ㄓㄨˋ3쎯ㄕㄜˋ3쎯	-10.8176
、ㄓㄤ0쎯	-10.8179
ㄕㄢ1쎯ㄔㄨˊ0쎯	-10.818
ㄘㄞˋ0쎯ㄧㄠˊ1쎯	-10.8181
ㄧㄢˊ6쎯ㄐㄧㄡ1쎯》	-10.8186
.’	-10.8189
ㄉㄞˋ1쎯ㄉㄨㄥˋ0쎯	-10.8189
ㄔㄨˋ0쎯ㄇㄨˋ3쎯	-10.8195
쎂ㄒㄧㄤˋ1쎯	-10.8198
ㄖㄣˋ1쎯ㄉㄧㄥˋ1쎯	-10.8199
▁̇ㄉㄜ0쎯ㄡ0쎯,	-10.8201
(ㄏㄢˊ1쎯	-10.8204
ㄐㄧˋ2쎯ㄕㄨˋ0쎯ㄧㄡˇ1쎯	-10.8205
ㄗㄠˋ4쎯	-10.8208
ㄍㄞˇ쎯ㄇㄧㄥˊ0쎯ㄨㄟˊ0쎯	-10.8208
ㄔㄤˊ5쎯	-10.8213
ㄌㄧㄥˇ1쎯ㄒㄧㄡˋ1쎯	-10.8218
ㄈㄡˇ0쎯	-10.8218
▁	-10.822
,ㄒㄧ1쎯ㄌㄧㄣˊ0쎯	-10.8221
ㄌㄨㄥˊ0쎯ㄧㄢˊ3쎯	-10.8223
ㄘㄞˋ0쎯ㄔㄢˊ0쎯	-10.8227
ㄓㄨˋ3쎯ㄘㄜˋ0쎯ㄅㄧㄠˇ0쎯	-10.8229
ㄕㄨˇ5쎯ㄔㄢˇ0쎯ㄆㄧㄣˇ쎯	-10.8232
ㄗˋ0쎯ㄩㄢˋ3쎯	-10.8233
\\	-10.8233
ㄨㄛˋ2쎯	-10.8233
.쎄、	-10.8235
ㄈㄚ쎯ㄖㄜˋ쎯	-10.8236
ㄒㄧㄣ5쎯ㄔㄢˇ0쎯ㄆㄧㄣˇ쎯	-10.8237
ㄊㄨㄥˊ0쎯ㄌㄟˋ2쎯	-10.8238
ㄍㄨㄛˊ0쎯ㄩˇ6쎯	-10.8238
ㄌㄥˇ쎯ㄕㄨㄟˇ쎯	-10.824
▁̇ㄉㄜ1쎯ㄧ0쎯ㄕㄡˇ2쎯	-10.824
ㄌㄧㄣˊ0쎯ㄐㄧㄣˋ1쎯	-10.8242
,ㄓㄜˋ0쎯ㄌㄧˇ2쎯	-10.8243
ㄎㄜˋ3쎯ㄊㄤˊ1쎯	-10.8244
ㄆㄥˊ0쎯	-10.8244
ㄙㄨˋ6쎯ㄐㄧㄠ5쎯	-10.8247
.ㄙㄨㄟˊ1쎯ㄓㄠ2쎯	-10.8248
ㄓㄨㄥ0쎯ㄒㄧㄠˇ0쎯	-10.825
ㄧㄡˊ5쎯ㄒㄧˋ0쎯《	-10.825
ㄊㄧㄢ0쎯ㄑㄧˋ0쎯	-10.8255
ㄓˊ1쎯ㄒㄧㄢˋ3쎯	-10.8256
ㄐㄧㄡˋ4쎯ㄒㄧㄤˋ3쎯	-10.8257
ㄅㄛˊ	-10.8257
ㄋㄧㄢˊ0쎯ㄆㄧㄥˊ0쎯	-10.8257
ㄆㄧㄠ0쎯ㄌㄧㄤˋ0쎯	-10.8263
ㄕˇ0쎯》	-10.8266
ㄑㄧ3쎯ㄒㄧ7쎯	-10.8266
ㄉㄨㄛ0쎯ㄘㄥˊ0쎯	-10.8268
ㄘㄤˊ쎯ㄗㄨˊ1쎯	-10.8272
ㄑㄧㄥ5쎯ㄔㄨˇ3쎯	-10.8273
ㄔㄢˊ0쎯ㄨㄟˋ2쎯:	-10.8273
ㄘㄨㄥ3쎯ㄇㄧㄥˊ1쎯	-10.8275
ㄒㄧㄢˋ2쎯ㄍㄨㄥ2쎯ㄙ0쎯(	-10.8275
ㄌㄧˋ3쎯ㄐㄧˊ4쎯	-10.8276
ㄊㄧ0쎯ㄒㄧㄥˊ2쎯	-10.8276
ㄇㄟˊ4쎯ㄏㄨㄚ0쎯	-10.8276
ㄩˇ0쎯ㄑㄧˊ1쎯	-10.8278
ㄗㄨㄛˇ0쎯ㄧㄡˋ1쎯.	-10.8279
ㄒㄩㄝˊ1쎯ㄐㄧㄠˋ2쎯、	-10.8279
ㄐㄧㄠ6쎯ㄧㄢˊ6쎯	-10.8282
ㄨㄣˊ1쎯ㄕˋ10쎯	-10.8284
ㄑㄧㄣˋ0쎯	-10.8284
,ㄔㄥˊ1쎯	-10.8287
ㄈㄨˋ7쎯ㄓˋ3쎯	-10.8289
ㄙˋ	-10.829
ㄈㄥ1쎯ㄕ6쎯	-10.8294
ㄨㄤˇ0쎯ㄧㄡˊ5쎯	-10.8298
ㄓㄣ4쎯ㄐㄩㄣ4쎯	-10.8299
ㄅㄣˇ0쎯ㄓˋ4쎯	-10.8301
▁̇ㄉㄜ1쎯ㄐㄧㄥ2쎯ㄧㄢˋ5쎯	-10.8302
ㄕㄡˋ1쎯ㄏㄨㄢ0쎯ㄧㄥˊ0쎯	-10.8302
ㄋㄚ1쎯ㄇㄧㄢˋ0쎯	-10.8303
ㄐㄧㄢˋ6쎯ㄆㄧˊ3쎯	-10.8304
쎂쎅ㄎㄜˋ0쎯	-10.8305
ㄨㄢˇ4쎯	-10.8309
ㄧㄢˇ3쎯ㄩㄢˊ2쎯.	-10.8312
ㄕㄢ0쎯ㄕㄤˇ0쎯	-10.8313
ㄐㄧㄣˇ0쎯ㄧㄡˇ1쎯	-10.8315
ㄕˋ0쎯ㄒㄩㄝˊ1쎯ㄨㄟˋ2쎯.	-10.8316
ㄩˊ20쎯	-10.8317
ㄌㄧˋ8쎯ㄖㄨˊ0쎯	-10.8318
쎄ㄖㄣˊ0쎯	-10.832
ㄍㄨㄥ0쎯ㄗ2쎯	-10.832
ㄢ1쎯ㄙㄨㄢ0쎯	-10.8322
ㄑㄧˇ0쎯	-10.8322
ㄐㄧㄣˋ0쎯ㄏㄨㄚˋ0쎯	-10.8324
ㄏㄨㄢˋ6쎯	-10.8325
ㄓㄨㄥ0쎯ㄑㄧㄥ0쎯ㄋㄧㄢˊ0쎯	-10.8326
ㄒㄧㄡˋ1쎯	-10.8334
,ㄓㄜˋ0쎯ㄍㄜˇ0쎯	-10.8337
ㄒㄧㄝˊ	-10.8338
ㄨㄣˊ0쎯ㄏㄨㄚˋ0쎯,	-10.8341
쎆.쎅	-10.8345
ㄒㄧㄝˋ2쎯	-10.8345
ㄎㄚˇ0쎯ㄆㄧㄢ0쎯	-10.8345
ㄘㄢ0쎯ㄅㄧㄢ1쎯	-10.8346
쎃ㄏㄠˊ0쎯	-10.8347
ㄕˋ8쎯ㄑㄧㄥˊ0쎯	-10.8348
ㄦˋ0쎯ㄕˊ0쎯ㄋㄧㄢˊ0쎯	-10.8348
ㄐㄧㄚˇ1쎯	-10.8348
ㄉㄧˊ3쎯	-10.8349
ㄕㄨㄟˇ쎯ㄔㄢˇ0쎯	-10.835
ㄔㄨˇ0쎯ㄔㄤˊ0쎯	-10.8351
ㄗㄠˋ0쎯	-10.8353
,ㄒㄧㄚˊ5쎯	-10.8353
,ㄒㄩㄝˊ1쎯ㄐㄧㄠˋ2쎯	-10.8354
ㄓˋ13쎯ㄧㄡ0쎯ㄩㄝˋ5쎯	-10.8354
ㄉㄧㄢˇ1쎯.	-10.8355
ㄘˇ0쎯ㄨㄞˋ쎯	-10.8356
ㄨㄞˋ쎯,ㄏㄞˊ0쎯	-10.8359
.쎂쎀쎀쎄ㄋㄧㄢˊ0쎯	-10.836
ㄧˇ2쎯ㄏㄡˋ0쎯,	-10.836
ㄓˋ0쎯ㄐㄧㄣ2쎯,	-10.836
ㄆㄤˊ0쎯	-10.836
ㄐㄧㄣˇ0쎯ㄐㄧㄣˇ0쎯	-10.836
ㄌㄢˊ4쎯ㄧㄚˊ0쎯	-10.836
ㄑㄧㄝ쎯ㄍㄜ6쎯	-10.8361
ㄧㄣ1쎯ㄧㄤˊ2쎯	-10.8361
ㄕㄣˇ1쎯ㄆㄧ0쎯	-10.8363
ㄍㄞˇ쎯ㄓˋ3쎯	-10.8364
,ㄕㄢˋ1쎯ㄔㄤˊ0쎯	-10.8371
▁̇ㄉㄜ1쎯ㄊㄜˋ0쎯ㄙㄜˋ0쎯	-10.8373
ㄓㄣ	-10.8373
ㄓㄥˋ1쎯ㄓㄡ1쎯ㄕˋ4쎯	-10.8374
ㄔㄢˊ0쎯ㄧ0쎯	-10.838
쎆ㄍㄨㄥ2쎯ㄌㄧˇ2쎯	-10.8381
,ㄕㄡˋ1쎯ㄉㄠˋ0쎯	-10.8384
ㄓㄡ1쎯ㄡ0쎯	-10.8387
ㄕˋ22쎯	-10.8389
ㄙㄢ0쎯ㄨㄟˊ6쎯	-10.839
쎁쎉쎃쎁ㄋㄧㄢˊ0쎯	-10.8392
.쎁쎉쎄쎉ㄋㄧㄢˊ0쎯	-10.8393
쎁쎉쎉쎉	-10.8393
ㄓ0쎯ㄨㄞˋ쎯	-10.8395
.쎂쎀쎁쎂ㄋㄧㄢˊ0쎯	-10.8397
ㄅㄨˋ2쎯ㄓㄡˋ4쎯	-10.8398
ㄕㄡ쎯ㄙㄨˋ8쎯	-10.84
쎀ㄩˊ2쎯ㄆㄧㄢ2쎯	-10.84
(쎁쎉쎃	-10.8401
ㄧˋ18쎯ㄙ3쎯ㄕˋ15쎯	-10.8402
ㄨㄣˊ1쎯,	-10.8404
ㄔㄨˇ2쎯ㄘㄨㄣˊ쎯	-10.8404
ㄅㄨˋ0쎯ㄘㄨㄛˋ2쎯	-10.8405
ㄙˇ쎯ㄏㄡˋ0쎯	-10.8405
ㄑㄧˇ4쎯ㄘㄠˇ쎯	-10.8405
ㄓˊ	-10.8407
ㄈㄤ0쎯ㄒㄧㄤˋ0쎯:	-10.8409
ㄈㄟ3쎯ㄌㄩˋ0쎯ㄅㄧㄣ0쎯	-10.841
ㄗㄠˋ1쎯	-10.8411
ㄐㄧˋ10쎯ㄧㄡˇ1쎯	-10.8412
ㄏㄠˊ0쎯ㄇㄚˇ2쎯	-10.8412
ㄍㄨˇ2쎯ㄈㄣˋ0쎯	-10.8412
ㄑㄧˋ7쎯ㄐㄧㄢˋ1쎯	-10.8413
ㄌㄧㄢˊ4쎯ㄒㄧㄤˇ2쎯	-10.8413
ㄐㄧˇ1쎯ㄌㄨˋ0쎯	-10.8413
ㄔㄨ0쎯ㄕㄥ1쎯ㄗㄞˋ1쎯	-10.8414
ㄌㄧˇ3쎯ㄕˋ8쎯ㄔㄤˊ0쎯	-10.8414
▁̇ㄉㄜ1쎯ㄆㄥˊ0쎯ㄧㄡˇ0쎯	-10.8414
ㄅㄧㄥˇ7쎯	-10.8415
ㄉㄨˋ4쎯	-10.8417
(쎃	-10.8419
ㄔㄤˊ0쎯쎁	-10.8422
ㄊㄤˊ0쎯ㄔㄠˊ1쎯	-10.8424
ㄗㄨㄟˋ0쎯ㄧㄡˇ1쎯	-10.8427
ㄍㄨㄛ0쎯ㄇㄧㄣˇ3쎯	-10.8428
ㄐㄧㄢˇ5쎯ㄔㄚˊ3쎯	-10.8429
ㄉㄨㄛ0쎯ㄘㄞˇ1쎯	-10.8429
ㄧㄡˊ0쎯ㄑㄧˊ1쎯ㄕˋ15쎯	-10.8431
ㄍㄨㄥ0쎯ㄔㄥˊ7쎯ㄧㄡˇ1쎯	-10.8432
ㄩˊ0쎯쎂쎀쎀쎈ㄋㄧㄢˊ0쎯	-10.8435
ㄑㄧㄢˊ0쎯ㄨㄟˋ0쎯	-10.8435
,ㄒㄧㄤˋ0쎯	-10.8436
ㄆㄟ0쎯	-10.844
ㄅㄠˇ2쎯ㄨㄣ0쎯	-10.8441
ㄒㄧㄥ1쎯ㄐㄧˊ2쎯	-10.8445
ㄍㄨㄤˇ0쎯ㄎㄨㄛˋ2쎯	-10.8447
ㄍㄢˇ3쎯ㄧㄥ0쎯	-10.8448
ㄈㄨˋ7쎯ㄒㄧㄥ0쎯	-10.8452
쎁쎀쎄	-10.8453
ㄍㄠ0쎯ㄓˋ4쎯ㄌㄧㄤˊ3쎯	-10.8453
ㄕˋ19쎯	-10.8457
ㄅㄨˋ0쎯ㄅㄧㄢˋ0쎯	-10.8463
ㄋㄨㄥˊ0쎯ㄧㄠˋ0쎯	-10.8463
ㄒㄧㄝˊ1쎯ㄗㄨㄛ0쎯	-10.8464
ㄒㄧˋ1쎯ㄓˋ7쎯	-10.8465
ㄉㄚˋ쎯ㄍㄨㄟ2쎯ㄇㄛˊ3쎯	-10.8466
ㄕ4쎯ㄗˇ0쎯	-10.8466
ㄓㄤ3쎯	-10.847
ㄕˊ1쎯ㄐㄧㄢ4쎯ㄋㄟˋ쎯	-10.8471
ㄅㄧˇ1쎯ㄖㄨˊ0쎯	-10.8471
ㄇㄣˋ0쎯	-10.8473
ㄓㄨˋ7쎯ㄔㄣˋ1쎯	-10.8476
ㄈㄨˋ4쎯ㄐㄧㄚ0쎯	-10.8479
ㄉㄨㄟˋ1쎯ㄅㄧˇ1쎯	-10.8479
ㄨㄟ3쎯ㄇㄧˇ0쎯	-10.8481
ㄍㄠ0쎯ㄙㄨˋ2쎯ㄓˋ4쎯	-10.8482
ㄖㄣˊ0쎯ㄎㄡˇ쎯쎃	-10.8484
ㄈㄣ0쎯ㄅㄧㄝˊ0쎯ㄨㄟˊ0쎯	-10.8485
ㄉㄧㄢˋ0쎯ㄊㄧ2쎯	-10.8486
ㄈㄨˋ8쎯ㄐㄧㄠ6쎯ㄕㄡˋ2쎯.	-10.8492
ㄣˊ0쎯ㄒㄧㄠˇ0쎯ㄗㄨˇ1쎯,	-10.8493
ㄐㄧㄣ3쎯ㄆㄞˊ2쎯	-10.8493
ㄕㄢ3쎯ㄏㄨˊ10쎯	-10.8493
ㄆㄧㄣˇ쎯.	-10.8493
ㄩ4쎯	-10.8494
ㄐㄧˋ8쎯、	-10.8494
,ㄧㄝˇ0쎯ㄎㄜˇ0쎯	-10.8497
ㄓˊ0쎯ㄉㄠˇ0쎯	-10.8497
ㄡ	-10.8499
ㄏㄣˇ0쎯ㄧㄡˇ1쎯	-10.85
ㄏㄞ0쎯ㄙㄡˋ쎯	-10.8501
ㄓㄞˋ0쎯	-10.8501
ㄩˊ0쎯쎂쎀쎀쎅ㄋㄧㄢˊ0쎯	-10.8502
ㄉㄧㄥˋ1쎯ㄐㄧ13쎯	-10.8503
ㄨˇ0쎯ㄉㄚˋ쎯	-10.8503
ㄎㄢ3쎯ㄔㄣˋ1쎯	-10.8505
ㄏㄨㄚˋ1쎯ㄩㄢˋ2쎯	-10.8509
ㄇㄛˋ5쎯ㄙ4쎯ㄎㄜ2쎯	-10.8509
ㄐㄧㄝˊ6쎯ㄓˇ0쎯	-10.8511
ㄕㄥˇ0쎯ㄉㄠˋ3쎯	-10.8511
ㄌㄚ2쎯	-10.8511
ㄗㄠˊ쎯	-10.8514
ㄓㄨ1쎯ㄅㄠˇ1쎯	-10.8515
ㄧ0쎯ㄧㄤˋ0쎯,	-10.8518
ㄎㄜ3쎯	-10.8521
ㄖㄣˊ0쎯ㄗㄞˋ1쎯	-10.8521
ㄋㄧˇ0쎯ㄖㄣˊ3쎯	-10.8523
ㄎㄢ3쎯	-10.8523
ㄧㄠ2쎯쎂	-10.8525
ㄇㄧㄠˇ	-10.8528
ㄈㄨˋ8쎯ㄕˋ4쎯ㄔㄤˊ0쎯	-10.8528
▁̇ㄌㄜ쎯ㄒㄧㄣ5쎯	-10.8529
ㄨㄟˊ0쎯ㄓㄨㄥ0쎯ㄒㄧㄣ0쎯	-10.853
ㄧˋ18쎯ㄨㄟˊ0쎯	-10.853
ㄌㄩˇ6쎯ㄏㄤˊ0쎯	-10.8531
ㄌㄧㄥˊ10쎯ㄐㄧㄢˋ1쎯	-10.8532
쎂쎀-	-10.8533
р	-10.8534
ㄑㄩㄝˋ1쎯	-10.8535
ㄍㄨㄣˋ쎯	-10.8536
ㄏㄨˊ5쎯ㄅㄛˊ1쎯	-10.8536
쎁쎅쎀ㄎㄜˋ0쎯	-10.8543
ㄕˋ2쎯ㄌㄧˋ8쎯	-10.8545
ㄎㄨㄢ0쎯ㄉㄞˋ1쎯	-10.8549
ㄅㄢ5쎯	-10.8552
,ㄙㄨㄟˊ1쎯	-10.8552
ㄋㄚ0쎯ㄧㄤˋ0쎯	-10.8554
쎂×	-10.8556
ㄏㄨˊ2쎯ㄊㄨㄥˊ0쎯	-10.8558
ㄩˊ1	-10.8558
ㄅㄨˋ0쎯ㄍㄨㄟ2쎯ㄗㄜˊ0쎯	-10.8561
ㄒㄧㄠˇ0쎯ㄩˊ0쎯	-10.8561
ㄨㄞˋ쎯ㄅㄧㄠˇ0쎯	-10.8562
ㄐㄩˋ4쎯ㄅㄣˇ0쎯	-10.8562
ㄒㄧㄣ5쎯ㄧ0쎯ㄉㄞˋ0쎯	-10.8564
ㄔㄨㄢˊ0쎯ㄉㄨㄥˋ0쎯	-10.8565
ㄉㄧㄠˋ2쎯ㄌㄧㄠˋ0쎯:	-10.8565
ㄉㄨㄟˋ1쎯ㄑㄧˊ1쎯	-10.8566
ㄌㄧㄡˊ1쎯ㄌㄢˇ0쎯ㄑㄧˋ7쎯	-10.8568
ㄒㄧ18쎯	-10.8568
▁̇ㄉㄜ1쎯ㄋㄨˇ0쎯ㄌㄧˋ0쎯	-10.8571
ㄐㄧㄢ3쎯ㄔˊ4쎯ㄧˇ2쎯	-10.8571
ㄒㄧㄢˋ3쎯ㄊㄧㄠˊ0쎯	-10.8571
ㄈㄣ3쎯	-10.8572
ㄌㄩˇ2쎯ㄎㄜˋ2쎯	-10.8572
е	-10.8572
ㄉㄥˇ0쎯ㄖㄨㄥˊ2쎯ㄩˋ15쎯	-10.8572
ㄔㄨㄥ1쎯ㄉㄧㄢˋ0쎯ㄑㄧˋ7쎯	-10.8574
ㄅㄨˋ4쎯ㄌㄚˋ0쎯	-10.8576
ㄑㄩˇ0쎯ㄉㄞˋ0쎯	-10.8578
ㄕㄡˋ2쎯ㄩˊ1쎯“	-10.8578
ㄕㄨㄟˋ0쎯:“	-10.8578
,ㄧㄡˊ0쎯ㄑㄧˊ1쎯ㄕˋ15쎯	-10.8578
ㄅㄚ0쎯ㄐㄧㄠˇ0쎯	-10.8579
〈	-10.858
ㄊㄤˊ	-10.858
ㄍㄢ0쎯ㄐㄧㄥˋ1쎯	-10.858
ㄐㄩㄣ0쎯ㄧ3쎯	-10.858
ㄉㄢ	-10.8581
.ㄇㄧㄣˊ0쎯ㄍㄨㄛˊ0쎯	-10.8581
ㄒㄧㄡ1쎯ㄉㄧㄥˋ0쎯	-10.8581
ㄨㄞˋ쎯ㄇㄠˋ2쎯	-10.8582
ㄎㄞ0쎯ㄈㄥ3쎯	-10.8582
ㄇㄨˋ0쎯ㄓˋ4쎯	-10.8582
▁̇ㄉㄜ1쎯ㄎㄞ0쎯ㄈㄚ쎯	-10.8584
ㄓㄨㄤˋ0쎯ㄉㄚˋ쎯	-10.8587
ㄑㄧㄥ0쎯ㄕㄢ0쎯	-10.8588
ㄒㄧㄣˋ0쎯ㄧㄤˇ0쎯	-10.8588
쎀.쎉	-10.8588
▁̇ㄉㄜ1쎯ㄩㄢˊ4쎯ㄧㄣ0쎯	-10.8589
ㄅㄧㄥˋ0쎯ㄅㄧㄢˋ0쎯	-10.8591
쎂쎄ㄒㄧㄠˇ0쎯ㄕˊ1쎯	-10.8591
ㄘˊ5쎯ㄕㄢˋ0쎯	-10.8592
ㄍㄜ7쎯ㄘˊ0쎯	-10.8592
ㄕㄨㄟˋ0쎯ㄏㄨㄚˋ2쎯	-10.8592
ㄔㄤˇ0쎯、	-10.8593
ㄌㄧㄢˋ2쎯ㄞˋ1쎯	-10.8593
ㄙ2쎯ㄌㄧˋ3쎯	-10.8593
쎁쎁쎂	-10.8605
ㄐㄧㄢˋ2쎯ㄕㄜˋ0쎯,	-10.8605
ㄅㄨˋ0쎯ㄐㄧㄢˋ0쎯	-10.861
▁̇ㄉㄜ0쎯ㄌㄧˋ6쎯	-10.8612
ㄒㄧㄥˋ3쎯ㄇㄧㄥˊ0쎯:	-10.8612
ㄅㄧˇ1쎯ㄙㄞˋ쎯ㄓㄨㄥ0쎯	-10.8613
ㄈㄣ0쎯ㄆㄟˋ2쎯ㄉㄠˋ0쎯	-10.8614
ㄍㄥ0쎯ㄍㄠ0쎯	-10.8616
ㄌㄧㄠˋ4쎯	-10.8617
ㄒㄧㄥˊ2쎯ㄏㄠˊ0쎯:	-10.8618
ㄍㄠ0쎯ㄦˇ0쎯ㄈㄨ0쎯	-10.8619
.ㄑㄩㄢˊ1쎯ㄕㄨ0쎯	-10.862
ㄐㄧㄥ2쎯ㄇㄠˋ2쎯	-10.8621
ㄓㄨㄥ0쎯ㄒㄩㄝˊ1쎯ㄍㄠ0쎯	-10.8621
ㄨㄟˋ8쎯	-10.8624
ㄏㄨㄥˊ0쎯ㄧㄤˊ0쎯	-10.8625
ㄉㄨㄟˋ1쎯ㄇㄧㄢˋ0쎯	-10.8626
ㄖㄤˋ쎯ㄋㄧㄣˊ쎯	-10.8627
ㄐㄧˋ2쎯ㄧˋ2쎯	-10.8627
ㄕㄞˋ쎯	-10.8628
ㄐㄧ6쎯ㄑㄧˋ7쎯ㄖㄣˊ0쎯	-10.8629
ㄎㄜˋ0쎯·	-10.8629
ㄘㄢ0쎯ㄐㄧㄢˋ0쎯	-10.8631
ㄖㄣˊ0쎯ㄨˋ3쎯.	-10.8633
、ㄅㄟˇ쎯	-10.8637
ㄓ0쎯ㄒㄧㄤ0쎯	-10.8638
ㄓ1쎯ㄑㄧˋ0쎯ㄍㄨㄢˇ1쎯	-10.8638
ㄕㄢˇ1쎯	-10.864
ㄒㄧㄣ0쎯ㄓㄨㄥ0쎯	-10.864
ㄨㄣˊ0쎯ㄅㄣˇ0쎯	-10.8641
ㄐㄧㄥ2쎯ㄍㄨㄛˊ0쎯ㄐㄧㄚ3쎯	-10.8643
▁̇ㄉㄜ1쎯ㄈㄚˇ0쎯ㄌㄩˋ0쎯	-10.8644
ㄇㄢˋ2쎯ㄇㄢˋ2쎯	-10.8644
,ㄓㄨㄥ2쎯	-10.8644
ㄕㄜˋ6쎯ㄒㄧㄤˋ3쎯ㄐㄧ6쎯	-10.8646
쎉ㄆㄧㄥˊ0쎯ㄈㄤ0쎯ㄍㄨㄥ2쎯	-10.8647
ㄧㄣ0쎯ㄗˇ0쎯	-10.8647
,ㄓ2쎯ㄧㄡˇ1쎯	-10.8651
ㄘㄢˊ0쎯ㄐㄧˊ6쎯ㄖㄣˊ0쎯	-10.8652
ㄑㄧˊ23쎯	-10.8653
ㄒㄧ2	-10.8654
ㄌㄧㄤˇ0쎯ㄊㄧㄠˊ0쎯	-10.8655
ㄈㄤ0쎯ㄒㄧㄥˊ1쎯	-10.8656
ㄓㄢˋ1쎯ㄔㄤˊ1쎯	-10.8657
쎁쎂ㄩㄝˋ0쎯ㄘㄢ0쎯ㄐㄧㄚ0쎯	-10.8659
,ㄧㄡˊ0쎯ㄑㄧˊ1쎯	-10.8659
ㄩˊ5쎯ㄧㄝˋ0쎯	-10.8659
ㄉㄢˋ0쎯ㄏㄨㄚˋ0쎯	-10.866
ㄧˊ7쎯ㄓˊ5쎯	-10.8661
ㄍㄚ5쎯	-10.8661
ㄍㄞˋ5쎯	-10.8662
ㄧㄢˊ6쎯ㄈㄚ쎯、	-10.8664
쎂/	-10.8665
ㄙˋ1쎯ㄈㄤ0쎯	-10.8666
ㄍㄨㄥ0쎯ㄨㄟˇ5쎯	-10.8667
ㄐㄩˋ4쎯《	-10.8668
ㄕㄥ2쎯ㄩˋ15쎯	-10.8668
ㄙˋ1쎯ㄐㄧㄠˇ0쎯	-10.8668
ㄩㄥˋ0쎯ㄊㄨˊ2쎯:	-10.8669
,쎁쎉쎈쎅ㄋㄧㄢˊ0쎯	-10.867
ㄐㄧㄠˋ2쎯ㄕㄜˇ쎯	-10.8671
ㄊㄧˋ4쎯ㄉㄞˋ0쎯	-10.8673
ㄕㄨㄟˇ쎯ㄔㄨˇ0쎯ㄌㄧˇ3쎯	-10.8673
▁̇ㄉㄜ1쎯ㄗㄨㄥ0쎯ㄓˇ1쎯	-10.8673
ㄓㄢ5쎯	-10.8678
ㄒㄧㄢˋ3쎯,	-10.8678
ㄉㄧㄢˋ0쎯ㄍㄨㄥ0쎯	-10.8678
ㄔㄨˇ0쎯ㄈㄤ0쎯	-10.8679
ㄏㄨㄤˊ1쎯ㄏㄜˋ3쎯ㄙㄜˋ0쎯	-10.8681
ㄧㄡˋ0쎯ㄕˋ15쎯	-10.8681
ㄏㄢˇ0쎯	-10.8683
,ㄐㄧㄣ2쎯	-10.8684
쎈ㄇㄨˇ2쎯	-10.8688
ㄌㄧㄢˇ0쎯	-10.8689
ㄋㄧㄝˋ3쎯	-10.8695
ㄩㄢˊ0쎯ㄉㄞˋ0쎯	-10.8697
ㄉㄚˋ쎯ㄉㄡˋ0쎯	-10.8697
ㄈㄤ0쎯ㄕˋ5쎯,	-10.8697
ㄍㄨㄥ2쎯ㄌㄧˇ2쎯,ㄐㄩˋ5쎯	-10.8699
ㄉㄤˇ1쎯ㄓㄥˋ3쎯	-10.8702
ㄐㄧㄥ8쎯ㄑㄩㄝˋ1쎯	-10.8702
쎁쎉쎂쎆ㄋㄧㄢˊ0쎯	-10.8704
ㄏㄨㄟˋ2쎯ㄧˋ4쎯ㄕˋ18쎯	-10.8704
ㄡ5쎯	-10.8708
、ㄨㄣˊ0쎯ㄏㄨㄚˋ0쎯	-10.8708
ㄇㄛˊ7쎯ㄕㄡˋ4쎯	-10.8709
ㄆㄧㄣˇ쎯ㄆㄞˊ2쎯.	-10.8709
ㄙㄨ0쎯ㄨㄟˊ6쎯ㄞ2쎯	-10.871
▁̇ㄌㄜ쎯ㄈㄥ0쎯ㄈㄨˋ11쎯	-10.8711
ㄘˊ3쎯ㄑㄧˋ7쎯	-10.8712
,ㄍㄞˇ쎯	-10.8714
ㄔㄨ0쎯ㄈㄚ쎯	-10.8715
ㄓ0쎯ㄉㄠˋ3쎯	-10.8716
ㄒㄧㄤ1쎯ㄐㄧˋ11쎯	-10.872
ㄇㄟˋ0쎯ㄇㄟˋ0쎯	-10.8721
ㄕㄨ0쎯ㄒㄧㄝˇ0쎯	-10.8721
ㄕˊ0쎯ㄉㄨㄛ0쎯ㄋㄧㄢˊ0쎯	-10.8721
,ㄧ0쎯ㄓˊ1쎯	-10.8724
ㄕˊ0쎯ㄩˊ2쎯ㄋㄧㄢˊ0쎯	-10.8724
ㄊㄨㄥ0쎯ㄈㄥ1쎯	-10.8724
ㄧㄢˋ5쎯ㄕㄡ쎯	-10.8725
ㄈㄥ1쎯ㄩㄣˊ0쎯	-10.8725
ㄏㄢˇ0쎯ㄐㄧㄢˋ0쎯	-10.8728
ㄎㄨㄥˋ0쎯ㄓˋ3쎯ㄑㄧˋ7쎯	-10.8729
,ㄊㄚ1쎯ㄇㄣˊ1쎯	-10.8729
ㄒㄧㄢˋ2쎯ㄍㄨㄥ2쎯ㄙ0쎯、	-10.8729
ㄓˋ0쎯ㄕㄠˇ쎯	-10.8731
ㄓ0쎯ㄔㄣˋ1쎯	-10.8732
ㄖㄨˋ0쎯ㄉㄤˇ1쎯	-10.8732
ㄆㄟˊ0쎯	-10.8733
ㄕ2쎯ㄘㄨㄥˊ0쎯	-10.8733
ㄘㄨˋ0쎯ㄩˊ0쎯	-10.8735
ㄨㄢˇ	-10.8735
ㄍㄨㄤ0쎯ㄑㄧㄢˋ1쎯	-10.8736
《ㄒㄧㄣ5쎯	-10.8739
쎈%	-10.8741
ㄐㄧㄠ6쎯ㄩˋ3쎯、	-10.8741
.ㄍㄞ0쎯ㄘㄨㄣ0쎯	-10.8742
-쎁쎅	-10.8743
ㄌㄧˊ1쎯ㄇㄧˇ0쎯,ㄎㄨㄢ0쎯	-10.8744
ㄔㄥˊ0쎯ㄌㄧˋ3쎯,	-10.8745
ㄆㄛˋ1쎯	-10.8747
ㄧˋ	-10.8749
ㄍㄨㄥ2쎯ㄇㄧㄣˊ0쎯	-10.875
2쎯ㄗˇ0쎯	-10.8752
쎀ㄇㄧˇ0쎯,	-10.8753
,ㄐㄧㄣˋ1쎯	-10.8755
ㄙㄨˋ3쎯ㄌㄩˋ2쎯	-10.8759
.ㄊㄨㄥˊ0쎯ㄕˊ1쎯,	-10.876
ㄇㄛˋ0쎯ㄗˋ1쎯	-10.8761
ㄅㄧㄢˋ1쎯ㄕˋ15쎯	-10.8763
쎆ㄩㄝˋ0쎯ㄐㄧㄚ0쎯ㄖㄨˋ0쎯	-10.877
ㄕˋ15쎯ㄍㄣ0쎯ㄐㄩ4쎯	-10.8771
ㄓㄥˋ3쎯ㄨㄟˇ5쎯	-10.8771
ㄑㄧㄢ0쎯ㄌㄧˇ2쎯	-10.8772
ㄩˇ1쎯	-10.8772
ㄖㄡˊ0쎯ㄖㄨㄢˇ0쎯	-10.8775
쎇ㄍㄨㄥ2쎯ㄌㄧˇ2쎯	-10.8775
”ㄗˋ1쎯	-10.8776
ㄘˋ0쎯ㄋㄧㄢˊ0쎯	-10.8776
ㄊㄞˋ3쎯ㄕㄢ0쎯	-10.8776
ㄈㄤˋ쎯ㄉㄚˋ쎯	-10.8778
ㄏㄡˋ0쎯ㄑㄧㄣˊ4쎯	-10.878
ㄕˇ2쎯ㄇㄧㄥˋ쎯	-10.8781
ㄧㄚ4쎯	-10.8783
ㄏㄜˊ2쎯ㄐㄧˋ2쎯ㄕㄨˋ0쎯	-10.8784
ㄐㄧㄣˇ1쎯ㄍㄨㄢˇ1쎯	-10.8787
.쎂쎀쎀쎂ㄋㄧㄢˊ0쎯	-10.8788
쎀ㄏㄠˊ1쎯ㄇㄧˇ0쎯	-10.8793
ㄧ0쎯ㄉㄚˋ쎯	-10.8794
ㄨˊ0쎯	-10.8794
ㄓㄠ0쎯ㄕㄤ1쎯	-10.8794
ㄉㄨˊ1쎯ㄐㄩˋ2쎯	-10.8795
▁̇ㄉㄜ1쎯ㄕˋ8쎯ㄑㄧㄥˊ0쎯	-10.8796
ㄍㄣ0쎯ㄐㄩ4쎯《	-10.8796
ㄕㄡ쎯ㄈㄟˋ4쎯	-10.8799
ㄖㄡˊ1쎯	-10.8801
ㄆㄨˇ2쎯ㄊㄨㄥ0쎯ㄍㄠ0쎯	-10.8802
ㄎㄞ0쎯ㄍㄨㄥ0쎯	-10.8803
ㄇㄧㄢˇ2쎯ㄉㄧㄢˋ2쎯	-10.8803
ㄅㄧㄥˇ1쎯	-10.8803
▁̇ㄉㄜ1쎯ㄢ0쎯ㄑㄩㄢˊ1쎯	-10.8804
ㄎㄜˇ0쎯ㄨㄟˋ6쎯	-10.8806
ㄧㄡˊ2쎯ㄆㄧㄠˋ0쎯	-10.8809
ㄐㄧㄣ3쎯ㄧㄣˊ1쎯	-10.881
ㄨㄟˇ1	-10.881
ㄅㄞˇ2쎯ㄌㄧㄣˊ1쎯	-10.8811
ㄩㄥˋ0쎯ㄧㄠˋ0쎯	-10.8812
ㄨㄟˊ0쎯쎁	-10.8812
ㄗㄨㄣ1쎯ㄒㄩㄣˊ4쎯	-10.8813
.ㄌㄧˋ8쎯ㄖㄨˊ0쎯	-10.8816
ㄩˊ12쎯	-10.8817
ㄒㄧㄥˋ2쎯ㄏㄠˇ0쎯	-10.882
ㄍㄞˇ쎯ㄔㄣˋ1쎯	-10.8822
,ㄏㄞˇ0쎯ㄅㄚˊ0쎯	-10.8823
ㄋㄩˇ0쎯ㄕㄥ1쎯	-10.8824
ㄕㄢ0쎯ㄉㄧㄥˇ0쎯	-10.8824
ㄐㄧㄡˋ4쎯ㄉㄡˋ2쎯	-10.8827
ㄧ0쎯ㄈㄤ0쎯	-10.8829
ㄕㄥ1쎯ㄖˋ0쎯	-10.8833
ㄊㄨˊ4쎯	-10.8834
ㄇㄧㄥˊ0쎯ㄕ2쎯	-10.8835
ㄒㄧㄣ5쎯ㄖㄣˊ0쎯	-10.8838
쎉ㄩㄝˋ0쎯ㄘㄢ0쎯ㄐㄧㄚ0쎯	-10.8839
쎅쎀ㄎㄜˋ0쎯,	-10.8839
ㄈㄣˇ쎯ㄙ1쎯	-10.884
ㄔㄨ1쎯ㄅㄨˋ2쎯	-10.884
ㄧㄣ4쎯ㄌㄜˋ0쎯ㄐㄧㄚ3쎯	-10.8841
ㄒㄧㄤˇ2쎯ㄧㄠ4쎯	-10.8842
ㄢ1쎯ㄐㄧ12쎯ㄙㄨㄢ0쎯	-10.8844
ㄐㄧˋ12쎯ㄙˋ3쎯	-10.8848
쎉ㄩㄝˋ0쎯ㄓˋ0쎯	-10.8849
ㄓ0쎯ㄕㄤˇ0쎯	-10.8849
ㄑㄧㄠˊ2쎯ㄓㄣˋ3쎯	-10.885
▁̇ㄉㄜ1쎯ㄕㄥ1쎯ㄇㄧㄥˋ쎯	-10.8851
ㄌㄚˋ0쎯ㄒㄧㄝˊ0쎯	-10.8853
2쎯,	-10.8854
ˇ1쎯	-10.8856
ㄔㄤˊ3쎯ㄕˋ11쎯	-10.8858
ㄨㄣˊ0쎯ㄕˇ0쎯	-10.8861
ㄐㄧㄢˋ3쎯	-10.8867
ㄋㄩˇ0쎯,ㄏㄢˋ0쎯ㄗㄨˊ1쎯	-10.8867
ㄙㄨˋ5쎯	-10.8868
ㄧˊ21쎯	-10.8868
ㄉㄧˋ3쎯쎅	-10.8869
ㄆㄧㄢ0쎯、	-10.8872
ㄕˋ8쎯ㄕˊ3쎯	-10.8872
ㄖㄨㄥˊ6쎯ㄩˊ0쎯	-10.8872
ㄗㄞˇ1쎯ㄊㄧ0쎯	-10.8872
ㄗㄠˇ0쎯ㄋㄧㄢˊ0쎯	-10.8872
ㄅㄢ1쎯ㄓㄨˇ0쎯ㄖㄣˊ3쎯	-10.8873
ㄌㄧㄡˋ0쎯ㄍㄜˇ0쎯	-10.8874
쎁쎀쎆	-10.8876
ㄩˇ6쎯ㄧㄢˊ2쎯ㄒㄩㄝˊ1쎯	-10.8882
ㄎㄜˋ0쎯,	-10.8882
ㄙㄨㄛˇ0쎯ㄩㄥˋ0쎯	-10.8883
ㄖㄨㄢˇ1쎯	-10.8884
ㄍㄨㄟ2쎯ㄈㄢˋ3쎯ㄏㄨㄚˋ0쎯	-10.8885
ㄒㄧㄢˋ0쎯(ㄐㄧㄣ2쎯	-10.889
ㄩˊ0쎯쎂쎀쎀쎆ㄋㄧㄢˊ0쎯	-10.8891
ㄕㄨㄟˇ쎯ㄉㄧㄢˋ0쎯ㄓㄢˋ2쎯	-10.8892
ㄧㄥˋ1쎯ㄏㄨㄚˋ0쎯	-10.8893
ㄅㄠˇ0쎯	-10.8895
ㄊㄧㄢ0쎯ㄨㄣˊ0쎯	-10.8897
쎈쎀쎀쎀	-10.8899
ㄈㄤ0쎯ㄔㄥˊ7쎯	-10.8902
ㄓㄨㄥ0쎯ㄒㄩㄝˊ1쎯,	-10.8903
쎃%	-10.8903
,ㄔㄨ0쎯ㄕㄥ1쎯ㄩˊ0쎯	-10.8903
ㄌㄧㄡˊ5쎯ㄙㄨㄢ0쎯	-10.8905
ㄊㄨㄥˊ4쎯ㄏㄨㄚˋ2쎯	-10.8907
쎂.쎃	-10.8908
쎆ㄖㄣˊ0쎯	-10.8911
ㄕㄨˋ0쎯ㄌㄨㄣˊ2쎯ㄨㄣˊ0쎯	-10.8914
ㄓㄨㄢ0쎯ㄐㄧㄚ3쎯.	-10.8914
ㄍㄨ4쎯ㄋㄧㄤˊ쎯	-10.8915
ㄉㄥˇ0쎯ㄩㄢˋ2쎯ㄐㄧㄠˋ2쎯	-10.8917
ㄈㄣˊ0쎯	-10.8918
ㄕㄨ0쎯》:“	-10.8919
ㄐㄧㄠ6쎯ㄕㄡˋ2쎯,ㄅㄛˊ5쎯	-10.892
쎂ㄖㄣˊ0쎯,	-10.8921
ㄧㄡˇ1쎯ㄌㄧˋ6쎯ㄩˊ0쎯	-10.8921
ㄧ0쎯ㄉㄢˋ1쎯	-10.8923
쎅ㄇㄛˋ0쎯	-10.8925
ㄐㄧㄚ3쎯ㄓㄨㄤ1쎯	-10.8927
ㄎㄜˋ2쎯ㄗㄨㄛˋ1쎯	-10.8928
ㄌㄧㄠˊ2쎯	-10.8932
ㄅㄢˋ0쎯ㄈㄚˇ0쎯》	-10.8934
ㄊㄧㄢ0쎯ㄖㄢˊ0쎯ㄑㄧˋ0쎯	-10.8934
ㄉㄡ0쎯ㄗㄞˋ1쎯	-10.8936
ㄊㄧㄢ0쎯ㄎㄨㄥ0쎯	-10.8939
ㄏㄞˇ0쎯ㄅㄚˊ0쎯쎂	-10.8939
ㄌㄧㄣˊ5쎯ㄙㄨㄢ0쎯	-10.894
ㄅㄛˊ5쎯ㄌㄢˇ0쎯ㄏㄨㄟˋ2쎯	-10.8941
ㄦˊ1쎯ㄧㄢˊ2쎯	-10.8942
/쎁	-10.8943
ㄅㄨˋ4쎯ㄓㄨˇ0쎯ㄖㄣˊ3쎯	-10.8945
ㄐㄧㄠ0쎯ㄧˋ12쎯ㄙㄨㄛˇ0쎯	-10.8945
(ㄐㄧˊ8쎯ㄊㄨㄢˊ0쎯)	-10.8945
ㄉㄥˇ0쎯ㄍㄜˋ0쎯ㄔㄨㄥˊ1쎯	-10.8948
ㄖㄨˋ0쎯ㄇㄣˊ0쎯	-10.8949
ㄑㄧㄢˊ0쎯ㄐㄧㄣˋ0쎯	-10.895
ㄓㄨ3쎯ㄉㄨㄛ0쎯	-10.8953
>>	-10.8959
ㄩˊ0쎯쎂쎀쎀쎇ㄋㄧㄢˊ0쎯	-10.896
ㄚ0쎯ㄍㄣ0쎯ㄊㄧㄥˊ0쎯	-10.896
ㄨㄟˋ11쎯	-10.8962
ㄙㄨㄥ5쎯	-10.8963
ㄓㄜˋ0쎯ㄌㄟˋ2쎯	-10.8964
ㄒㄩˋ9쎯	-10.8966
ㄧㄠ2쎯ㄨㄟˊ0쎯	-10.8967
,ㄓㄜˋ1쎯ㄐㄧㄤ0쎯	-10.8968
ㄕˋ8쎯ㄨˋ2쎯ㄙㄨㄛˇ0쎯	-10.8968
,ㄩㄥˋ0쎯ㄩˊ0쎯	-10.8969
ㄐㄧㄣˋ0쎯ㄓㄢˇ2쎯	-10.897
ㄓㄜˋ0쎯ㄘˋ0쎯	-10.897
ㄉㄧˋ3쎯ㄙˋ1쎯ㄐㄧㄝˋ2쎯	-10.8971
ㄐㄧㄢ3쎯ㄔˊ4쎯“	-10.8971
ㄅㄨˋ1쎯ㄌㄚ1쎯	-10.8971
)ㄗˋ1쎯	-10.8971
ㄒㄩˋ1쎯》:“	-10.8972
ㄔㄤˊ4쎯ㄋㄧㄢˊ0쎯	-10.8973
ㄉㄤ0쎯ㄒㄩㄢˇ0쎯	-10.8974
ㄊㄡˊ0쎯,	-10.8978
ㄅㄚˊ1쎯	-10.8985
ㄒㄧ29쎯	-10.8989
ㄍㄢ2쎯ㄐㄩㄣ4쎯	-10.899
ㄕˊ3쎯ㄨˋ2쎯	-10.8993
)ㄉㄥˇ0쎯	-10.8993
ㄇㄢˇ0쎯ㄗㄨˊ1쎯	-10.8995
ㄧㄢˋ11쎯	-10.8997
ㄍㄜˋ0쎯ㄧㄡˇ1쎯	-10.8998
ㄇㄧㄢˋ0쎯ㄑㄧㄢˊ0쎯	-10.9
,ㄓㄜˋ0쎯ㄧㄤˋ0쎯	-10.9
ㄍㄨㄥ0쎯ㄔㄥˊ7쎯、	-10.9001
、ㄕㄥ1쎯ㄔㄢˇ0쎯、	-10.9002
ㄐㄧㄚ0쎯ㄓㄡ1쎯	-10.9002
ㄋㄧㄢˊ0쎯ㄑㄧㄥ1쎯ㄖㄣˊ0쎯	-10.9004
ㄇㄛˊ0쎯ㄙㄨㄛˇ0쎯	-10.9004
.쎁쎈	-10.9005
▁̇ㄉㄜ1쎯ㄓㄣˇ0쎯ㄓˋ5쎯	-10.9005
ㄘㄜˋ3쎯ㄏㄨㄟˋ5쎯	-10.9006
ㄏㄨㄥ0쎯	-10.9007
쎄ㄌㄧˊ1쎯ㄇㄧˇ0쎯	-10.9011
ㄑㄧˋ0쎯ㄓˋ4쎯	-10.9014
ㄧㄥˋ1쎯ㄉㄨˋ2쎯	-10.9019
、ㄕㄤ1쎯ㄨˋ2쎯	-10.902
ㄗㄞˋ1쎯ㄧ0쎯ㄍㄜˇ0쎯	-10.902
ㄘㄨㄣ0쎯ㄓㄣˋ3쎯	-10.902
ㄩㄢˊ9쎯ㄗˋ0쎯	-10.902
ㄘㄢ0쎯ㄕㄨˇ5쎯:	-10.9022
ㄕˋ4쎯ㄔㄤˊ1쎯ㄕㄤˇ0쎯	-10.9022
ㄏㄨˊ6쎯ㄉㄧㄝˊ4쎯	-10.9022
ㄍㄨˇ4쎯ㄌㄧˋ5쎯	-10.9023
ㄆㄧˊ2쎯ㄐㄧㄡˇ5쎯	-10.9024
ㄏㄨㄟˋ2쎯ㄙㄨㄛˇ0쎯	-10.9025
ㄧ0쎯ㄉㄨˋ2쎯	-10.9027
ㄙㄨㄣˇ0쎯ㄏㄞˋ2쎯	-10.9029
ㄧㄡˋ2쎯ㄔㄨㄥˊ0쎯	-10.9029
.ㄒㄧㄥˊ1쎯ㄖㄨㄥˊ4쎯	-10.9029
ㄈㄨˇ4쎯	-10.9029
ㄒㄩㄣˋ3쎯	-10.9031
쎀쎀쎀	-10.9032
쎂쎁ㄕˋ3쎯ㄐㄧˇ1쎯	-10.9035
、ㄍㄨㄛˊ0쎯ㄐㄧㄚ3쎯	-10.9035
、ㄉㄢˋ0쎯	-10.904
ㄩㄝˋ0쎯쎇ㄖˋ0쎯	-10.9042
(ㄑㄩˋ0쎯	-10.9043
ㄙㄜˋ0쎯ㄙㄨˋ2쎯	-10.9046
ㄒㄧㄣ0쎯ㄑㄧㄥˊ0쎯	-10.9046
ㄍㄨㄟ2쎯ㄓㄤ1쎯	-10.9049
ㄨㄟˊ0쎯ㄗㄨㄥ0쎯ㄓˇ1쎯	-10.9051
ㄅㄧˇ2쎯ㄘˇ0쎯	-10.9054
ㄉㄢ1쎯ㄅㄠˇ2쎯	-10.9056
ㄩㄢˊ5쎯ㄒㄧㄥˊ1쎯,	-10.9057
:ㄓㄨㄥ0쎯ㄍㄨㄛˊ0쎯	-10.9058
ㄌㄧˇ3쎯ㄘㄞˊ2쎯	-10.9059
쎁/쎃	-10.9059
ㄗㄞ1쎯	-10.9061
ㄨㄟˊ0쎯ㄓㄨˇ0쎯ㄊㄧˊ1쎯	-10.9063
ㄔㄨㄥˊ2쎯ㄒㄧㄡ1쎯	-10.9063
ㄈㄥ3쎯ㄐㄧㄢˋ2쎯	-10.9063
▁̇ㄌㄜ쎯ㄌㄧㄤˊ0쎯ㄏㄠˇ0쎯	-10.9064
ㄙㄢ0쎯ㄘˋ0쎯	-10.9065
ㄍㄜ2쎯ㄍㄜ2쎯	-10.9068
ㄏㄞˇ0쎯ㄒㄧㄚˊ2쎯	-10.9068
ㄋㄢˊ1쎯ㄉㄨˋ2쎯	-10.9069
ㄏㄨㄤˊ1쎯ㄙㄜˋ0쎯,	-10.907
쎂쎀ㄍㄨㄥ2쎯ㄌㄧˇ2쎯	-10.9072
ㄇㄨˇ2쎯.	-10.9072
,ㄋㄚ1쎯ㄌㄧㄣˊ0쎯	-10.9074
쎃쎀ㄋㄧㄢˊ0쎯	-10.9075
ㄊㄨㄥˊ0쎯ㄐㄧˇ3쎯	-10.9077
ㄅㄧˋ2	-10.9078
ㄌㄧㄝˋ0쎯ㄖㄨˋ0쎯	-10.908
,ㄏㄨㄛˋ0쎯ㄓㄜˇ0쎯	-10.908
ㄙㄨㄛ	-10.9081
ㄍㄠˋ0쎯ㄙㄨˋ0쎯	-10.9084
ㄆㄚˊ0쎯	-10.9084
ㄕㄚˋ0쎯	-10.9085
ㄊㄨㄢˊ0쎯ㄍㄡˋ1쎯	-10.9087
쎆ㄇㄨˇ2쎯	-10.909
ㄉㄧㄠˋ2쎯ㄧㄢˊ6쎯	-10.9101
ㄐㄧㄣˇ2쎯ㄌㄧㄣˊ0쎯	-10.9101
ㄏㄨㄥˊ1쎯ㄗㄠˇ1쎯	-10.9104
ㄇㄞˇ0쎯ㄇㄞˋ2쎯	-10.9105
ㄔㄨ0쎯ㄍㄨㄛ3쎯	-10.9109
ㄕㄨˇ5쎯:	-10.911
ㄔˊ4쎯ㄧㄡˇ1쎯	-10.911
ㄨㄢˊ3쎯	-10.9111
ㄐㄧ18쎯ㄙㄨˋ2쎯	-10.9115
ㄙㄨㄢˋ1쎯ㄈㄚˇ0쎯	-10.9117
ㄍㄠ0쎯ㄈㄣ0쎯ㄗˇ0쎯	-10.912
ㄐㄧㄣˋ1쎯ㄐㄧ0쎯ㄋㄧㄢˊ0쎯	-10.912
ㄐㄧ18쎯ㄌㄧㄝˋ2쎯	-10.9121
ㄧㄡˇ1쎯ㄒㄧㄢˋ3쎯	-10.9122
ㄈㄨˋ8쎯ㄓㄨˇ0쎯ㄅㄧㄢ1쎯	-10.9125
ㄒㄧㄤ1쎯ㄐㄧㄝ4쎯	-10.9126
ㄌㄧㄣˊ3쎯ㄅㄚ1쎯	-10.9127
ㄓㄢˋ2쎯ㄓˇ2쎯ㄗㄞˋ1쎯	-10.9128
ㄓㄨㄥ0쎯ㄒㄩㄝˊ1쎯.	-10.9129
ㄌㄨㄛˇ0쎯	-10.913
ㄆㄧㄥˊ0쎯ㄏㄨㄚˊ3쎯	-10.9131
с	-10.9131
ㄧㄠ6쎯	-10.9131
ㄊㄨㄥˇ0쎯ㄔㄣˋ1쎯	-10.9132
ㄗㄨˇ1쎯ㄗㄨˇ1쎯ㄔㄤˊ0쎯	-10.9133
ㄇㄧㄥˊ0쎯ㄆㄞˊ2쎯	-10.9136
ㄓㄤ0쎯ㄓㄨㄢ0쎯ㄐㄧˊ9쎯	-10.9137
쎈ㄌㄧˊ1쎯ㄇㄧˇ0쎯	-10.9137
ㄓㄥ0쎯ㄧˋ1쎯	-10.9137
ㄨㄤˋ0쎯	-10.9137
ㄒㄧㄚˊ2쎯ㄍㄨˇ1쎯	-10.9137
、ㄈㄨˊ5쎯ㄨˋ2쎯	-10.9137
ㄍㄨㄛˊ0쎯ㄐㄧˊ12쎯	-10.9138
ㄕㄨ2쎯	-10.9138
ㄑㄧㄥ0쎯ㄏㄨㄚ0쎯	-10.914
ㄩㄣˋ4쎯	-10.9143
ㄅㄨˋ1쎯ㄓˋ13쎯	-10.9144
쎁쎃쎅	-10.9144
ㄒㄧㄠˇ0쎯ㄧㄡˊ5쎯ㄒㄧˋ0쎯	-10.9145
ㄗㄨˇ1쎯ㄔㄤˊ0쎯	-10.9145
ㄒㄩㄣˊ	-10.9145
ㄐㄧㄡ0쎯	-10.9147
ㄉㄧㄥˇ0쎯ㄅㄨˋ4쎯	-10.9147
,ㄉㄧ2쎯ㄍㄨㄥ5쎯	-10.9148
ㄉㄚˋ쎯ㄙㄨㄢˋ0쎯	-10.9148
ㄍㄨㄥ0쎯ㄧˋ2쎯ㄆㄧㄣˇ쎯	-10.9148
ㄆㄧㄝ0쎯	-10.9151
ㄕˇ3쎯ㄩˊ0쎯	-10.9154
ㄐㄩㄢˋ0쎯	-10.9159
ㄑㄧㄣ2쎯ㄗˋ0쎯	-10.9161
ㄨㄟˊ0쎯ㄇㄨˋ1쎯ㄅㄧㄠ0쎯	-10.9163
ㄍㄨㄥ2쎯ㄙ0쎯ㄕˋ15쎯	-10.9164
▁̇ㄉㄜ1쎯ㄒㄩ4쎯ㄧㄠ4쎯	-10.9167
▁̇ㄉㄜ0쎯ㄇㄠˋ4쎯	-10.9172
ㄓㄨ1쎯ㄐㄧㄤ0쎯	-10.9174
ㄓˇ0쎯ㄊㄨㄥˋ0쎯	-10.9174
ㄕㄢˋ	-10.9175
,ㄒㄧㄝˊ0쎯	-10.9177
(쎆	-10.9177
ㄐㄧㄤˇ1쎯,	-10.9177
ㄌㄧˋ7쎯	-10.9178
∶	-10.9179
ㄇㄨˋ9쎯	-10.9184
ㄊㄜˋ0쎯ㄉㄧㄢˇ1쎯,	-10.9184
ㄐㄧˋ3쎯ㄊㄨㄥˇ0쎯,	-10.9184
ㄗㄞˋ1쎯ㄐㄧㄠˋ2쎯	-10.9186
.쎂쎀쎀쎃ㄋㄧㄢˊ0쎯	-10.9187
ㄩˇ0쎯ㄑㄧˊ1쎯ㄊㄚ0쎯	-10.9187
쎂-쎃	-10.9191
ㄓ0쎯ㄓㄨㄥ0쎯,	-10.9191
▁̇ㄉㄜ1쎯ㄉㄧㄢˋ0쎯ㄗˇ0쎯	-10.9192
ㄌㄨˋ5쎯ㄕㄤˇ0쎯	-10.9192
ㄐㄧㄝˋ5쎯ㄐㄧㄢˋ12쎯	-10.9195
ㄋㄧㄤˋ쎯	-10.9195
ㄕˋ10쎯)	-10.9195
ㄗㄚ0쎯ㄕˊ3쎯	-10.9197
ㄇㄧˋ1쎯ㄐㄧˊ8쎯	-10.9199
ㄆㄧㄣˊ0쎯ㄎㄨㄣˋ쎯	-10.9199
ㄆㄧㄥˊ0쎯ㄈㄤ0쎯ㄑㄧㄢ0쎯	-10.9199
ㄓˋ8쎯ㄒㄩˋ1쎯	-10.92
ㄏㄨㄤˊ1쎯ㄕㄢ0쎯	-10.92
m	-10.9202
ˇ3쎯	-10.9204
ㄉㄢˋ0쎯ㄊㄡˊ0쎯	-10.9204
(쎄	-10.9205
ㄏㄨㄛˋ0쎯ㄕˋ15쎯	-10.9207
ㄕㄥˇ0쎯ㄅㄨˋ4쎯ㄐㄧˊ2쎯	-10.9207
ㄘㄨㄥ2쎯ㄏㄨㄚ0쎯	-10.9211
ㄍㄨㄥ6쎯ㄊㄧㄥˊ0쎯	-10.9211
ㄓˇ4쎯ㄔㄨ0쎯	-10.9212
ㄅㄠˇ2쎯ㄢ0쎯	-10.9212
▁̇ㄉㄜ1쎯ㄧㄤˋ0쎯ㄗˇ0쎯	-10.9214
ㄉㄥˇ0쎯ㄔㄢˇ0쎯ㄆㄧㄣˇ쎯	-10.9215
ㄡ0쎯.ㄨㄟˋ2쎯ㄩˊ0쎯	-10.9215
ㄎㄨㄞˋ0쎯,	-10.9216
ㄗㄞˋ1쎯ㄊㄚ0쎯	-10.9216
ㄍㄨㄤ0쎯ㄖㄨㄥˊ2쎯	-10.9217
ㄐㄧㄠˇ7쎯”ㄧㄡˊ5쎯ㄐㄧ2쎯	-10.9217
ㄨㄤˇ0쎯ㄓㄢˋ2쎯.	-10.9217
ㄑㄧˋ0쎯ㄕˋ7쎯	-10.9218
う	-10.9219
ㄧㄢˇ2쎯ㄎㄜ2쎯	-10.9219
,ㄑㄧㄥ5쎯	-10.922
ㄔㄨˊ	-10.9221
ㄍㄨㄥ3쎯ㄋㄥˊ쎯,	-10.9222
쎂ㄎㄜˋ0쎯	-10.9223
;쎃、	-10.9226
ㄕˋ20쎯ㄨㄣˊ0쎯:	-10.9227
ㄓˋ11쎯ㄌㄧˋ0쎯	-10.923
ㄨㄛˋ	-10.923
쎃ㄇㄛˋ0쎯	-10.9232
ㄓㄨㄛˊ3쎯	-10.9238
ㄕㄢ0쎯ㄧㄠˋ0쎯	-10.9238
ㄑㄧˋ0쎯,	-10.924
ㄢˋ1쎯ㄇㄚ2쎯	-10.9242
,ㄖˋ0쎯ㄅㄣˇ0쎯	-10.9243
《ㄨㄛˇ쎯	-10.9243
ㄧ0쎯ㄉㄧㄥˋ1쎯ㄧㄠ4쎯	-10.9244
ㄊㄧㄢ0쎯ㄓㄨˇ0쎯ㄐㄧㄠ6쎯	-10.9245
▁̇ㄉㄜ1쎯ㄕㄥ2쎯ㄧㄣ4쎯	-10.9247
ㄐㄩ3쎯ㄌㄜˋ0쎯ㄅㄨˋ4쎯,	-10.925
ㄩㄢˊ5쎯ㄓㄨˋ5쎯ㄒㄧㄥˊ1쎯	-10.925
ㄅㄧㄥˇ1쎯ㄔㄥˊ3쎯“	-10.925
),ㄕˋ15쎯	-10.9252
ㄅㄟˇ쎯ㄏㄞˇ0쎯	-10.9252
ㄓㄨㄥ2쎯ㄕㄣ2쎯	-10.9254
ㄅㄢˋ0쎯ㄓㄨˇ0쎯ㄖㄣˊ3쎯	-10.9255
ㄈㄛˊ쎯ㄕㄢ0쎯ㄕˋ4쎯	-10.9257
쎄.쎀	-10.9258
쎁ㄇㄧㄥˊ0쎯	-10.926
ㄊㄨㄢˊ0쎯ㄨㄟˇ5쎯	-10.926
ㄉㄨㄥ0쎯ㄈㄥ1쎯	-10.9262
ㄒㄧㄢˇ0쎯ㄉㄜˊ0쎯	-10.9264
ㄎㄜˇ0쎯ㄕˋ12쎯	-10.9265
ㄒㄩㄝˊ1쎯ㄌㄧˋ1쎯.	-10.9265
ㄉㄨㄛ0쎯ㄇㄧㄥˊ0쎯	-10.9266
ㄧㄣ4쎯ㄒㄧㄤˇ1쎯	-10.9267
ㄖㄣˊ0쎯,ㄓㄨㄥ0쎯	-10.9273
ㄨˇ3쎯ㄉㄧˋ1쎯	-10.9275
ㄔㄨ1쎯,	-10.9275
,ㄉㄡ0쎯	-10.9277
ㄑㄧㄠˊ3쎯	-10.9278
ㄗㄞˋ1쎯ㄓㄜˋ0쎯ㄍㄜˇ0쎯	-10.9281
ㄅㄟˇ쎯ㄨㄟˋ12쎯	-10.9283
쎅쎀-	-10.9287
,ㄨㄞˋ쎯	-10.9288
쎄ㄋㄧㄢˊ0쎯)	-10.9288
:쎀쎀	-10.9289
ㄕㄤˇ0쎯ㄕˋ3쎯ㄐㄧˇ1쎯	-10.929
ㄧˊ19쎯	-10.929
%%	-10.9291
1쎯,	-10.9292
ㄐㄧㄣ3쎯ㄕㄢ0쎯	-10.9292
ㄨˋ3쎯ㄌㄧㄠˋ0쎯	-10.9294
ㄈㄚˊ0쎯	-10.9295
ㄇㄟˇ0쎯ㄈㄨˊ5쎯	-10.9297
ㄉㄥˇ0쎯ㄉㄨㄛ0쎯ㄍㄜˇ0쎯	-10.9297
”,ㄕˋ15쎯	-10.9298
ㄐㄧ0쎯ㄕˊ0쎯	-10.93
ㄒㄧˇ0쎯ㄐㄧㄥˋ1쎯ㄑㄧㄝ쎯	-10.93
▁̇ㄉㄜ1쎯ㄕㄨˇ5쎯ㄐㄩ4쎯	-10.9302
ㄧ0쎯ㄅㄢˋ1쎯	-10.9303
ㄅㄨˇ0쎯ㄔㄤˊ5쎯	-10.9303
쎁쎉쎉쎇	-10.9305
,ㄖㄨㄛˋ0쎯	-10.9305
ㄕㄨˇ5쎯ㄓˊ3쎯	-10.9306
ㄐㄧˊ3쎯ㄒㄧㄢˋ2쎯	-10.9306
”ㄅㄧㄢˋ0쎯ㄔㄨㄥˊ1쎯	-10.9307
ㄨㄟ1쎯ㄒㄧㄝˊ3쎯	-10.9308
ㄍㄨㄥˋ0쎯ㄐㄧˋ0쎯	-10.931
ㄒㄧㄢˋ0쎯ㄔㄤˊ0쎯	-10.9312
ㄧㄢˊ10쎯ㄙㄜˋ0쎯:	-10.9312
쎈쎀%	-10.9312
ㄙㄨ0쎯ㄓㄡ1쎯ㄕˋ4쎯	-10.9319
ㄧㄥ3쎯ㄦˊ0쎯	-10.932
ㄇㄧㄢˋ0쎯ㄊㄨㄢˊ0쎯	-10.932
ㄏㄨㄟˊ0쎯ㄕㄡ쎯	-10.9321
ㄐㄧㄝ6쎯ㄕˋ2쎯	-10.9322
ㄍㄨㄟ2쎯ㄏㄨㄚˊ0쎯、	-10.9327
ㄉㄧˋ1쎯ㄨㄤˊ1쎯	-10.9327
ㄒㄧㄢ1쎯ㄈㄥ6쎯	-10.9327
,ㄔㄨㄥ1쎯ㄈㄣ0쎯	-10.9329
ㄉㄚˋ쎯ㄐㄧㄤˇ1쎯	-10.9331
ㄧㄥ4쎯	-10.9332
ㄇㄨˋ1쎯ㄑㄧㄢˊ0쎯ㄧˇ1쎯	-10.9332
.ㄙㄨㄟ0쎯ㄖㄢˊ0쎯	-10.9332
ㄅㄧˇ1쎯ㄌㄧˋ6쎯ㄕˊ1쎯	-10.9334
ㄅㄧㄢˋ1쎯ㄩˊ0쎯	-10.9335
ㄏㄨㄣ2쎯ㄌㄧˇ0쎯	-10.9336
ㄔㄤˊ0쎯ㄊㄨˊ2쎯	-10.9338
.ㄓㄨˋ7쎯ㄧㄡˇ1쎯《	-10.9339
ㄧㄢˊ0쎯ㄒㄩˋ6쎯	-10.9339
ㄒㄩㄢˇ0쎯ㄩˋ3쎯	-10.9341
쎂ㄇㄛˋ0쎯	-10.9344
ㄅㄢˋ1쎯ㄉㄠˇ0쎯ㄊㄧ0쎯	-10.9344
ㄈㄤˋ쎯ㄑㄧˋ2쎯	-10.9344
ㄅㄢˋ0쎯ㄕˋ8쎯	-10.9344
.ㄏㄢˋ0쎯	-10.9345
ㄕˇ0쎯·	-10.9348
ㄙˋ5쎯	-10.9352
ㄓㄨㄥ0쎯ㄒㄧ1쎯	-10.9353
ㄈㄚ쎯ㄓㄢˇ2쎯.	-10.9356
ㄌㄟˋ2쎯:ㄊㄨˊ0쎯ㄕㄨ0쎯>	-10.9357
ㄓㄥˋ3쎯ㄘㄜˋ4쎯ㄏㄜˊ2쎯	-10.9358
ㄌㄧㄢˊ2쎯	-10.9359
ㄓㄜˋ0쎯ㄨㄟˋ2쎯	-10.936
ㄗˇ0쎯ㄍㄨㄥ6쎯	-10.936
ㄐㄧ18쎯ㄑㄧㄥˊ0쎯	-10.9362
-쎁쎁	-10.9366
ㄅㄟˋ0쎯ㄦˇ0쎯	-10.9366
ㄜˋ7쎯	-10.9366
ㄓㄥˋ3쎯ㄈㄨˇ3쎯ㄊㄜˋ0쎯	-10.9367
ㄏㄨㄛˇ0쎯ㄔㄜ0쎯	-10.9367
ㄋㄚˋ1쎯ㄕㄨㄟˋ1쎯	-10.937
ㄅㄧˋ1쎯ㄅㄟˋ2쎯	-10.937
ㄍㄨˋ1쎯ㄒㄧㄤ0쎯	-10.9371
ㄉㄞ0쎯	-10.9372
ㄏㄨˋ2쎯ㄔㄢˊ0쎯ㄨㄟˋ2쎯	-10.9372
ㄌㄟˋ2쎯、	-10.9375
ㄖㄣˊ0쎯ㄐㄧㄚ3쎯	-10.9375
쎁쎉쎉쎆	-10.9376
ㄢˇ3쎯	-10.9378
ㄨㄢˇ1쎯	-10.938
ㄧㄢˊ1	-10.9382
ㄧㄡ0쎯ㄏㄨㄟˋ9쎯	-10.9382
ㄎㄨㄛˋ0쎯ㄐㄧㄢˋ2쎯	-10.9383
ㄐㄧ2	-10.9386
ㄇㄛˊ0쎯ㄐㄧ6쎯	-10.9388
ㄎㄨㄛˋ0쎯	-10.9392
ㄑㄧㄣˊ0쎯	-10.9392
ㄔㄨ0쎯ㄗ2쎯	-10.9396
ㄐㄧㄝ3쎯ㄏㄜˊ5쎯	-10.9396
ㄑㄧㄤ4쎯	-10.9396
ㄉㄨㄢˋ3쎯ㄌㄧㄢˋ1쎯	-10.9398
ㄑㄧˇ4쎯ㄩㄢˊ9쎯ㄩˊ0쎯	-10.9399
▁̇ㄉㄜ1쎯ㄦˊ0쎯ㄗˇ0쎯	-10.94
ㄔㄢˊ0쎯ㄨㄟˋ2쎯、	-10.9401
ㄇㄟˇ1쎯ㄕㄨˋ0쎯ㄍㄨㄢˇ0쎯	-10.9401
ㄒㄧㄚˊ5쎯ㄡ0쎯ㄋㄟˋ쎯	-10.9402
ㄔㄤˊ0쎯ㄩㄢˊ5쎯ㄒㄧㄥˊ1쎯	-10.9405
ㄅㄟˋ5쎯ㄅㄨˇ1쎯	-10.9408
、ㄎㄜ2쎯ㄧㄢˊ6쎯	-10.9409
ㄠˋ2쎯ㄌㄧㄣˊ1쎯ㄆㄧˇ0쎯	-10.9411
ㄉㄥˇ0쎯ㄓˊ4쎯ㄧㄝˋ0쎯	-10.9411
ㄇㄛˊ0쎯ㄒㄩ4쎯	-10.9411
▁̇ㄉㄜ0쎯ㄇㄧㄥˊ0쎯	-10.9412
ㄓ7쎯ㄇㄧㄥˊ0쎯ㄉㄨˋ2쎯	-10.9412
ㄧㄠˊ5쎯ㄍㄨㄣˇ0쎯	-10.9415
ㄐㄧㄡˇ5쎯ㄅㄚ5쎯	-10.9416
ㄐㄩㄣ3쎯	-10.9416
ㄊㄤˇ	-10.9417
ㄩㄢˊ0쎯ㄋㄧㄢˊ0쎯(	-10.9418
ㄅㄧㄥ1쎯ㄈㄟ2쎯	-10.9419
▁̇ㄉㄜ1쎯ㄓㄨˇ0쎯	-10.942
ㄅㄨˋ4쎯ㄈㄣ0쎯.	-10.9421
ㄐㄩㄣˋ2쎯	-10.9421
ㄉㄥˇ0쎯ㄊㄜˋ0쎯ㄉㄧㄢˇ1쎯	-10.9423
ㄔㄨㄥ0쎯ㄊㄨ2쎯	-10.9424
ㄙㄨㄥ	-10.9425
ㄇㄚˊ1쎯ㄧㄡˊ4쎯	-10.9426
ㄕˊ3쎯ㄧㄝˋ0쎯ㄧㄡˇ1쎯	-10.9427
ㄅㄢˋ1쎯ㄌㄧㄤˇ0쎯	-10.9428
.쎁쎉쎈쎂ㄋㄧㄢˊ0쎯	-10.9431
ㄔㄢˊ4쎯	-10.9431
ㄧˋ6쎯ㄧㄡˇ1쎯	-10.9432
ㄗㄞˋ1쎯ㄑㄧˊ1쎯	-10.9432
ㄑㄧㄡ1쎯ㄐㄧˋ7쎯	-10.9434
ㄗㄠ0쎯ㄉㄠˋ0쎯	-10.9435
ㄧ0쎯ㄈㄨˊ10쎯	-10.9436
.쎁.	-10.9437
ㄅㄨˋ0쎯ㄕㄡˋ1쎯	-10.9437
ㄔㄨㄤˇ쎯	-10.944
ㄘˊ0쎯ㄩˇ6쎯	-10.9441
ㄗㄠˇ0쎯ㄗㄞˋ1쎯	-10.9443
ㄐㄧˋ13쎯ㄕㄥ1쎯	-10.9445
ㄍㄨㄥ0쎯ㄧㄝˋ0쎯ㄡ0쎯	-10.9445
ㄗˋ0쎯ㄒㄩㄝˊ1쎯	-10.9445
ㄈㄚˇ0쎯ㄕ2쎯	-10.9446
ㄆㄞˊ0쎯ㄍㄨ5쎯	-10.9446
ㄙㄨˋ0쎯ㄙㄨㄥˋ0쎯	-10.9449
ㄍㄨㄢˋ1쎯	-10.9451
ㄆㄥˋ0쎯	-10.9453
.ㄊㄨㄥ0쎯ㄍㄨㄛ0쎯	-10.9453
ㄨㄟ3쎯ㄅㄛˊ5쎯	-10.9454
,ㄢˋ1쎯	-10.9455
쎉쎅%	-10.9456
ㄐㄧˊ1	-10.9457
ㄖˋ0쎯ㄅㄠˋ0쎯》	-10.9459
ㄒㄧㄤ4쎯ㄊㄢˊ4쎯	-10.9461
ㄅㄟˇ쎯ㄉㄚˋ쎯	-10.9464
(-	-10.9465
ㄧㄢˇ2쎯ㄐㄧㄥˋ8쎯	-10.9465
ㄨㄟˋ10쎯	-10.9466
ㄒㄩㄣˊ4쎯	-10.9471
ㄐㄧㄚ4쎯ㄑㄧㄥˋ0쎯	-10.9474
.ㄅㄧˇ1쎯ㄩˋ10쎯	-10.9474
ㄉㄧˋ3쎯ㄨˇ0쎯ㄐㄧㄝˋ2쎯	-10.9476
ㄨˋ0쎯	-10.9477
ㄉㄨㄛ0쎯ㄩㄢˊ0쎯	-10.9479
ㄏㄨㄢˋ0쎯ㄒㄧㄤˇ2쎯	-10.948
.ㄒㄧㄝˊ0쎯	-10.948
ㄜˋ0쎯	-10.9481
쎁ㄋㄧㄢˊ0쎯)	-10.9481
ㄈㄨˋ8쎯ㄙㄨㄛˇ0쎯ㄔㄤˊ0쎯	-10.9482
ㄅㄨˋ0쎯ㄍㄢˇ2쎯	-10.9482
ㄓˊ5쎯ㄓㄨ2쎯	-10.9483
쎀ㄏㄨˋ1쎯,	-10.9483
ㄐㄧㄥˋ7쎯ㄐㄧㄝˋ3쎯	-10.9485
쎁쎈쎃	-10.9485
ㄍㄨˇ2쎯ㄉㄨㄥ0쎯	-10.9485
ㄕㄢ0쎯ㄒㄧㄤ0쎯	-10.9488
ㄩˇ0쎯ㄕㄜˋ1쎯ㄏㄨㄟˋ2쎯	-10.9488
ㄑㄩㄝ2쎯	-10.9492
ㄕˊ4쎯ㄩㄥˋ0쎯.	-10.9492
ㄔㄥˊ4쎯ㄋㄚ1쎯	-10.9496
ㄕ6쎯ㄉㄨˋ2쎯:	-10.9497
ㄉㄨˇ1쎯	-10.9497
ㄒㄧㄣ5쎯ㄒㄧ1쎯ㄌㄢˊ0쎯	-10.9497
ㄧˇ2쎯ㄉㄨㄥ0쎯	-10.9498
ㄎㄞ0쎯ㄊㄨㄥ0쎯	-10.9501
ㄌㄨˊ4쎯	-10.9501
ㄓ0쎯ㄙㄨㄛˇ0쎯	-10.9503
ㄓㄨㄤ3쎯ㄐㄧㄚˇ0쎯	-10.9504
ㄔㄜˋ0쎯	-10.9505
ㄍㄜˇ1쎯ㄈㄟˊ0쎯ㄕˋ4쎯	-10.9507
ㄒㄧㄤ1쎯ㄅㄧˇ1쎯	-10.9507
ㄅㄠˊ1쎯ㄇㄛˊ4쎯	-10.9508
ㄐㄧˇ1쎯ㄐㄧㄢˇ5쎯	-10.9509
、ㄨㄤˊ1쎯	-10.9512
,ㄉㄨㄥ0쎯ㄩˇ0쎯	-10.9513
ㄐㄧˊ1쎯ㄊㄚ0쎯	-10.9514
ㄅㄨˋ6쎯	-10.9519
ㄒㄧ1쎯ㄧㄚˋ1쎯	-10.9519
ㄅㄧㄠˇ0쎯ㄒㄧㄢˋ1쎯ㄔㄨ0쎯	-10.9521
쎇ㄋㄧㄢˊ0쎯)	-10.9521
ㄩㄥˋ0쎯ㄕㄨ0쎯	-10.9524
ㄒㄧㄤ0쎯ㄖㄣˊ0쎯	-10.9524
ㄗㄨㄥˇ0쎯ㄏㄨㄟˋ2쎯	-10.9526
ㄎㄞ0쎯ㄅㄢˋ0쎯	-10.9526
ㄏㄨㄟ1쎯	-10.9527
ㄐㄧㄠ6쎯ㄒㄩㄝˊ1쎯ㄩˇ0쎯	-10.9528
ㄈㄨˊ5쎯ㄧˋ10쎯	-10.953
ㄌㄧˊ1쎯ㄇㄧˇ0쎯.	-10.9533
ㄐㄧㄚ3쎯、	-10.9536
ㄕˋ11쎯ㄉㄧㄢˇ1쎯	-10.9537
쎄～	-10.9537
ㄉㄧ0쎯ㄩˊ0쎯	-10.9538
쎃/	-10.9539
ㄗㄥˋ0쎯ㄍㄜˇ1쎯ㄓㄥ2쎯	-10.9541
ㄇㄛˋ0쎯ㄌㄧˋ1쎯	-10.9542
ㄐㄧㄠ6쎯ㄔㄥˊ7쎯	-10.9544
ㄑㄧㄢˊ0쎯ㄉㄨㄢ0쎯	-10.9544
ㄕˋ15쎯ㄊㄚ0쎯	-10.9544
ㄏㄤˊ0쎯ㄓㄥˋ3쎯ㄡ0쎯	-10.9548
ㄇㄛˋ0쎯ㄆㄧㄥˊ0쎯ㄇㄧˇ0쎯	-10.9554
쎁쎁ㄍㄜˇ0쎯	-10.9556
ㄓˋ0쎯ㄐㄧㄣ2쎯ㄖㄣˊ3쎯	-10.9559
ㄒㄧㄝˊ6쎯	-10.9559
ㄔㄤˊ0쎯ㄓㄥ2쎯	-10.9561
ㄍㄢˇ0쎯	-10.9561
,ㄐㄧㄤ0쎯ㄙㄨ0쎯	-10.9562
,ㄅㄤ1쎯ㄓㄨˋ0쎯	-10.9563
ㄧㄡˇ1쎯ㄒㄩˇ0쎯ㄉㄨㄛ0쎯	-10.9564
ㄕˋ3쎯ㄐㄧㄝˋ3쎯ㄅㄟ0쎯	-10.9565
ㄗㄨㄛ0쎯ㄨㄣˊ0쎯	-10.9565
ㄕㄨㄟˇ쎯ㄩˋ7쎯	-10.9567
ㄕㄡˇ2쎯ㄒㄩㄢˇ0쎯	-10.957
ㄌㄨㄥˊ0쎯ㄇㄣˊ0쎯	-10.9572
ㄊㄧㄢ0쎯ㄗˇ0쎯	-10.9575
ㄌㄨㄣˊ1쎯ㄌㄧˇ3쎯	-10.9576
ㄈㄨˋ2쎯ㄏㄜˊ4쎯	-10.9577
ㄕㄜˋ4쎯ㄨㄞˋ쎯	-10.9578
ㄓˋ3쎯ㄗㄠˋ2쎯ㄕㄤ1쎯	-10.9581
ㄕˊ1쎯ㄐㄧㄢ4쎯:쎂쎀쎀	-10.9583
,ㄍㄠ0쎯ㄐㄧˊ2쎯	-10.9585
ㄉㄚˋ쎯ㄌㄧㄢˊ0쎯ㄕˋ4쎯	-10.9586
ㄐㄧㄢ6쎯ㄎㄨˇ쎯	-10.9587
ㄐㄧˊ3쎯ㄍㄠ0쎯	-10.9588
ㄧ0쎯ㄐㄧㄡˇ0쎯ㄐㄧㄡˇ0쎯	-10.9591
ㄉㄨㄟˋ1쎯ㄏㄨㄚˋ2쎯	-10.9592
ㄈㄣ6쎯	-10.9592
▁̇ㄉㄜ1쎯ㄈㄨˋ0쎯ㄑㄧㄣ2쎯	-10.9593
,ㄍㄜˋ0쎯	-10.9593
.ㄙㄨㄛˇ0쎯ㄧˇ2쎯	-10.9595
.쎁쎉쎉쎈ㄋㄧㄢˊ0쎯	-10.9595
ㄆㄞ쎯ㄇㄞˋ2쎯	-10.9596
,ㄉㄤ0쎯ㄕˊ1쎯	-10.9596
.ㄌㄧㄥˋ0쎯ㄨㄞˋ쎯,	-10.9598
ㄩㄣˋ1쎯ㄏㄜˊ3쎯	-10.9599
ㄒㄧㄝˇ0쎯ㄗˋ1쎯ㄌㄡˊ1쎯	-10.9599
.ㄑㄩㄢˊ1쎯	-10.96
쎂쎅쎀ㄎㄜˋ0쎯	-10.9602
ㄓㄨㄤˋ1쎯ㄏㄨㄚ0쎯ㄒㄩˋ1쎯	-10.9603
ㄊㄧㄥ0쎯、	-10.9603
ㄇㄧㄣˊ0쎯ㄩㄥˋ0쎯	-10.9604
ㄍㄨㄤˇ0쎯ㄒㄧ1쎯ㄓㄨㄤˋ0쎯	-10.9608
ㄐㄧㄠ6쎯ㄕ2쎯.	-10.961
ㄕㄣ0쎯ㄅㄠˋ0쎯	-10.9615
ㄊㄨ	-10.9616
ㄉㄚˋ쎯ㄊㄨㄥˊ0쎯	-10.9617
ㄖㄣˊ3쎯ㄓˊ4쎯ㄩˊ0쎯	-10.9619
ㄋㄚ1쎯ㄎㄞ0쎯	-10.962
ㄓㄣ1쎯ㄐㄧㄡˇ3쎯	-10.9621
쎀ㄇㄛˋ0쎯ㄩㄢˊ0쎯,	-10.9624
ㄊㄨㄥˊ0쎯ㄇㄥˊ1쎯	-10.9625
ㄕㄡˇ1쎯ㄏㄨˋ2쎯	-10.9626
ㄋㄚ1쎯ㄕㄢ0쎯	-10.9626
ㄑㄧㄡˊ2쎯ㄒㄧㄥˊ1쎯	-10.9628
쎁.쎇	-10.9628
:쎀.	-10.9629
ㄉㄥˇ0쎯ㄉㄞ1쎯	-10.963
ㄎㄞ0쎯ㄘㄞˇ0쎯	-10.9633
ㄓ2쎯ㄒㄩ4쎯	-10.9635
쎂ㄋㄧㄢˊ0쎯)	-10.9635
,ㄐㄧㄢˋ2쎯ㄌㄧˋ3쎯	-10.9636
ㄑㄩ4쎯	-10.9637
ㄒㄧㄤˋ1쎯ㄇㄨˋ1쎯.	-10.9639
ㄐㄧㄢˋ2쎯ㄕㄜˋ0쎯ㄏㄜˊ2쎯	-10.9641
ㄔㄢˇ0쎯ㄆㄧㄣˇ쎯ㄧㄡˇ1쎯	-10.9641
쎂、	-10.9643
、ㄐㄧㄣ3쎯	-10.9646
,ㄑㄩㄢˊ1쎯ㄇㄧㄢˋ0쎯	-10.9646
ㄍㄨㄛˇ0쎯ㄕㄨˋ3쎯	-10.9647
ㄐㄧㄥ8쎯ㄕㄣˊ1쎯,	-10.9648
ㄧ0쎯ㄕㄡˇ2쎯	-10.9648
ㄠˋ2쎯ㄩㄣˋ1쎯	-10.965
ㄌㄨˋ5쎯ㄎㄡˇ쎯	-10.9651
▁̇ㄉㄜ1쎯ㄊㄨㄥ0쎯ㄓ7쎯》(	-10.9652
、ㄔㄣˊ5쎯	-10.9652
ㄔㄨㄥˊ1쎯ㄓˊ5쎯ㄧㄝˋ0쎯	-10.9653
ㄕㄨㄤ0쎯ㄏㄜˊ5쎯	-10.9657
ㄩㄢˇ쎯ㄒㄧㄠ6쎯	-10.9659
.쎂쎀쎀쎁ㄋㄧㄢˊ0쎯	-10.9659
ㄆㄧㄥˊ0쎯ㄕˊ1쎯	-10.9661
쎁쎀ㄩˊ2쎯	-10.9662
ㄎㄨㄤˋ0쎯	-10.9664
ㄏㄤˊ0쎯,	-10.9666
ㄅㄧˋ15쎯	-10.9669
ㄐㄧㄥˋ6쎯ㄉㄧㄢˋ0쎯	-10.9669
ㄌㄧˋ0쎯ㄉㄚˊ0쎯ㄗㄠˋ2쎯	-10.9669
ㄕㄨㄤ0쎯ㄔㄨㄥˊ2쎯	-10.967
ㄔㄨㄢˇ0쎯	-10.9671
ㄏㄨㄞˊ2쎯ㄋㄚ1쎯	-10.9674
ㄏㄜˊ5쎯ㄙㄨㄢˋ1쎯	-10.9677
쎁쎉ㄕˋ3쎯ㄐㄧˇ1쎯	-10.9677
ㄈㄚˇ0쎯ㄒㄩㄝˊ1쎯ㄩㄢˋ2쎯	-10.9678
ㄇㄧㄢˋ0쎯ㄐㄧ11쎯쎁쎂	-10.9678
:‘	-10.968
ㄎㄞˇ	-10.968
쎁쎂쎃	-10.9681
ㄐㄧㄝˋ5쎯ㄓㄨˋ0쎯	-10.9683
ㄇㄛˋ0쎯ㄉㄨㄛ0쎯	-10.9683
ㄒㄧ1	-10.9684
ㄇㄣˊ0쎯,	-10.9688
ㄆㄠ0쎯	-10.9689
、ㄏㄨㄥˊ1쎯	-10.9691
쎉ㄏㄠˊ0쎯	-10.9695
쎇쎀ㄋㄧㄢˊ0쎯ㄉㄞˋ0쎯	-10.9696
ㄘㄨㄥˊ0쎯ㄧㄝˋ0쎯	-10.9696
ㄏㄨˊ2쎯ㄐㄧㄠ7쎯	-10.9697
ㄉㄧㄢˋ8쎯ㄉㄧㄥˋ1쎯	-10.9699
ㄖㄨˇ2쎯	-10.9701
ㄐㄩㄣ2쎯ㄗˇ0쎯	-10.9703
ㄔˇ0쎯ㄌㄨㄣˊ4쎯	-10.9703
ㄋㄚ1쎯ㄧㄤˊ2쎯	-10.9704
,ㄌㄧˋ8쎯ㄖㄨˊ0쎯	-10.9704
ㄋㄨㄥˊ2쎯	-10.9706
ㄒㄧㄡˋ3쎯	-10.9709
ㄅㄠˇ1쎯ㄅㄟˋ0쎯	-10.971
ㄏㄢˋ0쎯ㄉㄞˋ0쎯	-10.971
ㄨㄣˊ3쎯	-10.971
쎅ㄏㄠˊ0쎯	-10.971
.....	-10.971
ㄒㄩˇ0쎯ㄎㄜˇ0쎯ㄓㄥˋ0쎯	-10.9711
ㄎㄢ2쎯ㄊㄢˋ2쎯	-10.9712
ㄅㄛˊ6쎯ㄏㄞˇ0쎯	-10.9713
ㄘㄥˊ1쎯ㄒㄧㄢ1쎯ㄏㄡˋ0쎯	-10.9715
ㄋㄧㄥˊ3쎯ㄇㄥˊ2쎯	-10.9718
쎃.쎃	-10.9721
쎉쎀ㄋㄧㄢˊ0쎯ㄉㄞˋ0쎯	-10.9722
ㄙˋ1쎯ㄓ8쎯	-10.9724
ㄍㄥˇ1쎯	-10.9726
ㄆㄥˊ7쎯ㄓㄤˋ5쎯	-10.9726
ㄗㄞˋ1쎯ㄒㄧㄤ2쎯ㄍㄤˇ쎯	-10.9726
ㄊㄨㄥ0쎯ㄍㄨㄛ0쎯ㄉㄨㄟˋ1쎯	-10.9726
▁̇ㄕ쎯ㄧㄝˋ0쎯	-10.9727
ㄔㄤˊ0쎯ㄉㄚˋ쎯	-10.9728
ㄗㄞˋ1쎯ㄨㄛˇ쎯ㄍㄨㄛˊ0쎯	-10.9728
ㄋㄚ1쎯ㄔㄠˊ1쎯	-10.9728
ㄘㄨㄣ0쎯ㄋㄟˋ쎯	-10.973
ㄕㄢ0쎯ㄍㄨˇ1쎯	-10.9731
ㄍㄨㄥ2쎯ㄅㄢˋ0쎯	-10.9734
ㄐㄧㄝˇ1쎯ㄒㄧ5쎯	-10.9735
ㄅㄨˋ4쎯ㄇㄣˊ0쎯.	-10.9739
ㄧˇ2쎯ㄒㄧ1쎯	-10.974
ㄏㄨㄚˊ1쎯ㄓㄨㄥ0쎯	-10.9743
ㄧˇ4쎯	-10.9744
ㄐㄧㄢ7쎯ㄌㄧˇ3쎯	-10.9745
ㄐㄧㄠˇ4쎯	-10.9748
ㄓㄨㄥ0쎯ㄔㄤˊ1쎯	-10.9748
ㄩˊ0쎯쎂쎀쎀쎃ㄋㄧㄢˊ0쎯	-10.9751
쎃쎂.	-10.9753
ㄎㄜˇ0쎯ㄋㄥˊ쎯ㄕˋ15쎯	-10.9756
ㄅㄧㄢˋ	-10.9757
ㄓㄨˊ2쎯	-10.9758
ㄅㄨˋ1쎯ㄌㄨˇ2쎯	-10.9758
ㄔㄢˊ0쎯ㄔㄨㄣˊ0쎯	-10.9758
ㄕㄢ0쎯ㄌㄨˋ5쎯	-10.9759
ㄌㄢˊ7쎯	-10.976
ㄖㄨˊ	-10.9762
,ㄑㄩˇ0쎯ㄉㄜˊ0쎯	-10.9762
ㄕㄨㄟˇ쎯ㄉㄧㄢˋ0쎯	-10.9764
ㄓ7쎯ㄕˊ2쎯ㄏㄜˊ2쎯	-10.9765
ㄑㄧˊ2쎯	-10.9766
ㄜˋ	-10.9766
쎇쎆쎈	-10.9769
쎂ㄇㄨˇ2쎯	-10.977
ㄓㄢˋ2쎯ㄉㄧㄢˇ1쎯	-10.977
ㄙㄨㄛˇ0쎯ㄓㄨˋ7쎯	-10.9771
,ㄙㄨㄟ0쎯ㄖㄢˊ0쎯	-10.9772
ㄒㄩˋ1쎯ㄌㄧㄝˋ0쎯	-10.9773
ㄗㄨㄟˋ0쎯ㄐㄧㄤˋ2쎯	-10.9774
ㄖㄨㄥˊ0쎯	-10.9777
ㄍㄚ3쎯	-10.9777
ㄋㄚ1쎯ㄋㄧㄥˊ0쎯ㄕˋ4쎯	-10.9779
,ㄧㄡˊ2쎯ㄓㄥˋ3쎯ㄅㄧㄢ1쎯	-10.9779
ㄉㄧㄠˋ2쎯ㄧㄢˊ6쎯ㄩㄢˊ2쎯	-10.978
ㄍㄨㄥ2쎯ㄈㄣ0쎯	-10.9781
ㄐㄧㄠˇ8쎯	-10.9781
ㄏㄨㄥˊ1쎯ㄐㄧㄠ7쎯	-10.9782
ㄑㄧㄝˋ1쎯	-10.9782
ㄐㄧㄤ0쎯ㄕˋ4쎯	-10.9783
ㄉㄡˋ2쎯ㄨˋ3쎯	-10.9783
ㄘㄨ쎯ㄓㄨㄤˋ0쎯	-10.9784
ㄓㄨˇ0쎯ㄌㄧㄠˋ0쎯:	-10.9784
ㄆㄟˋ2쎯ㄙㄨㄥˋ2쎯	-10.9784
쎁쎂ㄩㄝˋ0쎯ㄖㄣˊ3쎯	-10.9785
ㄋㄨㄥˊ0쎯ㄏㄨˋ1쎯	-10.9786
ㄓㄡ1쎯ㄘ0쎯ㄕˇ0쎯	-10.9789
ㄕㄢ0쎯ㄌㄧㄣˊ1쎯	-10.979
쎁쎂쎂	-10.9791
ㄩˊ1쎯ㄧˇ2쎯	-10.9792
,ㄐㄩㄣ1쎯	-10.9795
ㄔㄡˊ6쎯ㄐㄧㄢˋ2쎯	-10.9796
、ㄧㄢˊ7쎯	-10.9796
ㄒㄧㄣ5쎯ㄙˋ1쎯ㄐㄩㄣ0쎯	-10.9797
к	-10.9798
ㄍㄣ1쎯ㄗㄨㄥ2쎯	-10.98
ㄕˋ15쎯ㄨㄛˇ쎯	-10.9801
ㄋㄧㄢˊ0쎯ㄐㄧㄢ4쎯,	-10.9805
ス	-10.9806
ㄒㄧㄥ1쎯ㄐㄧˋ3쎯	-10.9807
ㄕㄜˋ	-10.9809
ㄩㄢ1쎯	-10.981
,쎁쎉쎈쎂ㄋㄧㄢˊ0쎯	-10.981
ㄕˋ4쎯ㄓㄥˋ3쎯ㄒㄧㄝˊ1쎯	-10.9811
()ㄏㄜˊ2쎯	-10.9812
,쎁쎉쎈쎆ㄋㄧㄢˊ0쎯	-10.9812
ㄓㄨㄤˋ1쎯.	-10.9814
,ㄉㄨㄥ0쎯ㄌㄧㄣˊ2쎯	-10.9816
ㄎㄨㄤˋ2쎯ㄔㄨㄤˊ0쎯	-10.9816
ㄩˇ0쎯ㄈㄚ쎯ㄓㄢˇ2쎯	-10.9816
ㄍㄠ4쎯	-10.9817
ㄐㄧㄢˋ2쎯ㄓˋ3쎯	-10.9817
쎉ㄍㄨㄥ2쎯ㄌㄧˇ2쎯	-10.9818
ㄍㄨˇ	-10.9819
ㄑㄩㄝ0쎯ㄒㄧㄢˋ5쎯	-10.9819
ㄌㄟˊ1쎯ㄉㄚˊ1쎯	-10.982
ㄓ0쎯.”	-10.9821
ㄧㄥˊ3쎯	-10.9821
ㄊㄞˋ0쎯ㄎㄨㄥ0쎯	-10.9821
ㄒㄧㄤˋ0쎯ㄑㄧㄢˊ0쎯	-10.9823
,ㄕˇ2쎯ㄉㄜˊ0쎯	-10.9823
ㄐㄧ18쎯ㄈㄚ쎯	-10.9823
ㄏㄡˋ0쎯ㄓㄜˇ0쎯	-10.9825
ㄌㄨˋ5쎯ㄇㄧㄢˋ0쎯	-10.9826
ㄑㄩㄢˊ1쎯ㄗˋ0쎯ㄉㄨㄥˋ0쎯	-10.9826
ㄊㄢˊ5쎯	-10.9827
ㄒㄧㄣˋ0쎯ㄈㄤˇ1쎯	-10.9828
ㄕㄠˇ쎯ㄦˊ0쎯	-10.9831
쎅ㄋㄧㄢˊ0쎯)	-10.9831
ㄐㄩㄣ0쎯ㄍㄨㄢ2쎯	-10.9832
,쎁쎉쎈쎈ㄋㄧㄢˊ0쎯	-10.9834
ㄊㄢ1쎯	-10.9837
ㄎㄨㄚˋ1쎯ㄩㄝˋ5쎯	-10.9838
ㄏㄨㄟˇ0쎯	-10.9838
ㄆㄧㄢ2쎯ㄌㄨㄣˊ2쎯ㄨㄣˊ0쎯	-10.9839
ㄧˋ16쎯	-10.9839
ㄔㄨㄟˊ2쎯	-10.984
쎃ㄖㄣˊ0쎯,	-10.984
ㄨㄣˊ0쎯ㄐㄧˊ8쎯	-10.9844
ㄎㄨˋ1쎯	-10.9845
ㄋㄚ1쎯ㄊㄨㄥ0쎯	-10.9846
ル	-10.9848
ㄌㄨㄣˊ2쎯》	-10.9849
ㄧ4쎯ㄌㄞˋ1쎯	-10.9851
ㄧˇ0쎯ㄔㄨㄣˊ3쎯	-10.9852
쎁쎀ㄩㄝˋ0쎯ㄕㄥ1쎯,	-10.9854
ㄊㄧㄠˊ0쎯ㄌㄧˋ8쎯》	-10.9855
쎉ㄋㄧㄢˊ0쎯)	-10.9857
쎀°C,ㄋㄧㄢˊ0쎯ㄐㄧㄤˋ1쎯	-10.9859
ㄈㄥ4쎯ㄎㄨㄤˊ0쎯	-10.9859
ㄐㄧˊ4쎯ㄨㄟˊ0쎯	-10.9859
ㄇㄛˋ1쎯ㄉㄨㄢ0쎯	-10.9861
ㄩㄝˋ0쎯ㄎㄢ0쎯	-10.9862
쎅ㄍㄨㄥ2쎯ㄌㄧˇ2쎯,	-10.9865
ㄇㄛˊ0쎯ㄑㄩㄥˊ0쎯	-10.9865
ㄏㄡˋ0쎯ㄅㄟˋ5쎯	-10.9867
ㄌㄟˊ0쎯ㄐㄧˋ0쎯	-10.9869
▁̇ㄉㄜ1쎯ㄒㄧㄤ1쎯ㄍㄨㄢ0쎯	-10.987
ㄐㄧ4쎯	-10.9872
ㄑㄩㄢˊ1쎯ㄔㄥˊ7쎯	-10.9874
쎁쎀ㄩㄝˋ0쎯ㄔㄨ0쎯ㄕㄥ1쎯,	-10.9875
ㄔㄣˊ5쎯ㄌㄧㄝˋ0쎯	-10.9875
ㄙㄞ3쎯	-10.9877
ㄈㄛˊ쎯ㄕㄢ0쎯	-10.9882
쎃ㄋㄧㄢˊ0쎯)	-10.9883
ㄧ5쎯	-10.9883
ㄌㄧˋ15쎯ㄗˇ0쎯	-10.9885
ㄧˊ6쎯	-10.9885
ㄧㄝˋ0쎯ㄋㄟˋ쎯	-10.9886
ㄐㄩㄣ1쎯ㄑㄧˋ0쎯ㄨㄣ0쎯쎂	-10.9887
ㄐㄧㄝ8쎯	-10.9887
.(쎂)	-10.9888
ㄑㄩㄢˋ1쎯	-10.989
ㄐㄧㄢˇ6쎯ㄈㄟˊ0쎯	-10.9893
쎁쎉쎂	-10.9894
ㄅㄟ2쎯ㄏㄡˋ0쎯	-10.9895
ㄔㄠ5쎯	-10.9895
ㄍㄜ7쎯ㄐㄩˋ4쎯	-10.9896
ㄕˊ3쎯ㄒㄩㄣˋ0쎯	-10.9899
ㄔㄨㄥˊ2쎯ㄗㄨˇ1쎯	-10.99
▁̇ㄉㄜ1쎯ㄌㄠˇ0쎯	-10.9903
ㄔㄥˊ0쎯ㄩㄢˊ2쎯.	-10.9907
ㄧㄡ0쎯ㄒㄧㄡˋ0쎯ㄐㄧㄤˇ1쎯	-10.9909
ㄌㄚ1쎯ㄉㄧㄥ0쎯	-10.991
,ㄅㄟˇ쎯ㄐㄧㄥ1쎯	-10.9912
ㄨㄛˇ쎯ㄍㄨㄥ2쎯ㄙ0쎯	-10.9913
ㄩˋ1쎯	-10.9918
,ㄍㄨˋ1쎯ㄔㄣˋ1쎯	-10.9918
ㄩˊ0쎯쎂쎀쎀쎄ㄋㄧㄢˊ0쎯	-10.9922
ㄕˋ15쎯ㄊㄨㄥ0쎯ㄍㄨㄛ0쎯	-10.9922
ㄆㄧㄢˋ쎯	-10.9922
ㄧ0쎯ㄅㄧㄢ0쎯	-10.9922
ㄇㄛˋ6쎯	-10.9922
ㄊㄨˇ0쎯ㄦˇ1쎯ㄑㄧˊ1쎯	-10.9923
(쎁쎅	-10.9929
ㄍㄞˇ쎯ㄇㄧㄥˊ0쎯	-10.993
ㄍㄨˋ1쎯ㄍㄨㄥ6쎯	-10.9931
.ㄔㄨ0쎯ㄔㄨˇ0쎯:	-10.9931
ㄐㄩˋ7쎯ㄔˇ0쎯	-10.9934
ㄍㄜ7쎯ㄨˇ7쎯	-10.9935
,ㄧㄠ4쎯	-10.9935
,ㄅㄟˇ쎯ㄌㄧㄣˊ0쎯	-10.9936
ㄈㄨˊ21쎯ㄌㄧㄥˊ12쎯	-10.9937
ㄓㄚˊ2쎯	-10.9937
ㄍㄨㄥ5쎯ㄕㄨㄟˇ쎯	-10.9938
ㄉㄢ0쎯ㄇㄞˋ1쎯	-10.9942
ㄌㄞˊ0쎯ㄩㄢˊ9쎯:	-10.9942
ㄗㄠˋ3쎯ㄧㄣ4쎯	-10.9943
ㄙㄚ0쎯ㄕㄤˇ0쎯	-10.9944
ㄕˋ15쎯ㄨㄛˇ쎯ㄇㄣˊ1쎯	-10.9945
ㄨˋ2쎯ㄕˊ3쎯	-10.9948
,쎂쎀쎀쎅ㄋㄧㄢˊ0쎯	-10.9948
ㄔㄨ0쎯ㄒㄧˊ1쎯	-10.9951
ㄇㄧㄥˊ1쎯ㄌㄧㄤˋ0쎯	-10.9952
ㄈㄨˊ12쎯ㄓㄡ1쎯ㄕˋ4쎯	-10.9952
ㄖㄨㄥˊ8쎯ㄉㄧㄢˇ1쎯	-10.9952
ㄏㄞˊ0쎯ㄧㄠ4쎯	-10.9954
ㄌㄨㄢˇ쎯ㄓㄨㄤˋ1쎯	-10.9955
ㄅㄧㄠ	-10.9958
,쎂쎀쎀쎄ㄋㄧㄢˊ0쎯	-10.9958
ㄓㄢˇ1쎯	-10.9958
ㄌㄩˋ0쎯、ㄈㄚˇ0쎯ㄍㄨㄟ2쎯	-10.9958
ㄐㄧㄤˇ1쎯ㄓㄤ1쎯	-10.9959
,쎁쎉쎈쎇ㄋㄧㄢˊ0쎯	-10.9959
ㄒㄧㄥˋ2쎯ㄅㄧㄝˊ0쎯	-10.9962
ㄧㄢˊ6쎯ㄐㄧㄡ1쎯.	-10.9962
ㄐㄧㄝˊ7쎯	-10.9964
쎁쎁쎅	-10.9964
쎁쎀쎂	-10.9964
ㄑㄧˊ4쎯	-10.9965
ㄓㄢˇ2쎯ㄔㄨ0쎯	-10.9965
,ㄈㄣ0쎯ㄅㄨˋ1쎯ㄩˊ0쎯	-10.9965
ㄒㄧㄤ6쎯	-10.9967
,ㄌㄧㄤˇ0쎯	-10.9968
ㄕㄠ1쎯ㄎㄞ0쎯	-10.9969
▁̇ㄌㄜ쎯ㄧ0쎯ㄒㄧㄝ0쎯	-10.9969
ㄇㄧㄢˊ0쎯	-10.997
ㄒㄧㄥˋ2쎯ㄐㄧㄤˋ2쎯	-10.9972
ㄓㄣ4쎯ㄔㄥˊ2쎯	-10.9973
ㄐㄧㄠ6쎯ㄩˋ3쎯ㄐㄧㄚ3쎯	-10.9975
ㄔㄣˋ1쎯ㄏㄨ1쎯	-10.9978
ㄎㄚˇ0쎯ㄌㄚ1쎯	-10.998
ㄓㄨˇ2쎯ㄕㄡˊ쎯	-10.998
ㄧㄝˇ0쎯ㄋㄥˊ쎯	-10.9981
,ㄉㄨㄛ0쎯ㄘˋ0쎯	-10.9984
ㄨˇ3쎯ㄔㄤ0쎯	-10.9985
ㄧ0쎯ㄊㄨㄥˊ0쎯	-10.9987
ㄩˇ6쎯ㄈㄚˇ0쎯	-10.9989
(ㄑㄧˊ1쎯ㄓㄨㄥ0쎯	-10.9991
ㄖㄣˊ0쎯,ㄍㄥ2쎯	-10.9991
ㄏㄞˇ0쎯ㄉㄧˇ1쎯	-10.9992
,ㄧˇ2쎯“	-10.9992
ㄇㄥ쎯ㄍㄨˇ0쎯ㄗㄨˊ1쎯	-10.9994
ㄓㄣˇ0쎯ㄓˋ5쎯	-10.9996
ㄈㄟ2쎯ㄧㄥˊ5쎯ㄌㄧˋ6쎯	-11
ㄍㄨˇ0쎯ㄖㄣˊ0쎯	-11.0001
▁̇ㄉㄜ1쎯ㄓˊ4쎯ㄧㄝˋ0쎯	-11.0003
ㄌㄩˋ1쎯	-11.0006
ㄙˋ3쎯	-11.0008
5쎯,	-11.0009
ㄅㄧㄥ2쎯ㄊㄨㄢˊ0쎯	-11.0009
ㄊㄨˊ2쎯ㄓㄨㄥ0쎯	-11.0011
ㄇㄡˇ쎯ㄍㄜˇ0쎯	-11.0013
ㄍㄢˇ3쎯ㄉㄨㄥˋ0쎯	-11.0014
ㄙ5쎯	-11.0014
ㄨㄟ3쎯ㄖㄨㄢˇ0쎯	-11.0014
ㄗㄨˇ2쎯ㄐㄧˊ12쎯	-11.0015
“ㄨˇ0쎯	-11.0016
ㄧㄤˊ0쎯ㄕㄥ2쎯ㄑㄧˋ7쎯	-11.0016
ㄉㄨㄥˋ	-11.0017
쎈ㄋㄧㄢˊ0쎯)	-11.002
쎃.쎂	-11.002
ㄕˇ2쎯ㄑㄧˊ1쎯	-11.0021
ㄇㄛˊ6쎯ㄍㄨ6쎯	-11.0022
쎁쎇쎆	-11.0022
ㄈㄤ0쎯ㄅㄧㄢˋ1쎯,	-11.0025
ㄏㄞˇ0쎯ㄅㄧㄣ3쎯	-11.0025
ㄉㄜˊ1쎯ㄩˋ3쎯	-11.0026
ㄋㄢˊ3쎯	-11.0026
ㄋㄚ1쎯ㄡ0쎯	-11.0028
ㄈㄣ0쎯ㄔㄥˊ0쎯	-11.0028
ㄦˋ0쎯ㄐㄧ13쎯	-11.0028
ㄙㄞ1쎯ㄦˇ0쎯	-11.003
〗	-11.0031
ㄐㄧㄚ5쎯	-11.0034
ㄐㄧㄢˇ5쎯ㄙㄨㄛˇ1쎯	-11.0034
ㄍㄜˇ0쎯ㄍㄨㄛˊ0쎯ㄐㄧㄚ3쎯	-11.0034
,ㄘㄢ0쎯ㄩˇ0쎯	-11.0035
ㄌㄧˋ3쎯ㄈㄚˇ0쎯	-11.0039
ㄕㄨㄟˇ쎯ㄕㄤˇ0쎯	-11.0039
".	-11.0041
▁̇ㄉㄜ1쎯ㄅㄨˋ4쎯ㄈㄣ0쎯	-11.0043
쎃ㄇㄨˇ2쎯	-11.0043
ㄐㄧㄝ0쎯ㄧㄠ2쎯	-11.0044
▁̇ㄉㄜ1쎯ㄓˋ5쎯ㄌㄧㄠˊ1쎯	-11.0045
ㄕㄜˋ0쎯ㄐㄧˋ0쎯ㄏㄜˊ2쎯	-11.0045
ㄓㄤˋ5쎯	-11.0047
〖	-11.0049
ㄨㄚˊ쎯	-11.0049
ㄓㄨ3쎯ㄏㄡˊ0쎯	-11.0052
ㄐㄧㄥ3쎯ㄓㄡ1쎯	-11.0052
ㄈㄨˋ11쎯ㄏㄢˊ1쎯	-11.0052
ㄗˋ0쎯ㄓˋ5쎯	-11.0053
ㄇㄚˇ0쎯ㄦˇ0쎯	-11.0053
ㄅㄨˋ0쎯ㄧˊ3쎯	-11.0055
ㄊㄜˋ0쎯ㄔㄤˊ0쎯	-11.0055
ㄏㄜˊ2쎯ㄍㄨㄛˊ0쎯ㄐㄧㄚ3쎯	-11.0057
ㄓˊ0쎯ㄧㄝˋ0쎯	-11.0063
,쎁쎉쎈쎃ㄋㄧㄢˊ0쎯	-11.0068
ㄕㄨ9쎯ㄖㄨˋ0쎯ㄈㄚˇ0쎯	-11.0069
ㄌㄡˊ1쎯、	-11.0069
ㄅㄤˋ2쎯	-11.007
ㄌㄧㄣˊ1쎯ㄒㄧㄚˋ0쎯	-11.0071
ㄖㄨㄥˊ4쎯ㄐㄧ11쎯ㄌㄩˋ2쎯	-11.0072
ㄩˊ0쎯쎂쎀쎁쎂ㄋㄧㄢˊ0쎯	-11.0073
쎁쎆쎈	-11.0073
ㄓˋ13쎯ㄩˊ0쎯	-11.0073
▁̇ㄉㄜ1쎯ㄧ0쎯ㄒㄧㄤˋ1쎯	-11.0075
쎁쎉쎂쎅ㄋㄧㄢˊ0쎯	-11.0077
쎁쎅ㄍㄨㄥ2쎯ㄌㄧˇ2쎯	-11.0077
ㄘㄤ0쎯ㄔㄨˇ2쎯	-11.0077
ㄞˋ3쎯	-11.0077
ㄕㄨㄣˋ1쎯ㄐㄧㄢ4쎯	-11.0079
ㄐㄧㄠˇ7쎯”ㄉㄡˇ0쎯ㄓㄥ1쎯	-11.008
ㄌㄧˇ3쎯ㄕˋ8쎯.	-11.008
ㄏㄨㄟˊ0쎯ㄐㄧㄚ3쎯	-11.008
,ㄌㄧˋ6쎯ㄩㄥˋ0쎯	-11.008
ㄍㄨㄥ0쎯ㄔㄥˊ7쎯ㄕ2쎯,	-11.0081
ㄨˇ0쎯ㄩㄝˋ0쎯	-11.0081
ㄊㄡˋ쎯ㄍㄨㄛ0쎯	-11.0081
ㄕˊ4쎯ㄧㄢˊ7쎯	-11.0083
ㄩㄢˊ1쎯ㄧˋ2쎯	-11.0085
ㄏㄨㄛˋ2쎯ㄉㄜˊ0쎯ㄓㄜˇ0쎯	-11.0089
ㄌㄨㄥˊ0쎯ㄕㄢ0쎯	-11.0089
ㄕˊ1쎯ㄖㄣˊ3쎯	-11.0089
ㄅㄟˋ2쎯ㄩㄥˋ0쎯.	-11.009
ㄒㄩㄢˊ2쎯ㄌㄩˋ0쎯	-11.0103
ㄓㄥ2쎯ㄕㄡ쎯	-11.0103
ㄨㄟˇ5쎯ㄕㄨ0쎯ㄐㄧˋ1쎯.	-11.0103
ㄐㄧˋ3쎯ㄊㄨㄥˇ0쎯:	-11.0105
.쎂쎀쎀쎀ㄋㄧㄢˊ0쎯	-11.0105
、ㄑㄧˋ3쎯ㄔㄜ0쎯	-11.0108
ㄅㄨˋ0쎯ㄇㄧㄥˊ1쎯	-11.0111
ㄧㄡˇ1쎯ㄏㄣˇ0쎯ㄉㄨㄛ0쎯	-11.0112
ㄙㄜˋ0쎯,	-11.0112
ㄈㄣ0쎯ㄅㄧㄝˊ0쎯ㄕˋ15쎯	-11.0112
ㄐㄧㄠ0쎯ㄨㄤˇ2쎯	-11.0112
.”쎂.	-11.0113
ㄕˋ15쎯ㄓㄨㄢ0쎯ㄧㄝˋ0쎯	-11.0114
ㄧ0쎯ㄏㄠˊ0쎯	-11.0116
ㄈㄤ0쎯ㄕˋ5쎯.	-11.0117
в	-11.0118
,ㄙㄨㄟ0쎯	-11.0118
▁̇ㄉㄜ1쎯ㄑㄧˊ1쎯ㄊㄚ0쎯	-11.012
ㄕˋ18쎯,	-11.012
ㄏㄨㄢˋ	-11.012
ㄍㄥ0쎯ㄧㄡˇ1쎯	-11.0122
ㄐㄧㄥ2쎯ㄐㄧˇ3쎯ㄐㄧˋ2쎯	-11.0122
ㄣˊ0쎯ㄒㄧㄠˇ0쎯ㄗㄨˇ1쎯	-11.0125
ㄨㄟˇ5쎯ㄕㄨ0쎯ㄐㄧˋ1쎯、	-11.0128
ㄓㄨㄥ0쎯ㄒㄧㄥˊ2쎯	-11.013
ㄅㄛˊ5쎯ㄕˋ0쎯,	-11.013
ㄌㄧㄥˇ1쎯ㄉㄠˇ0쎯ㄖㄣˊ0쎯	-11.0131
ㄐㄧˊ8쎯ㄓㄣˋ3쎯	-11.0132
ㄋㄧˊ0쎯ㄙ4쎯	-11.0132
ㄔㄚˋ0쎯	-11.0133
ㄧㄡˊ4쎯ㄊㄧㄢˊ0쎯	-11.0133
ㄨㄟˋ2쎯,	-11.0134
ㄒㄧㄢˋ4쎯ㄈㄚˇ0쎯	-11.0138
ㄧˇ2쎯ㄊㄞˋ0쎯ㄨㄤˇ0쎯	-11.0139
ㄍㄨㄥ2쎯ㄕˋ5쎯	-11.0139
ㄩㄥ	-11.0139
ㄐㄧㄠ10쎯	-11.014
ㄅㄧㄢˋ0쎯ㄧㄚ1쎯ㄑㄧˋ7쎯	-11.0141
ㄍㄨ5쎯ㄎㄜ2쎯	-11.0142
ㄎㄨㄛˋ0쎯ㄓㄤ0쎯	-11.0142
,쎁쎉쎉쎈ㄋㄧㄢˊ0쎯	-11.0144
ㄨㄟ5쎯	-11.0146
ㄎㄨㄥˇ1쎯ㄌㄨㄥˊ0쎯	-11.0149
ㄨㄟˊ6쎯ㄦˇ0쎯	-11.0149
,ㄙㄨㄟˊ1쎯ㄓㄠ2쎯	-11.0149
ㄋㄚ1쎯ㄍㄨㄚ0쎯	-11.0152
ㄉㄨㄥ0쎯ㄒㄧㄢˋ0쎯	-11.0154
ㄔㄤˊ0쎯;	-11.0155
ㄌㄨˋ3쎯ㄏㄨㄚˋ0쎯ㄌㄩˋ2쎯	-11.0155
ㄅㄧㄥ2쎯ㄑㄧˋ7쎯	-11.0156
ㄍㄢˇ4쎯ㄌㄢˇ3쎯	-11.0158
ㄈㄥ1쎯ㄕㄨㄟˇ쎯	-11.0158
ㄐㄧㄤˇ0쎯ㄕㄡˋ2쎯	-11.016
ㄗㄨㄛ0쎯ㄨㄟˋ6쎯ㄩˇ6쎯、	-11.016
쎁쎈쎀쎀	-11.0161
ㄌㄨㄥˊ0쎯ㄑㄩㄢˊ2쎯	-11.0161
ㄧㄡˊ1	-11.0161
ㄇㄣˊ0쎯ㄓㄣˇ0쎯	-11.0161
,ㄈㄣ0쎯	-11.0162
ㄐㄧㄠˇ6쎯	-11.0162
ㄏㄨㄚˋ2쎯ㄐㄩˋ4쎯	-11.0164
,ㄎㄨㄢ0쎯	-11.0165
ㄧㄥ0쎯ㄉㄤ0쎯	-11.0165
か	-11.0165
ㄓ0쎯ㄧˋ18쎯	-11.0167
ㄋㄞˇ1쎯ㄧㄡˊ4쎯	-11.0169
ㄅㄢˇ1쎯)	-11.0169
ㄌㄧˇ2쎯,ㄍㄥ2쎯	-11.0169
ㄧㄢˊ6쎯ㄐㄧㄡ1쎯、	-11.0171
ㄒㄧ	-11.0173
ㄅㄨˋ0쎯ㄒㄩ4쎯ㄧㄠ4쎯	-11.0173
ㄧ2쎯ㄈㄨˊ5쎯	-11.0173
ㄓˊ4쎯ㄨˋ2쎯.	-11.0174
ㄆㄧㄣˇ쎯ㄨㄟˋ2쎯	-11.0174
▁̇ㄉㄜ1쎯ㄈㄢˇ0쎯	-11.0175
ㄇㄚ0쎯	-11.0175
ㄈㄥ3쎯ㄅㄧˋ3쎯	-11.018
ㄒㄩㄝˊ1쎯ㄊㄤˊ1쎯	-11.0181
,ㄋㄥˊ쎯ㄍㄡˋ3쎯	-11.0183
:쎈	-11.0184
ㄌㄧˋ3	-11.0189
ㄈㄚˇ0쎯ㄉㄧㄥˋ1쎯	-11.0191
ㄈㄟˋ3쎯	-11.0192
ㄗˇ0쎯·	-11.0194
ㄓㄞˋ0쎯ㄑㄩㄢˋ1쎯	-11.0196
ㄉㄨㄢˇ쎯ㄐㄧ13쎯	-11.0199
ㄘˇ0쎯ㄕㄨ0쎯	-11.0203
▁̇ㄉㄜ1쎯ㄐㄧㄝ3쎯ㄍㄡˋ0쎯	-11.0204
쎁쎃쎃	-11.0204
ㄓㄨˇ0쎯ㄓˋ5쎯:	-11.0205
.쎁쎉쎈쎄ㄋㄧㄢˊ0쎯	-11.0206
ㄋㄧˊ0쎯ㄒㄧ1쎯ㄧㄚˋ1쎯	-11.0207
ㄏㄨㄢˋ1쎯	-11.0207
,ㄇㄟˇ0쎯ㄋㄧㄢˊ0쎯	-11.0209
ㄆㄧㄥˊ0쎯ㄊㄢˇ0쎯	-11.0209
ㄐㄧㄤ0쎯ㄡ0쎯	-11.021
ㄍㄜˊ2쎯ㄐㄩˊ0쎯	-11.0212
ㄔㄨㄥ1쎯ㄗㄨˊ0쎯	-11.0213
ㄓㄨˇ0쎯ㄆㄧㄣˊ1쎯	-11.0215
ㄉㄠˋ0쎯ㄉㄧˇ1쎯	-11.0216
ㄓㄥ8쎯ㄑㄧˋ3쎯	-11.0218
ㄓㄨㄤ1쎯ㄓㄣˋ3쎯	-11.0218
ㄅㄢ4쎯ㄉㄧㄢˇ1쎯	-11.0222
ㄓㄨˇ0쎯ㄌㄧㄠˋ0쎯	-11.0222
▁̇ㄉㄜ1쎯ㄞˋ1쎯	-11.0224
ㄉㄥ1쎯ㄌㄧㄡˋ1쎯	-11.0225
ㄩㄣˊ	-11.0226
ㄑㄩ0쎯ㄕㄜˊ1쎯	-11.0227
ㄘㄞˊ1쎯ㄌㄧㄠˋ0쎯:	-11.0228
ㄍㄨㄥ3쎯ㄋㄥˊ쎯.	-11.0228
ㄈㄨˋ7쎯ㄧㄣˋ0쎯	-11.023
ㄉㄚˋ쎯ㄈㄤ0쎯	-11.0231
ㄍㄜˇ1쎯ㄗㄨㄛ0쎯ㄕㄜˋ1쎯	-11.0233
ㄊㄨㄥˊ0쎯ㄧˋ18쎯	-11.0235
ㄍㄨㄛ0쎯ㄉㄨˋ3쎯	-11.0236
ㄅㄢˋ1쎯ㄕㄢ0쎯ㄡ0쎯.	-11.0237
ㄅㄧㄢˋ0쎯ㄐㄧㄠ8쎯	-11.0242
ㄒㄧㄝˊ7쎯ㄕㄡˇ0쎯	-11.0243
ㄕㄡˊ쎯ㄌㄧㄢˋ0쎯	-11.0244
쎇쎅쎀	-11.0244
쎀.쎀쎀	-11.0244
ㄍㄨㄞˋ0쎯ㄨˋ3쎯	-11.0245
ㄈㄣˊ2쎯	-11.0246
ㄉㄚˊ0쎯ㄆㄛˋ0쎯	-11.0247
ㄘㄞ0쎯	-11.0248
ㄅㄟˋ0쎯ㄎㄜˊ쎯	-11.0249
ㄒㄧㄣ6쎯	-11.0253
ㄈㄥ7쎯ㄇㄧˋ2쎯	-11.0254
ㄖㄣˋ1쎯ㄓ7쎯	-11.0256
ㄕㄥ1쎯ㄈㄣˇ쎯	-11.0257
▁̇ㄉㄜ1쎯ㄓㄥˋ3쎯ㄓˋ5쎯	-11.0258
ㄇㄢˊ1쎯	-11.0259
ㄓㄨ4쎯ㄧㄡˊ4쎯	-11.0259
(쎁쎉쎄	-11.026
ㄍㄨˋ3쎯	-11.0261
ㄆㄛ2쎯ㄧㄡˇ1쎯	-11.0263
ㄗㄨㄥ2쎯	-11.0264
ㄏㄨㄟˋ2쎯ㄌㄧˇ3쎯ㄕˋ8쎯,	-11.0265
ㄇㄧˋ1쎯ㄅㄟˋ5쎯	-11.0266
ㄍㄨㄢˇ1쎯ㄌㄧˇ3쎯ㄧㄡˇ1쎯	-11.0273
ㄍㄨㄥ2쎯ㄌㄧˇ2쎯,ㄌㄧˊ3쎯	-11.0273
ㄇㄛ쎯	-11.0275
ㄅㄛ7쎯	-11.0276
(쎁쎇	-11.028
ㄇㄧㄣˊ0쎯ㄓㄨㄥˋ1쎯	-11.0282
ㄑㄧˋ0쎯ㄈㄣ4쎯	-11.0285
ㄨㄟˊ0쎯ㄓㄨˇ0쎯ㄊㄧ0쎯	-11.0285
ㄈㄨˇ2쎯	-11.0288
ㄓㄜˋ0쎯ㄗㄨㄛˋ1쎯	-11.0288
ㄧㄡ2쎯ㄧㄚˇ쎯	-11.0289
ˊ1쎯	-11.0292
ㄧㄡˊ2쎯ㄉㄧㄢˋ0쎯	-11.0293
ㄑㄧˇ4쎯ㄈㄨˊ1쎯	-11.0295
쎅.쎀	-11.0297
ㄍㄨˇ1	-11.0297
ㄊㄞˋ0쎯ㄗㄨˇ2쎯	-11.0301
ㄇㄚˊ1쎯ㄗㄨㄟˋ2쎯	-11.0301
쎁쎀/쎁쎀쎀	-11.0303
ㄨㄟ	-11.0303
ㄉㄠˋ3쎯,	-11.0304
ㄨˊ3쎯	-11.0304
ㄇㄛˋ0쎯ㄌㄧˇ2쎯	-11.0304
-쎁쎂	-11.0304
ㄔㄨˇ	-11.0305
쎅×	-11.0307
ㄒㄧㄠ1	-11.0307
-쎂-	-11.0308
ㄉㄧˇ1쎯,	-11.031
쎈쎀쎂.쎃	-11.0311
ㄉㄨㄟˋ1쎯ㄎㄤˋ1쎯	-11.0311
.ㄔㄨˊ0쎯	-11.0311
,ㄓㄥ0쎯	-11.0313
ㄒㄧㄥ3쎯	-11.0314
ㄓㄥˇ1쎯ㄑㄧˊ0쎯	-11.0316
ㄗㄨㄛˋ1쎯ㄌㄚˋ0쎯ㄩˊ0쎯	-11.0317
쎀°	-11.0317
쎆ㄋㄧㄢˊ0쎯)	-11.0317
ㄓㄥ0쎯ㄎㄜ2쎯ㄐㄧˊ2쎯	-11.0318
,ㄔㄤˊ1쎯ㄕㄤˇ0쎯	-11.0319
,ㄐㄧㄢ8쎯	-11.0319
ㄅㄧㄣ1쎯	-11.0319
ㄈㄥ1쎯ㄙㄨˊ쎯	-11.032
,쎁쎉쎉쎆ㄋㄧㄢˊ0쎯	-11.0326
▁̇ㄉㄜ1쎯ㄧ0쎯ㄗㄨㄛˋ1쎯	-11.0327
ㄗㄨㄟˋ0쎯ㄔㄤˊ0쎯	-11.0329
ㄊㄨㄥˋ0쎯ㄎㄨˇ쎯	-11.033
ㄧㄡˇ1쎯ㄈㄥ0쎯ㄈㄨˋ11쎯	-11.0332
ㄕˊ1쎯ㄓㄨㄤ3쎯	-11.0334
ㄈㄨˊ5쎯.	-11.0335
,ㄐㄧㄣˇ0쎯	-11.0337
ㄈㄨˊ5쎯ㄩㄥˋ0쎯	-11.0339
쎅ㄖㄣˊ0쎯,	-11.034
ㄙㄨㄟˋ0쎯ㄩㄝˋ0쎯	-11.0341
ㄇㄟˊ1	-11.0341
ㄧㄠ4쎯ㄉㄧㄢˇ1쎯	-11.0341
ㄎㄜˇ0쎯ㄧˇ2쎯ㄕㄨㄟˋ0쎯	-11.0344
ㄇㄛˊ0쎯ㄌㄨㄣˊ2쎯ㄕˋ15쎯	-11.0344
ㄊㄧˊ2쎯	-11.0346
,ㄋㄨˇ0쎯ㄌㄧˋ0쎯	-11.0347
ㄍㄨㄟ2쎯ㄍㄜˊ2쎯:	-11.0348
ㄆㄧ1쎯	-11.0351
,ㄗㄨㄟˋ0쎯	-11.0353
ㄗˋ0쎯ㄏㄤˊ0쎯ㄔㄜ0쎯	-11.0358
ㄎㄞ0쎯ㄈㄚ쎯ㄕㄤ1쎯	-11.0358
ㄑㄩㄝˋ0쎯ㄕˋ15쎯	-11.0359
ㄕㄣˇ1쎯ㄇㄟˇ1쎯	-11.036
쎁쎉쎉쎅	-11.0362
ㄧˊ8쎯ㄐㄧˋ9쎯	-11.0363
ㄊㄨㄥˊ0쎯ㄏㄤˊ0쎯	-11.0363
ㄕㄥ2쎯ㄌㄜˋ0쎯	-11.0364
ㄆㄧ0쎯ㄓㄨㄣˇ0쎯,	-11.037
ㄌㄧㄝˋ4쎯ㄆㄧㄢ0쎯	-11.0371
ㄐㄧㄚ1쎯	-11.0373
ㄐㄧㄠ6쎯ㄉㄠˇ0쎯	-11.0375
.쎁쎉쎈쎅ㄋㄧㄢˊ0쎯	-11.0376
ㄆㄨˊ1쎯ㄊㄠˊ3쎯ㄧㄚˊ0쎯	-11.0376
ㄓㄨ1쎯ㄏㄞˇ0쎯	-11.0379
ㄅㄠ1쎯	-11.038
ㄍㄜˊ4쎯	-11.0381
ㄏㄨㄟˋ1	-11.0381
ㄓˊ1쎯ㄉㄚˊ1쎯	-11.0383
ㄎㄞ0쎯ㄏㄨㄚ0쎯	-11.0384
ㄧㄢ4쎯	-11.0384
ㄒㄧㄢˋ1쎯ㄘㄤˊ쎯	-11.0386
,ㄑㄧㄥˇ1쎯	-11.0387
ㄨㄢˇ2쎯ㄋㄧㄢˊ0쎯	-11.0388
ㄐㄧㄠ6쎯ㄏㄨㄟˋ2쎯	-11.0389
ㄒㄧㄢ1쎯ㄏㄡˋ0쎯ㄖㄣˊ3쎯	-11.0389
ㄐㄧ9쎯ㄊㄜˋ0쎯	-11.0394
ㄙㄨㄛ1쎯	-11.0394
ㄑㄧㄢˊ0쎯ㄐㄧ13쎯	-11.0395
ㄇㄛˋ0쎯ㄋㄧㄢˊ0쎯	-11.0395
ㄐㄧㄝˇ1쎯ㄉㄡˋ2쎯	-11.0396
ㄉㄨˇ2쎯	-11.0397
ㄉㄠˋ3쎯ㄍㄨㄤ0쎯	-11.0398
,ㄉㄠˇ3쎯ㄖㄨˋ0쎯	-11.0398
쎆ㄏㄠˊ0쎯	-11.0398
ㄑㄧ6쎯	-11.04
ㄔㄤˊ1쎯ㄙㄨㄛˇ0쎯.	-11.04
ㄊㄞ0쎯ㄕˋ5쎯ㄐㄧ6쎯	-11.04
.쎁쎉쎃쎄ㄋㄧㄢˊ0쎯	-11.0402
ㄍㄨㄛ2쎯	-11.0403
ㄊㄠˋ쎯ㄈㄤˊ3쎯	-11.0403
ㄐㄩ0쎯	-11.0406
ㄉㄧˇ1쎯ㄩㄣˋ4쎯	-11.0407
ㄅㄧˇ3쎯ㄕㄨㄣˋ0쎯ㄅㄧㄢ1쎯	-11.0408
ㄅㄟˋ5쎯ㄩˋ15쎯ㄨㄟˊ0쎯“	-11.0408
ㄩㄢˊ4쎯ㄔㄢˇ0쎯	-11.0409
.ㄐㄧㄤ1쎯	-11.0409
▁̇ㄉㄜ1쎯ㄒㄧㄣ0쎯ㄌㄧˇ3쎯	-11.0411
쎈ㄖㄣˊ0쎯,	-11.0411
ㄑㄧㄥ5쎯ㄍㄨㄤ0쎯ㄒㄩˋ5쎯	-11.0412
ㄧㄡˇ1쎯ㄧˋ15쎯	-11.0412
ㄍㄨㄟˋ1쎯ㄧㄤˊ2쎯	-11.0417
,ㄏㄨㄢˊ0쎯ㄐㄧㄥˋ7쎯	-11.0417
ㄍㄢ1쎯ㄓㄜˋ2쎯	-11.0418
ㄏㄞˊ0쎯ㄋㄥˊ쎯	-11.042
ㄉㄚˋ쎯ㄍㄤ5쎯	-11.0422
쎁쎀ㄩㄝˋ0쎯,	-11.0424
ㄏㄨㄥˊ1쎯ㄌㄡˊ1쎯ㄇㄥˋ1쎯	-11.0425
ㄧ3쎯ㄩㄢˋ2쎯、	-11.0427
ㄊㄧㄠˊ0쎯ㄨㄣˊ1쎯	-11.0428
,쎂쎀쎀쎆ㄋㄧㄢˊ0쎯	-11.0428
ㄓㄨㄣˇ0쎯ㄗㄜˊ0쎯	-11.0429
ㄏㄨㄟˋ5쎯ㄓˋ3쎯	-11.0429
쎆%	-11.043
ㄓㄨㄥ0쎯ㄌㄨˋ5쎯	-11.043
ㄌㄜˋ0쎯ㄑㄩˋ1쎯	-11.0431
ㄏㄨㄟˋ10쎯ㄧㄤˊ8쎯	-11.0432
ㄔㄨ0쎯ㄅㄢˇ1쎯.	-11.0432
ˋ쎯	-11.0433
ㄑㄧㄢ	-11.0435
ㄈㄨˋ8쎯ㄓㄨˇ0쎯ㄒㄧˊ1쎯、	-11.0436
ㄗㄞˋ1쎯ㄧ0쎯ㄉㄧㄥˋ1쎯	-11.0438
ㄍㄜˇ1쎯ㄈㄚˇ0쎯	-11.0439
,쎂쎀쎀쎃ㄋㄧㄢˊ0쎯	-11.0441
ㄋㄚ1쎯ㄋㄧㄥˊ0쎯	-11.0443
ㄓˋ3쎯ㄗㄠˋ2쎯、	-11.0444
ㄇㄧㄢˋ0쎯ㄐㄧ11쎯:	-11.0444
ㄔㄤ0쎯ㄒㄧㄢˋ0쎯	-11.0447
ㄌㄧㄢˊ4쎯ㄧˋ16쎯	-11.045
ㄉㄡ0쎯ㄧㄠ4쎯	-11.0457
ㄉㄥˇ0쎯ㄩˊ0쎯	-11.0459
ㄓㄨㄥˇ1쎯	-11.0459
ㄐㄧㄥ2쎯ㄐㄧˇ1쎯	-11.0459
ㄆㄧㄣˇ쎯ㄆㄞˊ2쎯,	-11.046
ㄐㄧㄢˋ18쎯	-11.046
ㄋㄨㄥˊ0쎯ㄧㄝˋ0쎯ㄅㄨˋ4쎯	-11.0462
ㄅㄧˋ12쎯	-11.0463
ㄈㄨˋ8쎯ㄓㄨˇ0쎯ㄒㄧˊ1쎯.	-11.0465
ㄖˋ0쎯ㄐㄧ13쎯:	-11.0466
ㄓㄜˋ0쎯ㄕˋ15쎯ㄧ0쎯	-11.0467
ㄕㄤˇ0쎯ㄈㄤ0쎯	-11.0468
し	-11.0468
ㄏㄜˊ16쎯	-11.0469
ㄏㄠˊ0쎯,	-11.0469
ㄕㄚ0쎯ㄙˇ쎯	-11.0471
ㄌㄧㄤˋ0쎯ㄉㄨˋ2쎯	-11.0472
ㄧㄣˊ2쎯	-11.0477
▁̇ㄉㄜ1쎯ㄊㄜˋ0쎯ㄕㄨ4쎯	-11.0478
ㄖㄜˋ쎯ㄌㄧㄤˊ3쎯	-11.0478
ㄞˋ1쎯ㄒㄧㄣ0쎯	-11.0479
ㄌㄧㄥˊ4쎯ㄕㄥ2쎯	-11.048
ㄌㄧㄝˋ0쎯ㄨㄟˊ0쎯	-11.0481
ㄉㄚˋ쎯ㄇㄧˇ0쎯	-11.0481
ㄘㄞˊ2쎯ㄓㄥˋ3쎯ㄐㄩˊ0쎯	-11.0482
ㄅㄨˋ2쎯ㄅㄧㄥ2쎯	-11.0482
ㄌㄡˊ1쎯ㄆㄢˊ1쎯	-11.0484
ㄘㄨㄛ	-11.0485
ㄊㄧㄢˊ0쎯ㄐㄧㄥˋ0쎯	-11.0486
쎀ㄋㄧㄢˊ0쎯)	-11.0488
ㄩㄢˊ0쎯.	-11.0488
ㄊㄤˊ0쎯·	-11.0489
ㄐㄧㄢ7쎯ㄩˋ4쎯	-11.0489
ㄒㄧㄚ0쎯ㄖㄣˊ2쎯	-11.049
、ㄍㄨㄛˊ0쎯ㄐㄧˋ5쎯	-11.0492
▁̇ㄉㄜ1쎯ㄐㄩˋ2쎯ㄊㄧ0쎯	-11.0494
,ㄕㄨˇ1쎯ㄩˊ0쎯ㄕㄢ0쎯	-11.0494
ㄏㄨㄚ0쎯ㄐㄧ13쎯	-11.0494
ㄒㄧㄠˇ0쎯ㄓㄣˋ3쎯	-11.0494
ㄗㄨㄥ0쎯ㄓˇ1쎯ㄕˋ15쎯	-11.0495
ㄅㄨˋ0쎯ㄓ7쎯ㄉㄠˋ3쎯	-11.0496
ㄨˇ3쎯ㄒㄧㄚˊ1쎯	-11.0499
ㄕㄚ0쎯ㄖㄣˊ0쎯	-11.05
ㄒㄧㄠ2쎯ㄉㄨˊ0쎯	-11.0501
ㄊㄨㄥˊ0쎯ㄓˋ5쎯	-11.0501
ㄨㄣ0쎯ㄏㄜˊ2쎯	-11.0504
쎁쎀쎁	-11.0504
ㄇㄧㄣˊ0쎯ㄕˋ8쎯	-11.0505
ㄆㄧㄥˊ0쎯ㄈㄢˊ0쎯	-11.0506
ㄋㄚ1쎯ㄈㄟ2쎯	-11.0506
ㄞˋ1쎯ㄦˇ0쎯ㄌㄢˊ0쎯	-11.0507
ㄓㄣ2쎯ㄊㄢˋ2쎯	-11.0507
ㄕㄨㄟˇ쎯ㄊㄧㄢˊ0쎯	-11.0508
ㄌㄠˊ0쎯ㄨˋ2쎯	-11.0511
쎆ㄌㄧˊ1쎯ㄇㄧˇ0쎯	-11.0512
▁̇ㄉㄜ1쎯ㄐㄧㄢˋ6쎯ㄎㄤ0쎯	-11.0512
,쎂쎀쎀쎂ㄋㄧㄢˊ0쎯	-11.0513
ㄓˋ1	-11.0515
ㄌㄟˊ	-11.0516
ㄑㄧˇ4쎯ㄩㄢˊ9쎯	-11.0516
ㄗㄠ0쎯ㄩˋ9쎯	-11.0518
,ㄖㄣˊ0쎯ㄇㄣˊ1쎯	-11.0518
,ㄆㄧㄥˊ0쎯ㄐㄩㄣ1쎯	-11.0518
ㄐㄩˊ0쎯ㄈㄨˋ8쎯ㄐㄩˊ0쎯	-11.0519
ㄉㄤˇ1쎯ㄐㄧㄠˋ2쎯	-11.0519
ㄗㄞˋ1쎯ㄐㄧㄠˋ2쎯ㄕㄥ1쎯	-11.0521
ㄧㄤˊ1쎯ㄖㄡˋ쎯	-11.0521
ㄅㄢˇ3쎯	-11.0522
ㄘㄢ0쎯ㄎㄠˇ0쎯ㄕㄨ0쎯	-11.0522
ㄍㄨㄢ2쎯ㄓˋ0쎯	-11.0523
쎁ㄇㄧˇ0쎯	-11.0523
,ㄒㄧㄢ1쎯ㄉㄨㄢ0쎯	-11.0524
ㄒㄧㄝˋ1	-11.0529
ㄨㄟˋ0쎯ㄕㄥ1쎯ㄐㄩˊ0쎯	-11.0533
ㄉㄧˋ0쎯ㄉㄧˋ0쎯	-11.0535
ㄇㄧㄥˊ0쎯ㄌㄧㄝˋ0쎯	-11.0537
ㄕˋ15쎯ㄒㄧㄤ2쎯ㄍㄤˇ쎯	-11.0537
ㄆㄥˇ쎯	-11.0538
,ㄒㄧㄢ1쎯	-11.0539
ㄅㄧㄥˋ0쎯ㄕˋ19쎯	-11.0541
ㄓㄨㄥˋ1쎯ㄕㄥ1쎯	-11.0543
ㄨㄟˇ	-11.0544
쎀쎀ㄇㄛˋ0쎯ㄩㄢˊ0쎯,	-11.0545
ㄐㄧㄝ3쎯ㄍㄡˋ0쎯,	-11.0547
ㄏㄜˊ3쎯ㄒㄧㄢˋ0쎯	-11.0548
ㄐㄩㄢˋ1쎯	-11.0548
,ㄍㄟˇ쎯	-11.055
ㄒㄧㄥ1쎯ㄐㄧ13쎯	-11.0552
ㄊㄠˊ4쎯ㄅㄠˇ1쎯	-11.0555
ㄓㄠ0쎯ㄕㄡ쎯	-11.0555
ㄏㄡˋ0쎯ㄗㄞˋ0쎯	-11.0556
ㄈㄣ0쎯ㄍㄨㄥ0쎯	-11.0558
ㄌㄧˋ14쎯	-11.056
ㄓˋ4쎯ㄅㄠˇ2쎯	-11.0563
ㄓㄢˋ1쎯ㄕㄨˋ0쎯	-11.0564
《ㄉㄚˋ쎯	-11.0566
ㄖㄢˊ1쎯ㄑㄧˋ0쎯	-11.0567
ㄆㄧㄥˊ1쎯ㄉㄧㄥˋ1쎯	-11.0569
+쎁	-11.057
ㄔㄤˊ0쎯ㄈㄤ0쎯ㄒㄧㄥˊ1쎯	-11.0574
ㄉㄧㄠˋ2쎯ㄌㄧˇ3쎯	-11.0577
.ㄕㄢˋ1쎯ㄔㄤˊ0쎯	-11.0578
ㄕㄢ2쎯	-11.0578
,ㄙˋ1쎯ㄔㄨㄢ0쎯ㄕㄥˇ0쎯	-11.0578
ㄐㄧㄚ3쎯ㄉㄧㄢˋ0쎯	-11.0578
ㄅㄨˋ0쎯ㄊㄨㄥˊ0쎯,	-11.0578
ㄗㄨㄛ0쎯ㄑㄩ0쎯ㄐㄧㄚ3쎯	-11.0579
ㄓㄨㄥ0쎯ㄒㄧ6쎯ㄕㄥ3쎯.	-11.058
쎆ㄖㄣˊ0쎯,	-11.0581
ㄌㄞˋ	-11.0583
쎃.쎆	-11.0586
ㄈㄢˊ5쎯	-11.0587
ㄅㄚ0쎯ㄕˊ0쎯	-11.0589
ㄓㄨˇ0쎯ㄒㄧˊ1쎯.	-11.0589
ㄐㄧㄥ8쎯ㄊㄨㄥ0쎯	-11.0592
ㄅㄨˋ0쎯ㄅㄢˋ0쎯ㄌㄧˇ3쎯	-11.0593
ㄒㄧˊ0쎯ㄒㄧㄥˋ2쎯	-11.0594
ㄒㄧㄢˋ0쎯ㄐㄧㄥˋ7쎯	-11.0595
ㄕˋ15쎯ㄕˋ3쎯ㄐㄧㄝˋ3쎯	-11.0596
쎁쎄쎀쎀	-11.0598
ㄑㄧㄥ5쎯ㄔㄨˊ0쎯	-11.0598
ㄈㄨˊ3쎯ㄖㄨㄥˊ5쎯	-11.06
ㄉㄨㄛˊ0쎯ㄉㄜˊ0쎯	-11.0601
ㄨㄟˊ6쎯ㄐㄧ9쎯	-11.0603
,ㄉㄞ1쎯	-11.0603
ㄨㄤˇ0쎯ㄑㄧㄡˊ2쎯	-11.0603
ㄩㄝˋ0쎯ㄖㄨˋ0쎯ㄉㄤˇ1쎯,	-11.0605
ㄜˋ1	-11.0605
ㄓ0쎯ㄒㄧㄥ1쎯	-11.0608
)ㄖㄣˊ0쎯,	-11.061
ㄆㄟˋ2쎯ㄧㄣ4쎯	-11.061
ㄐㄧㄠˋ4쎯ㄉㄧ0쎯	-11.0612
ㄉㄧˋ3쎯ㄕˊ0쎯ㄦˋ0쎯	-11.0613
ㄅㄧㄥ1쎯ㄅㄨˋ0쎯ㄕˋ15쎯	-11.0614
ㄗㄨㄢ0쎯ㄉㄢˋ0쎯	-11.0614
ㄓㄨㄥ4쎯	-11.0614
ㄑㄧㄠ4쎯	-11.0616
ㄑㄧㄢˊ0쎯ㄐㄧㄥˇ1쎯	-11.0617
ㄍㄨㄟ2쎯ㄉㄧㄥˋ1쎯,	-11.0617
イ	-11.0617
ㄊㄧㄢ0쎯ㄉㄨˊ1쎯ㄏㄡˋ1쎯	-11.0617
ㄊㄞˋ0쎯ㄕㄡˇ1쎯	-11.0617
ㄓㄚˋ1쎯	-11.0618
▁̇ㄉㄜ1쎯ㄋㄩˇ0쎯ㄦˊ0쎯	-11.0621
ㄧㄠˋ1쎯	-11.0625
,ㄓˊ1쎯ㄉㄠˋ0쎯	-11.0626
쎀쎉-	-11.0627
ㄊㄧ0쎯ㄏㄨㄟˋ2쎯	-11.0628
ㄒㄧㄚˋ0쎯ㄖㄨˋ0쎯	-11.0628
ㄐㄧㄣˇ2쎯ㄓㄤ0쎯	-11.0629
쎀ㄏㄠˊ1쎯ㄕㄥ0쎯	-11.063
ㄆㄤˊ0쎯ㄉㄚˋ쎯	-11.063
ㄒㄩㄢˋ0쎯	-11.0631
ㄉㄨㄥ0쎯ㄕㄢ0쎯	-11.0632
ㄐㄧㄣˋ3쎯ㄕㄥ0쎯	-11.0633
ㄖㄨˋ0쎯ㄑㄧㄣ1쎯	-11.0635
ㄧㄠ2쎯ㄏㄢˋ6쎯·	-11.0637
ㄓㄡˋ3쎯	-11.0639
쎄ㄇㄨˇ2쎯	-11.064
ㄍㄨㄟ6쎯	-11.0643
ㄕˇ0쎯ㄌㄧㄠˋ0쎯	-11.0644
ㄩˊ0쎯쎂쎀쎀쎂ㄋㄧㄢˊ0쎯	-11.0646
ㄊㄧㄢ0쎯ㄘㄞˊ0쎯	-11.0649
ㄨˊ5쎯	-11.065
ㄏㄨㄚ0쎯ㄍㄨㄢ3쎯	-11.065
쎂쎁쎀	-11.0654
ㄏㄨˊ5쎯ㄡ0쎯	-11.0656
ㄎㄚˇ0쎯ㄦˇ0쎯	-11.0656
ㄐㄧㄚˋ2쎯ㄍㄡˋ0쎯	-11.0659
ㄅㄧㄢˇ1쎯ㄆㄧㄥˊ0쎯	-11.066
ㄏㄨㄚˋ0쎯ㄓㄨㄤ0쎯	-11.0661
ㄅㄨˋ0쎯ㄖㄨˊ0쎯	-11.0662
ㄓㄢ	-11.0662
▁̇ㄉㄜ1쎯ㄧㄡ0쎯ㄒㄧㄡˋ0쎯	-11.0663
ㄐㄧㄤ1쎯ㄌㄧㄥˇ1쎯	-11.0665
,ㄐㄩˋ5쎯ㄌㄧˊ3쎯ㄓㄣˋ3쎯	-11.0665
쎅ㄇㄨˇ2쎯	-11.0665
ㄢ0쎯ㄓˋ13쎯	-11.0665
▁̇ㄉㄜ1쎯ㄍㄠ0쎯ㄉㄨˋ2쎯	-11.0667
ㄕㄤˋ0쎯ㄨㄟˋ1쎯	-11.067
ㄏㄞˊ1쎯ㄗˇ0쎯ㄇㄣˊ1쎯	-11.0671
ㄙㄨㄛˇ0쎯ㄕㄨˇ1쎯ㄈㄣ0쎯	-11.0674
ㄧㄡˇ1쎯ㄍㄥ2쎯	-11.0676
ㄕㄨˇ5쎯ㄐㄩ4쎯ㄒㄧㄢˋ3쎯	-11.0676
β	-11.0676
ㄒㄧㄥˊ1쎯ㄏㄨㄛˋ0쎯	-11.0678
ㄊㄨㄢˊ0쎯ㄔㄤˊ0쎯	-11.068
.쎁쎉쎈쎈ㄋㄧㄢˊ0쎯	-11.068
ㄈㄚˇ0쎯ㄌㄢˊ0쎯	-11.0684
ㄅㄠˋ8쎯ㄒㄧㄤ2쎯	-11.0685
쎁쎉쎈쎃	-11.0686
▁̇ㄉㄜ1쎯ㄎㄜ2쎯ㄧㄢˊ6쎯	-11.0687
ㄧˇ3쎯.”	-11.0687
ㄐㄧ13쎯ㄉㄞ1쎯	-11.069
ㄕㄨㄟˋ0쎯ㄕˋ15쎯	-11.0692
ㄕˋ15쎯ㄐㄧㄤ1쎯	-11.0693
,ㄗㄞˋ1쎯ㄓˊ4쎯	-11.0693
ㄔㄥˊ4쎯ㄅㄠˇ3쎯	-11.0696
ㄌㄨˋ0쎯ㄓˋ3쎯	-11.0697
ㄒㄩㄣ1쎯	-11.0699
ㄓˇ4쎯ㄉㄠˇ0쎯ㄩㄢˊ2쎯	-11.0699
ㄉㄨㄢˇ쎯,	-11.0699
ㄋㄧˋ2쎯	-11.0702
쎃쎀쎀ㄇㄧˇ0쎯	-11.0702
ㄘㄤ0쎯ㄎㄨˋ0쎯	-11.0702
쎂쎆쎀	-11.0703
ㄖㄣˊ3쎯ㄨˋ2쎯.	-11.0705
ㄓˋ3쎯ㄐㄧˋ8쎯	-11.0705
ㄐㄧˋ2쎯ㄕ2쎯	-11.0705
ㄗˋ0쎯ㄔㄥˊ0쎯ㄌㄧˋ3쎯	-11.0707
ㄌㄧㄢˊ1쎯	-11.0708
쎃.쎁	-11.0708
ㄊㄨㄥˋ0쎯,	-11.0709
ㄈㄨˊ7쎯ㄉㄧㄠ2쎯	-11.0709
ㄈㄣ0쎯ㄇㄧㄥˊ1쎯	-11.071
ㄐㄧˇ4쎯ㄓㄨㄟ1쎯	-11.071
ㄍㄨㄢ5쎯	-11.0712
ㄆㄧ2쎯ㄓㄣ1쎯ㄒㄧㄥˊ1쎯,	-11.0712
ㄈㄣˊ1쎯	-11.0714
》ㄐㄧˋ3쎯ㄌㄧㄝˋ0쎯	-11.0714
.쎁쎉쎉쎇ㄋㄧㄢˊ0쎯	-11.0714
ㄌㄩˇ3쎯ㄍㄜˇ1쎯ㄐㄧㄣ3쎯	-11.0718
ㄎㄨㄣ1쎯ㄕㄢ0쎯	-11.0719
ㄐㄧㄝˇ0쎯ㄐㄧㄝˇ0쎯	-11.0719
ㄒㄧㄢˋ1쎯ㄒㄧㄤˋ2쎯.	-11.0719
ㄉㄧㄝˊ	-11.0721
ㄓㄨㄢˋ3쎯	-11.0721
ㄡˇ0쎯	-11.0722
ㄙㄨㄛˇ0쎯ㄉㄜˊ0쎯	-11.0723
ㄕㄨㄟˇ쎯ㄗ2쎯ㄩㄢˊ9쎯	-11.0724
쎅°	-11.0725
ㄉㄚˋ쎯ㄓˋ7쎯	-11.0726
쎇ㄇㄨˇ2쎯	-11.0727
ㄗㄤ1쎯	-11.0728
ㄑㄧㄣˊ0쎯ㄘㄞˋ0쎯	-11.0729
ㄇㄟˋ2쎯	-11.0732
ㄧˋ18쎯ㄧˋ1쎯.	-11.0733
ㄕㄥ1쎯ㄔㄤˊ0쎯ㄗㄞˋ1쎯	-11.0735
ㄏㄟ0쎯ㄏㄜˋ3쎯ㄙㄜˋ0쎯	-11.0736
ㄋㄚ1쎯ㄢˋ0쎯	-11.0739
▁̇ㄉㄜ1쎯ㄒㄧˇ2쎯ㄞˋ1쎯	-11.0739
ㄧㄡˋ0쎯ㄔㄣˋ1쎯“	-11.074
,ㄐㄧˊ8쎯	-11.0742
ㄗㄨㄟˋ0쎯ㄏㄡˋ0쎯ㄧ0쎯	-11.0744
ㄑㄧㄢ0쎯ㄩˊ2쎯	-11.0746
ㄓㄨ5쎯	-11.075
ㄩㄥˇ0쎯ㄐㄧㄡˇ1쎯	-11.075
ㄓㄨㄢˇ쎯ㄒㄧㄤˋ0쎯	-11.0751
ㄍㄨㄥ2쎯ㄙ0쎯ㄗㄞˋ1쎯	-11.0751
▁̇ㄉㄜ1쎯ㄒㄧㄠ6쎯ㄕㄡˋ3쎯	-11.0752
ㄐㄧㄚˊ2쎯	-11.0755
ㄍㄥ0쎯ㄉㄚˋ쎯	-11.0755
쎄.쎁	-11.0756
ㄑㄧㄥ5쎯ㄇㄛˋ1쎯	-11.0758
ㄗㄠˋ2쎯ㄧˋ30쎯	-11.0759
ㄒㄧㄣ5쎯ㄘㄨㄣ0쎯	-11.076
ㄓㄣˋ3쎯ㄉㄨㄥ0쎯	-11.076
ㄧㄡˇ2쎯	-11.076
ㄑㄧㄢˋ0쎯	-11.0761
,ㄍㄨˋ1쎯ㄇㄧㄥˊ0쎯	-11.0761
ㄧㄥ1쎯ㄨㄣˊ0쎯ㄇㄧㄥˊ0쎯:	-11.0766
ㄙㄢ0쎯ㄒㄧㄚˊ2쎯	-11.0766
ㄇㄨˋ1쎯ㄌㄨˋ0쎯ㄒㄧㄚˋ0쎯	-11.0767
▁̇ㄉㄜ0쎯ㄨㄟˋ2쎯.	-11.0767
ㄓㄨˇ0쎯ㄓˋ5쎯ㄧ3쎯ㄕ2쎯	-11.0768
ㄉㄥˇ0쎯;	-11.0769
ㄕㄢ0쎯ㄓㄨㄤ1쎯	-11.077
ㄓㄢ0쎯ㄐㄩ4쎯	-11.0774
ㄅㄠ1쎯ㄆㄧㄢ0쎯	-11.0775
ㄚ3쎯ㄓˋ3쎯	-11.0775
ㄨㄢˊ1쎯ㄅㄟˋ2쎯	-11.0775
쎁ㄓ2쎯	-11.0775
ㄔㄨˊ1쎯ㄈㄤˊ3쎯	-11.0777
ㄧㄡˊ4쎯、	-11.0778
ㄒㄧㄢˋ1쎯ㄐㄧㄣ3쎯	-11.0778
ㄧㄝˇ0쎯ㄒㄩˇ0쎯	-11.0779
ㄉㄠˋ3쎯ㄐㄩˋ2쎯	-11.0779
ㄍㄤ6쎯ㄅㄢˇ0쎯	-11.078
ㄉㄧㄥˋ1쎯ㄨㄟˊ0쎯	-11.0781
ㄆㄧ0쎯ㄆㄧㄥˊ1쎯	-11.0781
ㄍㄠ0쎯ㄕㄤˋ0쎯	-11.0782
,쎂쎀쎀쎀ㄋㄧㄢˊ0쎯	-11.0783
ㄓㄨˋ7쎯ㄧㄡˇ1쎯《	-11.0784
ㄖㄨㄥˊ7쎯	-11.0784
ㄏㄞ0쎯	-11.0785
쎂쎀ㄩˊ2쎯	-11.0787
▁̇ㄉㄜ1쎯ㄘㄠ0쎯ㄗㄨㄛ0쎯	-11.0789
ㄖㄣˊ0쎯ㄍㄜˊ2쎯	-11.0791
ㄏㄠ0쎯	-11.0791
ㄌㄧㄤˇ0쎯ㄓㄜˇ0쎯	-11.0792
ㄧ0쎯ㄆㄧㄢ2쎯	-11.0792
ㄐㄧㄥ2쎯ㄈㄟˋ4쎯	-11.0793
ㄋㄚ1쎯ㄉㄨㄢ0쎯	-11.0795
ㄓˇ12쎯	-11.0795
ㄐㄩˊ1쎯ㄏㄨㄚ0쎯	-11.0797
쎁—	-11.0798
ㄒㄧㄝˋ3쎯	-11.0798
ㄓㄨ2쎯ㄍㄠ0쎯	-11.0798
ㄏㄨㄛˊ0쎯ㄒㄧㄝˇ1쎯	-11.0799
ㄅㄠˊ1쎯ㄆㄧㄢ0쎯	-11.08
ㄓㄨˋ2쎯	-11.0801
ㄊㄨㄥ0쎯ㄨㄤˇ2쎯	-11.0803
쎂.쎆	-11.0805
쎁쎁ㄩㄝˋ0쎯ㄕㄥ1쎯,	-11.0806
.쎁쎉쎉쎂ㄋㄧㄢˊ0쎯	-11.0807
ㄕˊ0쎯ㄦˋ0쎯ㄋㄧㄢˊ0쎯	-11.0809
ㄕㄥ1쎯ㄙˇ쎯	-11.0809
ㄊㄚ3쎯	-11.081
ㄈㄚ쎯ㄍㄨㄤ0쎯	-11.0811
ㄔㄥˊ3쎯ㄐㄧㄝ4쎯	-11.0811
ㄔㄣˋ1쎯ㄏㄠˊ0쎯,	-11.0812
ㄇㄤˇ0쎯	-11.0816
ㄖㄨˊ0쎯ㄊㄨㄥˊ0쎯	-11.0817
쎂쎈쎀	-11.0818
ㄘㄜˋ4쎯ㄏㄨㄚˊ0쎯、	-11.0824
ㄔㄥˊ3쎯ㄋㄨㄛˋ0쎯	-11.0825
쎂쎀%	-11.0828
ㄈㄨ0쎯ㄑㄧ1쎯	-11.0831
ㄜˇ쎯ㄒㄧㄥˋ2쎯	-11.0831
ㄎㄜ2쎯ㄒㄩㄝˊ1쎯ㄌㄧˋ1쎯	-11.0832
ㄔㄨ0쎯ㄏㄤˊ0쎯	-11.0833
ㄐㄧㄝˇ1쎯ㄈㄤˋ쎯ㄏㄡˋ0쎯	-11.0833
▁̇ㄉㄜ1쎯ㄈㄥ1쎯ㄍㄜˊ2쎯	-11.0833
ㄜˋ12쎯	-11.0834
ㄒㄧㄝˊ7쎯	-11.0834
ㄐㄧㄝˊ6쎯ㄓˋ0쎯	-11.0835
ㄏㄜˊ3쎯ㄓㄣˋ3쎯	-11.0835
ㄖㄣˊ0쎯,ㄉㄚˋ쎯ㄒㄩㄝˊ1쎯	-11.0836
ㄏㄨㄛˇ0쎯ㄕㄤˇ0쎯	-11.0839
쎁쎂ㄩㄝˋ0쎯ㄕㄥ1쎯,	-11.0844
ㄩˇ3쎯ㄇㄠˊ0쎯	-11.0844
ㄏㄡˋ0쎯ㄇㄧㄢˋ0쎯	-11.0845
ㄎㄜˋ2쎯ㄔㄥˊ5쎯ㄐㄧㄤˋ1쎯	-11.0847
ㄗㄨㄥˇ0쎯ㄜˊ7쎯	-11.0847
ㄓㄠˋ4쎯	-11.0847
ㄧㄡˊ4쎯ㄘㄞˋ0쎯	-11.085
ㄧㄡˊ10쎯	-11.0851
ㄧˋ6쎯ㄎㄜˇ0쎯	-11.0851
▁̇ㄉㄜ1쎯ㄓㄢˋ1쎯ㄉㄡˇ0쎯	-11.0852
ㄕㄣ2쎯ㄍㄠ0쎯	-11.0853
쎁쎃쎆	-11.0854
ㄔㄨㄣ0쎯ㄊㄧㄢ0쎯	-11.0855
ㄓㄨㄤˋ1쎯ㄩㄢˊ0쎯	-11.0855
ㄇㄧㄢˋ0쎯ㄅㄨˋ4쎯	-11.0855
ㄉㄨˋ0쎯ㄐㄩㄢ3쎯	-11.0856
,ㄅㄨˋ0쎯ㄋㄥˊ쎯	-11.0856
ㄌㄨㄥˊ	-11.0859
ㄅㄧㄥ0쎯ㄒㄧㄤ5쎯	-11.0859
、ㄉㄨㄥ0쎯	-11.086
ㄨㄣˊ0쎯ㄒㄩㄝˊ1쎯ㄩㄢˋ2쎯	-11.0861
쎁쎀ㄇㄛˋ0쎯	-11.0863
ㄉㄧㄝˊ0쎯	-11.0864
ㄏㄞˊ0쎯ㄎㄜˇ0쎯	-11.0865
ㄐㄧㄝ1쎯ㄐㄧˊ2쎯	-11.0867
,ㄓˇ1쎯ㄗㄞˋ1쎯	-11.0868
ㄈㄨˊ6쎯	-11.0868
ㄍㄜˊ2쎯ㄦˇ0쎯	-11.0871
ㄩˊ0쎯쎂쎀쎀쎁ㄋㄧㄢˊ0쎯	-11.0872
ㄆㄠˊ0쎯	-11.0873
ㄏㄨㄤ	-11.0874
ㄓㄨㄥ0쎯ㄐㄧˊ2쎯	-11.0875
ㄖㄣˊ0쎯ㄓㄨㄥ0쎯	-11.0876
ㄋㄧˇ0쎯ㄉㄧㄥˋ0쎯	-11.088
ㄒㄧㄡ0쎯ㄒㄧ7쎯	-11.0881
ㄒㄧㄠ5쎯	-11.0881
ㄧ3쎯ㄌㄧㄠˊ1쎯ㄐㄧˋ3쎯	-11.0881
ㄐㄧㄡˋ0쎯ㄓˇ2쎯	-11.0882
ㄕˋ4쎯ㄖㄣˊ0쎯ㄉㄚˋ쎯	-11.0885
ㄐㄩㄣ1쎯ㄕㄡ쎯ㄖㄨˋ0쎯	-11.0887
ㄦˇ	-11.0888
ㄨㄞˋ쎯ㄌㄞˊ0쎯	-11.0892
ㄑㄧㄢˊ0쎯ㄌㄧㄝˋ0쎯	-11.0894
ㄎㄚˇ0쎯ㄊㄨㄥ0쎯	-11.0895
ㄌㄥˇ쎯ㄉㄨㄥˋ1쎯	-11.0895
ㄑㄧˊ1	-11.0897
ㄋㄞˋ1쎯ㄇㄛˊ5쎯	-11.0898
ㄔㄨㄢ1쎯ㄍㄨㄛ0쎯	-11.0899
ㄏㄨㄟˋ2쎯ㄧㄡˇ1쎯	-11.0899
ㄐㄩㄣ0쎯ㄊㄨㄢˊ0쎯	-11.09
ㄌㄠˇ0쎯ㄅㄢˇ0쎯	-11.0901
ㄓㄢˋ2쎯、	-11.0903
ㄕㄤ1쎯ㄉㄧㄢˋ3쎯	-11.0903
ㄏㄜˊ3쎯ㄉㄠˋ3쎯	-11.0903
ㄅㄨˋ2쎯ㄑㄧㄤ2쎯	-11.0904
ㄋㄨㄥˊ0쎯ㄐㄧ6쎯	-11.0905
ㄚˇ쎯	-11.0905
ㄋㄨㄥˊ0쎯ㄌㄧㄣˊ1쎯	-11.0907
ㄅㄧㄢ0쎯ㄐㄧㄥˋ7쎯	-11.0908
쎁쎉쎉쎂	-11.091
▁̇ㄉㄜ1쎯ㄎㄨㄥ0쎯ㄐㄧㄢ4쎯	-11.0911
《ㄍㄨㄢ0쎯ㄩˊ0쎯	-11.0912
,ㄓ2쎯ㄧㄠ4쎯	-11.0915
ㄗㄨㄛ0쎯“	-11.0918
ㄍㄜ2쎯ㄌㄨㄣˊ1쎯ㄅㄧˇ1쎯	-11.0922
ㄇㄧㄢˇ1쎯	-11.0924
ㄧㄢˊ6쎯ㄊㄠˇ쎯ㄏㄨㄟˋ2쎯	-11.0925
ㄌㄧㄤˇ0쎯ㄅㄨˋ4쎯ㄈㄣ0쎯	-11.0927
ㄎㄣˇ1쎯	-11.0928
ㄇㄛˊ0쎯ㄒㄧㄠˋ3쎯	-11.093
ㄕㄢˋ0쎯ㄌㄧㄤˊ0쎯	-11.093
ㄗㄠˋ2쎯ㄓˇ3쎯	-11.0931
ㄐㄧㄠ6쎯ㄕㄡˋ2쎯、ㄅㄛˊ5쎯	-11.0934
ㄌㄨㄢˇ쎯ㄩㄢˊ5쎯ㄒㄧㄥˊ1쎯	-11.0935
ㄎㄞ0쎯ㄎㄨㄛˋ2쎯	-11.0935
ㄕㄜˋ0쎯ㄅㄟˋ2쎯ㄏㄜˊ2쎯	-11.0935
ㄐㄧㄢˋ9쎯ㄐㄧㄢˋ9쎯	-11.0936
ㄖˋ0쎯ㄐㄧˋ1쎯	-11.0936
.쎁쎉쎉쎅ㄋㄧㄢˊ0쎯	-11.0936
ㄘㄤ3쎯	-11.0937
,쎂쎀쎀쎁ㄋㄧㄢˊ0쎯	-11.0938
ㄔㄨˇ2쎯ㄅㄟˋ2쎯	-11.0939
ㄖㄣˊ0쎯ㄗㄠˋ2쎯	-11.094
ㄒㄩㄝˊ1쎯ㄕㄨㄟˋ0쎯	-11.0941
,쎁쎉쎈쎁ㄋㄧㄢˊ0쎯	-11.0943
ㄗㄨㄛ0쎯ㄆㄧㄣˇ쎯ㄧㄡˇ1쎯《	-11.0944
ㄑㄧㄢˋ4쎯	-11.0945
ㄗㄨㄥˇ0쎯ㄉㄨ0쎯	-11.0946
ㄅㄞˊ0쎯ㄐㄧㄡˇ5쎯	-11.0947
ㄈㄨˊ2쎯ㄆㄧㄣˊ0쎯	-11.0947
▁̇ㄉㄜ1쎯ㄧㄝˋ0쎯ㄨˋ2쎯	-11.0947
ㄅㄧㄢˋ0쎯ㄌㄧㄤˊ3쎯	-11.0947
ㄓㄣˋ	-11.0948
,쎁쎉쎉쎅ㄋㄧㄢˊ0쎯	-11.0948
ㄆㄞˊ0쎯ㄔㄤˊ0쎯	-11.0949
ㄔㄥ	-11.0949
ㄖㄣˊ0쎯ㄨˋ3쎯,	-11.0949
ㄩˇ0쎯ㄧㄥ0쎯ㄩㄥˋ0쎯	-11.095
ㄧㄡˊ5쎯ㄌㄢˇ0쎯	-11.0951
ㄉㄚˊ0쎯ㄧㄣˋ0쎯ㄐㄧ6쎯	-11.0953
ㄐㄧㄢˇ3쎯	-11.0955
ㄍㄜˇ1쎯ㄧ0쎯	-11.0957
ㄐㄧˊ4쎯ㄕˊ1쎯	-11.0958
ㄅㄧㄥ0쎯ㄊㄤˊ5쎯	-11.0959
ㄜˇ쎯ㄇㄛˊ7쎯	-11.0959
ㄉㄧㄢˋ0쎯ㄧㄥˇ1쎯ㄐㄧㄝ0쎯	-11.0959
)-	-11.096
ㄓˇ4쎯ㄉㄠˇ0쎯ㄒㄧㄚˋ0쎯	-11.0962
ㄘㄨㄥ	-11.0962
ㄇㄚ2쎯ㄘㄚ0쎯	-11.0963
ㄧㄡˇ1쎯ㄉㄧㄢˇ1쎯	-11.0965
ㄉㄨˊ1쎯ㄗ2쎯	-11.0968
ㄐㄧㄡˋ0쎯ㄕˊ1쎯	-11.0968
(쎁쎈쎈	-11.097
.쎁쎉쎉쎆ㄋㄧㄢˊ0쎯	-11.097
ㄌㄠˇ0쎯ㄋㄧㄢˊ0쎯ㄖㄣˊ0쎯	-11.0971
ㄉㄞˋ0쎯ㄏㄠˊ0쎯	-11.0972
ㄈㄤ0쎯ㄈㄚˇ0쎯ㄏㄜˊ2쎯	-11.0972
ㄐㄧ18쎯ㄌㄧˋ5쎯	-11.0974
ㄈㄤˇ0쎯ㄓㄣ4쎯	-11.0974
쎁쎁-	-11.0974
ㄎㄜ2쎯,	-11.0976
ㄊㄡˊ1쎯ㄔㄢˇ0쎯	-11.0976
쎆ㄎㄜˋ0쎯	-11.0976
ㄍㄞˇ쎯ㄐㄧㄢˋ2쎯	-11.0978
ㄡˇ2쎯	-11.0979
ㄨㄣˊ0쎯ㄉㄤˋ1쎯	-11.098
▁̇ㄉㄜ0쎯쎃	-11.098
ㄐㄧㄢˋ1	-11.0981
ㄓㄨㄛ2쎯ㄇㄧㄢˋ0쎯	-11.0982
ㄍㄨㄟ2쎯ㄏㄨㄚˊ0쎯ㄏㄜˊ2쎯	-11.0982
ㄐㄧㄠˋ4쎯ㄕㄠˇ쎯	-11.0984
ㄅㄧㄢ0쎯ㄐㄩˋ5쎯ㄌㄧˊ3쎯	-11.0986
;ㄗㄞˋ1쎯	-11.0987
ㄧㄢ2쎯ㄘㄠˇ쎯	-11.0987
ㄒㄧㄣˋ0쎯ㄖㄣˊ3쎯	-11.0988
ㄓㄥ1쎯ㄧˋ4쎯	-11.0989
”ㄔㄣˋ1쎯ㄏㄠˊ0쎯.	-11.099
ㄍㄠ0쎯ㄈㄥ5쎯	-11.0992
,ㄐㄧㄤˇ0쎯ㄕㄨˋ2쎯	-11.0992
》()	-11.0993
쎀쎀쎀ㄇㄧˇ0쎯	-11.0996
ㄧㄡˇ1쎯ㄓㄨˋ0쎯ㄩˊ0쎯	-11.1
쎅/	-11.1
ㄐㄩˋ1쎯ㄐㄩㄝˊ2쎯	-11.1002
ㄒㄩㄝˊ1쎯ㄅㄛˊ5쎯ㄕˋ0쎯,	-11.1002
ㄏㄣˇ1쎯	-11.1003
ㄅㄞˇ0쎯ㄐㄧㄚ3쎯	-11.1003
ㄏㄨㄥˊ1쎯ㄏㄜˊ3쎯ㄓㄡ1쎯	-11.1003
ㄉㄧㄢˋ3쎯)	-11.1003
▁̇ㄉㄜ0쎯ㄅㄢˇ0쎯	-11.1004
ㄕㄥ1쎯ㄏㄨㄚˋ0쎯	-11.1005
ㄅㄧˋ13쎯ㄏㄨㄚˋ1쎯	-11.1005
ㄓㄨㄥ0쎯ㄧㄤ0쎯ㄙㄨ0쎯ㄡ0쎯	-11.1005
쎁쎇쎈	-11.1006
ㄒㄧㄠˇ0쎯ㄕㄨㄟˋ0쎯.	-11.1006
ㄇㄟˇ1쎯ㄕㄨˋ0쎯ㄐㄧˋ3쎯	-11.1006
ㄅㄢˋ1쎯ㄋㄧㄢˊ0쎯	-11.1011
ㄅㄢˋ1쎯ㄕㄢ0쎯ㄡ0쎯	-11.1012
》ㄧㄡˊ1쎯	-11.1012
ㄉㄨㄟˋ1쎯ㄅㄧˇ1쎯ㄉㄨˋ2쎯	-11.1013
ㄧㄢˊ6쎯ㄈㄚ쎯、ㄕㄥ1쎯	-11.1013
ㄕㄣˇ1쎯ㄔㄚˊ2쎯	-11.1013
ㄉㄚˋ쎯ㄉㄚˋ쎯	-11.1014
ㄏㄠˊ0쎯)	-11.1015
ㄖㄜˋ쎯ㄉㄧㄢˇ1쎯	-11.1016
쎂쎀ㄍㄜˇ0쎯	-11.1017
쎃ㄘˋ0쎯	-11.1018
ㄗˇ0쎯ㄋㄩˇ0쎯	-11.1019
ㄎㄜ2쎯ㄏㄨㄢˋ0쎯	-11.1023
,쎁쎉쎉쎂ㄋㄧㄢˊ0쎯	-11.1023
ㄅㄨˇ2쎯ㄖㄨˇ1쎯	-11.1025
쎁ㄑㄧㄢˊ1쎯	-11.1029
쎁쎃쎉	-11.103
.ㄔㄨ0쎯ㄔㄨˇ0쎯	-11.103
.쎁쎉쎉쎃ㄋㄧㄢˊ0쎯	-11.1033
ㄋㄧㄥˊ4쎯ㄐㄩˋ8쎯	-11.1033
─	-11.1035
ㄧㄡˊ7쎯	-11.1036
ㄐㄧㄚ3쎯ㄘㄨㄣ0쎯	-11.1036
ㄓㄚˋ2쎯	-11.1037
ㄧㄢˇ0쎯ㄕㄥ1쎯	-11.1037
ㄕˋ15쎯ㄗㄨㄟˋ0쎯	-11.1038
ㄩㄝˋ0쎯쎃쎁ㄖˋ0쎯	-11.1039
ㄕㄡˇ2쎯ㄔㄨㄤ0쎯	-11.104
,쎁쎉쎉쎇ㄋㄧㄢˊ0쎯	-11.1041
.ㄗㄨㄛ0쎯ㄓㄜˇ0쎯	-11.1041
ㄐㄩˋ5쎯ㄐㄧㄣ2쎯	-11.1043
ㄨㄤˇ2쎯ㄌㄞˊ0쎯	-11.1046
ㄉㄧˋ3쎯쎆	-11.105
-쎀쎁	-11.1051
ㄨ0쎯ㄌㄨˇ2쎯ㄇㄨˋ0쎯	-11.1055
ㄒㄧㄥˊ1쎯ㄕˋ6쎯	-11.1055
ㄎㄜˇ0쎯ㄖㄨㄥˊ4쎯ㄋㄚˋ1쎯	-11.1056
ㄊㄧ0쎯ㄩˋ3쎯ㄔㄤˊ1쎯	-11.1057
,ㄅㄧˇ1쎯ㄖㄨˊ0쎯	-11.1057
ㄉㄚ0쎯ㄐㄧㄢˋ2쎯	-11.1058
ㄓㄠ2쎯ㄔㄨㄥˊ2쎯	-11.1058
ㄅㄟˋ5쎯ㄖㄣˋ1쎯ㄨㄟˊ0쎯	-11.106
ㄐㄧㄣˇ	-11.1062
ㄕˋ16쎯ㄆㄟˋ2쎯ㄑㄧˋ7쎯	-11.1062
ㄇㄛˊ	-11.1062
ㄆㄨˇ1쎯ㄉㄨㄥ0쎯	-11.1065
ㄈㄥ0쎯ㄒㄧㄢˋ0쎯	-11.1065
ㄒㄧㄚˋ1쎯ㄊㄧㄢ0쎯	-11.1068
,ㄑㄩˇ0쎯	-11.107
ㄍㄠ0쎯ㄩˊ0쎯	-11.1074
ㄔㄨㄥˊ2쎯ㄌㄧˋ0쎯	-11.1074
.ㄊㄨㄥ0쎯ㄔㄤˊ4쎯	-11.1075
ㄧㄢˊ5쎯ㄢˋ0쎯	-11.1075
ㄒㄧㄢˊ5쎯	-11.1077
ㄅㄠˋ0쎯》、《	-11.1077
ㄉㄚˊ1쎯ㄅㄧㄠ0쎯	-11.1078
ㄦˊ1쎯ㄧˇ1쎯	-11.1078
ㄐㄧㄢˋ0쎯ㄉㄠˋ0쎯	-11.1081
쎈.쎅	-11.1086
ㄅㄧㄥ1쎯ㄇㄟˊ0쎯ㄧㄡˇ1쎯	-11.1087
ㄦˋ0쎯ㄕˊ0쎯ㄙˋ1쎯	-11.1089
ㄇㄧㄥˊ0쎯ㄐㄧㄠˋ0쎯	-11.109
ㄙㄢ0쎯ㄅㄞˇ0쎯	-11.109
ㄅㄢ1쎯ㄒㄩㄝˊ1쎯ㄒㄧˊ0쎯	-11.1092
ㄙㄢ0쎯ㄘㄥˊ0쎯	-11.1092
ㄧㄚˊ0쎯ㄔˇ0쎯	-11.1092
ㄈㄢˋ4쎯	-11.1094
▁̇ㄉㄜ1쎯ㄏㄞˊ1쎯ㄗˇ0쎯	-11.1096
ㄨㄟˊ0쎯ㄩㄢˊ4쎯ㄌㄧㄠˋ0쎯	-11.1101
ㄋㄩˇ0쎯ㄕㄣˊ1쎯	-11.1103
ㄐㄧㄢ3쎯ㄕˊ3쎯	-11.1104
ㄨˋ7쎯	-11.1104
ㄒㄧㄠˋ4쎯	-11.1106
ㄦˊ1쎯ㄍㄨㄛ0쎯	-11.1106
ㄇㄧㄢˋ0쎯ㄐㄧ11쎯쎁쎅	-11.1108
ㄓˋ13쎯ㄧㄡ0쎯ㄩㄝˋ5쎯,	-11.1109
ㄧㄣˋ0쎯ㄈㄚ쎯	-11.111
▁̇ㄕ쎯ㄇㄧㄣˊ0쎯	-11.1111
ㄓㄤˋ1쎯	-11.1113
ㄍㄨㄚˋ1쎯ㄆㄞˊ2쎯	-11.1114
쎅쎀ㄍㄨㄥ2쎯ㄌㄧˇ2쎯	-11.1114
ㄓㄢ0쎯ㄧㄡˇ1쎯	-11.1115
ㄇㄧㄣˊ0쎯ㄧ3쎯ㄩㄢˋ2쎯	-11.1117
ㄅㄧㄠ0쎯ㄑㄧㄢ5쎯	-11.1117
쎁/쎄	-11.1118
쎅쎅쎀	-11.1119
ㄕㄨˇ5쎯ㄒㄩㄝˊ1쎯ㄐㄧˋ3쎯	-11.1119
ㄑㄧˊ3쎯	-11.112
.ㄉㄨㄟˋ1쎯ㄩˊ0쎯	-11.112
ㄇㄧㄥˊ0쎯ㄌㄨˋ0쎯	-11.1121
ㄍㄨㄥ3쎯ㄒㄧㄠˋ3쎯.	-11.1123
ㄔㄣˊ	-11.1124
·ㄚ0쎯	-11.1124
ㄌㄧㄥˊ2쎯ㄇㄧㄣˇ3쎯	-11.1124
ㄙㄨㄟˊ1쎯ㄧˋ18쎯	-11.1124
ㄇㄧㄢˋ0쎯ㄐㄧ11쎯쎁쎃	-11.1125
ㄗㄨㄥˇ0쎯ㄉㄨㄟˋ0쎯	-11.1127
쎁쎅ㄋㄧㄢˊ0쎯	-11.1128
쎇쎂쎀	-11.113
ㄕㄚˋ0쎯ㄇㄣˊ0쎯ㄕˋ4쎯	-11.1134
ㄓㄥ0쎯ㄍㄨㄟ2쎯	-11.1134
ㄎㄞ0쎯ㄕˇ3쎯ㄈㄚ쎯ㄅㄧ	-11.1137
ㄈㄨˋ9쎯ㄩˊ1쎯	-11.1138
ㄐㄧㄢˋ0쎯ㄐㄧㄝˇ1쎯	-11.1138
ㄏㄠˊ	-11.1138
ㄊㄞˊ0쎯	-11.1139
ㄗㄥ0쎯ㄓˊ3쎯	-11.114
ㄏㄨㄢ0쎯ㄌㄜˋ0쎯	-11.114
ㄐㄧㄝˇ1쎯ㄉㄨˊ0쎯	-11.114
ㄕㄨˋ3쎯ㄆㄧˊ0쎯	-11.1141
ㄕˋ15쎯ㄨㄟˋ2쎯ㄩˊ0쎯	-11.1143
:쎃쎀	-11.1145
ㄑㄩˇ0쎯ㄇㄧㄥˊ0쎯	-11.1146
ㄓㄜˋ0쎯ㄓㄤ0쎯ㄎㄚˇ0쎯	-11.1147
ㄉㄚˋ쎯ㄑㄧㄥˋ0쎯	-11.1151
ㄐㄧㄚ3쎯ㄌㄧˇ2쎯	-11.1151
ㄕㄨㄟˇ쎯ㄓˋ4쎯	-11.1151
ㄋㄚˋ	-11.1152
ㄘㄢ0쎯ㄎㄠˇ0쎯.	-11.1153
ㄧ0쎯ㄒㄧㄠˇ0쎯	-11.1154
ㄇㄧㄢˋ0쎯ㄇㄠˋ4쎯	-11.1156
ㄧ0쎯ㄓㄢˋ2쎯ㄕˋ5쎯	-11.1157
、ㄇㄛˊ0쎯	-11.1157
ㄐㄧㄡ1쎯	-11.1157
ㄚ0쎯ㄌㄚ1쎯	-11.1158
ㄍㄨㄛ0쎯ㄉㄨㄛ0쎯	-11.1159
ㄐㄧㄢˋ6쎯ㄑㄩㄢˊ1쎯	-11.116
,ㄅㄧㄥ1쎯ㄐㄧㄤ1쎯	-11.1164
ㄐㄩㄢ2쎯ㄗㄨˊ0쎯	-11.1165
ㄌㄧˋ3쎯ㄊㄧ0쎯ㄕㄥ2쎯	-11.1165
ㄌㄩˋ3쎯ㄏㄨㄚˋ0쎯	-11.1165
▁̇ㄉㄜ1쎯ㄌㄩˇ2쎯ㄧㄡˊ5쎯	-11.1166
ㄊㄞˋ0쎯ㄏㄨˊ5쎯	-11.1167
ㄙ0쎯ㄌㄧㄥˊ0쎯	-11.1167
ㄉㄨㄥ0쎯ㄡ0쎯	-11.1171
ㄇㄧㄣˇ1쎯ㄉㄨㄥ0쎯	-11.1172
ㄈㄣˇ쎯、	-11.1174
ㄖㄣˊ0쎯ㄒㄧㄥˋ2쎯	-11.1174
ㄨ1쎯ㄕㄨㄟˇ쎯	-11.1175
ㄒㄧㄤ1쎯ㄈㄢˇ0쎯	-11.1176
ㄍㄠ0쎯ㄕㄡˇ0쎯	-11.1177
ㄐㄧㄝˇ0쎯ㄇㄟˋ0쎯	-11.1177
ㄓㄨˇ0쎯ㄉㄚˊ0쎯	-11.118
ㄆㄛˋ0쎯ㄙㄨㄟˋ2쎯	-11.1183
쎇ㄏㄠˊ0쎯	-11.1184
ㄨㄣˊ0쎯ㄊㄧ0쎯	-11.1185
ㄧˋ4쎯ㄩㄢˊ2쎯	-11.1185
ㄔㄨ0쎯ㄕㄡˋ3쎯	-11.1186
ㄨˇ0쎯ㄒㄧㄥ1쎯ㄐㄧˊ2쎯	-11.1186
ㄌㄧㄡˋ1쎯ㄒㄩˋ6쎯	-11.1187
ㄈㄚˇ0쎯ㄩˇ6쎯	-11.1192
ㄑㄧㄥˊ0쎯ㄖㄣˊ0쎯	-11.1195
ㄆㄧㄥˊ1쎯ㄨㄟˊ0쎯“	-11.1195
ㄐㄩˋ4쎯ㄇㄨˋ1쎯	-11.1196
ㄅㄚ4쎯	-11.1196
ㄐㄧ6쎯ㄉㄨㄥˋ0쎯	-11.1198
磺	-11.1199
,쎁쎉쎅쎈ㄋㄧㄢˊ0쎯	-11.12
、ㄊㄨˇ0쎯	-11.1202
,ㄅㄧㄥ1쎯ㄧˇ2쎯	-11.1203
ㄍㄞˋ5쎯ㄌㄨㄣˊ2쎯	-11.1203
.쎁쎉쎈쎃ㄋㄧㄢˊ0쎯	-11.1204
(쎁쎆	-11.1207
ㄨㄛˋ0쎯ㄦˇ0쎯	-11.1207
ㄩㄣ0쎯	-11.1212
ㄒㄧㄠˇ0쎯ㄓ6쎯	-11.1212
、ㄢ0쎯ㄑㄩㄢˊ1쎯	-11.1215
쎁쎃ㄍㄜˇ0쎯	-11.1215
ㄐㄧㄠ6쎯ㄩㄢˊ2쎯	-11.1215
ㄨㄣˊ0쎯ㄏㄨㄚˋ0쎯ㄅㄨˋ4쎯	-11.1216
ㄕˇ0쎯ㄒㄩㄝˊ1쎯	-11.1217
ㄖㄣˊ0쎯ㄘㄞˊ0쎯.	-11.1218
、ㄨㄤˇ0쎯ㄌㄠˋ0쎯	-11.1218
ㄓㄡ2쎯ㄋㄧㄢˊ0쎯	-11.1219
ㄒㄧㄢˋ3쎯、	-11.122
쎁쎉쎉쎀	-11.122
ㄐㄧˊ11쎯	-11.1221
ㄆㄧㄣ0쎯ㄧㄣ4쎯	-11.1221
ㄊㄨㄥˊ0쎯ㄕˊ1쎯ㄏㄞˊ0쎯	-11.1222
ㄒㄧㄠˇ0쎯ㄎㄨㄞˋ0쎯	-11.1223
ㄇㄢˋ1쎯ㄏㄨㄚˋ1쎯ㄐㄧㄚ3쎯	-11.1227
ㄒㄧㄣ5쎯ㄕㄥ1쎯	-11.1227
ㄋㄚ0쎯ㄌㄧˇ2쎯	-11.1228
ㄓㄢˋ1쎯ㄉㄡˇ0쎯ㄓㄨㄥ0쎯	-11.1228
ㄧㄢˊ6쎯ㄐㄧㄡ1쎯ㄩˇ0쎯	-11.1231
ㄏㄡˋ0쎯ㄖㄣˊ0쎯	-11.1234
ㄌㄧㄤˇ0쎯ㄉㄨㄢ0쎯	-11.1235
,ㄏㄞˊ0쎯ㄕˋ15쎯	-11.1236
ㄌㄧˊ3쎯ㄒㄧㄡ0쎯	-11.1236
ㄒㄧㄣ7쎯	-11.1236
ㄌㄧˇ2쎯,ㄖㄣˊ0쎯ㄎㄡˇ쎯	-11.1238
ㄍㄨㄛˇ1쎯	-11.1239
ㄉㄧ2쎯ㄍㄨㄥ5쎯ㄕㄤ1쎯	-11.124
ㄙㄨㄟˇ쎯	-11.1241
ㄧˋ4쎯ㄏㄨㄟˋ2쎯	-11.1241
ㄜˊ1쎯ㄩˇ6쎯	-11.1243
ㄇㄧㄣˊ0쎯ㄓㄥˋ3쎯ㄐㄩˊ0쎯	-11.1247
쎅쎀%	-11.1248
ㄅㄧㄢˋ0쎯ㄨㄟˊ0쎯	-11.1248
ㄑㄩㄢˊ5쎯ㄕˋ20쎯	-11.1249
ㄈㄤˊ0쎯ㄈㄨˇ7쎯	-11.1251
ㄈㄣ0쎯ㄒㄧ5쎯、	-11.1251
ㄔㄥˊ0쎯ㄒㄧㄤˋ3쎯	-11.1252
ㄒㄩㄥ4쎯ㄅㄨˋ4쎯	-11.1254
ㄙ4쎯ㄎㄜˋ0쎯	-11.1255
ㄍㄨㄥ2쎯ㄌㄧˋ3쎯	-11.1257
ㄘㄢ0쎯ㄙㄞˋ쎯	-11.1258
ㄘㄢ0쎯ㄍㄨㄢ1쎯	-11.1259
ㄅㄨˋ0쎯ㄉㄥˇ0쎯	-11.1259
쎁쎇쎅	-11.1261
쎂.쎇	-11.1261
ㄊㄞˋ5쎯	-11.1262
ㄊㄢˋ2쎯ㄘㄜˋ3쎯	-11.1262
▁̇ㄉㄜ1쎯ㄗㄨˇ1쎯ㄓ9쎯	-11.1264
ㄈㄤ0쎯ㄓㄥ0쎯	-11.1265
ㄅㄧㄠˇ0쎯ㄉㄚˋ쎯ㄏㄨㄟˋ2쎯	-11.1266
ㄋㄥˊ쎯ㄗㄞˋ1쎯	-11.1267
ㄐㄩㄣ2쎯ㄓㄨˇ0쎯	-11.1267
ㄧ4쎯ㄘˋ0쎯	-11.1268
,ㄋㄨㄥˊ0쎯ㄇㄧㄣˊ0쎯ㄕㄡ쎯	-11.1268
ㄊㄧ1쎯	-11.1269
°C,	-11.1269
ㄗㄨㄥ0쎯ㄓˇ1쎯,	-11.127
ㄊㄥˊ4쎯	-11.127
ㄌㄧˋ1쎯ㄕˇ0쎯ㄐㄧˋ3쎯	-11.1271
ㄉㄢˋ0쎯ㄎㄜˋ1쎯	-11.1273
,ㄗㄨˇ2쎯ㄐㄧˊ12쎯	-11.1275
ㄨㄟˋ0쎯ㄩˋ5쎯	-11.1277
ㄎㄨㄟ0쎯	-11.1279
▁̇ㄉㄜ1쎯ㄕˇ2쎯ㄩㄥˋ0쎯	-11.128
ㄇㄧㄥˊ0쎯ㄕㄥˋ1쎯ㄡ0쎯	-11.1281
ㄅㄧㄢˋ0쎯ㄏㄨㄚˋ0쎯,	-11.1282
ㄍㄠ0쎯ㄊㄤ0쎯	-11.1282
ㄍㄞˋ5쎯ㄕㄨˋ2쎯	-11.1283
ㄈㄨˋ8쎯ㄓㄨˇ0쎯ㄒㄧˊ1쎯,	-11.1286
ㄙˋ2쎯ㄩㄢˋ2쎯	-11.1286
ㄉㄥˇ0쎯ㄍㄨㄥ3쎯ㄋㄥˊ쎯	-11.1286
쎁쎃쎄	-11.1286
ㄧㄣˊ1쎯ㄒㄧㄥˋ0쎯	-11.1288
ㄌㄩˋ2쎯ㄌㄧㄥˇ1쎯	-11.1288
▁̇ㄉㄜ1쎯ㄧ0쎯ㄅㄣˇ0쎯	-11.1289
쎂ㄇㄧˇ0쎯	-11.129
ㄕˋ2쎯ㄈㄢˋ3쎯ㄒㄧㄥˋ2쎯	-11.1291
ㄓ0쎯ㄌㄩˇ2쎯	-11.1293
▁̇ㄉㄜ1쎯ㄅㄧˋ7쎯ㄇㄧˋ1쎯	-11.1293
ㄗㄨˇ2쎯ㄈㄨˋ0쎯	-11.1296
ㄋㄢˊ0쎯ㄓㄨˇ0쎯ㄐㄧㄠˇ0쎯	-11.1298
ㄑㄧˊ1쎯ㄈㄨˋ0쎯	-11.1298
.ㄩㄢˊ0쎯	-11.1298
ㄓㄨㄤˋ1쎯ㄒㄧㄢˋ9쎯	-11.1303
ㄧˇ1쎯ㄅㄟˋ5쎯	-11.1303
ㄓㄨㄛ1쎯	-11.1303
ㄧˋ11쎯ㄇㄧㄥˊ0쎯	-11.1303
ㄑㄧㄠˇ0쎯ㄇㄧㄠˋ0쎯	-11.1304
ㄏㄥˊ1쎯ㄒㄧㄤˋ0쎯	-11.1304
ㄋㄧˇ0쎯ㄉㄧㄥˋ1쎯	-11.1305
ㄊㄨㄟ0쎯ㄌㄧˇ3쎯	-11.1306
ㄒㄩㄢ	-11.1306
ㄔㄨˋ0쎯ㄇㄨˋ3쎯ㄧㄝˋ0쎯	-11.1306
,쎂쎀쎀쎇ㄋㄧㄢˊ0쎯	-11.1307
ㄐㄧㄢˇ6쎯ㄑㄧㄥ1쎯	-11.1307
,ㄌㄧㄥˊ0쎯	-11.1308
쎁쎉쎉쎃	-11.1309
ㄈㄚ쎯ㄕㄡˋ3쎯	-11.131
,쎂쎀쎀쎉ㄋㄧㄢˊ0쎯	-11.1312
ㄧㄡˊ5쎯ㄒㄧˋ0쎯,	-11.1313
ㄉㄡ0쎯ㄅㄨˋ0쎯	-11.1313
,ㄈㄟ2쎯	-11.1313
ㄓㄜˊ	-11.1314
ㄅㄧㄠ0쎯ㄅㄣˇ0쎯	-11.1314
ㄕ3쎯ㄐㄧˊ8쎯	-11.1315
ㄓㄨㄢ0쎯ㄐㄧㄚ3쎯、	-11.1319
m2,	-11.1319
,쎁쎈	-11.132
ㄧㄡ0쎯ㄕˋ7쎯,	-11.132
ㄕˋ11쎯ㄊㄨˊ0쎯	-11.1321
ㄉㄢˋ0쎯ㄧㄥ1쎯	-11.1322
,쎁쎉쎉쎃ㄋㄧㄢˊ0쎯	-11.1326
ㄗㄠˋ5쎯	-11.1328
ㄦˊ1쎯ㄒㄧㄥˊ1쎯ㄔㄥˊ0쎯	-11.133
ㄐㄧㄝˊ3쎯	-11.1332
ㄏㄨㄛˋ0쎯ㄑㄧˊ1쎯ㄊㄚ0쎯	-11.1333
ㄨㄞˋ쎯ㄏㄨㄟˋ1쎯	-11.1333
ㄓㄣ6쎯	-11.1335
ㄖㄨˊ0쎯ㄒㄧㄚˋ0쎯	-11.1335
ㄔㄣˊ5쎯ㄆㄧˊ0쎯	-11.1335
ㄙㄨˋ4쎯ㄕㄜˇ쎯	-11.1337
ㄋㄨㄥˊ0쎯ㄇㄨˋ3쎯	-11.1338
,ㄌㄧˋ9쎯ㄕㄨˇ1쎯ㄩˊ0쎯	-11.1339
ㄨㄟˊ0쎯ㄘˇ0쎯	-11.1339
ㄉㄞˋ12쎯	-11.1341
ㄍㄨㄢ1쎯ㄎㄢ1쎯	-11.1342
%%*/	-11.1343
ㄧˋ18쎯ㄓˋ1쎯	-11.1344
ㄨㄢˊ0쎯,	-11.1345
ㄗㄨㄥˋ0쎯ㄉㄨㄟˋ0쎯	-11.1345
ㄖㄣˊ0쎯ㄨㄟˊ0쎯	-11.1347
ㄈㄣˋ4쎯	-11.1349
ㄦˊ1쎯ㄅㄟˋ5쎯	-11.135
ㄏㄟ0쎯ㄙㄜˋ0쎯,	-11.1351
ㄍㄨㄢˇ1쎯ㄌㄧˇ3쎯ㄊㄧ0쎯	-11.1351
▁̇ㄉㄜ0쎯ㄨㄟˇ5쎯	-11.1351
ㄐㄧㄢˇ1	-11.1351
쎀쎀쎀ㄉㄨㄛ0쎯	-11.1353
.ㄧㄡˋ0쎯	-11.1353
ㄙㄠ1쎯	-11.1355
ㄗˇ0쎯ㄉㄧˋ0쎯	-11.1359
ㄑㄩㄝˋ1쎯ㄌㄧˋ3쎯	-11.136
ㄈㄤ0쎯ㄅㄧㄢˋ1쎯.	-11.1361
ㄤˋ쎯	-11.1363
ㄕˊ1쎯ㄓㄨㄥ3쎯	-11.1365
ㄓㄜˇ0쎯ㄨㄟˊ0쎯	-11.1365
▁̇ㄉㄜ1쎯ㄧㄡ0쎯ㄕˋ7쎯	-11.1366
ㄇㄛˊ0쎯ㄒㄧ13쎯ㄕˋ4쎯	-11.1367
ㄕㄨㄟˇ쎯ㄌㄧㄡˊ3쎯	-11.1367
(ㄍㄨㄥ2쎯ㄩㄢˊ0쎯쎁	-11.1368
ㄐㄧㄣ3쎯ㄑㄧㄢˊ1쎯	-11.1368
ㄕㄜˋ0쎯ㄅㄟˋ2쎯.	-11.1368
ㄌㄧˋ0쎯ㄑㄧㄡˊ1쎯	-11.1369
ㄓ0쎯ㄐㄧㄚ3쎯	-11.1369
ㄖㄨㄥˊ6쎯ㄐㄧˋ8쎯	-11.1371
ㄓˋ1쎯·	-11.1373
ㄇㄧㄥˊ0쎯ㄒㄩㄝˊ1쎯ㄕㄥ1쎯	-11.1374
쎂쎀쎁쎃	-11.1375
▁̇ㄉㄜ1쎯ㄧㄡˇ1쎯ㄍㄨㄢ0쎯	-11.1379
ㄓˋ0쎯ㄩˊ0쎯	-11.1382
쎃쎀쎀ㄎㄜˋ0쎯	-11.1383
ㄍㄨˇ0쎯ㄓㄣˋ3쎯	-11.1386
ㄒㄧㄢˊ3쎯ㄈㄥ0쎯	-11.1388
쎁쎆ㄍㄜˇ0쎯	-11.1388
ㄎㄢ0쎯ㄨˋ3쎯ㄕㄤˇ0쎯	-11.139
ㄇㄛˊ7쎯ㄕㄨˋ0쎯	-11.1391
ㄋㄧㄡˇ2쎯	-11.1392
ㄇㄨˋ0쎯ㄦˇ1쎯	-11.1395
ㄆㄥˊ	-11.1396
ㄊㄧㄢ1쎯ㄐㄧㄚ0쎯ㄐㄧˋ8쎯	-11.1398
쎂쎇쎀	-11.14
쎁쎀쎉	-11.14
ㄑㄧㄝ쎯ㄏㄨㄢˋ2쎯	-11.1401
ㄓㄜˋ0쎯ㄅㄣˇ0쎯ㄕㄨ0쎯	-11.1402
ㄨㄣ0쎯ㄖㄡˊ0쎯	-11.1402
ㄐㄧㄡ0쎯ㄈㄣ3쎯	-11.1402
ㄌㄧㄝˋ2쎯ㄒㄧ6쎯ㄕㄥ3쎯.	-11.1406
ㄉㄢˋ4쎯ㄏㄨㄤˊ1쎯ㄙㄜˋ0쎯	-11.1407
ㄍㄨㄥ4쎯ㄍㄨㄢ0쎯	-11.1407
ㄌㄧㄡˋ0쎯ㄩㄝˋ0쎯	-11.1408
ㄧˋ15쎯ㄑㄧˋ0쎯	-11.1409
ㄊㄨˊ0쎯》	-11.141
ㄨˋ3쎯ㄌㄧˇ3쎯ㄐㄧˋ3쎯	-11.1412
ㄍㄣ0쎯ㄓㄨㄤˋ1쎯ㄐㄧㄥ0쎯	-11.1412
、ㄏㄨㄢˊ0쎯ㄐㄧㄥˋ7쎯	-11.1412
ㄏㄜˊ2쎯ㄕㄤˋ0쎯	-11.1413
ㄝ	-11.1413
ㄓㄨㄤ3쎯ㄆㄢˊ1쎯	-11.1413
쎅쎀/	-11.1414
ㄩˋ7쎯ㄇㄧㄥˊ0쎯	-11.1416
ㄖㄨㄥˊ3쎯ㄇㄠˊ0쎯	-11.1417
ㄉㄧㄥˇ0쎯ㄐㄧㄢ0쎯	-11.1419
ㄏㄜˊ3쎯ㄒㄧ1쎯	-11.1419
ㄧㄠ2쎯ㄏㄢˋ6쎯	-11.142
ㄙㄢ0쎯ㄖㄣˊ0쎯	-11.142
ㄓˋ	-11.142
ㄆㄧㄥˊ1쎯ㄨㄟˇ5쎯	-11.1422
ㄈㄟˋ3쎯ㄕㄨㄟˇ쎯	-11.1423
ㄨㄢˇ2쎯ㄕㄤˇ0쎯	-11.1425
ㄖㄨㄥˊ4쎯ㄐㄧ11쎯	-11.1431
ㄗㄨˇ1쎯ㄔㄥˊ0쎯:	-11.1432
ㄅㄟˋ2쎯ㄢˋ2쎯	-11.1433
쎁쎅ㄍㄜˇ0쎯	-11.1434
쎉쎀쎀쎁	-11.1435
ㄍㄨㄤˇ0쎯ㄧˋ1쎯	-11.1436
ㄍㄤ6쎯ㄍㄨㄢˇ1쎯	-11.1437
ㄐㄩㄝˊ	-11.1439
ㄓㄨ8쎯	-11.1441
ㄐㄩˊ0쎯ㄉㄤˇ1쎯ㄗㄨˇ1쎯	-11.1443
ㄧˋ43쎯	-11.1446
,ㄕˋ16쎯ㄧㄥ0쎯ㄓㄥ5쎯	-11.1448
ㄑㄧˇ4쎯ㄌㄞˊ0쎯,	-11.1454
ㄕㄢ0쎯ㄒㄧㄚˋ0쎯	-11.1454
ㄌㄨㄢˊ	-11.1455
ㄐㄧㄢˇ8쎯ㄧㄠ2쎯	-11.1456
ㄐㄩˋ8쎯ㄍㄜˇ1쎯	-11.1457
ㄇㄧㄢˋ0쎯ㄐㄧ11쎯쎂.	-11.146
、ㄌㄧㄡˊ0쎯	-11.146
쎁쎉쎈쎂	-11.146
ㄉㄨˊ1쎯ㄧㄡˇ1쎯	-11.146
쎆쎅쎀	-11.1462
ㄠˋ3쎯ㄓㄡ3쎯	-11.1465
ㄍㄨㄢˋ2쎯ㄘㄨㄥˊ1쎯	-11.1466
ㄓ0쎯ㄑㄧㄥˊ0쎯	-11.1468
··	-11.1469
▁̇ㄉㄜ1쎯ㄋㄩˇ0쎯	-11.1469
쎁쎄ㄍㄜˇ0쎯	-11.147
ㄇㄟˇ1쎯ㄖㄣˊ0쎯	-11.1472
ㄈㄤˋ쎯ㄓˋ13쎯	-11.1475
ㄑㄧㄡˊ1쎯ㄓˊ4쎯	-11.1477
ㄏㄨㄚˋ0쎯ㄒㄧㄢˋ0쎯	-11.1477
▁̇ㄉㄜ1쎯ㄐㄧ6쎯ㄏㄨㄟˋ2쎯	-11.1477
,쎂쎀쎀쎈ㄋㄧㄢˊ0쎯	-11.1478
ㄩˊ6쎯	-11.1481
ㄓㄢ0쎯ㄌㄧㄥˇ1쎯	-11.1482
쎂쎅쎀쎀	-11.1482
ㄉㄥˇ0쎯ㄍㄨㄛˊ0쎯ㄐㄧㄚ3쎯	-11.1482
ㄉㄧˋ3쎯ㄅㄚ0쎯ㄐㄧㄝˋ2쎯	-11.1483
ㄉㄥˋ0쎯ㄒㄧㄠˇ0쎯ㄆㄧㄥˊ	-11.1483
ㄧㄡˊ6쎯	-11.1484
ㄘㄨ쎯ㄘㄠ1쎯	-11.1484
ㄐㄧㄚ4쎯ㄒㄧㄥ0쎯	-11.1486
ㄗˋ0쎯ㄍㄨˇ0쎯	-11.1486
ㄩˇ0쎯ㄕˊ3쎯ㄐㄧㄢˋ10쎯	-11.1487
ㄅㄨˋ0쎯ㄏㄢˊ1쎯	-11.1488
ㄘㄨㄟ1쎯	-11.1488
ㄕㄨㄟˇ쎯ㄓㄨㄣˇ0쎯	-11.1488
ㄋㄨㄛˊ0쎯ㄨㄟ1쎯	-11.1489
ㄉㄨㄢˋ1쎯ㄌㄧㄝˋ4쎯	-11.149
ㄗ0쎯ㄒㄩㄣˊ3쎯、	-11.149
ㄖㄣˊ0쎯ㄐㄩㄣ1쎯	-11.1491
ㄩㄢˊ1쎯ㄋㄟˋ쎯	-11.1493
.쎁쎉쎉쎉ㄋㄧㄢˊ0쎯	-11.1493
ㄅㄧˋ7쎯ㄕㄨ0쎯ㄔㄤˊ0쎯、	-11.1495
,쎁쎉쎆쎃ㄋㄧㄢˊ0쎯	-11.1496
ㄈㄟˇ3쎯	-11.1497
ㄇㄟˋ1쎯	-11.1498
쎁쎉쎉쎄	-11.1498
ㄐㄧㄥ1	-11.1499
、ㄇㄟˇ1쎯ㄍㄨㄛˊ0쎯	-11.15
ㄓ0쎯ㄓㄢˋ1쎯	-11.15
ㄌㄠ쎯ㄑㄧˇ4쎯	-11.1501
ㄑㄩㄢˊ1쎯ㄕㄨ0쎯ㄍㄨㄥˋ0쎯	-11.1504
▁̇ㄉㄜ0쎯ㄓˋ4쎯ㄒㄩㄝˊ1쎯	-11.1505
ㄔㄜˋ1쎯ㄒㄧㄠ6쎯	-11.1505
ㄐㄧㄢˇ	-11.1506
ㄅㄟ2쎯ㄅㄨˋ4쎯	-11.151
ㄎㄞ0쎯ㄐㄧ6쎯	-11.1511
ㄓˋ11쎯ㄋㄥˊ쎯ㄏㄨㄚˋ0쎯	-11.1512
쎁쎂쎁	-11.1514
ㄡ1쎯ㄧㄤˊ2쎯	-11.1514
ㄅㄛˊ5쎯ㄎㄜˋ2쎯	-11.1515
ㄔㄤˊ4쎯ㄕㄡˊ쎯	-11.1515
▁̇ㄉㄜ1쎯ㄧㄥˊ5쎯ㄧㄤˇ1쎯	-11.1516
ㄑㄧㄢ1	-11.1519
ㄒㄧㄤ2쎯ㄑㄧˋ0쎯	-11.1521
ㄏㄨㄚˋ2쎯ㄊㄧˊ1쎯	-11.1523
ㄒㄧㄤ2쎯ㄌㄧㄠˋ0쎯	-11.1524
,쎁쎉쎉쎁ㄋㄧㄢˊ0쎯	-11.1524
ㄕ6쎯ㄖㄨㄣˋ1쎯	-11.1525
ㄍㄞ0쎯ㄒㄧㄤˋ1쎯ㄇㄨˋ1쎯	-11.1525
ㄈㄚˇ0쎯、	-11.1526
ㄑㄩㄢˊ1쎯ㄐㄧㄠˋ2쎯	-11.1526
ㄨㄟˊ0쎯ㄍㄨㄛˊ0쎯ㄐㄧㄚ3쎯	-11.1527
쎁쎀ㄩㄝˋ0쎯ㄘㄢ0쎯ㄐㄧㄚ0쎯	-11.153
쎂쎃쎀	-11.1532
ㄏㄜˊ2쎯ㄓㄨㄥ0쎯ㄍㄨㄛˊ0쎯	-11.1532
ㄐㄩˇ3쎯	-11.1533
ㄧˋ12쎯ㄩˊ0쎯	-11.1534
ㄌㄧㄣˊ2쎯ㄧˊ12쎯	-11.1535
ㄕㄨㄤ0쎯ㄒㄧㄤˋ0쎯	-11.1539
ㄏㄨㄟˋ2쎯ㄕㄤˇ0쎯	-11.1539
ㄊㄧㄢ0쎯ㄇㄣˊ0쎯	-11.154
ㄖㄨㄥˊ6쎯ㄩˊ0쎯ㄕㄨㄟˇ쎯	-11.1541
ㄉㄧㄠˋ2쎯ㄎㄨㄥˋ0쎯	-11.1541
ㄔㄥˊ0쎯ㄌㄧˋ3쎯.	-11.1541
ㄌㄧˇ3쎯ㄒㄧㄥˋ2쎯	-11.1542
ㄑㄧˋ0쎯ㄨㄟˋ3쎯	-11.1544
,ㄕㄡˋ1쎯	-11.1546
ㄖㄤˋ쎯ㄨㄛˇ쎯ㄇㄣˊ1쎯	-11.1547
ㄎㄨㄟ2쎯	-11.1553
ㄧㄡˊ3쎯ㄖㄨˊ0쎯	-11.1553
ㄡ0쎯ㄏㄨㄚˊ0쎯	-11.1556
ㄉㄞˋ2쎯	-11.156
ㄊㄧㄠˊ0쎯,	-11.156
ㄓㄢˋ2쎯ㄗㄞˋ1쎯	-11.1563
ㄏㄜ0쎯	-11.1563
ㄌㄧˇ3쎯ㄕˋ8쎯ㄏㄨㄟˋ2쎯	-11.1565
ㄌㄨㄢˊ0쎯	-11.1566
ㄏㄨㄤˊ1쎯ㄧㄡˊ4쎯	-11.1566
ㄨㄞˋ쎯ㄅㄧˇ3쎯ㄏㄨㄚˋ1쎯:	-11.1567
ㄕㄤ1쎯ㄖㄣˊ0쎯	-11.1568
ㄔㄤˊ0쎯ㄔㄨㄣ0쎯ㄕˋ4쎯	-11.1568
ㄧㄤˇ3쎯	-11.1568
ㄅㄨˋ4쎯ㄕㄤˋ0쎯ㄕㄨ0쎯	-11.1569
쎄쎀쎀ㄇㄧˇ0쎯	-11.1569
ㄩˋ3쎯ㄔㄨㄥˊ1쎯	-11.157
;(	-11.1571
ㄉㄧˋ3쎯ㄧ0쎯ㄇㄧㄥˊ0쎯	-11.1572
ㄇㄚˇ0쎯ㄌㄚ1쎯	-11.1575
ㄓㄥ1쎯ㄕˊ1쎯ㄐㄧ13쎯	-11.1577
ㄕㄚ0쎯ㄕㄡˇ0쎯	-11.1578
ㄏㄨㄢˊ0쎯ㄑㄧㄡˊ2쎯	-11.1578
ㄇㄧㄥˊ0쎯ㄨㄟˊ0쎯“	-11.158
ㄐㄧㄢ4쎯ㄍㄜˊ5쎯	-11.158
▁̇ㄉㄜ0쎯ㄉㄞˋ1쎯,	-11.1581
(..	-11.1585
ㄌㄩㄝˋ0쎯	-11.1587
ㄐㄧ9쎯ㄐㄧˋ9쎯	-11.1588
ㄏㄟ0쎯ㄎㄜˋ2쎯	-11.1589
.쎁쎉쎈쎇ㄋㄧㄢˊ0쎯	-11.1589
ㄓˋ1쎯ㄩㄢˋ3쎯ㄓㄜˇ0쎯	-11.1589
쎃、	-11.159
ㄅㄚ0쎯ㄉㄚˋ쎯	-11.159
ㄌㄧㄣˊ1쎯ㄧㄝˋ0쎯ㄐㄩˊ0쎯	-11.159
ㄒㄧㄢˋ0쎯ㄐㄧㄥˋ7쎯ㄋㄟˋ쎯	-11.1592
ㄔㄨ0쎯ㄈㄚ쎯,	-11.1592
ㄉㄨㄥˋ0쎯ㄨˋ3쎯ㄇㄣˊ0쎯	-11.1593
ㄆㄟˋ2쎯ㄧˇ2쎯	-11.1593
ㄗˋ0쎯ㄨㄟˋ0쎯	-11.1594
ㄒㄧㄠ9쎯	-11.1595
ˊ0쎯ㄇㄧㄥˋ쎯ㄍㄣ0쎯ㄐㄩ4쎯	-11.1596
ㄕˊ3쎯ㄨˋ3쎯	-11.1596
,ㄏㄢˋ0쎯ㄗㄨˊ1쎯,	-11.1597
ㄐㄧㄠˋ4쎯ㄔㄤˊ0쎯	-11.1599
쎁쎅ㄎㄜˋ0쎯,	-11.1599
ㄎㄜˋ2쎯ㄐㄧㄚ3쎯	-11.16
ㄐㄧˋ3쎯ㄊㄨㄥˇ0쎯.	-11.1601
ㄒㄧㄢ3쎯ㄧㄢˋ2쎯	-11.1602
ㄧㄝˋ4쎯	-11.1605
ㄩˊ0쎯쎂쎀쎀쎀ㄋㄧㄢˊ0쎯	-11.1605
ㄒㄧㄢ3쎯ㄇㄟˇ1쎯	-11.1606
ㄑㄧㄤ0쎯ㄐㄧㄡˋ3쎯	-11.1607
ㄌㄧㄝˋ1쎯	-11.1608
◆	-11.1608
ㄇㄧˇ0쎯,ㄎㄨㄢ0쎯	-11.1609
ㄑㄩˊ11쎯	-11.1609
ㄨㄢˇ0쎯	-11.161
ㄅㄧㄥ0쎯ㄔㄨㄢ0쎯	-11.1611
,ㄘㄨㄥˊ0쎯ㄕˋ8쎯	-11.1611
ㄑㄧˇ2쎯ㄧㄝˋ0쎯ㄓ0쎯ㄧ0쎯	-11.1611
ㄐㄧˋ2쎯ㄕㄨˋ0쎯ㄩˇ0쎯	-11.1611
ㄗㄢˋ1쎯ㄩˋ15쎯	-11.1612
ㄒㄧ14쎯ㄓㄣˋ3쎯	-11.1612
ㄙˋ1쎯ㄇㄧㄢˋ0쎯	-11.1613
ㄧㄠ2쎯쎃	-11.1615
ㄈㄢˊ2쎯ㄋㄠˇ0쎯	-11.1616
ㄅㄧㄢ1쎯ㄕㄣˇ1쎯	-11.1617
ㄑㄧㄣˊ4쎯ㄈㄣˋ1쎯	-11.1617
ㄘㄥˊ1쎯ㄨㄟˊ0쎯	-11.1618
ㄉㄧㄢ2쎯	-11.1618
ㄧ3쎯ㄩㄢˋ2쎯.	-11.1618
ㄩㄢˋ2쎯ㄩㄢˋ2쎯ㄕˋ0쎯	-11.1618
ㄌㄧㄣˊ1쎯ㄔㄤˊ1쎯	-11.1618
ㄔㄤˊ0쎯ㄕㄡˋ0쎯	-11.1619
ㄍㄞˇ쎯ㄌㄧㄤˊ0쎯	-11.162
ㄧㄡˋ0쎯ㄔㄣˋ1쎯ㄨㄟˊ0쎯	-11.162
ㄧ0쎯ㄅㄚ0쎯	-11.1621
ㄌㄠ쎯	-11.1622
ㄓˋ0쎯ㄐㄧㄣ2쎯ㄗㄞˋ1쎯	-11.1625
ㄐㄩˋ6쎯	-11.1625
ㄉㄨㄢˋ	-11.1627
ㄧㄢˊ4쎯ㄓㄥ5쎯	-11.1629
ㄐㄧ6쎯ㄒㄧㄥˊ2쎯	-11.163
ㄍㄣ1쎯ㄙㄨㄟˊ1쎯	-11.1632
ㄆㄧˊ3쎯ㄨㄟˋ5쎯	-11.1632
ㄊㄧㄢ0쎯ㄒㄧㄢˋ3쎯	-11.1633
ㄖˋ0쎯ㄐㄧ13쎯:쎂쎀쎀	-11.1633
ㄓㄞˋ0쎯ㄨˋ2쎯	-11.1636
ㄐㄧㄝ0쎯,	-11.1636
ㄕˊ0쎯ㄐㄧ0쎯	-11.1638
ㄋㄧˊ5쎯	-11.1641
▁̇ㄉㄜ1쎯ㄨㄣˊ0쎯ㄗˋ1쎯	-11.1641
ㄊㄨㄟ0쎯ㄏㄤˊ0쎯	-11.1642
쎃쎀ㄍㄨㄥ2쎯ㄌㄧˇ2쎯	-11.1646
ㄇㄡˊ1쎯	-11.1647
ㄆㄧˊ1쎯	-11.1647
ㄕˊ0쎯ㄧ0쎯ㄋㄧㄢˊ0쎯	-11.1648
ㄈㄚ쎯ㄅㄧㄠˇ0쎯ㄒㄩㄝˊ1쎯	-11.1649
ㄐㄧˊ4쎯ㄕˇ2쎯	-11.165
ㄉㄨㄣ0쎯,	-11.165
ㄓㄨㄛˊ0쎯	-11.165
ㄕㄡˇ2쎯ㄌㄧㄥˇ1쎯	-11.1651
ㄔㄥˊ0쎯ㄈㄣˋ0쎯	-11.1652
ㄗˋ1쎯ㄊㄧ0쎯	-11.1655
ㄏㄨㄤˊ1쎯ㄐㄧㄡˇ5쎯	-11.1657
ㄍㄨㄥ3쎯ㄈㄨ0쎯	-11.1657
ㄉㄨㄥ1쎯ㄍㄨㄚ0쎯	-11.1661
ㄈㄨˋ11쎯ㄕˋ0쎯	-11.1661
ㄊㄡˊ0쎯ㄈㄚ쎯	-11.1662
ㄑㄧㄢ5쎯ㄉㄧㄥˋ0쎯	-11.1662
ㄒㄩˇ0쎯ㄎㄜˇ0쎯	-11.1666
ㄍㄠ0쎯ㄧㄚˇ쎯	-11.1666
ㄑㄧˇ4쎯ㄕ5쎯ㄏㄤˊ0쎯.	-11.1666
ㄊㄧㄢ0쎯ㄏㄜˊ3쎯	-11.1666
ㄒㄧㄚˋ0쎯ㄈㄤ0쎯	-11.1667
ㄏㄨㄛˋ2쎯ㄕㄥˇ0쎯	-11.1668
ㄈㄟˊ0쎯ㄨㄛˋ0쎯	-11.1668
ㄘㄨㄥ2쎯ㄐㄧㄤ2쎯	-11.1668
▁̇ㄉㄜ1쎯ㄓˇ4쎯ㄉㄠˇ0쎯	-11.1669
ㄑㄩㄢˊ1쎯ㄇㄧㄣˊ0쎯	-11.167
ㄇㄧㄥˊ	-11.1671
쎂—	-11.1671
ㄋㄧㄡˇ0쎯	-11.1673
ㄐㄧㄣ6쎯ㄓˇ0쎯	-11.1674
ㄖㄤˇ0쎯	-11.1675
ㄉㄞ1쎯ㄐㄧ6쎯	-11.1676
(ㄧㄥ1쎯ㄩˇ6쎯:	-11.1679
ㄓˋ0쎯ㄐㄧㄣ2쎯.	-11.1681
ㄊㄨㄛ2쎯ㄌㄚˋ0쎯	-11.1681
ㄋㄩˇ0쎯ㄧㄢˇ3쎯ㄩㄢˊ2쎯	-11.1682
,ㄐㄧㄠ6쎯ㄕㄡˋ2쎯,	-11.1684
쎁쎀쎀ㄉㄨㄛ0쎯	-11.1684
ㄇㄚˊ0쎯	-11.1686
ㄒㄧㄠˇ0쎯ㄒㄩㄝˊ1쎯ㄕㄥ1쎯	-11.1689
쎆쎀ㄋㄧㄢˊ0쎯ㄉㄞˋ0쎯	-11.1689
▁̇ㄉㄜ1쎯ㄓˋ3쎯ㄗㄨㄛ0쎯	-11.169
ㄐㄧˋ2쎯ㄍㄨㄥ0쎯	-11.169
,쎁쎉쎆쎄ㄋㄧㄢˊ0쎯	-11.1691
,쎁쎉쎉쎀ㄋㄧㄢˊ0쎯	-11.1691
ㄕㄤ0쎯ㄏㄢˊ5쎯	-11.1694
.ㄘㄥˊ1쎯ㄗㄞˋ1쎯	-11.1694
ㄏㄨㄥˊ1쎯ㄙㄜˋ0쎯,	-11.1694
ㄏㄨˋ0쎯ㄕㄥ1쎯	-11.1695
ㄩㄥˇ3쎯ㄍㄢˇ2쎯	-11.1696
ㄓㄨㄢ0쎯ㄨㄟˊ0쎯	-11.1697
ㄈㄣ3쎯ㄈㄣ3쎯	-11.1698
,ㄒㄧ1쎯ㄓˋ0쎯	-11.1698
ㄌㄨㄛˊ0쎯ㄏㄢˋ0쎯	-11.17
、ㄐㄧㄥ2쎯ㄐㄧˇ3쎯、	-11.1701
ㄕˇ2쎯ㄖㄣˊ0쎯	-11.1701
ㄍㄨㄢˇ0쎯ㄔㄤˊ0쎯	-11.1702
ㄏㄢˋ0쎯ㄗㄨˊ1쎯,	-11.1706
ㄓㄨˇ0쎯ㄧㄠ4쎯ㄧㄡˊ1쎯	-11.1707
쎁쎀쎃	-11.1708
ㄈㄚ쎯ㄉㄧㄢˋ0쎯ㄐㄧ6쎯	-11.1711
ㄌㄧˋ10쎯	-11.1712
ㄧˇ2쎯ㄨㄤˇ2쎯	-11.1716
ㄒㄩㄢˋ2쎯ㄖㄢˇ1쎯	-11.1716
ㄗㄨㄣ1쎯ㄧˋ1쎯	-11.1716
ㄅㄠˇ2쎯ㄉㄧㄥˋ1쎯	-11.1717
ㄏㄨㄚˊ1쎯ㄕㄢ0쎯	-11.1717
ㄐㄧㄣ3쎯ㄏㄨㄤˊ1쎯	-11.1718
ㄓˊ1쎯ㄌㄧㄡˊ3쎯	-11.1718
ㄉㄡ1쎯	-11.1718
ㄇㄧㄣˊ0쎯ㄕㄥ1쎯	-11.172
ㄉㄧㄠˋ2쎯ㄕˋ11쎯	-11.1723
ㄅㄧㄢˋ2쎯ㄐㄧˊ0쎯	-11.1724
ㄌㄧㄡˊ3쎯ㄆㄞˋ0쎯	-11.1724
ㄈㄣ0쎯ㄩㄢˋ2쎯	-11.1725
ㄋㄨㄥˊ0쎯ㄊㄧㄢˊ0쎯	-11.1726
.쎁쎉쎈쎆ㄋㄧㄢˊ0쎯	-11.1727
ㄑㄩˇ1쎯	-11.1728
ㄧㄢˊ7쎯、ㄨㄟˋ3쎯ㄐㄧㄥ8쎯	-11.173
ㄕˊ4쎯ㄆㄧㄣˇ쎯ㄧㄡˇ1쎯	-11.173
～쎂	-11.173
ん	-11.1734
ㄉㄨˇ4쎯	-11.1735
ㄊㄞˋ4쎯	-11.1735
,ㄋㄧˇ0쎯ㄖㄣˊ3쎯	-11.1736
;ㄏㄨㄚ0쎯	-11.1737
ㄗㄨㄣ0쎯ㄔㄨㄥˊ2쎯	-11.174
ㄕˋ3쎯ㄉㄞˋ0쎯	-11.1741
▁̇ㄌㄜ쎯ㄊㄚ2쎯	-11.1743
ㄗㄚˊ0쎯ㄓˋ4쎯	-11.1744
ㄊㄢˋ3쎯ㄙㄨㄢ0쎯	-11.1744
ㄧˊ3쎯ㄒㄧㄥ0쎯	-11.1744
ㄕㄡˇ2쎯ㄍㄜˇ0쎯	-11.1747
ㄒㄧㄢˋ3쎯ㄔㄥˊ7쎯	-11.1747
ㄐㄧ9쎯ㄏㄨㄢˋ0쎯	-11.1747
ㄈㄥ1쎯ㄍㄜˊ2쎯,	-11.1748
ㄐㄧㄠ0쎯ㄏㄨㄟˋ1쎯	-11.1748
ㄆㄧˊ0쎯ㄍㄜˊ0쎯	-11.1748
쎁쎂ㄩㄝˋ0쎯,	-11.1748
ㄨㄟ3쎯ㄒㄧㄥˊ2쎯	-11.1748
ㄅㄢˇ0쎯、	-11.1749
ㄒㄩㄢˇ0쎯ㄅㄚˊ0쎯	-11.175
ㄅㄢˋ0쎯ㄍㄨㄥ2쎯ㄌㄡˊ1쎯	-11.175
,쎁쎉쎈쎉ㄋㄧㄢˊ0쎯	-11.1753
쎁쎀쎈쎀	-11.1753
ㄈㄚˊ2쎯	-11.1754
ㄒㄧㄠˇ0쎯ㄒㄧㄝˊ0쎯	-11.1755
ㄧ0쎯ㄧ0쎯	-11.1755
ㄌㄧˇ2쎯ㄧㄚˋ1쎯	-11.1756
쎆.쎀	-11.1756
,ㄐㄧㄣˇ2쎯ㄌㄧㄣˊ0쎯	-11.1757
ㄐㄧㄚˇ2쎯ㄖˋ0쎯	-11.1757
ㄏㄠˊ0쎯ㄇㄚˇ2쎯:	-11.1758
ㄕˊ4쎯ㄘㄞˊ1쎯	-11.1758
,쎂쎀쎁쎀ㄋㄧㄢˊ0쎯	-11.1759
ㄖㄨˊ0쎯ㄧˋ18쎯	-11.176
[...]
