[UNK]	0
[PAD]	0
[CLS]	0
[SEP]	0
[MASK]	0
▁,	-3.09976
▁.	-3.5835
▁̇ㄉㄜ1쎯	-3.62813
▁、	-4.10576
▁	-4.17375
▁ㄋㄧㄢˊ0쎯	-4.87418
▁ㄕˋ15쎯	-4.99289
▁:	-5.10173
▁ㄏㄜˊ2쎯	-5.24459
▁ㄗㄞˋ1쎯	-5.26582
▁)	-5.29851
▁(	-5.3149
▁ㄨㄟˊ0쎯	-5.37941
▁ㄧ0쎯	-5.40933
▁ㄧㄡˇ1쎯	-5.59147
▁ㄐㄧㄚ3쎯	-5.61179
▁》	-5.61513
▁”	-5.66384
▁“	-5.6793
▁̇ㄌㄜ쎯	-5.70759
▁《	-5.72859
▁ㄅㄨˋ0쎯	-5.74541
▁ㄓㄨㄥ0쎯	-5.77239
▁ㄖㄣˊ0쎯	-5.77475
▁ㄩˊ0쎯	-5.78909
▁ㄉㄥˇ0쎯	-5.79243
▁ㄩˇ0쎯	-5.90384
▁-	-5.93007
▁̇ㄉㄜ0쎯	-5.94347
▁;	-6.03971
▁쎁	-6.04785
▁ㄩㄝˋ0쎯	-6.09283
▁ㄉㄚˋ쎯	-6.10221
▁ㄧˇ2쎯	-6.12002
▁ㄓㄨㄥ0쎯ㄍㄨㄛˊ0쎯	-6.21559
▁쎂	-6.25951
▁ㄓ0쎯	-6.29659
▁ㄌㄞˊ0쎯	-6.33862
▁ㄕㄤˇ0쎯	-6.35049
▁ㄍㄜˇ0쎯	-6.40711
▁ㄏㄡˋ0쎯	-6.43678
▁쎃	-6.45038
ㄖㄣˊ0쎯	-6.47293
▁·	-6.4776
▁ㄐㄧˊ0쎯	-6.52695
▁ㄍㄠ0쎯	-6.5333
▁ㄦˊ1쎯	-6.56647
▁ㄧㄝˇ0쎯	-6.58587
▁ㄉㄨㄛ0쎯	-6.60136
ㄕˋ4쎯	-6.60597
▁쎅	-6.61334
▁ㄍㄨㄥ0쎯ㄗㄨㄛ0쎯	-6.66129
▁ㄙㄢ0쎯	-6.66744
▁ㄅㄟˋ5쎯	-6.68714
ㄗˇ0쎯	-6.72533
▁ㄉㄨㄟˋ1쎯	-6.72968
▁ㄔㄨㄥˊ1쎯	-6.76031
▁ㄑㄧˊ1쎯	-6.7715
▁ㄏㄨㄛˋ0쎯	-6.77183
▁ㄈㄨˋ8쎯	-6.77938
▁ㄧㄡˊ1쎯	-6.80046
▁쎄	-6.80283
▁ㄅㄧㄥ1쎯	-6.81025
▁ㄒㄧㄠˇ0쎯	-6.83055
▁ㄍㄨㄢˇ1쎯ㄌㄧˇ3쎯	-6.83369
ㄍㄨㄛˊ0쎯	-6.84222
▁ㄧ0쎯ㄍㄜˇ0쎯	-6.84372
▁ㄇㄧㄥˊ0쎯	-6.85057
▁/	-6.85439
▁ㄩㄥˋ0쎯	-6.85459
▁ㄒㄧㄣ5쎯	-6.85505
ㄒㄧㄢˋ0쎯	-6.85506
▁ㄖˋ0쎯	-6.85716
ㄕㄢ0쎯	-6.86395
▁ㄎㄜˇ0쎯	-6.86702
▁ㄍㄨㄥ2쎯ㄙ0쎯	-6.89285
▁ㄓㄨˇ0쎯ㄧㄠ4쎯	-6.92421
▁ㄨㄟˋ2쎯ㄩˊ0쎯	-6.92899
▁ㄕˊ1쎯	-6.9345
▁ㄌㄧㄤˇ0쎯	-6.93977
▁ㄐㄧˋ2쎯ㄕㄨˋ0쎯	-6.94157
▁ㄒㄧㄚˋ0쎯	-6.94442
▁ㄓㄨㄢ0쎯ㄧㄝˋ0쎯	-6.94825
▁ㄐㄧㄤ1쎯	-6.94869
▁ㄙㄨㄛˇ0쎯	-6.96067
쎯	-6.97723
ㄡ0쎯	-6.98481
ㄒㄧㄥˋ2쎯	-6.99097
▁ㄑㄧˇ2쎯ㄧㄝˋ0쎯	-7.00072
▁ㄊㄚ0쎯	-7.00311
▁ㄕㄨㄟˇ쎯	-7.02224
▁쎁쎀	-7.02458
▁ㄅㄣˇ0쎯	-7.02625
▁ㄓㄜˋ0쎯	-7.04015
ㄏㄨㄚˋ0쎯	-7.08748
▁ㄓˋ0쎯	-7.09305
▁ㄈㄚ쎯ㄓㄢˇ2쎯	-7.10002
▁ㄋㄟˋ쎯	-7.10337
▁ㄔㄤˊ0쎯	-7.10383
▁ㄧㄢˊ6쎯ㄐㄧㄡ1쎯	-7.10958
▁쎆	-7.11937
▁ㄔㄢˇ0쎯ㄆㄧㄣˇ쎯	-7.14008
▁ㄉㄠˋ0쎯	-7.14071
▁ㄦˋ0쎯	-7.1437
▁ㄈㄨˊ5쎯ㄨˋ2쎯	-7.14519
ㄓㄣˋ3쎯	-7.14697
ㄘㄨㄣ0쎯	-7.15528
▁ㄇㄛˊ0쎯	-7.16889
ㄉㄚˋ쎯ㄒㄩㄝˊ1쎯	-7.18137
▁쎈	-7.19592
▁쎇	-7.20068
▁ㄘㄨㄥˊ0쎯	-7.20553
▁ㄗㄨㄟˋ0쎯	-7.2092
▁ㄗˋ0쎯	-7.21087
ㄒㄧㄢˋ2쎯ㄍㄨㄥ2쎯ㄙ0쎯	-7.2161
▁ㄕㄥ1쎯	-7.21986
▁ㄖㄣˊ3쎯	-7.23683
▁ㄔㄥˊ0쎯	-7.25279
▁ㄇㄧㄢˋ0쎯ㄐㄧ11쎯	-7.28222
▁ㄉㄡ0쎯	-7.29052
▁ㄇㄧˇ0쎯	-7.3007
ㄒㄩㄝˊ1쎯	-7.3188
▁ㄨㄣˊ0쎯ㄏㄨㄚˋ0쎯	-7.32917
▁ㄌㄧㄢˊ0쎯	-7.34053
▁ㄎㄜˋ0쎯	-7.34068
▁ㄊㄨㄥˊ0쎯	-7.34282
▁ㄙˋ1쎯	-7.34461
▁ㄋㄚ1쎯	-7.34862
▁ㄍㄞ0쎯	-7.34959
▁ㄒㄧ1쎯	-7.35034
▁ㄕㄥ1쎯ㄔㄢˇ0쎯	-7.35122
▁ㄓㄨㄥ0쎯ㄒㄧㄣ0쎯	-7.35639
▁ㄋㄥˊ쎯	-7.35711
▁ㄩㄢˊ0쎯	-7.36019
▁ㄕㄜˋ0쎯ㄐㄧˋ0쎯	-7.36054
▁쎉	-7.36137
▁ㄍㄨㄥ2쎯ㄌㄧˇ2쎯	-7.36222
ㄅㄨˋ4쎯	-7.36531
▁ㄗㄨㄥˇ0쎯	-7.37204
ㄧㄡˇ1쎯	-7.3764
▁ㄕㄨ0쎯	-7.3793
ㄓㄨㄥ0쎯	-7.37936
▁ㄉㄨㄥ0쎯	-7.37953
ㄦˇ0쎯	-7.37964
▁ㄍㄜˋ0쎯	-7.38388
▁ㄉㄚˋ쎯ㄒㄩㄝˊ1쎯	-7.39222
▁ㄐㄧˋ3쎯ㄊㄨㄥˇ0쎯	-7.39502
▁ㄊㄧㄢ0쎯	-7.39561
▁ㄓˇ4쎯	-7.41597
ㄕㄥ1쎯	-7.41654
▁ㄍㄨㄛˊ0쎯	-7.41858
▁쎀	-7.42296
▁ㄔㄨ0쎯	-7.42423
▁—	-7.42576
▁ㄑㄩㄢˊ1쎯	-7.43911
▁ㄐㄧㄥ2쎯ㄐㄧˇ3쎯	-7.44074
ㄇㄛˋ0쎯	-7.44128
▁ㄎㄜˇ0쎯ㄧˇ2쎯	-7.44403
ㄕㄨㄟˇ쎯	-7.44475
▁ㄨˇ0쎯	-7.44806
▁쎁쎂	-7.4492
▁ㄗㄨㄛ0쎯	-7.45136
ㄉㄚˋ쎯	-7.45946
▁ㄘㄥˊ1쎯	-7.46424
ˋ	-7.46568
ㄕㄤˇ0쎯	-7.46735
▁ㄉㄧˋ3쎯	-7.46805
ㄨㄣˊ0쎯	-7.47051
▁ㄈㄣ0쎯	-7.48135
▁ㄐㄧㄠ6쎯ㄩˋ3쎯	-7.48248
ㄒㄧㄤ0쎯	-7.48317
ㄓㄡ1쎯	-7.48476
▁"	-7.48845
▁ㄑㄧㄢˊ0쎯	-7.48996
▁ㄍㄨㄛˊ0쎯ㄐㄧˋ5쎯	-7.4964
▁ㄆㄧㄥˊ0쎯	-7.49658
▁ㄐㄧㄡˋ4쎯	-7.49668
▁ㄨㄞˋ쎯	-7.49697
▁ㄅㄧˋ2쎯ㄧㄝˋ0쎯	-7.49743
ㄋㄧㄢˊ0쎯	-7.49757
▁ㄒㄩㄝˊ1쎯ㄐㄧㄠˋ2쎯	-7.49962
▁ㄏㄨㄟˋ2쎯	-7.50163
▁쎂쎀	-7.51713
▁ㄅㄨˋ4쎯	-7.52135
▁ㄘㄢ0쎯ㄐㄧㄚ0쎯	-7.52665
▁ㄋㄢˊ0쎯	-7.53372
ㄉㄜˊ1쎯	-7.54044
▁ㄅㄟˇ쎯	-7.54053
▁ㄍㄨㄥ0쎯ㄔㄥˊ7쎯	-7.5507
ㄏㄨㄟˋ2쎯	-7.55596
▁ㄧˇ1쎯	-7.55624
▁ㄑㄧˊ1쎯ㄓㄨㄥ0쎯	-7.55679
▁ㄧㄡˋ0쎯	-7.5591
▁ㄊㄚ1쎯	-7.56132
▁ㄕㄜˋ1쎯ㄏㄨㄟˋ2쎯	-7.56378
▁ㄓㄨˇ0쎯ㄖㄣˊ3쎯	-7.56602
▁ㄓ0쎯ㄧ0쎯	-7.56659
▁ㄔㄥˊ0쎯ㄌㄧˋ3쎯	-7.56688
▁ㄐㄧㄣˋ0쎯ㄏㄤˊ0쎯	-7.56757
ㄌㄧˋ0쎯	-7.57214
ㄌㄨˋ5쎯	-7.57218
▁ㄉㄧˋ3쎯ㄧ0쎯	-7.57486
ㄐㄧ6쎯	-7.57937
ㄏㄜˊ3쎯	-7.58738
ㄔㄥˊ4쎯	-7.59302
ㄔㄨ0쎯	-7.59631
▁ㄩㄢˊ4쎯	-7.59751
▁ㄑㄧㄥ5쎯	-7.60386
▁ㄑㄩㄢˊ1쎯ㄍㄨㄛˊ0쎯	-7.60558
▁ㄐㄩˋ2쎯ㄧㄡˇ1쎯	-7.61283
▁ㄖㄨˊ0쎯	-7.61546
▁ㄍㄨㄛ0쎯	-7.61872
▁ㄇㄨˇ2쎯	-7.62206
▁ㄔㄨ0쎯ㄕㄥ1쎯	-7.62343
▁ㄘˋ0쎯	-7.62635
▁ㄐㄧㄢˋ2쎯ㄓㄨˋ10쎯	-7.63327
▁ㄉㄧ2쎯ㄍㄨㄥ5쎯	-7.6376
▁%	-7.63761
쎈	-7.63923
ㄉㄠˋ3쎯	-7.64444
▁ㄅㄞˊ0쎯	-7.64751
▁ㄓㄠ2쎯	-7.6516
쎅	-7.653
▁ㄐㄧㄣ3쎯	-7.65394
ㄓㄜˇ0쎯	-7.65486
▁ㄏㄠˊ0쎯	-7.66016
▁ㄒㄧㄢˋ1쎯	-7.66281
▁ㄏㄠˇ0쎯	-7.66395
▁ㄘˇ0쎯	-7.66666
ㄧ0쎯	-7.66976
▁ㄒㄧㄥˋ2쎯	-7.67443
▁ㄧˇ2쎯ㄐㄧˊ0쎯	-7.6754
▁ㄓㄤ0쎯	-7.67765
ㄙ4쎯	-7.67859
▁ㄗㄜˊ0쎯	-7.68104
▁ㄧㄠ2쎯	-7.68746
ㄇㄧㄥˊ0쎯	-7.69227
ㄩˊ0쎯	-7.69503
ㄐㄧㄤ0쎯	-7.69559
▁ㄩˊ2쎯	-7.6962
▁̇ㄉㄜ0쎯ㄡ0쎯	-7.703
2쎯	-7.70334
▁쎁쎁	-7.70873
▁ㄨㄤˊ1쎯	-7.71476
쎆	-7.71795
ㄊㄡˊ0쎯	-7.71933
ㄧㄤˊ2쎯	-7.7213
▁ㄕˇ2쎯	-7.72316
▁ㄏㄨㄤˊ1쎯	-7.72496
▁ㄒㄧㄤ1쎯	-7.72524
ㄒㄧㄣ0쎯	-7.72558
▁쎁쎅	-7.7256
ㄐㄩˊ0쎯	-7.72993
▁ㄌㄟˋ2쎯	-7.73067
▁ㄐㄧㄢˋ2쎯ㄕㄜˋ0쎯	-7.73283
▁ㄊㄨㄥ0쎯ㄍㄨㄛ0쎯	-7.73342
▁ㄅㄟˇ쎯ㄐㄧㄥ1쎯	-7.73409
▁ㄨㄛˇ쎯	-7.73528
▁ㄐㄧˊ4쎯	-7.7384
ㄖˋ0쎯	-7.74292
▁ㄐㄧㄠˋ4쎯	-7.74847
▁ㄧˋ2쎯ㄕㄨˋ0쎯	-7.75034
▁ㄕˋ3쎯ㄐㄧㄝˋ3쎯	-7.75337
ㄇㄣˊ0쎯	-7.75666
▁ㄒㄧㄣˋ0쎯ㄒㄧ7쎯	-7.75798
ㄨ	-7.75956
ㄊㄧ0쎯	-7.76491
ㄇㄧㄢˋ0쎯	-7.77091
ㄏㄞˇ0쎯	-7.77117
ㄌㄧˇ2쎯	-7.77359
ㄌ	-7.77823
▁ㄐㄧㄚˋ0쎯	-7.77837
▁ㄘㄨㄥˊ0쎯ㄕˋ8쎯	-7.78187
▁ㄕˇ2쎯ㄩㄥˋ0쎯	-7.78406
▁ㄔㄥˊ0쎯ㄨㄟˊ0쎯	-7.78415
▁ㄒㄧㄤˋ1쎯ㄇㄨˋ1쎯	-7.78614
0쎯	-7.7865
쎄	-7.78665
▁ㄔㄨˇ0쎯	-7.78847
쎁	-7.79106
▁ㄉㄢˋ2쎯	-7.79378
▁ㄕㄢ0쎯	-7.79462
▁ㄒㄩㄝˊ1쎯ㄩㄢˋ2쎯	-7.79513
▁ㄕㄥ1쎯ㄏㄨㄛˊ0쎯	-7.79682
▁ㄐㄧㄥ2쎯	-7.80146
▁ㄉㄢˋ0쎯	-7.80232
쎃	-7.80244
▁ㄐㄧˊ8쎯	-7.80719
▁ㄎㄜ2쎯ㄐㄧˋ2쎯	-7.80887
▁ㄇㄟˇ1쎯ㄍㄨㄛˊ0쎯	-7.80969
▁ㄗㄨㄛ0쎯ㄆㄧㄣˇ쎯	-7.80972
▁ㄐㄧㄠ6쎯ㄒㄩㄝˊ1쎯	-7.81048
▁ㄕㄡˇ2쎯	-7.81509
ㄧㄝˋ0쎯	-7.81556
▁ㄎㄜ2쎯	-7.81727
▁ㄏㄨㄛˋ2쎯	-7.81754
▁ㄗˋ1쎯	-7.82179
▁ㄕㄨˇ1쎯	-7.82274
▁ㄇㄚˇ0쎯	-7.82708
▁ㄏㄨㄚ0쎯	-7.82935
▁ㄨㄤˇ0쎯ㄌㄠˋ0쎯	-7.82977
ㄏㄤˊ0쎯	-7.83026
▁ㄍㄥ0쎯	-7.831
▁ㄑㄧˇ4쎯	-7.83126
ㄔㄤˊ0쎯	-7.83134
ㄒㄧ1쎯	-7.83542
▁ㄘㄨㄣ0쎯	-7.83857
ㄌㄧㄣˊ1쎯	-7.84137
ㄊㄧㄢ0쎯	-7.84562
ㄨㄟˊ0쎯	-7.84739
▁ㄋㄧˇ1쎯	-7.84787
▁ㄏㄞˇ0쎯	-7.84924
ㄐ	-7.85064
《	-7.85106
쎀	-7.85516
▁ㄧㄣ0쎯	-7.85522
▁ㄕˊ1쎯ㄐㄧㄢ4쎯	-7.85711
쎂	-7.85774
▁ㄎㄞ0쎯ㄈㄚ쎯	-7.85796
▁ㄏㄨㄢˊ0쎯ㄐㄧㄥˋ7쎯	-7.85888
▁ㄎㄞ0쎯	-7.85968
ㄎㄜ2쎯	-7.8613
▁～	-7.8617
▁쎁쎈	-7.86775
▁ㄉㄤ0쎯	-7.86827
▁ㄉㄜˊ0쎯	-7.86879
ㄎㄡˇ쎯	-7.87073
▁ㄈㄚˇ0쎯	-7.87344
▁ㄓㄜˇ0쎯	-7.87709
▁ㄍㄨˇ0쎯	-7.88006
ㄋㄚ1쎯	-7.88032
▁ㄕㄜˋ0쎯ㄅㄟˋ2쎯	-7.88315
▁ㄡ0쎯	-7.88366
▁ㄗㄨˇ1쎯ㄓ9쎯	-7.88403
ㄈㄚˇ0쎯	-7.8841
▁ㄌㄧˇ2쎯	-7.88614
▁ㄏㄞˊ0쎯	-7.8864
▁ㄧㄠ4쎯	-7.88682
ㄎㄜˋ0쎯	-7.88934
▁...	-7.88935
ㄌㄚ1쎯	-7.89287
5쎯	-7.89339
ㄢ0쎯	-7.89347
▁ㄋㄩˇ0쎯	-7.89478
▁ㄌ	-7.8961
▁쎃쎀	-7.89866
ˊ	-7.89915
4쎯	-7.89963
ㄕㄥˇ0쎯	-7.90017
▁ㄐㄧˋ3쎯	-7.90069
▁ㄒㄧㄝˊ1쎯ㄏㄨㄟˋ2쎯	-7.9034
ㄒㄧㄢˋ3쎯	-7.90899
▁ㄧㄡˊ5쎯ㄒㄧˋ0쎯	-7.91143
ㄉㄢˋ0쎯	-7.91879
▁ㄌㄨㄛˊ0쎯	-7.91896
ㄅㄣˇ0쎯	-7.92087
ㄏㄨㄚ0쎯	-7.92619
▁ㄕㄨㄤ0쎯	-7.92677
▁ㄅㄚˇ0쎯	-7.93298
▁ㄗˋ0쎯ㄐㄧˇ0쎯	-7.93339
▁ㄍㄨㄥˋ0쎯	-7.93353
▁ㄐㄧˊ2쎯	-7.93582
▁ㄕㄥˇ0쎯	-7.93721
▁ㄆㄧㄥˊ0쎯ㄈㄤ0쎯ㄇㄧˇ0쎯	-7.93803
▁ㄐㄧㄚ0쎯ㄖㄨˋ0쎯	-7.93819
▁ㄅㄠ0쎯ㄎㄨㄛˋ1쎯	-7.93926
▁ㄨㄣˊ0쎯	-7.94008
ㄐㄧㄣ3쎯	-7.94133
▁ㄊㄧㄠˊ0쎯	-7.9437
▁ㄏㄨㄥˊ1쎯	-7.95206
▁ㄩㄥ1쎯ㄧㄡˇ1쎯	-7.95267
▁ㄇㄧㄥˊ1쎯	-7.95385
▁ㄕˋ4쎯	-7.95758
ㄌㄧˋ6쎯	-7.95909
▁ㄔㄢˊ0쎯ㄨㄟˋ2쎯	-7.95982
ㄈㄤ0쎯	-7.96164
▁ㄊㄚ2쎯	-7.96906
ㄇㄧㄥˊ1쎯	-7.97031
ㄕㄨ0쎯	-7.97105
ㄉㄨㄥ0쎯	-7.97118
▁ㄍㄨㄥ3쎯ㄋㄥˊ쎯	-7.97215
▁ㄓㄨˇ0쎯	-7.97448
▁ㄓㄥ0쎯	-7.97893
▁ㄖㄨˋ0쎯	-7.97908
ㄩㄥˋ0쎯	-7.98417
▁ㄏㄣˇ0쎯	-7.98418
▁ㄐㄧ12쎯	-7.98619
▁ㄒㄧㄤˋ0쎯	-7.98752
▁ㄨㄟˋ2쎯	-7.98781
ㄨㄟˇ5쎯ㄩㄢˊ2쎯ㄏㄨㄟˋ2쎯	-7.98881
▁ㄐㄧㄚ0쎯	-7.99012
▁ㄓㄢ0쎯	-7.99151
▁ㄎㄜ2쎯ㄒㄩㄝˊ1쎯	-7.99152
ㄑㄧˋ7쎯	-7.99176
▁ㄒㄧㄥˊ2쎯	-7.99266
ㄌㄨㄥˊ0쎯	-7.99437
▁ㄒㄩㄝˊ1쎯	-7.99476
3쎯	-7.99594
ㄊㄜˋ0쎯	-7.99609
ㄏㄨㄚˊ1쎯	-7.99627
ㄌㄧㄤˊ3쎯	-7.99725
ㄍㄨㄤ0쎯	-7.99837
▁ㄧㄥ0쎯ㄩㄥˋ0쎯	-7.99905
▁ㄔㄣˋ1쎯	-8.00633
▁ㄐㄧㄠ0쎯ㄊㄨㄥ0쎯	-8.01131
▁ㄌㄧˋ1쎯ㄕˇ0쎯	-8.01146
▁ㄐㄧㄤˋ2쎯	-8.01274
ㄔㄥˊ0쎯	-8.01408
▁ㄍㄟˇ쎯	-8.01697
▁ㄕˋ4쎯ㄔㄤˊ1쎯	-8.01944
▁ㄌㄠˇ0쎯	-8.02276
▁ㄕㄤˇ0쎯ㄏㄞˇ0쎯	-8.02284
▁ㄐㄧㄣˋ1쎯	-8.02512
▁ㄒㄧㄢˋ0쎯	-8.02741
▁ㄕㄨ0쎯ㄐㄧˋ1쎯	-8.03061
▁ㄇㄟˇ1쎯	-8.03106
▁ㄕㄨˇ5쎯	-8.03316
▁ㄓ1쎯ㄔˊ4쎯	-8.03832
ㄒㄧㄚˋ0쎯	-8.03874
1쎯	-8.04167
▁ㄐㄧㄠ6쎯ㄕ2쎯	-8.0425
▁ㄅㄧㄠ0쎯ㄓㄨㄣˇ0쎯	-8.04325
▁ㄐㄧˊ8쎯ㄊㄨㄢˊ0쎯	-8.04519
▁ㄑㄩˋ0쎯	-8.04527
▁ㄔㄨㄥˊ2쎯	-8.04628
▁ㄅㄞˇ0쎯	-8.04691
ㄈㄥ1쎯	-8.04762
▁ㄒㄩㄝˊ1쎯ㄕㄥ1쎯	-8.04818
▁ㄒㄧㄣ0쎯	-8.04956
▁ㄊㄨㄥˊ0쎯ㄕˊ1쎯	-8.04988
▁ㄌㄨˋ5쎯	-8.05321
▁ㄕㄣ5쎯	-8.05433
▁ㄖˋ0쎯ㄅㄣˇ0쎯	-8.05616
▁쎁쎆	-8.05741
ㄉㄨˋ2쎯	-8.05816
▁ㄌㄟˋ2쎯ㄒㄧㄥˊ2쎯	-8.0588
▁ㄐㄩㄢˇ0쎯	-8.05989
ㄕˋ8쎯	-8.06291
▁ㄇㄟˇ0쎯	-8.06717
ㄕㄡˇ0쎯	-8.0699
▁ㄖㄤˋ쎯	-8.07316
▁ㄕㄨˇ1쎯ㄩˊ0쎯	-8.0739
▁ㄉㄞˋ1쎯	-8.07446
▁ㄏㄨㄛˊ0쎯ㄉㄨㄥˋ0쎯	-8.07503
▁ㄊㄨˇ0쎯	-8.07699
▁ㄔㄨㄢˊ0쎯	-8.08163
▁ㄗㄞˋ0쎯	-8.08214
▁ㄓㄨˋ7쎯ㄇㄧㄥˊ0쎯	-8.08229
▁ㄐㄧㄝˋ2쎯	-8.08242
▁ㄒㄧㄢˋ3쎯	-8.0826
▁ㄗㄨㄛ0쎯ㄨㄟˊ0쎯	-8.0852
▁ㄅ	-8.08539
▁ㄐㄧㄝ4쎯	-8.0867
▁ㄐㄧㄠ6쎯ㄕㄡˋ2쎯	-8.08674
▁ㄕˋ5쎯	-8.08689
▁ㄊㄨㄥ0쎯	-8.08779
▁ㄈㄤ0쎯ㄈㄚˇ0쎯	-8.08796
▁ㄓㄨㄤˋ1쎯	-8.09104
▁ㄐㄧ6쎯ㄍㄡˋ0쎯	-8.09294
▁ㄊㄧ0쎯	-8.09486
ㄒㄩㄝˊ1쎯ㄩㄢˋ2쎯	-8.09502
▁ㄒㄧㄢˋ1쎯ㄉㄞˋ0쎯	-8.10252
▁ㄓㄨㄥ0쎯ㄍㄨㄥˋ0쎯	-8.10402
▁!	-8.10606
ㄒ	-8.1062
▁ㄢ0쎯	-8.10875
ㄐㄩㄣ0쎯	-8.111
▁ㄅㄢ2쎯	-8.11154
▁ㄕㄨㄟˋ0쎯	-8.11361
▁ㄒㄩㄝˊ1쎯ㄒㄧˊ0쎯	-8.11459
▁ㄌㄧㄡˋ0쎯	-8.11627
▁ㄌㄧˇ1쎯	-8.11664
ㄧㄚˋ1쎯	-8.11746
ㄨㄤˊ1쎯	-8.11754
▁ㄕ3쎯	-8.11971
▁ㄒㄧㄝˊ0쎯	-8.11982
▁ㄐㄧㄣ2쎯	-8.12034
▁ㄨㄤˇ0쎯	-8.12423
▁ㄐㄧㄡˋ4쎯ㄕˋ15쎯	-8.12551
ㄓˋ3쎯	-8.12632
ㄒㄧㄥˊ1쎯	-8.12795
▁쎅쎀	-8.12875
ㄙㄜˋ0쎯	-8.1296
▁ㄖㄜˋ쎯	-8.13194
▁ㄔㄨㄥˊ2쎯ㄧㄠ4쎯	-8.1322
ㄇㄚˇ0쎯	-8.13377
▁ㄚ0쎯	-8.13694
ㄆㄧㄥˊ0쎯	-8.13694
▁쎁쎀쎀	-8.14046
▁ㄍㄜˋ0쎯ㄔㄨㄥˊ1쎯	-8.1406
▁ㄔㄢˊ0쎯	-8.14119
▁ㄏㄨㄛˋ2쎯ㄉㄜˊ0쎯	-8.14449
▁ㄐㄧㄢ4쎯	-8.14572
▁ㄊㄡˊ1쎯ㄗ2쎯	-8.14776
▁ㄏㄤˊ0쎯	-8.14955
▁ㄏㄨㄟˊ0쎯	-8.14994
▁ㄓˋ4쎯ㄌㄧㄤˊ3쎯	-8.15031
▁ㄔㄥˊ4쎯ㄕˋ4쎯	-8.15275
▁ㄧㄡˊ4쎯	-8.1553
ㄕˋ0쎯	-8.15596
▁ㄍㄨㄥ0쎯ㄧㄝˋ0쎯	-8.15657
▁ㄉㄧㄢˋ0쎯ㄗˇ0쎯	-8.15781
▁ㄐ	-8.16089
ㄖㄨˋ0쎯	-8.16276
ㄩˇ6쎯	-8.16409
ㄩㄢˊ2쎯	-8.16605
ㄈㄚ쎯	-8.168
▁ㄐㄧ6쎯	-8.16817
▁ㄓ	-8.16957
ㄨˋ3쎯	-8.17239
▁ㄖㄣˊ0쎯ㄎㄡˇ쎯	-8.17443
▁ㄘㄥˊ0쎯	-8.17592
▁ㄋㄨㄥˊ0쎯ㄧㄝˋ0쎯	-8.17811
▁ㄓㄥˋ3쎯ㄈㄨˇ3쎯	-8.17953
ㄩㄢˊ1쎯	-8.18706
ㄔㄨˇ0쎯	-8.18986
▁ㄇㄨˋ1쎯ㄑㄧㄢˊ0쎯	-8.18991
▁ㄆㄧㄢ2쎯	-8.19244
▁ㄧㄣ4쎯ㄌㄜˋ0쎯	-8.19508
▁ㄧㄡ0쎯ㄒㄧㄡˋ0쎯	-8.19681
▁ㄕˊ0쎯	-8.1976
ㄆㄧㄣˇ쎯	-8.1981
▁ㄆㄧㄢ0쎯	-8.19873
▁ㄓㄨㄢ0쎯	-8.19944
▁ㄓㄡ2쎯	-8.20114
▁ㄕㄡˋ1쎯	-8.20155
▁ㄋㄟˋ쎯ㄖㄨㄥˊ4쎯	-8.20211
ㄓ	-8.20247
▁ㄎㄞ0쎯ㄕˇ3쎯	-8.20296
ㄏ	-8.2047
▁ㄕㄣˊ1쎯	-8.20678
▁ㄏㄢˋ0쎯ㄗㄨˊ1쎯	-8.20822
▁ㄐㄩˋ5쎯	-8.20904
ㄑㄧˋ0쎯	-8.21336
▁ㄒㄧㄢˋ1쎯ㄖㄣˊ3쎯	-8.21719
▁ㄗㄨㄟˋ0쎯ㄉㄚˋ쎯	-8.22144
▁ㄌㄧˋ9쎯ㄕㄨˇ1쎯	-8.22238
ㄕ2쎯	-8.22464
▁ㄏㄤˊ0쎯ㄧㄝˋ0쎯	-8.22552
▁ㄈㄥ1쎯	-8.22735
ㄕˋ3쎯	-8.228
ㄔㄤˊ1쎯	-8.22824
▁ㄇㄧㄢˋ0쎯	-8.22849
▁ㄙㄨㄥˋ1쎯	-8.2285
▁ㄆㄧㄣˇ쎯ㄆㄞˊ2쎯	-8.22947
▁ㄉㄧㄢˇ1쎯	-8.23061
▁ㄒㄧㄢ1쎯ㄐㄧㄣˋ0쎯	-8.23671
ㄨㄟˋ2쎯	-8.24024
▁ㄌㄧˊ1쎯ㄇㄧˇ0쎯	-8.24126
▁ㄙㄨㄟˋ0쎯	-8.24156
ㄉㄚˊ1쎯	-8.24354
▁ㄍㄣ0쎯ㄐㄩ4쎯	-8.24621
▁ㄊㄤˊ0쎯	-8.2477
▁ㄉㄤˇ1쎯ㄩㄢˊ2쎯	-8.24818
ㄌㄢˊ0쎯	-8.24881
▁ㄖㄣˊ0쎯ㄇㄧㄣˊ0쎯	-8.24904
▁ㄏㄨㄟˋ2쎯ㄩㄢˊ2쎯	-8.25062
▁ㄐㄧㄥ2쎯ㄧㄥˊ5쎯	-8.25079
ㄆㄧㄢ0쎯	-8.25289
▁?	-8.25357
▁ㄈㄚ쎯	-8.25477
▁ㄐㄧ12쎯ㄅㄣˇ0쎯	-8.25542
▁ㄑㄧˊ1쎯ㄊㄚ0쎯	-8.25656
▁쎂쎀쎀쎀	-8.25932
▁ㄔㄨ1쎯	-8.26149
▁ㄍㄨㄥ2쎯	-8.26332
▁ㄢ0쎯ㄑㄩㄢˊ1쎯	-8.26518
▁ㄅㄚ0쎯	-8.26701
ㄧ	-8.26719
ㄍㄨㄥ0쎯	-8.26802
▁×	-8.26891
▁ㄗㄨˇ1쎯ㄔㄥˊ0쎯	-8.26897
▁ㄗㄨㄛˋ2쎯	-8.26911
▁ㄔㄨ0쎯ㄅㄢˇ1쎯	-8.26992
▁ㄌㄧˇ3쎯ㄌㄨㄣˊ2쎯	-8.27054
▁ㄏㄨˋ1쎯	-8.27064
▁쎁쎄	-8.2709
▁ㄐㄧㄝ3쎯ㄍㄡˋ0쎯	-8.27191
ㄅ	-8.27221
▁ㄌㄧㄣˊ1쎯	-8.27465
▁ㄌㄨㄥˊ0쎯	-8.27622
▁ㄍㄨㄤ0쎯	-8.27622
ㄋㄟˋ쎯	-8.27713
▁ㄌㄩˇ2쎯ㄧㄡˊ5쎯	-8.28195
ㄩㄢˋ2쎯	-8.28197
▁ㄧㄢˊ7쎯	-8.28284
▁ㄨㄛˇ쎯ㄇㄣˊ1쎯	-8.28341
▁ㄏㄨㄚˋ1쎯	-8.28547
▁ㄒㄧㄥˊ1쎯ㄔㄥˊ0쎯	-8.28589
▁ㄈㄤˋ쎯	-8.28776
▁ㄑㄧ0쎯	-8.28937
▁ㄒㄧㄥˊ1쎯	-8.29126
▁ㄉ	-8.29157
▁ㄐㄧㄤˇ1쎯	-8.29245
ㄊㄞ0쎯	-8.29312
▁ㄉㄧㄢˋ0쎯	-8.2946
ㄉㄠˋ0쎯	-8.29491
ㄅㄧㄥˋ0쎯	-8.29709
▁ㄐㄧˊ3쎯	-8.29803
▁ㄒㄧㄠ6쎯ㄕㄡˋ3쎯	-8.29977
▁ㄔㄜ0쎯	-8.29999
ㄕˋ5쎯	-8.30058
ㄈㄤ0쎯ㄍㄨㄥ2쎯ㄌㄧˇ2쎯	-8.30278
▁쎁쎃	-8.30356
▁ㄩㄥˋ0쎯ㄩˊ0쎯	-8.30377
▁ㄅㄧㄥˋ0쎯	-8.30392
ㄗㄨㄛ0쎯	-8.30428
▁ㄇㄛˋ0쎯	-8.30433
▁ㄅㄢˋ1쎯	-8.30711
▁ㄈㄟ2쎯	-8.30754
▁ㄖㄨㄢˇ0쎯ㄐㄧㄢˋ1쎯	-8.3077
▁ㄉㄨˋ2쎯	-8.3092
▁ㄐㄧㄢˋ2쎯	-8.31074
▁ㄞˋ1쎯	-8.31093
ㄚ	-8.3113
▁ㄍㄨˋ1쎯	-8.31291
▁ㄓ2쎯	-8.31297
▁ㄐㄩˋ2쎯	-8.31574
▁ㄨㄟˋ1쎯	-8.31684
▁ㄎㄨㄢ0쎯	-8.31739
▁ㄈㄥ0쎯ㄈㄨˋ11쎯	-8.31784
▁ㄅㄧˇ1쎯	-8.31809
ㄉㄨㄥˋ0쎯	-8.31927
▁ㄘㄞˇ0쎯ㄩㄥˋ0쎯	-8.31944
ㄒㄧㄣ5쎯	-8.31998
ㄉ	-8.32033
▁ㄓㄣˋ3쎯	-8.32092
▁ㄉㄧˋ3쎯ㄦˋ0쎯	-8.32279
▁ㄈㄢˇ0쎯	-8.32294
▁ㄗㄨˇ1쎯	-8.32382
ㄨˋ2쎯	-8.32421
▁ㄑㄧㄥ0쎯	-8.32694
▁ㄔ	-8.33274
▁ㄐㄧˋ3쎯ㄌㄧㄝˋ0쎯	-8.33459
▁ㄕ	-8.33668
▁ㄇㄣˊ0쎯	-8.33963
▁ㄏ	-8.33994
▁ㄧ3쎯ㄩㄢˋ2쎯	-8.34305
▁ㄗˋ0쎯ㄖㄢˊ0쎯	-8.34377
▁ㄍㄠ0쎯ㄐㄧˊ2쎯	-8.34413
▁ㄔㄤˊ4쎯	-8.34423
▁ㄗ2쎯ㄩㄢˊ9쎯	-8.34444
ㄣ	-8.34531
▁ㄗㄥˋ0쎯ㄍㄜˇ1쎯	-8.34649
▁ㄧ	-8.34679
▁ㄍㄢ0쎯	-8.3471
▁ㄐㄩˋ5쎯ㄌㄧˊ3쎯	-8.34832
▁ㄒ	-8.34863
▁ㄗㄨㄛ0쎯ㄩㄥˋ0쎯	-8.3488
▁ㄎㄡˇ쎯	-8.34958
ㄢ	-8.34979
ㄕˋ15쎯	-8.35108
ㄏㄨˊ5쎯	-8.35411
▁ㄉㄠˋ3쎯	-8.35615
▁ㄉㄚˊ0쎯	-8.36023
ㄙㄢ0쎯	-8.36035
▁ㄈㄤ0쎯ㄕˋ5쎯	-8.36058
▁ㄓˋ3쎯ㄗㄨㄛ0쎯	-8.36246
▁ㄍㄨㄛˊ0쎯ㄋㄟˋ쎯	-8.36483
ㄊ	-8.36523
▁ㄘㄞˊ1쎯ㄌㄧㄠˋ0쎯	-8.36669
▁ㄐㄩㄣ0쎯	-8.36672
▁ㄅㄧㄢˋ0쎯	-8.36957
▁ㄒㄧㄤˋ1쎯	-8.36992
ㄔㄜ0쎯	-8.37048
▁ㄈㄤ0쎯	-8.37104
ㄉㄧㄢˇ1쎯	-8.37106
▁ㄕㄡˇ0쎯	-8.37416
▁쎂쎅	-8.37499
▁ㄉㄧ0쎯	-8.37664
ㄓ0쎯	-8.37782
ㄉㄧㄢˋ0쎯	-8.37825
쎇	-8.3786
ㄑㄧˇ4쎯	-8.38156
▁ㄈㄤ0쎯ㄇㄧㄢˋ0쎯	-8.38273
ㄧˋ1쎯	-8.38333
▁ㄐㄧㄡˇ0쎯	-8.38413
▁ㄐㄧ12쎯ㄔㄨˇ1쎯	-8.38463
ㄠ	-8.38497
ㄒㄧㄥ1쎯	-8.38572
ㄓㄢˋ2쎯	-8.38715
▁쎂쎀쎁쎀	-8.39062
▁ㄔㄣˋ1쎯ㄨㄟˊ0쎯	-8.39071
▁ㄇㄠˊ0쎯	-8.39112
ㄐㄧˋ3쎯	-8.39331
ㄩㄢˊ9쎯	-8.39487
▁ㄏㄟ0쎯	-8.39742
▁ㄓˊ5쎯ㄨˋ3쎯	-8.39746
▁ㄕㄤ1쎯	-8.39834
▁ㄕㄜˋ1쎯ㄡ0쎯	-8.39953
▁ㄊㄨˊ0쎯	-8.40029
▁ㄅㄨˋ4쎯ㄈㄣ0쎯	-8.40066
▁ㄌㄧㄣˊ2쎯	-8.4015
▁ㄓˊ4쎯ㄧㄝˋ0쎯	-8.40416
▁ㄓˊ3쎯	-8.40475
ㄗㄨˊ1쎯	-8.40759
▁ㄓˋ3쎯	-8.40862
▁ㄉㄞˋ0쎯ㄅㄧㄠˇ0쎯	-8.41132
▁ㄊㄞ0쎯	-8.41137
▁ㄈㄚ쎯ㄅㄧㄠˇ0쎯	-8.41382
▁ㄎㄢ1쎯	-8.41439
ㄧˋ18쎯	-8.41454
▁ㄕㄠˇ쎯	-8.41517
▁ㄍㄨㄟ2쎯ㄏㄨㄚˊ0쎯	-8.41589
▁쎂쎀쎀쎆	-8.41644
▁ㄨㄣˋ0쎯ㄊㄧˊ1쎯	-8.41778
▁ㄇㄟˊ0쎯ㄧㄡˇ1쎯	-8.41797
▁ㄨㄟˇ5쎯ㄩㄢˊ2쎯	-8.41887
▁ㄎㄨㄥˋ0쎯ㄓˋ3쎯	-8.41892
ㄐㄧˊ8쎯	-8.42146
ㄒㄧㄠˇ0쎯	-8.42175
ㄍㄨㄥ2쎯	-8.42382
▁ㄕㄨˇ5쎯ㄐㄩ4쎯	-8.42416
▁ㄐㄧㄡˇ5쎯ㄉㄧㄢˋ3쎯	-8.42643
▁ㄐㄧㄥ8쎯	-8.42683
▁ㄔㄣˊ5쎯	-8.42723
▁ㄓㄨㄥ0쎯ㄧㄤ0쎯	-8.42773
ㄕˊ1쎯	-8.42801
ㄌㄧˇ3쎯	-8.4294
▁ㄔㄨㄢˊ0쎯ㄊㄨㄥˇ0쎯	-8.42977
▁ㄧˋ6쎯	-8.43277
▁ㄗㄨㄛˋ1쎯	-8.43633
▁쎁쎇	-8.43734
ㄉㄨㄟˋ0쎯	-8.4374
▁ㄑㄧˋ0쎯	-8.43781
ㄑㄧㄠˊ2쎯	-8.43801
▁쎄쎀	-8.43815
▁ㄓㄨㄢˇ쎯	-8.43857
▁ㄎㄚˇ0쎯	-8.44111
ㄇㄨˋ0쎯	-8.44214
▁ㄗㄨˊ0쎯ㄑㄧㄡˊ2쎯	-8.44288
▁ㄋㄥˊ쎯ㄌㄧˋ0쎯	-8.44301
▁ㄈㄣ0쎯ㄅㄨˋ1쎯	-8.4436
.	-8.44561
▁ㄐㄩㄣ1쎯	-8.44658
▁ㄒㄩㄝˊ1쎯ㄌㄧˋ1쎯	-8.44738
ㄔㄤˇ0쎯	-8.44907
▁ㄊㄚ0쎯ㄇㄣˊ1쎯	-8.45097
▁ㄨㄟˊ0쎯ㄓㄨˇ0쎯	-8.45099
ㄉㄧㄥˋ1쎯	-8.45103
ㄊㄧㄢˊ0쎯	-8.45174
▁ㄉㄧㄠˋ2쎯	-8.45196
▁ㄉㄧㄥˋ1쎯	-8.45448
▁ㄐㄧㄝ4쎯ㄎㄡˇ쎯	-8.45485
ㄩㄣˊ0쎯	-8.45545
▁ㄔㄨㄥˊ2쎯ㄉㄧㄢˇ1쎯	-8.45597
ㄑㄧㄥˊ0쎯	-8.45639
▁ㄆ	-8.45747
▁ㄒㄧㄤ2쎯	-8.45839
▁ㄏㄢˋ0쎯	-8.4594
▁ㄅㄛˊ5쎯ㄕˋ0쎯	-8.46045
ㄒㄧㄥˊ2쎯	-8.46053
ㄇㄧㄣˊ0쎯	-8.46222
▁쎂쎀쎀쎈	-8.46251
▁ㄉㄨㄢˋ1쎯	-8.46493
▁ㄍㄨㄢˇ1쎯	-8.46508
▁ㄍㄥ2쎯	-8.46576
ㄊㄨㄥ0쎯	-8.46612
▁ㄍㄜˇ1쎯	-8.46648
ㄩㄢˊ0쎯	-8.46789
▁ㄕ2쎯	-8.46793
ㄍㄜˇ1쎯	-8.46803
▁ㄈㄣ0쎯ㄒㄧ5쎯	-8.46852
ㄓˋ1쎯	-8.4704
ㄐㄧㄥ2쎯	-8.47343
▁쎂쎀쎀쎉	-8.47466
▁ㄈㄣ0쎯ㄓㄨㄥ3쎯	-8.47515
▁ㄧ0쎯ㄊㄧ0쎯	-8.47556
▁ㄍㄨㄛ0쎯ㄔㄥˊ7쎯	-8.4763
ㄕˋ18쎯	-8.47638
▁쎂쎀쎀쎇	-8.47734
▁ㄒㄧㄤ0쎯	-8.47741
▁ㄆㄟˊ1쎯ㄒㄩㄣˋ0쎯	-8.47956
▁ㄒㄧㄢ1쎯ㄏㄡˋ0쎯	-8.48031
▁ㄉㄚˊ1쎯	-8.48267
▁ㄊ	-8.48291
ㄇㄨˋ1쎯	-8.48384
▁ㄐㄧㄣˇ0쎯	-8.48453
ㄅㄟˇ쎯	-8.48619
ㄌㄧㄡˊ3쎯	-8.48623
▁ㄓˋ5쎯ㄌㄧㄠˊ1쎯	-8.48684
▁ㄖㄣˊ0쎯ㄩㄢˊ2쎯	-8.48793
▁ㄌㄨㄣˊ2쎯ㄨㄣˊ0쎯	-8.48824
▁ㄐㄧ13쎯	-8.48987
ㄧㄡˊ4쎯	-8.48989
ㄍㄠ0쎯	-8.49101
▁ㄉㄧㄢˋ0쎯ㄧㄥˇ1쎯	-8.4925
▁ㄔㄥˊ4쎯	-8.49331
▁°C	-8.4935
▁ㄋㄚ0쎯	-8.49378
ㄋㄧㄥˊ0쎯	-8.49385
▁ㄓㄨㄥ0쎯ㄒㄩㄝˊ1쎯	-8.49389
▁ㄐㄧ	-8.495
▁ㄓ0쎯ㄐㄧㄢ4쎯	-8.49883
▁ㄑ	-8.49896
ㄩㄝˋ0쎯	-8.49962
▁ㄔㄢˇ0쎯ㄧㄝˋ0쎯	-8.50074
▁ㄐㄧㄝˇ1쎯	-8.50215
ㄏㄠˊ0쎯	-8.50761
ㄇㄟˇ1쎯	-8.50806
▁ㄨㄟ3쎯	-8.50866
ㄆ	-8.50888
ㄍㄜˊ2쎯	-8.50961
▁ㄓ7쎯ㄕˊ2쎯	-8.51011
▁ㄧㄝˋ0쎯ㄨˋ2쎯	-8.5117
ㄅㄞˊ0쎯	-8.5125
▁ㄌㄧㄡˊ0쎯	-8.51252
▁ㄅㄠˇ2쎯ㄏㄨˋ2쎯	-8.51285
ㄧㄠˋ0쎯	-8.51412
▁ㄒㄩㄝˊ1쎯ㄨㄟˋ2쎯	-8.51832
▁ㄐㄧㄢˋ0쎯	-8.51995
ㄨㄟˇ5쎯	-8.52072
▁ㄧㄡˊ1쎯ㄩˊ0쎯	-8.52229
▁ㄓㄢˋ2쎯	-8.52618
ㄈㄣ0쎯	-8.52628
▁ㄈㄤˊ0쎯	-8.52956
▁ㄈㄤˊ3쎯	-8.53006
▁ㄨㄣˊ0쎯ㄒㄩㄝˊ1쎯	-8.53246
▁ㄗㄠˇ0쎯	-8.53255
▁쎂쎀쎀쎃	-8.53285
▁ㄎㄜˋ2쎯ㄏㄨˋ1쎯	-8.53331
▁ㄊㄡˊ0쎯	-8.53421
ㄐㄧ12쎯	-8.53496
ㄔ	-8.53587
▁ㄆㄧㄥˊ0쎯ㄊㄞ0쎯	-8.53704
▁ㄕㄨㄛˋ1쎯ㄕˋ0쎯	-8.53837
ㄘㄨㄣ0쎯ㄨㄟˇ5쎯ㄏㄨㄟˋ2쎯	-8.53853
▁ㄩㄣˊ0쎯	-8.54184
ㄨㄞˋ쎯	-8.54262
ㄐㄧㄠ6쎯	-8.54264
▁ㄍㄜˇ1쎯ㄗㄨㄛ0쎯	-8.54373
▁ㄌㄧㄥˇ1쎯ㄩˋ7쎯	-8.5439
ㄩㄢˊ4쎯	-8.54448
▁쎂쎄	-8.54578
ㄊㄤˊ1쎯	-8.54684
▁ㄌㄧㄡˊ3쎯	-8.54784
▁ㄍ	-8.54878
ㄓˋ4쎯	-8.549
▁ㄐㄧㄢ8쎯	-8.55095
ㄕ	-8.55126
ㄇㄧㄣˊ0쎯ㄓㄥˋ3쎯ㄈㄨˇ3쎯	-8.55174
▁ㄐㄧ6쎯ㄒㄧㄝˋ4쎯	-8.55182
▁ㄕˋ3쎯ㄐㄧˇ1쎯	-8.55232
▁ㄏㄨㄚˊ1쎯	-8.55318
▁ㄐㄧㄚ0쎯ㄍㄨㄥ0쎯	-8.55386
▁ㄒㄧㄝˇ0쎯	-8.55406
▁*	-8.55432
ㄉㄠˇ1쎯	-8.55479
ㄑㄧㄥ5쎯	-8.55554
▁ㄧㄢˊ6쎯ㄐㄧㄡ1쎯ㄕㄥ1쎯	-8.55821
▁쎆쎀	-8.55864
▁ㄈㄚ쎯ㄕㄥ1쎯	-8.5588
▁ㄎㄜ2쎯ㄧㄢˊ6쎯	-8.55926
▁ㄇㄧㄥˊ0쎯ㄔㄣˋ1쎯	-8.55968
▁ㄊㄞˋ0쎯	-8.56111
ㄐㄧˊ2쎯	-8.56151
ㄌㄧˋ3쎯	-8.5625
▁쎂쎀쎀쎅	-8.5639
ㄨˇ3쎯	-8.56415
▁ㄒㄧㄤ1쎯ㄍㄨㄢ0쎯	-8.56438
ㄏㄡˋ0쎯	-8.56545
▁ㄧㄥ0쎯	-8.56588
▁ㄉㄚˋ쎯ㄒㄧㄥˊ2쎯	-8.56737
▁ㄈㄨˊ12쎯ㄐㄧㄢˋ2쎯	-8.56871
▁ㄕˋ3쎯	-8.56891
ㄏㄨㄚˋ1쎯	-8.56936
▁ㄔㄥˊ0쎯ㄩㄢˊ2쎯	-8.5701
▁ㄖㄣˊ0쎯ㄨˋ3쎯	-8.57068
ㄐㄧㄝ7쎯	-8.57074
▁ㄉㄨㄢˇ쎯	-8.57087
ㄕㄣ2쎯	-8.57109
▁ㄇㄨˋ0쎯	-8.57238
▁ㄒㄧㄤ2쎯ㄍㄤˇ쎯	-8.57343
▁ㄐㄧㄠ6쎯	-8.57434
▁ㄇㄨˋ1쎯	-8.57524
ㄋㄧˊ0쎯	-8.57827
ㄍㄨㄢˇ0쎯	-8.58197
ㄡ	-8.58208
▁ㄒㄧㄢˋ1쎯ㄧㄡˇ1쎯	-8.58313
▁ㄔㄠ4쎯	-8.58411
▁ㄒㄩㄝˊ1쎯ㄕㄨˋ0쎯	-8.58608
▁ㄓㄜˋ0쎯ㄍㄜˇ0쎯	-8.58755
▁ㄉㄧ2쎯ㄍㄠ0쎯	-8.5889
ㄋㄥˊ쎯	-8.58999
ㄗㄞˋ1쎯	-8.59059
ㄅㄠˇ1쎯	-8.59169
▁ㄘㄠˇ쎯	-8.59227
ㄕㄨˇ5쎯	-8.59352
▁ㄊㄜˋ0쎯	-8.59398
▁ㄕㄥ1쎯ㄩˊ0쎯	-8.59456
▁ㄓㄨㄥ0쎯ㄏㄨㄚˊ1쎯	-8.5947
▁ㄇㄟˇ1쎯ㄕㄨˋ0쎯	-8.59506
ㄌㄜˋ0쎯	-8.59561
▁ㄨㄤˇ0쎯ㄓㄢˋ2쎯	-8.59618
ㄒㄧㄤ2쎯	-8.59644
▁ㄍㄨˋ1쎯ㄕˋ8쎯	-8.59645
ㄒㄧ14쎯	-8.59783
▁ㄒㄩ4쎯ㄧㄠ4쎯	-8.59825
▁ㄓㄣ4쎯	-8.60034
ㄍㄨㄥ2쎯ㄙ0쎯	-8.60137
▁//	-8.60142
▁ㄐㄧㄢˋ2쎯ㄌㄧˋ3쎯	-8.60174
▁ㄐㄧㄝ3쎯ㄍㄜˇ1쎯	-8.60323
ㄑㄩ0쎯	-8.60464
▁ㄒㄧㄢ1쎯	-8.60549
▁̇ㄇㄜ쎯	-8.60573
▁ㄅㄢˇ1쎯	-8.60583
ㄏㄨㄛˇ0쎯	-8.60645
▁ㄧㄥˇ1쎯ㄒㄧㄤˇ1쎯	-8.60712
ㄍㄨㄢˇ1쎯	-8.60715
▁ㄒㄧˋ1쎯	-8.6072
ㄍㄨㄥˋ0쎯ㄔㄢˇ0쎯ㄉㄤˇ1쎯	-8.60752
▁ㄧˇ2쎯ㄕㄤˇ0쎯	-8.60766
▁ㄩˊ3쎯	-8.60788
ㄎㄚˇ0쎯	-8.60797
▁ㄨˇ3쎯	-8.608
▁ㄊㄜˋ0쎯ㄉㄧㄢˇ1쎯	-8.60861
▁ㄓˋ3쎯ㄗㄠˋ2쎯	-8.61242
ㄕˊ3쎯	-8.61344
▁ㄈㄨˋ2쎯ㄗㄜˊ1쎯	-8.61371
▁ㄖㄡˋ쎯	-8.61411
▁ㄇㄧㄣˊ0쎯	-8.61573
▁+	-8.61633
ㄒㄧㄝˊ0쎯	-8.61712
쎀쎀	-8.61995
▁ㄏㄨㄛˇ0쎯	-8.62064
▁ㄨㄛˇ쎯ㄍㄨㄛˊ0쎯	-8.62083
▁ㄏㄤˊ0쎯ㄓㄥˋ3쎯	-8.62089
▁ㄔㄨˊ0쎯	-8.6209
▁ㄍㄜˊ0쎯ㄇㄧㄥˋ쎯	-8.62333
▁ㄐㄧ0쎯	-8.62334
▁ㄎㄨㄢˇ쎯	-8.62426
▁쎂쎀쎀쎄	-8.62493
▁̇ㄉㄜ0쎯ㄈㄤ0쎯	-8.62599
▁ㄅㄢˋ0쎯ㄍㄨㄥ2쎯ㄕˋ18쎯	-8.62647
▁ㄍㄨㄛˇ0쎯	-8.62789
▁ㄒㄧㄝˇ1쎯	-8.628
ㄐㄧ13쎯	-8.62892
▁ㄕㄤ1쎯ㄧㄝˋ0쎯	-8.62958
ㄕㄤ1쎯	-8.63142
ㄓˋ5쎯	-8.63146
▁ㄗㄨㄛ0쎯ㄓㄜˇ0쎯	-8.63161
ㄅㄨˋ0쎯	-8.63183
ㄗㄨㄥ0쎯	-8.63207
▁ㄉㄞˋ0쎯	-8.6326
▁ㄐㄧㄥ2쎯ㄧㄢˋ5쎯	-8.63429
▁ㄏㄞˇ0쎯ㄅㄚˊ0쎯	-8.6354
ㄍㄨㄢ2쎯	-8.63545
쎉	-8.63554
▁ㄍㄨㄥ0쎯	-8.63596
▁ㄑㄧㄢ0쎯	-8.63632
ㄇ	-8.63637
▁ㄌㄧㄥˇ1쎯ㄉㄠˇ0쎯	-8.63713
▁ㄐㄧㄣˋ0쎯	-8.63793
ㄊㄨˊ0쎯	-8.63799
ㄕˇ0쎯	-8.63814
▁ㄇㄛˊ3쎯ㄕˋ5쎯	-8.63893
▁ㄐㄧㄝˋ0쎯ㄕㄠˋ1쎯	-8.64015
▁ㄎㄤˋ1쎯	-8.64106
ㄔㄨㄥˊ2쎯	-8.64282
▁ㄩㄝˋ5쎯	-8.64308
▁ㄏㄨㄚˋ0쎯	-8.64373
6쎯	-8.64585
▁ㄒㄩㄢˇ0쎯	-8.64794
▁ㄋㄨㄥˊ0쎯	-8.64844
▁ㄕˊ1쎯ㄐㄧ13쎯	-8.64874
▁ㄊㄞ0쎯ㄨㄢ1쎯	-8.6506
▁쎂쎀쎁쎁	-8.65065
▁ㄐㄧㄠ0쎯	-8.65079
▁ㄧㄡˇ1쎯ㄍㄨㄢ0쎯	-8.65089
▁ㄑㄩㄝˋ0쎯	-8.65209
▁ㄌㄧˋ3쎯	-8.65211
▁ㄔㄨˇ0쎯ㄌㄧˇ3쎯	-8.6523
▁ㄉㄨㄢˋ0쎯	-8.65334
▁ㄑㄧㄝ쎯	-8.65345
ㄈㄨ0쎯	-8.65356
ㄍ	-8.65381
▁ㄐㄧㄤ0쎯	-8.65433
ㄧˋ0쎯	-8.65435
ㄓㄢˋ1쎯	-8.65568
▁ㄓㄤ1쎯	-8.65572
▁ㄗˇ0쎯	-8.65615
▁ㄌㄧˋ6쎯ㄩㄥˋ0쎯	-8.65619
▁ㄓㄥˋ3쎯ㄓˋ5쎯	-8.65673
▁ㄩㄣˋ1쎯ㄉㄨㄥˋ0쎯	-8.65702
▁ㄩㄥˋ0쎯ㄏㄨˋ1쎯	-8.65742
ㄈㄤˊ3쎯	-8.6576
ㄏㄨㄤˊ1쎯	-8.65805
ㄐㄧㄠˋ2쎯	-8.65827
▁ㄈㄨˋ7쎯	-8.65887
▁ㄧㄠˋ0쎯	-8.6594
ㄙㄨㄛˇ0쎯	-8.66325
ㄐㄩ1쎯	-8.6648
▁ㄓㄨㄥ0쎯ㄨㄣˊ0쎯	-8.66529
▁ㄘㄢ0쎯ㄕㄨˇ5쎯	-8.66609
▁ㄉㄤˇ1쎯ㄨㄟˇ5쎯	-8.66668
▁ㄔㄨㄤ0쎯ㄗㄨㄛ0쎯	-8.66721
▁ㄕㄢ0쎯ㄉㄨㄥ0쎯	-8.66874
▁ㄍㄨㄢ2쎯	-8.66886
▁ㄙㄨㄟˊ1쎯	-8.66981
▁ㄖㄣˊ0쎯ㄘㄞˊ0쎯	-8.67031
ㄘㄠˇ쎯	-8.6705
▁ㄐㄧㄝ3쎯	-8.67348
ㄐㄧㄝˋ3쎯	-8.67445
▁쎂쎆	-8.67454
▁ㄓ1쎯	-8.67472
▁ㄔㄨ0쎯ㄒㄧㄢˋ1쎯	-8.67486
▁ㄕˇ0쎯	-8.67674
▁ㄍㄨㄥ0쎯ㄧˋ2쎯	-8.67697
▁ㄙㄜˋ0쎯	-8.67721
▁ㄒㄩㄝˊ1쎯ㄏㄨㄟˋ2쎯	-8.67729
ㄩˊ3쎯	-8.67801
▁ㄍㄜˊ2쎯	-8.67835
▁ㄍㄨㄤˇ0쎯	-8.6796
▁ㄑㄧㄢˊ1쎯	-8.67984
ㄧㄢˊ2쎯	-8.68087
ㄅㄧㄢ0쎯	-8.68333
▁ㄕㄜˋ0쎯	-8.6842
ㄦˋ0쎯	-8.68602
ㄅㄨˋ1쎯	-8.68675
▁ㄔㄜˇ0쎯ㄘㄨㄣˋ쎯	-8.68706
▁쎂쎀쎀쎂	-8.68749
ㄋㄚˋ1쎯	-8.68815
▁ㄈㄣˇ쎯	-8.69096
▁ㄔㄨㄤ0쎯ㄒㄧㄣ5쎯	-8.69164
ㄊㄨㄢˊ0쎯	-8.69215
ㄖㄢˊ0쎯	-8.69269
▁ㄓㄜˋ1쎯ㄐㄧㄤ0쎯	-8.6927
ㄌㄡˊ1쎯	-8.69569
ㄍㄨˇ0쎯	-8.6975
▁ㄘˊ0쎯	-8.69942
▁ㄐㄧㄠˋ2쎯	-8.70079
ㄧˋ2쎯	-8.7011
▁ㄧㄤˇ1쎯	-8.70192
ㄒㄧㄥ0쎯	-8.70241
ㄧˇ2쎯	-8.70398
▁ㄈㄢˋ3쎯ㄨㄟˊ2쎯	-8.70475
▁ㄅㄨˋ1쎯	-8.7054
ㄑ	-8.7056
▁ㄕˊ3쎯ㄒㄧㄢˋ1쎯	-8.70619
▁ㄆㄧˊ0쎯	-8.70633
ㄉㄞˋ0쎯	-8.70686
▁ㄍㄨㄢ0쎯ㄐㄧˋ3쎯	-8.70856
▁ㄐㄧㄡˇ5쎯	-8.70915
▁>	-8.70939
▁ㄔㄥˊ1쎯	-8.71038
▁ㄉㄧˋ3쎯ㄙㄢ0쎯	-8.71039
▁ㄒㄧㄠˇ0쎯ㄕㄨㄟˋ0쎯	-8.71196
▁ㄉㄢ1쎯ㄖㄣˊ3쎯	-8.7128
▁ㄑㄩㄢˊ1쎯ㄘㄨㄣ0쎯	-8.71491
ㄑㄧㄡˊ2쎯	-8.7167
▁ㄇ	-8.71791
▁쎀쎀	-8.71844
▁ㄐㄩ1쎯	-8.71869
▁ㄢˋ1쎯	-8.71955
▁ㄑㄧˋ3쎯ㄔㄜ0쎯	-8.72097
ㄇㄧㄢˋ0쎯ㄐㄧ11쎯	-8.721
▁ㄓˇ4쎯ㄉㄠˇ0쎯	-8.72166
▁ㄧˇ1쎯ㄐㄧㄥ2쎯	-8.72255
ㄆㄧˊ0쎯	-8.72321
▁ㄐㄧㄝ0쎯	-8.72461
▁ㄘㄠ0쎯ㄗㄨㄛ0쎯	-8.72546
ㄌㄟˋ2쎯	-8.72632
▁ㄐㄧˋ0쎯ㄏㄨㄚˊ0쎯	-8.7264
ㄑㄧㄢˊ0쎯	-8.72751
▁ㄧㄠ4쎯ㄑㄧㄡˊ1쎯	-8.72876
▁ㄏㄜˊ3쎯	-8.72949
▁ㄕˋ8쎯ㄧㄝˋ0쎯	-8.73
▁ㄒㄧㄥ1쎯	-8.73009
ㄅㄞˇ0쎯	-8.73058
▁ㄈㄤˋ쎯ㄖㄨˋ0쎯	-8.73103
▁ㄔㄠˇ쎯	-8.73337
▁ㄕㄜˋ0쎯ㄕ5쎯	-8.73453
ㄩˋ0쎯	-8.73524
9쎯	-8.73533
▁ㄓˋ4쎯	-8.73565
▁ㄌㄧㄢˊ4쎯ㄍㄜˇ1쎯	-8.73567
▁ㄕㄡ쎯	-8.73669
▁ㄌㄧˇ3쎯ㄕˋ8쎯	-8.73731
ㄎㄞ0쎯	-8.73752
▁ㄓˊ1쎯	-8.73768
ㄐㄧㄝ0쎯	-8.73777
ㄈㄥ5쎯	-8.73835
▁ㄈㄚ쎯ㄒㄧㄢˋ1쎯	-8.73911
ㄙˋ2쎯	-8.73915
▁ㄉㄜˊ1쎯	-8.73945
▁ㄒㄧㄡ1쎯	-8.7399
▁ㄧ0쎯ㄉㄧㄥˋ1쎯	-8.74002
▁ㄈㄚˇ0쎯ㄌㄩˋ0쎯	-8.74136
ㄓㄨㄢ0쎯	-8.74142
▁ㄙㄨㄛˇ0쎯ㄧㄡˇ1쎯	-8.74313
ㄔㄨㄢ0쎯	-8.7436
ㄉㄜˊ0쎯	-8.74443
▁ㄕㄥˋ0쎯	-8.74541
▁ㄌㄧㄣˊ2쎯ㄔㄨㄤˊ0쎯	-8.74603
ㄔㄨㄢˊ0쎯	-8.74616
ㄨㄢ1쎯	-8.74788
▁ㄌㄧˊ3쎯	-8.74845
ㄅㄢˇ0쎯	-8.75113
ㄋㄩˇ0쎯	-8.75172
ㄓㄨˇ0쎯ㄧˋ1쎯	-8.75289
▁ㄑㄩ0쎯	-8.75344
▁ㄧˋ12쎯	-8.75354
▁ㄕˊ4쎯	-8.75364
▁ㄔㄢˇ0쎯ㄕㄥ1쎯	-8.75441
ㄅㄠˋ0쎯	-8.75451
ㄘㄞˋ0쎯	-8.75488
▁ㄔㄨㄥˊ1쎯ㄓˊ5쎯	-8.75547
▁쎈쎀	-8.75572
ㄔㄢˇ0쎯	-8.75671
▁ㄒㄧㄠˇ0쎯ㄒㄩㄝˊ1쎯	-8.75685
▁ㄧㄣ0쎯ㄨㄟˊ0쎯	-8.75742
▁ㄔㄤˊ1쎯	-8.75764
ㄅㄚ1쎯	-8.75781
▁ㄆㄧㄥˊ0쎯ㄐㄩㄣ1쎯	-8.75783
ㄒㄧㄣˋ0쎯	-8.75845
▁ㄕㄣ2쎯	-8.7591
▁ㄕㄨ0쎯ㄈㄚˇ0쎯	-8.7594
▁ㄌㄡˊ1쎯	-8.76044
▁ㄐㄧㄥ8쎯ㄕㄣˊ1쎯	-8.76047
▁ㄅㄨˋ4쎯ㄇㄣˊ0쎯	-8.76109
▁ㄒㄧㄥˋ2쎯ㄋㄥˊ쎯	-8.76146
7쎯	-8.76223
▁ㄍㄜˇ0쎯ㄖㄣˊ0쎯	-8.76236
▁쎁쎉	-8.76243
▁ㄋㄨㄥˊ0쎯ㄇㄧㄣˊ0쎯	-8.76302
ㄏㄨㄥˊ1쎯	-8.76314
ㄌㄨㄣˊ2쎯	-8.76413
▁ㄓㄨˋ3쎯ㄘㄜˋ0쎯	-8.76526
▁쎂쎂	-8.766
▁ㄑㄩˇ0쎯	-8.76631
ㄊㄧㄥ0쎯	-8.76706
ㄑㄩㄢˊ0쎯	-8.76762
▁ㄒㄧㄢˋ1쎯ㄗㄞˋ1쎯	-8.76765
▁ㄨㄟˋ2쎯ㄓˋ13쎯	-8.76838
ㄧㄣ4쎯	-8.76954
▁ㄐㄧㄢˋ6쎯ㄎㄤ0쎯	-8.76969
▁ㄋㄧㄢˊ0쎯ㄉㄞˋ0쎯	-8.76985
▁ㄕㄚ2쎯	-8.77126
▁ㄩㄢˇ쎯	-8.77221
▁쎂쎁	-8.77248
ㄨㄤˇ0쎯	-8.77478
▁ㄅㄢˇ0쎯	-8.77543
ㄓㄡ1쎯ㄕˋ4쎯	-8.77726
▁ㄌㄜˋ0쎯	-8.77831
ㄐㄧㄣˋ0쎯	-8.77909
▁ㄩˇ6쎯ㄧㄢˊ2쎯	-8.77942
▁ㄗㄨˊ0쎯	-8.78047
▁ㄨㄢˊ1쎯ㄔㄥˊ0쎯	-8.78103
▁ㄏㄨㄢˊ0쎯	-8.78105
▁ㄧ3쎯ㄒㄩㄝˊ1쎯	-8.78131
▁ㄧ0쎯ㄒㄧㄝ0쎯	-8.78164
ㄐㄩˋ2쎯	-8.78246
▁ㄊㄜˋ0쎯ㄙㄜˋ0쎯	-8.78363
▁쎂쎀쎀쎁	-8.78583
▁ㄏㄜˊ5쎯ㄒㄧㄣ0쎯	-8.78605
▁ㄓㄥ0쎯ㄕˋ5쎯	-8.78932
ㄓㄥ0쎯	-8.79107
ㄐㄧㄚ0쎯	-8.7916
▁ㄘㄨㄣ0쎯ㄇㄧㄣˊ0쎯	-8.79183
ㄐㄧㄢˋ2쎯	-8.79335
▁ㄐㄩˊ0쎯ㄔㄤˊ0쎯	-8.79663
ㄞˋ1쎯	-8.79713
▁ㄕㄥ2쎯	-8.79908
▁ㄑㄩㄢˊ1쎯ㄇㄧㄢˋ0쎯	-8.79918
▁ㄍㄨㄥ5쎯	-8.80034
▁̇ㄉㄜ0쎯ㄔㄨˇ0쎯	-8.80256
ㄕㄜˋ1쎯	-8.80304
▁ㄐㄧㄥ2쎯ㄍㄨㄛ0쎯	-8.80412
▁ㄧㄤˊ3쎯	-8.80422
▁ㄨˊ2쎯	-8.80438
▁ㄕㄥ1쎯ㄨˋ3쎯	-8.80444
▁ㄉㄧㄢˋ0쎯ㄕˋ12쎯	-8.80535
▁ㄊㄧㄝˇ쎯	-8.80622
ㄓㄨㄤ1쎯	-8.8087
ㄧㄢˇ2쎯	-8.80897
▁ㄏㄠˊ1쎯ㄇㄧˇ0쎯	-8.81009
▁ㄗㄡˇ쎯	-8.81011
▁ㄅㄧㄢˋ1쎯	-8.81061
▁ㄐㄧㄢˇ8쎯ㄔㄣˋ1쎯	-8.81287
ㄕㄥ2쎯	-8.81302
▁ㄙˋ1쎯ㄔㄨㄢ0쎯	-8.81379
▁ㄕㄤ1쎯ㄨˋ2쎯	-8.81451
▁ㄅㄛ1쎯	-8.81513
ㄏㄜˊ2쎯	-8.81561
▁ㄍㄣ0쎯	-8.81701
▁ㄨㄣˊ0쎯ㄐㄧㄢˋ1쎯	-8.81757
▁ㄈㄤ0쎯ㄒㄧㄤˋ0쎯	-8.82188
ㄉㄨㄛ0쎯	-8.82227
▁쎂쎃	-8.8225
▁ㄑㄧˋ7쎯	-8.82412
▁ㄈㄟ0쎯	-8.82448
ㄓㄥˋ3쎯	-8.82545
ㄊㄚˇ0쎯	-8.82549
▁ㄙ1쎯	-8.8255
▁ㄉㄤˇ1쎯	-8.82583
▁ㄆㄧㄥˊ1쎯ㄨㄟˊ0쎯	-8.82616
▁ㄩㄢˊ5쎯	-8.82747
▁ㄔㄨㄤ0쎯ㄐㄧㄢˋ2쎯	-8.82901
ㄧㄢˊ6쎯ㄐㄧㄡ1쎯ㄙㄨㄛˇ0쎯	-8.82935
ㄕㄨˋ3쎯	-8.8309
▁ㄨˋ3쎯	-8.83197
▁ㄏㄨㄚˋ0쎯ㄒㄩㄝˊ1쎯	-8.83213
ㄔㄤ0쎯	-8.83262
ㄌㄧㄥˊ6쎯	-8.83304
▁ㄕˋ8쎯	-8.83329
▁쎂쎀쎀	-8.83345
▁ㄒㄧㄚˊ5쎯	-8.83577
▁ㄐㄧˋ0쎯ㄙㄨㄢˋ1쎯ㄐㄧ6쎯	-8.83742
▁ㄇㄧㄣˊ0쎯ㄗㄨˊ1쎯	-8.83776
▁ㄩㄝ0쎯	-8.83819
ㄘㄥˊ0쎯	-8.83938
ㄈㄨˇ3쎯	-8.84023
ㄐㄧㄥˇ1쎯	-8.84274
▁ㄎㄨㄞˋ0쎯	-8.84278
▁ㄊㄤ0쎯	-8.8428
ㄐㄧㄠˇ0쎯	-8.84389
ㄟ	-8.84421
▁ㄑㄧㄥ1쎯	-8.84576
▁ㄆㄢˊ1쎯	-8.84805
▁ㄏㄢˊ1쎯	-8.84929
ㄧㄥˊ5쎯	-8.85013
▁ㄐㄩ3쎯ㄌㄜˋ0쎯ㄅㄨˋ4쎯	-8.85016
▁ㄘㄞˊ0쎯	-8.85141
ㄩㄣˋ1쎯	-8.8523
▁ㄕˊ3쎯ㄕ5쎯	-8.85485
▁ㄓㄨˇ0쎯ㄒㄧˊ1쎯	-8.85687
ㄓㄨˇ0쎯	-8.85737
▁ㄈㄥ1쎯ㄍㄜˊ2쎯	-8.85764
ㄢˋ2쎯	-8.85833
▁ㄉㄨˊ1쎯ㄌㄧˋ3쎯	-8.85911
▁ㄌㄧㄤˊ3쎯	-8.86024
▁ㄧㄣˊ1쎯	-8.86026
▁ㄕˊ4쎯ㄆㄧㄣˇ쎯	-8.86057
▁ㄐㄧ8쎯	-8.86139
▁ㄍㄨㄟ0쎯	-8.86157
▁ㄔㄥˊ0쎯ㄍㄨㄥ3쎯	-8.86173
▁ㄈㄟ2쎯ㄔㄤˊ4쎯	-8.86249
▁ㄅㄠˇ1쎯	-8.86337
▁ㄆㄟˊ1쎯ㄧㄤˇ1쎯	-8.86356
ㄔㄨㄣ0쎯	-8.86456
쎁쎉	-8.86487
ㄍㄢˇ3쎯	-8.86828
ㄌㄩˋ2쎯	-8.86828
ㄕㄣˊ1쎯	-8.86887
▁ㄔㄢˇ0쎯	-8.87041
▁ㄓㄢˋ1쎯	-8.87079
ㄨˇ0쎯	-8.87172
▁ㄕㄢ0쎯ㄡ0쎯	-8.87177
▁ㄆㄞˊ0쎯	-8.87213
8쎯	-8.87216
ㄐㄧˋ1쎯	-8.87242
ㄏㄠˇ0쎯	-8.8739
▁ㄒㄧㄤˇ2쎯	-8.8739
ㄓ7쎯	-8.87401
ㄧㄡˇ0쎯	-8.87487
ㄌㄧˊ0쎯	-8.87541
▁ㄉㄠˇ0쎯ㄕ2쎯	-8.87542
▁ㄕㄡ쎯ㄖㄨˋ0쎯	-8.87656
▁ㄊㄧ0쎯ㄐㄧˋ3쎯	-8.87684
▁ㄧ3쎯ㄌㄧㄠˊ1쎯	-8.87702
▁ㄒㄧㄣˋ0쎯	-8.8778
▁ㄙ3쎯ㄒㄧㄤˇ2쎯	-8.87868
▁ㄐㄧˊ6쎯ㄅㄧㄥˋ0쎯	-8.87917
ㄈㄨˊ12쎯	-8.87998
▁ㄩˇ6쎯	-8.88022
ㄓㄨㄤˋ1쎯	-8.88101
▁ㄇㄛˋ1쎯	-8.88238
▁ㄨ	-8.88251
▁ㄧㄣˇ0쎯	-8.88263
▁ㄍㄞˇ쎯	-8.88324
ㄦˊ0쎯	-8.88369
ㄠˋ2쎯	-8.8842
ㄖㄜˋ쎯	-8.88439
▁ㄊㄧ0쎯ㄩˋ3쎯	-8.88452
▁ㄐㄧㄠˋ0쎯	-8.88513
▁ㄓˋ5쎯	-8.88656
▁ㄕˊ3쎯	-8.88818
▁ㄒㄧㄥˊ1쎯ㄕˋ5쎯	-8.88841
▁ㄩˋ0쎯	-8.89052
▁ㄨㄟˋ0쎯ㄕㄥ1쎯	-8.89062
▁ㄋ	-8.89065
▁ㄅㄧㄢ0쎯	-8.8913
▁ㄏㄚ0쎯	-8.89174
▁ㄔㄚˊ1쎯	-8.89187
ㄇㄧˇ0쎯	-8.89191
▁ㄈㄣ0쎯ㄅㄧㄝˊ0쎯	-8.89332
▁ㄉㄨㄥˋ0쎯ㄨˋ3쎯	-8.89334
▁ㄅㄚ1쎯	-8.89359
▁ㄌㄨˋ3쎯	-8.89389
ㄙㄨㄢ0쎯	-8.89447
▁ㄉㄨㄥˋ0쎯	-8.89503
▁ㄆㄧ0쎯ㄓㄨㄣˇ0쎯	-8.89692
▁ㄧˋ7쎯	-8.89729
▁ㄐㄧㄠ0쎯ㄌㄧㄡˊ3쎯	-8.8976
ㄌㄧㄢˊ4쎯	-8.89771
▁ㄡ0쎯ㄩˋ7쎯	-8.89809
▁ㄑㄧㄥ0쎯ㄋㄧㄢˊ0쎯	-8.8983
▁쎂쎈	-8.89846
▁ㄅㄠ0쎯	-8.89892
▁ㄙㄨㄛˇ0쎯ㄧˇ2쎯	-8.89909
ㄍㄨㄥ6쎯	-8.90034
▁ㄩㄢˊ9쎯	-8.90158
▁ㄔㄨ0쎯ㄅㄢˇ1쎯ㄕㄜˋ1쎯	-8.90201
▁ㄩㄥˇ0쎯	-8.90363
ㄨㄟˋ0쎯	-8.90365
▁ㄍㄨㄤˇ0쎯ㄉㄨㄥ0쎯	-8.90424
▁ㄉㄚˊ1쎯ㄉㄠˋ0쎯	-8.90536
▁ㄅㄠˇ2쎯	-8.90554
ㄢˋ0쎯	-8.90601
▁ㄧㄡˊ5쎯	-8.90791
▁ㄧㄣ0쎯ㄘˇ0쎯	-8.908
▁ㄕㄨˋ3쎯	-8.90824
▁ㄗㄨㄛˇ0쎯ㄧㄡˋ1쎯	-8.90842
▁ㄓㄜˋ0쎯ㄒㄧㄝ0쎯	-8.90869
▁ㄧㄚˋ1쎯	-8.90912
▁=	-8.90943
ㄋ	-8.90978
▁쎂쎀쎁쎂	-8.9099
ㄍㄨㄢ0쎯	-8.91055
▁ㄗㄥ0쎯	-8.91092
▁ㄈㄛˊ쎯	-8.91099
▁ㄉㄧˇ1쎯	-8.91369
▁ㄌㄩˋ2쎯	-8.91391
ㄑㄧㄢ0쎯	-8.91393
▁쎅쎀쎀	-8.91487
ㄓˊ4쎯	-8.916
ㄓㄨㄤ3쎯	-8.91626
▁ㄓㄨˋ3쎯	-8.91681
▁ㄈㄚ쎯ㄏㄤˊ0쎯	-8.91744
ㄐㄧㄢ4쎯	-8.91805
▁ㄧㄥ1쎯ㄩˇ6쎯	-8.91864
▁ㄧ0쎯ㄓˊ1쎯	-8.91896
▁ㄕㄨㄟˇ쎯ㄆㄧㄥˊ0쎯	-8.92074
ㄍㄨㄛˇ0쎯	-8.92087
▁ㄖㄣˊ0쎯ㄇㄣˊ1쎯	-8.92096
▁ㄧㄢˊ6쎯ㄈㄚ쎯	-8.92098
ㄅㄛ1쎯	-8.92102
▁ㄕˊ1쎯ㄉㄞˋ0쎯	-8.92229
▁ㄧㄥ1쎯ㄨㄣˊ0쎯	-8.92296
▁ㄍㄨㄤˇ0쎯ㄈㄢˋ2쎯	-8.9238
ㄅㄧㄥ2쎯	-8.9239
▁ㄉㄜˊ0쎯ㄉㄠˋ0쎯	-8.92616
ㄍㄨㄢ1쎯	-8.92634
▁ㄋㄧㄣˊ쎯	-8.9271
ㄔㄥˊ7쎯	-8.9294
ㄍㄢ0쎯	-8.92942
▁ㄊㄨㄢˊ0쎯	-8.9302
▁ㄌㄚ1쎯	-8.93125
ㄛ	-8.93165
▁ㄑㄧㄥˊ0쎯ㄎㄨㄤˋ1쎯	-8.93185
▁ㄉㄨㄢ0쎯	-8.93192
▁ㄑㄩㄣˊ1쎯	-8.93198
▁ㄓˊ4쎯	-8.93212
▁ㄧㄢˊ2쎯	-8.93279
▁ㄧㄥ1쎯ㄍㄨㄛˊ0쎯	-8.93374
▁ㄅㄣˇ0쎯ㄎㄜ2쎯	-8.93388
ㄑㄧㄥ0쎯	-8.9339
ㄕㄚ2쎯	-8.93483
▁ㄙㄨㄥ0쎯	-8.93663
ㄖㄣˊ3쎯	-8.93737
▁ㄉㄨˊ1쎯	-8.93876
ㄑㄧㄥˋ0쎯	-8.93953
▁ㄊㄠˋ쎯	-8.93967
ㄑㄩㄢˊ2쎯	-8.93998
▁ㄨㄣ0쎯	-8.94114
▁ㄍㄨㄤˇ0쎯ㄒㄧ1쎯	-8.94154
▁ㄌㄧˇ3쎯ㄋㄧㄢˋ0쎯	-8.94194
▁ㄧㄣˊ1쎯ㄏㄤˊ0쎯	-8.94263
▁ㄏㄥˊ1쎯	-8.94282
▁ㄒㄩㄝˊ1쎯ㄎㄜ2쎯	-8.94748
▁ㄒㄩㄢˇ0쎯ㄗㄜˊ2쎯	-8.94771
▁ㄐㄧㄣˋ0쎯ㄖㄨˋ0쎯	-8.94905
ㄇㄛˊ0쎯	-8.94925
▁ㄔㄥˊ0쎯ㄍㄨㄛˇ0쎯	-8.94966
▁ㄌㄧˋ1쎯ㄖㄣˊ3쎯	-8.94996
▁ㄘㄢ0쎯ㄩˇ0쎯	-8.95084
ㄐㄧㄢˋ0쎯	-8.95148
ㄔㄣˋ1쎯	-8.95474
ㄑㄩˋ0쎯	-8.95494
▁ㄘㄞˋ0쎯	-8.95602
▁ㄈㄣ0쎯ㄨㄟˊ0쎯	-8.95642
ㄉㄧㄢˋ3쎯	-8.95692
▁ㄅㄧㄠˇ0쎯ㄒㄧㄢˋ1쎯	-8.95742
▁ㄍㄞˇ쎯ㄍㄜˊ0쎯	-8.9575
▁ㄔㄚ2쎯	-8.9578
▁ㄅㄧㄠˇ0쎯	-8.95792
▁ㄧㄢˇ2쎯	-8.95836
ㄕ3쎯	-8.9584
▁ㄆㄧ0쎯	-8.95871
▁ㄓ7쎯	-8.96023
▁ㄒㄧㄠˇ0쎯ㄕˊ1쎯	-8.96029
▁ㄌㄧㄢˊ4쎯	-8.961
▁ㄓㄥˋ3쎯ㄘㄜˋ4쎯	-8.96203
ㄌㄧㄥˇ0쎯	-8.96211
▁ㄘㄤˊ쎯	-8.96269
ㄉㄧˋ1쎯	-8.96271
▁ㄅㄧㄢ1쎯	-8.96374
▁ㄔㄥˊ6쎯	-8.96398
▁ㄕㄢ0쎯ㄉㄨㄥ0쎯ㄕㄥˇ0쎯	-8.96419
▁ㄒㄧㄠˋ3쎯ㄍㄨㄛˇ0쎯	-8.96498
▁ㄑㄧㄣ2쎯	-8.96536
▁ㄧ0쎯ㄑㄧˇ4쎯	-8.96593
▁ㄌㄧˋ6쎯	-8.96855
▁쎃쎂	-8.96867
▁ㄅㄢ1쎯	-8.96933
▁ㄎㄜˋ3쎯ㄔㄥˊ7쎯	-8.97023
▁ㄈㄤ0쎯ㄅㄧㄢˋ1쎯	-8.97085
ㄎ	-8.97206
ㄩ	-8.9726
▁ㄐㄧㄤ0쎯ㄙㄨ0쎯	-8.9729
▁ㄊㄧㄥˊ2쎯	-8.97376
▁ㄓㄨㄤ3쎯	-8.97389
ㄩㄢˇ쎯	-8.97391
ˇ	-8.97403
ㄌㄚˋ0쎯	-8.97423
▁ㄊㄜˋ0쎯ㄅㄧㄝˊ0쎯	-8.97424
▁ㄉㄧㄢˋ0쎯ㄩㄢˊ9쎯	-8.97447
▁ㄓ0쎯ㄏㄡˋ0쎯	-8.97471
▁ㄕˋ1쎯	-8.97476
ㄨㄟˋ3쎯	-8.97561
▁ㄓˊ0쎯ㄏㄤˊ0쎯	-8.97785
▁ㄅㄧㄥˋ0쎯ㄉㄨˊ0쎯	-8.97788
ㄌㄜˋ1쎯	-8.978
ㄊㄞˋ0쎯	-8.98001
▁ㄑㄧㄡˊ2쎯	-8.98214
ㄌㄨˋ0쎯	-8.98256
▁ㄇㄨˋ1쎯ㄅㄧㄠ0쎯	-8.98267
▁ㄒㄧㄣ5쎯ㄨㄣˊ2쎯	-8.98361
▁ㄆㄟˋ2쎯	-8.98405
ㄒㄧㄝˇ1쎯	-8.98491
▁ㄓˋ0쎯ㄐㄧㄣ2쎯	-8.98579
▁ㄨㄣˊ1쎯	-8.98658
ㄒㄧㄤˋ0쎯	-8.98671
▁ㄆㄧㄣˇ쎯ㄔㄨㄥˊ1쎯	-8.98713
ㄅㄢ1쎯	-8.98773
▁쎁쎉쎉쎉	-8.98784
ㄨㄟˊ6쎯	-8.98827
▁ㄅㄠˋ0쎯	-8.98968
쎂쎀	-8.99058
▁~	-8.9911
▁ㄙˇ쎯	-8.99116
▁ㄑㄩㄢˊ1쎯ㄑㄧㄡˊ2쎯	-8.99125
▁ㄏㄨˊ5쎯ㄋㄚ1쎯	-8.9918
▁ㄌㄧㄥˊ0쎯	-8.99183
ㄙ1쎯	-8.99186
▁ㄕˋ18쎯	-8.9924
▁ㄕㄥ1쎯ㄊㄞˋ2쎯	-8.99301
▁ㄔㄨㄣ0쎯	-8.99376
ㄓㄡ3쎯	-8.99566
▁ㄑㄧㄝˇ쎯	-8.99725
▁ㄗㄞˇ1쎯	-8.99833
▁ㄅㄧˇ1쎯ㄐㄧㄠˋ4쎯	-8.99851
▁ㄊㄧㄠˊ0쎯ㄐㄧㄢˋ1쎯	-8.99954
▁ㄓㄨˋ4쎯	-9.00249
ㄘㄞˊ1쎯	-9.00285
▁ㄍㄨㄥ2쎯ㄌㄨˋ5쎯	-9.00361
ㄅㄢˋ0쎯	-9.00484
▁ㄨㄢˊ2쎯	-9.00554
ㄏㄢˋ0쎯	-9.00573
▁ㄙㄨ0쎯	-9.00604
▁ㄗㄨㄛˋ0쎯ㄌㄚˋ0쎯	-9.0061
ㄖㄣˊ2쎯	-9.0063
▁ㄈㄨˋ11쎯	-9.00653
『	-9.00668
▁』	-9.00704
▁ㄆㄨˇ2쎯ㄊㄨㄥ0쎯	-9.00761
▁ㄍㄨㄥ2쎯ㄩㄢˊ1쎯	-9.00776
▁ㄐㄩˊ0쎯	-9.00968
▁ㄉㄧ2쎯	-9.01217
ㄒㄧㄤ1쎯	-9.01302
▁ㄎ	-9.01311
▁ㄍㄨㄤˇ0쎯ㄉㄚˋ쎯	-9.01333
▁ㄉㄨㄛ0쎯ㄘˋ0쎯	-9.01346
▁ㄕˋ16쎯ㄩㄥˋ0쎯	-9.01418
▁ㄏㄨㄟˋ2쎯ㄧˋ4쎯	-9.01555
▁ㄌㄧㄥˋ0쎯	-9.01586
▁ㄅㄨˇ0쎯	-9.01611
▁ㄌㄧˋ0쎯	-9.01627
ㄎㄤ0쎯	-9.01637
ㄗˋ0쎯	-9.0167
▁ㄋㄨㄥˊ0쎯ㄘㄨㄣ0쎯	-9.01729
▁ㄇㄧㄠˊ1쎯ㄕㄨˋ2쎯	-9.01781
ㄞ	-9.01795
▁ㄐㄧㄣ3쎯ㄖㄨㄥˊ9쎯	-9.01877
▁ㄑㄧㄥˊ0쎯	-9.01962
ㄊㄨˇ0쎯	-9.01963
▁ㄉㄨㄥ0쎯ㄅㄟˇ쎯	-9.01966
▁ㄉㄨㄛ0쎯ㄔㄨㄥˊ1쎯	-9.01995
▁ㄗ	-9.02071
▁ㄧㄣ1쎯	-9.02216
▁ㄅㄧˇ3쎯	-9.02292
▁쎉쎀	-9.02394
ㄗˋ1쎯	-9.02425
▁ㄒㄧㄤˋ3쎯	-9.02479
▁ㄋㄚ1쎯ㄐㄧㄥ1쎯	-9.02557
ㄕㄥˋ1쎯	-9.0256
ㄝ	-9.02699
ㄑㄩˇ0쎯	-9.02721
▁ㄍㄜ7쎯	-9.02737
▁쎃쎅	-9.02785
▁ㄕㄨ0쎯ㄏㄨㄚˋ1쎯	-9.0284
▁ㄐㄧㄝˇ1쎯ㄐㄩㄝˊ0쎯	-9.02873
▁ㄖㄨㄢˇ0쎯	-9.02911
▁ㄐㄧˊ4쎯ㄎㄜˇ0쎯	-9.03087
▁ㄕˊ3쎯ㄧㄢˋ5쎯	-9.03331
▁ㄎㄨㄥ0쎯	-9.03359
▁ㄎㄨㄥˇ0쎯	-9.03399
▁ㄍㄢˇ3쎯	-9.03409
ㄐㄧㄝˇ1쎯	-9.03517
ㄍㄨㄤˇ0쎯ㄉㄨㄥ0쎯ㄕㄥˇ0쎯	-9.03689
▁ㄋㄧㄡˊ쎯	-9.0369
▁쎇쎀	-9.03881
▁ㄒㄧㄢ3쎯	-9.03972
ㄙ3쎯	-9.04002
ㄍㄤˇ쎯	-9.04011
▁쎃쎀쎀	-9.0406
▁ㄒㄧ1쎯ㄋㄚ1쎯	-9.04322
▁ㄙ	-9.04325
ㄕˊ4쎯	-9.0436
▁ㄍㄨㄢ0쎯ㄩˊ0쎯	-9.04462
ㄍㄨㄛ0쎯	-9.04609
ㄧㄢˊ4쎯	-9.04624
▁ㄍㄨㄥˋ0쎯ㄊㄨㄥˊ0쎯	-9.0464
▁ㄇㄣˊ1쎯	-9.04668
ㄔㄨㄥˊ1쎯	-9.04686
▁ㄈㄥ3쎯	-9.04835
▁ㄅㄧㄢˋ1쎯ㄌㄧˋ6쎯	-9.04904
ㄧㄚˇ쎯	-9.04917
▁ㄗㄨㄟˋ0쎯ㄍㄠ0쎯	-9.04975
ㄧ3쎯	-9.0499
ㄍㄨˇ1쎯	-9.051
▁ㄩˋ6쎯	-9.05291
ㄌㄨˇ2쎯	-9.05388
▁ㄍㄨ5쎯	-9.0539
▁ㄒㄧㄠˇ0쎯ㄗㄨˇ1쎯	-9.05456
▁°	-9.05512
▁ㄒㄧˋ1쎯ㄅㄠ2쎯	-9.05656
▁ㄍㄨㄤˇ0쎯ㄓㄡ1쎯	-9.0568
▁쎁쎉쎈쎄	-9.05719
▁ㄐㄧˊ0쎯ㄑㄧˊ1쎯	-9.05848
▁ㄐㄧㄠˇ0쎯	-9.05979
ㄧㄤˊ4쎯	-9.0598
▁ㄒㄧㄢˋ0쎯ㄔㄥˊ4쎯	-9.06063
▁ㄓㄨ3쎯	-9.06071
▁ㄓㄨ0쎯	-9.06146
▁ㄗˋ0쎯ㄉㄨㄥˋ0쎯	-9.06262
▁ㄏㄜˊ5쎯	-9.06291
▁ㄧㄡˇ1쎯ㄒㄧㄠˋ3쎯	-9.06513
ㄐㄧㄤˇ1쎯	-9.06534
▁ㄆㄧㄥˊ1쎯	-9.06538
▁’	-9.06617
ㄙㄨˋ2쎯	-9.06703
▁ㄧㄣ4쎯	-9.06823
ㄓㄨㄥ0쎯ㄍㄨㄛˊ0쎯	-9.06852
ㄇㄧˋ1쎯	-9.06864
▁ㄔㄤˊ0쎯ㄐㄧ13쎯	-9.06926
▁ㄏㄞˊ0쎯ㄧㄡˇ1쎯	-9.06955
▁ㄔㄥˊ7쎯ㄒㄩˋ1쎯	-9.07003
ㄌㄧㄠˋ0쎯	-9.07027
▁ㄔㄣˋ1쎯ㄏㄠˊ0쎯	-9.07071
▁ㄌㄨㄣˊ2쎯	-9.07155
▁ㄉㄡˇ0쎯ㄓㄥ1쎯	-9.07172
ㄒㄩㄝˊ1쎯ㄐㄧㄠˋ2쎯	-9.07172
▁ㄔ0쎯	-9.07237
▁ㄐㄧㄢ7쎯ㄉㄨ0쎯	-9.07251
▁ㄒㄩˇ0쎯ㄉㄨㄛ0쎯	-9.074
ㄅㄠˇ2쎯	-9.07421
▁ㄏㄤˊ0쎯ㄓㄥˋ3쎯ㄘㄨㄣ0쎯	-9.07524
ㄊㄨㄥˊ0쎯	-9.07614
▁ㄐㄧㄝ2쎯	-9.07727
ㄐㄧㄠ6쎯ㄩˋ3쎯	-9.07843
▁̇ㄉㄜ0쎯ㄌㄧˇ3쎯	-9.07906
ㄙˋ1쎯	-9.07959
▁ㄐㄧㄥ1쎯	-9.08064
ㄐㄩˋ4쎯	-9.08074
▁ㄘㄨˋ1쎯ㄐㄧㄣˋ0쎯	-9.08172
▁ㄧㄚ1쎯	-9.08232
▁ㄧㄥ1쎯	-9.08377
▁ㄐㄧㄢˋ1쎯	-9.08398
▁ㄍㄨㄢ0쎯	-9.08443
▁ㄅㄟ2쎯	-9.08612
▁ㄒㄧㄢ1쎯ㄕㄥ1쎯	-9.08616
▁ㄏㄜˊ1쎯	-9.08617
▁ㄊㄧㄢˊ0쎯	-9.08681
▁ㄧㄢˇ3쎯ㄩㄢˊ2쎯	-9.08823
▁ㄩ3쎯	-9.0887
▁ㄒㄧㄢˇ0쎯	-9.089
▁ㄅㄧㄢˋ0쎯ㄏㄨㄚˋ0쎯	-9.09004
▁ㄧˋ18쎯	-9.0906
ㄣ0쎯	-9.09107
ㄉㄞˋ1쎯	-9.09145
ㄧㄢˊ3쎯	-9.09156
▁ㄐㄧˋ10쎯	-9.09174
▁ㄧㄥˊ5쎯ㄒㄧㄠ6쎯	-9.09192
▁ㄌㄨˋ3쎯ㄙㄜˋ0쎯	-9.09261
▁ㄈㄨˋ12쎯	-9.093
▁ㄒㄩˋ6쎯	-9.09359
▁ㄕˋ12쎯ㄆㄧㄣˊ1쎯	-9.09698
ㄧㄠ4쎯	-9.09753
▁ㄎㄨㄥ0쎯ㄐㄧㄢ4쎯	-9.09943
ㄧㄥ1쎯	-9.09951
▁ㄐㄧㄤ2쎯	-9.10005
▁ㄧㄢˊ3쎯	-9.10006
▁ㄗㄨㄛˇ0쎯	-9.10075
▁ㄔㄤˇ0쎯	-9.10088
▁ㄍㄨㄟ2쎯ㄇㄛˊ3쎯	-9.10097
ㄐㄧㄥˋ7쎯	-9.10123
ㄅㄨˋ2쎯	-9.1014
▁ㄌㄧㄤˊ0쎯ㄏㄠˇ0쎯	-9.10181
▁ㄧㄣˋ0쎯	-9.10298
▁ㄐㄧㄠ6쎯ㄘㄞˊ1쎯	-9.10314
▁ㄩˊ4쎯ㄌㄜˋ0쎯	-9.10358
▁ㄊㄜˋ0쎯ㄕㄨ4쎯	-9.10448
▁ㄘㄨㄣˊ쎯ㄗㄞˋ1쎯	-9.10525
▁ㄉㄤˇ1쎯ㄗㄨˇ1쎯	-9.1055
ㄐㄧˊ1쎯	-9.10589
▁ㄓˊ1쎯ㄐㄧㄝ4쎯	-9.10747
▁ㄉㄡˋ2쎯	-9.10776
ㄙㄨㄥ0쎯	-9.10818
▁ㄗˇ3쎯	-9.10818
▁ㄩㄢˋ2쎯ㄔㄤˊ0쎯	-9.10828
ㄎㄜ2쎯ㄒㄩㄝˊ1쎯	-9.10992
▁쎂쎇	-9.11029
▁쎄쎅	-9.11048
▁ㄕㄥ0쎯	-9.11048
ㄌㄟˊ1쎯	-9.1114
ㄕㄨㄟˋ0쎯	-9.11261
ㄐㄧ	-9.11273
▁ㄙㄢˇ1쎯	-9.11279
▁ㄈㄚˇ0쎯ㄍㄨㄛˊ0쎯	-9.11331
▁ㄋㄞˋ1쎯	-9.11426
ㄗ2쎯	-9.11453
▁ㄊㄧㄝˇ쎯ㄌㄨˋ5쎯	-9.11538
▁ㄔㄨㄤ0쎯ㄅㄢˋ0쎯	-9.11568
ㄎㄜˇ0쎯	-9.11598
▁ㄏㄜˊ3쎯ㄋㄚ1쎯	-9.11688
ㄧㄠ2쎯	-9.11751
▁ㄩㄣˊ0쎯ㄋㄚ1쎯ㄕㄥˇ0쎯	-9.1179
▁ㄊㄨㄥˊ3쎯	-9.11856
▁ㄌㄠˊ0쎯ㄉㄨㄥˋ0쎯	-9.12078
▁ㄕˊ3쎯ㄐㄧㄢˋ10쎯	-9.1213
▁ㄓㄨˊ0쎯	-9.12144
▁ㄉㄚˋ쎯ㄌㄧㄤˊ3쎯	-9.1215
ㄉㄧㄠˋ2쎯	-9.12202
▁ㄒㄧˇ0쎯ㄐㄧㄥˋ1쎯	-9.12253
ㄨㄟ1쎯	-9.12254
▁ㄧㄡ0쎯ㄓˋ4쎯	-9.12281
▁ㄕˊ0쎯ㄈㄣ0쎯	-9.12296
ㄖㄨˊ0쎯	-9.12384
ㄘˊ0쎯	-9.1242
ㄐㄧ9쎯	-9.1249
ㄒㄧㄤˋ3쎯	-9.12627
ㄓㄥˋ0쎯	-9.12646
ㄕㄨˇ1쎯	-9.12667
ㄎㄨㄥ0쎯	-9.12676
ㄈㄨˊ5쎯	-9.12745
▁ㄅㄧㄥˇ4쎯ㄇㄨˋ6쎯	-9.12832
▁ㄋㄥˊ쎯ㄍㄡˋ3쎯	-9.12872
▁ㄗㄚˊ0쎯ㄓˋ1쎯	-9.12882
▁ㄕˋ4쎯ㄨㄟˇ5쎯	-9.12951
ㄓㄢˇ2쎯	-9.1299
▁ㄌㄧˋ15쎯	-9.1307
▁ㄒㄧㄥ0쎯	-9.13101
ㄊㄞˋ3쎯	-9.13165
ㄧㄡˊ5쎯	-9.13224
▁ㄨㄣ0쎯ㄉㄨˋ2쎯	-9.13335
▁ㄕㄠ1쎯	-9.13356
▁ㄕ1쎯	-9.13357
▁쎁쎉쎈쎅	-9.13497
ㄚ0쎯	-9.13609
ㄨㄚˇ0쎯	-9.13658
ㄏㄞˋ2쎯	-9.13764
▁ㄊㄨㄥ0쎯ㄔㄤˊ4쎯	-9.1389
ㄕ2쎯ㄈㄢˋ3쎯	-9.13904
▁‘	-9.13979
▁ㄓㄨˇ0쎯ㄔˊ4쎯	-9.1399
▁ㄎㄞ0쎯ㄓㄢˇ2쎯	-9.14195
▁ㄎㄨㄞˋ1쎯	-9.14244
ㄐㄧㄡˇ0쎯	-9.14336
▁ㄗㄨㄟˋ0쎯ㄏㄡˋ0쎯	-9.14354
▁ㄅㄤ1쎯ㄓㄨˋ0쎯	-9.14425
ㄧˊ3쎯	-9.14494
▁ㄉㄨˊ1쎯ㄊㄜˋ0쎯	-9.14548
ㄅㄧˇ1쎯	-9.14725
▁̇ㄕ쎯	-9.14738
▁ㄍㄨˇ0쎯ㄉㄞˋ0쎯	-9.14757
▁ㄉㄜˊ1쎯ㄍㄨㄛˊ0쎯	-9.14778
ㄗㄨˇ1쎯	-9.14928
ㄅㄧㄠˇ0쎯	-9.14984
▁ㄓㄨˇ2쎯	-9.15017
▁ㄐㄧㄣˇ1쎯	-9.15038
▁쎁쎉쎉쎈	-9.15066
▁ㄩ	-9.15119
ㄆㄞˋ0쎯	-9.15128
▁ㄍㄨㄟ2쎯ㄉㄧㄥˋ1쎯	-9.15347
▁ㄌㄥˇ쎯	-9.15411
ㄨㄣ0쎯	-9.15489
▁ㄒㄧ1쎯ㄅㄟˇ쎯	-9.15499
ㄔㄠˊ1쎯	-9.15557
▁ㄓㄥˇ1쎯	-9.15574
▁ㄉㄧ2쎯ㄔㄨ0쎯	-9.15576
ㄌㄨㄣˊ1쎯	-9.15576
▁ㄅㄧㄠˇ0쎯ㄇㄧㄢˋ0쎯	-9.15633
▁'	-9.1566
▁ㄐㄧㄠ5쎯	-9.15683
▁ㄓㄜˋ0쎯ㄌㄧˇ2쎯	-9.15684
ㄧㄚ1쎯	-9.15705
▁ㄠˋ2쎯	-9.15782
▁ㄒㄧㄠˋ3쎯ㄌㄧˋ0쎯	-9.15799
▁ㄋㄢˊ1쎯	-9.15873
▁ㄍㄞˋ3쎯	-9.15976
▁ㄏㄡˋ1쎯	-9.1601
▁ㄓㄢˋ1쎯ㄓㄥ1쎯	-9.16062
▁ㄨㄟˋ6쎯	-9.16183
▁ㄒㄧ	-9.16338
▁ㄈㄣ0쎯ㄌㄟˋ2쎯	-9.1646
▁ㄉㄚˊ0쎯ㄗㄠˋ2쎯	-9.1646
▁ㄓㄠˋ1쎯	-9.16665
ㄔㄨㄥˊ0쎯	-9.16757
▁ㄔㄠˊ1쎯	-9.16759
ㄅㄞˇ1쎯	-9.16823
▁ㄅㄞˊ0쎯ㄙㄜˋ0쎯	-9.16875
▁쎀쎁	-9.16926
▁ㄙㄨㄥˋ2쎯	-9.16951
▁ㄗ2쎯ㄌㄧㄠˋ0쎯	-9.17056
▁ㄈㄤ0쎯ㄢˋ2쎯	-9.17184
▁ㄧㄡˋ0쎯ㄔㄣˋ1쎯	-9.1728
▁ㄏㄨㄛˋ0쎯ㄓㄜˇ0쎯	-9.17306
▁ㄊㄨㄟ0쎯	-9.1738
▁ㄐㄧㄝ7쎯ㄉㄠˋ3쎯	-9.17404
▁ㄇㄧˋ1쎯	-9.17412
ㄆㄢˊ1쎯	-9.17415
▁ㄉㄧㄥˇ0쎯	-9.17438
▁ㄒㄧㄚˋ1쎯	-9.17592
▁ㄏㄤˊ0쎯ㄨㄟˊ0쎯	-9.17603
▁ㄧㄥˊ5쎯ㄧㄤˇ1쎯	-9.17624
▁ㄉㄧㄢˋ0쎯ㄋㄠˇ1쎯	-9.17745
▁̇ㄉㄜ0쎯ㄔㄢˇ0쎯	-9.17752
▁ㄧㄣˇ0쎯ㄑㄧˇ4쎯	-9.17818
▁ㄗㄜˊ1쎯ㄖㄣˊ3쎯	-9.17837
▁ㄌㄧㄠˊ0쎯ㄋㄧㄥˊ0쎯	-9.17955
▁쎁쎉쎉쎅	-9.18073
▁ㄓˇ3쎯	-9.18111
▁ㄡ1쎯ㄓㄡ3쎯	-9.18153
▁ㄖㄣˊ0쎯ㄐㄩㄣ1쎯	-9.18162
ㄘㄤˊ쎯	-9.18184
▁ㄎㄜˋ2쎯	-9.18206
▁ㄓㄜˋ1쎯ㄐㄧㄤ0쎯ㄕㄥˇ0쎯	-9.18267
▁ㄍㄢ0쎯ㄅㄨˋ4쎯	-9.18357
▁ㄖㄨˊ0쎯ㄍㄨㄛˇ0쎯	-9.18369
▁ㄘ	-9.18545
▁ㄓㄨㄤ3쎯ㄕˋ10쎯	-9.18557
ㄍㄨ5쎯	-9.18568
▁ㄌㄧㄥˊ2쎯	-9.18579
ˇ1쎯	-9.18594
▁ㄦˊ1쎯ㄑㄧㄝˇ쎯	-9.18606
ㄧˋ7쎯	-9.18678
▁ㄕㄨ9쎯ㄖㄨˋ0쎯	-9.18686
▁쎁쎉쎈쎈	-9.18787
▁ㄔㄤˊ4쎯ㄨˋ2쎯	-9.18859
▁ㄐㄧㄚˇ0쎯	-9.19007
▁ㄑㄧㄡˊ1쎯	-9.19036
▁ㄕㄥ1쎯ㄔㄤˊ0쎯	-9.19059
▁ㄌㄧㄤˊ2쎯	-9.19223
▁ㄐㄩˋ8쎯	-9.19253
ㄏㄨˋ1쎯	-9.19258
▁ㄐㄧㄢ3쎯ㄔˊ4쎯	-9.19281
ㄐㄧㄤ1쎯	-9.19294
▁쎁쎉쎉쎀	-9.19325
▁ㄨ0쎯	-9.19344
▁ㄊㄜˋ0쎯ㄓㄥ2쎯	-9.19489
ㄇㄟˊ4쎯	-9.19555
▁ㄖㄨㄛˋ0쎯	-9.19627
▁ㄐㄧ13쎯ㄐㄧㄢ4쎯	-9.19775
▁ㄑㄧˊ0쎯	-9.19783
ㄍㄨㄥ3쎯	-9.19812
▁쎁쎂ㄩㄝˋ0쎯	-9.19858
ㄨㄤˋ3쎯	-9.19861
ㄉㄨㄢˋ0쎯	-9.19905
ㄌㄨㄛˋ0쎯	-9.19911
▁ㄧ0쎯ㄐㄧˊ2쎯	-9.20035
▁ㄨㄟˊ3쎯ㄧ0쎯	-9.20038
ㄇㄨˇ4쎯	-9.20114
▁ㄊㄡˊ1쎯	-9.20115
▁ㄐㄩㄝˊ2쎯	-9.2022
▁ㄆㄨˇ2쎯	-9.20255
▁ㄍㄨㄥˋ0쎯ㄧㄡˇ1쎯	-9.20288
▁ㄐㄧㄢˇ8쎯	-9.20454
▁ㄍㄨㄤˇ0쎯ㄍㄠˋ0쎯	-9.20524
▁쎁쎉쎉쎃	-9.20568
▁ㄕˊ1쎯ㄕㄤˋ0쎯	-9.20592
▁ㄏㄨˊ5쎯ㄅㄟˇ쎯	-9.20844
▁ㄨㄢˊ1쎯ㄑㄩㄢˊ1쎯	-9.2085
▁쎁쎀쎀쎀	-9.20914
▁ㄑㄧˊ1쎯ㄊㄚ1쎯	-9.20978
ㄐㄧㄢˋ1쎯	-9.21089
▁ㄓㄣ1쎯	-9.21119
▁ㄩㄣˊ0쎯ㄋㄚ1쎯	-9.21129
▁ㄧㄢˊ5쎯	-9.2121
▁ㄔㄨㄥ0쎯	-9.21252
▁ㄑㄩˇ0쎯ㄉㄜˊ0쎯	-9.21294
▁ㄕㄡˋ1쎯ㄉㄠˋ0쎯	-9.21331
▁쎂쎉	-9.21332
▁ㄖㄣˋ1쎯ㄨㄟˊ0쎯	-9.21335
ㄘˋ0쎯	-9.21359
▁쎁쎉쎉쎂	-9.2141
▁ㄉㄢˋ2쎯ㄕˋ15쎯	-9.21486
▁쎁쎉쎈쎆	-9.21575
ㄧˋ4쎯	-9.2161
▁ㄏㄨˊ5쎯	-9.21675
▁ㄐㄧㄤ0쎯ㄙㄨ0쎯ㄕㄥˇ0쎯	-9.21778
ㄍㄨㄟˋ1쎯	-9.21814
▁ㄧㄤˊ2쎯	-9.21905
ㄐㄧㄡˇ5쎯	-9.21983
▁ㄎㄜˇ0쎯ㄋㄥˊ쎯	-9.22014
ㄜˊ7쎯	-9.22043
▁ㄐㄧ9쎯	-9.22046
▁ㄐㄧㄣˋ3쎯	-9.22138
▁ㄓㄨㄢ0쎯ㄐㄧˊ9쎯	-9.22159
ㄒㄧㄡˋ0쎯	-9.22169
▁ㄖㄣˊ0쎯ㄌㄟˋ2쎯	-9.22174
▁ㄍㄨㄥ0쎯ㄐㄩˋ2쎯	-9.22227
▁ㄧˊ3쎯	-9.22276
ㄩㄣˋ1쎯ㄉㄨㄥˋ0쎯ㄩㄢˊ2쎯	-9.22276
▁ㄐㄧㄤˋ1쎯	-9.22314
▁ㄘㄨㄣˊ쎯	-9.2237
▁ㄢ0쎯ㄓㄨㄤ3쎯	-9.22378
▁ㄩㄣˋ1쎯ㄏㄤˊ0쎯	-9.22447
ㄍㄜ7쎯	-9.22486
ㄌㄧㄝˋ0쎯	-9.22567
▁ㄕㄡˊ쎯	-9.22625
▁ㄖㄨㄥˊ4쎯ㄌㄧㄤˊ3쎯	-9.22708
ㄐㄧˊ12쎯	-9.22729
▁ㄐㄧˋ8쎯	-9.22732
▁ㄉㄡˋ2쎯ㄓㄜˇ0쎯	-9.22764
▁ㄐㄧㄥˇ1쎯	-9.22777
▁ㄆㄟˋ2쎯ㄊㄠˋ쎯	-9.22878
▁ㄒㄧㄡ0쎯ㄒㄧㄢˊ0쎯	-9.22907
▁ㄒㄧㄢˇ0쎯ㄕˋ2쎯	-9.23033
ㄉㄡ0쎯	-9.23049
▁쎁쎉쎈쎇	-9.23222
ㄨˊ2쎯	-9.23265
ㄢ3쎯	-9.23292
▁ㄓㄢˋ1쎯ㄌㄩㄝˋ1쎯	-9.23552
▁ㄦˇ1쎯	-9.23565
▁ㄐㄧㄡˋ0쎯	-9.23597
▁̇ㄉㄜ0쎯ㄊㄨˊ0쎯	-9.23625
▁ㄐㄧㄡˇ1쎯	-9.23634
▁ㄨㄟˇ3쎯	-9.23695
▁ㄙㄨˋ3쎯ㄉㄨˋ2쎯	-9.23709
▁ㄐㄧ12쎯ㄐㄧㄣ3쎯	-9.23714
▁ㄨㄣˇ2쎯ㄉㄧㄥˋ1쎯	-9.23714
ㄆㄨˇ2쎯	-9.23723
▁ㄒㄧˇ2쎯ㄏㄨㄢ0쎯	-9.23961
▁ㄐㄧ11쎯ㄐㄧˊ3쎯	-9.24107
▁ㄇㄢˇ0쎯	-9.24112
▁ㄌㄚˋ0쎯	-9.24125
ㄈ	-9.24369
▁ㄍㄠ0쎯ㄓㄨㄥ0쎯	-9.24431
ㄉㄧㄥ0쎯	-9.24435
▁ㄐㄧˋ1쎯	-9.24443
▁ㄙㄨㄣ0쎯	-9.24513
▁ㄉㄚˋ쎯ㄒㄧㄠˇ0쎯	-9.24541
▁ㄘㄢ0쎯	-9.24562
▁ㄦˊ0쎯ㄊㄨㄥˊ4쎯	-9.24609
▁ㄓˋ3쎯ㄉㄨˋ2쎯	-9.24839
▁ㄐㄧㄢ0쎯	-9.24912
▁ㄍㄨㄥ3쎯	-9.24933
▁ㄗㄨˊ1쎯	-9.25031
▁ㄓ6쎯	-9.25035
▁ㄕˊ3쎯ㄐㄧˋ5쎯	-9.25109
ㄍㄨㄤˇ0쎯	-9.25143
▁ㄔㄨㄢˊ0쎯ㄅㄛ4쎯	-9.25144
▁ㄢ0쎯ㄏㄨㄟ4쎯	-9.25202
▁ㄑㄧㄣˊ1쎯	-9.25215
▁ㄨㄟˋ3쎯	-9.25223
▁ㄕˋ16쎯ㄍㄜˇ1쎯	-9.25244
▁ㄎㄜˋ1쎯	-9.2529
ㄗㄨˇ2쎯	-9.25299
ㄙㄣ쎯	-9.25338
▁ㄍㄨㄥ0쎯ㄔㄥˊ7쎯ㄕ2쎯	-9.25368
▁ㄅㄧㄠˇ0쎯ㄕˋ2쎯	-9.25381
▁ㄆㄧㄣˇ쎯ㄓˋ4쎯	-9.25399
ㄓㄡ2쎯	-9.25507
ㄊㄤˊ3쎯	-9.25671
ㄐㄧˋ8쎯	-9.25698
▁ㄇㄡˇ쎯	-9.2577
▁ㄏㄜˊ3쎯ㄋㄚ1쎯ㄕㄥˇ0쎯	-9.25777
ㄗ	-9.25873
▁ㄕㄥˇ0쎯ㄐㄧˊ2쎯	-9.25929
▁ㄐㄧㄢˇ8쎯ㄔㄢˊ0쎯	-9.25955
ㄑㄩㄣˊ1쎯	-9.25983
▁ㄖㄢˊ0쎯ㄏㄡˋ0쎯	-9.26048
▁ㄗㄚˊ0쎯	-9.26049
ㄙ	-9.26103
▁ㄩㄢˋ2쎯	-9.26121
▁ㄙˋ1쎯ㄔㄨㄢ0쎯ㄕㄥˇ0쎯	-9.26239
▁ㄗ0쎯ㄒㄩㄣˊ3쎯	-9.26245
ㄈㄣˇ쎯	-9.26252
▁ㄖㄣˊ3쎯ㄨˋ2쎯	-9.26259
▁ㄖㄨˇ1쎯	-9.26299
ㄉㄨㄢ0쎯	-9.26329
▁ㄒㄧㄢˋ0쎯ㄨㄟˇ5쎯	-9.26336
▁ㄓㄢˇ2쎯	-9.26342
▁ㄩㄢˊ4쎯ㄌㄧㄠˋ0쎯	-9.26488
ㄎㄨˋ0쎯	-9.26522
ㄓㄤ0쎯	-9.26652
▁쎁쎉쎈쎂	-9.26684
▁ㄍㄨ	-9.26712
▁ㄐㄧㄥ0쎯	-9.26863
▁ㄐㄧㄣ3쎯ㄕㄨˇ1쎯	-9.26879
▁ㄉㄤ0쎯ㄕˊ1쎯	-9.26887
▁ㄐㄩ4쎯	-9.26947
▁ㄐㄧㄝ3쎯ㄍㄨㄛˇ0쎯	-9.26985
▁ㄔㄨㄣˊ0쎯	-9.27037
ㄏㄨㄟˊ0쎯	-9.27043
▁ㄗㄨㄟˋ0쎯ㄓㄨㄥ2쎯	-9.27077
▁ㄒㄩˊ쎯	-9.27107
▁ㄉㄨㄛ0쎯ㄋㄧㄢˊ0쎯	-9.27122
▁ㄕ6쎯	-9.27201
▁ㄅㄛˊ5쎯	-9.2725
ㄌㄤˊ0쎯	-9.27312
▁ㄓ7쎯ㄇㄧㄥˊ0쎯	-9.27318
▁ㄈㄥ0쎯	-9.27484
▁ㄊㄚˇ0쎯	-9.27561
▁ㄖㄣˋ1쎯ㄓㄥˋ0쎯	-9.27588
▁ㄅㄧㄢ1쎯ㄐㄧˊ9쎯	-9.27702
▁ㄊㄤˊ5쎯	-9.27743
▁ㄏㄣˇ0쎯ㄉㄨㄛ0쎯	-9.2777
▁ㄈㄨˊ5쎯	-9.27833
▁쎁쎉쎉쎄	-9.27841
ㄓㄨㄥ0쎯ㄒㄩㄝˊ1쎯	-9.27848
ㄓˇ4쎯	-9.27949
▁ㄉㄠ0쎯	-9.27957
▁ㄨㄢˊ1쎯ㄕㄢˋ0쎯	-9.28084
▁ㄏㄜˊ3쎯ㄅㄟˇ쎯	-9.28093
ㄅㄚ0쎯	-9.28107
ㄌㄧㄥˊ2쎯	-9.28141
▁ㄅㄧㄝˊ0쎯	-9.28192
▁쎁쎉쎈쎉	-9.28248
▁ㄧㄡˋ1쎯	-9.2828
▁ㄔㄨㄤ0쎯ㄗㄠˋ2쎯	-9.28311
ㄉㄧˇ1쎯	-9.28319
▁ㄒㄧㄣ1쎯ㄆㄧㄢ0쎯	-9.28448
▁ㄧ1쎯	-9.28498
▁ㄐㄧㄥˋ7쎯ㄋㄟˋ쎯	-9.28534
▁ㄆㄞˋ0쎯	-9.28604
ㄢˇ1쎯	-9.28646
ㄅㄧㄢ1쎯	-9.28748
ㄕˋ1쎯	-9.28767
ㄆㄞˊ2쎯	-9.28781
▁ㄕˋ16쎯ㄌㄧㄤˊ3쎯	-9.28785
ˇ0쎯	-9.28822
ㄓㄣ4쎯	-9.28831
▁ㄍㄨˇ2쎯	-9.28862
▁ㄈㄨˋ8쎯ㄐㄧㄠ6쎯ㄕㄡˋ2쎯	-9.28893
▁쎇ㄩㄝˋ0쎯	-9.28945
ㄙㄞˋ쎯	-9.28991
▁ㄌㄧㄡˊ2쎯	-9.29063
▁ㄡ1쎯	-9.291
▁ㄐㄧ6쎯ㄍㄨㄢ0쎯	-9.2914
▁ㄉㄥ0쎯	-9.29202
ㄌㄞˊ1쎯	-9.29204
▁ㄈㄨˊ12쎯	-9.2923
▁ㄙㄨㄛˇ0쎯ㄗㄞˋ1쎯	-9.29251
ㄉㄤ0쎯	-9.29272
▁ㄗㄥ0쎯ㄐㄧㄚ0쎯	-9.29284
ㄏㄨㄚˋ2쎯	-9.29342
ㄙㄞ1쎯	-9.29469
▁ㄍㄨㄛˊ0쎯ㄋㄟˋ쎯ㄨㄞˋ쎯	-9.29524
▁ㄦˋ0쎯ㄕˊ0쎯	-9.29656
▁ㄍㄜ7쎯ㄑㄩ0쎯	-9.29739
▁ㄅㄚ5쎯	-9.29763
▁ㄎㄠˇ0쎯	-9.29792
ㄍㄣ0쎯	-9.29826
▁ㄒㄩ4쎯ㄑㄧㄡˊ1쎯	-9.30009
▁ㄕㄜˊ1쎯	-9.30023
▁ㄘㄜˋ2쎯	-9.30032
쎃쎀	-9.30135
ㄋㄢˊ0쎯	-9.30236
▁ㄌㄧㄥˇ1쎯	-9.30247
▁ㄌㄧㄡˋ1쎯	-9.30331
ㄅㄛˊ5쎯	-9.30488
▁ㄔˋ1쎯	-9.30595
▁ㄓˋ1쎯	-9.30601
ㄅㄠˇ3쎯	-9.30644
▁ㄧˇ2쎯ㄒㄧㄚˋ0쎯	-9.30667
ㄧ1쎯	-9.30694
ㄩˇ4쎯	-9.30716
▁ㄕㄜˋ0쎯ㄧㄡˇ1쎯	-9.30848
▁ㄘㄞˇ0쎯	-9.30944
ㄐㄧㄠ0쎯	-9.30945
▁ㄓㄨˋ1쎯	-9.30951
ㄉㄠˇ0쎯	-9.30967
▁ㄅㄧㄥ0쎯	-9.31097
▁ㄕㄨˇ5쎯ㄗˋ1쎯	-9.31102
ㄅㄧˇ3쎯	-9.31236
▁ㄏㄢˊ4쎯ㄍㄨㄛˊ0쎯	-9.31275
▁ㄉㄠˇ3쎯	-9.31303
▁ㄔㄨㄥˊ2쎯ㄑㄧㄥˋ0쎯	-9.31309
ㄉㄡˋ0쎯	-9.31323
▁ㄌㄢˊ4쎯	-9.31346
▁ㄑㄧㄢˇ0쎯	-9.31346
ㄧˋ12쎯	-9.31347
▁ㄧ0쎯ㄧㄤˋ0쎯	-9.31371
ㄐㄧ2쎯	-9.31412
▁쎁쎉쎉쎇ㄋㄧㄢˊ0쎯	-9.31447
▁ㄑㄩㄢˊ1쎯ㄅㄨˋ4쎯	-9.31462
ㄐㄧㄚˇ0쎯	-9.31482
▁ㄎㄠˇ0쎯ㄕˋ11쎯	-9.31541
ㄧ2쎯	-9.31662
ㄍㄤ3쎯	-9.3168
ㄋㄨㄛˋ0쎯	-9.31709
▁ㄒㄧㄢ0쎯	-9.31725
ㄔㄤˊ4쎯	-9.31761
▁ㄊㄨˊ0쎯ㄕㄨ0쎯	-9.318
▁ㄕㄢˋ0쎯	-9.31855
▁ㄊㄨㄟ0쎯ㄍㄨㄤˇ0쎯	-9.31881
ㄦˊ1쎯	-9.31953
ㄊㄧㄠˊ0쎯	-9.32083
▁ㄕ5쎯ㄍㄨㄥ0쎯	-9.32137
▁ㄌㄧˇ3쎯	-9.32155
▁ㄕㄨ9쎯ㄔㄨ0쎯	-9.3228
▁ㄔㄤˊ4쎯ㄐㄧㄢˋ0쎯	-9.32281
▁ㄊㄧㄥ1쎯	-9.32391
▁ㄏㄨˊ2쎯	-9.32406
▁ㄌㄧˋ0쎯ㄌㄧㄤˊ3쎯	-9.32408
▁ㄇㄧㄣˊ0쎯ㄐㄧㄢ4쎯	-9.32433
ㄙ0쎯	-9.32507
ㄒㄧㄡ1쎯	-9.32624
ㄅㄧㄢˋ0쎯	-9.32638
ㄊㄨㄛ0쎯	-9.32694
▁ㄌㄧˋ8쎯	-9.32697
▁ㄒㄩㄢ1쎯ㄔㄨㄢˊ0쎯	-9.328
▁ㄉㄨㄟˋ1쎯ㄩˊ0쎯	-9.32898
▁ㄅㄧˇ1쎯ㄙㄞˋ쎯	-9.33008
▁ㄅㄧㄥ1쎯ㄑㄧㄝˇ쎯	-9.33021
▁ㄨㄣˊ0쎯ㄇㄧㄥˊ1쎯	-9.3308
▁ㄉㄨㄥ0쎯ㄒㄧ1쎯	-9.33129
▁ㄐㄧㄢˇ5쎯ㄘㄜˋ3쎯	-9.33201
▁ㄒㄧㄣ0쎯ㄌㄧˇ3쎯	-9.3334
▁ㄉㄨㄟˋ0쎯	-9.33363
ㄑㄩㄢˊ1쎯	-9.3342
▁ㄧㄝˋ2쎯	-9.33426
▁쎁쎉쎈쎃	-9.33517
▁ㄍㄨㄛˊ0쎯ㄊㄨˇ0쎯	-9.33648
▁ㄓㄨㄥ0쎯ㄧ3쎯	-9.33688
▁ㄩㄣˋ1쎯ㄕㄨ9쎯	-9.33751
▁ㄔㄨㄤ0쎯	-9.33847
ㄖㄨㄥˊ4쎯	-9.33891
ㄖㄡˋ쎯	-9.33936
ㄓㄤ1쎯	-9.33993
▁ㄕㄚ0쎯	-9.34212
▁ㄒㄩ2쎯	-9.34333
ㄐㄧㄤˋ2쎯	-9.34358
▁ㄐㄧㄤˇ0쎯	-9.34458
ㄌㄧㄡˋ0쎯	-9.34482
▁ㄏㄞˊ1쎯ㄗˇ0쎯	-9.34494
▁ㄗㄠˋ2쎯	-9.34545
▁ㄧˋ1쎯	-9.34616
ㄉㄨㄥˋ3쎯	-9.34809
▁ㄐㄩˋ0쎯	-9.34829
▁ㄐㄧㄝˋ3쎯	-9.34908
▁ㄕㄡˇ0쎯ㄐㄧ6쎯	-9.3491
▁ㄙㄨㄢ0쎯	-9.34923
▁ㄕˋ16쎯ㄧˊ3쎯	-9.34926
▁ㄕㄥ1쎯ㄇㄧㄥˋ쎯	-9.34936
▁ㄋㄟˋ쎯ㄘㄨㄣˊ쎯	-9.3498
▁쎁쎅쎀	-9.35018
▁ㄕㄜˋ0쎯ㄌㄧˋ3쎯	-9.35121
▁ㄏㄨㄟˋ2쎯ㄔㄤˊ0쎯	-9.35273
▁ㄨㄣˊ0쎯ㄨˋ3쎯	-9.3542
쎄쎀	-9.35445
▁ㄩˋ0쎯ㄇㄧˇ0쎯	-9.35472
▁ㄓㄨ4쎯	-9.35575
▁ㄅㄧˋ1쎯	-9.35587
▁ㄨˋ3쎯ㄓˋ4쎯	-9.35611
ㄧㄥˇ1쎯	-9.3572
ㄕㄤ0쎯	-9.35832
ㄋㄧㄡˊ쎯	-9.35867
▁ㄐㄧㄠ8쎯	-9.35962
ㄌㄨㄛˊ0쎯	-9.36098
▁ㄗˋ0쎯ㄖㄢˊ0쎯ㄘㄨㄣ0쎯	-9.3616
▁ㄅㄧㄠ0쎯	-9.36237
▁ㄏㄟ0쎯ㄙㄜˋ0쎯	-9.36327
▁ㄙ4쎯	-9.3636
▁ㄒㄧㄥˊ1쎯ㄒㄧㄤˋ2쎯	-9.36387
▁ㄊㄧˊ1쎯	-9.3639
▁ㄒㄩㄢ1쎯	-9.36465
▁ㄍㄜˊ5쎯	-9.36476
▁ㄐㄧㄤ0쎯ㄒㄧ1쎯	-9.36503
▁ㄓㄢˋ1쎯ㄉㄡˇ0쎯	-9.36615
▁ㄒㄩㄝˊ1쎯ㄇㄧㄥˊ0쎯	-9.36657
▁ㄇㄠˋ2쎯ㄧˋ12쎯	-9.36668
ㄎㄜˋ2쎯	-9.36682
▁ㄓㄜˋ0쎯ㄧㄤˋ0쎯	-9.367
ㄐㄧㄥˇ0쎯	-9.36723
▁ㄓㄨㄟ0쎯	-9.3676
ㄧ3쎯ㄩㄢˋ2쎯	-9.36782
▁ㄩㄢˊ2쎯ㄍㄨㄥ0쎯	-9.36825
▁ㄎㄨㄞˋ1쎯ㄙㄨˋ3쎯	-9.3692
▁ㄊㄧㄢ0쎯ㄐㄧㄣ4쎯	-9.36989
▁ㄧㄡˋ0쎯ㄇㄧㄥˊ0쎯	-9.37088
▁ㄏㄞˊ0쎯ㄕˋ15쎯	-9.37118
▁ㄈㄨˋ4쎯	-9.37167
▁ㄨˇ3쎯ㄏㄢˋ0쎯	-9.3724
▁ㄉㄨㄣ0쎯	-9.37275
▁ㄐㄩ1쎯ㄇㄧㄣˊ0쎯	-9.37332
ㄧˊ2쎯	-9.37343
ㄑㄧ0쎯	-9.37345
ㄨㄟˇ3쎯	-9.37345
▁ㄉㄠˇ0쎯ㄧㄢˇ3쎯	-9.37475
▁ㄐㄧㄠ0쎯ㄧˋ12쎯	-9.37507
▁̇ㄅㄛ0쎯	-9.37537
▁ㄇㄛˊ4쎯	-9.37643
▁ㄉㄚˋ쎯ㄌㄧㄡˋ1쎯	-9.37662
▁쎃쎈	-9.37663
▁ㄅㄟˇ쎯ㄐㄧㄥ1쎯ㄕˋ4쎯	-9.37695
ˇ6쎯	-9.37729
ㄊㄧㄥˊ2쎯	-9.37798
▁ㄓㄨ2쎯	-9.37808
ㄨˇ1쎯	-9.37836
▁ㄕㄣˋ0쎯	-9.37853
▁쎃쎆	-9.37857
▁ㄐㄩㄝˊ0쎯ㄉㄧㄥˋ1쎯	-9.37904
▁ㄆㄧㄣˇ쎯	-9.37918
ㄠˋ1쎯	-9.37923
▁ㄔㄨㄢ1쎯	-9.38046
▁ㄗㄨㄟˋ0쎯ㄐㄧㄚ2쎯	-9.38111
▁ㄍㄢ3쎯	-9.38246
ㄩㄥˇ0쎯	-9.38376
ㄒㄩㄢˇ0쎯	-9.38392
▁ㄇㄢˋ1쎯ㄏㄨㄚˋ1쎯	-9.38427
ㄕˋ12쎯	-9.38442
▁ㄐㄧㄝ0쎯ㄇㄨˋ1쎯	-9.38444
▁ㄖㄨˊ0쎯ㄏㄜˊ1쎯	-9.38514
▁ㄑㄧㄢ1쎯	-9.38518
▁ㄓㄨㄤ1쎯	-9.38549
▁ㄑㄧㄡ1쎯	-9.38569
▁ㄘㄨ쎯	-9.38607
▁ㄑㄧˋ0쎯ㄨㄣ0쎯	-9.38634
▁ㄓㄨㄤˋ1쎯ㄊㄞˋ2쎯	-9.38845
▁ㄇㄚˊ1쎯	-9.38861
▁ㄐㄧㄤˇ0쎯ㄕㄨˋ2쎯	-9.38864
▁ㄙ0쎯	-9.38874
▁ㄗ2쎯ㄐㄧㄣ3쎯	-9.38948
ㄎㄜ2쎯ㄐㄧˋ2쎯	-9.38969
▁ㄌㄧㄡˊ3쎯ㄏㄤˊ0쎯	-9.39031
ㄕㄡˇ2쎯	-9.39037
▁ㄘㄨㄥˊ0쎯ㄦˊ1쎯	-9.39077
쎂쎀쎀	-9.39093
▁ㄩㄣˋ1쎯	-9.39105
▁ㄐㄧㄚ2쎯	-9.39152
▁ㄕㄨˇ5쎯ㄒㄩㄝˊ1쎯	-9.39174
▁ㄧㄥˊ5쎯	-9.39188
ㄧㄤˇ1쎯	-9.39223
ㄖㄨㄟˋ1쎯	-9.39257
▁ㄧ4쎯	-9.39269
▁쎃쎁	-9.39281
▁ㄋㄨㄥˊ0쎯ㄗㄨㄛ0쎯ㄨˋ3쎯	-9.39288
▁ㄗˋ0쎯ㄧㄡˊ1쎯	-9.39351
ㄏㄨㄤˊ0쎯	-9.39446
ㄔˊ0쎯	-9.39451
▁ㄓˋ13쎯	-9.39472
▁ㄊㄨㄟ0쎯ㄔㄨ0쎯	-9.39506
▁ㄋㄨˇ0쎯ㄌㄧˋ0쎯	-9.39573
▁ㄓ2쎯ㄧㄡˇ1쎯	-9.39635
ㄧㄥ0쎯	-9.39671
▁ㄆㄧㄢ1쎯	-9.39714
▁ㄏㄨㄚˋ2쎯	-9.39734
ㄅㄢˇ1쎯	-9.39765
ㄘㄨㄣˊ쎯	-9.39794
▁ㄉㄠˋ3쎯ㄌㄨˋ5쎯	-9.39803
▁ㄇㄨˇ0쎯	-9.39811
▁ㄘㄨㄥ2쎯	-9.39959
▁ㄈㄢˊ3쎯	-9.39966
▁ㄐㄧㄠˋ2쎯ㄩㄢˊ1쎯	-9.40086
▁ㄊㄨㄢˊ0쎯ㄉㄨㄟˋ0쎯	-9.40145
ㄧˋ15쎯	-9.40182
▁ㄌㄧㄝˋ0쎯	-9.40188
▁ㄧㄥ1쎯ㄘㄨㄣˋ쎯	-9.40217
▁ㄨㄤˇ2쎯	-9.40218
ㄗㄜˊ3쎯	-9.40337
▁ㄓㄡˊ0쎯	-9.40344
ㄧㄝˋ2쎯	-9.40349
▁ㄔㄠ4쎯ㄍㄨㄛ0쎯	-9.40369
▁ㄩㄢˊ4쎯ㄇㄧㄥˊ0쎯	-9.40441
▁ㄉㄨㄥ0쎯ㄋㄚ1쎯	-9.40461
▁ㄅㄠ0쎯ㄓㄨㄤ3쎯	-9.40498
ㄇㄧㄥˋ쎯	-9.4057
ㄕㄨㄣˋ0쎯	-9.40616
ㄇㄠˊ0쎯	-9.40639
ㄒㄧㄢ0쎯	-9.40744
▁ㄌㄧㄠˋ0쎯	-9.40749
ㄈㄟˋ4쎯	-9.40798
ㄩˇ2쎯	-9.4083
ㄜ	-9.41018
▁ㄓㄥˇ1쎯ㄍㄜˇ0쎯	-9.41033
▁ㄏㄨㄞˊ0쎯	-9.41067
ㄉㄧㄢˇ0쎯	-9.4109
▁ㄉㄧㄢˋ0쎯ㄔˊ0쎯	-9.41113
▁ㄒㄩㄝˊ1쎯ㄕˋ0쎯	-9.41124
▁ㄊㄨ2쎯ㄔㄨ0쎯	-9.41146
▁ㄙㄨˋ2쎯	-9.41309
▁ㄒㄧˇ2쎯	-9.41344
▁ㄕㄤˇ0쎯ㄏㄞˇ0쎯ㄕˋ4쎯	-9.41403
▁ㄇㄧㄥˊ1쎯ㄒㄧㄢˇ0쎯	-9.41417
▁ㄐㄧㄠˇ5쎯	-9.41434
▁ㄍㄠ0쎯ㄉㄥˇ0쎯	-9.41445
▁ㄕˊ1쎯ㄏㄡˋ2쎯	-9.41532
▁ㄑㄧㄠˊ2쎯	-9.41586
▁ㄍㄨㄢ1쎯	-9.41631
▁ㄕㄡ쎯ㄘㄤˊ쎯	-9.41663
▁ㄍㄨㄟ2쎯ㄈㄢˋ3쎯	-9.41736
ㄙㄨˋ3쎯	-9.41839
ㄓㄠ2쎯	-9.41863
▁ㄖ	-9.41888
▁ㄧㄝˇ2쎯	-9.41899
ㄨㄟ3쎯	-9.41914
ㄘㄢ1쎯	-9.4192
▁ㄗㄨㄛˋ0쎯	-9.41946
▁ㄑㄧㄢˊ0쎯ㄕㄣ2쎯	-9.42003
ㄊㄧㄝˇ쎯	-9.42026
▁ㄏㄨㄚˋ0쎯ㄍㄨㄥ0쎯	-9.42062
ㄉㄧˊ0쎯	-9.42081
▁ㄆㄧㄣˊ1쎯ㄌㄩˋ2쎯	-9.42106
ㄌㄤˇ0쎯	-9.42166
▁ㄅㄠˊ1쎯	-9.42186
▁ㄧㄡ0쎯ㄕˋ7쎯	-9.42193
▁ㄙㄣ쎯ㄌㄧㄣˊ1쎯	-9.42195
▁ㄒㄩㄝˇ0쎯	-9.42293
ㄧㄣˋ0쎯	-9.42319
▁ㄈㄢˇ0쎯ㄧㄥ0쎯	-9.42329
▁쎁쎉쎉쎁	-9.42341
ㄌㄧˇ1쎯	-9.42497
ˇ2쎯	-9.42501
▁ㄘㄞˇ1쎯	-9.42632
▁ㄕ2쎯ㄈㄢˋ3쎯	-9.42777
ㄅㄧㄝˊ0쎯	-9.42835
▁ㄐㄧㄚˇ2쎯	-9.42836
▁ㄇㄧㄣˇ1쎯	-9.42847
▁ㄓˋ7쎯	-9.42852
▁ㄢˋ3쎯	-9.42879
▁ㄕㄜˋ6쎯ㄧㄥˇ1쎯	-9.42883
ㄊㄧㄥˊ1쎯	-9.42917
▁ㄔㄤˊ4쎯ㄨㄟˇ5쎯	-9.42931
▁ㄏㄢˊ4쎯	-9.42974
▁ㄇㄛˊ7쎯	-9.43071
ㄌㄧˋ1쎯	-9.43074
▁ㄐㄧˋ0쎯	-9.43123
ㄎㄢ0쎯	-9.43139
▁ㄍㄨㄥ2쎯ㄍㄨㄥˋ0쎯	-9.43205
▁ㄏㄨˊ5쎯ㄅㄟˇ쎯ㄕㄥˇ0쎯	-9.4322
▁ㄨㄟˋ12쎯	-9.4326
ㄗㄨㄛˋ1쎯	-9.43261
▁ㄐㄧㄣˋ0쎯ㄅㄨˋ2쎯	-9.43451
▁ㄐㄧㄠˋ2쎯ㄔㄤˊ0쎯	-9.43454
ㄋㄨㄥˊ0쎯	-9.436
▁ㄓㄨㄥˋ1쎯ㄉㄨㄛ0쎯	-9.43629
▁ㄊㄨㄥˇ0쎯ㄧ0쎯	-9.43641
▁ㄧㄝˋ3쎯	-9.4369
ㄢ1쎯	-9.43743
ㄕㄨㄟˋ1쎯	-9.43746
▁ㄗㄨㄥ0쎯ㄓˇ1쎯	-9.43759
▁ㄓㄨˇ0쎯ㄊㄧˊ1쎯	-9.43799
▁ㄔㄥˊ5쎯	-9.43813
▁ㄋㄧˊ1쎯	-9.43847
▁ㄒㄩ4쎯	-9.43858
ㄙㄨ0쎯	-9.43879
ㄐㄩㄣ2쎯	-9.43885
ㄧㄤˋ0쎯	-9.43923
ㄕㄨˋ0쎯	-9.43986
▁ㄕˋ10쎯	-9.44017
▁ㄌㄧㄣˊ0쎯	-9.44022
ㄧㄝˋ3쎯	-9.44024
ㄔㄥˊ6쎯	-9.44037
▁ㄧˋ11쎯	-9.44061
ㄕㄡˇ1쎯	-9.44098
▁ㄏㄢˊ5쎯	-9.44101
▁ㄋㄞˇ0쎯	-9.44114
ㄕㄠˇ쎯	-9.4412
▁ㄕㄢˋ1쎯ㄔㄤˊ0쎯	-9.44212
ㄩㄢˋ0쎯	-9.44249
▁ㄉㄤ0쎯ㄉㄞˋ0쎯	-9.44253
ㄧㄝˇ2쎯	-9.44254
▁ㄉㄠˇ0쎯	-9.44279
▁ㄏㄨㄟ0쎯	-9.44325
▁ㄌㄧˇ0쎯	-9.44524
▁쎄쎀쎀	-9.44564
▁ㄍㄤˇ쎯	-9.44583
▁ㄒㄧㄠˇ0쎯ㄡ0쎯	-9.44584
▁ㄅㄢˋ0쎯	-9.44606
11쎯	-9.44875
▁ㄗㄨㄟˋ0쎯ㄒㄧㄣ5쎯	-9.4488
12쎯	-9.44897
▁ㄕㄣˊ1쎯ㄐㄧㄥ2쎯	-9.45047
▁ㄆㄛˋ0쎯	-9.45054
ㄒㄧ	-9.45102
▁ㄧㄢˊ10쎯ㄙㄜˋ0쎯	-9.4512
▁ㄕㄤ1쎯ㄆㄧㄣˇ쎯	-9.45216
▁ㄌㄨㄣˊ4쎯	-9.45284
▁ㄈㄚ쎯ㄅㄨˋ1쎯	-9.45285
ㄌㄨㄥˊ5쎯	-9.45335
▁ㄋㄚ1쎯ㄅㄨˋ4쎯	-9.45459
▁ㄐㄩㄣ4쎯	-9.4549
▁ㄕˋ12쎯	-9.45522
▁ㄙㄨㄛˇ3쎯	-9.4564
▁ㄇㄢˇ0쎯ㄗㄨˊ0쎯	-9.45644
▁ㄉㄢˋ4쎯	-9.45722
ㄌㄠˇ0쎯	-9.45769
▁ㄧㄡˇ1쎯ㄓㄠ2쎯	-9.45883
▁ㄐㄩㄢ2쎯	-9.45977
ㄒㄧㄤˊ1쎯	-9.46009
ㄐㄧˇ1쎯	-9.46161
ㄇㄨˇ0쎯	-9.46199
ㄢˋ1쎯	-9.46205
▁ㄎㄨㄤˋ2쎯	-9.46208
▁ㄇㄟˊ4쎯	-9.46256
▁̇ㄉㄜ0쎯ㄓˋ4쎯	-9.46322
ㄌㄧㄤˊ0쎯	-9.46345
▁ㄐㄧˋ2쎯ㄋㄥˊ쎯	-9.46368
▁ㄔㄨㄢˊ1쎯	-9.46379
▁ㄉㄞˋ0쎯ㄌㄧˇ3쎯	-9.46424
ㄕㄣˊ0쎯	-9.46437
▁ㄅㄧㄥ2쎯	-9.46466
▁ㄨㄞˋ쎯ㄎㄜ2쎯	-9.46498
▁ㄐㄧㄥ2쎯ㄉㄧㄢˇ0쎯	-9.46508
▁ㄏㄨㄢˊ0쎯ㄅㄠˇ2쎯	-9.46517
▁쎂쎀쎁쎃	-9.46528
▁ㄨˋ3쎯ㄌㄧˇ3쎯	-9.46552
▁ㄍㄨㄥˋ1쎯ㄒㄧㄢˋ8쎯	-9.46665
▁ㄕㄢˇ1쎯ㄒㄧ1쎯	-9.46677
▁ㄘㄢ0쎯ㄎㄠˇ0쎯	-9.46703
▁ㄩㄢˊ1쎯	-9.46799
▁ㄧㄣˋ0쎯ㄉㄨˋ2쎯	-9.46865
▁ㄍㄢˇ3쎯ㄖㄢˇ1쎯	-9.46941
ㄗㄨˊ0쎯	-9.46951
▁ㄅㄠˇ2쎯ㄒㄧㄢˇ1쎯	-9.47061
▁ㄏㄨˊ5쎯ㄋㄚ1쎯ㄕㄥˇ0쎯	-9.47079
▁ㄏㄨㄤˊ0쎯	-9.47141
ㄅㄟˋ2쎯	-9.47242
▁ㄇㄟˇ1쎯ㄌㄧˊ0쎯	-9.47251
▁ㄕˋ11쎯ㄧㄢˋ5쎯	-9.47258
▁ㄋㄠˇ1쎯	-9.47299
ㄗㄞˇ1쎯	-9.47374
ㄉㄢ0쎯	-9.47406
▁ㄍㄤ6쎯	-9.47407
▁ㄕˊ0쎯ㄦˋ0쎯	-9.47454
▁ㄅㄨˋ2쎯	-9.47475
▁ㄔㄨㄥˊ2쎯ㄌㄧㄤˊ3쎯	-9.47484
ㄒㄧㄠˋ3쎯	-9.47538
▁ㄗㄨˇ1쎯ㄍㄜˇ1쎯	-9.47541
ㄙㄨㄛˇ1쎯	-9.47561
▁ㄅㄢˋ0쎯ㄒㄩㄝˊ1쎯	-9.47652
▁ㄕㄜˋ0쎯ㄓˋ13쎯	-9.47685
ㄓㄨˇ0쎯ㄖㄣˊ3쎯ㄧ3쎯ㄕ2쎯	-9.47734
▁ㄘ0쎯	-9.47785
▁ㄅㄨˋ4쎯ㄔㄤˊ0쎯	-9.47796
▁ㄋㄧㄢˊ1쎯	-9.47843
▁ㄔㄥˊ7쎯ㄉㄨˋ2쎯	-9.47923
▁ㄓˋ7쎯ㄌㄧˋ0쎯ㄩˊ0쎯	-9.47926
▁ㄈㄥ1쎯ㄐㄧㄥˇ1쎯	-9.48014
▁ㄕㄨ8쎯	-9.48019
▁ㄐㄧㄢˋ5쎯	-9.48039
▁ㄌㄧㄤˊ0쎯	-9.48062
▁ㄇㄟˊ5쎯ㄊㄧ0쎯	-9.48088
ㄙㄚˋ0쎯	-9.48095
▁ㄏㄨㄟˋ2쎯ㄐㄧˋ0쎯	-9.48125
ㄌㄧㄥˊ0쎯	-9.48169
▁ㄍㄨㄛ3쎯	-9.48228
▁ㄧ3쎯	-9.48244
▁ㄔㄚ1쎯	-9.48287
▁ㄢ0쎯ㄏㄨㄟ4쎯ㄕㄥˇ0쎯	-9.4835
▁ㄍㄨˇ2쎯ㄈㄣˋ0쎯	-9.48449
ㄒㄧㄠ6쎯	-9.48456
▁ㄒㄩㄣˋ0쎯ㄌㄧㄢˋ0쎯	-9.48458
▁ㄕㄢ0쎯ㄒㄧ1쎯	-9.4846
▁ㄐㄧㄝ7쎯	-9.48611
▁ㄗㄨㄥˋ0쎯	-9.48753
▁쎈ㄩㄝˋ0쎯	-9.48775
▁ㄘㄨㄣˊ쎯ㄔㄨˇ2쎯	-9.48793
▁ㄒㄧㄤˇ0쎯ㄕㄡˋ1쎯	-9.48806
▁ㄩㄢˊ5쎯ㄒㄧㄥˊ1쎯	-9.489
▁ㄧˊ7쎯ㄉㄨㄥˋ0쎯	-9.48945
▁ㄇㄨˋ5쎯	-9.48997
▁ㄕˋ11쎯	-9.49023
ㄇㄧㄠˋ1쎯	-9.49108
ㄈㄤˋ쎯	-9.49157
ㄐㄧㄚˋ2쎯	-9.4917
▁ㄒㄧㄤ1쎯ㄉㄨㄟˋ1쎯	-9.49203
▁ㄈㄟˋ2쎯	-9.49274
ㄈㄛˊ쎯	-9.49292
▁ㄈㄨˋ0쎯	-9.49293
ㄕㄡˋ0쎯	-9.49304
▁ㄊㄨㄟˋ0쎯	-9.49339
ㄍㄡ2쎯	-9.49417
▁ㄩㄢˊ7쎯	-9.49427
▁ㄉㄥ1쎯	-9.49498
▁ㄎㄜ2쎯ㄔㄤˊ0쎯	-9.49524
▁ㄍㄨㄤˇ0쎯ㄔㄤˊ1쎯	-9.49599
▁ㄍㄡ1쎯	-9.49691
▁ㄓㄥˋ1쎯	-9.49708
▁ㄕ5쎯	-9.49716
▁ㄏㄨㄛˊ0쎯	-9.49727
▁ㄐㄩˋ4쎯	-9.49757
▁ㄓㄥˋ3쎯	-9.49811
▁ㄊㄧㄢˊ2쎯	-9.49918
▁ㄌㄧㄡˇ0쎯	-9.4993
▁ㄏㄤˊ3쎯ㄎㄨㄥ0쎯	-9.49986
▁ㄢˋ1쎯ㄓㄠˋ2쎯	-9.50068
ㄅㄧㄠ0쎯	-9.50114
▁ㄖㄥˊ쎯	-9.50176
▁ㄏㄟ0쎯ㄌㄨㄥˊ0쎯ㄐㄧㄤ0쎯	-9.5018
▁ㄒㄩㄝˊ1쎯ㄓㄜˇ0쎯	-9.50198
▁ㄐㄧ6쎯ㄔㄤˊ1쎯	-9.50209
▁ㄍㄨㄥ0쎯ㄕㄤ1쎯	-9.5026
▁ㄉㄨㄥˋ0쎯ㄏㄨㄚˋ1쎯	-9.50291
ㄕˋ7쎯	-9.50295
▁&	-9.50337
ㄆㄧㄥˊ2쎯	-9.50349
▁ㄧˊ8쎯	-9.50361
ㄐㄧˋ3쎯ㄊㄨㄥˇ0쎯	-9.50407
ㄌㄩㄝˋ1쎯	-9.5044
▁ㄩㄣˋ1쎯ㄩㄥˋ0쎯	-9.50451
ㄓㄨˊ0쎯	-9.50511
▁ㄍㄠ0쎯ㄉㄨˋ2쎯	-9.50676
▁ㄒㄧ1쎯ㄅㄨˋ4쎯	-9.50684
▁ㄎㄨˇ쎯	-9.507
▁ㄆㄠ1쎯	-9.50737
▁ㄒㄩㄥ4쎯	-9.50787
▁ㄓˊ4쎯ㄍㄨㄥ0쎯	-9.50811
▁ㄐㄧㄢˇ6쎯	-9.50913
ㄓˋ0쎯	-9.50921
▁ㄧㄣˇ3쎯	-9.50928
ㄈㄥ0쎯	-9.50931
▁ㄅㄧㄥˇ4쎯	-9.51015
▁ㄐㄩˋ2쎯ㄊㄧ0쎯	-9.51105
▁ㄒㄩˇ0쎯	-9.51152
▁ㄐㄧㄢˋ2쎯ㄔㄥˊ0쎯	-9.51193
▁ㄌㄧㄝˋ4쎯	-9.51226
▁ㄕㄨㄣˋ0쎯	-9.51236
10쎯	-9.51244
▁ㄔㄨˇ0쎯ㄔㄤˊ0쎯	-9.51264
▁ㄍㄠ0쎯ㄙㄨˋ3쎯	-9.51264
ㄘ	-9.5131
▁ㄊㄚ1쎯ㄇㄣˊ1쎯	-9.51325
ㄕㄜˋ0쎯	-9.51362
▁ㄖㄨㄥˊ2쎯ㄏㄨㄛˋ2쎯	-9.51374
▁ㄘㄜˋ4쎯ㄏㄨㄚˊ0쎯	-9.51377
ㄌㄧˇ0쎯	-9.5144
ˇ3쎯	-9.51464
▁ㄓㄨㄢ0쎯ㄇㄣˊ0쎯	-9.51541
▁ㄓㄨˇ0쎯ㄅㄧㄢ1쎯	-9.51553
▁ㄍㄨˋ0쎯ㄉㄧㄥˋ1쎯	-9.51556
▁쎀쎉	-9.51561
▁ㄅㄟˋ3쎯	-9.51569
▁ㄕㄠ3쎯	-9.51573
▁ㄐㄧˇ1쎯ㄋㄧㄢˋ0쎯	-9.51667
▁ㄍㄨˋ2쎯ㄨㄣˋ0쎯	-9.51696
▁ㄖㄨㄥˊ6쎯	-9.51706
ㄇㄢˋ0쎯	-9.51709
▁ㄓㄨˋ7쎯	-9.51718
▁ㄋㄩˇ0쎯ㄒㄧㄥˋ2쎯	-9.51812
ㄉㄨˊ0쎯	-9.51877
▁ㄐㄧˊ1쎯	-9.51893
ㄈㄟ0쎯	-9.51938
▁ㄅㄧˋ1쎯ㄒㄩ1쎯	-9.51974
▁ㄈㄚˇ0쎯ㄍㄨㄟ2쎯	-9.5199
▁ㄐㄧ12쎯ㄔㄨˇ1쎯ㄕㄤˇ0쎯	-9.51995
▁——	-9.52061
▁쎁쎉쎈쎀	-9.5207
▁ㄕˊ3쎯ㄧㄢˋ5쎯ㄕˋ18쎯	-9.52088
ㄔㄨ1쎯	-9.52153
▁ㄒㄧㄤˋ2쎯	-9.52165
▁ㄧ0쎯ㄑㄧㄝ쎯	-9.52231
쎁쎁	-9.52351
ㄐㄧˋ0쎯	-9.52378
▁ㄌㄟˊ1쎯	-9.52389
ㄊㄤˊ0쎯	-9.52444
▁ㄐㄧˋ0쎯ㄙㄨㄢˋ1쎯	-9.52456
▁쎄쎈	-9.52462
▁ㄇㄛˋ8쎯	-9.52489
ㄔㄚˊ1쎯	-9.52496
▁ㄌㄩㄝˋ1쎯	-9.52502
ㄩㄢˊ7쎯	-9.52521
ˇ4쎯	-9.52568
▁ㄏㄜˋ3쎯ㄙㄜˋ0쎯	-9.52591
▁ㄎㄜˊ쎯	-9.52592
ㄉㄤˇ1쎯	-9.52596
▁ㄍㄨㄢ3쎯ㄐㄩㄣ0쎯	-9.52609
▁ㄖㄣˊ3쎯ㄏㄜˊ1쎯	-9.52612
▁ㄆㄞ쎯ㄕㄜˋ6쎯	-9.52614
▁ㄓㄨㄥˋ1쎯	-9.5264
▁ㄊㄞˋ3쎯	-9.52788
▁ㄨㄣˊ0쎯ㄗˋ1쎯	-9.528
쎉쎀	-9.52856
▁쎁쎉쎈쎁	-9.52897
쎁쎅	-9.52925
▁ㄨㄢˇ2쎯	-9.52925
ㄇㄛˋ1쎯	-9.53001
▁ㄓㄨˋ1쎯ㄓㄞˊ쎯	-9.53063
ㄒㄧㄢ1쎯	-9.53079
▁ㄅㄟˇ쎯ㄅㄨˋ4쎯	-9.53137
ㄍㄨㄛ3쎯	-9.5317
▁ㄓㄥˋ0쎯	-9.53204
ˋ9쎯	-9.53208
▁ㄧˋ18쎯ㄉㄚˋ쎯ㄌㄧˋ6쎯	-9.53234
▁ㄍㄢ1쎯	-9.53287
▁ㄍㄜ7쎯ㄕㄡˇ0쎯	-9.53291
▁ㄈㄢ2쎯	-9.53358
▁ㄨㄣˋ0쎯	-9.53379
▁ㄅㄧㄢ1쎯ㄒㄧㄝˇ0쎯	-9.53409
▁ㄐㄧㄥˇ1쎯ㄍㄨㄢ1쎯	-9.5344
▁ㄋㄧㄠˇ0쎯	-9.53493
▁ㄌㄩˇ2쎯	-9.53507
ㄒㄩㄝˇ0쎯	-9.53567
▁ㄕㄣ5쎯ㄓㄣˋ4쎯	-9.53652
▁ㄊㄨㄛ2쎯	-9.53723
ㄓㄞˋ1쎯	-9.53727
▁ㄈㄡˇ0쎯	-9.53735
▁ㄍㄨˋ0쎯	-9.53741
▁ㄐㄧ11쎯	-9.53764
▁쎀쎇	-9.53783
ㄍㄜˊ1쎯	-9.53792
▁ㄐㄧㄠˇ0쎯ㄙㄜˋ0쎯	-9.53859
▁ㄖㄣˊ0쎯ㄕㄥ1쎯	-9.53919
▁ㄐㄩㄣ0쎯ㄕˋ8쎯	-9.5394
ㄧㄤˊ0쎯	-9.54005
▁ㄒㄧˇ0쎯	-9.54008
▁ㄊㄨㄥ0쎯ㄒㄧㄣˋ0쎯	-9.54023
ㄓㄨ1쎯	-9.54024
▁ㄐㄩˇ2쎯ㄅㄢˋ0쎯	-9.54046
▁ㄐㄩ1쎯ㄓㄨˋ1쎯	-9.54073
ㄓˋ11쎯	-9.54101
ㄐㄧㄝ3쎯	-9.54105
ㄐㄧˊ3쎯	-9.54123
(	-9.54189
▁ㄇㄛˋ5쎯	-9.54192
ㄒㄧㄠˇ0쎯ㄒㄩㄝˊ1쎯	-9.54238
ㄘㄞˊ0쎯	-9.54244
▁ㄑㄧㄥˇ1쎯	-9.54252
▁ㄗ2쎯ㄔㄢˇ0쎯	-9.54326
▁ㄎㄜˋ3쎯ㄊㄧˊ1쎯	-9.54354
▁ㄧㄝˋ1쎯	-9.54427
ㄗㄠˋ2쎯	-9.54545
▁ㄓㄨˋ7쎯ㄗㄨㄛ0쎯	-9.5457
ㄅㄠ0쎯	-9.54581
▁ㄍㄨㄥ2쎯ㄩㄢˊ0쎯	-9.54684
ㄐㄧ8쎯	-9.54694
ㄐㄩㄣ4쎯	-9.54712
ㄓㄨㄢˇ쎯	-9.54736
ㄥˋ0쎯ㄏㄜˊ2쎯ㄍㄨㄛˊ0쎯	-9.54751
ㄨˋ5쎯	-9.54771
▁ㄧㄥˋ1쎯	-9.54782
ㄐㄧㄥˋ6쎯	-9.54874
ㄒㄧ7쎯	-9.54884
▁ㄩㄣˋ1쎯ㄧㄥˊ5쎯	-9.54923
▁ㄊㄨㄛ0쎯	-9.54945
▁ㄇㄞˋ1쎯	-9.54993
▁ㄅㄟ0쎯	-9.55052
▁ㄆㄣ쎯	-9.55088
▁ㄈㄨˊ10쎯	-9.55105
▁ㄓㄜˊ0쎯ㄒㄩㄝˊ1쎯	-9.55136
▁ㄕㄡˋ2쎯ㄩˊ1쎯	-9.55235
ㄒㄧㄠˇ0쎯ㄕㄨㄟˋ0쎯	-9.55252
ㄐㄧˇ3쎯	-9.55272
▁ㄒㄧ2쎯	-9.55276
▁ㄅㄠˇ2쎯ㄔˊ4쎯	-9.55352
▁ㄏㄜˊ3쎯ㄅㄟˇ쎯ㄕㄥˇ0쎯	-9.55362
▁ㄍㄡˋ0쎯ㄔㄥˊ0쎯	-9.55363
ㄑㄧˊ0쎯	-9.55383
▁ㄉㄧㄥ0쎯	-9.55388
▁ㄎㄠˋ1쎯	-9.55393
▁ㄨˋ3쎯ㄌㄧㄡˊ3쎯	-9.55393
ㄐㄧㄚ4쎯	-9.55418
▁ㄍㄨㄤˇ0쎯ㄅㄛ4쎯	-9.55433
▁ㄘㄢˊ0쎯	-9.55493
▁ㄒㄧㄢˋ1쎯ㄒㄧㄤˋ2쎯	-9.55501
ㄙˇ쎯	-9.55585
▁ㄈㄟˊ0쎯	-9.55608
ㄖㄨㄥˊ2쎯	-9.5568
▁ㄑㄧㄝ쎯ㄔㄥˊ0쎯	-9.55707
ㄘㄞˇ1쎯	-9.55724
▁ㄈㄟˋ1쎯	-9.55733
▁ㄉㄧㄢˋ0쎯ㄌㄧˋ0쎯	-9.55801
ㄇㄢˇ0쎯	-9.55918
ㄎㄨㄥˋ0쎯	-9.5597
▁ㄙㄜˋ0쎯ㄘㄞˇ1쎯	-9.56004
▁ㄅㄧㄠˇ0쎯ㄧㄢˇ3쎯	-9.56015
▁ㄉㄢˋ5쎯	-9.56082
▁ㄕ3쎯ㄖㄣˊ0쎯	-9.56105
▁ㄗㄨˇ2쎯	-9.56121
▁쎁쎉쎇쎉	-9.56139
ㄧㄡˊ1쎯	-9.56166
ㄩˊ2쎯	-9.56219
ㄗㄥˋ0쎯ㄍㄜˇ1쎯ㄒㄧㄥˋ2쎯	-9.56305
ㄈㄤ1쎯	-9.56309
▁ㄕˊ3쎯ㄩㄥˋ0쎯	-9.56407
▁ㄧˋ18쎯ㄧˋ1쎯	-9.56549
▁ㄉㄚˋ쎯ㄓㄨㄢ0쎯	-9.56667
▁ㄊㄨㄥˊ0쎯ㄋㄧㄢˊ0쎯	-9.56676
▁ㄍㄞˋ5쎯ㄋㄧㄢˋ0쎯	-9.56691
▁ㄞˋ1쎯ㄑㄧㄥˊ0쎯	-9.56703
▁ㄑㄩㄣˊ1쎯ㄓㄨㄥˋ1쎯	-9.56726
▁ㄓˋ3쎯ㄉㄧㄥˋ1쎯	-9.56761
▁ㄒㄩㄥˊ0쎯	-9.56803
▁ㄖㄨㄥˊ2쎯ㄩˋ15쎯	-9.56828
ㄍㄨㄚ0쎯	-9.56849
▁ㄖㄡˊ0쎯	-9.56906
ㄒㄧㄚˋ1쎯	-9.56938
▁ㄩㄢˊ9쎯ㄩˊ0쎯	-9.56945
▁ㄏㄨㄣˋ0쎯	-9.56956
▁ㄊㄠˊ2쎯	-9.57029
▁ㄐㄧㄤˋ1쎯ㄕㄨㄟˇ쎯	-9.5704
▁ㄧㄢˊ6쎯ㄐㄧㄡ1쎯ㄩㄢˊ2쎯	-9.57148
▁ㄋㄟˋ쎯ㄅㄨˋ4쎯	-9.57196
ㄏㄨㄟˋ9쎯	-9.57223
▁ㄗㄠˋ2쎯ㄔㄥˊ0쎯	-9.5723
▁ㄅㄧˋ13쎯	-9.57231
▁<	-9.5731
ㄧˊ0쎯	-9.57342
ˊ8쎯	-9.57374
ˊ1쎯	-9.57406
ㄊㄤˊ5쎯	-9.57434
▁ㄜˇ쎯	-9.57457
▁쎁쎉쎅쎈	-9.57488
▁ㄏㄨˋ2쎯	-9.57495
▁ㄎㄨㄚˋ1쎯	-9.5757
▁ㄔㄣˊ3쎯	-9.57577
▁ㄔㄥˊ0쎯ㄔㄤˊ0쎯	-9.57584
▁ㄐㄩˇ2쎯	-9.57622
ㄓㄠˋ2쎯	-9.57623
▁ㄕˇ3쎯ㄐㄧㄢˋ2쎯	-9.57663
▁ㄐㄧˋ1쎯ㄌㄨˋ0쎯	-9.57691
▁ㄓㄥ8쎯	-9.57702
ㄒㄧㄝˊ1쎯	-9.57713
▁ㄓㄨㄥ3쎯	-9.57737
▁ㄨㄟˊ6쎯	-9.57741
▁쎃ㄩㄝˋ0쎯	-9.57763
ㄇㄥˊ1쎯	-9.5777
▁ㄑㄧˊ0쎯ㄑㄩㄢˊ1쎯	-9.57777
▁쎁쎉쎉쎆	-9.57798
쎁쎂	-9.57807
▁ㄇㄧㄥˋ쎯ㄇㄧㄥˊ0쎯	-9.57895
▁ㄋㄟˋ쎯ㄓˋ13쎯	-9.57914
▁쎃쎃	-9.57915
▁ㄕˊ4쎯ㄩㄥˋ0쎯	-9.57924
▁ㄓㄨㄤ3쎯ㄅㄟˋ2쎯	-9.58006
ㄔㄣˊ5쎯	-9.58013
▁ㄍㄨㄟ2쎯ㄍㄜˊ2쎯	-9.58111
ㄨㄛ0쎯	-9.58128
▁쎁쎂쎀	-9.5815
▁ㄧㄥˇ1쎯ㄕˋ12쎯	-9.58155
▁ㄧㄡˋ2쎯	-9.58194
▁ㄧㄡˇ1쎯ㄒㄧㄢˋ2쎯	-9.58257
ㄐㄧㄝˊ1쎯	-9.58301
▁ㄒㄧㄤˊ0쎯ㄒㄧˋ1쎯	-9.58324
▁ㄓㄨㄥ2쎯	-9.58415
ㄠˋ3쎯	-9.58458
▁ㄈㄨˋ4쎯ㄐㄧㄣˋ1쎯	-9.58471
ㄏㄨㄢˊ0쎯	-9.58519
▁ㄕˋ8쎯ㄐㄧㄢˋ1쎯	-9.58526
ㄇㄥ쎯	-9.5856
▁ㄏㄨㄚˊ3쎯	-9.5862
▁ㄇㄞˋ3쎯	-9.5864
▁ㄐㄧㄥˋ1쎯	-9.58652
▁ㄉㄧㄠˋ2쎯ㄔㄚˊ2쎯	-9.58672
▁ㄖㄣˊ0쎯ㄕㄨˇ5쎯	-9.58676
▁ㄏㄤˊ2쎯ㄓㄡ1쎯	-9.58691
▁ㄖˋ0쎯ㄐㄧ13쎯	-9.58692
▁ㄔㄨㄥ1쎯ㄈㄣ0쎯	-9.58698
ㄕㄢˋ0쎯	-9.5875
ㄐㄧㄥ8쎯	-9.58762
▁ㄘㄥˊ1쎯ㄖㄣˊ3쎯	-9.5877
▁쎇쎅	-9.58776
ㄑㄧˊ1쎯	-9.5881
▁ㄋㄟˋ쎯ㄇㄥ쎯ㄍㄨˇ0쎯	-9.5883
ㄏㄨㄛˊ0쎯	-9.58841
▁ㄔㄤˊ4쎯ㄩㄥˋ0쎯	-9.58861
▁ㄧㄡ0쎯	-9.58899
▁ㄅㄢˋ0쎯ㄌㄧˇ3쎯	-9.58911
▁ㄕㄤ0쎯	-9.58927
▁ㄘㄞˊ2쎯ㄨˋ2쎯	-9.58965
ㄕˊ2쎯	-9.59024
▁ㄎㄨˋ0쎯	-9.59061
▁ㄐㄧㄥˇ2쎯	-9.59163
▁ㄩˇ4쎯	-9.59176
▁ㄅㄢˋ0쎯ㄍㄨㄥ2쎯	-9.59259
▁쎁쎉쎇쎈	-9.59374
ㄨㄤˇ2쎯	-9.5938
▁ㄒㄧ6쎯ㄕㄥ3쎯	-9.59407
▁ㄘㄜˋ3쎯ㄕˋ11쎯	-9.59448
▁ㄕㄤˋ0쎯	-9.59606
▁ㄗ2쎯ㄅㄣˇ0쎯	-9.59625
▁ㄧㄚˇ쎯	-9.59665
▁ㄓㄥˇ1쎯ㄊㄧ0쎯	-9.59686
▁ㄊㄨㄥˇ0쎯ㄐㄧˋ0쎯	-9.59754
ㄆㄨˇ1쎯	-9.59756
ㄎㄜˋ1쎯	-9.59786
ㄑㄧㄡ1쎯	-9.59799
ˊ9쎯	-9.59857
▁ㄆㄧˊ0쎯ㄈㄨ1쎯	-9.5987
ㄓㄨ	-9.59903
2	-9.59936
▁ㄒㄧㄥˋ3쎯	-9.59968
▁ㄗㄨㄣ0쎯	-9.60062
▁쎀쎈	-9.60099
▁ㄍㄨㄛˊ0쎯ㄨˋ2쎯ㄩㄢˋ2쎯	-9.60108
▁ㄌㄨˇ2쎯	-9.60189
▁ㄕㄨˇ5쎯ㄌㄧㄤˊ3쎯	-9.60261
▁ㄔㄥˊ0쎯ㄕㄡˊ쎯	-9.60312
ㄓˊ1쎯	-9.60316
▁ㄏㄤˊ3쎯	-9.60355
▁ㄧㄡ0쎯ㄇㄟˇ1쎯	-9.60447
▁ㄕˋ2쎯ㄈㄢˋ3쎯	-9.60458
ㄘˇ0쎯	-9.60535
▁ㄑㄧㄢˊ4쎯	-9.60548
▁ㄕㄣ2쎯ㄊㄧ0쎯	-9.60671
▁ㄋㄧㄥˊ0쎯	-9.60694
▁ㄋㄚ1쎯ㄅㄟˇ쎯	-9.60706
▁ㄉㄤˇ1쎯ㄐㄧㄠˋ2쎯	-9.60721
▁ㄘㄜˋ3쎯ㄌㄧㄤˊ3쎯	-9.60739
▁ㄓㄢˇ2쎯ㄕˋ2쎯	-9.6083
ㄔㄣˊ0쎯	-9.6085
▁ㄙㄨˋ2쎯ㄓˋ4쎯	-9.60881
▁ㄕˋ4쎯ㄡ0쎯	-9.60952
ㄊㄞˋ2쎯	-9.60954
▁ㄊㄧㄥˊ3쎯	-9.60994
▁ㄅㄠˇ2쎯ㄓㄥˋ0쎯	-9.61001
ㄅㄟˇ쎯ㄐㄧㄥ1쎯	-9.61117
▁ㄇㄟˊ0쎯	-9.61119
▁ㄧˇ2쎯ㄏㄡˋ0쎯	-9.61135
ㄍㄤ6쎯	-9.61175
ㄌㄧㄤˋ0쎯	-9.61211
▁ㄊㄧㄝ1쎯	-9.61213
ㄩˇ0쎯	-9.61246
▁ㄊㄡˋ쎯	-9.61297
▁ㄧㄢˇ3쎯	-9.61324
▁ㄓㄥˋ3쎯ㄒㄧㄝˊ1쎯	-9.61377
쎄쎅	-9.61381
▁ㄒㄧㄢˇ0쎯ㄎㄚˇ0쎯	-9.61401
ㄊㄤ0쎯	-9.61415
▁ㄉㄨˋ0쎯	-9.61443
▁ㄩˇ3쎯	-9.61448
▁ㄐㄧㄢ9쎯	-9.61526
ㄆㄛ0쎯	-9.61547
ㄇㄠˋ4쎯	-9.61563
▁쎆쎀쎀	-9.61718
ㄎㄨㄤˋ2쎯	-9.61724
▁ㄙ3쎯	-9.61753
▁ㄧㄤˊ1쎯	-9.61829
▁ㄙㄨㄟˊ1쎯ㄓㄠ2쎯	-9.61878
ㄨㄣˊ1쎯	-9.6188
▁ㄩㄢˊ4쎯ㄌㄧˇ3쎯	-9.6192
▁쎆ㄩㄝˋ0쎯	-9.6204
ㄌㄡˋ2쎯	-9.62076
▁ㄌㄧㄢˊ4쎯ㄐㄧˋ3쎯	-9.621
▁ㄒㄧㄣ5쎯ㄐㄧㄤ6쎯	-9.62162
▁ㄈㄨˊ5쎯ㄓㄨㄤ3쎯	-9.62166
▁ㄔㄨㄥˊ2쎯ㄉㄚˋ쎯	-9.62313
▁ㄧㄡˇ1쎯ㄐㄧ6쎯	-9.62327
▁ㄐㄧㄥˋ6쎯	-9.62329
▁ㄔㄤˋ2쎯	-9.62392
“	-9.62416
ㄕˊ0쎯	-9.62479
ㄈㄨˋ7쎯	-9.62582
▁ㄉㄡˋ0쎯	-9.62586
▁ㄐㄧㄥ4쎯	-9.62615
▁ㄧㄢˊ0쎯	-9.62622
ㄏㄨㄥˊ4쎯	-9.62702
▁ㄅㄛ2쎯ㄌㄧˊ7쎯	-9.62725
▁ㄕㄠˇ쎯ㄒㄩˇ0쎯	-9.62726
ㄙㄢˇ1쎯	-9.62736
ㄓㄥ5쎯	-9.62792
ㄉㄨㄢˋ1쎯	-9.62818
▁ㄈㄨˊ7쎯	-9.62841
▁ㄧㄢ2쎯	-9.62886
ㄕㄚ0쎯	-9.62932
▁ㄨˇ7쎯	-9.62933
▁ㄇㄟˊ2쎯	-9.62935
ㄐㄧˋ9쎯	-9.62963
▁ㄐㄧˊ5쎯	-9.63019
▁쎈쎀쎀	-9.63027
▁ㄍㄞˇ쎯ㄅㄧㄢˋ0쎯	-9.63102
ㄅㄟˋ0쎯	-9.6311
ㄐㄧㄣˋ1쎯	-9.63145
▁ㄓㄡ2쎯ㄅㄧㄢ0쎯	-9.63183
ㄏㄨˇ0쎯	-9.63215
ㄅㄤ0쎯	-9.63238
▁ㄓㄨˊ1쎯	-9.63239
▁ㄏㄨㄟˋ1쎯	-9.63265
▁ㄏㄨˋ0쎯	-9.63294
▁ㄇㄛˊ5쎯	-9.63308
▁ㄈㄣ0쎯ㄅㄧㄢˋ3쎯ㄌㄩˋ2쎯	-9.63319
ㄇㄛˊ4쎯	-9.63363
ㄏㄨㄟ3쎯	-9.6347
▁ㄔㄥˊ3쎯ㄉㄢ1쎯	-9.63473
▁쎃쎇	-9.63474
ㄏㄤˊ3쎯	-9.63476
▁ㄕㄡ쎯ㄌㄨˋ0쎯	-9.63494
ㄨ0쎯	-9.63495
▁쎅쎅	-9.63528
ㄧˊ9쎯	-9.63544
▁쎁ㄩㄝˋ0쎯	-9.63547
▁ㄅㄨˋ4쎯ㄉㄨㄟˋ0쎯	-9.63574
▁ㄇㄧˊ1쎯	-9.63579
ㄩˋ3쎯	-9.63586
▁ㄍㄜˊ2쎯ㄕˋ5쎯	-9.63592
▁ㄅㄠˇ2쎯ㄐㄧㄢˋ6쎯	-9.6361
▁ㄏㄨㄞˊ2쎯	-9.63731
▁̇ㄉㄜ0쎯ㄓㄣˋ2쎯	-9.63782
▁ㄉㄥˇ0쎯ㄐㄧˊ2쎯	-9.63804
▁ㄕㄡˇ1쎯	-9.63845
ㄐㄧㄚ3쎯	-9.63952
▁ㄍㄠ0쎯ㄐㄧㄠˋ2쎯	-9.63989
▁ㄒㄧㄣ5쎯ㄒㄧㄥˊ2쎯	-9.64031
▁ㄐㄧㄚ0쎯ㄐㄧㄤˋ2쎯	-9.64113
▁ㄊㄧㄢ0쎯ㄖㄢˊ0쎯	-9.64157
▁쎁쎀ㄩㄝˋ0쎯	-9.64165
▁ㄅㄛˊ5쎯ㄨˋ3쎯ㄍㄨㄢˇ0쎯	-9.64174
▁쎉쎈	-9.64197
ㄑㄧˊ8쎯	-9.6423
ㄊㄢˊ0쎯	-9.64254
▁ㄔㄥˊ0쎯ㄉㄡ0쎯	-9.64263
▁ㄖㄣˊ0쎯ㄉㄚˋ쎯	-9.64294
ㄖㄣˊ0쎯ㄇㄧㄣˊ0쎯ㄍㄨ	-9.64317
▁쎀쎃	-9.64374
ㄑㄧㄝ쎯	-9.64376
▁̇ㄉㄜ0쎯ㄓˇ2쎯	-9.64395
ㄉㄡˇ0쎯	-9.64396
ㄕㄤ1쎯ㄨˋ2쎯	-9.64447
▁ㄈㄥˋ1쎯	-9.64491
▁ㄔㄥˊ0쎯ㄐㄧˋ15쎯	-9.64518
▁ㄙㄨㄛˇ0쎯ㄕㄨˇ1쎯	-9.64533
▁ㄕㄥˇ0쎯ㄨㄟˇ5쎯	-9.64557
▁ㄖㄣˊ3쎯ㄐㄧㄠ6쎯	-9.64624
▁ㄙㄨㄟˊ2쎯	-9.64674
ㄇㄛˋ8쎯	-9.64694
▁ㄆㄥˊ0쎯ㄧㄡˇ0쎯	-9.647
▁ㄍㄨㄥ3쎯ㄌㄩˋ2쎯	-9.64701
▁ㄉㄨㄟˋ1쎯ㄒㄧㄤˋ2쎯	-9.64709
▁ˋ	-9.64831
ㄒㄩㄝˊ1쎯ㄏㄨㄟˋ2쎯	-9.64888
▁ㄔㄥˊ3쎯	-9.649
▁ㄉㄨㄥ0쎯ㄈㄤ0쎯	-9.64949
▁ㄍㄨㄥ0쎯ㄗㄨㄛ0쎯ㄓㄜˇ0쎯	-9.65016
▁ㄧㄚ1쎯ㄌㄧˋ0쎯	-9.65203
▁ㄓˋ11쎯ㄋㄥˊ쎯	-9.65212
▁ㄉㄨˊ0쎯	-9.65263
▁ㄉㄨㄥ1쎯	-9.65324
ㄈㄤˊ0쎯	-9.65334
▁ㄔㄨ0쎯ㄔㄨˇ0쎯	-9.65346
▁ㄉㄢˋ0쎯ㄧㄡˊ4쎯	-9.65355
▁̇ㄉㄜ0쎯ㄒㄧㄚˋ0쎯	-9.65383
ㄒㄧㄠˇ1쎯	-9.65401
▁ㄧㄡˊ3쎯	-9.65409
▁ㄙㄨㄟ0쎯	-9.65417
▁ㄊㄨˊ0쎯ㄆㄧㄢ0쎯	-9.65448
▁ㄇㄟˇ1쎯ㄖㄨㄥˊ4쎯	-9.65538
▁ㄒㄧ11쎯	-9.6555
▁ㄒㄧㄣˋ0쎯ㄏㄠˊ0쎯	-9.65567
▁ㄇㄥˋ1쎯	-9.6559
▁ㄊㄜˋ0쎯ㄒㄧㄥˋ2쎯	-9.65603
▁ㄏㄨㄥˊ4쎯	-9.65611
▁ㄑㄩㄝˋ1쎯ㄉㄧㄥˋ1쎯	-9.65683
ㄓˊ3쎯	-9.65714
▁ㄌㄧㄥˊ10쎯	-9.65816
▁ㄘㄠˊ1쎯	-9.65818
▁ㄍㄨㄟ2쎯	-9.65952
▁̇ㄉㄜ0쎯ㄑㄧㄡˊ2쎯	-9.66023
▁」	-9.66061
▁ㄧㄥˇ1쎯	-9.66126
▁ㄅㄠˇ2쎯ㄓㄤˋ6쎯	-9.66155
ㄔㄨㄢˊ1쎯	-9.66165
▁ㄆㄞˊ2쎯	-9.66175
▁ㄙㄨㄟ0쎯ㄖㄢˊ0쎯	-9.66186
▁ㄕˋ4쎯ㄓㄥˋ3쎯ㄈㄨˇ3쎯	-9.66261
ㄗㄨㄥˇ0쎯ㄐㄧㄥ2쎯ㄌㄧˇ3쎯	-9.66271
▁쎉ㄩㄝˋ0쎯	-9.66303
▁ㄒㄧ1쎯ㄢ0쎯	-9.66407
▁ㄓㄥ2쎯	-9.66462
▁ㄧㄢˊ6쎯ㄓˋ3쎯	-9.66482
▁ㄙㄢ0쎯ㄕˊ0쎯	-9.66482
ㄎㄠˇ0쎯	-9.66547
▁ㄅㄟˋ0쎯	-9.66574
ㄨㄛˋ0쎯	-9.66607
▁ㄩㄝˋ2쎯ㄉㄡˋ2쎯	-9.66652
▁ㄩˋ8쎯	-9.66652
▁ㄓㄨㄤ3쎯ㄓˋ13쎯	-9.66658
▁ㄔㄡ0쎯	-9.6672
ㄕㄥˋ0쎯	-9.66759
ㄨㄣˊ2쎯	-9.66767
▁ㄧㄡˊ0쎯ㄑㄧˊ1쎯	-9.66916
ㄧˋ9쎯	-9.66939
▁ㄓㄠˋ2쎯	-9.6696
▁ㄏㄨㄥˊ1쎯ㄙㄜˋ0쎯	-9.66965
▁ㄨㄟ1쎯	-9.67047
ㄓㄨㄥˋ1쎯	-9.67116
▁ㄈ	-9.67119
▁ㄐㄧㄢˇ5쎯ㄔㄚˊ2쎯	-9.67152
▁ㄅㄛ4쎯ㄈㄤˋ쎯	-9.67177
▁ㄕㄚ4쎯	-9.67184
ㄨㄟˇ0쎯	-9.67307
ㄍㄜ2쎯	-9.67332
▁ㄓㄥ5쎯	-9.6737
ㄓㄨˋ3쎯	-9.67391
ㄏㄨˋ0쎯ㄌㄧㄢˊ4쎯ㄨㄤˇ0쎯	-9.67402
▁ㄧㄚˋ1쎯ㄓㄡ3쎯	-9.67482
▁ㄧˊ0쎯ㄑㄧˋ7쎯	-9.67489
▁ㄒㄩㄢˊ0쎯	-9.67495
▁ㄈㄢˇ0쎯ㄧㄥˋ0쎯	-9.67521
▁ㄧㄥˋ1쎯ㄆㄢˊ1쎯	-9.67547
▁쎁쎁ㄩㄝˋ0쎯	-9.67614
▁쎃쎄	-9.67633
▁ㄕˊ3쎯ㄌㄧˋ0쎯	-9.67641
▁ㄍㄨㄚˋ1쎯	-9.67651
▁ㄨㄣˊ0쎯ㄧˋ2쎯	-9.67663
▁ㄉㄨㄥˋ3쎯	-9.67708
ㄉㄥ0쎯	-9.67719
ㄎㄨㄢˇ쎯	-9.67755
▁ㄊㄧㄢ0쎯ㄒㄧㄚˋ0쎯	-9.67763
▁ㄉㄧㄠˋ2쎯ㄓㄥˇ1쎯	-9.67802
▁ㄔㄨㄤ0쎯ㄌㄧˋ3쎯	-9.67889
▁「	-9.67909
ㄐㄧㄣ4쎯	-9.67944
▁ㄉㄢ0쎯	-9.67975
ㄒㄩㄥˊ0쎯	-9.67985
▁ㄐㄧㄚˋ2쎯	-9.67994
▁ㄇㄧㄠˇ0쎯	-9.68013
▁ㄅㄧˊ0쎯	-9.68173
▁ㄗ2쎯ㄍㄜˊ2쎯	-9.68191
▁ㄌㄧㄤˊ1쎯	-9.68236
▁ㄒㄧㄤˋ3쎯ㄙㄨˋ2쎯	-9.68329
▁ㄒㄧㄢˊ3쎯	-9.68331
▁ㄈㄣ0쎯ㄗˇ0쎯	-9.68404
▁ㄨㄣˊ0쎯ㄓㄤ1쎯	-9.68418
ㄐㄧㄥ2쎯ㄐㄧˇ3쎯	-9.68437
▁ㄋㄧㄢˊ0쎯ㄉㄨˋ2쎯	-9.6848
▁ㄋㄩˇ0쎯ㄗˇ0쎯	-9.68571
ㄧㄢˊ6쎯	-9.6869
▁ㄒㄧㄠ2쎯	-9.68728
▁ㄆㄧˊ6쎯ㄌㄧㄣˊ0쎯	-9.68767
▁ㄐㄧˋ11쎯	-9.68842
▁ㄐㄧㄥˋ8쎯	-9.68847
▁ㄇㄛˊ0쎯ㄒㄧㄢˋ3쎯	-9.68898
ㄔㄚˊ3쎯	-9.68903
▁ㄐㄧˊ8쎯ㄓㄨㄥ0쎯	-9.68979
ㄈㄥˋ0쎯	-9.69001
▁ㄌㄧˇ3쎯ㄒㄧㄤˇ2쎯	-9.6905
▁ㄘㄠˊ0쎯	-9.69085
▁ㄕˋ16쎯ㄧㄥ0쎯	-9.69103
▁ㄧㄢˇ3쎯ㄔㄨ0쎯	-9.69245
▁ㄧˋ18쎯ㄙ3쎯	-9.69289
ㄌㄨㄢˋ쎯	-9.69365
▁ㄅㄧˋ7쎯ㄕㄨ0쎯ㄔㄤˊ0쎯	-9.69407
▁̇ㄉㄜ0쎯ㄨㄟˋ2쎯	-9.69453
ㄓㄨㄥ0쎯ㄒㄧㄣ0쎯	-9.69454
▁ㄍㄨˇ1쎯	-9.69507
ㄍㄨ	-9.69514
▁쎁쎉쎄쎉	-9.69543
ㄨㄟˋ6쎯	-9.69561
▁ㄕㄤˇ0쎯ㄕˋ4쎯	-9.69597
▁ㄍㄡˋ1쎯ㄨˋ3쎯	-9.69615
▁ㄆㄛ2쎯	-9.69732
ㄧㄣ0쎯	-9.69735
▁ㄐㄧㄤ0쎯ㄒㄧ1쎯ㄕㄥˇ0쎯	-9.6981
ㄨˇ2쎯	-9.69811
▁ㄘˊ6쎯	-9.69898
ㄕㄜˋ3쎯	-9.69977
▁ㄇㄛˊ3쎯	-9.70015
ㄖㄣˊ0쎯ㄩㄢˊ2쎯	-9.70133
ㄈㄨˋ11쎯	-9.70166
▁ㄉㄧㄢˋ3쎯	-9.70189
▁ㄉㄧㄢˇ0쎯ㄒㄧㄥˊ2쎯	-9.70198
ㄌㄧˊ3쎯	-9.70244
ㄌㄨㄣˊ4쎯	-9.70355
▁ㄨㄚˇ0쎯	-9.70385
ㄒㄧㄤˋ2쎯	-9.70483
▁ㄎㄞ0쎯ㄈㄤˋ쎯	-9.70503
▁ㄇㄟˇ0쎯ㄋㄧㄢˊ0쎯	-9.70531
▁ㄅㄛˊ5쎯ㄕˋ0쎯ㄕㄥ1쎯	-9.70532
ㄨˇ7쎯	-9.70576
ㄊㄨㄥˋ0쎯	-9.70588
ㄉㄢˋ5쎯	-9.70619
ˊ6쎯	-9.70684
▁ㄐㄧㄝ4쎯ㄕㄡˋ1쎯	-9.70705
▁ㄓㄤˇ1쎯ㄨㄛˋ2쎯	-9.70745
ㄧㄥˊ3쎯	-9.70801
▁ㄋㄧˇ0쎯	-9.70906
ㄓㄨˋ7쎯	-9.70911
▁ㄉㄧ2쎯ㄕㄥ0쎯	-9.70948
▁ㄉㄧˊ1쎯	-9.70965
ㄌㄩˋ0쎯	-9.71029
쎁쎃	-9.71082
쎁쎆	-9.71118
▁ㄇㄧㄢˇ0쎯ㄈㄟˋ4쎯	-9.71128
▁ㄐㄧˋ11쎯ㄒㄩˋ6쎯	-9.71142
▁ㄍㄨˇ4쎯	-9.71208
▁ㄧㄣˇ1쎯	-9.71237
▁ㄨㄟˋ3쎯ㄐㄧㄥ8쎯	-9.71263
ㄕㄣ5쎯	-9.71272
▁ㄗㄨˇ1쎯ㄐㄧㄢˋ2쎯	-9.71298
▁ㄔㄨ0쎯ㄎㄡˇ쎯	-9.71305
▁쎀쎅	-9.71384
ㄓˋ13쎯	-9.71416
▁쎆쎄	-9.71444
▁ㄏㄨㄚ0쎯ㄩㄢˊ1쎯	-9.71599
ㄧㄢˋ5쎯	-9.71632
ㄧㄢ2쎯	-9.71684
▁쎁쎉쎆쎃	-9.71717
▁ㄍㄜˇ1쎯ㄌㄧˇ3쎯	-9.71747
▁ㄉㄥˇ0쎯ㄉㄥˇ0쎯	-9.71759
▁ㄐㄧㄝ1쎯ㄉㄨㄢˋ0쎯	-9.71807
▁ㄨㄟˊ6쎯ㄏㄨˋ2쎯	-9.71859
ㄉㄧˋ4쎯	-9.71898
▁ㄔˇ0쎯	-9.71902
▁ㄉㄨㄥ0쎯ㄅㄨˋ4쎯	-9.71926
▁ㄈㄨˋ2쎯	-9.71939
▁ㄐㄧㄥ2쎯ㄌㄧˋ1쎯	-9.7194
ㄐㄧㄚ2쎯	-9.71945
▁ㄧㄡˊ0쎯	-9.71978
▁ㄌㄧˋ1쎯	-9.72
▁ㄖㄣˊ0쎯ㄊㄧ0쎯	-9.72023
▁ㄔㄨˇ3쎯	-9.7205
▁ㄕˊ0쎯ㄧ0쎯	-9.7206
ㄌㄧㄤˊ2쎯	-9.72116
▁ㄌㄧ	-9.72126
▁ㄧˊ8쎯ㄓˇ2쎯	-9.72137
▁ㄗㄨㄥˇ0쎯ㄅㄨˋ4쎯	-9.7217
▁ㄆㄤˊ1쎯	-9.72233
ㄐㄧㄢˋ6쎯	-9.72234
▁ㄓㄨㄥ0쎯ㄅㄨˋ4쎯	-9.72289
▁ㄇㄧㄠˊ0쎯	-9.72424
ㄍㄨㄥ0쎯ㄔㄥˊ7쎯	-9.72464
▁ㄓˊ1쎯ㄐㄧㄥˋ0쎯	-9.72522
▁ㄧㄢˊ1쎯	-9.72549
▁ㄊㄨㄥˋ0쎯	-9.7262
▁ㄑㄧˇ3쎯	-9.72673
ㄓ3쎯	-9.72693
▁ㄎㄜˋ2쎯ㄈㄤˊ3쎯	-9.72736
▁ㄨㄞˋ쎯ㄒㄧㄥˊ1쎯	-9.72769
ㄒㄧㄢˊ1쎯	-9.72785
▁ㄓㄣ1쎯ㄉㄨㄟˋ1쎯	-9.72847
▁ㄔㄨㄢ0쎯	-9.72897
▁ㄐㄧㄝˇ1쎯ㄕˋ20쎯	-9.72908
▁ㄩˋ3쎯	-9.72929
▁쎀쎆	-9.73015
▁ㄐㄩˇ2쎯ㄏㄤˊ0쎯	-9.73107
ㄉㄨㄣˋ3쎯	-9.73122
▁ㄕㄣˋ1쎯ㄓˋ0쎯	-9.73285
▁ㄎㄨㄥ0쎯ㄑㄧˋ0쎯	-9.73307
▁ㄍㄜˇ1쎯ㄅㄧㄥ1쎯	-9.73316
▁ㄕˋ6쎯	-9.73393
▁ㄈㄨˋ6쎯	-9.73447
ㄌㄧㄝˋ2쎯	-9.73465
▁ㄞˋ0쎯	-9.73489
▁ㄐㄧㄣˋ1쎯ㄋㄧㄢˊ0쎯	-9.73526
▁쎁쎉쎅쎆	-9.73547
▁ㄕㄡˇ0쎯ㄕㄨˋ0쎯	-9.73629
ㄨㄥ0쎯	-9.73733
▁ㄒㄧ3쎯ㄨㄤˋ3쎯	-9.73779
▁ㄈㄨˋ0쎯ㄑㄧㄣ2쎯	-9.73817
▁ㄗㄠˋ2쎯ㄒㄧㄥˊ2쎯	-9.73902
▁ㄧㄡ0쎯ㄩㄝˋ5쎯	-9.73922
ㄐㄧㄝ4쎯	-9.73923
▁ㄓ3쎯	-9.73944
▁ㄐㄧㄡˋ3쎯	-9.73964
▁ㄍㄨㄥ3쎯ㄒㄧㄠˋ3쎯	-9.73964
▁ㄐㄩㄣ1쎯ㄩㄣˊ1쎯	-9.74013
ㄊㄢ2쎯	-9.74082
▁ㄨㄟˋ5쎯	-9.74125
▁ㄅㄟ2쎯ㄐㄧㄥˇ1쎯	-9.74177
▁ㄋㄧㄢˊ0쎯ㄐㄧㄢ4쎯	-9.74251
▁ㄏㄞˇ0쎯ㄧㄤˊ4쎯	-9.74275
▁ㄍㄥ0쎯ㄇㄧㄥˊ0쎯	-9.74343
ㄔㄢˊ0쎯	-9.74347
▁ㄨㄟˊ2쎯	-9.74395
▁ㄒㄧㄝˊ5쎯	-9.7454
▁ㄍㄤ2쎯	-9.7459
▁ㄐㄧㄝˋ5쎯	-9.746
▁ㄘㄥˊ1쎯ㄐㄧㄥ2쎯	-9.7461
▁ㄐㄧˊ8쎯ㄔㄥˊ0쎯	-9.74698
ㄒㄧㄣ5쎯ㄐㄧˋ2쎯ㄕㄨˋ0쎯	-9.74722
▁ㄉㄞ1쎯	-9.74724
▁ㄕㄣˋ1쎯	-9.74762
ㄧㄥ3쎯	-9.74764
▁ㄐㄧㄚ4쎯	-9.74858
▁ㄧ2쎯	-9.74867
▁ㄓㄠ0쎯	-9.74905
▁ㄩㄥˋ0쎯ㄈㄚˇ0쎯	-9.75034
▁ㄕㄜˋ4쎯ㄐㄧˊ0쎯	-9.75078
▁ㄓㄥ0쎯ㄔㄤˊ4쎯	-9.75172
▁ㄧㄠ5쎯	-9.75197
ㄎㄨㄥˇ0쎯	-9.75286
▁ㄓˇ0쎯	-9.75299
쎄쎈	-9.75314
▁ㄓㄣˇ0쎯ㄉㄨㄢˋ1쎯	-9.75319
▁ˊ	-9.75337
ㄡ1쎯	-9.75341
ㄒㄧㄢˋ1쎯	-9.75445
ㄍㄨˋ1쎯	-9.75455
▁쎄쎂	-9.75466
▁ㄍㄨㄣˇ0쎯	-9.75478
▁쎄쎃	-9.7555
ㄕㄢ0쎯ㄕˋ4쎯	-9.75594
ㄧㄤˊ3쎯	-9.75641
▁ㄎㄜˋ3쎯	-9.75762
ㄏㄨㄞˊ0쎯	-9.7579
▁ㄧㄡˋ2쎯ㄦˊ0쎯ㄩㄢˊ1쎯	-9.75795
▁ㄕˇ3쎯	-9.75856
▁ㄔㄥˊ0쎯ㄅㄣˇ0쎯	-9.76021
▁ㄍㄨㄥ6쎯	-9.76052
▁ㄏㄨㄢˋ5쎯ㄓㄜˇ0쎯	-9.76127
▁ㄕㄜˋ3쎯	-9.76136
ㄢˋ5쎯	-9.76186
▁ㄎㄤ0쎯	-9.76191
▁쎅ㄩㄝˋ0쎯	-9.76216
ㄆㄟˋ2쎯	-9.76219
▁ㄓㄨㄥ0쎯ㄐㄧㄢ4쎯	-9.76227
ㄓㄨˋ1쎯	-9.76251
▁ㄘㄨㄛˋ2쎯	-9.76315
ㄓˇ3쎯	-9.76317
▁쎄ㄩㄝˋ0쎯	-9.76348
ㄔㄤˊ2쎯	-9.76357
▁ㄌㄨˋ0쎯	-9.76377
ㄊㄨˊ1쎯	-9.76379
쎁쎈	-9.76385
▁쎆쎅	-9.76468
▁ㄒㄩㄣˋ3쎯ㄙㄨˋ3쎯	-9.76476
ˋ7쎯	-9.76493
▁ㄓㄢˋ1쎯ㄕˋ0쎯	-9.76498
ㄦˇ1쎯	-9.76563
▁ㄕㄣ5쎯ㄖㄨˋ0쎯	-9.76604
ㄉㄧㄢˋ0쎯ㄕˋ12쎯ㄐㄩˋ4쎯	-9.76752
▁ㄅㄚˋ0쎯	-9.76753
ㄨㄣˊ0쎯ㄒㄩㄝˊ1쎯	-9.76946
▁ㄊㄢˋ3쎯	-9.76948
ㄌㄧㄢˊ3쎯	-9.76973
▁ㄙㄨㄢˋ0쎯	-9.77029
▁ㄈㄥˋ0쎯	-9.77049
▁쎁쎉쎆쎄	-9.77071
ㄙㄨˋ3쎯ㄍㄨㄥ2쎯ㄌㄨˋ5쎯	-9.77086
ㄐㄩˇ2쎯	-9.77089
ㄧㄣ1쎯	-9.7711
▁ㄧˋ15쎯	-9.7711
▁ㄙㄨㄛˇ1쎯	-9.77117
▁ㄧㄢˇ3쎯ㄔㄤˋ2쎯	-9.77171
▁ㄕㄜˋ1쎯	-9.77174
▁ㄗㄨㄥˇ0쎯ㄖㄣˊ0쎯ㄎㄡˇ쎯	-9.77226
▁ㄐㄧˋ7쎯	-9.7725
ㄏㄟ0쎯	-9.77254
▁ㄧㄠˋ0쎯ㄨˋ3쎯	-9.77268
ㄧˊ1쎯	-9.7727
ㄎㄨㄞˋ0쎯	-9.77276
ㄐㄧㄠˋ1쎯	-9.77313
▁ㄇㄥ쎯	-9.77377
▁ㄎㄤˋ1쎯ㄖˋ0쎯	-9.77458
▁ㄒㄧㄠ2쎯ㄈㄟˋ4쎯ㄓㄜˇ0쎯	-9.77513
▁ㄐㄧㄥˇ0쎯	-9.77514
ㄢ2쎯	-9.7752
▁ㄓㄨㄢ0쎯ㄎㄜ2쎯	-9.77537
▁ㄅㄢˋ0쎯ㄈㄚˇ0쎯	-9.77606
ㄔㄠˊ3쎯	-9.77615
▁ㄍㄤ5쎯	-9.77617
▁ㄉㄧㄢˋ0쎯ㄕˋ12쎯ㄊㄞ0쎯	-9.77625
▁ㄑㄧㄢˋ1쎯ㄨㄟˊ6쎯	-9.77646
ㄌㄨˋ3쎯	-9.77744
▁ㄗㄨˇ0쎯	-9.77756
ㄣ1쎯	-9.77787
ㄏㄨㄛˋ1쎯	-9.77818
ㄑㄧㄡ0쎯	-9.77956
▁ㄙㄞˋ쎯	-9.77982
▁ㄕㄥˋ1쎯	-9.78024
ㄔㄨˊ0쎯	-9.78075
▁ㄓㄨㄟ0쎯ㄑㄧㄡˊ1쎯	-9.78133
▁ㄓㄨˇ0쎯ㄐㄧㄠˇ0쎯	-9.78174
▁ㄈㄣˋ0쎯	-9.78274
▁ㄔㄨㄢˊ0쎯ㄕㄨ9쎯	-9.78299
▁ㄔˋ2쎯	-9.7834
ㄌㄧㄣˊ2쎯	-9.78353
ㄉㄧㄢˋ9쎯	-9.78359
ㄌㄧˋ8쎯	-9.78377
ㄨㄣˋ0쎯	-9.78391
▁ㄍㄨㄥ4쎯	-9.78505
▁ㄓˇ4쎯ㄏㄨㄟ1쎯	-9.78623
▁ㄌㄨㄢˇ쎯	-9.78643
▁ㄒㄧㄤˊ0쎯	-9.78772
ㄕㄨˇ2쎯	-9.78873
▁ㄐㄧㄠ6쎯ㄩˋ3쎯ㄅㄨˋ4쎯	-9.78924
▁ㄑㄧˊ8쎯ㄒㄧㄚˋ0쎯	-9.7894
▁ㄉㄨㄥˋ2쎯	-9.78971
▁ㄕㄢˇ1쎯ㄒㄧ1쎯ㄕㄥˇ0쎯	-9.79034
ㄔㄨㄤ0쎯	-9.7904
▁ㄧㄣ4쎯ㄆㄧㄣˊ1쎯	-9.79054
▁ㄩㄢˊ4쎯ㄧㄣ0쎯	-9.79071
ㄅㄧˋ13쎯	-9.79093
▁ㄔㄨㄢˊ0쎯ㄕㄨㄟˋ0쎯	-9.79128
▁ㄖㄣˊ0쎯ㄕˋ0쎯	-9.79132
▁ㄓㄨㄣˇ0쎯	-9.79158
▁ㄏㄨㄟˋ9쎯	-9.79161
ㄌㄧㄡˊ0쎯	-9.79166
▁ㄉㄧㄥˋ1쎯ㄨㄟˋ2쎯	-9.79211
ㄧㄚˊ2쎯	-9.7929
▁ㄒㄧㄠˋ2쎯	-9.79335
▁ㄇㄧㄥˊ0쎯ㄗˋ1쎯	-9.79336
▁ㄒㄧㄤ0쎯ㄘㄨㄣ0쎯	-9.79343
▁ㄨㄢˊ1쎯ㄓㄥˇ1쎯	-9.79346
▁ㄐㄧㄢˇ5쎯ㄧㄢˋ5쎯	-9.79352
ㄕㄤˇ0쎯ㄏㄞˇ0쎯	-9.79353
▁ㄌㄧㄥˋ0쎯ㄨㄞˋ쎯	-9.79358
----------------	-9.79388
▁ㄓㄤˇ1쎯	-9.79457
ㄕㄨˋ2쎯	-9.79481
ㄕㄤˋ0쎯	-9.79494
▁ㄌㄢˊ0쎯	-9.79506
ㄑㄧㄡˊ1쎯	-9.79521
▁ㄓㄨˊ1쎯ㄐㄧㄢˋ9쎯	-9.79541
▁ㄓㄨˇ0쎯ㄍㄨㄢˇ1쎯	-9.79597
▁ㄅㄟ4쎯	-9.79628
▁ㄔㄨㄥ1쎯ㄇㄢˇ0쎯	-9.79638
쎂쎁	-9.79709
ㄌㄤˋ0쎯	-9.79769
ㄐㄧˋ2쎯ㄕㄨˋ0쎯	-9.79815
▁ㄏㄨㄣˋ0쎯ㄍㄜˇ1쎯	-9.79868
13쎯	-9.79887
▁ㄙㄨ0쎯ㄓㄡ1쎯	-9.79917
▁ㄉㄨㄟˋ0쎯ㄨˇ2쎯	-9.79943
ㄆㄧㄠˋ0쎯	-9.79964
▁ㄇㄧㄣˊ0쎯ㄍㄨㄛˊ0쎯	-9.79968
▁ㄗㄞˋ1쎯ㄓˊ4쎯	-9.79971
▁ㄉㄢˋ6쎯	-9.80058
▁ㄒㄧㄝˊ1쎯ㄉㄧㄠˋ2쎯	-9.80128
ㄔㄨ0쎯ㄅㄢˇ1쎯ㄕㄜˋ1쎯	-9.8017
▁ㄔㄚˊ2쎯	-9.8018
▁ㄑㄧㄤˊ0쎯	-9.80189
▁ㄒㄧㄥˊ1쎯ㄖㄨㄥˊ4쎯	-9.80223
▁ㄘㄢ1쎯ㄧㄣˇ1쎯	-9.80268
▁ㄒㄧㄣ2쎯	-9.80279
▁ㄉㄚˋ쎯ㄉㄠˋ3쎯	-9.80286
▁ㄐㄩㄣ2쎯	-9.8029
▁ㄘㄜˋ3쎯	-9.80307
▁ㄒㄧㄤ1쎯ㄊㄨㄥˊ0쎯	-9.80354
ㄍㄞˋ3쎯	-9.804
▁ㄓㄨˋ0쎯	-9.80418
▁ㄓㄡˊ0쎯ㄔㄥˊ3쎯	-9.8044
▁ㄧ0쎯ㄌㄧㄡˊ3쎯	-9.80457
▁ㄏㄨㄤˊ1쎯ㄙㄜˋ0쎯	-9.80607
▁ㄜˊ1쎯	-9.80645
▁쎀쎄	-9.80658
▁ㄑㄩㄢˊ1쎯ㄒㄧㄣ5쎯	-9.80664
ㄧ3쎯ㄒㄩㄝˊ1쎯ㄩㄢˋ2쎯	-9.80669
▁ㄩˋ6쎯ㄈㄤˊ0쎯	-9.8067
ㄘㄜˋ2쎯	-9.80731
쎃쎆	-9.80773
▁ㄅㄠˋ0쎯ㄍㄠˋ0쎯	-9.80908
ㄓㄨㄛˊ	-9.80976
ㄓˋ7쎯	-9.81027
▁쎄쎆	-9.81048
▁ㄉㄠˇ3쎯ㄖㄨˋ0쎯	-9.81059
▁ㄍㄚ0쎯	-9.81079
▁ㄏㄨㄢˋ2쎯	-9.8111
ㄐㄧㄠ1쎯	-9.81142
▁ㄓㄨˋ5쎯	-9.81184
▁ㄕˋ18쎯ㄋㄟˋ쎯	-9.81186
쎃쎅	-9.81187
▁ㄍㄨㄟˋ1쎯ㄓㄡ1쎯	-9.81243
▁ㄍㄨㄢ0쎯ㄓㄨˋ3쎯	-9.81278
ㄧㄤˊ1쎯	-9.81288
▁ㄉㄞˋ5쎯	-9.81291
▁ㄐㄧㄥ2쎯ㄔㄤˊ4쎯	-9.81361
▁ㄎㄞ0쎯ㄈㄚ쎯ㄡ0쎯	-9.81372
▁ㄐㄧˋ13쎯	-9.81451
ㄈㄟ2쎯	-9.8146
▁ㄍㄨㄢˇ0쎯	-9.81476
▁ㄒㄧㄝˋ5쎯	-9.81488
▁ㄓㄣ4쎯ㄕˊ3쎯	-9.81505
▁ㄉㄚˋ쎯ㄙㄞˋ쎯	-9.81528
▁ㄐㄧㄝˇ1쎯ㄈㄤˋ쎯ㄐㄩㄣ0쎯	-9.8153
▁ㄏㄨㄢ0쎯ㄧㄥˊ0쎯	-9.81571
▁ㄓㄨㄥˇ0쎯ㄌㄧㄡˊ8쎯	-9.81606
▁ㄑㄩㄢˊ0쎯	-9.8162
▁ㄉㄧㄢˋ0쎯ㄏㄨㄚˋ2쎯	-9.81671
▁ㄍㄨㄥ4쎯ㄐㄧ2쎯	-9.81673
▁ㄇㄟˇ0쎯ㄍㄜˇ0쎯	-9.8171
▁쎉쎅	-9.81723
ㄨˊ1쎯	-9.81757
ㄓㄨˋ0쎯	-9.81762
ㄇㄚˊ1쎯	-9.81816
▁ㄆㄧ2쎯	-9.8182
▁쎁쎉쎆쎂	-9.81907
ㄧㄡ0쎯	-9.81947
ㄩˋ7쎯	-9.82065
▁ㄍㄨㄟˋ1쎯	-9.82066
▁ㄓㄡ2쎯ㄨㄟˊ2쎯	-9.82127
▁ㄗㄞ2쎯ㄆㄟˊ1쎯	-9.82302
▁ㄌㄡˋ2쎯	-9.82371
▁ㄘㄞˊ2쎯	-9.82384
▁ㄍㄣ1쎯	-9.82387
▁ㄋㄚˋ1쎯	-9.82389
▁ㄊㄧㄠˋ0쎯	-9.82416
▁ㄐㄧㄤˋ2쎯ㄉㄚˋ쎯	-9.8242
ㄢˇ2쎯	-9.8243
ㄐㄧˋ5쎯	-9.8244
▁ㄉㄚˋ쎯ㄕ2쎯	-9.82483
쎁쎄	-9.82521
▁ㄒㄧˋ0쎯	-9.82719
▁ㄓㄣ4쎯ㄓㄥ0쎯	-9.82738
▁ㄐㄧㄠˇ0쎯ㄉㄨˋ2쎯	-9.82761
▁ㄉㄧㄢˋ6쎯ㄈㄣˇ쎯	-9.82779
▁ㄌㄧㄢˋ3쎯	-9.82819
▁ㄉㄧㄢˋ0쎯ㄧㄚ1쎯	-9.82846
ㄖㄨㄛˋ1쎯	-9.82948
▁ㄩㄢˊ1쎯ㄌㄧㄣˊ1쎯	-9.82985
▁ㄐㄧ13쎯ㄎㄢ0쎯	-9.83009
ㄧㄢˇ3쎯	-9.83017
ㄨㄟˇ5쎯ㄩㄢˊ2쎯	-9.83045
▁ㄋㄧㄢˊ0쎯ㄑㄧㄥ1쎯	-9.83048
ㄎㄜ2쎯ㄒㄩㄝˊ1쎯ㄩㄢˋ2쎯	-9.83077
▁ㄔㄨㄤ0쎯ㄧㄝˋ0쎯	-9.83097
ㄉㄥˇ0쎯	-9.83104
3	-9.83108
▁ㄒㄧㄠ2쎯ㄈㄟˋ4쎯	-9.83298
ㄕˇ2쎯	-9.83299
ㄙㄨㄣ0쎯	-9.83318
▁ㄆㄧㄥˊ0쎯ㄇㄧˇ0쎯	-9.83326
쎂쎂	-9.8337
ㄐㄩㄣˋ4쎯	-9.83406
▁쎁쎉쎆쎅	-9.83408
▁쎄쎄	-9.83503
▁ㄕㄟˊ쎯	-9.83566
ㄔㄚˊ2쎯	-9.83642
▁ㄗㄨㄥ0쎯	-9.83702
ㄒㄧ3쎯	-9.83715
▁ㄍㄥ0쎯ㄐㄧㄚ0쎯	-9.83761
▁ㄦˊ0쎯	-9.83867
ㄊㄨㄥˇ0쎯	-9.83873
▁ㄓㄚˊ1쎯	-9.83885
ㄨ2쎯	-9.83902
ㄏㄥˊ2쎯	-9.83908
▁ㄅㄢˋ0쎯ㄕˋ8쎯ㄔㄨˇ0쎯	-9.83944
▁ㄒㄧˇ2쎯ㄞˋ1쎯	-9.83979
ㄑㄧㄥ4쎯	-9.84068
▁ㄗㄨㄛ0쎯ㄓㄢˋ1쎯	-9.84075
▁ㄐㄧㄥˋ0쎯	-9.84084
ㄓㄜˋ0쎯	-9.84174
▁ㄎㄜ4쎯	-9.84243
ㄧㄚˊ0쎯	-9.84367
▁ㄉㄨㄥˋ0쎯ㄌㄧˋ0쎯	-9.84396
▁ㄐㄧㄝˇ1쎯ㄈㄤˋ쎯	-9.84535
ㄇㄨˋ6쎯	-9.8456
ㄙ4쎯ㄊㄜˋ0쎯	-9.84631
ㄨˋ4쎯	-9.84639
▁ㄨㄟˊ6쎯ㄒㄧㄡ1쎯	-9.8465
ㄐㄧㄣˋ3쎯	-9.84711
쎃쎂	-9.84727
ㄕˋ10쎯	-9.84776
▁ㄨㄢˇ6쎯	-9.84816
▁ㄔㄤˊ0쎯ㄐㄧㄤ0쎯	-9.8482
▁ㄧ3쎯ㄧㄠˋ0쎯	-9.84846
▁ㄈㄢˋ3쎯	-9.84854
ㄍㄠˇ2쎯	-9.84864
▁ㄈㄢ2쎯ㄧˋ11쎯	-9.84899
ㄊㄠˋ쎯	-9.84913
ㄉㄧㄥˇ0쎯	-9.8495
쎁쎇	-9.85031
▁ㄐㄧㄥˇ1쎯ㄡ0쎯	-9.851
ㄧˋ10쎯	-9.8517
▁ㄒㄧㄥˊ1쎯ㄊㄞˋ2쎯	-9.8519
▁ㄧˊ0쎯	-9.85243
▁ㄨㄤˋ3쎯	-9.85264
ㄧㄢˊ6쎯ㄐㄧㄡ1쎯	-9.85283
▁ㄓ7쎯ㄉㄠˋ3쎯	-9.85312
▁〔	-9.85343
▁ㄒㄧㄥˋ2쎯ㄓˋ4쎯	-9.85351
▁ㄓㄨㄢ0쎯ㄩㄥˋ0쎯	-9.8539
▁ㄍㄨㄟˋ2쎯	-9.85479
▁ㄘㄞˊ2쎯ㄓㄥˋ3쎯	-9.85499
▁ㄍㄡ2쎯	-9.85522
ㄐㄧㄥ2쎯ㄐㄧˇ3쎯ㄒㄩㄝˊ1쎯	-9.85555
▁쎀쎂	-9.85581
▁ㄇㄛˊ0쎯ㄈㄚˇ0쎯	-9.85601
▁쎂쎅쎀	-9.85628
▁ㄩˊ1쎯	-9.85649
ㄋㄠˇ1쎯	-9.85658
ㄉㄥ1쎯	-9.85672
ㄒㄩˋ1쎯	-9.85683
▁ㄉㄜˊ0쎯ㄇㄧㄥˊ0쎯	-9.85725
▁ㄐㄧ8쎯ㄉㄢˋ6쎯	-9.85809
▁ㄕㄢ0쎯ㄒㄧ1쎯ㄕㄥˇ0쎯	-9.85811
▁ㄧㄚˊ0쎯	-9.8586
ㄅㄚˋ0쎯	-9.85894
ㄖㄨㄣˋ1쎯	-9.85897
▁ㄖㄣˊ0쎯ㄍㄨㄥ0쎯	-9.85936
ㄧ4쎯	-9.85983
▁ㄊㄨ2쎯	-9.86021
▁ㄉㄨㄥˋ0쎯ㄗㄨㄛ0쎯	-9.86144
▁ㄕㄡˋ4쎯	-9.86222
▁ㄗˋ0쎯ㄕㄣ2쎯	-9.86231
▁ㄐㄧˊ8쎯ㄊㄧ0쎯	-9.86313
▁ㄐㄧˋ1쎯ㄗㄞˇ1쎯	-9.86322
▁ㄧˇ0쎯	-9.86325
ㄘㄜˋ4쎯	-9.86339
▁ㄔㄥˊ0쎯ㄈㄣ0쎯	-9.86342
▁ㄓㄥ0쎯ㄗㄞˋ1쎯	-9.86357
▁ㄊㄨㄢˊ0쎯ㄊㄧ0쎯	-9.86381
ㄔㄤˋ2쎯	-9.86506
▁ㄊㄨㄥ0쎯ㄒㄩㄣˋ1쎯	-9.86526
▁ㄏㄨㄟ2쎯ㄈㄨˋ7쎯	-9.86532
▁ㄕㄨ10쎯ㄘㄞˋ0쎯	-9.8655
ㄐㄧㄡˇ1쎯	-9.86557
▁ㄔㄨㄥˊ1쎯ㄌㄟˋ2쎯	-9.86558
▁ㄒㄩ1쎯	-9.86587
▁ㄧㄡˊ5쎯ㄐㄧ2쎯	-9.86594
ㄧㄢˇ0쎯	-9.86595
ㄒㄧㄢˋ2쎯	-9.86614
▁ㄓˊ0쎯	-9.86642
▁ㄧㄢˊ6쎯	-9.86662
▁쎁쎉쎇쎆	-9.867
▁ㄘㄠˇ쎯ㄅㄣˇ0쎯	-9.86748
ㄔㄢˇ0쎯ㄧㄝˋ0쎯	-9.86812
ㄘㄢ0쎯	-9.86864
▁ㄐㄧㄤˇ0쎯ㄕ2쎯	-9.86888
▁ㄉㄨㄥˋ0쎯ㄊㄞˋ2쎯	-9.86896
ㄕㄡ쎯	-9.86903
ㄅㄧㄣ0쎯	-9.86935
▁ㄏㄢˊ1쎯ㄧㄡˇ1쎯	-9.86978
▁ㄏㄨˇ0쎯	-9.86986
▁ㄊㄡˊ1쎯ㄖㄨˋ0쎯	-9.86989
▁ㄧˊ7쎯	-9.86997
ㄐㄧㄡˇ5쎯ㄉㄧㄢˋ3쎯	-9.87004
ㄓ1쎯	-9.87026
▁ㄨˇ7쎯ㄉㄠˇ5쎯	-9.87049
▁ㄓㄥˋ0쎯ㄑㄩㄢˋ1쎯	-9.87082
▁ㄓㄨˋ0쎯ㄌㄧˇ3쎯	-9.87089
▁ㄔㄨㄥ1쎯	-9.87119
▁ㄑㄧㄤ2쎯	-9.87181
ㄗㄨㄥˇ0쎯	-9.8719
▁ㄍㄜˇ1쎯ㄔㄥˊ0쎯	-9.87265
▁ㄊㄧ0쎯ㄒㄧㄢˋ1쎯	-9.8732
▁ㄓ2쎯ㄕˋ15쎯	-9.87332
▁ㄩㄢˊ0쎯ㄙㄨˋ2쎯	-9.8735
▁ㄐㄧˇ1쎯	-9.87387
▁ㄐㄩㄣ0쎯ㄡ0쎯	-9.8743
▁ㄈㄨˋ7쎯ㄗㄚˊ0쎯	-9.87431
▁ㄖㄣˊ0쎯ㄨㄣˊ0쎯	-9.87466
ㄘㄨㄥˊ0쎯	-9.87517
▁ㄌㄠˇ0쎯ㄕ2쎯	-9.87528
▁ㄖㄨㄥˊ4쎯ㄧˋ12쎯	-9.87569
▁쎁쎉쎉쎆ㄋㄧㄢˊ0쎯	-9.87594
ㄌㄧㄡˋ1쎯	-9.87638
▁ㄔㄨˇ0쎯ㄩˊ0쎯	-9.87638
ㄧㄢˋ10쎯	-9.87679
▁ㄓㄥˇ1쎯ㄍㄜˇ1쎯	-9.87704
▁ㄨㄞˋ쎯ㄍㄨㄢ1쎯	-9.87737
▁ㄒㄧㄥˊ2쎯ㄏㄠˊ0쎯	-9.87808
▁ㄑㄧㄢ0쎯ㄇㄧˇ0쎯	-9.87825
▁ㄔㄨㄥˊ0쎯	-9.87907
▁ㄐㄧㄣˇ2쎯	-9.87923
▁ㄓ0쎯ㄓㄨㄥ0쎯	-9.8795
▁′	-9.87956
ㄧㄠˋ2쎯	-9.8802
▁ㄔㄨㄢˊ0쎯ㄇㄟˊ5쎯	-9.88048
▁ㄒㄩㄢˊ1쎯	-9.88048
쎂쎄	-9.8807
▁쎁쎉쎇쎀	-9.88086
▁ㄍㄨㄛ1쎯	-9.88095
▁ㄗㄠˇ0쎯ㄐㄧ13쎯	-9.88123
ㄏㄜˊ5쎯	-9.88163
ㄋㄧㄢˋ0쎯	-9.88191
ㄐㄧㄥˇ2쎯	-9.8828
ㄒㄧㄝˇ0쎯	-9.8838
▁ㄅㄧˋ7쎯ㄕㄨ0쎯	-9.88382
ㄋㄧㄠˇ0쎯	-9.88427
▁ㄔㄨㄣˊ0쎯ㄕㄡ쎯ㄖㄨˋ0쎯	-9.88505
▁ㄐㄧㄢ3쎯	-9.88522
ㄊㄢˊ4쎯	-9.8855
▁ㄇㄧㄢˋ0쎯ㄒㄧㄤˋ0쎯	-9.88566
▁ㄋㄨㄥˊ0쎯ㄏㄨˋ1쎯	-9.88571
ㄐㄧㄢˋ5쎯	-9.88576
ㄐㄧㄝˊ2쎯	-9.88583
ㄉㄠ0쎯	-9.88602
▁ㄌㄧㄥˇ1쎯ㄒㄧㄢ1쎯	-9.88605
▁ㄈㄚ쎯ㄏㄨㄟ1쎯	-9.88635
쎉쎉	-9.8864
ㄌㄠˊ0쎯ㄉㄨㄥˋ0쎯ㄌㄧˋ0쎯	-9.88654
▁쎈쎆	-9.88667
ㄏㄨˋ2쎯	-9.88775
▁쎅쎆	-9.88783
▁ㄓㄡ1쎯	-9.88827
▁ㄈㄢˊ0쎯	-9.88925
▁ㄐㄧㄥ8쎯ㄆㄧㄣˇ쎯	-9.88959
ㄅㄛ4쎯	-9.88972
▁ㄒㄧ2쎯ㄕㄡ쎯	-9.88997
▁ㄅㄧㄢ0쎯ㄩㄢˊ7쎯	-9.88997
▁ㄐㄧˊ1쎯ㄌㄧㄣˊ1쎯	-9.89004
▁ㄇㄟˊ6쎯	-9.89007
ㄐㄩㄣˋ0쎯	-9.89058
▁ㄉㄠˇ0쎯ㄓˋ7쎯	-9.89067
ㄉㄡˋ2쎯	-9.89087
▁ㄐㄧㄣˇ3쎯	-9.89088
▁ㄙㄨˋ6쎯ㄌㄧㄠˋ0쎯	-9.89091
▁ㄅㄢˇ1쎯ㄅㄣˇ0쎯	-9.89096
ㄊㄧˊ1쎯	-9.89182
▁ㄋㄨㄥˊ1쎯	-9.8919
▁ㄑㄧㄣ1쎯	-9.89209
▁ㄇㄞˋ2쎯	-9.89217
ㄍㄨㄟ2쎯	-9.89318
▁ㄐㄧㄢˋ2쎯ㄩˊ0쎯	-9.89374
▁ㄕㄨㄟˋ0쎯ㄇㄧㄥˊ1쎯	-9.89472
ㄧㄢˊ6쎯ㄐㄧㄡ1쎯ㄏㄨㄟˋ2쎯	-9.89485
▁ㄅㄧㄢ1쎯ㄓˋ3쎯	-9.89489
▁ㄑㄧˋ0쎯ㄏㄡˋ2쎯	-9.89493
▁ㄐㄧㄢˋ13쎯	-9.89525
▁ㄊㄨㄛˇ1쎯ㄩㄢˊ5쎯	-9.89532
▁ㄓㄨˇ0쎯ㄊㄧ0쎯	-9.89597
▁ㄌㄨㄛˊ6쎯	-9.89639
▁ㄒㄧㄡˋ0쎯	-9.89711
▁ㄑㄧㄥ5쎯ㄕㄨㄟˇ쎯	-9.89723
▁쎂ㄩㄝˋ0쎯	-9.89734
ㄐㄧㄥ1쎯	-9.89741
ㄋㄧˊ0쎯ㄧㄚˋ1쎯	-9.89867
▁ㄕˋ16쎯	-9.89886
ㄉㄚˊ0쎯	-9.89919
▁ㄇㄧㄝˋ0쎯	-9.89959
ㄌㄧㄥˇ1쎯	-9.8996
▁ㄧ0쎯ㄉㄥˇ0쎯ㄐㄧㄤˇ1쎯	-9.8999
▁ㄕㄨㄟˇ쎯ㄉㄠˋ4쎯	-9.89996
▁ㄧㄣˋ0쎯ㄕㄨㄚ0쎯	-9.90017
▁ㄏㄢˊ1쎯ㄌㄧㄤˊ3쎯	-9.90023
▁ㄒㄧㄤ4쎯	-9.90116
▁ㄕㄠˇ쎯ㄋㄧㄢˊ0쎯	-9.90132
ㄓ10쎯	-9.90136
▁ㄕㄚˋ0쎯ㄇㄣˊ0쎯	-9.90153
▁ㄇㄞˇ0쎯	-9.90179
▁ㄅㄧㄝˊ0쎯ㄇㄧㄥˊ0쎯	-9.90195
▁ㄆㄟˋ2쎯ㄓˋ13쎯	-9.90244
▁ㄊㄧ0쎯ㄧㄢˋ5쎯	-9.9036
▁ㄔㄨㄥˊ3쎯	-9.90443
▁ㄐㄧㄢˇ8쎯ㄐㄧㄝˋ0쎯	-9.90444
▁ㄊㄨˊ0쎯ㄕㄨ0쎯ㄍㄨㄢˇ0쎯	-9.90546
ㄇㄚˇ1쎯	-9.90645
▁ㄅㄧㄠ0쎯ㄓˋ1쎯	-9.9065
▁ㄔㄤˊ1쎯ㄙㄨㄛˇ0쎯	-9.90676
▁ㄧㄢˊ1쎯ㄔㄨㄥˊ2쎯	-9.90698
▁ㄓˊ4쎯ㄨˋ2쎯	-9.9071
ㄔㄨㄥˊ2쎯ㄑㄧㄥˋ0쎯ㄕˋ4쎯	-9.90722
▁쎈쎅	-9.90729
▁ㄈㄨˋ14쎯ㄍㄞˋ3쎯	-9.90753
ㄒㄧㄤˇ2쎯	-9.90759
▁ㄕㄨ7쎯ㄕˋ16쎯	-9.9078
▁ㄐㄧㄥ2쎯ㄌㄧˇ3쎯	-9.90781
▁ㄨㄢˊ1쎯ㄇㄟˇ1쎯	-9.9082
▁ㄋㄥˊ쎯ㄩㄢˊ9쎯	-9.90847
ㄙㄨㄢˋ1쎯	-9.90925
ㄋㄚˋ3쎯	-9.91129
▁ㄐㄧㄢˇ6쎯ㄕㄠˇ쎯	-9.91151
ㄑㄧ	-9.91168
▁ㄓˋ3쎯ㄆㄧㄣˇ쎯	-9.91174
ㄏㄨˊ2쎯	-9.91185
▁ㄔㄨㄥˊ2쎯ㄒㄧㄣ5쎯	-9.91234
ㄑㄧㄣˊ2쎯	-9.91298
▁ㄍㄨㄢ3쎯	-9.91314
▁ㄉㄡˇ0쎯	-9.91415
ㄏㄡˋ1쎯	-9.9146
ㄒㄩˇ0쎯	-9.91474
ㄨ1쎯	-9.9149
ㄧㄢˋ2쎯	-9.91563
▁ㄌㄧㄤˊ4쎯ㄕˊ4쎯	-9.91569
▁ㄕˋ2쎯	-9.9157
▁ㄧㄢ5쎯	-9.91595
▁ㄐㄧㄤˋ2쎯ㄉㄨˋ2쎯	-9.91625
▁ㄍㄜˋ0쎯ㄍㄜˇ0쎯	-9.91676
▁ㄕㄣˊ0쎯	-9.91715
▁ㄧ0쎯ㄉㄠˋ3쎯	-9.91724
ㄏㄨㄥˊ3쎯	-9.91732
▁ㄘˊ4쎯	-9.91743
ㄨㄟˋ7쎯	-9.91759
ㄩㄢˊ5쎯	-9.91795
▁ㄊㄨˊ3쎯	-9.9181
▁ㄕㄣˇ0쎯	-9.91929
▁ㄩㄢˊ3쎯	-9.91937
▁ㄏㄜˊ2쎯ㄒㄧㄝˊ6쎯	-9.91939
▁ㄉㄧㄠˋ2쎯ㄐㄧㄝ0쎯	-9.91994
ㄐㄩㄢˇ0쎯	-9.92106
▁ㄊㄨㄟ0쎯ㄉㄨㄥˋ0쎯	-9.92169
▁ㄒㄧㄚ0쎯	-9.92232
▁ㄐㄧㄣˋ0쎯ㄧ0쎯ㄅㄨˋ2쎯	-9.92252
▁ㄓˊ4쎯ㄔㄣˋ1쎯	-9.92255
ㄌㄧㄡˊ2쎯	-9.92284
ㄓㄨㄥ1쎯	-9.92315
▁ㄐㄧㄝ4쎯ㄖㄤˇ0쎯	-9.92356
▁ㄌㄚˋ3쎯ㄐㄧㄠ7쎯	-9.92407
▁ㄩㄢˋ2쎯ㄐㄧㄠˋ2쎯	-9.92435
▁쎁쎉쎇쎅	-9.92492
▁ㄆㄣˊ0쎯	-9.92502
ㄓㄨㄥ0쎯ㄨㄣˊ0쎯	-9.92514
▁ㄔㄨㄤˊ0쎯	-9.92607
▁ㄇㄟˇ1쎯ㄕˊ4쎯	-9.92612
▁ㄆㄞ쎯	-9.92654
▁ㄕˇ3쎯ㄓㄨㄥ2쎯	-9.92704
▁ㄧㄡˇ1쎯ㄕˊ1쎯	-9.92719
▁ㄓㄨㄢ0쎯ㄌㄧˋ6쎯	-9.92733
▁쎃쎀쎀쎀	-9.92752
▁ㄍㄨㄥ2쎯ㄐㄧㄣ1쎯	-9.92773
▁ㄕㄡˇ0쎯ㄉㄨㄢˋ0쎯	-9.92803
▁ㄋㄧˊ0쎯	-9.92916
▁ㄙㄨˋ3쎯	-9.92953
▁ㄎㄨㄛˋ0쎯ㄓㄢˇ2쎯	-9.92997
▁ㄓㄨˋ7쎯ㄧㄡˇ1쎯	-9.93011
ㄘˊ1쎯	-9.93102
▁ㄓㄨˇ0쎯ㄧㄢˇ3쎯	-9.93174
▁ㄍㄨㄛˊ0쎯ㄨㄞˋ쎯	-9.93175
ㄍㄤ0쎯	-9.93181
▁ㄘㄜˋ0쎯	-9.9321
▁〕	-9.93215
ㄏㄨㄟˋ1쎯	-9.93228
ㄕˇ3쎯	-9.93242
ㄧˋ17쎯	-9.93258
ㄇㄞˋ3쎯	-9.93285
ㄩˇ3쎯	-9.93292
ㄈㄥ6쎯	-9.93295
ㄊㄠˊ1쎯	-9.93298
ㄇㄚˇ2쎯	-9.93319
▁ㄐㄧㄝ4쎯ㄔㄨˋ1쎯	-9.93331
▁ㄐㄧㄤˋ1쎯ㄉㄧ0쎯	-9.93392
▁ㄎㄢ0쎯ㄨˋ3쎯	-9.93405
▁ㄅㄧˇ1쎯ㄩˋ10쎯	-9.93451
ㄇㄧㄣˇ3쎯	-9.93513
▁ㄒㄧㄤ1쎯ㄉㄤ0쎯	-9.93571
▁쎁쎉쎅쎀	-9.93687
▁쎁쎈쎀	-9.93735
▁ㄅㄧˇ1쎯ㄌㄧˋ8쎯	-9.93756
▁ㄗㄨㄥ0쎯ㄐㄧㄠ6쎯	-9.93774
▁ㄒㄧㄢˋ1쎯ㄕˊ3쎯	-9.93806
▁ㄊㄠˊ0쎯	-9.93895
▁ㄐㄧ12쎯ㄩˊ0쎯	-9.93939
▁쎄쎁	-9.93976
▁ㄑㄧㄥ5쎯ㄉㄞˋ0쎯	-9.94015
▁ㄍㄠ0쎯ㄒㄧㄠˋ3쎯	-9.94151
ㄧㄢˊ0쎯	-9.94162
▁ㄍㄨㄢˇ1쎯ㄒㄧㄚˊ5쎯	-9.94187
▁ㄏㄨㄤˊ1쎯ㄐㄧㄣ3쎯	-9.94199
▁ㄕˊ3쎯ㄏㄤˊ0쎯	-9.94203
▁ㄉㄠˇ1쎯	-9.94215
ㄓ4쎯	-9.94217
ㄙㄨㄣˇ0쎯	-9.94229
▁ㄅㄟˋ2쎯ㄩㄥˋ0쎯	-9.94294
▁ㄅㄧㄢ1쎯ㄏㄠˊ0쎯	-9.94325
▁ㄐㄧˋ2쎯ㄑㄧㄠˇ0쎯	-9.94351
▁ㄩˋ11쎯	-9.94407
ㄈㄤ2쎯	-9.94531
▁ㄙㄤ1쎯	-9.94569
ㄧㄢˊ7쎯	-9.94595
ㄔㄨㄤˊ0쎯	-9.94614
▁ㄙㄚˋ0쎯	-9.94705
ㄒㄧˊ0쎯	-9.9471
▁ㄉㄧㄥˋ1쎯ㄧˋ1쎯	-9.94735
▁ㄕㄨˋ0쎯	-9.94825
▁ㄓˊ1쎯ㄕㄨˇ1쎯	-9.94833
ㄒㄧㄚˊ6쎯	-9.94856
▁ㄙㄨㄛˇ0쎯ㄔㄤˊ0쎯	-9.94876
ㄍㄜ0쎯	-9.94935
▁쎃쎉	-9.94952
▁ㄉㄨㄥˇ0쎯ㄕˋ8쎯ㄔㄤˊ0쎯	-9.94953
ㄨㄟ0쎯	-9.95096
▁ㄒㄧㄤ0쎯ㄓㄣˋ3쎯	-9.95101
ㄨㄤˊ0쎯	-9.95138
ㄓˇ2쎯	-9.95182
▁ㄓㄨㄤ3쎯ㄒㄧㄡ1쎯	-9.9519
▁_	-9.95193
▁ㄕㄢˇ0쎯	-9.95195
ㄧㄤˊ2쎯ㄒㄧㄢˋ0쎯	-9.95198
▁ㄑㄧㄢˊ3쎯ㄌㄨㄥˊ5쎯	-9.95203
▁ㄔㄥˊ4쎯ㄡ0쎯	-9.9523
ㄈㄢˊ	-9.95271
ㄍㄨㄟˋ2쎯	-9.95273
▁ㄇㄚ2쎯	-9.95277
▁ㄕㄨㄟˇ쎯ㄌㄧˋ6쎯	-9.9529
▁ㄘㄞˊ0쎯ㄋㄥˊ쎯	-9.95295
▁쎁쎉쎆쎈	-9.95452
ㄨˊ6쎯	-9.95454
ㄆㄞˇ쎯	-9.95465
▁ㄈㄨˇ3쎯	-9.9548
▁ㄊㄠˊ2쎯ㄘˊ3쎯	-9.95481
▁ㄌㄧㄢˊ4쎯ㄇㄥˊ1쎯	-9.95503
▁ㄓˋ7쎯ㄌㄧˋ0쎯	-9.95507
▁ㄍㄨㄛˊ0쎯ㄉㄠˋ3쎯	-9.95515
ˊ11쎯	-9.95542
▁ㄍㄢ1쎯ㄙㄨˋ1쎯	-9.95556
▁ㄌㄠˊ0쎯	-9.95593
▁ㄨㄤˇ0쎯ㄎㄚˇ0쎯	-9.95606
▁ㄌㄧㄤˋ0쎯	-9.95627
ㄐㄧˋ2쎯	-9.95653
ㄅㄟ4쎯	-9.95678
▁ㄓˊ4쎯ㄋㄥˊ쎯	-9.95776
ㄗㄞ0쎯	-9.95838
ㄧㄣˊ1쎯	-9.9584
ㄍㄠˋ0쎯	-9.95909
ㄨㄟˊ2쎯	-9.95911
ㄧㄥ6쎯	-9.95914
▁ㄅㄠˋ8쎯	-9.96063
▁ㄧㄥˇ1쎯ㄆㄧㄢ0쎯	-9.96073
▁ㄍㄞˇ쎯ㄕㄢˋ0쎯	-9.96084
▁ㄧㄣ0쎯ㄙㄨˋ2쎯	-9.96118
▁ㄓㄥ1쎯	-9.96141
ㄨㄟˇ5쎯ㄏㄨㄟˋ2쎯	-9.96157
▁ㄨㄣˊ2쎯	-9.96162
▁ㄒㄧ1쎯ㄅㄢ1쎯ㄧㄚˊ0쎯	-9.96184
▁ㄌㄨㄣˊ2쎯ㄊㄢˊ0쎯	-9.96187
▁ㄩㄥˋ0쎯ㄊㄨˊ2쎯	-9.96203
ㄇㄥˋ1쎯	-9.96223
▁ㄅㄞˊ1쎯	-9.96257
ㄩˋ9쎯	-9.96358
▁ㄍㄨㄢˋ2쎯	-9.96415
▁ㄅㄧㄠˇ0쎯ㄉㄚˊ1쎯	-9.96457
ㄊㄨˊ2쎯	-9.96458
▁ㄉㄤˋ1쎯ㄢˋ2쎯	-9.96526
ㄒㄧˇ2쎯	-9.96533
▁ㄕㄡˋ2쎯	-9.96542
▁ㄐㄧㄤˋ3쎯ㄧㄡˊ4쎯	-9.96557
▁ㄔㄥˊ4쎯ㄓㄣˋ3쎯	-9.96646
▁ㄉㄨㄛ0쎯ㄇㄟˊ5쎯ㄊㄧ0쎯	-9.9672
ㄋㄧㄤˊ쎯	-9.96767
▁ㄘㄤ1쎯	-9.96774
ㄌㄞˊ0쎯	-9.96791
▁ㄅㄠ0쎯ㄏㄢˊ1쎯	-9.96826
▁ㄍㄨㄥ2쎯ㄑㄧㄥˇ0쎯	-9.96893
ㄆㄧㄣˊ1쎯	-9.97053
쎂쎈	-9.97114
▁ㄩㄢˊ0쎯ㄋㄧㄢˊ0쎯	-9.97164
ㄕㄜˇ쎯	-9.97208
▁쎁쎉쎆쎀	-9.97283
쎃쎉	-9.97287
▁ㄏㄨ	-9.97332
▁ㄧㄝˋ0쎯	-9.97358
ㄘㄜˋ0쎯	-9.97361
▁ㄖㄣˊ0쎯ㄕˋ8쎯	-9.97369
▁ㄨㄣˊ0쎯ㄒㄧㄢˋ8쎯	-9.97378
▁ㄓˋ3쎯ㄔㄥˊ0쎯	-9.97434
▁ㄆㄧㄣˊ1쎯	-9.97491
▁쎅쎈	-9.9754
ㄅㄢ4쎯	-9.9757
ㄋㄢˊ1쎯	-9.97572
ㄋㄞˋ0쎯	-9.97609
ㄧㄣˇ0쎯	-9.97659
ㄇㄧㄥˊ4쎯	-9.97757
▁ㄗㄥ0쎯ㄐㄧㄤˋ2쎯	-9.9786
▁ㄗㄢˋ1쎯	-9.97903
ㄉㄨㄟˋ1쎯	-9.9791
▁ㄓㄨˋ3쎯ㄧˋ18쎯	-9.97916
▁ㄕㄢ0쎯ㄕㄨㄟˇ쎯	-9.9795
ㄅㄧㄢˋ1쎯	-9.98024
▁ㄐㄧㄢ5쎯	-9.9808
17쎯	-9.98102
▁ㄐㄩˋ2쎯ㄅㄟˋ2쎯	-9.98107
▁ㄕㄣ5쎯ㄕㄡˋ1쎯	-9.9816
▁ㄍㄨㄥ2쎯ㄎㄞ0쎯	-9.98163
▁ㄊㄢˋ2쎯	-9.98165
▁ㄖㄣˋ1쎯ㄕˊ2쎯	-9.9822
▁ㄒㄧ1쎯ㄘㄤˊ쎯	-9.98224
▁ㄧㄥ1쎯ㄒㄩㄥˊ0쎯	-9.98318
▁ㄊㄨㄥˊ4쎯	-9.9837
▁ㄐㄧㄤ1쎯ㄐㄩㄣ0쎯	-9.98383
ㄓˇ0쎯	-9.98384
ㄍㄨˋ0쎯	-9.98394
▁ㄧㄣˇ0쎯ㄐㄧㄣˋ0쎯	-9.98399
▁ㄔㄤˊ2쎯	-9.98422
ㄏㄢˊ5쎯	-9.98458
▁ㄅㄢ4쎯	-9.98473
ㄐㄧˊ0쎯	-9.98497
▁ㄊㄞˋ0쎯ㄧㄤˊ2쎯	-9.98529
▁ㄕㄨˇ5쎯ㄇㄚˇ2쎯	-9.98587
▁ㄅㄠˇ2쎯ㄘㄨㄣˊ쎯	-9.98596
▁ㄉㄧㄢˋ0쎯ㄑㄧˋ0쎯	-9.98612
ㄨˋ6쎯	-9.98628
ㄒㄧㄤˋ1쎯	-9.98664
▁ㄈㄚˇ0쎯ㄒㄩㄝˊ1쎯	-9.98677
▁ㄩˋ9쎯	-9.98728
ㄌㄢˊ2쎯	-9.98763
▁ㄧㄡ2쎯	-9.98795
▁ㄏㄨㄤˊ0쎯ㄉㄧˋ1쎯	-9.98806
▁ㄌㄧㄢˊ4쎯ㄙㄞˋ쎯	-9.98817
▁ㄐㄩˋ0쎯ㄉㄚˋ쎯	-9.989
▁ㄕㄣˇ1쎯ㄐㄧˋ0쎯	-9.98956
▁ㄇㄥˋ0쎯	-9.98972
ㄓㄣ1쎯	-9.99014
ㄐㄧㄣˇ3쎯	-9.99054
ㄒㄧㄤ5쎯	-9.99103
▁ㄖㄨㄥˊ2쎯	-9.99108
▁ㄌㄩˇ0쎯	-9.99178
ㄔㄥˊ4쎯ㄡ0쎯	-9.99262
14쎯	-9.99283
▁ㄉㄤˇ1쎯ㄓ1쎯ㄅㄨˋ4쎯	-9.99286
▁ㄗㄨㄥˇ0쎯ㄕㄡ쎯ㄖㄨˋ0쎯	-9.99376
▁ㄧㄢˊ1쎯ㄍㄜˊ2쎯	-9.99471
▁ㄊㄢˋ2쎯ㄙㄨㄛˇ1쎯	-9.99494
▁ㄕㄣˇ0쎯ㄧㄤˊ2쎯	-9.9951
▁ㄌㄧㄣˊ3쎯	-9.99523
ㄌㄠˊ0쎯	-9.99532
▁ㄌㄞˊ1쎯	-9.99535
▁ㄓㄨㄣˇ0쎯ㄅㄟˋ2쎯	-9.99565
▁쎄쎇	-9.9957
▁ㄒㄧㄚˊ5쎯ㄡ0쎯	-9.99601
▁쎁쎆쎀	-9.99602
▁ㄇㄛˊ3쎯ㄒㄧㄥˊ2쎯	-9.99605
▁ㄒㄩㄣˊ1쎯	-9.99612
쎃쎇	-9.99755
▁ㄖㄨˋ0쎯ㄒㄩㄢˇ0쎯	-9.99876
ㄅㄟ0쎯	-9.99886
▁쎁쎉쎅쎅	-9.99896
▁ㄘㄞˋ1쎯	-9.99898
▁ㄧㄚ6쎯	-9.99905
▁ㄊㄨㄥˊ0쎯ㄓˋ1쎯	-10.0015
▁ㄑㄧㄥ3쎯	-10.0015
쎈쎉	-10.0016
▁ㄐㄧㄢˋ12쎯ㄉㄧㄥˋ1쎯	-10.0017
▁쎉쎀쎀	-10.0022
▁쎉쎆	-10.0027
▁ㄉㄧㄠˋ2쎯ㄨㄟˋ3쎯	-10.0031
▁ㄇㄧㄥˋ쎯	-10.0033
ㄌㄧㄥˊ11쎯	-10.0034
▁ㄌㄧˋ8쎯ㄖㄨˊ0쎯	-10.0035
▁ㄍㄨㄢˋ0쎯ㄔㄜˋ0쎯	-10.0036
▁ㄇㄛˊ3쎯ㄋㄧˇ0쎯	-10.0037
▁ㄎㄢ1쎯ㄉㄠˋ0쎯	-10.0042
ㄓㄥ2쎯	-10.0067
▁ㄧㄤˊ4쎯	-10.0067
▁ㄅㄧㄢˋ1쎯ㄐㄧㄝˊ4쎯	-10.007
▁ㄔㄥˊ2쎯ㄒㄧㄣˋ0쎯	-10.0071
ㄐㄧㄢˋ12쎯	-10.0079
▁ㄔㄠˊ1쎯ㄒㄧㄢ3쎯	-10.0079
▁ㄈㄨˊ8쎯ㄍㄜˇ1쎯	-10.008
▁ㄍㄜˋ0쎯ㄒㄧㄤˋ1쎯	-10.0083
▁ㄈㄣ0쎯ㄆㄟˋ2쎯	-10.0088
쎂쎃	-10.0093
▁ㄨㄢˊ0쎯	-10.0096
▁ㄏㄨㄛˋ1쎯ㄨˋ3쎯	-10.01
▁ㄍㄢˇ3쎯ㄐㄧㄠˋ1쎯	-10.0102
▁ㄧ4쎯ㄐㄩ4쎯	-10.0104
▁ㄧㄡ3쎯ㄐㄧㄡˇ1쎯	-10.0106
ㄩㄢˋ3쎯	-10.0106
▁ㄧㄡ0쎯ㄌㄧㄤˊ0쎯	-10.0108
▁ㄔˊ4쎯ㄒㄩˋ6쎯	-10.0108
ㄒㄧㄚˊ2쎯	-10.0116
▁쎁쎉쎆쎉	-10.0119
ㄤˊ0쎯	-10.012
ㄅㄞˇ2쎯	-10.0121
▁ㄨˇ3쎯ㄑㄧˋ7쎯	-10.0126
▁ㄔㄨㄥˊ1쎯ㄗˇ0쎯	-10.013
ㄍㄨㄥ0쎯ㄧㄝˋ0쎯	-10.0132
ㄌㄧˋ6쎯ㄧㄚˋ1쎯	-10.0134
▁ㄍㄨ3쎯	-10.0135
▁ㄐㄧㄚ0쎯ㄋㄚˊ0쎯ㄉㄚˋ쎯	-10.0135
ㄏㄤˋ0쎯	-10.0138
▁ㄒㄧㄝˊ0쎯ㄆㄧㄢ0쎯	-10.0143
▁ㄌㄧㄠˊ0쎯	-10.0144
▁ㄐㄧㄢˇ7쎯	-10.015
ㄉㄤˋ0쎯	-10.0151
▁ㄏㄨㄢˇ0쎯	-10.0155
ㄕㄢ0쎯ㄒㄧㄢˋ0쎯	-10.0157
▁ㄍㄨㄟˇ2쎯	-10.0161
▁ㄏㄨㄛˇ0쎯ㄔㄜ0쎯ㄓㄢˋ2쎯	-10.0163
ㄕˋ2쎯	-10.0163
▁ㄈㄨˋ3쎯ㄋㄩˇ0쎯	-10.0167
ㄎㄨㄞˋ1쎯	-10.0173
ㄇㄠˋ2쎯	-10.0175
▁ㄔㄜ0쎯ㄓㄢˋ2쎯	-10.0177
▁쎁쎉쎇쎂	-10.0178
▁ㄗㄨㄛˋ2쎯ㄔㄨ0쎯	-10.018
▁ㄑㄩㄢˊ1쎯ㄕㄨ0쎯	-10.0183
▁ㄆㄛˋ0쎯ㄏㄨㄞˋ쎯	-10.0184
ㄓㄣ0쎯	-10.0186
▁ㄏㄠˇ0쎯ㄆㄧㄥˊ1쎯	-10.019
▁쎁쎉쎅쎂	-10.0194
▁ㄒㄧˋ0쎯ㄐㄩˋ4쎯	-10.0194
ㄨㄟˋ1쎯	-10.0195
ㄩㄝˋ1쎯	-10.0197
▁ㄅㄠ3쎯	-10.0199
ㄓㄢˋ1쎯ㄓㄥ1쎯	-10.0201
ㄕ1쎯	-10.0202
쎂쎇	-10.0205
▁ㄈㄤˊ0쎯ㄓˋ5쎯	-10.0206
▁ㄕㄨㄛˋ1쎯ㄕˋ0쎯ㄕㄥ1쎯	-10.0207
▁쎁쎉쎅쎇	-10.0207
▁ㄑㄧ	-10.0214
▁ㄓㄨˇ0쎯ㄅㄢˋ0쎯	-10.0215
ㄈㄨˋ0쎯	-10.0229
▁ㄔㄠˊ3쎯	-10.0232
ㄐㄧㄣˇ1쎯	-10.0235
▁ㄈㄤˇ1쎯ㄨㄣˋ0쎯	-10.0236
ㄩˇ1쎯	-10.0237
▁ㄍㄜˇ0쎯ㄒㄧㄥˋ2쎯	-10.0237
ㄏㄡˊ0쎯	-10.0253
▁ㄐㄧㄢ7쎯ㄔㄚˊ3쎯	-10.0254
▁ㄓˋ11쎯	-10.0258
▁ㄏㄨㄚˋ1쎯ㄇㄧㄢˋ0쎯	-10.0264
▁ㄈㄛˊ쎯ㄐㄧㄠ6쎯	-10.0271
▁ㄒㄩˋ1쎯	-10.0274
▁ㄒㄧㄤ5쎯	-10.0274
▁ㄌㄟˋ2쎯ㄅㄧㄝˊ0쎯	-10.0275
ㄘㄜˋ3쎯	-10.0277
▁ㄏㄞˇ0쎯ㄋㄚ1쎯	-10.028
▁ㄒㄧㄠˋ0쎯	-10.0289
▁ㄧㄝ1쎯	-10.0297
▁ㄔㄨ1쎯ㄓㄨㄥ0쎯	-10.0298
▁ㄒㄧㄤ0쎯ㄓㄥˋ3쎯ㄈㄨˇ3쎯	-10.0303
ㄍㄨㄢ3쎯	-10.0304
▁ㄙ2쎯	-10.0308
▁쎁쎉쎇쎄	-10.0308
▁ㄊㄨˇ1쎯	-10.0311
▁ㄌㄟˋ2쎯ㄕˋ6쎯	-10.032
▁ㄗㄨˇ1쎯ㄔㄤˊ0쎯	-10.032
▁ㄌㄧˇ3쎯ㄐㄧㄝˇ1쎯	-10.0323
▁ㄏㄨㄟˋ5쎯ㄏㄨㄚˋ1쎯	-10.0335
▁ㄌㄨˋ3쎯ㄏㄨㄚˋ0쎯	-10.0335
▁ㄕˊ0쎯ㄨˇ0쎯	-10.0339
ㄔㄥˊ3쎯	-10.034
ㄉㄧˋ3쎯	-10.0341
▁ㄅㄧㄢˇ1쎯	-10.0341
▁ㄊㄠˊ1쎯	-10.0343
▁ㄑㄧㄥ0쎯ㄉㄠˇ1쎯	-10.0344
▁ㄓㄨ1쎯	-10.0344
▁ㄅㄧˇ3쎯ㄏㄨㄚˋ1쎯	-10.0345
▁ㄓˋ11쎯ㄏㄨㄟˋ11쎯	-10.0348
ㄓㄨㄥˋ0쎯	-10.0349
ㄧˇ0쎯	-10.0351
▁ㄒㄧㄠ4쎯	-10.036
▁ㄉㄡˋ0쎯ㄈㄨˇ7쎯	-10.0367
▁ㄆㄨ2쎯	-10.0368
▁ㄔㄥˊ0쎯ㄐㄧㄡˋ4쎯	-10.0371
▁ㄈㄣ0쎯ㄍㄨㄢˇ1쎯	-10.0371
▁ㄊㄨㄟ0쎯ㄐㄧㄣˋ0쎯	-10.0376
▁ㄒㄩㄥˊ0쎯ㄏㄡˋ1쎯	-10.0377
ㄏㄨㄚˋ0쎯ㄒㄩㄝˊ1쎯	-10.0377
▁쎅쎂	-10.0381
▁쎅쎁	-10.0385
▁ㄒㄧㄝˇ0쎯ㄗㄨㄛ0쎯	-10.039
▁ㄈㄟ0쎯ㄏㄤˊ0쎯	-10.0393
ㄓㄨˋ5쎯	-10.0395
▁ㄑㄩㄝ0쎯	-10.0396
ㄑㄧㄢˊ1쎯	-10.0399
▁ㄐㄧㄣˋ4쎯	-10.0403
▁쎁쎉쎆쎆	-10.041
▁ㄙ0쎯ㄈㄚˇ0쎯	-10.0417
▁ㄗˋ0쎯ㄨㄛˇ쎯	-10.0419
ㄍㄞˇ쎯	-10.042
▁쎅쎄	-10.0424
ㄧㄝˊ0쎯	-10.0427
▁ㄗㄨㄢ0쎯	-10.0428
▁ㄓㄨㄚ0쎯	-10.043
▁ㄉㄧㄠ2쎯	-10.0433
▁ㄐㄧㄥˋ7쎯	-10.0439
ㄇㄧㄥˊ2쎯	-10.0439
▁ㄈㄥ1쎯ㄒㄧㄢˇ1쎯	-10.0446
▁ㄣ0쎯	-10.0447
▁ㄏㄞˇ0쎯ㄐㄩㄣ0쎯	-10.0448
ㄗˋ0쎯ㄉㄨㄥˋ0쎯ㄏㄨㄚˋ0쎯	-10.0449
ㄐㄧㄠˇ5쎯	-10.0453
▁ㄘˇ0쎯ㄨㄞˋ쎯	-10.0457
▁쎁쎉쎇쎇	-10.0458
▁ㄓㄢˇ2쎯ㄌㄢˇ0쎯	-10.0458
ㄧˋ21쎯	-10.0459
ㄢˋ3쎯	-10.0463
ㄧˋ6쎯	-10.0467
ㄒㄧˋ0쎯	-10.0478
ㄑㄧㄤ2쎯	-10.0482
ㄌㄧㄠˊ1쎯	-10.0488
▁ㄒㄧㄝˊ1쎯ㄓㄨˋ0쎯	-10.0488
ㄐㄧㄥˋ8쎯	-10.0488
▁ㄒㄧㄤ1쎯ㄏㄨˋ0쎯	-10.05
▁ㄒㄧㄝˊ1쎯ㄧˋ4쎯	-10.0512
▁ㄊㄧㄥ0쎯	-10.0516
▁ㄊㄧㄢˊ3쎯	-10.0523
▁ㄧ0쎯ㄐㄧˋ3쎯ㄌㄧㄝˋ0쎯	-10.0523
▁ㄏㄨㄟˋ5쎯	-10.0526
ㄉㄞ1쎯	-10.0527
▁ㄇㄨˇ0쎯ㄑㄧㄣ2쎯	-10.053
▁ㄕㄣ1쎯	-10.0531
ㄈㄟ3쎯	-10.0532
▁ㄆㄟˋ2쎯ㄍㄜˇ1쎯	-10.0543
ㄌㄢˊ4쎯	-10.0544
ㄗㄠˇ4쎯	-10.0551
▁ㄨˋ3쎯ㄧㄝˋ0쎯	-10.0551
ㄉㄨㄥ1쎯	-10.0555
ㄒㄩㄣˋ0쎯	-10.056
▁ㄈㄚ쎯ㄇㄧㄥˊ1쎯	-10.0561
ㄓㄠˋ0쎯	-10.0564
▁ㄈㄨˊ1쎯	-10.0566
▁ㄏㄨㄚ0쎯ㄒㄩˋ1쎯	-10.0571
▁ㄑㄧˊ8쎯	-10.0572
ㄔㄥˊ4쎯ㄕˋ4쎯	-10.0575
▁ㄒㄧ1쎯ㄈㄤ0쎯	-10.0577
▁ㄍㄜˇ1쎯ㄊㄨㄥˊ0쎯	-10.0581
▁ㄙㄨˋ4쎯	-10.0582
ㄉㄧ2쎯	-10.0586
▁ㄕˊ4쎯ㄨˋ3쎯	-10.0589
ㄒㄧㄤˊ2쎯	-10.0591
▁ㄐㄧㄢ7쎯	-10.0597
▁ㄉㄚˋ쎯ㄒㄩㄝˊ1쎯ㄕㄥ1쎯	-10.0601
ㄧㄤˇ2쎯	-10.0606
ㄧㄥˋ0쎯	-10.0614
▁ㄕㄥ2쎯ㄧㄣ4쎯	-10.0617
ㄞˊ0쎯	-10.0619
▁ㄐㄧㄢ8쎯ㄖㄣˊ3쎯	-10.062
ㄐㄩㄢ2쎯	-10.0627
▁ㄍㄨ5쎯ㄍㄢ0쎯	-10.0637
▁ㄔㄨˋ1쎯	-10.0642
ㄌㄧㄤˊ1쎯	-10.0643
▁ㄗㄨㄟˋ0쎯ㄏㄠˇ0쎯	-10.0644
▁쎁쎉쎅쎃	-10.0646
▁ㄒㄧㄠˋ3쎯ㄌㄩˋ2쎯	-10.0649
▁ㄉㄨㄟˋ1쎯ㄨㄞˋ쎯	-10.0656
▁ㄩˋ15쎯ㄨㄟˊ0쎯	-10.066
▁ㄇㄧㄢˇ0쎯	-10.0661
▁쎁쎉쎃쎄	-10.0674
ㄉㄧㄠ2쎯	-10.0677
▁ㄘㄨㄛˋ1쎯ㄕ5쎯	-10.0677
▁ㄅㄟ3쎯	-10.0682
▁ㄋㄟˋ쎯ㄎㄜ2쎯	-10.0693
▁ㄏㄤˊ0쎯ㄉㄨㄥˋ0쎯	-10.0708
▁ㄙˇ쎯ㄨㄤˊ0쎯	-10.071
▁쎁쎉쎅쎉	-10.0711
▁ㄈㄨˋ7쎯ㄍㄜˇ1쎯	-10.0715
▁ㄨㄟˋ0쎯	-10.0716
ㄆㄧㄥˊ1쎯	-10.072
ㄕㄨㄤ0쎯	-10.0722
ㄐㄧㄡˋ0쎯	-10.0727
▁ㄇㄨˋ3쎯	-10.0729
ㄐㄩㄝˊ2쎯	-10.073
ㄑㄧㄠ1쎯	-10.074
▁ㄙㄨㄟˋ4쎯	-10.0741
▁ㄋㄚˊ0쎯	-10.0742
ㄐㄧㄣ2쎯	-10.0744
▁ㄨㄟˊ2쎯ㄐㄧㄠˇ7쎯	-10.0747
▁ㄩㄢˊ1쎯ㄡ0쎯	-10.0753
▁ㄖㄣˊ2쎯	-10.0754
▁ㄍㄨㄛˊ0쎯ㄧㄡˇ1쎯	-10.0755
ㄐㄧˊ8쎯ㄊㄨㄢˊ0쎯	-10.0757
ㄒㄩˋ6쎯	-10.0761
ㄑㄧㄣ2쎯	-10.0763
▁ㄓ0쎯ㄑㄧㄢˊ0쎯	-10.0763
▁ㄑㄧˊ9쎯	-10.0764
▁ㄅㄞˊ0쎯ㄊㄤˊ5쎯	-10.0766
▁ㄅㄠˋ5쎯	-10.0767
▁ㄖㄨㄛˋ1쎯	-10.0768
▁ㄕˊ0쎯ㄙㄢ0쎯	-10.0772
▁ㄕㄣ5쎯ㄓㄣˋ4쎯ㄕˋ4쎯	-10.0775
▁ㄏㄨㄛˋ1쎯	-10.0778
▁ㄔㄤˊ0쎯ㄉㄨˋ2쎯	-10.0782
▁ㄋㄣˋ0쎯	-10.0782
▁ㄕㄣ2쎯ㄈㄣˋ0쎯	-10.0788
ㄏㄜˊ1쎯	-10.0791
ㄔㄚ1쎯	-10.0792
▁ㄧ0쎯ㄉㄞˋ1쎯	-10.0794
▁ㄔㄨㄤ0쎯ㄧˋ18쎯	-10.0796
ㄙㄨㄥˋ2쎯	-10.0799
ㄕˋ20쎯	-10.0804
▁ㄑㄧㄥ5쎯ㄏㄨㄚˊ1쎯	-10.0812
▁ㄘㄨㄥˊ1쎯	-10.0817
▁ㄌㄩˇ3쎯	-10.082
ㄑㄧㄤ3쎯	-10.0829
▁ㄓˇ4쎯ㄉㄧㄥˋ1쎯	-10.083
ㄧˊ7쎯	-10.0837
ㄒㄧㄝˊ1쎯ㄏㄨㄟˋ2쎯	-10.0839
▁ㄈㄚ쎯ㄉㄚˊ1쎯	-10.0841
▁ㄎㄨㄞˋ1쎯ㄌㄜˋ0쎯	-10.0844
▁ㄇㄧˋ1쎯ㄉㄨˋ2쎯	-10.0846
▁ㄧㄡˊ2쎯ㄓㄥˋ3쎯	-10.0852
▁ㄈㄨˋ9쎯	-10.0852
16쎯	-10.0855
▁ㄆㄧㄥˊ0쎯ㄏㄥˊ2쎯	-10.0857
ㄩˋ4쎯	-10.086
▁ㄏㄠˊ2쎯ㄏㄨㄚˊ1쎯	-10.0865
ㄔㄥˊ2쎯	-10.0865
ㄞ2쎯	-10.0867
▁ㄉㄚˋ쎯ㄅㄨˋ4쎯ㄈㄣ0쎯	-10.0871
▁ㄗㄨㄛ0쎯ㄑㄩ0쎯	-10.0872
▁ㄐㄧㄣ6쎯	-10.0873
▁ㄅㄟˋ2쎯	-10.0879
▁ㄈㄣ0쎯ㄏㄨㄟˋ2쎯	-10.0882
ㄔㄠ4쎯	-10.0887
ㄈㄥ3쎯	-10.0891
▁ㄧㄤˇ2쎯ㄏㄨㄚˋ0쎯	-10.0892
▁ㄐㄧ0쎯ㄏㄨ0쎯	-10.0896
ㄖˋ0쎯ㄅㄠˋ0쎯	-10.091
▁ㄐㄧㄣˋ0쎯ㄒㄧㄡ1쎯	-10.0919
ㄒㄧㄠˋ2쎯	-10.0919
ㄗㄞˇ0쎯	-10.0922
▁ㄌㄧㄣˊ6쎯	-10.0925
▁ㄊㄨˊ0쎯ㄒㄧㄤˋ3쎯	-10.0926
▁ㄧㄡˋ9쎯	-10.093
▁ㄙㄢˇ1쎯ㄨㄣˊ0쎯	-10.094
▁ㄈㄨˋ0쎯ㄇㄨˇ0쎯	-10.0944
▁ㄘㄞˇ1쎯ㄙㄜˋ0쎯	-10.0946
ㄇㄧˊ1쎯	-10.0949
ㄏㄨㄟˋ11쎯	-10.095
▁ㄐㄧㄢˋ2쎯ㄧˋ4쎯	-10.0952
▁ㄌㄧㄡˊ3쎯ㄉㄨㄥˋ0쎯	-10.0953
▁ㄏㄜˊ4쎯	-10.0958
▁ㄈㄚˊ3쎯	-10.0966
쎇쎉	-10.0977
▁ㄗˋ0쎯ㄓㄨˇ0쎯	-10.0981
ㄍㄨㄥˋ0쎯	-10.0987
▁ㄐㄧ2쎯	-10.0991
▁ㄨㄢˊ1쎯	-10.0993
▁ㄉㄧˋ3쎯ㄙˋ1쎯	-10.0993
▁ㄍㄠ0쎯ㄘㄥˊ0쎯	-10.0997
▁ㄉㄨˋ2쎯ㄐㄧㄚˇ2쎯	-10.1
▁ㄓˇ4쎯ㄅㄧㄠ0쎯	-10.1009
▁ㄗㄥˋ1쎯	-10.101
ㄑㄩ	-10.1015
ㄇㄛˋ9쎯	-10.1016
▁ㄅㄞˇ1쎯	-10.1017
▁ㄒㄧㄚˋ0쎯ㄒㄧㄚˊ5쎯	-10.1019
ㄊㄠˊ2쎯	-10.1021
▁ㄐㄧㄡˋ4쎯ㄉㄡˋ2쎯	-10.1024
▁ㄐㄧ6쎯ㄓˋ3쎯	-10.1024
▁쎁쎉쎇쎃	-10.1025
▁ㄊㄞ2쎯	-10.1025
▁ㄒㄧㄚˋ0쎯ㄗㄞˇ1쎯	-10.1027
▁ㄉㄡ0쎯ㄕˋ4쎯	-10.1027
▁ㄆㄧㄥˊ5쎯	-10.1028
ㄨ5쎯	-10.1037
▁ㄓㄨㄥ0쎯ㄉㄥˇ0쎯	-10.1038
▁쎀쎀쎀	-10.1038
▁쎁쎉쎅쎄	-10.1038
▁쎂쎂쎀	-10.1039
▁ㄑㄧㄢˊ0쎯ㄏㄡˋ0쎯	-10.1041
▁ㄩˊ0쎯ㄕˋ15쎯	-10.1041
▁ㄋㄧˋ0쎯	-10.1046
▁ㄧㄢˊ4쎯	-10.105
▁ㄔˊ0쎯	-10.1056
ㄌㄧˋ12쎯	-10.1056
▁ㄐㄧㄣˋ0쎯ㄕˋ0쎯	-10.1057
▁ㄕㄡˇ2쎯ㄉㄡ0쎯	-10.1058
▁ㄐㄧㄤˋ3쎯	-10.106
▁ㄓㄠˇ1쎯	-10.1063
▁쎁쎉쎆쎁	-10.1064
ㄌㄤˊ3쎯	-10.1065
▁ㄧˇ3쎯	-10.107
▁ㄒㄧㄢˇ0쎯ㄓㄨˋ7쎯	-10.1071
▁ㄓㄣˋ0쎯	-10.1072
▁쎉쎇	-10.1073
▁ㄐㄧㄥˋ4쎯	-10.1074
▁ㄧˇ2쎯ㄨㄟˊ0쎯	-10.1085
▁ㄍㄡ0쎯	-10.1086
▁....	-10.109
▁ㄧㄢˊ6쎯ㄐㄧㄡ1쎯ㄩㄢˋ2쎯	-10.1094
▁ㄍㄨㄥ2쎯ㄢ0쎯	-10.1097
ㄏㄜˋ2쎯	-10.1099
▁ㄐㄧㄢˋ2쎯ㄗㄠˋ2쎯	-10.11
▁ㄌㄧㄤˇ0쎯ㄘㄜˋ2쎯	-10.1106
▁ㄌㄨˊ0쎯	-10.1107
ㄕˋ11쎯	-10.1107
▁ㄅㄢˋ6쎯	-10.1109
ㄔㄣˊ1쎯	-10.1114
▁ㄒㄧㄥˋ1쎯ㄈㄨˊ12쎯	-10.1121
▁ㄨ1쎯ㄖㄢˇ1쎯	-10.1128
▁ㄧㄥˊ0쎯	-10.1128
▁ㄒㄧㄤ1쎯ㄧㄥ0쎯	-10.1128
▁ㄐㄧˋ1쎯ㄓㄜˇ0쎯	-10.1133
▁ㄒㄧㄥˋ1쎯	-10.1134
ㄌㄧㄢˋ2쎯	-10.1144
▁̇ㄉㄜ0쎯ㄊㄧㄝˇ쎯	-10.1145
▁ㄐㄧㄥˋ2쎯ㄓㄥ1쎯	-10.1147
ㄧㄝˋ1쎯	-10.115
쎉쎇	-10.1152
ㄇㄟˊ	-10.1157
▁ㄈㄟ0쎯ㄐㄧ6쎯	-10.116
▁ㄨㄤˇ0쎯ㄕㄤˇ0쎯	-10.1161
▁ㄖㄨㄟˋ1쎯	-10.1164
▁ㄏㄨㄤ0쎯	-10.1165
▁ㄐㄧㄡˋ4쎯ㄧㄝˋ0쎯	-10.1166
▁ㄉㄥ1쎯ㄐㄧˋ1쎯	-10.1166
▁쎆쎆	-10.1169
▁ㄅㄧˋ3쎯	-10.1171
▁ㄐㄧㄣˋ0쎯ㄔㄥˊ7쎯	-10.1171
▁ㄔㄨㄢˋ0쎯	-10.1176
▁ㄑㄧㄡˊ2쎯ㄉㄨㄟˋ0쎯	-10.118
▁ㄖㄨㄥˊ9쎯ㄍㄜˇ1쎯	-10.1188
ㄔㄣˊ2쎯	-10.1189
▁쎁쎁쎀	-10.1193
▁ㄐㄧㄥ5쎯	-10.1195
▁ㄖㄨㄥˊ9쎯	-10.1197
▁ㄩㄥˋ0쎯ㄆㄧㄣˇ쎯	-10.1199
ㄗㄡˇ쎯	-10.1201
ㄒㄩㄢ0쎯	-10.1202
▁ㄍㄨㄥ2쎯ㄩˋ12쎯	-10.1204
▁ㄩˊ5쎯	-10.1205
▁ㄐㄧ18쎯	-10.1206
▁ㄓㄨˋ3쎯ㄔㄨㄥˊ2쎯	-10.1209
▁ㄌㄜˋ0쎯ㄉㄨㄟˋ0쎯	-10.1217
▁ㄌㄧㄠˋ0쎯ㄐㄧㄡˇ5쎯	-10.1219
▁ㄒㄧㄠˇ0쎯ㄒㄧㄥˊ2쎯	-10.1224
▁ㄈㄣ0쎯ㄌㄧˊ3쎯	-10.1226
▁ㄕㄨ7쎯	-10.1229
ㄎㄜˋ3쎯	-10.123
▁ㄧㄡˇ1쎯ㄒㄧㄝ0쎯	-10.1242
쎄쎀쎀	-10.1244
▁ㄅㄧㄢˋ0쎯ㄔㄨㄥˊ1쎯	-10.1245
▁ㄧㄥˊ7쎯ㄉㄜˊ0쎯	-10.1245
ㄒㄧˊ2쎯	-10.125
ㄌㄨˋ16쎯	-10.1255
ㄗㄤ1쎯	-10.1257
▁ㄈㄤˇ2쎯ㄓ9쎯	-10.1261
▁ㄐㄧㄝ0쎯ㄋㄥˊ쎯	-10.1264
▁̇ㄉㄜ0쎯ㄉㄞˋ1쎯	-10.1269
▁ㄇㄧㄥˊ1쎯ㄉㄞˋ0쎯	-10.1278
▁ㄖㄨㄣˋ1쎯	-10.1279
ㄅㄨˇ0쎯	-10.1279
▁ㄔㄨˇ0쎯ㄌㄧˇ3쎯ㄑㄧˋ7쎯	-10.1282
▁ㄔㄢˊ0쎯ㄩㄢˊ0쎯	-10.1286
ㄧㄢˊ1쎯	-10.1292
쎉쎆	-10.1293
▁ㄒㄧㄢˋ0쎯ㄔㄤˊ0쎯	-10.1295
▁ㄕㄤˇ0쎯ㄒㄧㄚˋ0쎯	-10.1295
▁̇ㄉㄜ0쎯ㄇㄧㄢˋ0쎯	-10.1296
ㄢ0쎯ㄒㄧㄢˋ0쎯	-10.1306
ㄕㄠˋ1쎯	-10.1314
ㄊㄢˊ1쎯	-10.1316
▁ㄍㄨㄥ0쎯ㄖㄣˊ0쎯	-10.1317
▁ㄙㄞ1쎯	-10.1318
▁ㄠˋ3쎯ㄉㄚˋ쎯ㄌㄧˋ6쎯	-10.132
ㄐㄧㄥˋ4쎯	-10.1326
▁ㄡ0쎯ㄨㄟˇ5쎯	-10.1331
▁ㄗㄨㄟˋ1쎯	-10.1332
▁ㄕㄥ1쎯ㄘㄨㄣˊ쎯	-10.1336
▁ㄇㄢˋ2쎯ㄒㄧㄥˋ2쎯	-10.1342
ㄆㄨˇ3쎯	-10.1342
▁ㄨˇ7쎯ㄊㄞ0쎯	-10.1344
ㄍㄡ1쎯	-10.1346
▁ㄐㄧㄤ0쎯ㄋㄚ1쎯	-10.1346
▁ㄆㄧㄥˊ0쎯ㄇㄧㄢˋ0쎯	-10.1351
▁ㄐㄧˋ12쎯	-10.1351
▁ㄅㄧˋ14쎯	-10.1355
▁ㄍㄨㄥˋ0쎯ㄒㄧㄤˇ0쎯	-10.1357
▁ㄕㄣˊ1쎯ㄅㄧˋ7쎯	-10.1357
▁ㄋㄩˇ0쎯ㄖㄣˊ0쎯	-10.1361
▁ㄇㄢˋ1쎯	-10.1362
ㄔㄣˊ6쎯	-10.1365
▁ㄒㄧㄢˋ1쎯ㄔㄤˊ1쎯	-10.137
▁ㄋㄚ1쎯ㄔㄠˊ1쎯	-10.1375
ㄕㄥ0쎯	-10.138
▁ㄔㄨ0쎯ㄊㄨˇ0쎯	-10.1382
▁ㄍㄨㄟ4쎯	-10.1383
▁쎆쎈	-10.1384
ㄔㄥˊ4쎯ㄒㄧㄢˋ0쎯	-10.1388
ㄆㄟˊ1쎯	-10.139
ㄈㄨˋ9쎯	-10.1391
▁ㄕˋ8쎯ㄨˋ2쎯	-10.1392
ㄩㄣˋ3쎯	-10.1394
▁ㄒㄧㄢˋ3쎯ㄌㄨˋ5쎯	-10.1403
▁ㄧ0쎯ㄅㄨˋ4쎯ㄈㄣ0쎯	-10.1406
▁쎁쎂쎈	-10.1407
ㄕㄨㄞˋ0쎯	-10.1409
ㄐㄧㄢ7쎯	-10.141
ㄆㄧㄢ2쎯	-10.1412
▁ㄅㄧˋ10쎯	-10.1414
▁쎁쎅쎀쎀	-10.1423
▁ㄊㄨˇ0쎯ㄖㄤˇ0쎯	-10.1424
▁ㄐㄧㄣˋ0쎯ㄎㄡˇ쎯	-10.1425
▁쎁쎉쎃쎈	-10.1426
▁ㄍㄡˋ0쎯ㄗㄠˋ2쎯	-10.1443
▁ㄊㄢˊ1쎯	-10.1451
ㄒㄧㄚˊ1쎯	-10.1457
ㄍㄞˋ5쎯	-10.1457
ㄈㄨˋ16쎯	-10.1459
▁}	-10.146
ㄏㄨㄥˊ2쎯	-10.1461
▁ㄍㄨㄟ2쎯ㄌㄩˋ0쎯	-10.1462
ㄗㄚˊ0쎯	-10.1463
▁ㄗㄥ0쎯ㄔㄤˊ0쎯	-10.1471
▁ㄗㄨㄟˇ쎯	-10.1471
▁ㄊㄧㄢ0쎯ㄐㄧㄣ4쎯ㄕˋ4쎯	-10.1476
▁ㄍㄨㄛ0쎯ㄑㄩˋ0쎯	-10.1478
▁ㄇㄧㄠˋ1쎯	-10.148
▁ㄎㄨㄥ0쎯ㄉㄧㄠˋ2쎯	-10.1481
▁ㄉㄢˇ0쎯	-10.1481
▁ㄓㄣˋ2쎯	-10.1482
ㄇㄧㄣˊ0쎯ㄉㄤˇ1쎯	-10.1482
▁쎂쎄쎀	-10.1487
▁ㄅㄧㄥˇ1쎯ㄔㄥˊ3쎯	-10.1492
쎇쎇	-10.1495
ㄜˋ2쎯	-10.1497
▁ㄐㄧㄢˋ9쎯	-10.1505
▁ㄔㄢˊ2쎯	-10.1507
▁ㄓㄣ3쎯	-10.1508
ㄒㄧˋ1쎯	-10.151
ㄩㄢˊ6쎯	-10.1511
▁ㄐㄩㄣˋ4쎯	-10.1512
ㄈㄢˊ0쎯	-10.1516
쎂쎉	-10.1516
▁ㄓㄨㄢ1쎯	-10.1517
ㄩㄝˋ4쎯	-10.1529
▁쎁쎂쎀쎀	-10.1532
▁ㄒㄧㄥˊ1쎯ㄓㄨㄤˋ1쎯	-10.1533
▁ㄒㄧㄥˋ2쎯ㄍㄜˊ2쎯	-10.1538
▁ㄑㄩㄢˊ2쎯	-10.1541
▁ㄖㄨˊ1쎯	-10.1541
▁ㄑㄩ	-10.1544
▁ㄔㄥˊ7쎯	-10.1548
▁ㄏㄥˊ0쎯	-10.1549
▁ㄗㄞˋ1쎯ㄒㄧㄢˋ3쎯	-10.156
ㄔㄤˊ4쎯ㄨㄟˇ5쎯ㄏㄨㄟˋ2쎯	-10.156
ㄈㄚˊ1쎯	-10.1564
ㄇㄠˋ0쎯	-10.1569
▁ㄩㄣˋ3쎯	-10.1573
▁ㄧ4쎯ㄊㄨㄛ0쎯	-10.1575
ㄔㄢˊ0쎯ㄨㄟˋ2쎯	-10.1576
▁ㄒㄩㄣˊ2쎯	-10.1582
▁ㄎㄨㄛˋ0쎯ㄉㄚˋ쎯	-10.1585
ㄓㄨㄥ3쎯	-10.1593
▁ㄕㄣˇ1쎯	-10.1594
▁ㄒㄧㄚˊ3쎯	-10.1603
ㄕˊ0쎯ㄦˋ0쎯	-10.1603
▁ㄐㄧ12쎯ㄧㄣ0쎯	-10.1604
ㄎㄜˊ쎯	-10.1606
ㄍㄨ6쎯	-10.1608
▁ㄌㄨㄥˊ5쎯	-10.1609
▁쎁쎉쎄쎅	-10.161
▁ㄕㄨㄟˇ쎯ㄎㄨˋ0쎯	-10.1614
▁ㄧˋ2쎯	-10.1616
▁ㄐㄧㄠˋ4쎯ㄨㄟˊ0쎯	-10.1616
ㄅㄢˋ1쎯	-10.1619
▁ㄒㄩㄥ1쎯ㄉㄧˋ0쎯	-10.1619
▁ㄖㄣˊ0쎯ㄌㄧˋ0쎯	-10.162
▁ㄎㄜˋ2쎯ㄩㄣˋ1쎯	-10.1625
▁ㄙㄨㄟˋ2쎯	-10.1625
▁ㄏㄨ1쎯	-10.1626
ㄊㄧㄥ1쎯	-10.1628
▁ㄜˊ1쎯ㄌㄨㄛˊ0쎯ㄙ4쎯	-10.1628
▁ㄏㄨㄛˋ5쎯	-10.1638
-	-10.1639
▁ㄅㄧㄢˋ0쎯ㄔㄥˊ0쎯	-10.1641
ㄘㄤ2쎯	-10.1645
▁ㄢ	-10.1646
▁ㄖㄜˋ쎯ㄉㄞˋ1쎯	-10.1648
ㄊㄧㄥˊ0쎯	-10.1648
ㄉㄚ1쎯	-10.1651
▁ㄧㄥ0쎯ㄍㄞ0쎯	-10.1653
ㄍㄨˇ4쎯	-10.1654
▁ㄧㄡ0쎯ㄏㄨㄚˋ0쎯	-10.1655
▁쎉쎉	-10.1657
ㄐㄧㄢ0쎯	-10.1658
▁ㄉㄢˋ6쎯ㄅㄞˊ0쎯	-10.1661
▁쎁쎉쎃쎆	-10.1665
▁ㄓㄨˇ0쎯ㄓˋ5쎯	-10.1666
▁{	-10.1666
▁쎁쎉쎅쎁	-10.1667
▁ㄌㄧㄢˊ3쎯	-10.1669
▁ㄆㄧㄥˊ4쎯ㄐㄧㄝˋ5쎯	-10.1673
쎇쎂	-10.1674
ㄩˇ5쎯	-10.1677
▁쎁쎉쎃쎅	-10.1682
▁ㄧˋ18쎯ㄐㄧㄢˋ0쎯	-10.1683
ㄏㄠˊ2쎯	-10.1684
ㄖㄣˊ0쎯ㄇㄧㄣˊ0쎯ㄅㄧˋ0쎯	-10.1691
▁ㄖㄣˊ3쎯ㄓˊ4쎯	-10.1692
쎇쎃	-10.1692
▁ㄩㄥˇ3쎯	-10.1693
▁ㄈㄨˊ11쎯ㄕㄜˋ3쎯	-10.1694
▁ㄈㄚ쎯ㄕㄜˋ3쎯	-10.1695
▁ㄍㄢ0쎯ㄗㄠˋ4쎯	-10.1696
▁쎁쎉쎇쎁	-10.1698
▁ㄈㄨˊ0쎯	-10.17
▁ㄍㄨㄥ0쎯ㄔㄤˇ0쎯	-10.17
▁ㄌㄨㄢˋ쎯	-10.1701
▁ㄈㄚ쎯ㄩˋ3쎯	-10.1702
▁ㄓㄥ5쎯ㄓㄨㄤˋ1쎯	-10.1704
▁ㄏㄨㄛˋ2쎯ㄐㄧㄤˇ1쎯	-10.1705
▁ㄓㄢˇ2쎯ㄎㄞ0쎯	-10.1709
ㄐㄧˊ1쎯ㄌㄧㄣˊ1쎯ㄕㄥˇ0쎯	-10.1709
▁ㄔㄜ0쎯ㄌㄧㄤˋ2쎯	-10.1713
▁ㄇㄧㄣˊ0쎯ㄓㄨˇ0쎯	-10.1714
▁ㄓㄨㄢ0쎯ㄓㄨˋ3쎯	-10.1715
▁쎁쎃쎀	-10.1718
▁ㄨ5쎯	-10.1721
쎄쎁	-10.1724
▁ㄐㄧㄝ6쎯	-10.1726
ㄜˇ쎯	-10.1728
▁ㄕㄡˋ0쎯	-10.173
▁ㄑㄩㄢˊ1쎯ㄕㄥˇ0쎯	-10.1731
▁ㄍㄞˇ쎯ㄨㄟˊ0쎯	-10.1731
▁ㄒㄧㄚˋ0쎯ㄕㄜˋ0쎯	-10.1732
▁ㄧㄡˇ0쎯	-10.1736
▁ㄇㄡˇ쎯ㄒㄧㄝ0쎯	-10.174
▁ㄧㄡˊ2쎯	-10.1747
ㄔˊ4쎯	-10.1748
▁ㄈㄨˇ5쎯ㄓㄨˋ0쎯	-10.175
ㄇㄧㄠˋ0쎯	-10.1754
▁ㄆㄠˊ1쎯	-10.176
▁ㄧ0쎯ㄓˋ7쎯	-10.1762
▁ㄐㄧㄝ1쎯	-10.1769
ㄅㄧㄥˇ4쎯	-10.177
▁ㄨㄟˊ6쎯ㄕㄥ1쎯ㄙㄨˋ2쎯	-10.177
▁ㄕㄜˋ6쎯	-10.1771
ㄐㄧㄝˋ0쎯	-10.1774
▁ㄖㄨㄥˊ4쎯	-10.1776
ㄆㄥˊ3쎯	-10.1781
▁ㄉㄨㄢ0쎯ㄎㄡˇ쎯	-10.1782
▁ˇ	-10.1782
▁ㄐㄧㄠ0쎯ㄏㄨㄟˋ1쎯	-10.1783
▁ㄦˊ1쎯ㄕˋ15쎯	-10.1785
▁ㄎㄨㄥˋ0쎯	-10.1786
▁ㄅㄤ1쎯	-10.1787
▁쎁쎉쎃쎃	-10.1788
▁ㄧㄤˊ2쎯ㄍㄨㄤ0쎯	-10.1788
▁ㄗㄨㄟˋ0쎯ㄨㄟˊ0쎯	-10.1791
ㄅㄟˋ6쎯	-10.1791
ㄕˋ20쎯ㄧˋ1쎯	-10.1792
▁ㄉㄡˋ2쎯ㄕㄨ0쎯	-10.1796
ㄓ6쎯	-10.1798
쎅쎇	-10.1799
▁ㄍㄨㄢ1쎯ㄓㄨㄥˋ1쎯	-10.1801
ㄇㄛˋ5쎯	-10.1806
▁ㄈㄢˊ3쎯ㄏㄨㄚˊ1쎯	-10.1809
▁ㄑㄩㄢˊ0쎯ㄨㄟ1쎯	-10.1811
▁ㄍㄨㄥ5쎯ㄧㄥ0쎯	-10.1813
▁ㄌㄧˊ0쎯	-10.1813
▁ㄍㄨㄢ0쎯ㄐㄧㄢˋ13쎯	-10.1813
▁ㄊㄨㄟ0쎯ㄐㄧㄢˋ3쎯	-10.1816
▁ㄑㄧㄥ5쎯ㄒㄧ10쎯	-10.1824
▁ㄙㄨㄛˇ0쎯ㄨㄟˋ6쎯	-10.1825
▁ㄐㄧˇ3쎯ㄋㄚ1쎯	-10.1829
▁ㄐㄩㄝˊ0쎯	-10.1834
▁ㄅㄨˋ1쎯ㄐㄩˊ0쎯	-10.1834
▁ㄙㄥ쎯	-10.1837
ㄅㄧˋ0쎯	-10.1851
ㄏㄨㄣ2쎯	-10.1861
▁ㄔㄤˊ0쎯ㄕㄚ2쎯	-10.1868
▁ㄕㄥ1쎯ㄉㄨㄥˋ0쎯	-10.1868
ㄍㄨˋ2쎯	-10.1869
▁ㄩㄢˊ4쎯ㄕˇ3쎯	-10.1872
▁ㄏㄨ1쎯ㄒㄧ2쎯	-10.1877
▁ㄇㄧㄢˊ1쎯	-10.1883
▁쎁쎈쎀쎀	-10.1892
▁ㄋㄤ0쎯	-10.1902
ㄏㄚ0쎯	-10.1905
▁ㄒㄩㄣˊ4쎯ㄏㄨㄢˊ0쎯	-10.1907
▁ㄐㄧㄝ3쎯ㄕㄨˋ1쎯	-10.191
▁ㄈㄟˋ4쎯	-10.1913
▁ㄉㄧˇ0쎯	-10.1914
▁ㄍㄨˇ0쎯ㄉㄧㄢˇ0쎯	-10.1918
ㄅㄛˊ2쎯	-10.1918
▁ㄊㄨㄥ0쎯ㄉㄠˋ3쎯	-10.1919
▁ㄑㄧㄥ0쎯ㄕㄠˇ쎯ㄋㄧㄢˊ0쎯	-10.1922
▁ㄉㄧㄢˇ0쎯	-10.1922
ㄇㄟˇ1쎯ㄕㄨˋ0쎯	-10.1922
ㄋㄤ0쎯	-10.1924
▁ㄕ3쎯ㄍㄜ7쎯	-10.1924
▁ㄕㄜˊ2쎯	-10.1925
ㄈㄣ1쎯	-10.1928
ㄙㄤ1쎯	-10.1929
▁ㄍㄢ1쎯ㄙㄨˋ1쎯ㄕㄥˇ0쎯	-10.1936
ㄉㄨㄥˋ0쎯ㄨˋ3쎯	-10.1938
ㄑㄧˇ3쎯	-10.194
▁ㄐㄧ7쎯	-10.194
▁ㄊㄤˊ0쎯ㄉㄞˋ0쎯	-10.1943
▁ㄓㄨㄢˇ쎯ㄏㄨㄢˋ2쎯	-10.1945
ㄑㄧㄠˇ0쎯	-10.1946
▁ㄐㄧㄠ6쎯ㄓˊ4쎯ㄍㄨㄥ0쎯	-10.1947
ㄩㄝˋ3쎯	-10.195
▁ㄉㄨㄛ0쎯ㄒㄧㄤˋ1쎯	-10.1954
ㄖ	-10.1966
▁ㄎㄞ0쎯ㄕㄜˋ0쎯	-10.1967
▁쎁쎉쎄쎈	-10.1971
▁ㄉㄧㄢˋ0쎯ㄌㄧㄡˊ3쎯	-10.1976
▁ㄕㄜˋ1쎯ㄊㄨㄢˊ0쎯	-10.1985
▁ㄘㄥˊ0쎯ㄘˋ0쎯	-10.1986
▁ㄑㄧˊ1쎯ㄕˊ3쎯	-10.1987
▁ㄉㄚˊ0쎯ㄧㄣˋ0쎯	-10.199
▁ㄓㄨˋ9쎯	-10.199
▁ㄅㄠˋ0쎯ㄉㄠˋ3쎯	-10.199
▁ㄍㄨㄤ0쎯ㄒㄩˋ5쎯	-10.1992
▁ㄎㄞ0쎯ㄊㄚˋ0쎯	-10.1993
▁ㄙㄨㄢˋ1쎯	-10.1993
▁ㄓㄨㄢ0쎯ㄓㄨˋ7쎯	-10.1994
ㄗˋ0쎯ㄓˋ5쎯ㄒㄧㄢˋ0쎯	-10.1994
ㄍㄨˇ2쎯	-10.1996
▁ㄋㄚ0쎯ㄒㄧㄝ0쎯	-10.1997
ㄕˋ3쎯ㄐㄧㄝˋ3쎯	-10.1998
▁ㄅㄟˇ쎯ㄈㄤ0쎯	-10.1998
▁ㄦˇ1쎯ㄐㄧ6쎯	-10.1999
ㄖㄨㄛˋ0쎯	-10.2005
ㄆㄛˊ0쎯	-10.2009
▁ㄙㄨˋ6쎯	-10.2013
▁ㄨㄣˇ2쎯	-10.2017
▁ㄐㄩㄣ0쎯ㄉㄨㄟˋ0쎯	-10.2018
▁ㄙㄨˊ쎯	-10.202
▁ㄅㄧㄣ0쎯ㄍㄨㄢˇ0쎯	-10.2024
▁쎄쎉	-10.2025
▁ㄏㄠˊ2쎯	-10.2026
▁ㄔㄜˇ0쎯	-10.2026
▁ㄐㄧㄚ0쎯ㄖㄜˋ쎯	-10.2029
▁ㄑㄩㄢˊ3쎯	-10.2031
▁ㄑㄧㄥ1쎯ㄙㄨㄥ0쎯	-10.2034
ㄓㄣˋ1쎯	-10.2035
ㄇㄧㄠˊ0쎯	-10.2036
▁ㄐㄧㄠ0쎯ㄏㄨㄢˋ2쎯	-10.204
▁ㄎㄞˇ0쎯	-10.2046
▁ㄗˋ0쎯ㄓˋ5쎯ㄡ0쎯	-10.2048
ㄒㄧㄢˋ0쎯ㄓㄥˋ3쎯ㄈㄨˇ3쎯	-10.2049
ㄨㄢˊ0쎯	-10.2051
▁★	-10.2054
▁ㄕˋ4쎯ㄐㄧˊ2쎯	-10.2057
▁ㄌㄧㄣˊ1쎯ㄧㄝˋ0쎯	-10.2062
▁ㄧㄤˋ0쎯	-10.2067
▁ㄢˋ2쎯ㄌㄧˋ8쎯	-10.2069
▁ㄏㄨㄥˊ1쎯ㄐㄩㄣ0쎯	-10.2072
ㄍㄞ0쎯	-10.2075
▁ㄐㄧˋ1쎯ㄧˋ3쎯	-10.2078
▁ㄕˋ0쎯	-10.2082
ㄓㄞ0쎯	-10.2083
▁ㄔˊ5쎯	-10.2086
▁쎇쎈	-10.209
▁ㄈㄨˇ5쎯ㄉㄠˇ0쎯	-10.2096
ㄒㄧ5쎯	-10.2096
▁ㄓㄨㄥ0쎯ㄧㄠˋ0쎯	-10.2102
▁ㄍㄨˇ2쎯ㄆㄧㄠˋ0쎯	-10.2102
▁ㄎㄜˇ0쎯ㄉㄚˊ1쎯	-10.2103
ㄏㄨㄥˊ5쎯	-10.2106
▁ㄊㄨㄥ0쎯ㄓ7쎯	-10.2112
▁ㄅㄣˇ0쎯ㄆㄧㄣˇ쎯	-10.2128
ㄧㄥˊ2쎯	-10.2131
▁ㄩㄢˊ2쎯	-10.2133
▁ㄍㄨㄢˋ2쎯ㄇㄨˋ0쎯	-10.2134
▁ㄒㄧㄝˊ1쎯	-10.2136
ㄧㄢˊ6쎯ㄐㄧㄡ1쎯ㄩㄢˋ2쎯	-10.2138
▁ㄑㄧˇ3쎯ㄉㄨㄥˋ0쎯	-10.214
▁쎅쎃	-10.2158
ㄘㄨㄣ0쎯ㄖㄣˊ0쎯	-10.2167
ㄈㄢˋ1쎯	-10.2167
▁ㄨㄟˊ0쎯ㄓㄨㄣˇ0쎯	-10.2169
▁ㄕㄨㄟˇ쎯ㄋㄧˊ1쎯	-10.2172
▁ㄕㄠˇ쎯ㄋㄩˇ0쎯	-10.2173
▁쎇쎆	-10.2173
▁ㄏㄨㄥˊ2쎯	-10.2174
▁ㄐㄧㄥˋ8쎯ㄊㄡˊ0쎯	-10.2176
▁ㄆㄧㄥˊ1쎯ㄍㄨ0쎯	-10.2177
▁ㄆㄧㄥˊ0쎯ㄈㄤ0쎯	-10.2181
▁ㄎㄠˇ2쎯	-10.2183
▁쎂쎀쎁쎄	-10.2183
▁ㄊㄧ0쎯ㄐㄧ11쎯	-10.2186
▁ㄓㄥˋ0쎯ㄕㄨ0쎯	-10.2189
ㄈㄢˋ3쎯	-10.219
ㄍㄨㄢˇ1쎯ㄌㄧˇ3쎯	-10.2192
▁ㄔㄨ0쎯ㄗˋ0쎯	-10.2195
▁ㄒㄧㄥˊ0쎯	-10.2197
▁ㄍㄨㄥ2쎯ㄅㄨˋ1쎯	-10.2203
ㄒㄧㄝˋ5쎯	-10.2205
ㄎㄞˇ0쎯	-10.2212
▁ㄓㄨㄣˇ0쎯ㄑㄩㄝˋ1쎯	-10.2212
▁ㄍㄨㄢ1쎯ㄔㄚˊ3쎯	-10.2213
▁ㄒㄧㄣ5쎯ㄐㄧㄚ0쎯ㄆㄛ0쎯	-10.2219
ㄐㄩˋ8쎯	-10.2223
ㄐㄧㄠ1	-10.223
▁ㄏㄢˋ0쎯ㄩˇ6쎯	-10.2231
ㄒㄧㄣ2쎯	-10.2231
▁ㄑㄧˋ0쎯ㄊㄧ0쎯	-10.2232
▁ㄧ0쎯ㄉㄧㄢˇ1쎯	-10.2235
▁ㄇㄧㄥˊ0쎯ㄨㄟˊ0쎯	-10.2235
ˊ10쎯	-10.2244
▁ㄔㄠ4쎯ㄐㄧˊ2쎯	-10.2244
ㄔㄨㄥ0쎯	-10.2245
ㄠˇ1쎯	-10.2255
ㄉㄢˇ0쎯	-10.2256
ㄅㄧㄣ3쎯	-10.2264
ㄎㄨˇ쎯	-10.2265
▁쎇쎂	-10.2265
▁ㄋㄧㄢˊ0쎯ㄌㄧㄥˊ11쎯	-10.2268
▁ㄗㄨㄛˋ2쎯ㄈㄚˇ0쎯	-10.2271
▁ㄌㄩˋ4쎯	-10.2279
▁ㄅㄨˋ0쎯ㄊㄨㄥˊ0쎯	-10.2283
ㄌㄧㄡˇ0쎯	-10.2283
▁ㄍㄨˇ3쎯	-10.2284
ㄒㄩㄣˋ1쎯	-10.2286
▁ㄓㄠˋ2쎯ㄆㄧㄢ0쎯	-10.2287
▁ㄍㄞˇ쎯ㄗㄠˋ2쎯	-10.2291
▁쎈쎈	-10.2292
▁ㄊㄨㄥˇ0쎯	-10.2295
▁ㄐㄧˊ0쎯ㄕˊ1쎯	-10.2296
▁ㄗㄞˋ1쎯ㄩˊ0쎯	-10.2299
▁ㄏㄚ0쎯ㄦˇ0쎯ㄅㄧㄣ3쎯	-10.2304
ㄅㄧㄠˇ0쎯ㄉㄚˋ쎯ㄏㄨㄟˋ2쎯	-10.2304
▁ㄨㄟ0쎯ㄒㄧㄢˇ1쎯	-10.2308
ㄍㄨㄢˇ1쎯ㄌㄧˇ3쎯ㄐㄩˊ0쎯	-10.2315
▁ㄓㄨㄥ1쎯	-10.2324
▁ㄑㄩ2쎯ㄉㄨㄥˋ0쎯	-10.2327
▁ㄏㄨˋ0쎯ㄉㄨㄥˋ0쎯	-10.233
ㄩˋ13쎯	-10.2331
ㄧㄥˋ1쎯	-10.2336
ㄧˊ8쎯	-10.234
▁ㄅㄧㄥˇ2쎯	-10.2342
ㄈㄟˊ0쎯	-10.2349
▁ㄡˇ1쎯	-10.235
▁ㄐㄧㄠˇ6쎯ㄅㄢˋ4쎯	-10.2353
▁ㄇㄛˊ0쎯ㄌㄨㄣˊ2쎯	-10.2353
▁ㄘㄨㄥˊ1쎯ㄕㄨ0쎯	-10.2356
▁ㄌㄩˋ0쎯ㄕ2쎯	-10.2357
▁ㄙㄨ0쎯ㄡ0쎯	-10.2358
▁ㄇㄠ쎯	-10.2369
▁ㄋㄚ1쎯ㄈㄤ0쎯	-10.2374
▁ㄐㄧㄤ3쎯	-10.2375
ㄇㄚ2쎯	-10.2375
▁ㄧㄝˋ3쎯ㄊㄧ0쎯	-10.2375
▁ㄋㄢˊ0쎯ㄗˇ0쎯	-10.2379
▁ㄓ2쎯ㄧㄠ4쎯	-10.238
▁쎅쎇	-10.2382
ㄗˋ0쎯ㄓˋ5쎯ㄡ0쎯	-10.2385
▁ㄓㄨㄢˇ쎯ㄧˊ7쎯	-10.2386
ㄧㄢ5쎯	-10.2388
▁ㄐㄧ11쎯ㄌㄟˊ0쎯	-10.2392
▁ㄙㄨˊ쎯ㄔㄣˋ1쎯	-10.2393
ㄘㄞˇ0쎯	-10.2394
▁ㄉㄧˊ1쎯ㄖㄣˊ0쎯	-10.2395
▁ㄏㄢˊ2쎯ㄕㄨˇ5쎯	-10.2397
▁ㄊㄡˋ쎯ㄇㄧㄥˊ1쎯	-10.2398
▁ㄗ2쎯ㄒㄩㄣˋ1쎯	-10.2399
ㄍㄨㄟˇ0쎯	-10.2399
▁ㄇㄛˊ7쎯ㄈㄚˇ0쎯	-10.2403
▁쎁쎉쎃쎇	-10.2404
▁ㄒㄧ2쎯ㄧㄣˇ0쎯	-10.2406
ㄧㄢˊ10쎯	-10.2406
▁ㄐㄧˋ11쎯ㄔㄥˊ3쎯	-10.2409
▁ㄉㄚˋ쎯ㄏㄨㄟˋ2쎯	-10.2413
▁쎇쎀쎀	-10.2414
▁ㄕㄨ0쎯ㄐㄧˊ12쎯	-10.2416
▁ㄌㄨˊ3쎯	-10.2418
▁ㄉㄨㄥ0쎯ㄐㄧㄥ1쎯	-10.2419
▁ㄏㄜˊ6쎯	-10.2421
▁ㄆㄧㄥˊ4쎯	-10.2433
▁ㄐㄩ1쎯ㄨㄟˇ5쎯ㄏㄨㄟˋ2쎯	-10.244
쎆쎉	-10.2441
ㄘˊ4쎯	-10.2444
ㄉㄧㄢˋ2쎯	-10.2445
▁ㄓㄠˇ1쎯ㄉㄠˋ0쎯	-10.2446
▁ㄆㄛ0쎯	-10.2447
▁ㄍㄢˇ3쎯ㄕㄡˋ1쎯	-10.2447
ㄉㄧㄥˇ1쎯	-10.2455
▁ㄕˊ0쎯ㄅㄚ0쎯	-10.2461
▁ㄈㄤˊ3쎯ㄨ5쎯	-10.2461
▁ㄉㄧㄢˋ0쎯ㄑㄧˋ7쎯	-10.2461
▁ㄉㄚˋ쎯ㄉㄨㄟˋ0쎯	-10.2464
ㄧˋ14쎯	-10.2466
▁ㄔˊ4쎯	-10.2467
▁ㄋㄥˊ쎯ㄌㄧㄤˊ3쎯	-10.2469
▁ㄍㄥˇ3쎯	-10.247
ㄊㄧㄥˇ1쎯	-10.2471
ㄑㄩㄣˊ1쎯ㄉㄠˇ1쎯	-10.2474
▁ㄅㄧㄣ3쎯	-10.2475
▁ㄑㄧㄥ0쎯ㄔㄨㄣ0쎯	-10.248
ㄉㄨˋ3쎯	-10.248
▁ㄆㄧㄣˊ1쎯ㄉㄠˋ3쎯	-10.2481
▁ㄕㄨㄟˋ1쎯	-10.2484
ㄐㄧㄝˊ4쎯	-10.2486
ㄢ0쎯ㄕˋ4쎯	-10.2488
▁ㄈㄤˊ0쎯ㄓˇ0쎯	-10.2491
▁ㄩㄝˋ1쎯	-10.2493
ㄘㄞˊ2쎯	-10.2494
▁ㄧㄣˇ1쎯ㄕˊ4쎯	-10.2495
▁ㄒㄧㄡ0쎯	-10.2498
▁ㄔㄨㄢˊ0쎯ㄐㄧ9쎯	-10.2502
▁ㄉㄧㄠˋ2쎯ㄌㄧㄠˋ0쎯	-10.2503
▁ㄧˇ2쎯ㄑㄧㄢˊ0쎯	-10.2505
▁ㄍㄨㄟˋ1쎯ㄓㄡ1쎯ㄕㄥˇ0쎯	-10.2512
ㄧㄢˋ8쎯	-10.2512
ㄘˊ8쎯	-10.2513
▁ㄍㄢˇ2쎯	-10.2517
ㄏㄜˊ4쎯	-10.2518
▁ㄓㄤˋ6쎯ㄞˋ3쎯	-10.2519
▁ㄍㄨㄤˇ0쎯ㄓㄡ1쎯ㄕˋ4쎯	-10.2527
ㄨㄟˊ1	-10.2532
▁ㄞˋ1쎯ㄏㄠˇ0쎯ㄓㄜˇ0쎯	-10.2543
▁ㄍㄥ0쎯ㄕˋ15쎯	-10.2549
ㄒㄧ13쎯	-10.2552
▁쎁쎉쎄쎇	-10.2559
ㄑㄩˊ0쎯	-10.256
▁ㄒㄩㄢˊ2쎯	-10.2563
▁ㄨㄤˇ2쎯ㄨㄤˇ2쎯	-10.2563
▁ㄕ6쎯ㄉㄨˋ2쎯	-10.2565
▁ㄙㄡ0쎯ㄙㄨㄛˇ1쎯	-10.2571
▁쎅쎀쎀쎀	-10.2573
ㄍㄨㄥ2쎯ㄕㄜˋ1쎯	-10.2577
▁ㄒㄧㄝˊ8쎯	-10.2578
▁ㄉㄧㄢˋ0쎯ㄌㄨˋ5쎯	-10.2578
▁ㄗㄨㄛ0쎯ㄔㄨ0쎯	-10.2579
▁ㄅㄧㄝˊ0쎯ㄕㄨˋ7쎯	-10.258
ㄩˋ2쎯	-10.2581
15쎯	-10.2585
▁ㄒㄧㄤ1쎯ㄕˋ6쎯	-10.2587
ㄧㄠ3쎯	-10.2587
▁ㄧㄢˊ3쎯ㄉㄢˋ0쎯	-10.2587
▁ㄧㄣ0쎯ㄦˊ1쎯	-10.2591
ㄑㄩˋ1쎯	-10.2592
▁ㄒㄧㄡ1쎯ㄍㄞˇ쎯	-10.2595
ㄑㄧㄤˊ0쎯	-10.2601
▁ㄇㄧㄢˋ0쎯ㄈㄣˇ쎯	-10.2602
▁ㄎㄨㄣ1쎯ㄇㄧㄥˊ1쎯	-10.2604
▁ㄐㄧㄣ5쎯	-10.2609
ㄐㄧㄠ5쎯	-10.2615
쎅쎀쎀	-10.2616
▁쎅ㄇㄛˋ0쎯	-10.2616
ㄐㄩㄝˊ6쎯	-10.2618
▁m2	-10.2618
▁ㄓㄢˇ2쎯ㄒㄧㄢˋ1쎯	-10.2622
▁ㄗㄨˇ1쎯ㄓ9쎯ㄅㄨˋ4쎯	-10.2624
▁ㄔㄨㄣ0쎯ㄑㄧㄡ1쎯	-10.2624
▁ㄌㄧˇ3쎯ㄍㄨㄥ0쎯	-10.2629
▁ㄇㄧㄢˋ0쎯ㄉㄨㄟˋ1쎯	-10.263
ㄩˋ1쎯	-10.2631
ㄔㄨㄥˊ2쎯ㄧㄠ4쎯	-10.2632
▁ㄕㄨㄞ0쎯	-10.2638
▁ㄔㄨㄟ0쎯	-10.2638
ㄇㄨˋ5쎯	-10.2639
▁ㄒㄧˊ0쎯ㄍㄨㄢˋ1쎯	-10.2648
▁ㄏㄨㄤˊ1쎯ㄏㄜˊ3쎯	-10.265
▁ㄔㄨ0쎯ㄔㄤˊ1쎯	-10.2651
▁ㄉㄧㄢˋ9쎯	-10.2653
▁ㄇㄡˊ0쎯	-10.2654
▁ㄑㄧˊ7쎯	-10.2658
▁ㄏㄨㄢˋ5쎯	-10.2663
▁ㄧ3쎯ㄕㄥ1쎯	-10.2665
ㄍㄡˋ1쎯	-10.2666
▁ㄐㄧㄠ6쎯ㄧㄢˊ6쎯ㄕˋ18쎯	-10.2676
▁ㄔㄞˊ0쎯	-10.2676
▁쎆쎁	-10.2678
▁ㄐㄧㄚ0쎯ㄕㄤˇ0쎯	-10.2685
▁ㄉㄢˋ6쎯ㄅㄞˊ0쎯ㄓˋ4쎯	-10.2689
▁ㄓㄨㄢˋ1쎯ㄒㄧㄝˇ0쎯	-10.2692
▁ㄎㄤ0쎯ㄒㄧ15쎯	-10.2694
▁ㄇㄣˊ0쎯ㄏㄨˋ1쎯	-10.2694
▁ㄘㄨˋ2쎯	-10.2694
▁ㄩㄝˋ6쎯	-10.2698
:	-10.2701
ㄍㄢ1쎯	-10.2702
▁ㄆㄟˋ2쎯ㄐㄧㄢˋ1쎯	-10.2708
ㄐㄧㄤ3쎯	-10.2715
▁ㄊㄜˋ0쎯ㄉㄧㄥˋ1쎯	-10.2716
▁ㄘㄜˋ4쎯ㄌㄩㄝˋ1쎯	-10.2716
ㄅㄠ3쎯	-10.2718
ㄅㄨˋ4쎯ㄈㄣ0쎯	-10.2723
▁ㄊㄜˋ0쎯ㄧㄡˇ1쎯	-10.2725
ㄒㄧㄣ0쎯ㄌㄧˇ3쎯ㄒㄩㄝˊ1쎯	-10.2726
ㄧㄢ1쎯	-10.2734
▁ㄘ0쎯ㄐㄧ18쎯	-10.2735
▁ㄘˊ7쎯	-10.2737
▁ㄆㄞˊ0쎯ㄌㄧㄝˋ0쎯	-10.2744
▁ㄌㄨˋ2쎯	-10.2744
▁ㄦˊ0쎯ㄗˇ0쎯	-10.2745
ㄌㄨˋ4쎯	-10.2746
ㄈㄤˇ2쎯	-10.2748
ㄕㄢ0쎯ㄡ0쎯	-10.2749
▁ㄐㄩㄝˊ0쎯ㄘㄜˋ4쎯	-10.2751
▁ㄨㄛˋ1쎯	-10.2753
▁ㄌㄨㄢˇ쎯ㄒㄧㄥˊ1쎯	-10.2754
▁ㄎㄜ4쎯ㄌㄧˋ15쎯	-10.2754
▁ㄑㄧㄥˊ0쎯ㄍㄢˇ3쎯	-10.2754
ㄌㄧㄢˋ0쎯	-10.276
▁ㄅㄣ0쎯	-10.2763
▁쎆쎃	-10.2763
ㄆㄛˋ0쎯	-10.2766
ㄨㄢˇ2쎯	-10.2766
ㄖㄠˊ0쎯	-10.2768
▁쎆쎂	-10.2769
ㄓㄣ3쎯	-10.2771
▁ㄒㄧ14쎯	-10.2776
▁ㄊㄞˋ0쎯ㄆㄧㄥˊ0쎯	-10.2777
▁ㄨㄟˊ3쎯	-10.2778
▁ㄏㄨㄚˊ1쎯ㄉㄨㄥ0쎯	-10.2783
▁ㄧ0쎯ㄕㄥ1쎯	-10.2791
ㄋㄚ0쎯	-10.2794
▁ㄔㄨㄤ0쎯ㄕˇ3쎯ㄖㄣˊ0쎯	-10.2796
쎇쎄	-10.2798
▁ㄍㄨㄛˇ0쎯ㄕˊ3쎯	-10.2799
▁ㄍㄠ0쎯ㄨㄣ0쎯	-10.2802
▁ㄓㄣˋ1쎯	-10.2802
▁ㄉㄞˋ1쎯ㄧㄡˇ1쎯	-10.2803
▁ㄨㄟˋ3쎯ㄉㄠˋ3쎯	-10.2804
▁ㄓㄥ0쎯ㄑㄩㄝˋ1쎯	-10.2806
▁ㄋㄧㄥˊ4쎯	-10.2806
ㄉㄨㄢˇ쎯	-10.2806
▁ㄇㄧㄥˊ1쎯ㄒㄧㄥ1쎯	-10.281
▁ㄋㄧㄠˋ0쎯	-10.2811
▁ㄍㄞˇ쎯ㄅㄧㄢ1쎯	-10.2821
▁ㄘㄞˊ2쎯ㄐㄧㄥ2쎯	-10.2821
▁ㄧ0쎯ㄒㄧㄚˋ0쎯	-10.2821
▁ㄉㄨ0쎯	-10.2823
▁ㄕㄜˊ0쎯	-10.2826
ㄈㄣˋ0쎯	-10.2827
▁ㄧㄤˇ2쎯	-10.2827
▁ㄍㄠ0쎯ㄎㄜ2쎯ㄐㄧˋ2쎯	-10.2829
ㄗ2쎯ㄔㄢˇ0쎯	-10.2829
▁ㄍㄡˋ1쎯	-10.2829
▁ㄎㄠˇ0쎯ㄖㄨˋ0쎯	-10.2853
▁ㄈㄚ쎯ㄑㄧˇ4쎯	-10.2858
▁ㄕˊ0쎯ㄋㄧㄢˊ0쎯	-10.2863
▁ㄌㄨㄛˋ0쎯ㄧㄤˊ2쎯	-10.2864
▁ㄒㄧㄤˇ0쎯ㄧㄡˇ1쎯	-10.2865
ㄨㄣˊ0쎯ㄏㄨㄚˋ0쎯	-10.2867
▁ㄒㄧㄡˋ3쎯ㄍㄤ6쎯	-10.2868
▁ㄈㄨˋ1쎯	-10.2869
▁ㄐㄧㄢˋ6쎯ㄕㄣ2쎯	-10.2871
▁ㄉㄞˋ1쎯ㄌㄧㄥˇ1쎯	-10.2871
▁ㄈㄟ2쎯ㄓㄡ3쎯	-10.2872
ㄇㄞˋ1쎯	-10.2878
▁ㄕㄣ0쎯ㄑㄧㄥˇ1쎯	-10.2882
▁ㄈㄥˊ0쎯	-10.2885
▁ㄨˇ0쎯ㄕˊ0쎯	-10.2885
▁ㄓ10쎯ㄈㄤˊ2쎯	-10.2886
ㄌㄧˋ13쎯	-10.2886
▁ㄑㄩㄢˊ1쎯ㄔㄤˊ0쎯	-10.2886
▁ㄅㄧˋ7쎯ㄇㄧˋ1쎯	-10.2887
ㄓㄣˇ0쎯	-10.2888
▁ㄏㄨㄚˊ0쎯	-10.2893
ㄔㄡˊ0쎯	-10.2898
ㄘㄨㄥ2쎯	-10.291
▁ㄧˋ18쎯ㄕˊ2쎯	-10.2916
▁쎁쎉쎄쎆	-10.2917
▁ㄌㄧㄡˋ1쎯ㄐㄩㄣ0쎯	-10.2917
▁ㄔㄤˊ1쎯ㄕㄤˇ0쎯	-10.292
ㄨˊ0쎯	-10.2921
▁ㄈㄨˋ11쎯ㄧㄡˇ1쎯	-10.2922
▁쎈쎀쎂	-10.2922
ㄧㄢˋ7쎯	-10.2922
▁ㄑㄧˊ6쎯	-10.2924
ㄔˋ2쎯	-10.2925
▁ㄉㄨㄢˇ쎯ㄒㄧㄣˋ0쎯	-10.2927
▁ㄧㄠˋ0쎯ㄆㄧㄣˇ쎯	-10.2929
▁ㄕˊ0쎯ㄌㄧㄡˋ0쎯	-10.2929
ㄔㄨㄣˊ3쎯	-10.2935
▁̇ㄋㄜ쎯	-10.2936
▁ㄔㄢˇ2쎯ㄕㄨˋ2쎯	-10.2938
▁ㄈㄨˇ0쎯	-10.2941
▁ㄈㄨˊ5쎯ㄨˋ2쎯ㄑㄧˋ7쎯	-10.2944
▁쎁쎉쎃쎀	-10.2948
▁ㄐㄧ6쎯ㄏㄨㄟˋ2쎯	-10.2948
▁ㄎㄨㄞˋ1쎯ㄐㄧㄝˊ4쎯	-10.2953
▁ㄈㄨˋ4쎯ㄕㄨˇ1쎯	-10.2955
▁ㄓㄥˋ1쎯ㄓㄡ1쎯	-10.2958
▁ㄕㄤˇ0쎯ㄇㄧㄢˋ0쎯	-10.2962
▁ㄔㄥˊ1쎯ㄒㄧㄢˋ1쎯	-10.2963
▁ㄐㄧ0쎯ㄍㄜˇ0쎯	-10.2964
▁ㄈㄤ0쎯ㄓㄣ1쎯	-10.2967
ㄅㄧˋ7쎯	-10.2969
ㄩㄢˋ1쎯	-10.2971
▁ㄐㄧㄝˊ1쎯ㄔㄨ0쎯	-10.2972
ㄐㄧㄠ7쎯	-10.2972
▁ㄇㄧˋ2쎯	-10.2972
▁ㄈㄥ1쎯ㄐㄧㄥˇ1쎯ㄡ0쎯	-10.2978
ㄒㄩㄣ	-10.2979
▁ㄒㄧㄠˇ0쎯ㄇㄞˋ1쎯	-10.298
▁ㄍㄨˇ0쎯ㄌㄠˇ0쎯	-10.2981
▁ㄌㄧˊ3쎯ㄗˇ0쎯	-10.2981
▁ㄒㄧㄡˋ0쎯ㄌㄧˊ0쎯	-10.2984
▁ㄏㄜˊ2쎯ㄆㄧㄥˊ0쎯	-10.2986
▁ㄊㄨㄢˊ0쎯ㄐㄧㄝ3쎯	-10.2988
ㄒㄧㄠˋ0쎯	-10.2993
▁ㄌㄩˇ2쎯ㄎㄜˋ2쎯	-10.2994
ㄙㄨˋ4쎯	-10.2995
▁ㄌㄧˇ8쎯	-10.2996
▁ㄘㄞˊ1쎯ㄓˋ4쎯	-10.2997
▁ㄕㄡ쎯ㄐㄧˊ8쎯	-10.2998
ㄕㄚ7쎯	-10.3
▁ㄕˇ2쎯ㄉㄜˊ0쎯	-10.3
ㄖㄨㄥˊ5쎯	-10.3001
▁ㄅㄨˋ4쎯ㄨㄟˋ2쎯	-10.3003
▁ㄇㄨˋ1쎯ㄌㄨˋ0쎯	-10.3004
▁ㄕㄨ9쎯	-10.3004
ㄈㄨˊ1쎯	-10.3005
▁ㄌㄧㄤˊ4쎯	-10.3006
▁ㄍㄨˋ2쎯	-10.3011
▁ㄒㄧㄤ1쎯ㄌㄧㄣˊ0쎯	-10.3012
▁ㄍㄢ2쎯	-10.3014
ㄧˋ3쎯	-10.3014
▁ㄐㄧㄢˋ13쎯ㄆㄢˊ1쎯	-10.3016
▁ㄆㄥˊ1쎯	-10.3017
ㄩㄥˇ3쎯	-10.3023
▁ㄏㄨˋ2쎯ㄌㄧˇ3쎯	-10.3027
▁ㄗㄨㄥˇ0쎯ㄊㄨㄥˇ0쎯	-10.3028
▁ㄅㄠˋ2쎯	-10.3038
ㄧㄠˋ1쎯	-10.304
ㄘˊ2쎯	-10.304
▁ㄏㄡˊ0쎯	-10.3044
▁ㄓㄨㄤˋ0쎯	-10.3047
ㄊㄨㄛˊ3쎯	-10.3049
▁ㄧ3쎯ㄎㄜ2쎯	-10.3052
ㄈㄨˋ3쎯	-10.3052
ㄧˋ5쎯	-10.3058
▁ㄍㄨㄥ2쎯ㄐㄧㄠ0쎯	-10.3062
ㄔㄨㄥ1쎯	-10.3062
ㄩㄢ2쎯	-10.3062
▁ㄍㄨㄞˋ0쎯	-10.3062
▁ㄦˇ0쎯	-10.3063
▁ㄐㄧㄠ6쎯ㄒㄩㄝˊ1쎯ㄅㄢ1쎯	-10.307
▁ㄇㄧㄣˊ0쎯ㄧㄥˊ5쎯	-10.307
▁ㄌㄧㄝˋ3쎯	-10.3072
▁ㄐㄧㄢˇ9쎯	-10.3075
▁ㄐㄧㄥ8쎯ㄒㄧㄣ0쎯	-10.3075
ㄒㄧㄢ3쎯	-10.3077
▁ㄅㄞˇ3쎯	-10.3077
ㄐㄧㄢˋ7쎯	-10.309
▁ㄖˋ0쎯ㄔㄤˊ4쎯	-10.3092
ㄧㄢˊ5쎯	-10.3092
ㄠˇ0쎯	-10.31
▁ㄨㄟˊ2쎯ㄖㄠˋ쎯	-10.3103
ㄖㄨㄥˊ9쎯	-10.3106
▁ㄙˋ1쎯ㄕˊ0쎯	-10.3107
▁ㄉㄨㄥ0쎯ㄋㄚ1쎯ㄅㄨˋ4쎯	-10.3111
▁ㄋㄧㄡˇ1쎯ㄧㄠ2쎯	-10.3113
ㄊㄢˇ0쎯	-10.3116
▁ㄗㄨㄥˇ0쎯ㄐㄧㄝ3쎯	-10.3118
▁ㄩㄣˊ1쎯	-10.3123
▁ㄌㄨˋ0쎯ㄧㄣ4쎯	-10.3125
▁ㄑㄧ7쎯	-10.3129
ㄧˋ11쎯	-10.314
▁ㄕㄥˋ1쎯ㄌㄧˋ6쎯	-10.3141
▁ㄉㄤ0쎯ㄒㄩㄢˇ0쎯	-10.3141
▁ㄑㄧˇ2쎯	-10.3149
▁ㄉㄧ3쎯	-10.315
▁ㄕˋ20쎯	-10.3153
▁ㄐㄧ18쎯ㄍㄨㄤ0쎯	-10.3156
▁ㄓㄨㄥ0쎯ㄨㄣˊ0쎯ㄐㄧˋ3쎯	-10.3156
ㄗㄚ0쎯	-10.3157
▁ㄒㄧ1쎯ㄅㄟˇ쎯ㄅㄨˋ4쎯	-10.3157
ㄖㄣˊ0쎯ㄇㄧㄣˊ0쎯	-10.3158
▁ㄈㄣ0쎯ㄓ6쎯	-10.316
▁ㄓㄨㄤˋ1쎯ㄎㄨㄤˋ1쎯	-10.316
▁ㄉㄨㄥˋ0쎯ㄇㄢˋ1쎯	-10.3167
ㄘㄨˋ1쎯	-10.3167
▁ㄕㄥ1쎯ㄔㄥˊ0쎯	-10.3172
ㄨㄤˋ2쎯	-10.3174
ㄙㄨㄥˋ1쎯	-10.3175
ㄙㄨˊ쎯	-10.3175
ㄈㄟ1쎯	-10.3176
ㄨˇ4쎯	-10.3177
▁ㄅㄤˋ1쎯	-10.3177
▁ㄍㄢ0쎯ㄐㄧㄥˋ1쎯	-10.318
▁ㄏㄢˊ3쎯ㄍㄞˋ3쎯	-10.3183
ㄕㄨㄛˋ1쎯	-10.3186
▁ㄎㄨㄣ1쎯ㄔㄨㄥˊ0쎯	-10.319
ㄐㄧㄡˋ3쎯	-10.3191
▁ㄗㄞˋ1쎯ㄐㄧㄠˋ2쎯	-10.3195
▁ㄨㄣ0쎯ㄑㄩㄢˊ2쎯	-10.3198
ㄗ1쎯	-10.3199
▁ㄍㄥ0쎯ㄒㄧㄣ5쎯	-10.32
▁ㄨㄟˇ5쎯	-10.32
▁ㄔㄨㄟˊ0쎯	-10.3202
▁ㄋㄧㄢˋ0쎯	-10.3204
▁ㄍㄡˇ1쎯	-10.3205
ㄌㄨˊ3쎯	-10.3209
ㄉㄞˋ4쎯	-10.3211
▁―	-10.3211
▁ㄧ3쎯ㄕ2쎯	-10.3215
▁ㄕㄤˇ2쎯	-10.3217
ㄓ9쎯	-10.3219
▁ㄊㄨˊ0쎯ㄢˋ2쎯	-10.3221
▁ㄈㄚˇ0쎯ㄖㄣˊ0쎯	-10.3223
ㄐㄧㄢˇ5쎯	-10.3224
▁ㄌㄧㄝˋ2쎯ㄕˋ0쎯	-10.3226
▁ㄖㄨˋ0쎯ㄉㄤˇ1쎯	-10.3229
▁ㄑㄧㄠˊ0쎯	-10.3229
ㄉㄢˋ1쎯	-10.323
▁ㄒㄧㄝˊ2쎯	-10.3235
▁ㄈㄥˊ2쎯	-10.3236
▁ㄌㄠˇ0쎯ㄋㄧㄢˊ0쎯	-10.3237
ㄍㄨㄞˋ0쎯	-10.3239
▁ㄒㄧㄥ0쎯ㄐㄧㄢˋ2쎯	-10.3249
▁ㄒㄩㄣˊ1쎯ㄓㄠˇ1쎯	-10.3254
▁ㄕㄜˋ0쎯ㄐㄧˋ0쎯ㄕ2쎯	-10.3255
▁ㄔㄨㄟˊ0쎯ㄓˊ1쎯	-10.3257
▁ㄓˇ2쎯	-10.3258
ㄍㄜˊ0쎯	-10.3259
▁ㄑㄧㄣˊ4쎯	-10.3259
▁ㄇㄧㄢˇ0쎯ㄧˋ14쎯	-10.3263
ㄒㄧㄝˇ1쎯ㄍㄨㄢˇ1쎯	-10.3265
▁ㄓㄨㄥ0쎯ㄕㄢ0쎯	-10.3266
▁ㄐㄧㄠˋ0쎯ㄗㄨㄛˋ2쎯	-10.3269
▁ㄗ2쎯	-10.3272
▁ㄇㄧㄢˊ2쎯	-10.3274
▁ㄐㄩㄢ0쎯	-10.3274
▁ㄉㄧˋ1쎯	-10.3276
▁ㄘㄨˋ0쎯	-10.3283
ㄓㄣˋ2쎯	-10.3283
▁ㄍㄨㄚ0쎯	-10.3287
ㄨㄛˇ쎯	-10.3297
▁ㄕㄤ1쎯ㄅㄧㄠ0쎯	-10.3298
ㄨㄟˋ2쎯ㄩˊ0쎯	-10.33
▁ㄓㄨㄢˋ1쎯	-10.3301
ㄈㄨˋ1쎯	-10.3301
ㄧˇ4쎯	-10.3303
ㄕㄨˇ4쎯	-10.3307
▁ㄉㄠˋ1쎯	-10.3311
ㄊㄨㄥˊ4쎯	-10.3312
ㄒㄧ0쎯	-10.3316
▁ㄐㄧㄣ2쎯ㄊㄧㄢ0쎯	-10.3318
ㄑㄧㄣˊ4쎯	-10.3318
▁ㄍㄜˊ0쎯	-10.3324
▁ㄕˊ2쎯ㄅㄧㄝˊ0쎯	-10.3325
▁ㄓㄠ1쎯	-10.3331
▁ㄐㄧㄝˊ6쎯	-10.3336
▁ㄍㄨㄤ0쎯ㄒㄩㄝˊ1쎯	-10.3337
▁ㄊㄨ0쎯	-10.3339
▁ㄒㄧㄢˋ8쎯	-10.3342
▁ㄕˋ8쎯ㄨˋ3쎯	-10.3344
ㄓˇ11쎯	-10.3347
▁ㄖㄢˊ0쎯ㄦˊ1쎯	-10.3348
▁ㄔㄨㄥˊ2쎯ㄕˋ12쎯	-10.3356
ㄈㄥˊ1쎯	-10.3359
ㄐㄩㄝˊ	-10.336
▁ㄌㄧˋ1쎯ㄕˇ0쎯ㄕㄤˇ0쎯	-10.3366
▁ㄕˋ10쎯ㄧㄢˇ3쎯	-10.337
▁ㄇㄟˊ13쎯	-10.3378
ㄒㄧㄢˊ4쎯	-10.3381
▁ㄉㄚˋ쎯ㄌㄧˋ0쎯	-10.3383
▁ㄇㄛˊ3쎯ㄐㄩˋ2쎯	-10.3383
ㄇㄛˊ3쎯	-10.3384
▁ㄙㄨㄟˊ0쎯	-10.3385
▁ㄇㄧˊ0쎯	-10.3386
▁ㄐㄧㄢ7쎯ㄎㄨㄥˋ0쎯	-10.3387
ㄇㄨˋ3쎯	-10.3391
▁ㄓㄥˇ1쎯ㄌㄧˇ3쎯	-10.3395
ㄊㄠ0쎯	-10.3395
쎀쎀쎀쎈쎀쎁	-10.3396
▁ㄅㄢˋ2쎯ㄧㄢˇ3쎯	-10.34
▁ㄙ3쎯ㄨㄟˊ6쎯	-10.3408
▁ㄨˋ4쎯	-10.3408
▁ㄋㄩˇ0쎯ㄏㄞˊ1쎯	-10.3411
ㄏㄣˋ쎯	-10.3412
▁ㄏㄨㄛˊ0쎯ㄒㄧㄥˋ2쎯	-10.3414
▁ㄧㄠˊ6쎯	-10.3417
ㄌㄟˋ1쎯	-10.3422
ㄉㄧˊ1쎯	-10.3424
▁ㄇㄚˇ1쎯	-10.3429
▁ㄇㄟˇ0쎯ㄖˋ0쎯	-10.343
▁ㄌㄧㄡˊ3쎯ㄩˋ7쎯	-10.3431
ㄐㄧˋ7쎯	-10.3431
▁쎁쎉쎃쎁	-10.3435
▁ㄘㄨㄣˋ쎯	-10.3436
▁ㄍㄜˇ0쎯ㄊㄧ0쎯	-10.3437
▁ㄏㄞˇ0쎯ㄨㄞˋ쎯	-10.344
▁ㄌㄟˊ0쎯	-10.3451
▁ㄑㄩㄣˊ1쎯ㄊㄧ0쎯	-10.3451
ㄕㄡˋ4쎯	-10.3453
▁ㄐㄧˇ4쎯	-10.3458
▁ㄌㄧㄥˊ4쎯ㄕㄥ2쎯	-10.3461
▁ㄅㄥˋ0쎯	-10.3468
▁ㄓㄨㄥˇ0쎯	-10.347
▁ㄍㄨㄥ0쎯ㄋㄨㄥˊ0쎯	-10.3473
ㄧˋ20쎯	-10.3474
ㄐㄧ11쎯	-10.3475
▁ㄎㄨㄤˊ0쎯	-10.3489
▁ㄋㄞˇ1쎯	-10.3494
▁ㄇㄢˋ0쎯	-10.3496
▁ㄔㄨㄥˊ1쎯ㄓˊ5쎯ㄧㄝˋ0쎯	-10.3496
▁ㄕㄨˋ0쎯ㄩˇ6쎯	-10.3497
ㄉㄧㄠˋ3쎯	-10.3498
ㄌㄧˋ4쎯	-10.3498
▁ㄙㄨˋ8쎯	-10.3503
▁ㄐㄧㄥˇ1쎯ㄉㄧㄢˇ1쎯	-10.3504
▁ㄌㄧˇ3쎯ㄕˋ8쎯ㄔㄤˊ0쎯	-10.3508
▁ㄐㄧㄠ6쎯ㄕˋ18쎯	-10.3514
▁ㄌㄧㄢˋ1쎯	-10.3515
▁쎁쎉쎆쎇	-10.3521
▁ㄕㄥ0쎯ㄐㄧˊ2쎯	-10.3522
▁ㄘㄞˇ0쎯ㄑㄩˇ0쎯	-10.3529
ㄊㄥˊ1쎯	-10.3532
▁ㄜˊ7쎯	-10.3534
▁ㄍㄨˋ2쎯ㄎㄜˋ2쎯	-10.3541
▁ㄇㄥˋ1쎯ㄒㄧㄤˇ2쎯	-10.3544
▁ㄕˋ8쎯ㄑㄧㄥˊ0쎯	-10.3547
▁ㄐㄧˊ12쎯ㄍㄨㄢˋ0쎯	-10.3552
▁ㄌㄢˊ0쎯ㄓㄡ1쎯	-10.3562
▁ㄩㄢˊ4쎯ㄔㄨㄤ0쎯	-10.3562
▁ㄕㄣ2쎯ㄍㄠ0쎯	-10.3564
ㄕ5쎯	-10.3571
▁ㄇㄛˊ0쎯ㄒㄧ13쎯	-10.3572
▁ㄧㄠˊ3쎯	-10.3572
▁ㄈㄨˋ2쎯ㄗㄜˊ1쎯ㄖㄣˊ0쎯	-10.3577
▁ㄌㄚ1쎯ㄉㄧㄥ0쎯	-10.3581
ㄘㄨㄛˋ2쎯	-10.3583
▁ㄓˊ1쎯ㄌㄧˋ3쎯	-10.3587
▁ㄌㄨㄛˋ0쎯	-10.3592
▁ㄒㄩ2쎯ㄋㄧˇ0쎯	-10.3593
▁ㄠ0쎯	-10.3595
▁ㄧ0쎯ㄊㄠˋ쎯	-10.36
ㄍㄨㄥ4쎯	-10.36
▁ㄙˋ2쎯	-10.3602
▁ㄒㄧ13쎯	-10.3603
▁ㄕㄥˇ0쎯ㄕˋ4쎯	-10.3604
▁ㄍㄨㄞˋ0쎯ㄕㄡˋ4쎯	-10.3617
ㄕˋ6쎯	-10.3619
▁ㄇㄟˇ0쎯ㄊㄧㄢ0쎯	-10.3619
▁ㄉㄨㄥ0쎯ㄅㄟˇ쎯ㄅㄨˋ4쎯	-10.362
▁ㄔㄜ0쎯ㄔㄥˊ7쎯	-10.3625
▁ㄐㄧㄢ7쎯ㄘㄜˋ3쎯	-10.3626
▁ㄌㄠ쎯ㄔㄨ0쎯	-10.3626
▁ㄈㄥ5쎯	-10.3632
ㄐㄧㄤˋ3쎯	-10.3637
ㄧㄠˊ2쎯	-10.3639
ㄒㄧㄤˇ1쎯	-10.364
▁ㄍㄠˋ0쎯	-10.3643
ㄏㄥˊ0쎯	-10.3643
▁ㄐㄧㄢˋ7쎯	-10.3643
ㄒㄩ2쎯	-10.3646
▁ㄒㄧㄠ2쎯ㄏㄨㄚˋ0쎯	-10.3646
ㄓ8쎯	-10.3646
1	-10.365
▁ㄨˊ1쎯	-10.3651
▁ㄧㄢˊ10쎯	-10.3654
ㄓˊ5쎯ㄨˋ3쎯	-10.3655
▁ㄕˊ3쎯ㄧㄝˋ0쎯	-10.3659
ㄍㄜˇ0쎯	-10.3659
▁ㄏㄨˊ2쎯ㄌㄨㄛˊ1쎯	-10.3663
ㄒㄧㄢˋ4쎯	-10.3663
ㄕ6쎯	-10.3663
ㄆㄨ2쎯	-10.3664
▁ㄉㄨㄣˋ5쎯	-10.3666
▁ㄐㄧㄥ8쎯ㄧㄢˊ7쎯	-10.3667
ㄍㄢ2쎯	-10.3674
▁ㄆㄨˇ3쎯	-10.3677
▁ㄈㄨ0쎯	-10.3677
▁ㄖㄨˊ0쎯ㄘˇ0쎯	-10.3679
ㄜˊ1쎯	-10.368
▁쎁쎉쎄쎀	-10.3682
▁ㄊㄨˊ0쎯ㄒㄧㄥˊ1쎯	-10.3682
▁ㄨㄟˋ0쎯ㄒㄧㄥ1쎯	-10.3684
▁ㄅㄧˋ7쎯	-10.3685
▁ㄔㄚˊ1쎯ㄒㄧㄝˊ0쎯	-10.3685
▁ㄓㄥˋ3쎯ㄈㄚˇ0쎯	-10.3685
▁ㄧㄥˊ5쎯ㄧㄝˋ0쎯	-10.3689
ㄌㄧㄥˊ4쎯	-10.3695
ㄒㄧㄢˇ0쎯	-10.37
▁ㄉㄚˋ쎯ㄓㄨㄥˋ1쎯	-10.3707
▁ㄑㄩ3쎯	-10.3708
▁ㄌㄧˋ6쎯ㄧˋ15쎯	-10.3708
▁ㄡ0쎯ㄅㄧㄝˊ0쎯	-10.3708
▁ㄓㄥˇ1쎯ㄒㄧㄥˊ1쎯	-10.3718
ㄌㄧㄝˋ4쎯	-10.3719
▁ㄍㄡˋ1쎯ㄇㄞˇ0쎯	-10.372
▁ㄆㄢ0쎯	-10.3723
▁ㄋㄩˇ0쎯ㄦˊ0쎯	-10.3725
▁ㄈㄣ0쎯ㄍㄨㄥ2쎯ㄙ0쎯	-10.3726
▁ㄉㄧㄥˇ1쎯	-10.3728
ㄡˇ1쎯	-10.3734
▁ㄕˋ4쎯ㄔㄤˊ0쎯	-10.3734
▁ㄆㄟˋ2쎯ㄅㄟˋ2쎯	-10.3738
▁ㄗㄡˇ쎯ㄒㄧㄤˋ0쎯	-10.3743
▁ㄉㄧㄥˋ0쎯	-10.3743
▁ㄉㄥˋ0쎯	-10.3744
▁̇ㄅㄟ0쎯	-10.3745
▁ㄍㄨㄛˊ0쎯ㄇㄧㄣˊ0쎯	-10.3749
▁ㄍㄨㄥ2쎯ㄧˋ15쎯	-10.3758
▁ㄉㄧ	-10.3759
▁ㄍㄨㄛˊ0쎯ㄈㄤˊ0쎯	-10.3764
▁ㄨㄣˊ2쎯ㄇㄧㄥˊ0쎯	-10.3768
▁ㄕˋ7쎯	-10.3771
▁ㄉㄨㄥˇ0쎯	-10.3772
▁ㄍㄢˇ3쎯ㄑㄧㄥˊ0쎯	-10.3779
▁ㄧㄚ1쎯ㄙㄨˋ8쎯	-10.378
▁ㄨㄟˊ5쎯	-10.3783
▁ㄊㄨㄥˊ0쎯ㄧㄤˋ0쎯	-10.3783
▁ㄗㄞˋ0쎯ㄘˋ0쎯	-10.3785
ㄞˋ3쎯	-10.3786
ㄕㄨ0쎯ㄐㄧˋ1쎯	-10.379
▁ㄏㄨㄛˋ1쎯ㄅㄧˋ0쎯	-10.3791
▁ㄒㄧ1쎯ㄋㄚ1쎯ㄅㄨˋ4쎯	-10.3801
▁ㄌㄢˊ4쎯ㄙㄜˋ0쎯	-10.3802
▁ㄐㄧㄤˋ2쎯ㄌㄧㄝˋ2쎯	-10.3811
▁ㄅㄣˇ0쎯ㄕㄣ2쎯	-10.3811
▁ㄍㄨㄥ2쎯ㄓㄨˇ0쎯	-10.3817
▁쎇쎇	-10.3819
▁ㄞ2쎯	-10.3821
▁ㄐㄧㄝˊ1쎯	-10.3823
ㄓㄥˇ1쎯	-10.3825
▁ㄐㄧ12쎯ㄘㄥˊ0쎯	-10.383
▁ㄏㄨㄚˊ1쎯ㄖㄣˊ0쎯	-10.3831
▁ㄐㄧㄢˋ6쎯	-10.3832
▁ㄗㄨ0쎯	-10.3832
▁ㄒㄧㄢˋ0쎯ㄐㄧˊ2쎯	-10.3833
▁ㄌㄨˊ1쎯	-10.3834
▁ㄧˋ2쎯ㄖㄣˊ0쎯	-10.3835
▁ㄅㄢˋ4쎯ㄩㄣˊ1쎯	-10.3838
▁ㄕㄡˇ2쎯ㄒㄧㄢ1쎯	-10.3838
▁ㄩˋ14쎯	-10.3839
▁ㄔㄤˊ0쎯ㄔㄨㄣ0쎯	-10.384
▁ㄕ3쎯ㄘˊ0쎯	-10.384
▁ㄕㄜˇ쎯	-10.3842
▁ㄆㄧㄥˊ1쎯ㄌㄨㄣˊ2쎯	-10.3842
▁ㄔㄣˋ1쎯ㄓ0쎯ㄨㄟˊ0쎯	-10.3842
ㄧㄢˊ8쎯	-10.3843
▁쎁쎉쎉쎇	-10.3846
▁ㄕㄤ1쎯ㄇㄠˋ2쎯	-10.3849
▁ㄩˇ6쎯ㄨㄣˊ0쎯	-10.3853
▁ㄎㄜˇ0쎯ㄎㄠˋ1쎯	-10.3855
▁ㄆㄧㄠ1쎯	-10.3855
▁쎁쎈쎅	-10.3861
ㄊㄧㄝ0쎯	-10.3862
ㄕㄚ4쎯	-10.3865
▁ㄕㄨˇ5쎯ㄐㄩ4쎯ㄎㄨˋ0쎯	-10.3867
▁ㄊㄢˋ2쎯ㄊㄠˇ쎯	-10.3869
ㄕㄜˋ6쎯ㄒㄧㄤˋ3쎯ㄊㄡˊ0쎯	-10.387
▁ㄌㄧˇ2쎯ㄇㄧㄢˋ0쎯	-10.3871
ㄊㄢˋ1쎯	-10.3873
▁ㄨㄞˋ쎯ㄍㄨㄛˊ0쎯	-10.3874
▁ㄏㄜˋ2쎯	-10.3875
ㄊㄨㄣˊ0쎯	-10.3876
ㄧㄣˊ0쎯	-10.3877
ㄈㄨˊ0쎯	-10.3885
▁ㄋㄚˇ0쎯	-10.3886
▁ㄌㄧㄡˊ2쎯ㄒㄧㄚˋ0쎯	-10.3892
▁ㄕˊ0쎯ㄙˋ1쎯	-10.3896
▁ㄊㄧˊ1쎯ㄘㄞˊ1쎯	-10.3905
ㄐㄧˊ4쎯	-10.3905
▁쎅쎉	-10.3905
▁ㄧㄤˊ0쎯	-10.3912
▁ㄅㄠˋ0쎯ㄎㄢ0쎯	-10.3915
ㄧㄡˋ4쎯	-10.3919
ㄉㄧˋ0쎯	-10.3921
ㄒㄧㄢˇ1쎯	-10.3923
▁ㄓㄨㄥ0쎯ㄧ3쎯ㄧㄠˋ0쎯	-10.3925
▁ㄊㄥˊ3쎯	-10.3927
▁쎁쎉쎃쎉	-10.3931
▁ㄍㄞˇ쎯ㄇㄧㄥˊ0쎯	-10.3933
▁ㄐㄧㄢˇ5쎯	-10.3934
ㄕㄜˋ1쎯ㄏㄨㄟˋ2쎯	-10.3936
ㄍㄨㄥˋ1쎯	-10.3937
▁ㄑㄧㄢ5쎯	-10.3939
▁ㄊㄨㄥ0쎯ㄩㄥˋ0쎯	-10.394
▁ㄆㄨˇ2쎯ㄅㄧㄢˋ2쎯	-10.3941
▁ㄉㄚˊ0쎯ㄎㄞ0쎯	-10.3942
ㄧㄚˊ1쎯	-10.3946
▁ㄌㄧㄢˇ1쎯	-10.3948
▁ㄏㄨˋ3쎯	-10.3949
▁ㄇㄧㄥˊ0쎯ㄖㄣˊ0쎯	-10.3954
▁ㄉㄨㄟˋ1쎯ㄈㄤ0쎯	-10.3954
ㄧㄡˋ1쎯	-10.3958
▁ㄉㄤ0쎯ㄋㄧㄢˊ0쎯	-10.3959
▁ㄧ4쎯ㄈㄚˇ0쎯	-10.396
▁ㄉㄢ1쎯	-10.3966
▁ㄔㄥˊ0쎯ㄉㄡ0쎯ㄕˋ4쎯	-10.3966
▁ㄒㄧˊ0쎯	-10.3968
▁ㄊㄨㄥˇ0쎯ㄓˋ5쎯	-10.3969
▁ㄏㄨㄛˋ1쎯ㄩㄣˋ1쎯	-10.3972
▁ㄈㄤˇ0쎯	-10.3976
▁ㄆㄚˋ0쎯	-10.3976
▁ㄉㄚ0쎯	-10.3977
▁ㄖㄣˇ0쎯	-10.3979
▁ㄑㄩˇ0쎯ㄔㄨ0쎯	-10.398
▁ㄍㄠˇ0쎯	-10.3981
▁ㄊㄞˋ0쎯ㄩㄢˊ4쎯	-10.3986
▁]	-10.3987
▁ㄔㄥˊ0쎯ㄖㄣˊ0쎯	-10.3992
쎉쎁	-10.3997
ㄘㄤ0쎯	-10.4002
ㄨㄣˋ0쎯ㄋㄧㄥˊ4쎯ㄊㄨˇ0쎯	-10.4002
▁ㄊㄧ0쎯ㄓˋ3쎯	-10.4003
▁ㄗㄨㄟˋ0쎯ㄉㄨㄛ0쎯	-10.4013
ㄉㄨㄣ2쎯	-10.4018
쎁쎀쎀	-10.4018
▁ㄒㄩㄣˋ0쎯	-10.4022
▁ㄊㄨㄥ0쎯ㄏㄨㄚˋ2쎯	-10.4022
ㄒㄧ15쎯	-10.4026
ㄅㄞˋ0쎯	-10.4026
▁쎈쎂	-10.4027
▁ㄐㄧˇ1쎯ㄨㄟˇ5쎯	-10.4027
▁ㄗㄨㄟˋ0쎯ㄔㄨ1쎯	-10.4031
ㄊㄞˋ0쎯ㄆㄧㄥˊ0쎯ㄧㄤˊ4쎯	-10.4031
ㄧㄢˋ1쎯	-10.4031
▁ㄎㄞ0쎯ㄍㄨㄢ0쎯	-10.4032
▁ㄎㄨㄥˋ0쎯ㄍㄨˇ2쎯	-10.4033
▁ㄏㄜˊ4쎯ㄌㄢˊ0쎯	-10.4036
▁ㄉㄞˋ1쎯ㄊㄡˊ0쎯ㄖㄣˊ0쎯	-10.4037
ㄐㄧㄥˋ5쎯	-10.4041
▁ㄑㄧㄥ5쎯ㄖㄜˋ쎯	-10.4042
▁ㄔㄨ1쎯ㄐㄧ13쎯	-10.4043
▁ㄒㄧㄢˋ2쎯ㄓˋ3쎯	-10.4048
▁ㄐㄧㄝˋ0쎯ㄓˋ4쎯	-10.405
▁ㄓˊ1쎯ㄉㄠˋ0쎯	-10.405
▁ㄆㄧㄣˊ0쎯	-10.4051
▁ㄌㄧㄡˊ3쎯ㄔㄨㄢˊ0쎯	-10.4051
▁ㄧˋ4쎯	-10.4055
▁ㄓㄨㄛˊ2쎯ㄩㄝˋ5쎯	-10.4056
▁쎁쎉쎃쎂	-10.4056
ㄏㄨㄟ0쎯	-10.4059
ㄏㄨㄚˊ0쎯	-10.4061
ㄐㄩㄝˊ0쎯	-10.4074
▁ㄩㄝˋ5쎯ㄋㄚ1쎯	-10.4078
▁ㄗㄨㄥˇ0쎯ㄕㄨˇ5쎯	-10.4079
▁ㄨㄟ0쎯	-10.4083
ㄐㄩˋ5쎯	-10.4085
▁ㄏㄡˋ0쎯ㄨㄟˋ0쎯	-10.4089
▁ㄧㄤˇ1쎯ㄕㄥ1쎯	-10.4089
ㄈㄨˇ1쎯	-10.4093
▁ㄊㄨ2쎯ㄆㄛˋ0쎯	-10.4095
ㄙㄨˋ0쎯	-10.41
▁ㄔㄨㄤ2쎯	-10.4101
▁ㄐㄧㄠˋ2쎯ㄡ0쎯	-10.4102
▁ㄉㄨㄟˋ0쎯ㄩㄢˊ2쎯	-10.4103
▁ㄖㄣˋ1쎯ㄎㄜˇ0쎯	-10.4105
▁ㄍㄜˇ1쎯ㄐㄧㄣ3쎯	-10.4107
▁ㄧㄡˊ4쎯ㄏㄨㄚˋ1쎯	-10.4109
▁---	-10.4109
▁ㄨㄤˋ2쎯	-10.411
ㄌㄧㄣˊ4쎯	-10.4114
ㄐㄧㄤ0쎯ㄒㄧㄢˋ0쎯	-10.4114
▁ㄈㄢˋ1쎯	-10.4115
ㄧㄠˊ1쎯	-10.4119
ㄧㄠ6쎯	-10.412
▁ㄌㄧˊ8쎯	-10.4123
▁ㄌㄧㄥˊ5쎯	-10.4127
▁ㄐㄩㄝˊ2쎯ㄉㄨㄟˋ1쎯	-10.4127
▁ㄎㄞ0쎯ㄧㄝˋ0쎯	-10.4128
ㄨㄢˊ3쎯	-10.4131
ㄒㄧ9쎯	-10.4134
▁ㄇㄧˋ1쎯ㄇㄚˇ2쎯	-10.4134
▁ㄓ9쎯	-10.4137
▁ㄑㄩㄢˊ1쎯ㄈㄤ0쎯ㄨㄟˋ2쎯	-10.4141
▁ㄍㄜˋ0쎯ㄌㄟˋ2쎯	-10.4146
ㄧㄠ0쎯	-10.4147
ㄈㄣˋ1쎯	-10.4149
▁ㄕㄜˋ4쎯	-10.4155
▁쎇쎃	-10.4166
▁ㄉㄨˋ3쎯	-10.4166
▁ㄧㄡ0쎯ㄧㄚˇ쎯	-10.417
ㄏㄜˊ2쎯ㄍㄨㄛˊ0쎯	-10.4171
▁ㄕㄣ5쎯ㄉㄨˋ2쎯	-10.4174
▁\	-10.418
▁ㄔㄤˋ2쎯ㄆㄧㄢ0쎯	-10.4181
ㄉㄧㄢˋ0쎯ㄕˋ12쎯	-10.4183
ㄆㄧㄠˊ0쎯	-10.4183
ㄧㄣˊ3쎯	-10.4184
▁ㄒㄧ3쎯	-10.4187
▁ㄙㄨ0쎯ㄌㄧㄢˊ4쎯	-10.4189
▁ㄔㄣˊ0쎯	-10.4191
▁ㄉㄨㄛ0쎯ㄋㄧㄢˊ0쎯ㄕㄥ1쎯	-10.4192
▁ㄉㄧˋ3쎯ㄕˊ0쎯	-10.4193
ˇ8쎯	-10.4194
▁ㄍㄨㄛ0쎯ㄌㄩˋ4쎯	-10.4197
▁ㄧˋ7쎯ㄔㄤˊ4쎯	-10.4207
ㄐㄧˊ2쎯ㄓㄨㄥ0쎯ㄒㄩㄝˊ1쎯	-10.4208
▁ㄉㄞˋ0쎯ㄇㄚˇ2쎯	-10.4208
▁ㄘㄨㄟˋ3쎯	-10.421
▁ㄍㄚ1쎯ㄈㄟ4쎯	-10.4212
▁ㄧㄡˊ5쎯ㄐㄧ2쎯ㄉㄨㄟˋ0쎯	-10.4212
▁ㄉㄨㄛ0쎯ㄕㄨˇ5쎯	-10.4214
▁ㄔㄥˊ4쎯ㄒㄧㄤ0쎯	-10.4215
▁ㄔㄤ0쎯	-10.4215
ㄅㄛˊ1쎯	-10.4221
▁ㄏㄨㄞˋ쎯	-10.4221
▁ㄒㄧㄝ0쎯	-10.4228
▁ㄊㄧ0쎯ㄔㄨㄥˊ2쎯	-10.4228
▁ㄍㄨㄟˇ0쎯ㄉㄠˋ3쎯	-10.4229
▁ㄎㄨ0쎯	-10.4229
ㄅㄠ2쎯	-10.4232
▁ㄇㄛˊ3쎯ㄊㄜˋ0쎯	-10.4236
▁ㄊㄞˋ2쎯	-10.4236
▁ㄧㄡˇ1쎯ㄙㄨㄛˇ0쎯	-10.4247
▁ㄆㄧㄥˊ3쎯ㄍㄨㄛˇ0쎯	-10.4252
ㄈㄨˋ2쎯	-10.4252
▁ㄈㄟˋ4쎯ㄩㄥˋ0쎯	-10.4254
ㄙ4쎯ㄊㄢˇ0쎯	-10.4257
▁ㄌㄧㄡˊ2쎯ㄒㄩㄝˊ1쎯	-10.4257
▁ㄕˋ12쎯ㄐㄧㄠˋ1쎯	-10.4258
▁ㄩㄢˋ3쎯	-10.4259
▁ㄌㄡˋ1쎯	-10.4262
▁ㄕㄥ1쎯ㄖˋ0쎯	-10.4262
▁ㄕㄡˋ2쎯ㄑㄩㄢˊ0쎯	-10.4263
▁ㄙㄢˇ1쎯ㄖㄜˋ쎯	-10.4267
▁ㄉㄠˋ4쎯	-10.4269
▁ㄊㄧ0쎯ㄔㄤˊ0쎯	-10.4274
ㄍㄨ4쎯	-10.4274
▁ㄗ2쎯ㄓˋ4쎯	-10.4275
▁ㄍㄜˋ0쎯ㄐㄧˊ2쎯	-10.4275
▁ㄓ2쎯ㄋㄥˊ쎯	-10.4277
▁ㄗㄣˇ쎯	-10.4279
ㄊㄨㄟˋ0쎯	-10.4281
▁ㄘㄠ0쎯	-10.4281
▁ㄅㄚˊ0쎯	-10.4282
▁ㄆㄧㄥˊ0쎯ㄩㄢˊ4쎯	-10.4283
ㄅㄢˋ1쎯ㄉㄠˇ1쎯	-10.4284
ㄑㄧˋ2쎯	-10.4287
▁ㄋㄧㄥˊ0쎯ㄅㄛ1쎯	-10.4288
▁ㄧㄠˊ5쎯	-10.429
▁ㄎㄨㄣˋ쎯ㄋㄢˊ1쎯	-10.4293
ㄓㄨㄤˋ0쎯	-10.4294
▁ㄗㄨㄛˇ1쎯	-10.4296
▁ㄒㄧㄠˇ0쎯ㄦˊ0쎯	-10.4296
ㄨㄟˋ4쎯	-10.4298
ㄩˊ10쎯	-10.4298
▁ㄆㄨˊ1쎯ㄊㄠˊ3쎯	-10.43
▁ㄉㄨㄛˇ0쎯	-10.4306
▁ㄋㄢˊ0쎯ㄖㄣˊ0쎯	-10.4315
▁ㄉㄠˋ3쎯ㄉㄜˊ1쎯	-10.4318
ㄓㄨ4쎯	-10.432
ㄙㄨㄥˋ4쎯	-10.4327
▁ㄎㄨㄣˋ쎯	-10.4329
ㄉㄢˋ4쎯	-10.4335
ㄍㄨㄟˇ2쎯	-10.4336
▁쎆쎇	-10.4339
▁ㄢ0쎯ㄆㄞˊ0쎯	-10.434
ㄧㄣˇ4쎯	-10.4341
▁ㄏㄨㄚ0쎯ㄏㄨㄟˋ0쎯	-10.4343
▁ㄉㄧˋ1쎯ㄍㄨㄛˊ0쎯	-10.4345
ㄓㄞˋ0쎯	-10.4347
ㄒㄩˊ쎯	-10.4347
▁쎁쎉쎂쎉	-10.4357
ㄉㄨㄥˇ1쎯	-10.4358
▁ㄕㄢ5쎯	-10.4361
▁쎁쎉쎉쎈ㄋㄧㄢˊ0쎯	-10.4362
▁ㄍㄠ0쎯ㄉㄤˋ1쎯	-10.4363
▁ㄘㄢ1쎯ㄊㄧㄥ0쎯	-10.437
ㄑㄧㄢ4쎯	-10.4373
ㄏㄠˋ1쎯	-10.4379
▁ㄔㄨㄢ1쎯ㄩㄝˋ5쎯	-10.4385
▁ㄉㄚˋ쎯ㄧㄠ2쎯	-10.4385
▁ㄑㄩㄢˊ1쎯ㄕˋ4쎯	-10.4386
▁ㄍㄤ6쎯ㄑㄧㄣˊ2쎯	-10.4389
▁ㄉㄢˋ3쎯ㄕㄥ1쎯	-10.4392
▁ㄧˋ21쎯	-10.4394
▁ㄈㄥ1쎯ㄨㄟˋ3쎯	-10.4395
ㄓㄡ0쎯	-10.4396
▁ㄉㄧㄠˋ0쎯	-10.4397
▁ㄒㄧㄤˋ4쎯ㄐㄧㄠ5쎯	-10.4397
▁ㄓˊ5쎯	-10.4398
▁ㄨㄞˋ쎯ㄩˇ6쎯	-10.4399
ㄏㄜˋ4쎯	-10.44
▁ㄧㄠˊ2쎯	-10.4402
▁ㄌㄧˋ3쎯ㄊㄧ0쎯	-10.4408
▁ㄇㄨˋ6쎯	-10.4409
ㄨㄛˋ1쎯	-10.4413
▁ㄍㄡ2쎯ㄊㄨㄥ0쎯	-10.4414
ㄩㄝˋ5쎯	-10.4416
▁ㄆㄧ0쎯ㄈㄚ쎯	-10.4418
▁ㄅㄧㄢˋ3쎯	-10.4418
▁ㄘㄨㄟˋ0쎯	-10.4421
ㄒㄧㄣ3쎯	-10.4422
▁ㄙㄨㄟˊ1쎯ㄐㄧ6쎯	-10.4423
▁ㄩˋ9쎯ㄉㄠˋ0쎯	-10.4425
▁ㄆㄧㄣ0쎯	-10.4426
▁ㄍㄨㄢˋ3쎯	-10.4427
▁ㄑㄧㄠˊ2쎯ㄌㄧㄤˊ2쎯	-10.4429
▁ㄈㄨˋ14쎯	-10.4432
▁ㄈㄢˋ0쎯ㄗㄨㄟˋ1쎯	-10.4434
▁ㄓㄨˋ10쎯	-10.4437
ㄒㄧˊ1쎯	-10.4439
ㄔㄢˇ0쎯ㄆㄧㄣˇ쎯	-10.444
ㄐㄧ26쎯	-10.4444
ㄉㄤˋ1쎯	-10.4448
▁ㄐㄧ6쎯ㄑㄧˋ7쎯	-10.4451
▁ㄑㄩㄢˊ1쎯ㄖˋ0쎯ㄓˋ3쎯	-10.4455
쎀쎇	-10.4458
▁ㄔㄞ0쎯	-10.446
▁ㄓㄜˋ1쎯	-10.4462
ㄅㄣˇ1쎯	-10.4463
▁ㄒㄧㄢˊ0쎯	-10.4463
▁ㄋㄚ1쎯ㄔㄤ0쎯	-10.4464
▁ㄒㄧㄤ2쎯ㄨㄟˋ3쎯	-10.4471
ㄨㄢˊ6쎯	-10.4471
▁ㄔㄤˇ0쎯ㄕㄤ1쎯	-10.4474
ㄇㄛˊ5쎯	-10.4474
▁ㄔㄨㄤˊ1쎯	-10.4476
ㄈㄨˇ5쎯	-10.4476
ㄓㄠ1쎯	-10.4482
ㄐㄧㄝˇ1쎯ㄕˋ20쎯	-10.4482
▁ㄨˇ3쎯ㄓㄨㄤ3쎯	-10.449
▁ㄙㄚ0쎯	-10.449
ㄋㄧˊ1쎯	-10.449
ㄉㄧㄝˊ2쎯	-10.4494
▁ㄏㄢˋ0쎯ㄗˋ1쎯	-10.4494
▁ㄊㄨㄥˊ0쎯ㄧ0쎯	-10.4496
▁ㄇㄥ쎯ㄍㄨˇ0쎯	-10.4497
ㄧㄡˋ3쎯	-10.4501
▁ㄈㄨˊ12쎯ㄓㄡ1쎯	-10.4505
▁쎁쎉쎄쎂	-10.4511
▁ㄔㄨ0쎯ㄕㄣ2쎯	-10.4511
▁ㄙㄢˇ0쎯	-10.4513
▁ㄩㄢˇ쎯ㄔㄥˊ7쎯	-10.4517
▁ㄒㄧㄣˋ0쎯ㄩㄥˋ0쎯	-10.4517
▁ㄅㄧㄝˊ0쎯ㄖㄣˊ0쎯	-10.4518
▁ㄓˊ4쎯ㄗㄜˊ1쎯	-10.4522
▁쎁쎉쎄쎁	-10.4523
ㄓㄥˋ3쎯ㄈㄨˇ3쎯	-10.4528
▁ㄐㄧㄣˋ3쎯ㄕㄥ0쎯	-10.4534
▁ㄅㄞˇ0쎯ㄋㄧㄢˊ0쎯	-10.4537
ㄐㄧㄣˋ2쎯	-10.4539
ㄍㄤ5쎯	-10.4546
▁ㄔㄥˊ2쎯	-10.4548
ㄑㄧㄣˊ1쎯	-10.455
ㄏㄨㄢˋ2쎯	-10.4553
▁ㄨㄤˋ1쎯	-10.4554
ㄌㄩˇ2쎯	-10.4558
▁----	-10.456
▁ㄑㄧㄥ5쎯ㄒㄧㄣ5쎯	-10.4566
▁ㄨㄤˇ0쎯ㄧㄝˋ1쎯	-10.4566
▁ㄨㄢ0쎯	-10.4567
▁ㄕㄥ1쎯ㄌㄧˇ3쎯	-10.4569
▁ㄒㄧㄚˋ0쎯ㄕㄨˇ1쎯	-10.4569
▁ㄊㄨㄟˇ쎯	-10.457
ㄖㄢˊ1쎯	-10.4573
ㄅㄧㄢˋ4쎯	-10.4573
ㄢˋ4쎯	-10.4574
ㄓㄠˋ1쎯	-10.4575
ㄧㄡˋ2쎯	-10.4576
ㄧˊ21쎯	-10.4576
ㄨㄣˋ1쎯	-10.4577
▁ㄏㄜˋ4쎯	-10.4578
▁ㄨˋ3쎯ㄔㄨㄥˊ1쎯	-10.458
▁ㄐㄧㄣˋ1쎯ㄉㄞˋ0쎯	-10.4582
▁ㄅㄠ6쎯ㄗˇ0쎯	-10.4586
▁ㄇㄢˇ0쎯ㄧˋ18쎯	-10.4589
ㄇㄛˊ	-10.4592
▁ㄕˋ8쎯ㄍㄨˋ1쎯	-10.4594
▁ㄙㄜˋ0쎯ㄗㄜˊ3쎯	-10.4594
▁ㄅㄚ1쎯ㄌㄧˊ8쎯	-10.4595
▁ㄊㄞˋ2쎯ㄉㄨˋ2쎯	-10.4604
▁ㄩㄥˋ0쎯ㄌㄧㄤˊ3쎯	-10.4606
▁ㄩˇ2쎯ㄓㄡˋ1쎯	-10.4609
▁ㄘˋ2쎯	-10.4611
ㄓㄨˋ3쎯ㄧㄣ4쎯	-10.4613
▁ㄌㄧㄡˊ3쎯ㄌㄧㄤˊ3쎯	-10.4623
▁̇ㄉㄜ0쎯ㄍㄜˊ0쎯ㄇㄧㄥˋ쎯	-10.4624
▁ㄗㄚ0쎯	-10.4626
ㄅㄟ2쎯	-10.463
▁ㄒㄩㄥˊ1쎯	-10.4631
▁ㄊㄧㄠ0쎯ㄓㄢˋ1쎯	-10.4632
▁ㄠˋ2쎯ㄩㄣˋ1쎯ㄏㄨㄟˋ2쎯	-10.4632
▁ㄧˋ8쎯ㄓˋ3쎯	-10.4634
ㄈㄨˋ12쎯	-10.4635
▁ㄍㄢ0쎯ㄕˋ8쎯	-10.4645
쎀쎉	-10.4645
▁ㄈㄨˊ5쎯ㄕˋ10쎯	-10.4646
▁ㄏㄨˊ2쎯ㄐㄧㄠ7쎯	-10.4649
▁ㄏㄠˋ0쎯	-10.465
ㄊㄧㄝˇ쎯ㄌㄨˋ5쎯	-10.4651
▁ㄑㄧㄥ5쎯ㄔㄠˊ1쎯	-10.4654
▁ㄓㄢˋ1쎯ㄍㄨㄛˊ0쎯	-10.4656
▁ㄉㄚ1쎯	-10.4656
ㄒㄧ8쎯	-10.466
▁ㄍㄠ0쎯ㄉㄚˊ1쎯	-10.4661
▁ㄕㄡˇ2쎯ㄘˋ0쎯	-10.4664
ㄐㄧˋ11쎯	-10.4666
▁ㄇㄧㄠˋ0쎯	-10.4667
▁ㄏㄨ2쎯	-10.467
▁ㄐㄩㄣ1쎯ㄨㄟˊ0쎯	-10.467
▁ㄈㄚ쎯ㄉㄨㄥˋ0쎯ㄐㄧ6쎯	-10.4672
▁ㄅㄢˋ3쎯	-10.4673
▁ㄋㄟˋ쎯ㄨㄞˋ쎯	-10.4676
▁ㄔㄠ4쎯ㄕˋ4쎯	-10.4677
▁ㄎㄜ2쎯ㄩㄢˊ2쎯	-10.4682
ㄢˊ7쎯	-10.4683
▁ㄌㄩˋ3쎯	-10.4685
▁ㄉㄠˋ0쎯ㄉㄚˊ1쎯	-10.4688
ㄌㄚˋ3쎯	-10.4692
▁ㄕㄨㄟˇ쎯ㄈㄣ0쎯	-10.4698
▁ㄅㄢˋ4쎯	-10.4698
▁ㄧㄡˋ2쎯ㄦˊ0쎯	-10.47
▁ㄋㄢˊ0쎯ㄋㄩˇ0쎯	-10.4702
ㄇㄛˊ7쎯	-10.4703
ㄉㄨㄣˋ2쎯	-10.4703
▁ㄈㄨˇ5쎯	-10.4707
ㄕ4쎯	-10.4707
ㄞˋ0쎯	-10.4709
ㄎㄚ1쎯	-10.4711
▁ㄐㄧˊ12쎯	-10.4712
▁ㄓㄢˋ1쎯ㄧˋ10쎯	-10.4713
▁ㄅㄧˋ14쎯ㄇㄧㄢˇ0쎯	-10.4716
ㄧㄢˋ4쎯	-10.4716
▁ㄧㄡ1쎯	-10.472
ㄒㄩㄢ1쎯ㄔㄨㄢˊ0쎯ㄅㄨˋ4쎯	-10.4725
▁ㄎㄜˇ0쎯ㄞˋ1쎯	-10.4725
ㄏㄨㄛˋ2쎯	-10.4728
ㄆㄥˊ4쎯	-10.4729
▁ㄨˇ3쎯ㄏㄢˋ0쎯ㄕˋ4쎯	-10.4729
ㄎㄜˋ0쎯ㄙ4쎯	-10.473
▁ㄌㄧㄢˊ5쎯	-10.473
▁쎃쎂쎀	-10.4733
▁ㄉㄞˋ4쎯	-10.4736
▁ㄉㄧㄢˋ0쎯ㄐㄧ6쎯	-10.4736
ㄈㄢˋ0쎯	-10.4738
▁ㄎㄨㄥ0쎯ㄐㄩㄣ0쎯	-10.4739
▁ㄧㄢˇ3쎯ㄗㄡˋ0쎯	-10.474
▁ㄑㄩㄥˊ1쎯	-10.4745
▁ㄐㄧㄥ3쎯	-10.4746
ㄍㄨㄟ0쎯	-10.4746
ㄨㄢˊ1쎯	-10.4747
ㄒㄧㄥˇ0쎯	-10.4751
▁ㄕㄡˋ3쎯	-10.4755
▁쎁쎉쎄쎄	-10.4759
▁ㄖㄨˊ0쎯ㄐㄧㄣ2쎯	-10.4761
ㄓㄤˋ3쎯	-10.4761
ㄨㄛˋ3쎯	-10.4761
▁ㄘㄜˋ3쎯ㄉㄧㄥˋ1쎯	-10.4762
ㄧㄠˊ0쎯	-10.4763
▁쎉쎂	-10.4765
▁ㄏㄞˇ0쎯ㄢˋ0쎯	-10.4766
▁ㄍㄨˇ0쎯ㄔㄥˊ4쎯	-10.4766
▁±	-10.4769
ㄉㄧ1쎯	-10.477
ㄨㄤˇ0쎯ㄌㄠˋ0쎯	-10.4773
▁ㄙㄨ1쎯	-10.4773
ㄧㄡ2쎯	-10.4774
▁ㄒㄧㄝˇ1쎯ㄧㄝˋ3쎯	-10.4774
▁ㄈㄚ쎯ㄉㄧㄢˋ0쎯	-10.4774
ㄌㄚ1쎯ㄙ4쎯	-10.4775
▁ㄧㄝˋ3쎯ㄐㄧㄥ5쎯	-10.4775
▁ㄒㄧㄠˋ3쎯ㄧㄥ0쎯	-10.4776
▁ㄖㄨㄥˊ8쎯	-10.478
ㄗˇ3쎯	-10.4784
ㄅㄠˊ1쎯	-10.4784
▁ㄕㄤˇ0쎯ㄨㄤˇ0쎯	-10.4784
▁ㄓㄨㄥ2쎯ㄩˊ0쎯	-10.4786
▁ㄓㄣˇ0쎯ㄓˋ5쎯	-10.4786
▁ㄗㄢˋ0쎯	-10.4787
▁ㄒㄧㄠˋ3쎯	-10.479
▁ㄧㄢˊ6쎯ㄐㄧㄡ1쎯ㄕˋ18쎯	-10.4791
쎃쎀쎀	-10.4797
▁ㄘˊ5쎯	-10.4798
▁ㄩㄣˋ0쎯	-10.4799
▁ㄏㄡˋ0쎯ㄐㄧ13쎯	-10.4801
ㄍㄨㄢˋ0쎯	-10.4801
▁ㄊㄨㄥˊ0쎯ㄅㄨˋ2쎯	-10.4802
▁ㄓˇ4쎯ㄕㄨˇ5쎯	-10.4805
▁ㄇㄟˇ1쎯ㄩㄢˊ0쎯	-10.4807
▁ㄇㄟˋ3쎯ㄌㄧˋ0쎯	-10.4807
ㄧㄝˇ1쎯	-10.4807
▁ㄉㄨㄥ0쎯ㄌㄧㄣˊ0쎯	-10.4809
▁ㄧㄣˇ0쎯ㄉㄠˇ0쎯	-10.4809
▁ㄕㄡˇ0쎯ㄈㄚˇ0쎯	-10.4812
ㄨㄟˋ0쎯ㄕㄥ1쎯	-10.4812
ㄕㄨˇ0쎯	-10.4813
▁ㄐㄧㄠ0쎯ㄐㄧㄝˋ3쎯	-10.4816
▁ㄨㄤˇ0쎯ㄧㄡˇ0쎯	-10.4818
▁ㄒㄧㄤˋ2쎯ㄓㄥ2쎯	-10.4819
▁ㄗㄨㄥˇ0쎯ㄒㄧㄢˋ3쎯	-10.4819
▁ㄎㄞ0쎯ㄕㄨㄟˇ쎯	-10.4821
▁ー	-10.4821
ㄔㄨㄣˊ2쎯	-10.4822
▁ㄓㄥˋ0쎯ㄇㄧㄥˊ1쎯	-10.4824
▁ㄇㄢˋ2쎯	-10.4825
▁ㄩㄢˊ4쎯ㄗˇ0쎯	-10.4825
▁ㄈㄨˇ7쎯	-10.4827
▁ㄅㄧˇ1쎯ㄖㄨˊ0쎯	-10.4828
▁ㄅㄚ1쎯ㄒㄧ1쎯	-10.4828
▁ㄘㄤ0쎯	-10.4834
▁ㄗˇ0쎯ㄍㄨㄥ2쎯ㄙ0쎯	-10.4834
▁ㄒㄧㄢˇ0쎯ㄘㄨㄣˊ쎯	-10.4835
ㄧㄣ5쎯	-10.4839
ㄆㄠ1쎯	-10.4846
ㄒㄧㄥˊ0쎯	-10.4846
▁ㄅㄧㄢ1쎯ㄨㄟˇ5쎯	-10.4848
▁ㄒㄩㄝˊ1쎯ㄩㄢˊ2쎯	-10.4849
ㄒㄩㄣˋ5쎯	-10.4849
▁ㄑㄧㄥˋ0쎯	-10.4852
ㄅㄧㄥ0쎯	-10.4853
▁ㄅㄞˇ0쎯ㄒㄧㄥˋ3쎯	-10.4853
▁ㄈㄣ0쎯ㄐㄩˊ0쎯	-10.4861
ㄑㄧˇ2쎯ㄧㄝˋ0쎯	-10.4865
ㄘㄥˊ1쎯	-10.4866
▁ㄇㄚˊ0쎯	-10.4867
ㄌㄨˊ0쎯	-10.4868
▁ㄋㄨㄢˇ쎯	-10.4875
ㄧㄝˋ4쎯	-10.4876
▁쎈쎃	-10.488
▁ㄖㄣˋ1쎯ㄓㄣ4쎯	-10.488
▁ㄍㄨㄢˇ1쎯ㄉㄠˋ3쎯	-10.4884
▁ㄎㄤ0쎯ㄈㄨˋ7쎯	-10.4887
ㄊㄥˊ3쎯	-10.4889
ㄒㄧㄢˇ0쎯ㄕˋ2쎯ㄅㄧㄥˇ4쎯	-10.4889
▁ㄒㄧㄤ2쎯ㄧㄡˊ4쎯	-10.4894
▁ㄍㄨㄢ1쎯ㄕㄤˇ2쎯	-10.4894
ㄓㄥ1쎯	-10.4896
ㄐㄧㄤ6쎯	-10.4898
▁ㄓㄡ2쎯ㄐㄧ13쎯	-10.4899
▁ㄉㄧㄠ2쎯ㄎㄜˋ1쎯	-10.4902
ㄩㄣˋ4쎯	-10.4902
ㄌㄧㄤˊ4쎯	-10.4904
▁ㄑㄧ3쎯ㄒㄧ7쎯	-10.4906
▁ㄋㄧㄥˊ0쎯ㄒㄧㄚˋ1쎯	-10.4907
ㄓˋ2	-10.4909
ㄅㄚˊ0쎯	-10.491
▁ㄗ2쎯ㄕㄣ5쎯	-10.4913
▁ㄅㄧㄥˋ0쎯ㄖㄣˊ0쎯	-10.4916
▁ㄕㄤˋ0쎯ㄕㄨ0쎯	-10.4916
▁ㄊㄨㄥˊ0쎯ㄒㄩㄝˊ1쎯	-10.4918
ㄅㄞˊ1쎯	-10.4922
▁ㄗㄨㄛ0쎯ㄧㄝˋ0쎯	-10.4925
▁ㄒㄧㄢˋ2쎯	-10.4929
▁ㄓㄨˇ0쎯ㄅㄢˇ0쎯	-10.493
▁ㄕ1쎯ㄑㄩˋ0쎯	-10.4933
ㄧㄡ3쎯	-10.4946
ㄕㄡˋ1쎯	-10.4947
▁ㄍㄞˇ쎯ㄐㄧㄣˋ0쎯	-10.4947
▁ㄙㄠˇ0쎯ㄇㄧㄠˊ1쎯	-10.4948
▁2	-10.4949
▁ㄘㄨㄥˊ0쎯ㄘˇ0쎯	-10.4949
▁쎁쎄쎀	-10.4949
ㄉㄞˋ0쎯ㄅㄧㄠˇ0쎯ㄗㄨㄛ0쎯	-10.4951
▁ㄩㄥ1쎯	-10.4953
▁ㄧㄢˊ0쎯ㄕㄣ1쎯	-10.4955
▁ㄌㄧˊ3쎯ㄎㄞ0쎯	-10.4955
ㄓㄤˇ1쎯	-10.4956
ㄘㄨㄥˊ1쎯	-10.4961
▁ㄉㄞˋ2쎯ㄎㄨㄢˇ쎯	-10.4961
ㄗㄨㄣ0쎯	-10.4964
▁ㄍㄠ0쎯ㄧㄚ1쎯	-10.4968
▁ㄊㄥˊ0쎯ㄊㄨㄥˋ0쎯	-10.4975
▁ㄎㄡˇ쎯ㄨㄟˋ3쎯	-10.4979
▁ㄨˋ3쎯ㄆㄧㄣˇ쎯	-10.4984
▁ㄧ0쎯ㄅㄞˇ0쎯	-10.4984
▁ㄌㄤˋ0쎯	-10.4988
▁ㄊㄠˊ4쎯	-10.499
ㄅㄧㄥˇ3쎯	-10.4999
▁ㄆㄧˊ3쎯	-10.5007
▁ㄉㄚˋ쎯ㄑㄧˋ0쎯	-10.5015
▁ㄉㄚˋ쎯ㄐㄧㄝ7쎯	-10.5017
▁ㄏㄨㄣ2쎯	-10.502
▁ㄒㄧㄠ6쎯	-10.5022
ㄨˊ3쎯	-10.5023
ㄓˊ5쎯	-10.5027
▁ㄊㄚ4쎯	-10.5028
▁ㄒㄧㄡ1쎯ㄐㄧㄢˋ2쎯	-10.503
▁ㄕㄡˇ2쎯ㄒㄧˊ1쎯	-10.5032
ㄉㄨ0쎯	-10.5033
▁ㄍㄜˋ0쎯ㄐㄧㄝˋ3쎯	-10.5034
▁ㄉㄨㄛˊ0쎯	-10.5034
▁ㄧㄡˇ1쎯ㄖㄣˊ0쎯	-10.5037
▁ㄩˋ7쎯	-10.5037
ㄊㄢˋ0쎯	-10.5038
▁ㄅㄧㄢˋ0쎯ㄒㄧㄥˊ1쎯	-10.504
▁ㄏㄠˊ1쎯ㄕㄥ0쎯	-10.5041
▁ㄐㄧˊ5쎯ㄒㄧㄥˋ2쎯	-10.5042
▁ㄊㄧㄠˊ0쎯ㄌㄧˋ8쎯	-10.5043
▁ㄏㄜˋ1쎯	-10.5045
▁ㄉㄡ0쎯ㄏㄨㄟˋ2쎯	-10.5046
ㄆㄚˋ0쎯	-10.5046
ㄊㄨㄥˇ3쎯	-10.5047
▁ㄌㄢˊ6쎯ㄑㄧㄡˊ2쎯	-10.5047
▁ㄒㄧㄢˊ2쎯	-10.5055
▁ㄘˊ3쎯	-10.5055
▁ㄍㄨㄥˇ2쎯	-10.5057
▁ㄓˊ0쎯ㄈㄚˇ0쎯	-10.5057
▁ㄖㄨㄛˋ0쎯ㄍㄢ0쎯	-10.506
▁ㄉㄚˋ쎯ㄑㄧㄠˊ2쎯	-10.5065
▁ㄑㄩ2쎯	-10.5067
ㄉㄨˋ0쎯	-10.5067
ㄙㄨㄛˇ3쎯	-10.5068
ㄩˋ8쎯	-10.5069
ㄔㄨㄥˊ3쎯	-10.5069
▁ㄌㄥ쎯	-10.5072
▁ㄆㄧㄠˊ0쎯	-10.5073
▁ㄒㄩㄝˊ0쎯	-10.5074
ㄧㄠˊ3쎯	-10.5077
ㄎㄨㄣ1쎯	-10.5078
ㄜˋ1쎯	-10.5081
▁ㄊㄤˊ3쎯	-10.5085
ㄋㄧㄥˊ0쎯ㄒㄧㄢˋ0쎯	-10.5085
▁ㄌㄧˋ3쎯ㄗㄨˊ0쎯	-10.5086
▁ㄅㄨˇ1쎯	-10.509
ㄆㄟˋ1쎯	-10.509
▁ㄏㄨㄚˊ1쎯ㄓㄨㄥ0쎯	-10.509
ㄕㄨˇ6쎯	-10.5091
▁ㄉㄧㄠ2쎯ㄙㄨˋ6쎯	-10.5091
ㄍㄨㄥ2쎯ㄩㄢˊ0쎯ㄑㄧㄢˊ0쎯	-10.5095
▁ㄒㄧㄣ5쎯ㄡ0쎯	-10.5095
▁ㄩㄣˋ1쎯ㄗㄨㄛ0쎯	-10.5099
ㄊㄨㄟˇ쎯	-10.5099
ㄧㄥ1	-10.51
▁ㄔㄥˊ10쎯	-10.5102
▁ㄐㄧㄥ8쎯ㄘㄞˇ1쎯	-10.5112
▁ㄅㄠˇ2쎯ㄌㄧㄡˊ2쎯	-10.5113
▁ㄙ3쎯ㄎㄠˇ0쎯	-10.5114
ㄙㄨˋ6쎯	-10.5117
▁ㄑㄧˇ4쎯ㄩㄢˊ9쎯	-10.5117
ㄧˋ43쎯	-10.5117
▁ㄕㄨˇ4쎯ㄅㄧㄠ0쎯	-10.5124
▁ㄐㄧㄝ4쎯ㄐㄧㄣˋ1쎯	-10.5127
▁ㄉㄨㄛ0쎯ㄍㄨㄥ3쎯ㄋㄥˊ쎯	-10.5129
▁̇ㄉㄜ0쎯ㄉㄨㄢˋ0쎯	-10.5132
▁ㄕㄣˊ1쎯ㄏㄨㄚˋ2쎯	-10.5135
▁ㄘㄞˇ0쎯ㄍㄡˋ1쎯	-10.5136
▁ㄇㄟˇ1쎯ㄏㄠˇ0쎯	-10.5143
▁쎈쎄	-10.5143
ㄗㄥ0쎯	-10.5144
ㄕㄜˋ0쎯ㄐㄧˋ0쎯	-10.5144
ㄧ3쎯ㄒㄩㄝˊ1쎯	-10.5146
▁ㄙㄨㄥˋ1쎯ㄉㄞˋ0쎯	-10.5147
ㄒㄧˋ1쎯ㄅㄠ2쎯	-10.5149
▁ㄗㄠˇ1쎯	-10.515
▁ㄎㄡˇ쎯ㄑㄧㄤ3쎯	-10.5155
ㄕㄨ4쎯	-10.5155
▁ㄇㄧˋ1쎯ㄈㄥ3쎯	-10.5156
▁ㄒㄧㄤ2쎯ㄍㄨ6쎯	-10.516
▁ㄏㄨˊ3쎯	-10.516
▁ㄈㄨˋ12쎯ㄅㄨˋ4쎯	-10.5164
▁ㄍㄜˋ0쎯ㄍㄨㄛˊ0쎯	-10.5166
▁ㄐㄧㄢˋ2쎯ㄍㄨㄛˊ0쎯	-10.5167
▁ㄒㄧㄥ0쎯ㄑㄩˋ1쎯	-10.5167
▁ㄐㄧㄥ8쎯ㄇㄧˋ1쎯	-10.5168
▁ㄕㄨㄟˇ쎯ㄍㄨㄛˇ0쎯	-10.517
ㄙㄨㄥ	-10.5174
▁ㄔㄤˊ0쎯ㄆㄧㄢ2쎯	-10.5179
▁ㄒㄧㄢˊ1쎯	-10.518
▁ㄊㄠˇ쎯ㄌㄨㄣˊ2쎯	-10.5181
▁ㄌㄨㄣˊ1쎯ㄉㄨㄣ1쎯	-10.5185
▁ㄉㄨㄟ쎯	-10.5186
▁ㄐㄩ3쎯	-10.5187
▁ㄐㄧㄢ8쎯ㄓˊ4쎯	-10.5191
▁̇ㄉㄜ0쎯ㄉㄧㄢˇ1쎯	-10.5191
ㄐㄧㄚˇ2쎯	-10.5194
▁ㄕㄣ0쎯	-10.5195
▁ㄍㄨㄤ0쎯ㄏㄨㄚˊ3쎯	-10.5196
▁ㄌㄧˋ7쎯	-10.5199
ㄏㄢˋ6쎯	-10.5201
ㄔˊ2쎯	-10.5201
ㄈㄚˊ2쎯	-10.5202
--	-10.5203
▁ㄉㄚˋ쎯ㄕㄚˋ0쎯	-10.5207
ㄕˊ0쎯ㄌㄧㄡˋ0쎯	-10.5209
▁ㄞˋ1쎯ㄍㄨㄛˊ0쎯	-10.521
▁ㄎㄡˋ1쎯	-10.5211
ㄏㄥ1쎯	-10.5213
▁ㄍㄨㄤ0쎯ㄗㄜˊ3쎯	-10.5224
▁ㄕㄨˋ1쎯	-10.5229
▁ㄆㄢˋ0쎯	-10.523
▁ㄐㄧㄝ4쎯ㄕㄡ쎯	-10.5233
▁ㄌㄚˋ0쎯ㄕˊ3쎯	-10.5234
▁ㄜˋ2쎯	-10.5238
▁ㄏㄤˊ3쎯ㄊㄧㄢ0쎯	-10.524
▁ㄩˇ6쎯ㄧㄣ4쎯	-10.5242
▁ㄔㄨ0쎯ㄈㄚ쎯	-10.5242
ㄌㄧㄣˊ14쎯	-10.5244
▁ㄊㄨㄟˋ0쎯ㄒㄧㄡ0쎯	-10.5246
▁ㄔㄨㄢˊ1쎯ㄅㄛˊ3쎯	-10.5252
ㄎㄞ0쎯ㄈㄚ쎯ㄡ0쎯	-10.5255
ㄒㄩㄢˊ0쎯	-10.5257
ㄕㄣˇ1쎯	-10.5257
ㄧㄢˇ1	-10.5257
▁ㄑㄩ5쎯ㄕˋ7쎯	-10.5258
▁ㄐㄧㄠ6쎯ㄩˋ3쎯ㄐㄩˊ0쎯	-10.5262
▁ㄏㄜˊ3쎯ㄌㄧㄡˊ3쎯	-10.527
ㄊㄡˋ쎯	-10.5271
▁ㄔㄠˊ1쎯ㄧㄤˊ2쎯	-10.5276
ㄠˊ3쎯	-10.5277
▁ㄕㄨ9쎯ㄙㄨㄥˋ2쎯	-10.5281
▁ㄑㄧˋ0쎯ㄒㄧㄤˋ2쎯	-10.5282
▁ㄔㄨㄥˊ2쎯ㄐㄧㄢˋ2쎯	-10.5282
▁ㄒㄧㄝˇ1쎯ㄍㄨㄢˇ1쎯	-10.5289
ㄇㄟˋ0쎯	-10.5291
▁ㄉㄧㄥˇ0쎯ㄉㄨㄢ0쎯	-10.5295
▁ㄐㄧㄠ0쎯ㄔㄚ0쎯	-10.5296
ㄧˋ2쎯ㄕㄨˋ0쎯	-10.5297
▁ㄍㄢˋ0쎯	-10.5299
▁ㄕㄡˋ0쎯ㄇㄧㄥˋ쎯	-10.53
▁ㄈㄣ0쎯ㄓ1쎯	-10.5301
▁ㄔㄢˇ0쎯ㄩˊ0쎯	-10.5303
▁ㄅㄧˇ3쎯ㄇㄧㄥˊ0쎯	-10.5306
▁ㄐㄧㄤˇ1쎯ㄌㄧˋ5쎯	-10.5306
▁ㄧㄤˊ0쎯ㄓㄡ1쎯	-10.5308
ㄕㄢ0쎯ㄓㄣˋ3쎯	-10.5308
▁ㄐㄧ6쎯ㄉㄧㄢˋ0쎯	-10.5309
▁ㄏㄨㄚ0쎯ㄕㄥ1쎯	-10.5311
▁ㄗㄨㄥˇ0쎯ㄊㄧ0쎯	-10.5312
▁ㄧㄢˇ2쎯ㄐㄧㄥ6쎯	-10.5314
▁ㄗˋ0쎯ㄧㄡˋ2쎯	-10.5317
ㄨˊ5쎯	-10.5318
▁ㄘㄢ0쎯ㄐㄧㄢˋ0쎯	-10.5321
▁ㄎㄢ0쎯	-10.5321
▁ㄕ2쎯ㄕㄥ1쎯	-10.5321
▁ㄎㄨˋ2쎯	-10.5323
▁ㄧㄥˇ1쎯ㄒㄧㄤˋ3쎯	-10.5326
▁ㄇㄟˇ0쎯ㄘˋ0쎯	-10.5327
ㄨㄟˇ4쎯	-10.5337
▁ㄊㄞˋ3쎯ㄍㄨㄛˊ0쎯	-10.534
▁쎁쎉쎄쎃	-10.5341
▁ㄐㄧㄠ6쎯ㄌㄧㄢˋ0쎯	-10.5341
▁ㄇㄞˋ0쎯	-10.5345
▁ㄇㄨˋ0쎯ㄇㄚˇ0쎯	-10.5346
▁ㄓㄨㄢ0쎯ㄊㄧˊ1쎯	-10.5352
ㄐㄧㄢˇ8쎯	-10.5359
ㄊㄧㄝ1쎯	-10.5362
▁ㄌㄧˊ4쎯	-10.5363
ㄅㄠˋ5쎯	-10.5363
▁ㄈㄤˋ쎯ㄕㄜˋ3쎯	-10.5363
▁ㄉㄨㄟˋ0쎯ㄔㄤˊ0쎯	-10.5365
▁ㄓㄠˋ2쎯ㄇㄧㄥˊ1쎯	-10.5367
▁ㄕㄥ1쎯ㄧㄚˊ3쎯	-10.5369
ㄠˋ0쎯	-10.537
▁ㄅㄢˋ1쎯ㄕㄢ0쎯ㄡ0쎯	-10.5375
ㄒㄩㄢ1쎯	-10.5379
▁ㄇㄧㄥˊ0쎯ㄩˋ15쎯	-10.538
ㄞ1쎯	-10.5387
▁ㄌㄨㄥˊ0쎯ㄊㄡˊ0쎯	-10.5388
▁ㄉㄧㄥˋ1쎯ㄩˇ6쎯	-10.5392
▁ㄨˇ3쎯ㄕㄨˋ0쎯	-10.5393
▁쎇쎄	-10.5395
▁ㄒㄧㄣ5쎯ㄐㄧㄢˋ2쎯	-10.5399
▁ㄍㄨㄢ0쎯ㄐㄧㄝ0쎯	-10.54
▁ㄍㄨㄥ0쎯ㄏㄨㄟˋ2쎯	-10.5405
ㄎㄥ0쎯	-10.5406
▁ㄔㄨㄣˊ1쎯	-10.5408
▁ㄍㄨㄥ2쎯ㄢ0쎯ㄐㄩˊ0쎯	-10.541
▁ㄈㄤ0쎯ㄧㄢˊ2쎯	-10.5412
▁ㄧㄝˇ1쎯ㄐㄧㄣ3쎯	-10.5412
ㄓㄜˊ0쎯	-10.5414
▁ㄆㄧㄠ0쎯	-10.5414
ㄒㄩㄢˊ2쎯	-10.5415
▁ㄕㄣ5쎯ㄎㄜˋ1쎯	-10.5416
ㄓㄣ1	-10.5416
ㄒㄧㄣ12쎯	-10.5419
ㄌㄧˋ15쎯	-10.5421
▁쎄쎀쎀쎀	-10.5424
▁ㄒㄧㄣ0쎯ㄗㄤ1쎯	-10.5424
▁ㄓㄣˋ1쎯ㄉㄨㄥˋ0쎯	-10.5431
▁ㄒㄧㄡ1쎯ㄈㄨˋ7쎯	-10.5432
▁ㄊㄢˊ2쎯	-10.5433
ㄓㄨ0쎯	-10.5433
▁ㄒㄧ3쎯ㄌㄚˋ1쎯	-10.5433
▁ㄉㄧˋ3쎯ㄧ0쎯ㄘˋ0쎯	-10.5434
▁ㄅㄛˊ5쎯ㄕˋ0쎯ㄏㄡˋ0쎯	-10.5436
ㄙㄜˋ2쎯	-10.5444
ㄇㄤˊ1쎯	-10.5445
▁ㄩˋ5쎯	-10.5445
▁ㄒㄩㄢˊ2쎯ㄓㄨㄢˇ쎯	-10.5445
▁ㄕˋ9쎯	-10.5451
▁ㄎㄨㄤˋ2쎯ㄨˋ3쎯	-10.5458
▁ㄐㄧㄢˋ2쎯ㄧㄡˇ1쎯	-10.5459
▁ㄑㄧˇ4쎯ㄉㄧㄢˇ1쎯	-10.5459
ㄒㄩㄝˊ1쎯ㄅㄠˋ0쎯	-10.5461
▁ㄔㄨㄤ2쎯ㄎㄡˇ쎯	-10.5462
▁ㄊㄧㄢ1쎯ㄐㄧㄚ0쎯	-10.5464
▁ㄧㄠ3쎯	-10.5465
ㄅㄠˇ2쎯ㄏㄨˋ2쎯	-10.5465
ㄗㄨㄟˋ1쎯	-10.5474
▁ㄅㄣˇ0쎯ㄓㄠ2쎯	-10.5485
ㄓㄨㄥˇ0쎯	-10.5488
▁ㄎㄡˇ쎯ㄐㄧㄥˋ0쎯	-10.5492
ㄉㄠˋ1쎯	-10.5494
▁ㄧㄡˊ1쎯ㄘˇ0쎯	-10.5497
▁ㄈㄥ1쎯ㄍㄨㄤ0쎯	-10.5498
▁ㄒㄧㄣ1쎯	-10.5501
▁ㄓ0쎯ㄨㄞˋ쎯	-10.5502
▁ㄕㄠˋ3쎯	-10.5504
▁ㄖㄢˊ0쎯	-10.5505
▁ㄅㄢ3쎯ㄈㄚ쎯	-10.5509
▁ㄑㄧㄤ0쎯	-10.551
▁쎆쎉	-10.5516
ㄏㄢˊ0쎯	-10.5521
ㄕㄨˋ1쎯	-10.5521
ㄧˊ5쎯	-10.5525
ㄏㄨㄛˇ1쎯	-10.5525
▁ㄕㄢ0쎯ㄆㄛ0쎯	-10.5526
▁ㄒㄩㄢˇ0쎯ㄕㄡˇ0쎯	-10.5527
▁ㄅㄧㄢˋ2쎯	-10.5527
▁ㄇㄧㄠˊ1쎯ㄒㄧㄝˇ0쎯	-10.5528
▁ㄇㄧㄥˊ2쎯	-10.5532
▁ㄢˋ2쎯ㄐㄧㄢˋ1쎯	-10.5534
ㄇㄡˊ0쎯	-10.5536
ㄗ0쎯ㄒㄩㄣˊ3쎯	-10.5537
▁ㄆㄠ0쎯	-10.5537
▁ㄈㄚ쎯ㄔㄨ0쎯	-10.5542
ㄏㄢˊ4쎯	-10.5544
ㄩㄥˇ2쎯	-10.5545
▁ㄇㄨˇ1쎯ㄉㄢ0쎯	-10.5547
▁ㄔㄢˇ0쎯ㄌㄧㄤˊ3쎯	-10.555
▁ㄙㄨㄣˇ0쎯ㄕㄤ0쎯	-10.555
▁ㄉㄧㄠˋ3쎯	-10.5556
▁ㄈㄤˊ3쎯ㄐㄧㄢ4쎯	-10.5559
▁ㄕˊ3쎯ㄊㄧ0쎯	-10.556
▁ㄕㄥ1쎯ㄐㄧㄤ2쎯	-10.5563
▁ㄕㄤ0쎯ㄏㄞˋ2쎯	-10.5563
▁쎉쎄	-10.5563
ㄈㄨˊ10쎯	-10.5566
▁ㄒㄧㄤ1쎯ㄨㄤˋ3쎯	-10.557
ㄗˇ2쎯	-10.557
ㄕㄥ1쎯ㄩˋ3쎯	-10.5578
▁ㄉㄤ0쎯ㄑㄧㄢˊ0쎯	-10.558
▁ㄈㄨˋ3쎯ㄎㄜ2쎯	-10.5581
▁ㄏㄨㄟˊ0쎯ㄉㄠˋ0쎯	-10.5583
▁ㄕㄨˇ3쎯	-10.559
▁ㄏㄨㄟ0쎯ㄙㄜˋ0쎯	-10.5596
ㄧㄣ4쎯ㄌㄜˋ0쎯	-10.5601
▁ㄑㄧ1쎯ㄗˇ0쎯	-10.5607
▁ㄌㄩˇ2쎯ㄏㄤˊ0쎯	-10.5607
ㄘㄞˊ1쎯ㄌㄧㄠˋ0쎯	-10.5608
▁ㄍㄜˇ1쎯ㄍㄜˊ2쎯	-10.5608
▁ㄇㄛˊ0쎯ㄒㄧㄢˋ2쎯	-10.5609
▁ㄨㄟˊ7쎯	-10.561
▁ㄉㄧˊ0쎯	-10.561
ㄧㄡˊ7쎯	-10.5611
ㄏㄡˋ2쎯	-10.5612
▁ㄈㄢˋ2쎯	-10.5612
▁ㄇㄧㄥˋ쎯ㄩㄣˋ1쎯	-10.5614
ㄉㄢˋ6쎯	-10.5615
▁ㄧㄡˊ5쎯ㄩㄥˇ2쎯	-10.5615
ㄜˊ3쎯	-10.5616
▁ㄊㄤˋ0쎯	-10.5621
▁ㄏㄠˊ0쎯ㄇㄚˇ2쎯	-10.5622
ㄅㄠ1쎯	-10.5624
ㄩㄥ2쎯	-10.5626
▁ㄓㄨˇ0쎯ㄌㄧˋ0쎯	-10.563
▁ㄊㄨ2쎯ㄖㄢˊ0쎯	-10.563
▁ㄓㄨˇ0쎯ㄉㄠˇ0쎯	-10.5632
ㄙㄨㄟˋ2쎯	-10.5632
▁ㄌㄢˊ2쎯ㄇㄨˋ1쎯	-10.5633
ㄙㄨㄟˇ쎯	-10.5633
▁ㄧˊ0쎯ㄅㄧㄠˇ0쎯	-10.5635
▁쎁쎇쎀	-10.5637
▁ㄍㄞ0쎯ㄕㄨ0쎯	-10.5642
▁ㄗˇ3쎯ㄙㄜˋ0쎯	-10.5642
▁ㄕˋ4쎯ㄓㄥˋ3쎯	-10.5643
▁ㄌㄧㄢˋ0쎯ㄒㄧˊ0쎯	-10.5643
ㄧㄥˇ1쎯ㄒㄧㄤˇ1쎯ㄌㄧˋ0쎯	-10.5646
ㄍㄤ2쎯	-10.5652
▁ㄍㄡˋ0쎯ㄐㄧㄢˋ2쎯	-10.566
▁쎉쎃	-10.5663
▁ㄐㄧˊ6쎯	-10.5667
▁ㄑㄩㄢˊ1쎯ㄒㄧㄢˋ0쎯	-10.5668
▁ㄚ3쎯	-10.5669
▁쎁쎀쎈	-10.5671
▁ㄌㄨㄛˊ1쎯	-10.5672
▁ㄙㄨㄟˊ1쎯ㄏㄡˋ0쎯	-10.568
▁쎂ㄇㄛˋ0쎯	-10.5681
▁ㄌㄨㄛˊ2쎯ㄐㄧˊ9쎯	-10.5682
ㄓㄥˋ1쎯	-10.5684
▁ㄊㄨㄛ1쎯	-10.5685
ㄈㄚ쎯ㄓㄢˇ2쎯	-10.5687
▁ㄕㄤˇ0쎯ㄅㄨˋ4쎯	-10.5688
ㄐㄧˊ6쎯	-10.5688
▁ㄗㄨㄥˇ0쎯ㄘㄞˊ3쎯	-10.569
▁ㄍㄥˇ2쎯	-10.5691
ㄈㄨˊ7쎯	-10.5693
ㄓㄡˊ0쎯	-10.5693
▁ㄓㄡ2쎯ㄋㄧㄢˊ0쎯	-10.5695
ㄌㄢˇ0쎯	-10.5696
▁ㄌㄧˋ0쎯ㄒㄩㄝˊ1쎯	-10.5698
▁ㄌㄧˋ3쎯ㄈㄤ0쎯ㄇㄧˇ0쎯	-10.5702
▁ㄉㄧㄢˋ0쎯ㄒㄧㄣˋ0쎯	-10.5702
▁ㄕㄣ2쎯ㄕㄤˇ0쎯	-10.5703
▁ㄋㄧㄡˊ쎯ㄖㄡˋ쎯	-10.5703
ㄧˋ8쎯	-10.5705
ㄧㄥˊ4쎯	-10.5705
▁ㄧㄣˋ0쎯ㄈㄚ쎯	-10.5705
ㄔㄨㄢˊ0쎯ㄍㄢˇ3쎯ㄑㄧˋ7쎯	-10.5706
▁쎁쎀쎅	-10.5712
▁ㄙㄢ0쎯ㄐㄧㄠˇ0쎯	-10.5714
▁ㄨㄟˇ0쎯ㄉㄚˋ쎯	-10.5718
▁ㄍㄞˋ2쎯	-10.5718
▁ㄑㄧㄢ2쎯	-10.5719
▁ㄊㄨˋ0쎯	-10.5721
▁ㄒㄧㄤˇ1쎯	-10.5724
▁ㄕˇ3쎯ㄐㄧㄢˋ2쎯ㄩˊ0쎯	-10.5729
▁ㄋㄢˊ0쎯ㄒㄧㄥˋ2쎯	-10.5729
▁ㄎㄠˇ0쎯ㄔㄚˊ3쎯	-10.573
ㄔㄨˇ3쎯	-10.5731
ㄉㄨㄣ1쎯	-10.5732
ㄍㄨㄥ7쎯	-10.5734
ㄩˋ15쎯	-10.5739
ㄧㄥˇ0쎯	-10.5744
▁ㄇㄟˊ6쎯ㄊㄢˋ1쎯	-10.5745
▁ㄏㄨˋ1쎯ㄕㄨˇ5쎯	-10.5748
ㄊㄨㄛ2쎯	-10.5752
▁ㄐㄩˋ4쎯ㄑㄧㄥˊ0쎯	-10.5757
▁ㄌㄤˋ0쎯ㄇㄢˋ1쎯	-10.5757
ㄌㄨˋ2쎯	-10.5757
ㄔㄥˊ5쎯	-10.5764
▁ㄓ1쎯ㄉㄨㄟˋ0쎯	-10.5765
▁ㄖㄨㄥˊ4쎯ㄐㄧ11쎯	-10.5766
▁ㄨㄟˇ1쎯	-10.5768
ㄖㄠˇ쎯	-10.5787
▁ㄩㄥˋ0쎯ㄗㄨㄛ0쎯	-10.5789
▁ㄧㄚˊ1쎯	-10.5791
▁ㄌㄧㄥˊ2쎯ㄏㄨㄛˊ0쎯	-10.5794
▁ㄐㄧㄣˋ0쎯ㄔㄨ0쎯ㄎㄡˇ쎯	-10.5798
ㄋㄣˋ0쎯	-10.5798
▁ㄩˊ3쎯ㄌㄟˋ2쎯	-10.5801
▁ㄧㄡ0쎯ㄉㄧㄢˇ1쎯	-10.5802
▁ㄇㄛˊ3쎯ㄎㄨㄞˋ0쎯	-10.5803
▁ㄍㄜˊ3쎯	-10.5803
▁ㄕˋ4쎯ㄓㄨㄥ0쎯ㄒㄧㄣ0쎯	-10.5803
▁ㄩㄢˊ5쎯ㄓㄨˋ5쎯	-10.5804
▁ㄕˊ0쎯ㄑㄧ0쎯	-10.5805
▁쎈쎇	-10.5806
▁ㄍㄤ6쎯ㄊㄧㄝˇ쎯	-10.5809
▁ㄕㄨㄤ0쎯ㄈㄤ0쎯	-10.5811
▁ㄌㄧㄡˊ3쎯ㄔㄥˊ7쎯	-10.5812
▁ㄌㄨㄥˋ0쎯	-10.5812
▁ㄏㄢˋ4쎯	-10.5812
▁ㄌㄧㄝˋ0쎯ㄨㄟˊ0쎯	-10.5817
ㄌㄥˇ쎯	-10.5818
▁ㄇㄟˇ1쎯ㄨㄟˋ3쎯	-10.5819
▁ㄐㄧㄢˋ2쎯ㄘㄞˊ1쎯	-10.5822
▁ㄑㄧㄢˊ0쎯ㄈㄥ6쎯	-10.5823
▁ㄐㄧㄥ8쎯ㄧㄥ1쎯	-10.5825
▁ㄅㄛ0쎯	-10.5828
▁ㄓㄨˇ0쎯ㄧㄥˊ5쎯	-10.5829
ㄨㄣˊ3쎯	-10.5829
ㄈㄨˋ4쎯	-10.5832
▁ㄒㄧㄝˋ7쎯	-10.5833
▁ㄍㄨㄛ3쎯ㄋㄟˋ쎯	-10.5833
▁ㄧㄝˇ2쎯ㄕㄥ1쎯	-10.5835
▁ㄅㄢˋ0쎯ㄍㄨㄥ2쎯ㄊㄧㄥ0쎯	-10.5836
ㄅㄧㄢ1쎯ㄇㄚˇ2쎯	-10.5837
▁ㄅㄧˇ2쎯	-10.5837
▁ㄔㄡˊ6쎯	-10.5838
▁ㄒㄧㄠ2쎯ㄈㄤˊ0쎯	-10.5839
▁ㄐㄧㄣˇ2쎯ㄌㄧㄣˊ0쎯	-10.584
ㄔˇ0쎯	-10.5842
▁ㄓㄨㄥ0쎯ㄋㄚ1쎯	-10.5843
▁ㄘㄨㄛˋ2쎯ㄨˋ4쎯	-10.5844
ㄠˊ0쎯	-10.5848
ㄊㄢˋ2쎯	-10.5851
▁ㄆㄧㄠˋ0쎯	-10.5859
ㄧㄡˊ3쎯	-10.5859
▁ㄐㄧㄚˋ1쎯ㄕˇ4쎯	-10.586
▁ㄩˋ2쎯	-10.5861
▁|	-10.5861
▁ㄌㄠˇ0쎯ㄖㄣˊ0쎯	-10.5863
ㄨㄟˋ12쎯	-10.5865
▁ㄑㄧㄠˊ0쎯ㄇㄨˋ0쎯	-10.5865
▁ㄏㄨㄚ0쎯ㄐㄧㄠ7쎯	-10.5867
▁ㄐㄧㄝˋ0쎯	-10.5868
ㄑㄧˋ5쎯	-10.5869
▁ㄑㄩㄥˊ0쎯	-10.5869
▁ㄆㄢ1쎯	-10.5874
▁ㄔㄤˇ0쎯ㄈㄤˊ3쎯	-10.5877
▁ㄉㄧˋ3쎯ㄨˇ0쎯	-10.5877
▁ㄖㄠˋ쎯	-10.5877
ㄉㄧˋ3쎯ㄧ0쎯	-10.5881
▁ㄆㄞˊ0쎯ㄇㄧㄥˊ0쎯	-10.5887
▁ㄏㄢˊ2쎯ㄕㄡˋ2쎯	-10.5887
▁ㄍㄨㄟ1쎯	-10.5891
ㄌㄧㄥˊ10쎯	-10.5892
▁ㄇㄠˋ0쎯	-10.5893
▁ㄍㄨㄢ2쎯ㄈㄤ0쎯	-10.5895
▁ㄕ2쎯ㄗ2쎯	-10.5898
▁ㄐㄩˊ0쎯ㄅㄨˋ4쎯	-10.5898
▁ㄘㄨㄟ0쎯	-10.59
▁ㄍㄡ3쎯	-10.5906
▁ㄧˊ9쎯	-10.5907
▁ㄗㄨㄟˋ0쎯ㄉㄧ0쎯	-10.5915
▁ㄧ0쎯ㄉㄞˋ0쎯	-10.5921
ㄧˊ12쎯	-10.5922
▁ㄊㄨㄥˇ3쎯	-10.5924
▁ㄋㄧㄢˊ0쎯ㄐㄧˊ2쎯	-10.5928
▁ㄔㄨ1쎯ㄐㄧˊ2쎯	-10.5929
▁ㄈㄥˋ0쎯ㄏㄨㄤˊ2쎯	-10.593
▁ㄈㄨˊ2쎯	-10.593
▁ㄑㄧˋ3쎯	-10.5931
▁ㄊㄜˋ0쎯ㄔㄨㄥˊ1쎯	-10.5931
▁ㄔㄤˊ3쎯	-10.5933
▁쎃쎅쎀	-10.5943
ㄊㄧㄢˊ2쎯	-10.5944
▁ㄅㄧㄥˇ0쎯	-10.595
▁ㄇㄞˊ0쎯	-10.5959
▁ㄨㄣ0쎯ㄓㄡ1쎯	-10.596
▁ㄏㄨㄚˊ1쎯ㄋㄚ1쎯	-10.5963
ㄇㄧㄣˊ0쎯ㄈㄚˇ0쎯ㄩㄢˋ2쎯	-10.5963
ㄈㄨˊ1	-10.5967
▁ㄊㄤˊ1쎯	-10.5969
▁ㄨㄤˊ0쎯	-10.597
▁ㄅㄧㄥˇ3쎯	-10.5972
▁1	-10.5972
▁ㄕㄠˇ쎯ㄕㄨˇ5쎯	-10.5975
▁ㄔㄨˇ2쎯	-10.5975
ㄇㄠˋ2쎯ㄧˋ12쎯	-10.5976
▁ㄅㄧˋ2쎯	-10.5978
ㄐㄧˋ15쎯	-10.5979
ㄇㄥˇ	-10.5979
▁ㄎㄨㄢ0쎯ㄉㄨˋ2쎯	-10.598
▁ㄐㄧㄝ3쎯ㄐㄧㄥ5쎯	-10.5984
▁ㄓㄨˋ3쎯ㄖㄨˋ0쎯	-10.5986
▁ㄗㄡˋ0쎯	-10.5988
▁ㄕㄥˇ0쎯ㄓㄥˋ3쎯ㄈㄨˇ3쎯	-10.5992
ㄩˋ11쎯	-10.5993
ㄒㄩㄣ0쎯	-10.5995
▁ㄍㄨㄥ0쎯ㄗㄨㄛ0쎯ㄕˋ18쎯	-10.5997
▁ㄐㄧ7쎯ㄈㄨ1쎯	-10.6
쎀쎀쎀ㄇㄛˋ0쎯	-10.6003
▁ㄌㄧㄢˋ0쎯	-10.6009
ㄌㄧˊ8쎯	-10.6014
ㄙㄨㄟˊ1쎯	-10.6017
ㄒㄧㄝ1쎯	-10.602
▁ㄧㄝˋ0쎯ㄐㄧˋ15쎯	-10.602
▁ㄕㄚ0쎯ㄏㄞˋ2쎯	-10.6022
▁ㄅㄠ4쎯	-10.6024
▁쎁쎆쎀쎀	-10.6027
▁ㄓㄞˊ쎯	-10.603
▁ㄓ1쎯ㄈㄨˋ1쎯	-10.6045
▁ㄇㄚˇ0쎯ㄎㄜˋ0쎯ㄙ3쎯	-10.6049
ㄊㄨㄥˊ9쎯	-10.605
▁ㄑㄧㄥ2쎯	-10.6052
▁ㄎㄠˇ0쎯ㄌㄩˋ1쎯	-10.6053
▁ㄐㄧㄠˋ1쎯	-10.6054
▁#	-10.6064
▁ㄔㄤˊ0쎯ㄢ0쎯	-10.6068
▁ㄙㄨㄣˇ0쎯ㄕ1쎯	-10.6071
▁ㄓ10쎯	-10.6076
▁ㄨㄞˋ쎯ㄐㄧㄠ0쎯	-10.6076
▁ㄙㄨㄛˇ0쎯ㄓˋ7쎯	-10.6076
▁ㄊㄧ2쎯	-10.6078
▁ㄒㄩㄥ0쎯	-10.608
▁ㄊㄨㄢˊ0쎯ㄔㄤˊ0쎯	-10.6082
▁ㄈㄣ0쎯ㄒㄧㄤˇ0쎯	-10.6084
ㄓㄨㄣˇ0쎯	-10.6086
ㄐㄧㄤˋ1쎯	-10.6088
▁ㄕㄨˇ1쎯ㄒㄧㄥˋ2쎯	-10.6089
ㄉㄚˋ쎯ㄐㄧㄡˇ5쎯ㄉㄧㄢˋ3쎯	-10.6091
▁ㄨㄤ0쎯	-10.6094
▁ㄑㄩㄝˋ1쎯ㄅㄠˇ2쎯	-10.6096
▁ㄐㄧㄝˋ1쎯	-10.6101
ㄍㄨㄛ1쎯	-10.6102
▁ㄧ0쎯ㄆㄧㄢ0쎯	-10.6104
▁ㄇㄧㄥˊ1쎯ㄑㄩㄝˋ1쎯	-10.6105
▁ㄕㄡˋ5쎯	-10.6107
▁ㄑㄩㄢˊ0쎯ㄌㄧˋ6쎯	-10.6113
▁ㄌㄧㄡˊ3쎯ㄊㄨㄥ0쎯	-10.6115
ㄓㄨㄤ1쎯ㄘㄨㄣ0쎯	-10.6127
▁ㄑㄩˋ0쎯ㄕˋ3쎯	-10.6129
▁ㄓ0쎯ㄕㄤˇ0쎯	-10.6129
ㄏㄨㄛˋ3쎯	-10.6129
▁ㄒㄧㄣ5쎯ㄧㄥˇ0쎯	-10.613
ㄇㄢˋ1쎯	-10.6137
▁ㄍㄨˋ1쎯ㄓㄤˋ6쎯	-10.6143
▁ㄘㄞˇ0쎯ㄐㄧˊ8쎯	-10.6144
▁ㄍㄨㄛˊ0쎯ㄨㄤˊ1쎯	-10.6147
▁ㄕㄨˇ5쎯ㄎㄨㄥˋ0쎯	-10.6149
▁ㄉㄨㄟˋ1쎯ㄧㄥ0쎯	-10.6154
ㄧ6쎯	-10.6163
▁ㄅㄞˋ0쎯	-10.6164
ㄓㄣˋ0쎯	-10.6167
▁ㄧㄥˋ1쎯ㄐㄧㄢˋ1쎯	-10.6168
▁ㄎㄜ2쎯ㄐㄧˊ2쎯	-10.6169
▁ㄐㄧˇ3쎯	-10.6172
▁ㄉㄧㄢˋ0쎯ㄌㄢˇ2쎯	-10.6177
ㄈㄤˇ1쎯	-10.6178
ㄐㄧㄤˋ0쎯	-10.618
▁ㄏㄨㄛˇ0쎯ㄕㄢ0쎯	-10.618
▁ㄌㄧㄡˊ8쎯	-10.6181
▁ㄈㄣ0쎯ㄗˇ0쎯ㄌㄧㄤˊ3쎯	-10.6186
▁ㄕˇ0쎯ㄐㄧˋ1쎯	-10.6187
▁ㄌㄧㄡˊ5쎯	-10.6187
ㄐㄩ4쎯	-10.6191
ㄨㄢ0쎯	-10.6193
▁ㄕˊ3쎯ㄌㄧˋ8쎯	-10.6194
▁ㄕˊ2쎯	-10.62
▁ㄏㄡˋ2쎯	-10.6212
▁ㄕㄤˇ0쎯ㄐㄧˊ2쎯	-10.6213
▁ㄑㄧ1쎯	-10.6214
▁ㄑㄩㄢˊ1쎯ㄊㄧ0쎯	-10.6214
▁쎂쎅쎆	-10.6214
▁ㄑㄩㄝˋ1쎯	-10.6214
ㄧㄠˊ11쎯	-10.6215
▁ㄕㄨㄟˋ1쎯ㄨˋ2쎯ㄐㄩˊ0쎯	-10.6221
ㄋㄧ쎯	-10.6223
▁ㄕㄠˇ쎯ㄌㄧㄤˊ3쎯	-10.6228
▁ㄙㄡ0쎯	-10.6228
▁ㄅㄧˇ3쎯ㄐㄧˋ1쎯ㄅㄣˇ0쎯	-10.623
▁ㄑㄩ6쎯	-10.6231
▁ㄒㄧㄢˋ6쎯	-10.6236
ㄐㄩㄝˊ14쎯	-10.6237
ㄍㄣ0쎯ㄐㄩ4쎯	-10.6238
▁ㄐㄧㄣ4쎯	-10.6238
▁ㄧㄢ3쎯	-10.624
▁ㄓㄨㄢˇ쎯ㄏㄨㄚˋ0쎯	-10.6241
▁ㄉㄧㄝˊ2쎯	-10.6241
▁ㄈㄥ1쎯ㄑㄧㄥˊ0쎯	-10.6242
▁ㄘㄨㄟ1쎯	-10.6245
▁ㄏㄨㄛˇ1쎯ㄅㄢˋ3쎯	-10.6245
▁ㄕˋ12쎯ㄐㄧㄠˇ0쎯	-10.6249
▁ㄗㄨㄥˇ0쎯ㄕˋ15쎯	-10.6252
▁ㄒㄧㄣ5쎯ㄒㄧㄢ3쎯	-10.6253
▁ㄅㄧㄢ1쎯ㄐㄩˋ4쎯	-10.6254
▁ㄈㄨ0쎯ㄖㄣˊ0쎯	-10.6254
▁ㄗㄨㄛˋ1쎯ㄌㄚˋ0쎯	-10.6254
ㄘㄨㄟˋ3쎯	-10.6258
▁ㄐㄧㄣ4쎯ㄊㄧㄝ1쎯	-10.6264
▁ㄨㄟˋ6쎯ㄩˇ6쎯	-10.6264
▁ㄨㄟˇ5쎯ㄊㄨㄛ0쎯	-10.6269
▁ㄏㄡˋ0쎯ㄏㄢˋ0쎯ㄕㄨ0쎯	-10.6271
▁ㄒㄧ1쎯ㄌㄧㄣˊ0쎯	-10.6273
▁ㄇㄡˇ쎯ㄔㄨㄥˊ1쎯	-10.6273
▁ㄕㄥ1쎯ㄔㄢˇ0쎯ㄒㄧㄢˋ3쎯	-10.6273
▁ㄧˊ8쎯ㄔㄨㄢˊ0쎯	-10.6274
▁ㄍㄨㄢˋ0쎯	-10.6276
▁ㄊㄧㄥˇ0쎯	-10.6277
▁ㄓㄨㄥ0쎯ㄓㄨㄢ0쎯	-10.6278
ㄎㄢ1쎯	-10.6279
▁ㄒㄧㄠ0쎯	-10.629
ㄕㄚ1쎯	-10.629
▁ㄏㄨㄚˊ0쎯ㄈㄣ0쎯	-10.6291
▁ㄑㄧˊ1쎯ㄐㄧㄢ4쎯	-10.6291
ㄕㄣ0쎯	-10.6299
▁ㄏㄨㄟˋ2쎯ㄐㄧˋ0쎯ㄕ2쎯	-10.6299
▁ㄑㄧㄡˊ2쎯ㄒㄧㄥˊ1쎯	-10.63
ㄏㄨㄞˊ2쎯	-10.6301
▁ㄨㄛˋ0쎯	-10.6303
ㄐㄧㄢˋ2쎯ㄓㄨˋ10쎯	-10.6303
▁ㄇㄠˊ2쎯	-10.6305
▁ㄔㄥˊ3쎯ㄅㄠ0쎯	-10.6307
▁ㄗㄨㄛˋ2쎯ㄏㄠˇ0쎯	-10.6314
ㄌㄢˊ6쎯	-10.6317
▁ㄔㄨ0쎯ㄙㄜˋ0쎯	-10.632
▁ㄉㄨㄥ0쎯ㄋㄚ1쎯ㄧㄚˋ1쎯	-10.6325
ㄅㄧˋ1쎯	-10.6333
▁ㄧ0쎯ㄊㄧ0쎯ㄏㄨㄚˋ0쎯	-10.6335
▁ㄒㄧㄠ1쎯	-10.6335
▁ㄉㄨㄛ0쎯ㄕㄠˇ쎯	-10.6338
▁ㄗㄠ0쎯	-10.6342
▁ㄓㄨㄥ0쎯ㄐㄧˊ2쎯	-10.6342
ㄆㄞˊ0쎯	-10.6346
▁ㄐㄧㄥ8쎯ㄉㄨˋ2쎯	-10.6347
ㄈㄨˊ8쎯	-10.6348
▁ㄓㄨㄥ0쎯ㄒㄧ1쎯ㄧ3쎯	-10.6348
▁ㄊㄡ쎯	-10.6351
ㄗㄨㄛˇ1쎯	-10.6352
▁ㄐㄧㄚ0쎯ㄧˇ2쎯	-10.6356
ㄇㄟˊ3쎯	-10.6359
▁ㄐㄧㄥ8쎯ㄇㄟˇ1쎯	-10.6362
▁ㄑㄧㄤ3쎯	-10.6362
▁ㄖㄣˊ0쎯ㄑㄩㄣˊ1쎯	-10.6363
▁ㄖㄢˇ1쎯	-10.637
▁ㄒㄧㄣ0쎯ㄌㄧㄥˊ2쎯	-10.6372
ㄆㄥˊ2쎯	-10.638
▁ㄕㄡˇ2쎯ㄈㄨˇ3쎯	-10.6382
ㄆㄥˊ0쎯	-10.6382
ㄨㄟˋ10쎯	-10.6382
▁ㄒㄧˋ1쎯ㄋㄧˋ2쎯	-10.6382
▁ㄐㄧˊ2쎯ㄅㄧㄝˊ0쎯	-10.6384
ㄑㄧㄡ3쎯	-10.6388
ㄗㄡˋ0쎯	-10.6388
▁ㄍㄨㄥ5쎯ㄉㄧㄢˋ0쎯	-10.6392
▁ㄧ3쎯ㄒㄩㄝˊ1쎯ㄏㄨㄟˋ2쎯	-10.6394
▁ㄩˋ16쎯	-10.6397
▁ㄐㄧㄚˋ1쎯	-10.6398
ㄧㄚ3쎯	-10.6398
▁ㄠˋ3쎯ㄇㄣˊ0쎯	-10.6398
▁ㄔㄚ1쎯ㄧˋ7쎯	-10.6399
▁ㄒㄧㄤˇ1쎯ㄧㄥ0쎯	-10.6402
▁ㄌㄧˋ1쎯ㄉㄞˋ0쎯	-10.6405
ㄇㄧㄢˊ1쎯	-10.6405
▁ㄧㄢˇ1쎯	-10.6408
▁쎈쎉	-10.6408
ㄈㄥ2쎯	-10.6409
ㄍㄠ2쎯	-10.641
▁ㄕㄨˇ4쎯	-10.641
ㄉㄧㄥ6쎯	-10.6412
▁ㄍㄤ3쎯ㄨㄟˋ2쎯	-10.6416
▁ㄉㄧㄢˋ0쎯ㄘˊ6쎯	-10.6416
▁а	-10.6417
ㄧㄝ2쎯	-10.6419
▁ㄆㄨˇ2쎯ㄐㄧˊ0쎯	-10.642
ㄋㄚ1쎯ㄒㄧㄢˋ0쎯	-10.6421
▁쎈쎁	-10.6421
▁ㄐㄧˇ2쎯	-10.6421
▁ㄇㄚˇ2쎯	-10.6422
▁ㄒㄧㄣ5쎯ㄒㄧㄥ0쎯	-10.6425
▁ㄧㄢˋ4쎯	-10.6428
▁ㄕㄨㄤ1쎯	-10.6429
▁ㄒㄩㄢ1쎯ㄅㄨˋ1쎯	-10.6429
▁ㄐㄧㄥ8쎯ㄒㄩㄢˇ0쎯	-10.6431
ㄆㄧㄥˊ0쎯ㄒㄧㄢˋ0쎯	-10.6432
▁ㄏㄢˋ4쎯ㄐㄧㄝ4쎯	-10.6436
▁ㄒㄧㄡˋ2쎯	-10.6439
ㄌㄧㄢˊ5쎯	-10.644
ㄓㄢ0쎯	-10.6441
▁ㄐㄧˇ0쎯	-10.6441
▁ㄓㄠ0쎯ㄆㄧㄣˋ0쎯	-10.6445
ㄕㄚˋ0쎯	-10.6445
ㄇㄛˋ6쎯	-10.6447
▁ㄓㄥ0쎯ㄕˋ15쎯	-10.6455
ㄌㄧˇ3쎯ㄒㄩㄝˊ1쎯	-10.6456
▁ㄢˋ0쎯	-10.6458
▁ㄏㄢˊ0쎯	-10.646
▁→	-10.646
ㄧㄣˇ3쎯	-10.6464
▁ㄒㄧㄤˇ0쎯	-10.6464
▁ㄍㄨㄢ1쎯ㄘㄜˋ3쎯	-10.6466
▁ㄈㄨˋ4쎯ㄐㄧㄢˋ1쎯	-10.6469
▁ㄐㄧㄚ0쎯ㄇㄥˊ1쎯	-10.6472
▁ㄕㄡˋ3쎯ㄏㄡˋ0쎯ㄈㄨˊ5쎯	-10.6472
▁ㄐㄧㄣˇ2쎯ㄇㄧˋ1쎯	-10.6476
▁ㄍㄨㄢ1쎯ㄉㄧㄢˇ1쎯	-10.6479
▁ㄇㄠˋ1쎯ㄒㄧㄢˇ1쎯	-10.6486
▁ㄋㄨㄥˊ1쎯ㄩˋ2쎯	-10.6489
ㄕㄢ0쎯ㄉㄨㄥ0쎯	-10.649
▁ㄌㄩˋ0쎯	-10.6491
▁ㄈㄚ쎯ㄉㄨㄥˋ0쎯	-10.6493
▁ㄒㄧㄣˋ0쎯ㄩˋ15쎯	-10.6495
ㄨㄢˇ0쎯	-10.6496
ㄙ2쎯	-10.6497
ㄍㄠ3쎯	-10.6499
○	-10.65
ㄖㄨㄟˋ0쎯	-10.65
▁ㄩˋ6쎯ㄘㄜˋ3쎯	-10.6508
▁ㄉㄧ2쎯ㄑㄩˇ0쎯	-10.6512
▁ㄏㄨˊ1쎯	-10.6512
ㄕㄜˊ1쎯	-10.6518
▁ㄍㄨㄛ3쎯ㄓㄨㄥ0쎯	-10.6519
ㄨˋ7쎯	-10.652
▁ㄉㄧㄢˋ0쎯ㄉㄨㄥˋ0쎯	-10.6524
▁ㄅㄠˋ8쎯ㄈㄚ쎯	-10.6525
▁ㄗㄨㄟˋ0쎯ㄒㄧㄠˇ0쎯	-10.6525
ㄍㄨㄛˊ0쎯ㄐㄧˋ5쎯	-10.6529
▁ㄑㄧㄠˊ1쎯	-10.6531
▁ㄘㄨㄣ0쎯ㄓㄨㄤ1쎯	-10.6535
▁ㄒㄧㄝˋ0쎯	-10.6538
▁ㄕㄨㄟˇ쎯ㄓㄨㄥ0쎯	-10.654
▁ㄧㄡˋ0쎯ㄕˋ15쎯	-10.6541
▁ㄑㄧㄝ쎯ㄆㄧㄢ0쎯	-10.6542
▁ㄊㄧ0쎯ㄋㄟˋ쎯	-10.6543
▁ㄐㄧㄝˇ1쎯ㄉㄨˊ0쎯	-10.6544
ㄌㄨㄛˊ6쎯	-10.6546
▁ㄧˋ1쎯ㄨˋ2쎯	-10.6547
▁ㄍㄣ0쎯ㄅㄣˇ0쎯	-10.6548
▁ㄘㄢˊ1쎯	-10.6551
▁ㄏㄨˋ0쎯ㄒㄧㄤ1쎯	-10.6552
▁ㄐㄧㄤˋ2쎯ㄉㄧㄠˋ2쎯	-10.6553
▁ㄏㄨㄣˊ0쎯	-10.6554
▁ㄊㄤ0쎯ㄔˊ5쎯	-10.6555
▁ㄖㄨㄟˋ0쎯	-10.6555
▁ㄙ0쎯ㄇㄚˇ0쎯	-10.6556
ㄈㄨˊ23쎯	-10.6558
▁ㄐㄧㄚ0쎯ㄙㄨˋ3쎯	-10.656
▁ㄕˋ20쎯ㄈㄤˋ쎯	-10.6565
▁ㄈㄚ쎯ㄙㄨㄥˋ2쎯	-10.657
ㄩˋ14쎯	-10.6577
ㄨˋ1쎯	-10.6577
▁ㄌㄧㄢˋ2쎯	-10.6578
▁ㄊㄚˋ0쎯ㄓㄢˇ2쎯	-10.658
▁ㄑㄧ3쎯	-10.658
▁ㄕ5쎯ㄏㄤˊ0쎯	-10.6586
▁ㄉㄤˋ1쎯	-10.6591
▁ㄨㄤˊ1쎯ㄔㄠˊ1쎯	-10.6591
▁ㄏㄨˊ2쎯ㄐㄧㄠ7쎯ㄈㄣˇ쎯	-10.6596
▁ㄒㄧㄤ1쎯ㄔㄨㄢˊ0쎯	-10.6597
ㄨㄢˊ2쎯	-10.6601
▁ㄐㄧㄥˋ2쎯ㄙㄞˋ쎯	-10.6604
ㄓㄤˋ0쎯	-10.6604
▁ㄐㄧㄥ8쎯ㄒㄧˋ1쎯	-10.6607
▁ㄅㄠˋ4쎯	-10.6608
▁≤	-10.6609
ㄘ0쎯	-10.661
▁ㄏㄨ0쎯	-10.661
▁ㄨㄟ0쎯ㄏㄞˋ2쎯	-10.661
ㄧㄢˊ11쎯	-10.6613
▁ㄐㄧㄝ4쎯ㄉㄞ1쎯	-10.6613
▁ㄉㄚˋ쎯ㄐㄧㄤˇ1쎯	-10.6616
▁ㄌㄧˋ1쎯ㄐㄧㄥ2쎯	-10.6619
▁ㄔㄣˊ1쎯	-10.6622
▁ㄔㄤˋ0쎯ㄒㄧㄠ6쎯	-10.6623
▁ㄈㄨˋ7쎯ㄓˋ3쎯	-10.6626
▁ㄘㄠˇ쎯ㄩㄢˊ4쎯	-10.6628
▁ㄌㄨˇ2쎯ㄒㄩㄣˋ3쎯	-10.6631
▁ㄧㄝˋ3쎯ㄧㄚ1쎯	-10.6632
ㄏㄨㄣˊ1쎯	-10.6632
ㄧㄢ4쎯	-10.6633
ㄐㄩˋ4쎯ㄊㄨㄢˊ0쎯	-10.6633
▁ㄍㄨㄥ0쎯ㄧㄝˋ0쎯ㄩㄢˊ1쎯	-10.6633
ㄍㄨㄥ0쎯ㄒㄩㄝˊ1쎯ㄩㄢˋ2쎯	-10.6639
ㄅㄨˋ5쎯	-10.6641
▁ㄒㄧㄣ5쎯ㄏㄨㄚˊ1쎯	-10.6645
▁ㄇㄟˇ1쎯ㄍㄨㄢ1쎯	-10.6653
▁ㄐㄧㄣ1쎯	-10.6654
▁ㄧㄢˊ5쎯ㄏㄞˇ0쎯	-10.6656
ㄖㄣˊ0쎯ㄇㄧㄣˊ0쎯ㄉㄞˋ0쎯	-10.6658
▁ㄅㄟˇ쎯ㄨㄟˇ4쎯	-10.666
ㄩㄝˋ2쎯	-10.6662
▁ㄗㄨㄟˋ0쎯ㄐㄧㄣˋ1쎯	-10.6668
▁ㄅㄠˇ2쎯ㄒㄧㄡ1쎯	-10.6669
▁ㄕˋ4쎯ㄇㄧㄣˊ0쎯	-10.6669
ㄐㄧㄢ3쎯	-10.667
▁ㄉㄧㄢˇ1쎯ㄐㄧ2쎯	-10.6673
ㄧㄠ5쎯	-10.6673
▁ㄌㄧㄥˊ10쎯ㄕㄡˋ3쎯	-10.6674
ㄤ4쎯	-10.6674
▁ㄨㄟ0쎯ㄐㄧ6쎯	-10.6676
▁ㄔㄨㄢˊ0쎯ㄉㄧˋ2쎯	-10.6677
▁ㄘㄞˊ2쎯ㄈㄨˋ11쎯	-10.6679
▁ㄍㄥ0쎯ㄨㄟˊ0쎯	-10.6683
▁ㄆㄟˋ2쎯ㄧㄡˇ1쎯	-10.6683
▁ㄌㄧㄡˋ0쎯ㄕˊ0쎯	-10.6683
▁ㄓㄨ4쎯ㄖㄡˋ쎯	-10.6687
▁ㄈㄤˊ0쎯ㄏㄨˋ2쎯	-10.6693
ㄕㄨ3쎯	-10.6693
▁ㄕˋ19쎯ㄕˋ3쎯	-10.6694
▁ㄗㄨㄥˇ0쎯ㄍㄨㄥ2쎯ㄙ0쎯	-10.6694
ㄨㄤˋ1쎯	-10.6696
▁ㄏㄨㄚ0쎯ㄐㄧ13쎯	-10.6701
ㄓㄤˋ4쎯	-10.6702
▁ㄈㄤˊ0쎯ㄩˋ11쎯	-10.6702
▁ㄌㄨㄣˊ2쎯ㄕㄨˋ2쎯	-10.6705
▁ㄍㄢ1쎯ㄘㄠˇ쎯	-10.6706
▁ㄍㄤˇ쎯ㄎㄡˇ쎯	-10.6708
▁ㄉㄚˋ쎯ㄏㄨㄛˇ0쎯	-10.6716
▁ㄙˋ1쎯ㄓㄡ2쎯	-10.6716
▁ㄓㄨ3쎯ㄉㄨㄛ0쎯	-10.6719
ㄇㄣˊ1쎯	-10.6721
ㄅㄠˋ8쎯	-10.6722
▁쎉쎁	-10.6725
▁쎃쎆쎀	-10.6729
▁ㄏㄨㄚˋ0쎯ㄉㄢˋ0쎯	-10.6729
ㄉㄧㄢˋ0쎯ㄧㄥˇ1쎯	-10.6737
▁ㄖㄨㄥˊ4쎯ㄋㄚˋ1쎯	-10.6737
▁ㄈㄨˋ3쎯	-10.6738
▁ㄨㄣˊ0쎯ㄌㄧㄢˊ4쎯	-10.6738
▁ㄒㄧㄤ1쎯ㄒㄧㄣˋ0쎯	-10.674
ㄇㄧㄢˇ0쎯	-10.6745
▁ㄐㄧˊ4쎯ㄐㄧㄤ1쎯	-10.6745
▁ㄑㄧㄢˊ0쎯ㄨㄤˇ2쎯	-10.6748
▁ㄒㄧㄤ1쎯ㄅㄧˇ1쎯	-10.6753
▁ㄒㄧˋ1쎯ㄐㄩㄣ4쎯	-10.6754
▁ㄎㄨㄥˇ1쎯ㄅㄨˋ3쎯	-10.6758
▁ㄖㄣˋ1쎯	-10.6758
▁ㄨㄣ0쎯ㄒㄧㄣ7쎯	-10.6758
▁ㄑㄧˇ4쎯ㄧˋ1쎯	-10.6759
▁ㄕ1쎯ㄅㄞˋ0쎯	-10.6759
ㄈㄢˇ0쎯	-10.6759
▁ㄉㄚˋ쎯ㄉㄨㄛ0쎯	-10.676
ㄌㄠˊ1쎯	-10.676
▁쎇쎉	-10.6761
▁ㄊㄞˋ0쎯ㄗˇ0쎯	-10.6763
▁ㄓㄨˋ1쎯ㄈㄤˊ3쎯	-10.6764
▁ㄅㄟˇ쎯ㄇㄟˇ1쎯	-10.6765
ㄕㄨˇ5쎯ㄇㄧㄣˊ0쎯ㄗㄨˊ1쎯	-10.6765
▁ㄒㄧㄚˋ0쎯ㄇㄧㄢˋ0쎯	-10.6765
▁ㄊㄨㄢˊ0쎯ㄨㄟˇ5쎯	-10.6766
▁ㄒㄧㄢˇ1쎯	-10.6768
▁ㄉㄧˋ0쎯ㄗˇ0쎯	-10.6768
▁ㄒㄩˋ2쎯	-10.6769
ㄒㄧㄢˋ8쎯	-10.6772
ㄐㄩˊ1쎯	-10.6775
ㄔㄨㄤ2쎯	-10.6777
▁ㄑㄧㄣˊ2쎯	-10.6781
▁ン	-10.6785
▁ㄕㄠˋ1쎯ㄒㄧㄥ0쎯	-10.6788
▁ㄌㄨˋ5쎯ㄒㄧㄢˋ3쎯	-10.679
▁ㄩㄥˋ0쎯ㄧˇ2쎯	-10.6793
▁ㄗㄣˇ쎯ㄧㄤˋ0쎯	-10.6794
▁ㄍㄜ2쎯	-10.6795
▁ㄍㄜˇ1쎯ㄈㄟˊ0쎯	-10.6799
ㄧˋ31쎯	-10.6801
ㄅㄧㄠ0쎯ㄓㄨㄣˇ0쎯	-10.6804
▁ㄗㄨㄛ0쎯ㄨˋ3쎯	-10.6809
ㄋㄚˊ0쎯	-10.6809
▁ㄐㄧ6쎯ㄒㄧㄤ5쎯	-10.6811
▁ㄒㄩㄢˇ0쎯ㄩㄥˋ0쎯	-10.6818
▁ㄑㄧㄡˊ2쎯ㄩㄢˊ2쎯	-10.682
▁ㄔㄨ0쎯ㄧㄢˇ3쎯	-10.6821
▁ㄒㄧㄥˇ0쎯	-10.6823
▁ㄩㄥˇ0쎯ㄩㄢˇ쎯	-10.6823
▁ㄒㄧˋ0쎯ㄑㄩ0쎯	-10.6828
ㄑㄩㄥˊ0쎯	-10.6831
ㄉㄞˋ5쎯	-10.6833
▁ㄓㄨㄥ0쎯ㄩㄢˊ4쎯	-10.6837
▁ㄕㄤ1쎯ㄔㄤˊ1쎯	-10.6837
ㄏㄨㄥˊ1쎯ㄐㄩㄣ0쎯	-10.6841
▁ㄓㄨˋ6쎯	-10.6841
▁ㄐㄧㄠ7쎯	-10.6843
ㄇㄞˋ2쎯	-10.6844
▁ㄐㄧˋ0쎯ㄌㄧㄤˊ3쎯	-10.6845
ㄐㄧㄥˋ0쎯	-10.6846
▁ㄕㄠˊ0쎯	-10.6847
▁ㄕㄞ쎯	-10.6848
▁ㄓㄨˇ0쎯ㄖㄣˊ0쎯	-10.685
▁ㄐㄧㄝˋ3쎯ㄇㄧㄢˋ0쎯	-10.685
▁ㄎㄣˇ0쎯	-10.6851
▁ㄧㄢˊ1쎯ㄐㄧㄣˇ4쎯	-10.6862
▁ㄒㄩㄝ1쎯	-10.6862
▁ㄍㄢˇ1쎯	-10.6863
▁ㄒㄧㄚˋ0쎯ㄅㄨˋ4쎯	-10.6863
▁ㄏㄨㄛˊ0쎯ㄌㄧˋ0쎯	-10.6864
▁ㄊㄚˋ0쎯	-10.6865
▁ㄍㄨㄟˋ2쎯ㄌㄧㄣˊ1쎯	-10.6865
▁ㄓㄨㄛˊ2쎯	-10.6869
ㄢˇ3쎯	-10.6872
▁ㄑㄩˊ0쎯ㄉㄠˋ3쎯	-10.6873
ㄏㄣˊ쎯	-10.6881
▁ㄕㄣˊ1쎯ㄐㄧ9쎯	-10.6885
▁ㄐㄧ0쎯ㄕˊ0쎯	-10.6885
ㄌㄧㄢˋ1쎯	-10.6888
ㄉㄠˇ3쎯	-10.6889
▁ㄆㄥ1쎯	-10.6892
▁ㄐㄧㄤˋ2쎯ㄏㄨㄚˋ0쎯	-10.6893
▁ㄏㄢˋ0쎯ㄕㄨ0쎯	-10.6898
▁ㄓㄨˇ0쎯ㄉㄨㄥˋ0쎯	-10.6899
ㄒㄧㄠˇ0쎯ㄑㄧˇ2쎯ㄧㄝˋ0쎯	-10.6902
▁ㄍㄠ0쎯ㄕㄢ0쎯	-10.6902
ㄆㄧㄥˊ6쎯	-10.6903
▁ㄓㄨㄥ0쎯ㄨㄞˋ쎯	-10.6904
ㄐㄩˋ4쎯ㄩㄢˋ2쎯	-10.6909
ㄗㄜˊ1쎯	-10.6909
▁ㄌㄥˇ쎯ㄑㄩㄝˋ0쎯	-10.691
ㄡ5쎯	-10.6917
ㄨㄟˋ13쎯	-10.6919
▁ㄋㄢˊ1쎯ㄧˇ2쎯	-10.6922
▁ㄍㄨˋ0쎯ㄊㄧ0쎯	-10.6922
▁[	-10.6926
ㄐㄧㄡ1쎯	-10.6926
ㄅㄢˋ3쎯	-10.6926
ㄧㄣ3쎯	-10.693
ㄢ6쎯	-10.693
▁ㄏㄨㄢ0쎯	-10.693
▁ㄐㄧˇ1쎯ㄐㄧㄢˇ5쎯	-10.6936
▁ㄅㄨˇ0쎯ㄔㄨㄥ1쎯	-10.6937
▁ㄉㄧˋ3쎯ㄌㄧㄡˋ0쎯	-10.6941
▁ㄒㄧㄢ3쎯ㄇㄧㄥˊ1쎯	-10.6942
·	-10.6943
ㄧㄢˋ11쎯	-10.6944
▁ㄒㄧˇ2쎯ㄐㄩˋ4쎯	-10.6947
▁ㄊㄞ0쎯ㄅㄟˇ쎯	-10.6948
ㄖㄨㄥˊ3쎯	-10.6948
▁ㄍㄨㄛˊ0쎯ㄏㄨㄚˋ1쎯	-10.6952
ㄨˋ8쎯	-10.6955
▁ㄍㄨㄤ0쎯ㄆㄢˊ1쎯	-10.6961
▁ㄅㄧㄢˋ1쎯ㄩˊ0쎯	-10.6961
▁ㄌㄤˊ1쎯	-10.6963
▁ㄉㄥ1쎯ㄔㄤˊ1쎯	-10.6968
▁ㄓㄠ0쎯ㄕㄥ1쎯	-10.6969
▁ㄎㄜ2쎯ㄒㄩㄝˊ1쎯ㄩㄢˋ2쎯	-10.6971
ㄒㄧㄠ1	-10.6971
▁ㄔㄨㄥ0쎯ㄐㄧ2쎯	-10.6971
▁ㄨˋ3쎯ㄊㄧ0쎯	-10.6974
▁ㄏㄜ1쎯	-10.6976
ㄨㄟˊ3쎯	-10.6977
▁ㄊㄨˊ3쎯ㄌㄧㄠˋ0쎯	-10.6979
ㄕㄡˋ2쎯	-10.6982
▁ㄓㄥˋ3쎯ㄓˋ5쎯ㄅㄨˋ4쎯	-10.6982
ㄨㄟ5쎯	-10.6983
▁쎁쎉쎀쎀	-10.6984
ㄗㄢˋ1쎯	-10.6985
ㄕㄨ2쎯ㄋㄧㄡˇ1쎯	-10.6988
▁ㄓˋ5쎯ㄌㄧˇ3쎯	-10.699
▁ㄕㄡˇ0쎯ㄍㄨㄥ0쎯	-10.6997
ㄎㄨㄟˊ2쎯	-10.6999
▁ㄐㄧㄢ7쎯ㄍㄨㄢˇ1쎯	-10.6999
▁ㄈㄢˋ0쎯	-10.6999
▁ㄈㄨˇ7쎯ㄕˊ5쎯	-10.7
▁ㄧㄢ2쎯ㄊㄞ0쎯	-10.7001
▁ㄕㄤˇ0쎯ㄧㄥˋ0쎯	-10.7002
▁ㄩㄢˋ2쎯ㄕˋ0쎯	-10.7002
ㄅㄠˇ2쎯ㄏㄨˋ2쎯ㄡ0쎯	-10.7005
ㄐㄧㄤ2쎯	-10.7009
ㄧㄠˊ4쎯	-10.701
▁ㄗㄠˇ0쎯ㄋㄧㄢˊ0쎯	-10.7013
▁ㄕㄣ5쎯ㄏㄡˋ1쎯	-10.7013
▁ㄇㄨˋ10쎯	-10.7014
ㄇㄨˋ10쎯	-10.7019
▁ㄉㄧㄠˋ2쎯ㄖㄨˋ0쎯	-10.7022
▁ㄌㄨㄛˊ6쎯ㄒㄩㄢˊ2쎯	-10.7022
▁ㄒㄧ20쎯	-10.7023
▁ㄓˇ4쎯ㄕˋ2쎯	-10.7025
▁ㄏㄨㄛˊ0쎯ㄩㄝˋ4쎯	-10.7026
▁ㄑㄩㄢˊ1쎯ㄕㄣ2쎯	-10.7028
▁ㄆㄨˊ2쎯	-10.7031
ㄉㄨˇ0쎯	-10.7033
▁ㄐㄧㄤˇ3쎯	-10.7038
▁ㄎㄨㄢ0쎯ㄉㄞˋ1쎯	-10.7038
ㄨㄟˊ7쎯	-10.7039
▁ㄔㄨˇ0쎯ㄐㄧˊ2쎯	-10.7039
▁ㄧˊ9쎯ㄋㄢˊ1쎯	-10.7039
▁ㄍㄨㄢ1쎯ㄋㄧㄢˋ0쎯	-10.7042
▁ㄔㄜˋ1쎯	-10.7042
▁ㄌㄨˇ0쎯	-10.7042
▁ㄔㄣˊ3쎯ㄐㄧ11쎯	-10.7048
▁ㄧㄣ4쎯ㄒㄧㄤ5쎯	-10.7052
ㄗㄨㄟˇ쎯	-10.7053
▁쎁쎉쎂쎈	-10.7056
▁ㄅㄧㄢ1쎯ㄓㄨˋ7쎯	-10.7056
▁ㄆㄧˇ0쎯	-10.7057
▁ㄧㄠ6쎯ㄑㄧㄥˇ1쎯	-10.7057
▁ㄕ2쎯ㄘㄨㄥˊ0쎯	-10.7058
▁ㄏㄨㄣ2쎯ㄧㄣ5쎯	-10.7061
▁ㄓㄡ0쎯	-10.7062
▁ㄏㄨㄚˊ1쎯ㄅㄟˇ쎯	-10.7065
ㄐㄧㄠ8쎯	-10.7069
▁ㄖㄣˋ1쎯ㄉㄧㄥˋ1쎯	-10.7072
▁ㄐㄧㄥ5쎯ㄊㄧ0쎯	-10.7073
▁ㄇㄧㄠˊ1쎯ㄏㄨㄟˋ5쎯	-10.7075
▁ㄅㄞˇ2쎯	-10.7081
ㄅㄧˋ11쎯	-10.7083
▁ㄔㄜ0쎯ㄐㄧㄢ4쎯	-10.7086
ㄕㄜˊ2쎯	-10.7086
▁쎁쎉쎂쎇	-10.709
▁ㄋㄞˇ0쎯ㄓˋ0쎯	-10.7095
▁ㄉㄞ1쎯ㄐㄧ6쎯	-10.7096
ㄈㄢ0쎯	-10.7103
▁ㄑㄧㄥ5쎯ㄒㄧˇ0쎯	-10.7104
▁ㄧ3쎯ㄒㄩㄝˊ1쎯ㄩㄢˋ2쎯	-10.7106
▁ㄌㄧㄣˊ5쎯	-10.7108
▁ㄓㄨˇ0쎯ㄖㄣˊ0쎯ㄍㄨㄥ2쎯	-10.711
ㄓㄣˇ2쎯	-10.7113
▁ㄈㄚˇ0쎯ㄓˋ3쎯	-10.7118
▁ㄔㄚ0쎯	-10.712
▁ㄓㄢˇ0쎯	-10.712
▁ㄐㄧㄢˋ0쎯ㄩˊ0쎯	-10.7122
ㄕㄨㄛˋ4쎯	-10.7125
ㄎㄞˇ	-10.7125
▁ㄉㄢˋ5쎯ㄒㄧㄥˋ2쎯	-10.7126
▁ㄉㄚˋ쎯ㄈㄨ0쎯	-10.7128
▁ㄉㄚˋ쎯ㄌㄧˇ3쎯	-10.7131
▁ㄑㄩㄢˇ0쎯	-10.7133
▁ㄆㄟˊ1쎯ㄩˋ3쎯	-10.7139
▁ㄉㄨㄣˋ1쎯	-10.7141
▁ㄓˋ3쎯ㄧㄠˋ0쎯	-10.7144
ㄗㄠˇ1쎯	-10.7146
▁ㄍㄨㄢˋ0쎯ㄔㄨㄢ1쎯	-10.7146
▁ㄎㄜ8쎯	-10.7148
▁ㄉㄨㄛ0쎯ㄘㄥˊ0쎯	-10.7149
ㄎㄢˇ0쎯	-10.715
▁μ	-10.7152
▁ㄊㄨㄣˊ0쎯	-10.7152
▁ㄖㄨˋ0쎯ㄨˇ2쎯	-10.7152
▁ㄈㄟˋ3쎯	-10.7159
▁ㄔㄨ0쎯ㄆㄧㄣˇ쎯	-10.7161
▁ㄓˊ3쎯ㄉㄜˊ0쎯	-10.7163
ㄧㄤˇ3쎯	-10.7164
▁ㄧ0쎯ㄊㄧㄢ0쎯	-10.7176
▁ㄇㄚˇ2쎯ㄊㄡˊ0쎯	-10.7178
▁ㄏㄨㄟˇ1쎯	-10.718
▁쎁쎁쎅	-10.718
▁ㄅㄠ8쎯	-10.718
ㄧˋ23쎯	-10.7183
▁ㄑㄧㄥˊ0쎯ㄅㄠˋ0쎯	-10.719
ㄍㄨㄟˋ0쎯	-10.719
▁ㄉㄠˇ0쎯ㄉㄢˋ5쎯	-10.7194
ㄈㄣ3쎯	-10.7196
ㄌㄢˊ5쎯	-10.7198
ㄆㄤˊ1쎯	-10.7199
ㄍㄜˋ0쎯	-10.7201
ㄇㄟˊ7쎯	-10.7204
ㄋㄞˇ1쎯	-10.7206
▁ㄧㄡˊ5쎯ㄎㄜˋ2쎯	-10.7208
▁ㄕㄨㄟˋ1쎯ㄨˋ2쎯	-10.7209
▁の	-10.7212
ㄏㄨㄛˋ4쎯	-10.7219
ㄨㄟˋ5쎯	-10.7219
▁ㄒㄧㄠ2쎯ㄒㄧ7쎯	-10.7223
▁ㄌㄚˋ3쎯	-10.7224
▁ㄊㄨㄥˊ0쎯ㄇㄧㄥˊ0쎯	-10.7229
▁ㄉㄚˋ쎯ㄇㄣˊ0쎯	-10.7231
▁ㄕㄤˋ0쎯ㄨㄟˋ1쎯	-10.7234
▁ㄕˋ8쎯ㄐㄧˋ9쎯	-10.7236
▁쎃ㄇㄛˋ0쎯	-10.7236
▁ㄅㄠ0쎯ㄍㄨㄛˇ1쎯	-10.7243
ㄉㄢˋ3쎯	-10.7245
ㄇㄛˊ3쎯ㄈㄢˋ3쎯	-10.7254
▁쎁쎂쎅	-10.7254
ㄔㄜˇ0쎯	-10.7255
▁ㄩㄣˇ0쎯ㄒㄩˇ0쎯	-10.7256
ㄙㄥ쎯	-10.7258
▁쎇쎁	-10.726
▁ㄇㄧˋ1쎯ㄑㄧㄝ쎯	-10.726
▁ㄅㄧㄣ0쎯	-10.7262
▁ㄍㄨㄢ1쎯ㄍㄨㄤ0쎯	-10.7263
▁ㄐㄧㄠ2쎯	-10.7263
▁ㄅㄞˊ0쎯ㄩㄣˊ0쎯	-10.7263
▁ㄓㄣˋ3쎯ㄔㄤˊ0쎯	-10.7266
▁ㄏㄡˋ1쎯ㄉㄨˋ2쎯	-10.7269
▁ㄐㄧㄥ2쎯ㄐㄧˇ3쎯ㄕ2쎯	-10.7272
▁ㄖㄜˋ쎯ㄞˋ1쎯	-10.7277
ㄗㄨㄛˋ2쎯	-10.728
▁쎉쎀쎀쎁	-10.7285
▁ㄓ1쎯ㄔㄥ1쎯	-10.7286
▁ㄓ4쎯ㄇㄚˊ1쎯	-10.7286
▁ㄕㄠˇ쎯ㄐㄧㄤ1쎯	-10.7286
▁ㄅㄟˇ쎯ㄙㄨㄥˋ1쎯	-10.7288
ㄐㄧㄝˊ7쎯	-10.729
▁ㄇㄛˊ0쎯ㄕㄨˇ5쎯	-10.729
▁ㄙㄤ0쎯	-10.7295
ㄒㄩㄣˊ1쎯	-10.7295
▁ㄖㄜˋ쎯ㄕㄨㄟˇ쎯	-10.73
▁ㄕㄨㄚ0쎯	-10.73
ㄍㄥˇ3쎯	-10.7301
ㄎㄨㄣ0쎯	-10.7304
▁ㄔㄥˊ0쎯ㄩˇ6쎯	-10.7309
ㄗㄞˇ2쎯	-10.731
ㄇㄥˋ0쎯	-10.7311
ㄉㄥˇ0쎯ㄐㄧㄠ6쎯ㄩˋ3쎯	-10.732
ㄩˊ8쎯	-10.7321
ㄕㄨ8쎯	-10.7321
▁ㄎㄜˇ0쎯ㄕˋ15쎯	-10.7324
ㄆㄧㄥˊ5쎯	-10.7326
▁ㄇㄥˇ0쎯	-10.7328
▁ㄍㄜˇ1쎯ㄈㄚˇ0쎯	-10.7329
▁ㄇㄠˊ0쎯ㄗㄜˊ3쎯ㄉㄨㄥ0쎯	-10.7332
▁ㄌㄧㄤˋ2쎯	-10.7335
▁ㄉㄞˋ0쎯ㄊㄧˋ4쎯	-10.7336
ㄌㄢˋ0쎯	-10.7341
▁ㄑㄧㄥ5쎯ㄐㄧㄝˊ2쎯	-10.7344
ㄇㄧㄝˋ0쎯	-10.7349
▁ㄑㄩˋ0쎯ㄆㄧˊ0쎯	-10.7349
▁ㄕㄢˋ1쎯	-10.7351
▁ㄉㄨㄥ0쎯ㄐㄧㄥ2쎯	-10.7352
ㄏㄨㄢˇ0쎯	-10.7355
▁ㄏㄞˇ0쎯ㄋㄚ1쎯ㄕㄥˇ0쎯	-10.7355
▁ㄏㄨㄢˊ0쎯ㄖㄠˋ쎯	-10.7357
▁ㄔㄚˊ1쎯ㄔˊ5쎯	-10.7358
▁ㄓㄨˇ0쎯ㄐㄧ6쎯	-10.7361
ㄓㄨㄛˊ2쎯	-10.7363
ㄏㄜˋ1쎯	-10.7364
▁ㄇㄚ0쎯ㄇㄚ0쎯	-10.7367
▁ㄎㄥ0쎯	-10.7369
ㄅㄧㄥˇ2쎯	-10.7371
▁ㄕˋ8쎯ㄕˊ3쎯	-10.7372
▁ㄐㄧˊ9쎯	-10.7372
▁ㄢˋ2쎯	-10.7378
▁ㄒㄧ1쎯ㄘㄜˋ2쎯	-10.7379
▁ㄋㄟˋ쎯ㄏㄢˊ3쎯	-10.7385
ㄕㄥ1쎯ㄨˋ3쎯	-10.7391
▁ㄕㄜˋ0쎯ㄉㄧㄥˋ1쎯	-10.7392
▁ㄕㄤˇ0쎯ㄕㄥ0쎯	-10.7394
▁ㄇㄧㄣˊ0쎯ㄙㄨˊ쎯	-10.7397
ㄧㄥ4쎯	-10.7399
▁ㄋㄨㄛˋ0쎯	-10.74
▁ㄐㄧˋ3쎯ㄕㄨˇ5쎯	-10.74
▁ㄧˇ2쎯ㄨㄞˋ쎯	-10.7401
ㄕˋ16쎯	-10.7401
▁ㄉㄠˇ1쎯ㄩˇ1쎯	-10.7404
▁ㄘˇ0쎯ㄏㄡˋ0쎯	-10.7405
▁ㄉㄨㄥˇ0쎯ㄕˋ8쎯	-10.7411
▁쎆ㄇㄛˋ0쎯	-10.7417
▁ㄅㄢ5쎯	-10.742
▁ㄖㄜˋ쎯ㄑㄧㄥˊ0쎯	-10.7423
▁̇ㄉㄜ0쎯ㄩˋ7쎯	-10.7426
▁ㄔㄤˋ1쎯ㄉㄠˇ0쎯	-10.7434
ㄉㄨㄥ0쎯ㄌㄨˋ5쎯	-10.7435
▁ㄎㄡˇ쎯ㄍㄢˇ3쎯	-10.7436
▁ㄍㄨㄥ1쎯	-10.7437
▁ㄍㄠ0쎯ㄎㄠˇ0쎯	-10.7443
▁ㄎㄜ2쎯ㄆㄨˇ2쎯	-10.7443
▁ㄉㄨㄟˋ1쎯ㄔㄣˋ1쎯	-10.7444
▁ㄉㄧㄝˊ4쎯	-10.7453
▁ㄇㄛˋ0쎯ㄌㄧˋ1쎯	-10.7455
▁ㄈㄣ0쎯ㄐㄧㄝˇ1쎯	-10.7456
▁ㄋㄚ1쎯ㄙㄨㄥˋ1쎯	-10.7463
i	-10.7464
▁ㄊㄧㄠ0쎯	-10.7465
쎇쎀쎀	-10.7465
4	-10.7465
ㄧㄥˊ6쎯	-10.7466
▁ㄒㄧㄠ2쎯ㄔㄨˊ0쎯	-10.7472
▁ㄑㄧㄢ3쎯	-10.7472
ㄗㄤˋ0쎯	-10.7474
▁ㄔㄨㄢˊ0쎯ㄔㄥˊ3쎯	-10.7475
ㄕㄨㄤˇ쎯	-10.7477
▁ㄅㄚˋ4쎯	-10.7483
ㄑㄧˊ2	-10.7489
ㄇㄟˊ0쎯	-10.7489
▁ㄌㄧㄝˋ0쎯ㄖㄨˋ0쎯	-10.749
▁ㄙ3쎯ㄌㄨˋ5쎯	-10.7491
ㄔㄡˊ5쎯	-10.7494
▁ㄅㄧˋ2쎯ㄧㄝˋ0쎯ㄕㄥ1쎯	-10.7495
ㄈㄢ4쎯	-10.7503
▁ㄉㄚˋ쎯ㄩˊ0쎯	-10.7504
▁ㄑㄧˋ0쎯ㄒㄧ7쎯	-10.7516
▁ㄧˋ18쎯ㄨㄞˋ쎯	-10.7516
ㄋㄨˊ0쎯	-10.7523
ㄧㄠˇ2쎯	-10.7527
▁ㄒㄧㄠ2쎯ㄕ1쎯	-10.7532
ㄅㄠ6쎯	-10.7534
▁ㄗㄨㄥ1쎯ㄙㄜˋ0쎯	-10.7536
▁ㄅㄛ4쎯ㄔㄨ0쎯	-10.7537
▁ㄑㄩㄢˊ1쎯ㄔㄣˋ1쎯	-10.7542
▁ㄒㄧㄣ5쎯ㄔㄥˊ4쎯	-10.7542
ㄈㄢ1쎯	-10.7544
ㄕㄠ1쎯	-10.7545
ㄩˊ12쎯	-10.7545
▁ㄒㄧㄢˋ1쎯ㄘㄨㄣˊ쎯	-10.755
▁ㄍㄨㄥ5쎯ㄧㄥ0쎯ㄕㄤ1쎯	-10.7553
ㄒㄧㄤ3쎯	-10.7558
ㄕㄣ5쎯ㄓㄣˋ4쎯ㄕˋ4쎯	-10.7558
▁ㄋㄚˋ1쎯ㄇㄧˇ0쎯	-10.7559
▁ㄍㄨㄢ2쎯ㄩㄢˊ2쎯	-10.7562
▁ㄩㄢˊ4쎯ㄧㄡˇ1쎯	-10.7567
ㄨㄣˇ0쎯	-10.7577
▁ㄗㄨㄥ1쎯	-10.7577
ㄎㄨㄤˋ3쎯	-10.7579
▁ㄋㄚ0쎯ㄍㄜˇ0쎯	-10.7581
▁ㄊㄧㄥˊ1쎯	-10.7583
▁ㄌㄧㄢˊ4쎯ㄅㄤ0쎯	-10.7588
ㄆㄨ0쎯	-10.7595
▁ㄌㄧˋ1쎯ㄔㄥˊ7쎯	-10.7596
ㄐㄧㄚˇ	-10.7598
▁ㄐㄧㄥ8쎯ㄓˋ7쎯	-10.7603
▁ㄕㄨㄟˋ2쎯	-10.7606
▁ㄅㄤˇ1쎯	-10.7606
▁ㄌㄜˋ0쎯ㄑㄧˋ7쎯	-10.7609
▁ㄕㄨˋ4쎯	-10.7609
▁ㄊㄚ0쎯ㄖㄣˊ0쎯	-10.7609
▁ㄒㄧㄝˊ0쎯ㄅㄧㄥˇ2쎯	-10.7612
▁ㄍㄨㄥˋ1쎯	-10.7614
ㄏㄨ0쎯	-10.7617
ㄎㄨㄛˋ2쎯	-10.7618
▁ㄑㄧㄢ5쎯ㄧㄠ2쎯	-10.7621
ㄐㄧㄠ0쎯ㄊㄨㄥ0쎯	-10.7624
▁ㄐㄧㄤˇ0쎯ㄐㄧㄝˇ1쎯	-10.7626
▁ㄕㄨㄣˋ0쎯ㄌㄧˋ6쎯	-10.7632
ㄑㄧㄥˊ1쎯	-10.7633
▁ㄕˊ3쎯ㄐㄧˋ5쎯ㄕㄤˇ0쎯	-10.7636
▁ㄕˋ23쎯	-10.7638
ㄖㄢˇ1쎯	-10.7641
▁ㄎㄨㄤˋ2쎯ㄔㄢˇ0쎯	-10.7643
ㄩˋ23쎯	-10.7643
ㄗㄜˊ2쎯	-10.7644
ㄅㄟ1쎯	-10.7645
▁ㄘㄞˊ2쎯ㄔㄢˇ0쎯	-10.7645
ㄏㄢˊ3쎯	-10.7645
▁쎁ㄖˋ0쎯	-10.7647
ㄑㄧˊ7쎯	-10.7649
▁ㄒㄧˊ1쎯	-10.7652
ㄗˋ0쎯ㄓˋ5쎯ㄓㄡ1쎯	-10.7653
▁ㄑㄧㄢˊ3쎯	-10.7657
▁ㄙˋ4쎯ㄌㄧㄠˋ0쎯	-10.766
▁ㄐㄧㄥˇ2쎯ㄔㄚˊ3쎯	-10.766
ㄐㄧㄢˇ9쎯	-10.7663
▁ㄒㄧㄢˋ1쎯ㄓㄨㄤˋ1쎯	-10.7667
▁ㄉㄚˋ쎯ㄉㄨㄛ0쎯ㄕㄨˇ5쎯	-10.7675
▁ㄓˇ1쎯ㄗㄞˋ1쎯	-10.7675
▁ㄗㄨㄟˋ2쎯	-10.7675
▁ㄑㄧˋ7쎯ㄘㄞˊ1쎯	-10.7678
▁ㄏㄡˊ1쎯	-10.768
ㄌㄧˊ4쎯	-10.768
ㄒㄧㄤ4쎯	-10.7684
▁ㄕㄨㄟˋ1쎯ㄕㄡ쎯	-10.7684
▁ㄖㄨㄣˋ1쎯ㄏㄨㄚˊ3쎯	-10.7685
▁ㄌㄢˋ0쎯	-10.7686
▁ㄎㄞ0쎯ㄔㄨㄤ0쎯	-10.7688
▁ㄇㄧㄥˊ1쎯ㄔㄠˊ1쎯	-10.7688
ㄢ5쎯	-10.769
▁ㄉㄤ0쎯ㄐㄧㄣ2쎯	-10.7691
ㄔㄨㄢ0쎯ㄒㄧㄢˋ0쎯	-10.7691
▁ㄓ0쎯ㄒㄧㄚˋ0쎯	-10.7693
▁ㄓㄨㄢˇ쎯ㄅㄧㄢˋ0쎯	-10.7696
▁ㄙㄨˋ8쎯ㄒㄧㄝˇ0쎯	-10.7702
ㄑㄧˋ3쎯ㄔㄜ0쎯	-10.7704
▁ㄆㄞˊ0쎯ㄕㄨㄟˇ쎯	-10.7705
ㄧㄢˋ9쎯	-10.7705
▁ㄧㄤˇ0쎯	-10.7709
▁ㄋㄨㄥˊ1쎯ㄉㄨˋ2쎯	-10.7709
▁ㄉㄚˋ쎯ㄔㄣˊ0쎯	-10.771
▁ㄗㄨㄛˋ2쎯ㄉㄠˋ0쎯	-10.7714
▁ㄙㄨˋ2쎯ㄧㄡˇ1쎯	-10.7717
▁ㄐㄧ7쎯ㄖㄡˋ쎯	-10.7718
ㄓㄠˋ4쎯	-10.7721
ㄒㄧㄠˋ3쎯ㄧˋ15쎯	-10.7724
▁〈	-10.7725
▁ㄔㄤˇ0쎯ㄔㄤˊ0쎯	-10.7725
ㄔㄨㄥˇ쎯	-10.7729
▁馀	-10.7729
▁ㄔㄡˋ쎯	-10.7731
▁ㄔㄨˋ0쎯ㄇㄨˋ3쎯	-10.7732
ㄈㄚˊ0쎯	-10.7733
ㄊㄨˊ3쎯	-10.7736
ㄋㄚ1쎯ㄌㄨˋ5쎯	-10.7738
▁ㄇㄧˊ2쎯	-10.7741
▁ㄖㄨㄟˋ1쎯ㄕˋ0쎯	-10.7742
▁ㄑㄧㄠˋ5쎯	-10.7744
▁ㄧㄤˊ4쎯ㄘㄨㄥ2쎯	-10.7746
▁〉	-10.7748
▁ㄑㄧㄢˊ5쎯	-10.7748
▁ㄕㄠˋ0쎯ㄎㄞ0쎯	-10.7751
ㄒㄩㄥˊ1쎯	-10.7758
▁ㄏㄢˋ1쎯	-10.7759
ㄐㄧㄣ6쎯	-10.7762
ㄐㄧㄝ1쎯	-10.7764
ㄧㄚˊ4쎯	-10.7765
▁쎁쎈쎄	-10.7765
▁ㄔㄚˊ2쎯ㄒㄩㄣˊ3쎯	-10.7773
ㄔㄥˊ1	-10.7773
ㄕㄡˊ쎯	-10.7774
ㄘˊ3쎯	-10.7776
▁ㄒㄧㄢ1쎯ㄉㄨㄢ0쎯	-10.7782
▁ㄊㄨㄥˊ2쎯	-10.7783
ㄏㄨ1쎯	-10.7784
▁ㄏㄨㄢˋ0쎯	-10.7786
ㄩㄥˇ1쎯	-10.7787
▁ㄕㄣˇ1쎯ㄆㄢˋ0쎯	-10.7788
ㄏㄨˊ3쎯	-10.7788
ㄩㄣˋ1쎯ㄉㄨㄥˋ0쎯	-10.7789
ㄇㄠˊ2쎯	-10.7794
▁о	-10.7799
▁ㄎㄨㄥˇ0쎯ㄗˇ0쎯	-10.78
▁ㄈㄢˇ1쎯ㄏㄨㄟˊ0쎯	-10.78
▁ㄉㄚˋ쎯ㄉㄚˋ쎯	-10.7807
▁ㄨㄢ0쎯ㄑㄩ0쎯	-10.781
▁ㄧ0쎯ㄉㄨㄟˋ1쎯	-10.7811
ㄌㄟˇ2쎯	-10.7815
▁ㄨˋ6쎯	-10.7821
▁ㄒㄩㄥ1쎯	-10.7822
ㄋㄨㄥˊ0쎯ㄧㄝˋ0쎯	-10.7826
▁ㄐㄧㄥˋ2쎯	-10.7826
ㄐㄩㄣ1쎯	-10.7827
▁ㄈㄢˇ1쎯	-10.7827
▁ㄉㄧㄝˊ3쎯	-10.7828
▁ㄒㄧㄠˇ0쎯ㄔ0쎯	-10.7831
▁ㄉㄧㄥˋ1쎯ㄉㄧㄢˇ1쎯	-10.7831
▁ㄎㄨㄛˋ2쎯	-10.7832
▁ㄕㄤˇ0쎯ㄧㄡˊ5쎯	-10.7833
▁ㄓㄨˇ0쎯ㄌㄧㄡˊ3쎯	-10.7834
▁ㄌㄧㄠˊ1쎯ㄒㄧㄠˋ3쎯	-10.7834
ㄍㄢ3쎯	-10.7836
▁ㄖㄨㄥˊ4쎯ㄑㄧˋ7쎯	-10.7838
ㄗㄥˋ0쎯	-10.7839
ㄕㄨ0쎯ㄩㄢˋ2쎯	-10.7839
▁ㄊㄧˋ4쎯	-10.784
ㄨˇ3쎯ㄉㄧˋ1쎯	-10.7844
ㄒㄧㄢˋ5쎯	-10.7846
ㄌㄞˊ0쎯ㄒㄧ1쎯ㄧㄚˋ1쎯	-10.7848
▁ㄓㄨㄥ0쎯ㄒㄧ1쎯	-10.7853
ㄕㄤˇ2쎯	-10.7856
▁ㄓˋ3쎯ㄌㄥˇ쎯	-10.7857
▁ㄌㄧㄥˋ0쎯ㄧㄡˇ1쎯	-10.7859
ˇ10쎯	-10.7862
▁ㄉㄚˋ쎯ㄌㄡˊ1쎯	-10.7864
▁ㄖㄨㄥˊ6쎯ㄧㄝˋ3쎯	-10.7865
ㄧㄠˊ6쎯	-10.7869
ㄐㄧㄝˇ0쎯	-10.787
▁ㄉㄧㄥˇ0쎯ㄐㄧˊ2쎯	-10.7871
▁ㄑㄩ0쎯ㄒㄧㄢˋ3쎯	-10.7872
▁ㄊㄡˊ0쎯ㄅㄨˋ4쎯	-10.7873
ㄏㄨㄚˋ0쎯ㄓㄨㄤ0쎯ㄆㄧㄣˇ쎯	-10.7876
▁ㄍㄨㄢ0쎯ㄒㄧㄣ0쎯	-10.7888
▁ㄌㄧˋ9쎯	-10.7888
▁ㄞ1쎯	-10.79
ㄐㄧㄣ0쎯	-10.79
ㄈㄨˊ3쎯	-10.7914
▁ㄐㄧˋ27쎯	-10.7916
▁ㄏㄨㄛˋ0쎯ㄕˋ15쎯	-10.7917
ㄗㄨㄥ2쎯	-10.7918
▁ㄏㄨㄢˊ0쎯ㄐㄧㄝ0쎯	-10.792
▁ㄈㄢ1쎯ㄐㄧㄚ1쎯	-10.792
ㄔㄣˊ3쎯	-10.792
ㄏㄨㄢˋ0쎯	-10.7922
▁ㄐㄧ6쎯ㄕㄣ2쎯	-10.7924
▁ㄉㄧㄢˇ0쎯ㄧㄚˇ쎯	-10.7925
▁ㄆㄨˊ0쎯ㄙㄚˋ0쎯	-10.7926
▁ㄔㄤˋ0쎯	-10.7928
▁ㄆㄟˋ1쎯	-10.793
▁ㄍㄨㄛˊ0쎯ㄌㄧˋ3쎯	-10.7933
▁ㄧㄠ4쎯ㄙㄨˋ2쎯	-10.7935
▁ㄊㄨˇ0쎯ㄉㄡˋ0쎯	-10.7937
ㄜˋ12쎯	-10.7937
▁ㄌㄧㄠˊ1쎯ㄈㄚˇ0쎯	-10.7942
▁ㄕㄠ1쎯ㄖㄜˋ쎯	-10.7943
ㄑㄩㄢˊ1쎯ㄕˋ3쎯ㄐㄧㄝˋ3쎯	-10.7943
▁ㄨㄟˋ1쎯ㄓ7쎯	-10.7944
▁ㄏㄨㄚ0쎯ㄅㄢˋ6쎯	-10.7948
ㄐㄧㄡˋ4쎯	-10.7949
▁ㄨㄞˋ쎯ㄅㄨˋ4쎯	-10.7949
▁ㄊㄢˇ0쎯ㄎㄜˋ0쎯	-10.7949
▁ㄍㄨㄟˋ1쎯ㄧㄤˊ2쎯	-10.7956
ㄧㄚ6쎯	-10.7957
ㄐㄧㄢ1쎯	-10.7964
▁ㄔㄥˊ0쎯ㄒㄧㄥˊ2쎯	-10.7965
▁ㄧㄥˊ7쎯	-10.7967
▁ㄆㄢˋ0쎯ㄉㄨㄢˋ1쎯	-10.797
▁ㄉㄨㄥ0쎯ㄘㄜˋ2쎯	-10.7974
▁ㄇㄨˋ0쎯ㄘㄞˊ1쎯	-10.7974
▁ㄈㄚ쎯ㄅㄧㄥˋ0쎯	-10.7975
▁ㄖㄡˋ쎯ㄓˋ4쎯	-10.7976
ㄒㄧㄝˊ6쎯	-10.7978
▁ㄑㄧㄠˇ0쎯	-10.7981
▁ㄏㄨㄟ3쎯ㄏㄨㄤˊ4쎯	-10.7985
▁ㄐㄧㄣˋ4쎯ㄆㄠ1쎯	-10.7985
ㄉㄚˋ쎯ㄉㄞˋ0쎯ㄅㄧㄠˇ0쎯	-10.7986
ㄍㄨㄥ2쎯ㄩㄢˊ1쎯	-10.799
▁̇ㄉㄜ0쎯ㄕˋ7쎯	-10.7998
ㄌㄨㄢˇ쎯	-10.8
▁ㄑㄧㄝ쎯ㄏㄨㄢˋ2쎯	-10.8004
▁쎁쎀쎆	-10.8004
ㄇㄣ쎯	-10.8008
ㄨㄤˋ0쎯	-10.8012
▁ㄓㄨˋ3쎯ㄕㄜˋ3쎯	-10.8015
ㄜˊ6쎯	-10.8016
ㄜˋ5쎯	-10.8019
▁ㄗㄚˊ0쎯ㄐㄧㄠ0쎯	-10.8023
ㄆㄣˊ0쎯	-10.8028
▁ㄕˊ0쎯ㄐㄧㄡˇ0쎯	-10.803
▁ㄊㄥˊ1쎯	-10.8034
▁ㄐㄧㄥ8쎯ㄏㄨㄚˊ1쎯	-10.8035
▁ㄖㄨㄟˋ1쎯ㄉㄧㄢˇ0쎯	-10.8037
▁ㄠ	-10.804
▁ㄙˋ1쎯ㄐㄧˋ7쎯	-10.8046
ㄒㄧㄥˋ2쎯ㄏㄨㄚˋ0쎯	-10.8046
ㄏㄢˊ2쎯	-10.8046
ㄖㄨㄢˇ0쎯	-10.8052
▁쎆쎀쎀쎀	-10.8052
▁ㄓㄠˋ5쎯	-10.8052
▁ㄇㄞˋ1쎯ㄎㄜˋ0쎯ㄈㄥ1쎯	-10.8054
▁ㄊㄧㄢ0쎯ㄨㄣˊ0쎯	-10.8055
▁ㄈㄣ4쎯ㄨㄟˊ2쎯	-10.8057
▁ㄏㄨㄥˊ5쎯	-10.8058
▁ㄊㄨˊ1쎯	-10.8059
ㄍㄨㄟ6쎯	-10.8067
ㄕㄣˇ0쎯	-10.8072
▁ㄉㄨㄥˋ1쎯	-10.8074
▁ㄈㄤˇ1쎯	-10.8074
▁ㄏㄟ0쎯ㄅㄞˊ0쎯	-10.8075
▁ㄊㄡˊ1쎯ㄧㄥˇ1쎯	-10.8076
▁ㄕㄨˇ2쎯	-10.8077
▁ㄩˋ10쎯	-10.8077
▁ㄓˋ3쎯ㄅㄟˋ2쎯	-10.808
▁쎄쎈쎀	-10.8082
▁ㄉㄤ0쎯ㄓㄨㄥ0쎯	-10.8084
▁и	-10.8084
▁ㄍㄡˋ0쎯	-10.8087
ㄏㄨㄢ0쎯	-10.8091
▁ㄐㄧˋ2쎯	-10.8092
▁ㄌㄨˊ2쎯	-10.8094
ㄑㄧㄣˊ0쎯	-10.8097
ㄎㄨㄤˋ1쎯	-10.8098
▁ㄑㄧㄥˊ0쎯ㄐㄧㄝ0쎯	-10.81
▁ㄉㄧˋ0쎯	-10.81
▁ㄌㄧˇ0쎯ㄆㄧㄣˇ쎯	-10.8101
ㄊㄨㄥˊ2쎯	-10.8101
▁ㄐㄧ6쎯ㄔㄨㄤˊ0쎯	-10.8113
ㄋㄧˊ0쎯ㄙ4쎯	-10.8114
ㄋㄨㄥˊ0쎯ㄔㄢˇ0쎯ㄆㄧㄣˇ쎯	-10.8114
ㄑㄧ7쎯	-10.8116
▁ㄚ0쎯ㄦˇ0쎯	-10.8118
▁ㄋㄧㄢˊ3쎯	-10.8118
ㄠˊ4쎯	-10.8118
▁ㄌㄧㄢˊ3쎯ㄏㄨㄚ0쎯	-10.812
▁ㄖㄨˊ0쎯ㄒㄧㄚˋ0쎯	-10.8122
▁ㄔㄢˇ0쎯ㄑㄩㄢˊ0쎯	-10.8124
▁ㄓㄨㄥ0쎯ㄔㄤˊ1쎯	-10.8128
ㄨㄟˊ8쎯	-10.8129
▁ㄋㄧㄠˇ0쎯ㄌㄟˋ2쎯	-10.8133
▁ㄩㄢˊ5쎯ㄓㄨㄟ2쎯	-10.8135
▁ㄊㄨˊ2쎯ㄐㄧㄥˋ0쎯	-10.8135
ㄊㄨㄥˇ2쎯	-10.8137
▁ㄅㄚˋ3쎯	-10.8138
▁ㄏㄨㄤˊ0쎯ㄏㄡˋ0쎯	-10.8143
ㄕㄨㄟˇ쎯ㄒㄧㄢˋ0쎯	-10.8147
▁쎁쎄쎀쎀	-10.8148
▁ㄐㄧㄠ6쎯ㄩˋ3쎯ㄊㄧㄥ0쎯	-10.8149
▁ㄇㄟˇ1쎯ㄋㄩˇ0쎯	-10.8152
ㄙㄨㄣˇ1쎯	-10.8154
ㄐㄩㄣˋ1쎯	-10.8155
ㄨㄟˋ8쎯	-10.8156
▁ㄑㄩㄢˊ0쎯ㄧˋ15쎯	-10.8156
▁ㄓㄨˋ9쎯ㄗㄠˋ2쎯	-10.8157
ㄎㄜˇ1쎯	-10.816
ㄜˋ7쎯	-10.8163
ㄨㄚ2쎯	-10.8164
ㄅㄧˊ0쎯	-10.8166
ㄋㄨㄢˇ쎯	-10.8167
▁ㄧˊ8쎯ㄔㄢˇ0쎯	-10.817
▁ㄙㄨˋ3쎯ㄌㄩˋ2쎯	-10.8172
▁ㄨㄟ3쎯ㄕㄥ1쎯ㄨˋ3쎯	-10.8176
▁ㄕㄤ1쎯ㄔㄥˊ4쎯	-10.8178
ㄊㄧ2쎯	-10.8186
▁ㄍㄨㄛˊ0쎯ㄔㄢˇ0쎯	-10.8188
ㄔㄡˊ4쎯	-10.8189
▁ㄊㄢ0쎯	-10.819
▁ㄎㄜˇ0쎯ㄐㄧㄢˋ0쎯	-10.8192
ㄆㄢˋ0쎯	-10.8193
▁ㄎㄜˇ0쎯ㄎㄡˇ쎯	-10.8193
ㄧㄝˋ5쎯	-10.8195
ㄑㄧㄥ0쎯ㄊㄨㄢˊ0쎯	-10.8196
▁ㄏㄨㄟ1쎯	-10.8197
▁ㄑㄧㄥ0쎯ㄏㄞˇ0쎯	-10.8203
▁ㄕㄡˇ0쎯ㄘㄜˋ0쎯	-10.8204
▁ㄖㄢˊ1쎯ㄕㄠ1쎯	-10.8205
ㄩ3쎯	-10.8206
▁ㄌㄧˋ0쎯ㄑㄧㄡˊ1쎯	-10.8211
▁ㄍㄨㄤ0쎯ㄑㄩ2쎯	-10.8212
▁ㄎㄨㄥ0쎯ㄓㄨㄥ0쎯	-10.8212
ㄏㄨㄢˋ5쎯	-10.8214
ㄇㄠ쎯	-10.8214
▁ㄊㄧㄝˇ쎯ㄉㄠˋ3쎯	-10.8223
▁ㄑㄧㄡ0쎯	-10.8228
▁ㄆㄧㄥˊ1쎯ㄕㄣˇ1쎯	-10.8228
▁ㄐㄧㄝ3쎯ㄏㄨㄣ2쎯	-10.8228
▁ㄌㄧㄤˇ0쎯ㄇㄧㄢˋ0쎯	-10.8229
ㄒㄧㄢˋ9쎯	-10.8229
ㄧ3쎯ㄎㄜ2쎯	-10.8229
ㄎㄨㄟˊ0쎯	-10.8232
▁ㄊㄚ2쎯ㄇㄣˊ1쎯	-10.8237
ㄍㄨㄤˇ0쎯ㄓㄡ1쎯	-10.8237
▁ㄏㄞˇ0쎯ㄕㄤˇ0쎯	-10.8239
▁ㄘㄨㄥˊ0쎯ㄧㄝˋ0쎯	-10.824
▁ㄈㄢˊ3쎯ㄖㄨㄥˊ2쎯	-10.8242
▁ㄓㄞ1쎯	-10.8243
▁ㄔㄤˊ4쎯ㄔㄤˊ4쎯	-10.825
▁ㄉㄚ0쎯ㄆㄟˋ2쎯	-10.8254
▁쎅쎁쎂	-10.8258
ㄍㄜ4쎯	-10.8258
▁ㄉㄧ2쎯ㄇㄧㄥˊ0쎯	-10.8262
▁ㄐㄩˋ8쎯ㄐㄧˊ8쎯	-10.8263
▁ㄉㄜˊ0쎯ㄧˇ2쎯	-10.827
▁ㄌㄧㄤˇ0쎯ㄢˋ0쎯	-10.8271
▁ㄉㄧㄝ1쎯	-10.8273
▁쎁쎃쎆	-10.8277
▁ㄌㄧㄥˊ2쎯ㄏㄨㄣˊ1쎯	-10.8279
▁ㄧㄡˊ2쎯ㄐㄧㄢˋ1쎯	-10.8286
▁쎁쎃쎅	-10.8287
▁ㄐㄧㄚ0쎯ㄎㄨㄞˋ1쎯	-10.8288
▁ㄧㄢ1쎯	-10.8288
▁ㄒㄩˊ쎯ㄓㄡ1쎯	-10.8293
▁ㄖㄥˊ쎯ㄖㄢˊ0쎯	-10.8293
▁ㄅㄚ0쎯ㄕˊ0쎯	-10.8294
▁ㄏㄨˋ1쎯ㄨㄞˋ쎯	-10.8295
ㄔㄡˊ3쎯	-10.8295
ㄏㄢˇ0쎯	-10.8295
▁ㄎㄨㄤˋ3쎯ㄐㄧㄚˋ2쎯	-10.8296
▁ㄇㄟˊ1쎯ㄍㄨㄟ5쎯	-10.8298
ㄓㄨˊ1쎯	-10.8305
▁쎄쎅쎀	-10.831
▁ㄏㄨㄛˋ2쎯ㄑㄩˇ0쎯	-10.8314
▁쎂쎅쎀쎀	-10.8315
▁ㄘˊ0쎯ㄏㄨㄟˋ1쎯	-10.8317
▁ㄓㄣˇ1쎯	-10.8317
▁ㄉㄨㄟˋ1쎯ㄕㄡˇ0쎯	-10.8317
▁後	-10.8318
▁ㄕˋ16쎯ㄧㄥ0쎯ㄓㄥ5쎯	-10.8318
ㄧㄣˊ2쎯	-10.8326
▁ㄓㄥˋ3쎯ㄨㄟˇ5쎯	-10.8327
▁ㄧㄠˊ5쎯ㄍㄨㄣˇ0쎯	-10.8328
ㄏㄨㄥˊ1쎯ㄙㄜˋ0쎯	-10.8329
▁ㄋㄚ0쎯ㄌㄧˇ2쎯	-10.833
ㄐㄧㄣˋ	-10.8331
ㄦˇ0쎯ㄙ4쎯	-10.8332
▁쎁쎉쎂쎀	-10.8336
▁ㄑㄧˋ6쎯	-10.8336
▁ㄔㄨˋ0쎯	-10.8338
ㄨㄚˋ0쎯	-10.8338
▁ㄔㄥˊ3쎯ㄅㄢˋ0쎯	-10.8339
▁ㄐㄧㄤˇ1쎯ㄒㄧㄤˋ1쎯	-10.8339
▁ㄕㄡˊ쎯ㄒㄧ8쎯	-10.8339
▁ㄌㄧㄣˊ2쎯ㄕˊ1쎯	-10.834
▁ㄅㄟ2쎯ㄇㄧㄢˋ0쎯	-10.8341
ㄠˊ2쎯	-10.8344
▁ㄍㄨㄤ0쎯ㄉㄧㄢˋ0쎯	-10.8344
ㄈㄥˋ1쎯	-10.8346
▁●	-10.8348
▁ㄕㄠˋ0쎯	-10.8353
ㄐㄧˇ0쎯	-10.8354
▁ㄐㄧˊ4쎯ㄕˇ2쎯	-10.8356
▁ㄍㄨㄥ4쎯ㄉㄡˋ2쎯	-10.836
▁ㄧㄣˇ3쎯ㄘㄤˊ쎯	-10.8364
ㄖㄨㄥˊ1쎯	-10.8364
▁ㄇㄟˊ6쎯ㄎㄨㄤˋ2쎯	-10.8365
ㄩㄥ5쎯	-10.8367
ㄨㄛ1쎯	-10.8368
▁ㄘㄨㄥˊ0쎯ㄒㄧㄠˇ0쎯	-10.8368
▁ㄔㄨㄥ2쎯	-10.8369
ㄧㄣˇ1쎯	-10.8373
ㄧㄡˊ2쎯	-10.8376
▁ㄐㄧㄥˋ1쎯ㄏㄨㄚˋ0쎯	-10.8379
▁ㄈㄚˇ0쎯ㄩㄢˋ2쎯	-10.8382
▁ㄖㄣˊ0쎯ㄐㄧㄢ4쎯	-10.8382
ㄈㄣˊ2쎯	-10.8384
ㄒㄩˋ0쎯	-10.8384
▁ㄑㄧㄡ0쎯ㄌㄧㄥˊ6쎯	-10.8388
ㄧˊ19쎯	-10.8388
▁ㄓㄣ3쎯ㄍㄨㄟˋ1쎯	-10.8391
▁ㄡ1쎯ㄇㄟˇ1쎯	-10.8395
▁ㄒㄧㄚˋ0쎯ㄐㄧㄤˋ1쎯	-10.8395
▁̇ㄉㄜ0쎯ㄕㄤˇ0쎯	-10.8396
ㄑㄧㄠˊ0쎯	-10.8397
▁ㄑㄩㄝ0쎯ㄈㄚˊ0쎯	-10.8407
▁ㄎㄠˇ0쎯ㄏㄜˊ5쎯	-10.8409
▁ㄊㄡˊ1쎯ㄗ2쎯ㄓㄜˇ0쎯	-10.8411
▁ㄒㄧㄣ3쎯ㄕㄤˇ2쎯	-10.8412
▁ㄉㄧㄢˋ5쎯	-10.8415
ㄈㄨ1쎯	-10.8416
▁ㄏㄨㄤˊ1쎯ㄍㄨㄚ0쎯	-10.8416
▁ㄕˊ3쎯ㄩㄥˋ0쎯ㄒㄧㄥˋ2쎯	-10.8419
▁ㄧㄥˊ5쎯ㄗㄠˋ2쎯	-10.842
▁ㄈㄥ7쎯	-10.842
ㄗ4쎯	-10.8422
ㄐㄧㄝ1쎯ㄐㄧˊ2쎯	-10.8426
ㄓㄠˋ3쎯	-10.8427
▁ㄧˋ0쎯	-10.8428
▁ㄅㄢˇ0쎯ㄎㄨㄞˋ0쎯	-10.8431
▁ㄩˋ12쎯	-10.8437
ㄔ0쎯	-10.8438
ㄐㄧㄥ5쎯	-10.8439
▁ㄍㄨㄟˋ1쎯ㄗㄨˊ1쎯	-10.8442
▁ㄧˊ0쎯ㄕˋ5쎯	-10.8443
ㄌㄧㄣˊ0쎯	-10.8446
ㄐㄧㄢˇ6쎯	-10.8447
▁ㄒㄧㄠˋ3쎯ㄧˋ15쎯	-10.8451
▁쎁쎇쎈	-10.8453
▁◎	-10.8454
ㄅㄧㄥˇ7쎯	-10.8455
ㄆㄚˋ1쎯	-10.8459
▁ㄐㄧㄚˋ3쎯	-10.8459
▁ㄓㄨˇ0쎯ㄔˊ4쎯ㄖㄣˊ0쎯	-10.8459
▁ㄔㄨˋ1쎯ㄇㄛ쎯	-10.846
쎈쎅쎀	-10.8462
ㄨㄣˇ2쎯	-10.8465
▁ㄐㄧㄥˇ1쎯ㄙㄜˋ0쎯	-10.8466
ㄌㄧˇ3쎯ㄌㄨㄣˊ2쎯	-10.8466
ㄍㄜˊ3쎯	-10.8468
쎆쎅쎀	-10.847
▁ㄉㄨㄥ0쎯ㄍㄨㄢˇ2쎯	-10.8481
ㄇㄟˊ6쎯	-10.8482
▁ㄋㄚ1쎯ㄏㄞˇ0쎯	-10.8484
ㄇㄞˋ0쎯	-10.8486
ㄌㄩˋ1쎯	-10.8487
ㄗㄨㄛ0쎯ㄓㄜˇ0쎯	-10.8491
▁ㄘˇ0쎯ㄕˊ1쎯	-10.8492
▁ㄅㄠˇ0쎯	-10.8493
▁ㄗㄨㄥˇ0쎯ㄐㄧㄢ7쎯	-10.8496
ㄌㄧㄥˊ3쎯	-10.8505
ㄋㄚˋ2쎯	-10.8506
▁ㄗㄨㄥˇ0쎯ㄌㄧˇ3쎯	-10.851
▁ㄌㄩˇ4쎯	-10.8513
ㄓㄤˋ6쎯	-10.8514
▁ㄋㄨㄛˋ2쎯ㄇㄧˇ0쎯	-10.8514
ㄊㄧㄥ2쎯	-10.8515
▁ㄧˊ7쎯ㄇㄧㄣˊ0쎯	-10.8517
▁ㄑㄧㄥˊ0쎯ㄐㄧㄥˇ1쎯	-10.8521
▁ㄨㄟˋ0쎯ㄕˋ12쎯	-10.8524
ㄐㄧㄢˇ5쎯ㄔㄚˊ3쎯ㄩㄢˋ2쎯	-10.8525
▁ㄑㄧㄢˋ4쎯	-10.8526
▁ㄐㄧㄥˋ2쎯ㄓㄥ1쎯ㄌㄧˋ0쎯	-10.8526
▁ㄗㄤˋ0쎯	-10.8527
▁ㄧ4쎯ㄎㄠˋ1쎯	-10.8532
▁ㄈㄢˇ0쎯ㄉㄨㄟˋ1쎯	-10.8533
▁ㄇㄧㄣˊ0쎯ㄅㄢˋ0쎯	-10.8533
▁ㄑㄧㄚˋ1쎯	-10.8534
ㄉㄞˋ2쎯	-10.8537
▁ㄨㄣˇ0쎯	-10.854
▁ㄩㄢˊ4쎯ㄔㄢˇ0쎯	-10.8551
▁ㄏㄨㄚ0쎯ㄋㄧㄠˇ0쎯	-10.8552
ㄕㄥˋ2쎯	-10.8553
▁ㄗㄟˊ0쎯	-10.8554
ㄊㄨˊ4쎯	-10.8556
▁ㄔㄤˊ1쎯ㄐㄧㄥˇ1쎯	-10.8557
ㄇㄧㄣˊ0쎯ㄗㄨˊ1쎯	-10.8557
▁ㄓˋ0쎯ㄕㄤˇ0쎯	-10.8559
▁ㄨㄟˊ6쎯ㄔˊ4쎯	-10.8559
▁ㄩㄢˊ0쎯ㄐㄧㄢˋ1쎯	-10.856
▁ㄐㄧˋ7쎯ㄐㄧㄝ0쎯	-10.8561
▁ㄐㄩˊ1쎯	-10.8561
▁ㄒㄧㄤ1쎯ㄉㄤ0쎯ㄩˊ0쎯	-10.8563
▁쎁쎀ㄇㄛˋ0쎯	-10.8563
▁ㄐㄧㄠ6쎯ㄧㄢˊ6쎯	-10.8563
▁ㄙㄠˇ0쎯	-10.8567
▁ㄒㄧㄤ9쎯	-10.8568
▁ㄏㄨ3쎯	-10.8579
▁ㄨㄟˊ1쎯	-10.858
▁ㄔㄠˊ3쎯ㄌㄧㄡˊ3쎯	-10.8581
ㄣˋ1쎯	-10.8583
▁ㄞˋ1쎯ㄏㄠˇ0쎯	-10.8586
ㄐㄧㄚˇ0쎯ㄐㄧ12쎯	-10.8587
▁ㄕㄥ1쎯ㄨˋ3쎯ㄒㄩㄝˊ1쎯	-10.8589
ㄖˋ0쎯ㄅㄣˇ0쎯	-10.8591
▁ㄖˋ0쎯ㄩˇ6쎯	-10.8592
▁ㄎㄜ2쎯ㄕˋ18쎯	-10.8594
▁ㄈㄚ쎯ㄐㄧㄠˋ6쎯	-10.8595
▁ㄕˋ8쎯ㄨˋ2쎯ㄙㄨㄛˇ0쎯	-10.8596
ㄩˋ10쎯	-10.8605
ㄒㄧㄝˊ8쎯	-10.8605
▁ㄧˇ2쎯ㄋㄚ1쎯	-10.8606
ㄙㄜˋ1쎯	-10.861
▁ㄓㄨˇ0쎯ㄓㄤ0쎯	-10.8612
▁ㄑㄧˊ1쎯ㄩˊ2쎯	-10.8614
ㄨˋ3쎯ㄌㄧˇ3쎯	-10.8615
▁ㄆㄨ1쎯	-10.8616
▁ㄍㄨㄥ2쎯ㄓㄨㄥˋ1쎯	-10.8624
ㄒㄩ1쎯	-10.8626
▁ㄕㄥˊ쎯	-10.863
▁ㄕˊ3쎯ㄕˊ1쎯	-10.8631
ㄆㄧㄢˋ쎯	-10.8635
ㄅㄧˋ10쎯	-10.864
▁ㄓㄨㄥ2쎯ㄉㄨㄢ0쎯	-10.8642
▁ㄐㄧㄥˋ3쎯	-10.8642
ㄑㄩㄝ0쎯	-10.8643
ㄙㄨㄟˋ0쎯	-10.8648
▁ㄒㄧㄥ1쎯ㄐㄧˊ2쎯	-10.8648
▁ㄗㄨㄥˋ0쎯ㄏㄥˊ1쎯	-10.8649
▁ㄕㄨㄟˇ쎯ㄇㄧㄢˋ0쎯	-10.8654
ㄩㄣˋ6쎯	-10.8655
ㄩㄢˊ4쎯ㄌㄧㄠˋ0쎯	-10.8658
▁ㄧ0쎯ㄇㄧㄢˋ0쎯	-10.8659
ㄋㄧㄡˇ2쎯	-10.866
▁ㄕˊ0쎯ㄐㄧ0쎯	-10.8664
▁ㄈㄨˋ7쎯ㄉㄢˋ1쎯	-10.8664
ㄧˊ14쎯	-10.8672
ㄍㄥ2쎯	-10.8673
▁ㄈㄣˇ쎯ㄇㄛˋ1쎯	-10.8674
▁ㄐㄧㄥ2쎯ㄐㄧˇ1쎯	-10.8675
ㄧㄤˇ0쎯	-10.8678
ㄏㄨㄢˊ3쎯	-10.868
ㄙㄨˋ8쎯	-10.8683
ㄠˋ6쎯	-10.8684
▁ㄅㄧˇ3쎯ㄕㄨㄣˋ0쎯	-10.8685
▁ㄏㄨㄟ4쎯	-10.8688
▁ㄧˋ17쎯	-10.8688
▁ㄍㄜˋ0쎯ㄗˋ0쎯	-10.8692
ㄍㄨㄥ0쎯ㄔㄥˊ7쎯ㄕ2쎯	-10.8697
ㄇㄨˋ8쎯	-10.8697
▁ㄓㄨㄢˇ쎯ㄙㄨˋ3쎯	-10.8699
▁ㄕㄨㄟˇ쎯ㄉㄧㄢˋ0쎯	-10.8703
▁ㄇㄤˊ0쎯	-10.8704
▁ㄐㄧㄚˋ0쎯ㄍㄜˊ2쎯	-10.8704
▁ㄏㄨㄥ2쎯	-10.8704
▁ㄒㄧㄠˇ0쎯ㄏㄨㄛˇ0쎯	-10.8707
▁ㄑㄧ0쎯ㄕˊ0쎯	-10.8712
▁ㄔㄡˇ0쎯	-10.8715
ㄉㄡˋ4쎯	-10.8716
▁ㄋㄟˋ쎯ㄒㄧㄣ0쎯	-10.8716
ㄧㄝˋ6쎯	-10.8722
▁ㄆㄚˋ1쎯	-10.8724
ㄒㄧㄠ0쎯	-10.8724
▁쎁쎉쎂쎆	-10.8724
▁ㄓㄚˊ0쎯	-10.8729
▁ㄌㄧˇ3쎯ㄒㄩㄝˊ1쎯	-10.873
▁쎁쎀쎄	-10.8731
▁ㄓˇ1쎯	-10.8731
▁ㄨㄤˊ1쎯ㄍㄨㄛˊ0쎯	-10.8732
▁ㄕㄨ0쎯ㄏㄨㄚˋ1쎯ㄩㄢˋ2쎯	-10.8735
ㄍㄨㄢˇ1쎯ㄅㄨˋ4쎯ㄇㄣˊ0쎯	-10.8736
▁ㄈㄣ0쎯ㄐㄧㄠˋ2쎯	-10.8738
ㄕㄨ6쎯	-10.8738
ㄔㄢˊ2쎯	-10.8742
▁ㄓㄨㄢ0쎯ㄓˊ4쎯	-10.8742
ㄧˋ13쎯	-10.8743
▁ㄊㄤˊ5쎯ㄋㄧㄠˋ0쎯	-10.8744
▁ㄓㄚ0쎯	-10.8747
ㄧˇ1쎯	-10.8747
▁ㄓㄨㄛ2쎯	-10.8748
▁ㄍㄠˋ0쎯ㄙㄨˋ0쎯	-10.8755
▁ㄐㄧˊ1쎯ㄊㄚ0쎯	-10.8756
▁ㄆㄧㄣˋ0쎯	-10.8759
▁ㄅㄛ4쎯	-10.8761
▁ㄙㄨㄟˋ3쎯ㄉㄠˋ3쎯	-10.8761
▁ㄧㄢˊ0쎯ㄔㄤˊ0쎯	-10.8763
쎅쎅쎀	-10.8764
▁ㄈㄨˋ10쎯	-10.8768
ㄒㄧㄡ0쎯	-10.8769
ㄖㄣˊ0쎯ㄨˋ3쎯	-10.8773
▁ㄏㄜˊ5쎯ㄊㄠˊ1쎯	-10.8782
▁ㄅㄧㄢˋ2쎯ㄅㄨˋ1쎯	-10.8783
▁ㄕㄣˇ1쎯ㄉㄧㄥˋ1쎯	-10.8785
ㄕˊ0쎯ㄑㄧ0쎯	-10.8788
ㄏㄨㄟˇ1쎯	-10.8791
▁ㄐㄧㄥ8쎯ㄌㄧㄥˊ2쎯	-10.8797
ㄔㄨㄢ1쎯	-10.8803
▁ㄍㄨㄢ1쎯ㄧㄣ4쎯	-10.8813
▁ㄐㄧㄡ0쎯ㄘㄨㄛˋ2쎯	-10.8816
▁ㄔㄣˋ1쎯ㄗㄨㄛ0쎯	-10.8816
ㄎㄨㄢ0쎯	-10.8821
▁ㄓ1쎯ㄌㄧㄡˊ3쎯	-10.8826
ㄉㄨˊ1쎯	-10.8828
▁ㄓㄣ4쎯ㄎㄨㄥ0쎯	-10.883
ㄩˊ1쎯	-10.8832
▁ㄅㄨˋ2쎯ㄏㄤˊ0쎯	-10.8832
▁ㄓㄞˇ쎯	-10.8833
▁ㄋㄧㄡˇ0쎯	-10.8835
▁ㄓㄣ3쎯ㄓㄨ1쎯	-10.8836
ㄍㄥ1쎯	-10.8836
ㄅㄟˇ쎯ㄌㄨˋ5쎯	-10.8839
▁ㄧㄡ2쎯ㄇㄛˋ9쎯	-10.8842
ㄒㄧㄢˊ2쎯	-10.8843
▁ㄩㄢˊ4쎯ㄨㄟˊ0쎯	-10.8846
ㄍㄨㄥˋ0쎯ㄏㄜˊ2쎯	-10.8846
▁ㄉㄤˇ1쎯ㄗㄨˇ1쎯ㄓ9쎯	-10.8848
ㄇㄟˇ1쎯ㄍㄨㄛˊ0쎯	-10.8852
▁ㄌㄧㄤˋ0쎯ㄉㄨˋ2쎯	-10.8853
▁ㄧㄣˇ0쎯ㄈㄚ쎯	-10.8867
▁쎂쎁쎀	-10.8868
▁ㄓㄜ0쎯	-10.8868
▁ㄉㄨㄥ1쎯ㄐㄧˋ7쎯	-10.8874
ㄓㄥˋ3쎯ㄒㄧㄝˊ1쎯	-10.8875
▁ㄇㄥˇ2쎯	-10.8877
ㄎㄡˋ2쎯	-10.8882
ㄏㄨㄚˊ3쎯	-10.8882
ㄠˊ7쎯	-10.8883
ㄗㄨˊ1쎯ㄗˋ0쎯ㄓˋ5쎯ㄡ0쎯	-10.8884
▁ㄋㄚ1쎯ㄐㄧㄥ1쎯ㄕˋ4쎯	-10.8889
ㄍㄠ0쎯ㄐㄧˊ2쎯	-10.8891
ㄊㄤˊ2쎯	-10.8897
▁ㄎㄠˇ2쎯ㄧㄢ2쎯	-10.8898
▁ㄌㄨㄥˇ2쎯	-10.8898
▁ㄇㄟˊ3쎯	-10.8901
▁ㄧㄣˇ1쎯ㄩㄥˋ0쎯	-10.8903
▁ㄓㄠˇ0쎯	-10.8905
▁ㄓㄤˋ0쎯ㄈㄨ0쎯	-10.8905
▁ㄉㄨㄥˋ0쎯ㄇㄞˋ3쎯	-10.8905
▁ㄒㄧㄢˋ9쎯	-10.8908
▁ㄒㄧㄢˇ0쎯ㄕˋ2쎯ㄑㄧˋ7쎯	-10.8908
ㄌㄧㄢˊ0쎯	-10.8909
ㄒㄧㄢˋ1쎯ㄉㄞˋ0쎯	-10.8918
▁ㄧㄠ2쎯ㄏㄢˋ6쎯	-10.8919
▁ㄔㄨ0쎯ㄒㄧㄝˇ1쎯	-10.892
▁ㄏㄨㄚˊ1쎯ㄑㄧㄠˊ1쎯	-10.8921
▁ㄨˋ3쎯ㄗ2쎯	-10.8922
▁ㄒㄧㄚˋ1쎯ㄐㄧˋ7쎯	-10.8924
▁ㄓˇ4쎯ㄌㄧㄥˊ0쎯	-10.8925
ㄅㄛˊ1	-10.8933
ㄓㄞˊ쎯	-10.8934
ㄅㄧㄥˇ1쎯	-10.8934
ㄜˋ3쎯	-10.8944
▁ㄧㄢˇ3쎯ㄅㄧㄢˋ0쎯	-10.8944
▁ㄓㄨˇ0쎯ㄌㄧㄠˋ0쎯	-10.8944
▁ㄇㄨˋ8쎯	-10.8947
ㄏㄨㄛˋ5쎯	-10.8949
ㄑㄧˊ5쎯	-10.8951
▁ㄎㄡˇ쎯ㄈㄨˊ5쎯	-10.8952
▁ㄈㄤˊ3쎯ㄔㄢˇ0쎯	-10.8953
▁ㄍㄨㄟ2쎯ㄓㄤ1쎯	-10.8954
ㄓㄤ2쎯	-10.8955
▁ㄓㄨˋ1쎯ㄙㄨˋ4쎯	-10.8956
▁ㄕˊ0쎯ㄗˋ1쎯	-10.8957
▁ㄇㄧㄢˋ0쎯ㄌㄧㄣˊ2쎯	-10.8961
▁ㄩˋ6쎯ㄙㄨㄢˋ1쎯	-10.8963
▁ㄗㄨㄥˇ0쎯ㄐㄩˊ0쎯	-10.8964
▁ㄐㄩㄣˋ3쎯ㄍㄨㄥ0쎯	-10.8965
▁ㄌㄧˇ0쎯ㄧˊ0쎯	-10.8966
▁ㄏㄠˊ1쎯	-10.8967
ㄨㄛˋ2쎯	-10.8968
▁ㄓㄨㄤˋ0쎯ㄌㄧㄝˋ2쎯	-10.8969
▁ㄇㄧㄢˋ0쎯ㄅㄢˇ0쎯	-10.8969
▁ㄅㄧˋ1쎯ㄧㄠ4쎯	-10.8972
▁ㄍㄨㄟˋ0쎯	-10.8972
ㄒㄧ1쎯ㄌㄨˋ5쎯	-10.8972
ㄕˊ0쎯ㄙˋ1쎯	-10.8973
▁ㄔㄨㄣˊ3쎯	-10.8976
ㄊㄡˊ1쎯	-10.8977
▁ㄑㄩㄢˋ0쎯	-10.8978
▁ㄓㄨㄥ0쎯ㄐㄧ13쎯	-10.898
ㄖㄣˋ1쎯	-10.8981
▁ㄆㄢˋ2쎯	-10.8983
▁ㄌㄚˋ2쎯	-10.8983
▁ㄍㄠ0쎯ㄑㄧㄥ5쎯	-10.8985
▁ㄕㄢˋ4쎯ㄊㄡˊ0쎯	-10.8985
▁ㄌㄧㄡˊ2쎯ㄐㄧㄠˋ2쎯	-10.8985
ㄍㄜˊ5쎯	-10.8986
▁ㄏㄨㄥˊ0쎯	-10.8989
▁ㄐㄧㄣˇ3쎯ㄅㄧㄠ0쎯ㄙㄞˋ쎯	-10.899
ㄒㄧㄥˋ1쎯	-10.8994
ㄓㄤˇ0쎯	-10.8997
ㄕˊ5쎯	-10.9
▁ㄎㄨㄛˋ0쎯	-10.9008
▁ㄐㄧㄣˋ0쎯ㄍㄨㄥ4쎯	-10.9009
▁̇ㄉㄜ0쎯ㄒㄧㄥˊ1쎯	-10.9009
▁ㄘㄞˋ0쎯ㄐㄧˋ3쎯	-10.9011
▁ㄨㄣ0쎯ㄋㄨㄢˇ쎯	-10.9012
ㄓㄜˋ1쎯ㄐㄧㄤ0쎯	-10.9013
▁ㄕㄤˇ0쎯ㄕㄨˋ2쎯	-10.9014
▁쎁쎃쎀쎀	-10.9015
▁ㄕㄨ3쎯	-10.9015
ㄒㄧㄡˋ2쎯	-10.9015
ㄅㄚˋ4쎯	-10.9023
▁ㄙㄨㄣˇ1쎯	-10.9023
▁ㄗㄨㄛˋ0쎯ㄅㄧㄠ0쎯	-10.9024
▁ㄐㄧㄥ8쎯ㄓㄢˋ4쎯	-10.9024
ㄨㄚ3쎯	-10.9025
▁ㄐㄧㄠ6쎯ㄉㄠˇ0쎯	-10.9025
▁쎁ㄇㄛˋ0쎯	-10.9026
ㄕㄜˊ0쎯	-10.903
▁ㄎㄞ0쎯ㄑㄧˇ3쎯	-10.9032
ㄗ3쎯	-10.9034
ㄌㄧㄠˊ0쎯	-10.904
▁ㄍㄤ4쎯	-10.9042
▁ㄌㄨㄥˊ4쎯	-10.9045
▁ㄉㄞˋ0쎯ㄒㄧㄝˋ5쎯	-10.9045
▁ㄊㄧㄢ0쎯ㄕˇ2쎯	-10.9046
▁ㄈㄟ	-10.9048
▁ㄋㄠˋ0쎯	-10.9051
▁ㄍㄨㄢ0쎯ㄅㄧˋ3쎯	-10.9054
ㄇㄤˊ2쎯	-10.9057
▁ㄧㄣˇ0쎯ㄖㄨˋ0쎯	-10.9058
▁ㄉㄧㄥˋ1쎯ㄓˋ3쎯	-10.9061
▁ㄕㄣ2쎯ㄅㄧㄢ0쎯	-10.9063
▁ㄌㄧˋ6쎯ㄖㄨㄣˋ1쎯	-10.9066
ㄉㄥˇ0쎯ㄩㄢˋ2쎯ㄐㄧㄠˋ2쎯	-10.9069
▁ㄅㄣˇ1쎯	-10.9069
ㄦ	-10.9071
▁ㄅㄠˇ2쎯ㄨㄟˋ0쎯	-10.9072
▁ㄔㄠˊ0쎯	-10.9072
▁ㄧㄤˋ0쎯ㄗˇ0쎯	-10.9075
▁ㄒㄧㄝˋ1쎯	-10.9078
▁ㄈㄢˋ6쎯	-10.908
▁ㄍㄨㄥ0쎯ㄒㄩㄝˊ1쎯	-10.9081
ㄐㄧㄠ0쎯ㄐㄧㄝˋ3쎯ㄔㄨˇ0쎯	-10.9083
▁ㄉㄠˇ0쎯ㄏㄤˊ3쎯	-10.9087
ㄅㄛˊ5쎯ㄨˋ3쎯ㄍㄨㄢˇ0쎯	-10.9091
▁ㄕˋ16쎯ㄉㄤ0쎯	-10.9096
▁ㄞˇ0쎯	-10.9097
▁ㄕㄜˋ1쎯ㄎㄜ2쎯	-10.9102
▁ㄨㄤˊ1쎯ㄗˇ0쎯	-10.9102
▁ㄒㄩㄢˇ0쎯ㄐㄩˇ2쎯	-10.9104
ㄏㄥˊ1쎯	-10.9104
▁ㄔㄨㄥˇ쎯ㄨˋ3쎯	-10.9107
ㄢˋ6쎯	-10.9108
▁쎁쎀쎇	-10.9109
▁ㄔㄤˊ4쎯ㄓㄡ1쎯	-10.911
▁ㄈㄢˋ1쎯ㄉㄧㄢˋ3쎯	-10.9111
▁ㄔㄥˊ9쎯	-10.9114
▁–	-10.9116
▁ㄏㄞˇ0쎯ㄕㄨㄟˇ쎯	-10.9116
▁ㄐㄧㄢ8쎯ㄖㄨㄥˊ4쎯	-10.9116
▁ㄒㄧㄤˋ0쎯ㄕㄤˇ0쎯	-10.9117
▁ㄍㄢˇ4쎯ㄌㄢˇ3쎯	-10.9117
▁ㄈㄚˊ3쎯ㄇㄣˊ0쎯	-10.9118
▁ㄕㄨㄟˋ0쎯ㄈㄚˇ0쎯	-10.9119
▁ㄓㄨㄥˋ0쎯	-10.9119
▁ㄈㄣ0쎯ㄙㄢˇ1쎯	-10.912
ㄏㄞˇ0쎯ㄒㄧㄚˊ2쎯	-10.9121
▁ㄘㄚ0쎯	-10.9122
▁ㄧㄡˇ1쎯ㄑㄩˋ1쎯	-10.9122
ㄏㄨㄤˊ1쎯ㄙㄜˋ0쎯	-10.9122
▁ㄇㄧㄥˋ쎯ㄌㄧㄥˊ0쎯	-10.9123
ㄕˊ4쎯ㄆㄧㄣˇ쎯	-10.9123
▁ㄧㄝˋ0쎯ㄩˊ2쎯	-10.9125
▁ㄌㄧㄡˊ1쎯ㄌㄢˇ0쎯	-10.9128
▁ㄧㄥ1쎯ㄍㄜˊ2쎯ㄌㄢˊ0쎯	-10.9129
ㄘㄨㄥ3쎯	-10.9133
▁ㄋㄚ1쎯ㄧㄤˊ2쎯	-10.9133
▁ㄎㄜˋ2쎯ㄖㄣˊ0쎯	-10.9136
▁ㄆㄟˊ0쎯	-10.9136
▁ㄅㄧㄣ0쎯ㄩˇ6쎯	-10.9136
▁ㄇㄧㄥˊ1쎯ㄑㄧㄥ5쎯	-10.9138
▁ㄏㄞˇ0쎯ㄩˋ7쎯	-10.9139
▁ㄔㄢˇ0쎯ㄨˋ3쎯	-10.9144
▁ㄕㄨˇ1쎯ㄒㄧㄚˋ0쎯	-10.9145
▁ㄇㄚ1쎯	-10.9148
ㄐㄧㄠˇ8쎯	-10.9148
ㄧˇ0쎯ㄒㄧ29쎯	-10.9149
ㄒㄩㄥ4쎯	-10.9152
▁ㄑㄧˋ2쎯	-10.9153
▁ㄊㄧㄥˊ3쎯ㄓˇ0쎯	-10.9154
▁ㄐㄧˊ8쎯ㄍㄜˇ1쎯	-10.9154
▁ㄅㄠˋ8쎯ㄓㄚˊ1쎯	-10.9156
▁ㄈㄨˊ8쎯	-10.9164
▁ㄈㄤˊ0쎯ㄕㄨㄟˇ쎯	-10.9167
▁ㄏㄞˇ0쎯ㄍㄨㄢ0쎯	-10.9168
▁ㄈㄚ쎯ㄐㄩㄝˊ4쎯	-10.9171
ㄔㄜˋ0쎯	-10.9174
ㄗㄨˇ1쎯ㄓ9쎯	-10.9175
▁ㄊㄢˋ2쎯ㄘㄜˋ3쎯	-10.9176
▁ㄈㄢˇ0쎯ㄕㄜˋ3쎯	-10.9176
▁ㄗˇ0쎯ㄍㄨㄥ6쎯	-10.918
▁쎈ㄇㄛˋ0쎯	-10.9181
▁ㄕㄡˇ2쎯ㄐㄧㄝˋ2쎯	-10.9185
ㄑㄧㄢ1쎯	-10.9185
▁ㄙˋ4쎯ㄧㄤˇ1쎯	-10.9185
▁ㄈㄢ1쎯	-10.9192
▁ㄨㄞˋ쎯ㄍㄨㄛˊ0쎯ㄩˇ6쎯	-10.9193
▁ㄎㄨㄤˋ2쎯ㄕㄢ0쎯	-10.9194
▁ㄔㄤˊ0쎯ㄔㄥˊ4쎯	-10.9194
▁ㄈㄣ0쎯ㄓ0쎯	-10.9196
ㄒㄧㄝˋ1	-10.92
▁ㄜˊ7쎯ㄉㄧㄥˋ1쎯	-10.9201
▁ㄏㄨㄥˊ2쎯ㄍㄨㄢ1쎯	-10.9201
▁ㄈㄨˊ8쎯ㄏㄠˊ0쎯	-10.9203
▁ㄉㄚˊ0쎯ㄐㄧ2쎯	-10.9204
▁ㄑㄧˋ1쎯ㄐㄧㄣ2쎯	-10.9204
▁ㄙㄡ1쎯	-10.9206
ㄏㄨㄥˊ0쎯	-10.9209
ㄑㄩㄢˇ0쎯	-10.9211
▁ㄐㄧ6쎯ㄉㄨㄥˋ0쎯	-10.9212
▁ㄕㄜˋ3쎯ㄐㄧ2쎯	-10.9216
ㄅㄨˋ8쎯	-10.9218
▁ㄨˇ0쎯ㄉㄞˋ0쎯	-10.9218
ㄊㄨㄢˊ0쎯ㄊㄧ0쎯	-10.9221
ㄋㄨˇ0쎯	-10.9222
▁ㄅㄣˇ0쎯ㄎㄜ2쎯ㄕㄥ1쎯	-10.9229
ㄕㄥ1쎯ㄘㄨˋ0쎯	-10.923
▁ㄇㄧㄥˊ0쎯ㄘˊ0쎯	-10.9231
▁ㄕㄡ쎯ㄧˋ15쎯	-10.9238
▁ㄔˊ3쎯	-10.9242
▁ㄏㄣˇ0쎯ㄕㄠˇ쎯	-10.9243
▁ㄒㄧㄠˇ0쎯ㄐㄧㄝˇ0쎯	-10.9246
▁ㄐㄧˊ3쎯ㄑㄧˊ1쎯	-10.9247
▁̇ㄕ쎯ㄧㄝˋ0쎯	-10.9249
ㄖㄣˋ3쎯	-10.9253
▁ㄇㄧㄣˊ0쎯ㄓㄥˋ3쎯	-10.9256
▁ㄇㄟˇ1쎯ㄒㄩㄝˊ1쎯	-10.9259
▁ㄏㄜˊ2쎯ㄒㄧㄢˊ2쎯	-10.9263
ㄎㄨㄟˊ1쎯	-10.9265
▁ㄌㄧㄣˊ2쎯ㄧˊ12쎯	-10.9267
ㄍㄨˇ3쎯	-10.927
▁ㄒㄧㄠ2쎯ㄏㄠˋ0쎯	-10.9272
ㄒㄧㄚˊ5쎯	-10.9275
ㄎㄣˇ1쎯	-10.9278
ㄇㄧㄢˊ0쎯	-10.9279
ㄑㄧㄣˊ3쎯	-10.9288
▁ㄒㄧㄣ0쎯ㄓㄨㄥ0쎯	-10.9298
ㄨㄟ4쎯	-10.9299
▁ㄕㄨㄟˇ쎯ㄔㄢˇ0쎯	-10.9299
▁ㄎㄠˇ0쎯ㄍㄨˇ0쎯	-10.93
▁ㄚ1쎯	-10.9301
ㄜˊ5쎯	-10.9306
▁ㄉㄠˋ3쎯ㄍㄨㄤ0쎯	-10.9309
ㄩㄣˇ0쎯	-10.9309
ㄐㄧㄝ3쎯ㄍㄜˇ1쎯	-10.931
▁ㄇㄛˋ8쎯ㄒㄧ1쎯ㄍㄜ2쎯	-10.9311
ㄧㄠˋ5쎯	-10.9313
▁ㄍㄠ0쎯ㄒㄧㄝˇ1쎯ㄧㄚ1쎯	-10.9322
▁ㄕˊ0쎯ㄐㄧㄚ2쎯	-10.9322
ㄕㄨ1	-10.9322
▁ㄔㄨ0쎯ㄖㄣˊ3쎯	-10.9324
▁ㄏㄣˇ0쎯ㄎㄨㄞˋ1쎯	-10.9325
▁ㄉㄧ2쎯ㄕˋ2쎯	-10.9326
ㄉㄧㄢˋ0쎯ㄗˇ0쎯	-10.9327
ㄕㄠˊ3쎯	-10.9327
▁ㄐㄧㄣ3쎯ㄐㄧㄤˇ1쎯	-10.9328
▁ㄆㄧㄥˊ0쎯ㄏㄤˊ0쎯	-10.9329
ㄙㄨㄥˋ3쎯	-10.933
▁ㄒㄧˋ1쎯ㄐㄧㄝ0쎯	-10.9333
ㄎㄜ8쎯	-10.9334
▁ㄅㄧㄠˇ0쎯ㄇㄧㄥˊ1쎯	-10.9336
ㄓㄜˊ0쎯ㄒㄩㄝˊ1쎯	-10.9337
▁ㄗㄨˇ2쎯ㄍㄨㄛˊ0쎯	-10.9343
▁ㄏㄤˊ0쎯ㄌㄧˇ1쎯	-10.9347
▁ㄙㄢ0쎯ㄍㄨㄛˊ0쎯	-10.9347
ㄔㄥˊ11쎯	-10.9348
▁ㄅㄧㄢ1쎯ㄔㄥˊ7쎯	-10.9349
▁ㄐㄧㄣ3쎯ㄍㄤ2쎯	-10.9351
ㄆㄥˇ쎯	-10.9353
▁ㄔㄜˋ0쎯ㄉㄧˇ1쎯	-10.9357
▁ㄏㄞˇ0쎯ㄋㄟˋ쎯ㄨㄞˋ쎯	-10.9359
▁ㄕˋ12쎯ㄧㄝˇ2쎯	-10.936
▁ㄧ0쎯ㄒㄧㄢˋ3쎯	-10.9361
▁ㄖㄨˇ0쎯	-10.9362
▁ㄅㄛ1쎯ㄌㄢˊ0쎯	-10.9363
▁ㄑㄧㄣˊ3쎯	-10.9365
▁ㄅㄚˇ0쎯ㄨㄛˋ2쎯	-10.9366
ㄕㄨㄢ1쎯	-10.9366
ㄖㄣˋ0쎯	-10.9371
▁ㄒㄧㄥˋ0쎯	-10.9376
▁ㄈㄥ1쎯ㄕㄢ5쎯	-10.9376
▁쎁쎁쎀쎀	-10.9379
ㄙㄨㄛ1쎯	-10.9379
▁ㄑㄩ5쎯	-10.9382
▁ㄉㄤˇ0쎯	-10.9382
ㄩㄥ0쎯	-10.9383
▁ㄑㄧㄢ0쎯ㄎㄜˋ0쎯	-10.9384
▁ㄓㄨㄢˋ3쎯ㄎㄜˋ1쎯	-10.9386
ㄓㄨㄤ0쎯	-10.9386
▁ㄏㄨㄟˋ1쎯ㄐㄧˊ8쎯	-10.9386
ㄩˋ5쎯	-10.9387
▁ㄍㄠ2쎯	-10.9387
▁ㄓˇ4쎯ㄋㄚ1쎯	-10.9388
ㄐㄧˊ9쎯	-10.9388
▁ㄇㄧㄣˇ3쎯ㄍㄢˇ3쎯	-10.9389
▁ㄨㄚ0쎯ㄐㄩㄝˊ4쎯	-10.9391
ㄕˋ3쎯ㄐㄧˇ1쎯	-10.9392
▁ㄧㄢˇ3쎯ㄧˋ13쎯	-10.9393
▁ㄏㄢˊ1쎯ㄧˋ1쎯	-10.9397
▁ㄓˊ1쎯ㄓˋ0쎯	-10.9397
ㄋㄥˊ쎯ㄌㄧˋ0쎯	-10.9398
▁ㄧˊ21쎯ㄗㄨˊ1쎯	-10.9398
▁ㄨ2쎯	-10.9398
▁ㄈㄢˊ2쎯	-10.9405
ㄅㄠˋ3쎯	-10.9408
ㄅㄛˊ7쎯	-10.9408
▁ㄐㄧˋ4쎯	-10.941
▁≥	-10.9412
▁ㄋㄧㄢˊ0쎯ㄉㄧˇ1쎯	-10.9413
▁ㄕㄚ3쎯	-10.9416
ㄅㄧㄥˇ0쎯	-10.9417
▁ㄎㄜˋ2쎯ㄍㄨㄢ1쎯	-10.9418
ㄇㄧㄢˊ2쎯	-10.9419
▁ㄗˋ0쎯ㄏㄤˊ0쎯	-10.9419
ㄓㄨㄢ1쎯	-10.942
▁ㄏㄨㄟˊ0쎯ㄍㄨㄛˊ0쎯	-10.9421
▁ㄏㄞˊ0쎯ㄩㄢˊ4쎯	-10.9421
ㄅㄧˋ14쎯	-10.9425
▁ㄖㄣˊ0쎯ㄑㄧˋ0쎯	-10.9426
▁ㄑㄧㄢˊ0쎯ㄧㄢˊ5쎯	-10.9428
▁ㄔㄣˋ0쎯	-10.9429
▁ㄒㄧˋ1쎯ㄔㄤˊ0쎯	-10.9433
▁ㄎㄠˇ0쎯ㄕㄥ1쎯	-10.9434
ㄉㄨㄛ0쎯ㄩㄢˊ0쎯ㄏㄨㄚˋ0쎯	-10.9435
ㄐㄧ12쎯ㄐㄧㄣ3쎯ㄏㄨㄟˋ2쎯	-10.9436
ㄌㄧㄢˋ3쎯	-10.9437
▁ㄐㄧㄠ5쎯ㄋㄤ0쎯	-10.9437
▁ㄧ0쎯ㄕㄣ2쎯	-10.9441
ㄏㄤˊ2쎯ㄓㄡ1쎯	-10.9443
ㄍㄜˊ0쎯ㄇㄧㄥˋ쎯	-10.9443
▁ㄕㄢˇ1쎯	-10.9443
ㄏㄨ3쎯	-10.9447
ㄎㄤˋ1쎯	-10.9454
▁ㄜˊ5쎯	-10.9455
ㄉㄤ0쎯ㄖㄢˊ0쎯	-10.9461
▁ㄉㄨㄥ0쎯ㄏㄢˋ0쎯	-10.9461
ㄇㄧˋ2쎯	-10.9462
▁ㄧㄡ0쎯ㄧˋ7쎯	-10.9462
▁쎁쎆쎈	-10.9464
▁ㄨㄢˊ2쎯ㄐㄩˋ2쎯	-10.9467
▁ㄐㄧˋ2쎯ㄈㄚˇ0쎯	-10.9477
ㄇㄢˊ0쎯	-10.948
▁ㄊㄞˋ0쎯ㄧㄤˊ2쎯ㄋㄥˊ쎯	-10.9481
▁ㄎㄜˇ0쎯ㄒㄩㄢˇ0쎯	-10.9483
▁ㄅㄣˇ0쎯ㄊㄨˇ0쎯	-10.9484
ㄅㄧㄣ2쎯	-10.9485
▁ㄓㄞ0쎯	-10.9487
▁ㄏㄡˊ2쎯	-10.9493
ㄑㄧㄠˊ2쎯ㄓㄣˋ3쎯	-10.9494
▁ㄓˊ5쎯ㄓㄨ2쎯	-10.9496
▁̇ㄉㄜ0쎯ㄘㄥˊ0쎯	-10.9497
ㄐㄧˋ14쎯	-10.9498
ㄒㄩˋ5쎯	-10.95
ㄓㄚˊ1쎯	-10.9501
ㄈㄨˋ10쎯	-10.9503
▁ㄅㄧˋ9쎯	-10.9503
▁ㄧˇ5쎯	-10.9504
▁ㄏㄤˊ2쎯	-10.9506
▁ㄕˋ6쎯ㄏㄨ0쎯	-10.9507
▁ㄨㄟˋ0쎯ㄕㄥ1쎯ㄅㄨˋ4쎯	-10.9508
▁ㄔㄨˇ0쎯ㄈㄤ0쎯	-10.9509
ㄧㄥ2쎯	-10.9509
▁ㄧㄚˋ1쎯ㄔㄨㄥˊ1쎯	-10.9512
▁ㄐㄧㄣˇ0쎯ㄐㄧㄣˇ0쎯	-10.9519
ㄏㄞˊ1쎯	-10.9521
▁ㄅㄧˋ5쎯ㄋㄧㄠˋ0쎯	-10.9521
▁ㄇㄧㄥˊ0쎯ㄘㄞˋ0쎯	-10.9521
ㄇㄤˊ0쎯	-10.9523
▁ㄉㄥˇ0쎯ㄩˊ0쎯	-10.9524
▁ㄧˇ2쎯ㄅㄟˇ쎯	-10.9525
▁ㄍㄨㄚ1쎯	-10.9525
ㄙㄢ0쎯ㄐㄧㄠˇ0쎯ㄒㄧㄥˊ1쎯	-10.9529
▁ㄏㄨㄚ0쎯ㄨㄣˊ1쎯	-10.9529
ㄙˋ13쎯	-10.953
▁ㄉㄧㄢˋ0쎯ㄊㄞ0쎯	-10.953
ㄨㄥ1쎯	-10.9536
▁ㄋㄧㄡˊ쎯ㄋㄞˇ1쎯	-10.9537
▁ㄑㄧㄢˊ4쎯ㄌㄧˋ0쎯	-10.9537
▁ㄈㄢˇ0쎯ㄈㄨˋ7쎯	-10.9537
̇ㄉㄜ0쎯	-10.9538
ㄨㄟˇ1쎯	-10.954
▁ㄨ1쎯	-10.9541
▁ㄘㄞˋ0쎯ㄧㄠˊ1쎯	-10.9545
▁ㄧˋ19쎯	-10.955
ㄔㄨㄣˊ0쎯	-10.955
▁ㄐㄧㄣ2쎯ㄋㄧㄢˊ0쎯	-10.9554
▁ㄨㄚ0쎯	-10.9559
▁ㄈㄤ2쎯	-10.9559
▁ㄍㄨㄢˋ2쎯ㄍㄞˋ4쎯	-10.9561
ㄩㄢˊ11쎯	-10.9563
ㄑㄩㄢˊ1쎯ㄕㄨ0쎯	-10.9565
▁ㄆㄟˋ2쎯ㄈㄤ0쎯	-10.9566
ㄕˊ0쎯ㄨˇ0쎯	-10.9567
▁ㄏㄟ0쎯ㄢˋ3쎯	-10.9568
▁ㄏㄨㄛˇ0쎯ㄊㄨㄟˇ쎯	-10.9569
▁ㄈㄨˊ12쎯ㄌㄧˋ6쎯	-10.957
ㄅㄧˋ2쎯	-10.9571
ㄍㄨㄢ0쎯ㄐㄧˋ3쎯	-10.9574
▁ㄑㄧˋ7쎯ㄍㄨㄢ2쎯	-10.9576
▁ㄈㄨˋ2쎯ㄏㄜˊ4쎯	-10.9576
ㄅㄧㄥ1쎯	-10.958
▁ㄧㄣˇ1쎯ㄌㄧㄠˋ0쎯	-10.9581
ㄅㄧˇ1쎯ㄧㄚˋ1쎯	-10.959
▁ㄓㄨㄢˋ3쎯	-10.9591
ㄇㄟˊ13쎯	-10.9593
▁ㄓㄞˋ1쎯	-10.9596
▁ㄨˋ3쎯ㄌㄧˇ3쎯ㄒㄩㄝˊ1쎯	-10.9596
▁ㄋㄧㄢˊ0쎯ㄩㄝˋ0쎯	-10.9602
ㄕㄠˋ0쎯	-10.9602
▁ㄌㄧㄡˊ3쎯ㄊㄧ0쎯	-10.9605
▁ㄅㄣˇ0쎯ㄖㄣˊ0쎯	-10.9605
▁ㄈㄚ쎯ㄩㄢˊ9쎯	-10.9606
▁ㄕㄠˋ0쎯ㄏㄨㄢˋ3쎯	-10.9606
▁ㄓˇ5쎯	-10.9608
▁ㄏㄤˊ2쎯ㄓㄡ1쎯ㄕˋ4쎯	-10.961
▁ㄇㄛˊ0쎯ㄙㄜˋ0쎯	-10.9611
▁ㄌㄧㄣˊ6쎯ㄆㄧㄢ0쎯	-10.9614
▁ㄅㄧㄢ1쎯ㄇㄚˇ2쎯	-10.9615
▁ㄕˊ3쎯ㄓㄢˋ1쎯	-10.9618
▁ㄩㄝˋ0쎯ㄈㄣˋ0쎯	-10.9625
ㄋㄨˋ0쎯	-10.9625
▁ㄙㄞˋ쎯ㄕˋ8쎯	-10.9626
ㄏㄨㄞˊ3쎯	-10.963
▁ㄕㄨˋ6쎯	-10.9632
ㄩˊ2	-10.964
ㄙㄨˋ1쎯	-10.9642
▁ㄐㄧㄥˋ5쎯	-10.9644
▁ㄩˋ6쎯ㄐㄧˋ0쎯	-10.9645
▁쎁쎉쎂쎅	-10.9645
▁ㄖㄨㄥˊ6쎯ㄐㄧㄝˇ1쎯	-10.9647
▁ㄑㄩㄢˊ1쎯ㄓㄣˋ3쎯	-10.9651
ㄒㄩㄥ1쎯	-10.9656
▁′′	-10.9659
▁ㄙㄞˋ쎯ㄐㄧˋ7쎯	-10.9665
ㄠˊ8쎯	-10.9666
ㄒㄧˇ0쎯	-10.9668
ㄐㄧㄥˇ1쎯ㄉㄜˊ1쎯ㄓㄣˋ3쎯	-10.9669
▁ㄋㄨˋ0쎯	-10.9676
ㄗㄟˊ0쎯	-10.9679
▁ㄗㄜˊ3쎯	-10.968
ㄒㄧㄣ6쎯	-10.9683
▁ㄏㄨㄚˋ0쎯ㄍㄜˇ1쎯ㄨˋ3쎯	-10.9683
ㄐㄧˊ5쎯	-10.9686
▁ㄓ1쎯ㄅㄨˋ4쎯	-10.9686
▁ㄙㄨㄟˊ1쎯ㄕˊ1쎯	-10.969
▁ㄕㄣˋ2쎯ㄊㄡˋ쎯	-10.9694
▁ㄏㄨㄣˊ1쎯	-10.9694
▁ㄊㄨㄣ0쎯	-10.9695
▁ㄕㄢˋ0쎯ㄩˊ0쎯	-10.9695
▁ㄩㄢˊ4쎯ㄅㄣˇ0쎯	-10.9697
ㄗㄥˋ1쎯	-10.9699
ㄖㄡˊ0쎯	-10.9699
▁ㄌㄧㄡˊ3쎯ㄔㄤˋ0쎯	-10.9701
▁ㄔㄨ0쎯ㄖㄨˋ0쎯	-10.9701
▁ㄉㄨㄛ0쎯ㄧㄤˋ0쎯	-10.9702
ㄗˇ5쎯	-10.9708
▁ㄑㄧˇ1쎯	-10.9709
▁ㄙㄨˋ6쎯ㄗㄠˋ2쎯	-10.971
▁ㄆㄥ1쎯ㄖㄣˋ6쎯	-10.9712
▁ㄗˋ0쎯ㄒㄩㄝˊ1쎯	-10.9713
▁ㄐㄧㄝ0쎯ㄖˋ0쎯	-10.9714
▁ㄐㄧㄚ0쎯ㄕㄨㄟˇ쎯	-10.9717
ㄊㄨㄥˊ3쎯	-10.9719
▁ㄈㄥˋ1쎯ㄒㄧㄢˋ8쎯	-10.972
▁ㄕˋ20쎯ㄨㄣˊ0쎯	-10.9723
▁ㄖˋ0쎯ㄐㄩㄣ0쎯	-10.9724
▁ㄔㄢˊ0쎯ㄉㄨˊ1쎯	-10.9724
▁ㄑㄩㄝˋ1쎯ㄖㄣˋ1쎯	-10.9727
▁ㄧㄥˋ0쎯	-10.9727
▁ㄒㄩˋ9쎯	-10.9728
ㄏㄨㄥˊ1쎯ㄌㄡˊ1쎯ㄇㄥˋ1쎯	-10.9728
▁쎁쎇쎅	-10.9729
ㄉㄧㄝˊ4쎯	-10.9729
▁ㄔㄤˊ4쎯ㄍㄨㄟ2쎯	-10.973
▁ㄙㄨ0쎯ㄕˋ26쎯	-10.973
▁ㄋㄨㄥˊ0쎯ㄌㄧˋ1쎯	-10.9735
▁ㄓㄨㄢ0쎯ㄒㄧㄤˋ1쎯	-10.9736
▁ㄆㄨˇ1쎯	-10.9742
ㄙˋ1쎯ㄔㄨㄢ0쎯	-10.9746
▁ㄧˋ8쎯	-10.9752
▁ㄓㄢˋ2쎯ㄔㄤˊ0쎯	-10.9753
▁ㄇㄛˊ3쎯ㄈㄢˋ3쎯	-10.9754
▁ㄑㄧㄥˊ0쎯ㄒㄩˋ5쎯	-10.9755
▁ㄓㄥˋ3쎯ㄑㄩㄢˊ0쎯	-10.9756
▁ㄓㄨㄟ2쎯	-10.9758
▁ㄐㄧㄠ6쎯ㄊㄤˊ1쎯	-10.9759
▁ㄍㄨㄛ3쎯ㄌㄨˊ3쎯	-10.9763
▁ㄌㄧㄡˊ3쎯ㄕㄨㄟˇ쎯	-10.9764
▁ㄗㄨㄛˋ2쎯ㄔㄥˊ0쎯	-10.9767
▁ㄒㄧ1쎯ㄢ0쎯ㄕˋ4쎯	-10.9768
▁ㄧㄢˇ3쎯ㄧˋ2쎯	-10.9768
▁ㄐㄧˊ7쎯	-10.9774
ㄏㄨㄤ0쎯	-10.9789
ㄌㄟˇ0쎯	-10.9789
ㄉㄨㄛˊ0쎯	-10.9789
▁ㄞˊ0쎯	-10.9794
▁ㄧㄡˇ0쎯ㄏㄠˇ0쎯	-10.9794
ㄓㄤˋ2쎯	-10.98
▁ㄔㄤˊ4쎯ㄓㄨˋ1쎯	-10.9801
▁ㄉㄨㄢˇ쎯ㄆㄧㄢ2쎯	-10.9801
▁ㄡ0쎯ㄔㄤˊ0쎯	-10.9802
ㄍㄜ6쎯	-10.9806
▁ㄇㄟˇ1쎯ㄩˋ15쎯	-10.9807
ㄧㄝ0쎯	-10.981
ㄧˋ26쎯	-10.9813
▁ㄅㄧㄣ0쎯ㄎㄜˋ2쎯	-10.9814
▁ㄨㄢˇ5쎯	-10.9816
▁ㄐㄧㄚ4쎯ㄐㄧㄥˋ5쎯	-10.982
▁ㄋㄨㄥˊ0쎯ㄔㄤˊ1쎯	-10.982
▁ㄗㄨ0쎯ㄌㄧㄣˋ1쎯	-10.9821
▁ㄓㄨˇ0쎯ㄐㄧㄤˇ0쎯	-10.9825
ㄔˋ0쎯	-10.9825
▁ㄎㄤˋ1쎯ㄓㄢˋ1쎯	-10.9826
▁ㄌㄚ1쎯ㄅㄞˇ1쎯	-10.9827
▁ㄈㄟ3쎯	-10.9832
▁ㄋㄨㄥˊ1쎯ㄏㄡˋ1쎯	-10.9833
▁ㄍㄨˇ0쎯ㄐㄧㄣ2쎯	-10.9839
ㄆㄟˋ0쎯	-10.9843
ㄧ0쎯ㄈㄤ0쎯ㄇㄧㄢˋ0쎯	-10.9843
ㄆㄨˊ1쎯ㄊㄠˊ3쎯ㄐㄧㄡˇ5쎯	-10.9844
ㄆㄠˊ1쎯	-10.9846
ㄖㄨˇ1쎯	-10.9847
▁ㄑㄩㄝˋ0쎯ㄕˋ15쎯	-10.9848
▁ㄉㄢˋ4쎯ㄕㄨㄟˇ쎯	-10.9853
▁ㄒㄧㄢ3쎯ㄇㄟˇ1쎯	-10.9855
ㄑㄧˊ14쎯	-10.9857
▁ㄉㄧ0쎯ㄨㄣ0쎯	-10.9859
ㄑㄩㄢˊ3쎯	-10.9863
ㄨˇ3쎯ㄏㄢˋ0쎯	-10.9867
ㄐㄧㄥ10쎯	-10.9867
ㄐㄧㄥˋ1쎯	-10.9872
▁ㄇㄠˊ1쎯ㄉㄨㄣˋ2쎯	-10.9874
▁ㄗㄞˋ0쎯ㄕㄥ1쎯	-10.9887
ㄨㄣˊ0쎯ㄇㄧㄥˊ1쎯	-10.9888
▁ㄏㄜˋ3쎯	-10.9888
▁ㄕㄨˋ3쎯ㄇㄨˋ0쎯	-10.9888
ㄏㄢˊ1쎯	-10.9892
▁ㄎㄨㄥˇ1쎯	-10.9894
ㄈㄥ7쎯	-10.9895
ㄐㄧㄚ5쎯	-10.9896
▁ㄕㄜˋ1쎯ㄔㄤˊ0쎯	-10.99
▁ㄘㄢ0쎯ㄇㄡˊ0쎯ㄔㄤˊ0쎯	-10.99
▁ㄈㄣ0쎯ㄗˇ0쎯ㄕˋ5쎯	-10.9901
▁ㄌㄧㄝˋ0쎯ㄔㄜ0쎯	-10.9905
▁ㄌㄚˋ1쎯	-10.9905
▁ㄍㄨㄥ2쎯ㄨˋ2쎯ㄩㄢˊ2쎯	-10.9906
ㄉㄧˊ5쎯	-10.9911
▁ㄔㄠ4쎯ㄩㄝˋ5쎯	-10.9911
▁ㄐㄧㄠ6쎯ㄨㄟˇ5쎯	-10.9919
ㄍㄡˋ0쎯	-10.992
ㄏㄜˋ3쎯	-10.992
▁ㄐㄧ13쎯ㄏㄨㄛˋ1쎯	-10.9921
▁ㄅㄧㄥ1쎯ㄖㄨˋ0쎯	-10.9923
▁ㄍㄞˇ쎯ㄓˋ3쎯	-10.9925
▁ㄒㄩˋ2쎯ㄕㄨˋ2쎯	-10.9926
▁ㄈㄥ3쎯ㄅㄧˋ3쎯	-10.9926
▁ㄐㄧㄢˇ8쎯ㄐㄧㄝˊ2쎯	-10.9926
▁ㄒㄧㄤ0쎯ㄔㄤˊ0쎯	-10.9933
ㄐㄧㄢˋ8쎯	-10.9933
▁ㄏㄜˊ0쎯	-10.9934
▁̇ㄉㄜ0쎯ㄇㄧㄥˊ0쎯	-10.9939
▁ㄇㄧㄢˊ2쎯ㄏㄨㄚ0쎯	-10.994
▁ㄐㄧㄝ0쎯ㄗㄡˋ0쎯	-10.994
▁ㄅㄧㄥˋ0쎯ㄌㄧˇ3쎯	-10.994
▁ㄅㄧㄢ1쎯ㄖㄨˋ0쎯	-10.9941
ㄌㄞˋ1쎯	-10.9941
▁ㄏㄨㄣ0쎯	-10.9941
▁ㄔㄠˊ1쎯ㄊㄧㄥˊ0쎯	-10.9942
▁ㄔㄨㄥˊ2쎯ㄈㄨˋ7쎯	-10.9943
▁ㄓㄥ8쎯ㄑㄧˋ3쎯	-10.9943
ㄅㄛˊ5쎯ㄨˋ3쎯ㄩㄢˋ2쎯	-10.9944
▁쎁쎁쎈	-10.9944
ㄌㄧㄥˊ8쎯	-10.9945
▁ㄆㄧㄥˊ1쎯ㄒㄩㄢˇ0쎯	-10.9948
▁ㄑㄩㄢˊ2쎯ㄓㄡ1쎯	-10.9949
ㄧㄡˊ5쎯ㄒㄧˋ0쎯	-10.9957
ㄔㄠ2쎯	-10.9957
ㄎㄨㄛˋ1쎯	-10.9958
ㄧㄤˇ2쎯ㄏㄨㄚˋ0쎯	-10.9959
▁ㄑㄧˋ7쎯ㄒㄧㄝˋ4쎯	-10.9961
▁ㄅㄨˋ4쎯ㄕㄡˇ2쎯	-10.9962
ㄔㄚˋ1쎯	-10.9962
▁ㄐㄩ0쎯	-10.9964
▁ㄏㄨˋ1쎯ㄒㄧㄥˊ2쎯	-10.9965
▁ㄔㄢˊ3쎯	-10.9965
▁ㄑㄧ6쎯	-10.997
ㄗㄨㄛˇ0쎯	-10.997
▁ㄐㄩ4쎯ㄕㄨㄟˋ0쎯	-10.9971
ㄌㄧˇ3쎯ㄍㄨㄥ0쎯	-10.9972
▁ㄕㄥ1쎯ㄩˋ3쎯	-10.9973
▁ㄐㄧˇ3쎯ㄋㄚ1쎯ㄕˋ4쎯	-10.9976
▁ㄧㄝˋ0쎯ㄐㄧㄝˋ3쎯	-10.9981
▁ㄐㄧㄠˋ1쎯ㄉㄜˊ0쎯	-10.9984
▁ㄐㄧㄣˋ2쎯	-10.9985
▁ㄒㄩㄣ0쎯ㄓㄤ1쎯	-10.9987
▁쎂쎃쎀	-10.999
▁ㄅㄠˋ0쎯ㄓˇ3쎯	-10.9991
▁ㄖㄨˋ0쎯ㄎㄡˇ쎯	-10.9994
ㄅㄨˇ1쎯	-10.9995
▁ㄈㄥ1쎯ㄕ6쎯	-10.9996
▁ㄒㄧㄥˋ3쎯ㄕˋ1쎯	-11
▁ㄉㄠˇ2쎯	-11
▁ㄒㄧㄠˇ0쎯ㄩˊ0쎯	-11.0001
▁ㄅㄧㄠ0쎯ㄅㄣˇ0쎯	-11.0006
▁ㄈㄣ0쎯ㄅㄧˋ5쎯	-11.0008
▁ㄡ0쎯ㄋㄟˋ쎯	-11.0009
▁ㄑㄧㄥ0쎯ㄏㄞˇ0쎯ㄕㄥˇ0쎯	-11.001
▁ㄎㄠˋ1쎯ㄐㄧㄣˋ1쎯	-11.001
ㄅㄤˇ1쎯	-11.0013
▁ㄅㄠˋ0쎯ㄐㄧㄥˇ2쎯	-11.0015
ㄌㄧㄝˋ1쎯	-11.0017
▁ㄎㄨㄣ1쎯	-11.0017
▁ㄊㄢˊ3쎯	-11.0019
▁ㄈㄢ2쎯ㄔㄠˇ쎯	-11.0019
ㄌㄧㄢˊ2쎯	-11.0021
▁ㄌㄨㄛˇ0쎯	-11.0021
▁쎁쎇쎆	-11.0022
▁ㄕㄨㄣˋ0쎯ㄒㄩˋ1쎯	-11.0023
쎀쎈쎀	-11.0024
ㄕㄨㄣˋ2쎯	-11.0027
▁ㄐㄧㄚˋ0쎯ㄓˊ3쎯	-11.0029
ㄕˊ1쎯ㄉㄞˋ0쎯	-11.0032
ㄌㄧㄤˇ0쎯	-11.0033
ㄉㄨㄥˇ0쎯	-11.0037
▁ㄧㄡˇ0쎯ㄧˋ16쎯	-11.004
▁ㄒㄧㄤˇ2쎯ㄒㄧㄤˋ2쎯	-11.0043
▁ㄔㄤˊ0쎯ㄕㄚ2쎯ㄕˋ4쎯	-11.0048
▁ㄒㄧㄥˋ2쎯ㄅㄧㄝˊ0쎯	-11.0054
ㄏㄞˊ0쎯	-11.0057
▁ㄓㄥˋ3쎯ㄨˋ2쎯	-11.0059
쎁쎉쎆	-11.006
ㄋㄧㄝˋ3쎯	-11.0062
▁ㄍㄨˇ2쎯ㄈㄣˋ0쎯ㄓˋ3쎯	-11.0063
▁ㄈㄢˋ2쎯ㄓˇ4쎯	-11.0064
▁ㄨㄟˊ0쎯ㄕㄣˊ0쎯	-11.0066
▁ㄐㄧˋ17쎯	-11.0067
▁ㄔㄤˊ1쎯ㄍㄜˇ1쎯	-11.0074
▁ㄨㄞˋ쎯ㄎㄜˊ쎯	-11.0074
▁ㄒㄧㄝˊ7쎯ㄉㄞˋ1쎯	-11.0077
▁ㄧㄣˇ0쎯ㄌㄧㄥˇ1쎯	-11.0082
▁ㄍㄞˇ쎯ㄔㄣˋ1쎯	-11.0085
,	-11.0086
▁ㄅㄨˋ4쎯ㄐㄧㄢˋ1쎯	-11.0086
▁ㄍㄨㄥ0쎯ㄨㄟˇ5쎯	-11.0088
▁ㄕㄨㄟˇ쎯ㄐㄧㄥ5쎯	-11.0088
ㄕㄨㄞ0쎯	-11.009
ㄔㄤˊ5쎯	-11.0092
▁ㄌㄧㄣˊ0쎯ㄐㄧㄣˋ1쎯	-11.0102
▁ㄒㄧ18쎯	-11.0104
▁ㄍㄜ7쎯ㄨˇ7쎯	-11.0105
▁ㄋㄧㄥˊ3쎯ㄇㄥˊ2쎯	-11.0107
▁ㄗㄠˋ4쎯	-11.011
▁ㄉㄨㄥ0쎯ㄍㄨㄢˇ2쎯ㄕˋ4쎯	-11.0113
ㄏㄜˊ3쎯ㄋㄚ1쎯	-11.0114
▁ㄔㄨㄢˊ0쎯ㄖㄢˇ1쎯	-11.0118
▁ㄆㄢˋ3쎯	-11.012
▁ㄆㄨˇ1쎯ㄉㄨㄥ0쎯	-11.0121
ㄕㄨㄟˋ0쎯ㄇㄧㄥˊ1쎯ㄕㄨ0쎯	-11.0123
▁ㄧㄥ0쎯ㄐㄧˊ5쎯	-11.0124
▁ㄕㄡ쎯ㄍㄡˋ1쎯	-11.0125
▁ㄅㄧㄢ0쎯ㄐㄧㄝˋ3쎯	-11.0127
▁ㄑㄩㄢˊ0쎯ㄌㄧˋ0쎯	-11.013
▁ㄈㄣ0쎯ㄌㄧㄝˋ4쎯	-11.0132
▁ㄒㄧㄚˋ0쎯ㄧㄡˊ5쎯	-11.0133
ㄑㄧ5쎯	-11.0134
▁ㄊㄞ0쎯ㄕˋ5쎯	-11.0135
ㄍㄨㄟ1쎯	-11.0135
ㄓˇ1쎯	-11.0135
▁ㄉㄨㄟˋ1쎯ㄅㄧˇ1쎯	-11.0141
▁ㄖㄨㄥˊ9쎯ㄖㄨˋ0쎯	-11.0142
▁ㄕㄨˋ3쎯ㄓ10쎯	-11.0147
▁α	-11.0148
▁ㄌㄩˋ2쎯ㄒㄧㄢ1쎯	-11.0149
▁ㄅㄟˇ쎯ㄉㄚˋ쎯	-11.0151
ㄐㄧㄣˇ2쎯	-11.0151
ㄧㄢˋ6쎯	-11.0153
▁ㄜ	-11.0157
▁ㄌㄟˋ0쎯	-11.0159
▁ㄈㄨˇ5쎯ㄌㄧㄠˋ0쎯	-11.016
▁ㄅㄠˇ2쎯ㄉㄧㄥˋ1쎯	-11.0161
▁ㄉㄚˋ쎯ㄉㄡ0쎯	-11.0162
ㄐㄧㄤ0쎯ㄡ0쎯	-11.0165
▁ㄧ0쎯ㄅㄢˋ1쎯	-11.0166
▁い	-11.0169
▁ㄇㄥˊ0쎯	-11.017
▁ㄅㄠˇ1쎯ㄅㄠˇ1쎯	-11.0176
▁ㄕˋ12쎯ㄨㄟˊ0쎯	-11.0177
▁ㄏㄨㄟˋ18쎯	-11.0177
ㄕˊ1쎯ㄏㄡˋ2쎯	-11.0179
▁ㄅㄣˇ0쎯ㄓˋ4쎯	-11.018
ㄆㄧㄣˊ0쎯ㄎㄨㄣˋ쎯ㄘㄨㄣ0쎯	-11.0182
ㄊㄞ2쎯	-11.0185
▁ㄓˊ1쎯ㄒㄧㄢˋ3쎯	-11.0188
▁ㄏㄨㄚˊ1쎯ㄌㄧˊ0쎯	-11.0188
ㄐㄧㄝˋ1쎯	-11.0191
ㄧㄣˇ5쎯	-11.0193
▁ㄖㄨㄥˊ9쎯ㄗ2쎯	-11.0193
ㄆㄧㄣˋ0쎯	-11.0194
▁ㄧㄠˋ0쎯ㄩㄥˋ0쎯	-11.0195
ㄨㄢˇ4쎯	-11.0195
쎀쎅쎀	-11.0198
▁ㄇㄧㄢˋ0쎯ㄅㄠ0쎯	-11.0205
ㄔㄢˇ0쎯ㄑㄩㄢˊ0쎯	-11.0206
ㄙㄨㄛˇ0쎯ㄨㄟˋ6쎯	-11.0211
▁ㄙㄨㄟˊ3쎯	-11.0214
▁ㄩˊ7쎯	-11.0214
ㄩˋ6쎯	-11.0215
▁ㄧ4쎯ㄖㄢˊ0쎯	-11.0219
ㄑㄧㄢˊ4쎯	-11.0219
▁ㄧㄣ4쎯ㄒㄧㄠˋ3쎯	-11.0219
ㄚ1쎯	-11.022
▁ㄓㄨㄤˋ2쎯	-11.0222
▁ㄉㄨㄥ0쎯ㄏㄞˇ0쎯	-11.0226
▁ㄕㄨ5쎯	-11.0228
▁ㄏㄨㄥˊ1쎯ㄑㄧˊ8쎯	-11.0228
▁ㄒㄧㄥˊ1쎯ㄕˋ7쎯	-11.0229
▁ㄏㄨㄟˊ0쎯ㄗㄨˊ1쎯	-11.023
▁ㄉㄧㄥˋ1쎯ㄐㄩ1쎯	-11.0233
▁ㄨˇ0쎯ㄐㄧㄣ3쎯	-11.0233
▁ㄌㄚ0쎯ㄐㄧ5쎯	-11.0233
▁ㄅㄟˇ쎯ㄇㄧㄢˋ0쎯	-11.0234
▁ㄅㄧㄢ6쎯	-11.0235
▁ㄉㄨㄣˋ3쎯	-11.0239
▁ㄙ2쎯ㄖㄣˊ0쎯	-11.024
▁ㄍㄠ0쎯ㄓˊ4쎯	-11.0243
▁ㄐㄧㄣ2쎯ㄖˋ0쎯	-11.0246
ˊ18쎯	-11.0248
▁ㄙㄨˋ1쎯	-11.0249
▁ㄊㄜˋ0쎯ㄔㄢˇ0쎯	-11.0251
ㄋㄧˇ1쎯	-11.0251
ㄋㄨㄥˊ	-11.0252
▁ㄗˋ1쎯ㄇㄨˇ0쎯	-11.0252
▁ㄒㄧㄢˋ5쎯	-11.0257
▁ㄉㄧㄢˋ0쎯ㄗㄨˇ0쎯	-11.0258
▁ㄙㄚˇ0쎯	-11.0259
ㄢ0쎯ㄏㄨㄟ4쎯	-11.0259
▁ㄒㄧㄤ2쎯ㄘㄞˋ0쎯	-11.026
▁ㄗˋ0쎯ㄩㄢˋ3쎯	-11.0263
▁ㄕˊ4쎯ㄆㄨˇ3쎯	-11.0264
▁ㄕㄢ1쎯ㄔㄨˊ0쎯	-11.0268
▁ㄨㄟ3쎯ㄇㄧˇ0쎯	-11.027
ㄊㄥˊ4쎯	-11.0272
▁ㄓㄨ1쎯ㄏㄞˇ0쎯	-11.0272
ㄕㄢ0쎯ㄒㄧㄤ0쎯	-11.0272
▁ㄉㄧˇ1쎯ㄅㄨˋ4쎯	-11.0272
ㄖㄨㄟˋ4쎯	-11.0275
▁ㄌㄧㄥˇ1쎯ㄒㄧㄡˋ1쎯	-11.0276
▁ㄓˋ12쎯	-11.0278
▁ㄡˇ1쎯ㄒㄧㄤˋ3쎯	-11.028
▁ㄕㄣˇ1쎯ㄏㄜˊ5쎯	-11.0281
▁ㄑㄧㄢˊ0쎯ㄨㄟˋ0쎯	-11.0282
ㄊㄚ0쎯	-11.0282
▁ㄒㄧ1쎯ㄏㄢˋ0쎯	-11.0282
▁ㄈㄚ쎯ㄖㄜˋ쎯	-11.0287
▁ㄧㄢˋ0쎯	-11.0288
▁ㄅㄟˇ쎯ㄘㄜˋ2쎯	-11.0292
▁ㄙㄢ0쎯ㄒㄧㄥ1쎯	-11.0294
▁ㄆㄧㄥˊ0쎯ㄢ0쎯	-11.0294
▁ㄌㄧㄥˊ2쎯ㄇㄧㄣˇ3쎯	-11.0294
▁ㄖˋ0쎯ㄧˋ15쎯	-11.0296
ㄑㄩˊ11쎯	-11.0298
▁ㄊㄨㄥˇ0쎯ㄔㄣˋ1쎯	-11.0298
ㄒㄧㄥˋ3쎯ㄇㄧㄥˊ0쎯	-11.0299
▁ㄨㄣˊ1쎯ㄕˋ10쎯	-11.0299
▁ㄉㄠˋ3쎯ㄐㄧㄠ6쎯	-11.0303
▁ㄓㄥ0쎯ㄇㄧㄢˋ0쎯	-11.0304
▁ㄘˊ4쎯ㄉㄧㄢˇ0쎯	-11.0307
▁ㄔㄤˊ4쎯ㄌㄨˋ3쎯	-11.0307
▁ㄌㄧˋ3쎯ㄐㄧˊ4쎯	-11.0308
ㄕˊ0쎯ㄐㄧㄡˇ0쎯	-11.0311
▁ㄓㄡ4쎯	-11.0313
▁ㄐㄩㄝˊ2쎯ㄩㄢˊ7쎯	-11.0313
ㄕˋ19쎯	-11.0314
▁ㄌㄧㄢˊ4쎯ㄌㄠˋ0쎯	-11.0315
▁ㄘㄞˊ3쎯	-11.0317
ㄌㄧˇ2쎯ㄙ4쎯	-11.0318
▁ㄉㄧˋ3쎯ㄅㄚ0쎯	-11.0318
ㄎㄡˋ1쎯	-11.0319
▁ㄓㄣ4쎯ㄐㄩㄣ4쎯	-11.0321
▁ㄐㄧㄤ2쎯ㄆㄧㄢ0쎯	-11.0323
▁ㄏㄠˋ1쎯	-11.0323
▁ㄓˊ0쎯ㄉㄠˇ0쎯	-11.0323
▁ㄊㄞ1쎯	-11.0326
▁ㄔㄢˊ0쎯ㄧ0쎯	-11.033
▁ㄐㄧ8쎯ㄖㄡˋ쎯	-11.0334
▁쎁쎁쎆	-11.0335
▁ㄍㄨㄤ0쎯ㄇㄧㄥˊ1쎯	-11.0341
▁ㄎㄣˇ0쎯ㄉㄧㄥˋ1쎯	-11.0341
▁ㄌㄥˇ쎯ㄕㄨㄟˇ쎯	-11.0343
▁ㄓㄢ0쎯ㄧㄡˇ1쎯	-11.0348
ㄏㄤˊ2쎯	-11.0348
▁н	-11.035
▁ㄊㄨㄥˊ0쎯ㄌㄟˋ2쎯	-11.0352
ㄒㄧㄥˋ3쎯	-11.0352
ㄇㄤˊ4쎯	-11.0354
ㄗㄠˋ0쎯	-11.036
▁ㄘ0쎯ㄕˇ0쎯	-11.036
ㄓㄡ1쎯ㄡ0쎯	-11.036
▁ㄆㄧㄠ0쎯ㄌㄧㄤˋ0쎯	-11.0365
ㄌㄩˋ3쎯	-11.037
ㄍㄨㄣˋ쎯	-11.0373
▁ㄊㄨㄥ0쎯ㄙㄨˊ쎯	-11.0374
▁ㄐㄧㄢˇ8쎯ㄊㄧ0쎯	-11.0374
▁ㄅㄧㄢˋ1쎯ㄕˋ15쎯	-11.0376
ㄕˋ3	-11.0378
▁ㄈㄚ쎯ㄉㄠˋ0쎯	-11.0379
▁ㄊㄜˋ0쎯ㄧㄠ2쎯	-11.038
▁ㄅㄨˋ2쎯ㄓㄡˋ4쎯	-11.0383
▁ㄉㄠˇ0쎯ㄒㄧㄤˋ0쎯	-11.0383
ㄘㄞˊ3쎯	-11.0384
▁ㄊㄧㄢ0쎯ㄑㄧˋ0쎯	-11.0385
▁ㄕㄣˋ2쎯	-11.0387
ㄎㄜ1	-11.0399
ㄖㄨㄢˇ0쎯ㄐㄧㄢˋ1쎯	-11.04
▁ㄖㄣˊ3쎯ㄧˋ18쎯	-11.0404
ㄩˋ3	-11.0407
▁ㄏㄨㄚˊ1쎯ㄒㄧㄚˋ1쎯	-11.0409
▁ㄨㄞˋ쎯ㄔㄨ0쎯	-11.0411
▁ㄊㄜˋ0쎯ㄆㄧㄣˋ0쎯	-11.0412
ㄓㄤ3쎯	-11.0413
ㄏㄨㄢˋ6쎯	-11.0413
ㄕˊ0쎯ㄅㄚ0쎯	-11.0416
ㄋㄞˋ1쎯	-11.0417
▁ㄨㄢˇ2쎯ㄐㄧ13쎯	-11.0417
▁ㄧㄣˋ0쎯ㄒㄧㄤˋ2쎯	-11.0417
▁ㄠ1쎯	-11.0419
▁ㄇㄠˋ3쎯	-11.042
▁ㄐㄧㄥˋ2쎯ㄐㄧˋ2쎯	-11.0421
▁ㄐㄧㄣˇ0쎯ㄧㄡˇ1쎯	-11.0424
▁ㄓㄣˇ0쎯ㄌㄧㄠˊ1쎯	-11.0424
ㄙ4쎯ㄐㄧ12쎯	-11.0426
▁ㄕㄨˋ3쎯ㄌㄧˋ3쎯	-11.0429
▁ㄍㄜ6쎯	-11.043
▁ㄓㄨˋ7쎯ㄔㄣˋ1쎯	-11.043
▁ㄧˋ18쎯ㄨㄟˊ0쎯	-11.0431
ㄐㄧ6쎯ㄍㄨㄢ0쎯	-11.0433
▁ㄌㄞˋ1쎯	-11.0436
▁ㄉㄞˋ1쎯ㄉㄨㄥˋ0쎯	-11.0436
ㄑㄧㄣ0쎯	-11.0438
ㄆㄧˊ4쎯	-11.0442
▁ㄕˋ21쎯	-11.0442
▁ㄐㄧㄥˋ6쎯ㄇㄞˋ3쎯	-11.0444
▁ㄕˊ3쎯ㄒㄧˊ0쎯	-11.0444
▁ㄗ2쎯ㄓㄨˋ0쎯	-11.0449
ㄕˋ22쎯	-11.045
▁ㄒㄧㄣˋ0쎯ㄌㄞˋ1쎯	-11.0451
▁ㄑㄧㄥ0쎯ㄉㄠˇ1쎯ㄕˋ4쎯	-11.0452
▁ㄑㄧˇ4쎯ㄘㄠˇ쎯	-11.0454
ㄘㄠˊ0쎯	-11.0455
ㄓㄣ2쎯	-11.0459
ㄅㄚ4쎯	-11.0463
▁ㄎㄢ3쎯ㄔㄣˋ1쎯	-11.0463
▁ㄏㄞ0쎯ㄙㄡˋ쎯	-11.047
▁ㄏㄨㄥˊ1쎯ㄨㄞˋ쎯	-11.0474
ㄍㄢˇ3쎯ㄉㄠˋ0쎯	-11.0475
▁ㄊㄨㄥ0쎯ㄈㄥ1쎯	-11.0477
▁ㄊㄧㄥˊ3쎯ㄔㄜ0쎯ㄔㄤˊ1쎯	-11.0478
▁ㄓㄢ1쎯	-11.0478
▁ㄨㄞˋ쎯ㄅㄧㄠˇ0쎯	-11.0479
▁ㄐㄧㄢˋ6쎯ㄆㄧˊ3쎯	-11.048
▁ㄑㄧˊ6쎯ㄕˋ0쎯	-11.048
ㄏㄨㄚˋ0쎯ㄍㄨㄥ0쎯	-11.0481
▁ㄏㄨㄟˊ0쎯ㄧˋ3쎯	-11.0482
▁ㄒㄧˋ1쎯ㄓˋ7쎯	-11.0488
▁ㄍㄨㄛˊ0쎯ㄩˇ6쎯	-11.0491
▁ㄐㄧㄣˋ0쎯ㄏㄨㄚˋ0쎯	-11.0492
ㄌㄚˋ1쎯	-11.0492
▁ㄐㄧㄣ3쎯ㄆㄞˊ2쎯	-11.0496
▁ㄐㄧㄡˇ0쎯ㄌㄨㄥˊ0쎯	-11.0497
ㄓㄨㄥ0쎯ㄑㄧㄥ0쎯ㄋㄧㄢˊ0쎯	-11.0501
▁ㄉㄚˋ쎯ㄊㄨㄥˊ0쎯	-11.0501
▁ㄏㄨˊ5쎯ㄅㄛˊ1쎯	-11.0501
▁ㄑㄩㄢˊ1쎯ㄗ2쎯	-11.0502
ㄖㄣˊ0쎯ㄨㄟˊ0쎯ㄅㄣˇ0쎯	-11.0506
ㄆㄢˊ0쎯	-11.0511
▁ㄆㄟˋ2쎯ㄌㄧㄠˋ0쎯	-11.0513
▁ㄉㄧㄢˋ0쎯ㄓㄢˋ2쎯	-11.0518
▁ㄊㄧ0쎯ㄒㄧㄥˊ2쎯	-11.0519
▁ㄒㄧㄡ1쎯ㄉㄧㄥˋ0쎯	-11.0521
ㄈㄨˋ14쎯	-11.0522
▁ㄖㄨㄥˊ6쎯ㄐㄧˋ8쎯	-11.0522
ㄆㄤˊ0쎯	-11.0522
ㄍㄚ5쎯	-11.0524
▁ㄉㄤ0쎯ㄍㄨㄟ0쎯	-11.0526
▁ㄕㄣˇ1쎯ㄆㄧ0쎯	-11.0527
ㄕㄞˋ쎯	-11.0529
▁ㄑㄧㄥ0쎯ㄌㄞˋ0쎯	-11.0531
▁ㄘㄞˋ0쎯ㄔㄢˊ0쎯	-11.0532
ㄧㄚˊ3쎯	-11.0537
ㄗㄚˊ0쎯ㄓˋ1쎯	-11.0543
▁ㄐㄧ6쎯ㄊㄧ0쎯	-11.0545
ㄈㄥˊ2쎯	-11.0546
ㄉㄧ0쎯	-11.0548
▁ㄡˇ0쎯	-11.0549
▁쎁쎀쎀쎀쎀	-11.0549
▁ㄐㄧ0쎯ㄏㄜˊ1쎯	-11.0552
▁ㄑㄩˇ0쎯ㄉㄞˋ0쎯	-11.0554
▁ㄉㄨㄟˋ1쎯ㄓㄠˋ2쎯	-11.0554
▁ㄕㄡ쎯ㄙㄨˋ8쎯	-11.0555
ㄑㄧㄥ0쎯ㄉㄠˇ1쎯	-11.0557
▁ㄊㄧㄢ0쎯ㄒㄧㄢˋ3쎯	-11.0557
▁ㄦˋ0쎯ㄕˊ0쎯ㄙˋ1쎯	-11.0557
▁ㄔㄠ5쎯	-11.0561
▁쎁쎉쎁쎂	-11.0566
ㄑㄧˊ23쎯	-11.0567
ㄉㄨㄛˇ0쎯	-11.0568
ㄒㄧㄢˊ0쎯	-11.0576
▁ㄓˋ5쎯ㄢ0쎯	-11.0576
▁ㄒㄧ1쎯ㄅㄧㄢ0쎯	-11.0577
▁쎁쎀쎁	-11.0577
ㄩˋ16쎯	-11.0577
▁ㄊㄧㄝˇ쎯ㄌㄨˋ5쎯ㄐㄩˊ0쎯	-11.0578
▁ㄨㄣˊ0쎯ㄕㄨ0쎯	-11.0581
▁ㄕˊ1쎯ㄎㄜˋ1쎯	-11.0585
▁ㄧㄣˇ5쎯	-11.0587
▁ㄍㄨㄤˇ0쎯ㄎㄨㄛˋ2쎯	-11.0587
▁ㄐㄧ12쎯ㄉㄨ0쎯ㄐㄧㄠ6쎯	-11.0591
ㄗㄠˊ쎯	-11.0591
▁쎇쎅쎀	-11.0596
ㄌㄧㄠˋ4쎯	-11.0596
▁ㄋㄚ0쎯ㄧㄤˋ0쎯	-11.0599
▁ㄆㄟ0쎯	-11.0601
▁ㄕㄨㄤˇ쎯	-11.0603
▁ㄅㄧㄠˇ0쎯ㄓㄤ2쎯	-11.0607
▁ii	-11.0607
ㄌㄧㄡˊ5쎯	-11.061
▁ㄔㄨˇ2쎯ㄘㄨㄣˊ쎯	-11.0613
▁ㄕ3쎯ㄐㄧˊ8쎯	-11.0613
ㄧㄣ8쎯	-11.0615
ㄆㄛˋ1쎯	-11.0615
▁ㄋㄚ1쎯ㄊㄨㄥ0쎯	-11.0616
ㄏㄨㄟ4쎯	-11.0618
▁ㄈㄨˋ4쎯ㄐㄧㄚ0쎯	-11.0619
▁ㄑㄧㄣ0쎯	-11.0628
ㄘㄢˊ0쎯	-11.063
▁ㄙㄢ0쎯ㄨㄟˊ6쎯	-11.0632
ㄌㄨㄥˋ0쎯	-11.0636
▁ㄙㄨˋ4쎯ㄕㄜˇ쎯	-11.0637
ㄐㄧㄣ3쎯ㄏㄨㄤˊ1쎯ㄙㄜˋ0쎯	-11.0637
▁ㄙㄨˋ6쎯ㄐㄧㄠ5쎯	-11.0638
▁ㄐㄧㄝˊ6쎯ㄓˇ0쎯	-11.0638
▁ㄕㄣˇ0쎯ㄧㄤˊ2쎯ㄕˋ4쎯	-11.064
▁ㄉㄨㄥ0쎯ㄅㄧㄢ0쎯	-11.0641
ㄙㄨㄢ0쎯ㄧㄢˊ7쎯	-11.0641
ㄑㄧˊ6쎯	-11.0642
▁ㄊㄠˇ쎯	-11.0647
▁ㄕㄜˋ6쎯ㄒㄧㄤˋ3쎯ㄐㄧ6쎯	-11.0651
▁ㄌㄧㄥˊ10쎯ㄐㄧㄢˋ1쎯	-11.0651
▁쎄ㄇㄛˋ0쎯	-11.0653
ㄑㄧㄥ1쎯	-11.0654
▁ㄌㄩˇ6쎯ㄏㄤˊ0쎯	-11.0657
▁ㄧㄢˊ0쎯ㄢ0쎯	-11.0663
▁ㄘㄤˊ쎯ㄕㄨ0쎯	-11.0664
ㄧㄚ4쎯	-11.0665
▁ㄧˋ6쎯ㄎㄜˇ0쎯	-11.0667
ㄓㄨㄥ2쎯	-11.0668
▁ㄐㄩㄣ0쎯ㄒㄧㄢˊ4쎯	-11.0668
▁ㄕˇ1쎯	-11.0669
▁ㄑㄧㄥ5쎯ㄔㄨˇ3쎯	-11.067
▁ㄓˋ17쎯	-11.0672
▁ㄐㄧㄥ1쎯ㄐㄩˋ4쎯	-11.0673
ㄒㄧㄚ0쎯	-11.0676
▁ㄩㄥˇ1쎯	-11.0676
ㄧˋ16쎯	-11.0677
▁ㄋㄚ1쎯ㄅㄧㄢ0쎯	-11.0677
▁ㄓㄢˋ1쎯ㄔㄤˊ1쎯	-11.0678
▁쎈쎀쎀쎀	-11.0678
▁ㄍㄜ7쎯ㄔㄤˋ2쎯	-11.0682
▁ㄐㄧˋ2쎯ㄧˋ2쎯	-11.0682
▁ㄕˋ7쎯ㄌㄧˋ0쎯	-11.0682
▁ㄡ0쎯ㄓㄥˋ3쎯ㄈㄨˇ3쎯	-11.0683
ㄌㄟˊ0쎯	-11.0684
ㄐㄧ6쎯ㄒㄧㄝˋ4쎯	-11.0685
ㄗㄠˇ0쎯	-11.0685
▁ㄗㄥ0쎯ㄓˊ3쎯	-11.0689
▁ㄏㄨㄟˋ2쎯ㄓㄢˇ2쎯	-11.069
▁ㄉㄨˋ4쎯	-11.0692
ㄎㄣˇ0쎯	-11.0694
ㄧˋ19쎯	-11.0694
▁ㄘㄢˇ0쎯	-11.0694
▁쎃쎀ㄇㄛˋ0쎯	-11.0697
▁ㄐㄧㄚˇ0쎯ㄐㄧˊ2쎯	-11.0698
▁ㄈㄨˋ3쎯ㄔㄢˇ0쎯ㄎㄜ2쎯	-11.07
▁ㄖㄣˊ0쎯ㄘㄢ0쎯	-11.0701
▁ㄩˊ30쎯	-11.0704
▁ㄓㄥˋ3쎯ㄍㄨㄥ0쎯	-11.0705
▁ㄑㄧㄝ쎯ㄍㄜ6쎯	-11.0706
▁ㄅㄠˇ2쎯ㄨㄣ0쎯	-11.0707
▁ㄎㄨㄤˋ2쎯ㄧㄝˋ0쎯	-11.0708
▁ㄓˋ0쎯ㄕㄠˇ쎯	-11.071
▁ㄌㄨㄥˊ0쎯ㄧㄢˊ3쎯	-11.0711
ㄕㄢˋ4쎯	-11.0714
▁ㄓ1쎯ㄑㄧˋ0쎯ㄍㄨㄢˇ1쎯	-11.0718
ㄨˋ9쎯	-11.0718
▁ㄐㄧㄠˋ2쎯ㄕㄜˇ쎯	-11.0719
▁ㄒㄧㄝˊ1쎯ㄗㄨㄛ0쎯	-11.0723
▁ㄇㄢˋ2쎯ㄇㄢˋ2쎯	-11.0724
▁쎁쎁쎂	-11.0725
▁ㄍㄤ7쎯	-11.0725
▁ㄕㄨㄟˋ0쎯ㄏㄨㄚˋ2쎯	-11.0726
▁ㄐㄧˇ1쎯ㄌㄨˋ0쎯	-11.0726
ㄨㄚˊ쎯	-11.0726
▁ㄇㄧㄢˋ0쎯ㄑㄧㄢˊ0쎯	-11.0726
▁ㄍㄠ0쎯ㄦˇ0쎯ㄈㄨ0쎯	-11.0728
ㄘㄨㄟˋ0쎯	-11.0729
▁ㄇㄣˋ0쎯	-11.073
ㄇㄚ0쎯	-11.0733
▁ㄒㄧㄢˋ3쎯ㄊㄧㄠˊ0쎯	-11.0734
ㄐㄧㄝˋ3쎯ㄉㄚˋ쎯ㄓㄢˋ1쎯	-11.0737
ㄑㄩㄢˋ1쎯	-11.074
▁ㄑㄧˊ1쎯ㄏㄡˋ0쎯	-11.0742
▁ㄖㄢˊ1쎯	-11.0745
ㄢ1쎯ㄙㄨㄢ0쎯	-11.0745
▁ㄧ0쎯ㄎㄨㄞˋ0쎯	-11.0749
▁ㄅㄨˋ4쎯ㄌㄚˋ0쎯	-11.0755
▁ㄏㄨㄥˊ0쎯ㄧㄤˊ0쎯	-11.0758
▁ㄕㄠ1쎯ㄎㄞ0쎯	-11.076
▁ㄒㄧㄥˊ0쎯ㄕˋ8쎯	-11.0762
▁ㄖㄢˊ1쎯ㄌㄧㄠˋ0쎯	-11.0764
▁ㄎㄜˇ0쎯ㄧˇ2쎯ㄕㄨㄟˋ0쎯	-11.0766
▁ㄏㄨˊ4쎯ㄌㄨˊ1쎯	-11.0766
▁ㄋㄧㄥˊ0쎯ㄅㄛ1쎯ㄕˋ4쎯	-11.0768
▁ㄅㄨˋ0쎯ㄉㄨㄢˋ1쎯	-11.0769
▁ㄐㄧˊ1쎯ㄒㄧㄤˊ1쎯	-11.0771
▁ㄙˋ1쎯ㄐㄧㄠˇ0쎯	-11.0774
▁ㄓˊ1쎯ㄌㄧㄡˊ3쎯	-11.0776
▁ㄙˋ1쎯ㄈㄤ0쎯	-11.0777
▁ㄇㄟˋ0쎯ㄇㄟˋ0쎯	-11.0781
ㄧㄡˇ2쎯	-11.0787
▁ㄧㄝ0쎯	-11.0787
ㄋㄧㄤˋ쎯	-11.0791
▁ㄉㄧㄢˋ0쎯ㄊㄧ2쎯	-11.0793
▁ㄕㄥ2쎯ㄩˋ15쎯	-11.0794
▁ㄔㄨ0쎯ㄉㄠˋ3쎯	-11.0794
▁ㄉㄧㄥˋ1쎯ㄐㄧ13쎯	-11.08
▁ㄅㄟˇ쎯ㄅㄧㄢ0쎯	-11.0801
▁ㄊㄨㄛ0쎯ㄩㄣˋ1쎯	-11.0802
ㄔㄨㄣˊ1쎯	-11.0803
ㄖㄨˊ1쎯	-11.0806
▁ㄖㄡˊ0쎯ㄖㄨㄢˇ0쎯	-11.0809
▁ㄏㄢˇ0쎯ㄐㄧㄢˋ0쎯	-11.0812
ㄌㄩˇ0쎯	-11.0813
▁ㄒㄧㄥˋ3쎯ㄇㄧㄥˊ0쎯	-11.0813
▁ㄋㄩˇ0쎯ㄕㄥ1쎯	-11.0814
▁ㄉㄧˋ3쎯ㄑㄧ0쎯	-11.0817
▁ㄙ2쎯ㄌㄧˋ3쎯	-11.0819
▁ㄕㄡˇ0쎯ㄉㄨㄥˋ0쎯	-11.082
ㄐㄧㄥ4쎯	-11.0825
ㄇㄠˋ3쎯	-11.0836
▁ㄙˇ쎯ㄏㄡˋ0쎯	-11.084
▁ㄧㄚˋ1쎯ㄖㄜˋ쎯ㄉㄞˋ1쎯	-11.0841
▁ㄈㄣˋ1쎯ㄉㄡˇ0쎯	-11.0841
ㄉㄧˊ3쎯	-11.0842
ㄌㄧㄡˊ1쎯ㄌㄢˇ0쎯ㄑㄧˋ7쎯	-11.0842
▁ㄘˊ5쎯ㄕㄢˋ0쎯	-11.0844
▁ㄉㄢˋ7쎯	-11.0845
ㄓㄤ5쎯	-11.0845
▁ㄈㄟˋ3쎯ㄕㄨㄟˇ쎯	-11.0847
▁ㄊㄤˊ0쎯ㄔㄠˊ1쎯	-11.0848
▁ㄅㄧㄥˋ0쎯ㄅㄧㄢˋ0쎯	-11.0849
▁ㄅㄧ0쎯	-11.0849
▁ㄇㄨˋ0쎯ㄓˋ4쎯	-11.0852
▁ㄐㄩˇ1쎯	-11.0853
ㄘˊ5쎯	-11.0855
▁р	-11.0855
▁ㄧㄢˋ5쎯ㄕㄡ쎯	-11.0857
▁ㄒㄩㄣ1쎯	-11.0861
ㄉㄨㄥ0쎯ㄒㄧㄢˋ0쎯	-11.0862
▁ㄏㄨˊ0쎯	-11.0866
▁ㄧㄣ1쎯ㄧㄤˊ2쎯	-11.0874
▁е	-11.0874
▁ㄡ0쎯ㄨㄟˋ2쎯	-11.0875
▁ㄨㄤˇ0쎯ㄑㄧㄡˊ2쎯	-11.0876
▁ㄘㄢ0쎯ㄇㄡˊ0쎯	-11.0877
ㄘㄠ0쎯	-11.088
▁ㄓˇ4쎯ㄔㄨ0쎯	-11.0881
▁ㄏㄡˋ0쎯ㄑㄧㄣˊ4쎯	-11.0881
▁ㄇㄧㄣˇ1쎯ㄒㄧ1쎯	-11.0882
ㄕㄣˋ3쎯	-11.0882
▁ㄎㄞ0쎯ㄍㄨㄥ0쎯	-11.0883
▁ㄆㄧㄣˊ0쎯ㄎㄨㄣˋ쎯	-11.0883
▁ㄍㄡ5쎯ㄑㄧˇ7쎯	-11.0884
ㄇㄧˊ6쎯	-11.0884
▁ㄎㄚˇ0쎯ㄆㄧㄢ0쎯	-11.0884
▁ㄎㄨ1쎯	-11.0886
▁ㄙˋ1쎯ㄉㄚˋ쎯	-11.0891
▁ㄕㄣˋ3쎯	-11.0891
▁ㄏㄠˇ0쎯ㄧㄡˇ0쎯	-11.0894
▁ㄋㄨㄥˊ0쎯ㄧㄠˋ0쎯	-11.0896
▁ㄐㄧㄥ8쎯ㄑㄩㄝˋ1쎯	-11.0898
▁ㄊㄧˋ4쎯ㄉㄞˋ0쎯	-11.0905
▁ㄉㄧㄢ1쎯	-11.0905
ㄐㄧㄤ0쎯ㄙㄨ0쎯	-11.0906
▁ㄈㄟ3쎯ㄌㄩˋ0쎯ㄅㄧㄣ0쎯	-11.0906
ㄙㄨㄥ5쎯	-11.0907
▁ㄕㄤ1쎯ㄏㄨㄟˋ2쎯	-11.0907
▁ㄓ7쎯ㄒㄧㄢˋ0쎯	-11.0908
ㄐㄧㄢˋ3쎯	-11.0911
ㄈㄣˊ0쎯	-11.0915
▁ㄐㄧ6쎯ㄑㄧˋ7쎯ㄖㄣˊ0쎯	-11.0916
ㄕˋ9쎯	-11.0917
▁ㄐㄧˋ12쎯ㄙˋ3쎯	-11.0919
ㄘㄨˋ2쎯	-11.0919
▁ㄧˇ2쎯ㄅㄧㄢˋ1쎯	-11.0919
▁ㄓㄨㄤˋ0쎯ㄉㄚˋ쎯	-11.0919
▁ㄈㄣˇ쎯ㄙ1쎯	-11.0922
▁ㄍㄨㄛ0쎯ㄇㄧㄣˇ3쎯	-11.0924
ㄑㄧㄢˇ0쎯	-11.0925
▁ㄅㄢ1쎯ㄔㄤˊ0쎯	-11.0926
▁ㄐㄧˋ13쎯ㄕㄥ1쎯	-11.0928
▁ㄑㄧˋ0쎯ㄓˋ4쎯	-11.0934
▁ㄘˋ0쎯ㄋㄧㄢˊ0쎯	-11.0934
▁ㄗㄞˇ1쎯ㄊㄧ0쎯	-11.0935
ㄉㄚˋ쎯ㄕㄚˋ0쎯	-11.0938
▁ㄕㄨ0쎯ㄒㄧㄝˇ0쎯	-11.0938
▁ㄈㄤˋ쎯ㄉㄚˋ쎯	-11.0942
▁ㄍㄜ7쎯ㄘˊ0쎯	-11.0942
▁ㄧ0쎯ㄍㄨㄢˋ0쎯	-11.0943
▁ㄗㄞ0쎯ㄏㄞˋ2쎯	-11.0944
▁ㄅㄧㄢ3쎯	-11.0946
▁ㄏㄨㄛˊ0쎯ㄒㄧㄝˇ1쎯	-11.0948
▁ㄘㄨㄥ3쎯ㄇㄧㄥˊ1쎯	-11.095
▁ㄕㄡˋ4쎯ㄧ3쎯	-11.0952
▁ㄕˋ8쎯ㄒㄧㄤˋ1쎯	-11.0952
ㄅㄠˇ2쎯ㄓㄤˋ6쎯	-11.0953
ㄨㄟˋ11쎯	-11.0955
▁ㄔˊ4쎯ㄧㄡˇ1쎯	-11.0957
ㄧㄣ2쎯	-11.0958
▁ㄔㄤˊ0쎯ㄉㄚˋ쎯	-11.0958
ㄎㄢ2쎯	-11.096
▁ㄉㄚˋ쎯ㄙㄨㄢˋ0쎯	-11.0961
▁ㄊㄡˊ0쎯ㄊㄨㄥˋ0쎯	-11.0962
▁ㄇㄠˋ1쎯	-11.0963
▁ㄍㄨㄥ0쎯ㄗ2쎯	-11.0963
▁ㄔㄨㄢˊ0쎯ㄉㄨㄥˋ0쎯	-11.0964
▁ㄧㄡˋ2쎯ㄔㄨㄥˊ0쎯	-11.0965
▁ㄉㄧㄢ2쎯	-11.0965
▁ㄔㄤˊ3쎯ㄕˋ11쎯	-11.0967
ㄧㄣˊ7쎯	-11.0969
▁ㄒㄧㄤ1쎯ㄐㄧˋ11쎯	-11.0969
▁쎁쎉쎁쎁	-11.0974
▁ㄕㄢ3쎯ㄏㄨˊ10쎯	-11.0977
▁ㄒㄩㄣˊ4쎯	-11.0978
▁ㄕ4쎯ㄗˇ0쎯	-11.0979
ㄒㄩㄣˋ3쎯	-11.0983
▁ㄏㄨㄟˋ2쎯ㄧˋ4쎯ㄕˋ18쎯	-11.0985
▁ㄍㄨㄥ2쎯ㄇㄧㄣˊ0쎯	-11.0987
▁ㄕ3쎯ㄨㄣˊ0쎯	-11.0992
▁ㄐㄧㄢˋ15쎯	-11.0996
ㄋㄚ1쎯ㄐㄧㄥ1쎯	-11.1001
▁ㄏㄤˊ0쎯ㄓㄥˋ3쎯ㄡ0쎯	-11.1004
▁ㄗㄨㄣ1쎯ㄒㄩㄣˊ4쎯	-11.1004
ㄌㄤˊ1쎯	-11.1004
▁ㄧㄢˊ7쎯ㄧㄝˋ0쎯	-11.1013
ㄌㄧㄥˊ5쎯	-11.1016
▁ㄎㄨㄥˋ0쎯ㄓˋ3쎯ㄑㄧˋ7쎯	-11.1016
▁ㄨㄣˊ0쎯ㄅㄣˇ0쎯	-11.1016
▁ㄧㄣˇ0쎯ㄑㄧㄥˊ2쎯	-11.1017
ㄉㄧㄢˋ6쎯	-11.1023
▁ㄔㄨㄤ1쎯	-11.1023
ㄅㄚˊ1쎯	-11.1038
▁쎁쎉쎂쎄	-11.1039
▁ㄋㄚ1쎯ㄇㄧㄢˋ0쎯	-11.1041
▁ㄗㄡ0쎯	-11.1043
ㄔㄢˇ0쎯ㄉㄤˇ1쎯ㄩㄢˊ2쎯	-11.1045
▁ㄗㄨㄣ1쎯	-11.1047
ㄖㄨㄥˊ6쎯	-11.1048
∶	-11.105
▁ㄅㄢ1쎯ㄓㄨˇ0쎯ㄖㄣˊ3쎯	-11.105
▁ㄧㄣ0쎯ㄗˇ0쎯	-11.1051
ㄒㄩㄝˊ0쎯	-11.1053
▁ㄐㄧㄤ0쎯ㄏㄨˊ5쎯	-11.1055
▁ㄒㄧㄣ0쎯ㄑㄧㄥˊ0쎯	-11.1056
ㄓㄨˋ3쎯ㄘㄜˋ0쎯ㄅㄧㄠˇ0쎯	-11.1059
▁ㄐㄩㄣ1쎯ㄎㄜˇ0쎯	-11.1059
ㄉㄧㄥˋ0쎯	-11.1062
ㄒㄧ29쎯	-11.1063
▁ㄉㄧˋ3쎯ㄐㄧㄡˇ0쎯	-11.1066
▁ㄍㄜ2쎯ㄍㄜ2쎯	-11.1066
▁ㄋㄢˊ1쎯ㄉㄨˋ2쎯	-11.1066
▁ㄕˊ1쎯ㄎㄨㄥ0쎯	-11.1068
ㄇㄡˊ1쎯	-11.1073
▁ㄐㄧㄣˇ1쎯ㄍㄨㄢˇ1쎯	-11.1074
▁ㄎㄜˋ3쎯ㄊㄤˊ1쎯	-11.1074
▁ㄔㄨ1쎯ㄅㄨˋ2쎯	-11.1076
▁ㄙ0쎯ㄌㄧㄥˊ0쎯ㄅㄨˋ4쎯	-11.1077
▁ㄏㄨㄛˊ0쎯ㄆㄛ1쎯	-11.1077
ㄧㄢˊ6쎯ㄐㄧㄡ1쎯ㄩㄢˊ2쎯	-11.1078
▁ㄑㄧㄥ0쎯ㄏㄨㄚ0쎯	-11.1079
▁ㄅㄧㄥ1쎯ㄈㄟ2쎯	-11.1088
▁ㄖㄣˊ0쎯ㄘˋ0쎯	-11.1092
▁ㄔㄨㄤ0쎯ㄎㄢ0쎯	-11.1097
▁ㄙㄨㄣˇ0쎯ㄏㄞˋ2쎯	-11.1098
▁ㄉㄧㄠˋ2쎯ㄧㄢˊ6쎯	-11.1102
▁ㄑㄧㄣ2쎯ㄗˋ0쎯	-11.1103
▁ㄓˇ0쎯ㄊㄨㄥˋ0쎯	-11.1103
ㄕㄚ3쎯	-11.1106
쎂쎅쎁	-11.1111
▁ㄍㄨㄤ0쎯ㄑㄧㄢˋ1쎯	-11.1114
ㄙˋ5쎯	-11.112
ㄨㄟ1쎯ㄦˇ0쎯	-11.1121
▁ㄇㄢˊ1쎯	-11.1122
▁ㄇㄧㄢˇ2쎯ㄉㄧㄢˋ2쎯	-11.1122
▁ㄇㄧㄥˊ0쎯ㄕ2쎯	-11.1123
▁ㄊㄠˊ1쎯ㄏㄨㄚ0쎯	-11.1124
▁ㄘㄢˊ0쎯ㄐㄧˊ6쎯ㄖㄣˊ0쎯	-11.1128
ㄋㄞˇ0쎯	-11.1128
▁ㄍㄨˇ4쎯ㄌㄧˋ5쎯	-11.1128
▁ㄐㄧㄢˇ5쎯ㄔㄚˊ3쎯	-11.1129
▁ㄔㄨ0쎯ㄗㄨ0쎯	-11.1133
▁ㄉㄚˋ쎯ㄉㄡˋ0쎯	-11.1134
▁ㄍㄢˇ3쎯ㄧㄥ0쎯	-11.1135
▁ㄕㄡ쎯ㄈㄟˋ4쎯	-11.1137
ㄧㄠ7쎯	-11.1144
▁ㄐㄧㄠ6쎯ㄔㄥˊ7쎯	-11.1145
▁ㄕㄤ1쎯ㄐㄩㄢ2쎯	-11.1145
▁쎁쎀쎂쎄	-11.1146
▁ㄇㄚˊ1쎯ㄧㄡˊ4쎯	-11.1146
▁ㄕˋ30쎯	-11.1151
▁ㄇㄟˊ4쎯ㄏㄨㄚ0쎯	-11.1151
ㄇㄨˋ9쎯	-11.1154
▁ㄕㄢ0쎯ㄇㄞˋ3쎯	-11.1155
▁ㄌㄧ쎯	-11.1155
쎂쎀쎀쎀	-11.1159
▁ㄏㄥˊ2쎯ㄧㄤˊ2쎯	-11.1159
▁ㄢ1쎯ㄐㄧ12쎯ㄙㄨㄢ0쎯	-11.116
▁ㄅㄧˇ2쎯ㄘˇ0쎯	-11.1169
▁ㄊㄧㄢ0쎯ㄖㄢˊ0쎯ㄑㄧˋ0쎯	-11.1172
▁ㄐㄧㄥ2쎯ㄇㄠˋ2쎯	-11.1172
▁ㄊㄧㄢ0쎯ㄎㄨㄥ0쎯	-11.1173
▁ㄉㄤˇ1쎯ㄗㄨㄥˇ0쎯ㄓ1쎯	-11.1177
▁ㄧㄡˇ1쎯ㄌㄧˋ6쎯ㄩˊ0쎯	-11.1177
▁ㄔㄤˊ4쎯ㄋㄧㄢˊ0쎯	-11.1178
▁ㄓㄠ0쎯ㄕㄤ1쎯	-11.1182
ㄉㄨㄥˋ1쎯	-11.1183
ㄓˋ3쎯ㄆㄧㄣˇ쎯	-11.1184
▁ㄑㄧㄥ5쎯ㄇㄛˋ1쎯	-11.1186
▁ㄓㄨㄥ0쎯ㄉㄨˊ0쎯	-11.1188
▁ㄓㄨㄟˋ0쎯	-11.119
▁ㄍㄡˋ3쎯	-11.1194
ㄊㄠˇ쎯	-11.1194
▁ㄉㄢ1쎯ㄅㄠˇ2쎯	-11.1198
▁ㄑㄧㄢˋ1쎯	-11.1199
ㄕㄨㄟˇ쎯ㄉㄧㄢˋ0쎯ㄓㄢˋ2쎯	-11.1202
▁ㄆㄧㄥˊ0쎯ㄏㄨㄚˊ3쎯	-11.1203
ㄍㄨㄤˇ0쎯ㄔㄤˊ1쎯	-11.1203
▁ㄕˇ3쎯ㄩˊ0쎯	-11.1203
▁ㄋㄚ1쎯ㄘㄜˋ2쎯	-11.1207
▁ㄉㄤˇ1쎯ㄓㄥˋ3쎯	-11.121
▁ㄗㄞ1쎯	-11.1211
ㄓㄨˋ10쎯	-11.1211
▁ㄧㄥˋ1쎯ㄉㄨˋ2쎯	-11.1213
▁ㄕˇ2쎯ㄇㄧㄥˋ쎯	-11.1216
ㄕㄥˊ쎯	-11.1217
ㄏㄨㄢˋ3쎯	-11.1218
▁쎁쎀쎃	-11.1222
▁ㄓㄜˋ0쎯ㄘˋ0쎯	-11.1227
ㄧㄚˋ4쎯	-11.123
▁ㄓㄨ1쎯ㄅㄠˇ1쎯	-11.1233
▁ㄅㄠˇ1쎯ㄅㄟˋ0쎯	-11.1238
▁ㄑㄧˋ7쎯ㄐㄧㄢˋ1쎯	-11.1244
ㄍㄨㄥ0쎯ㄗㄨㄛ0쎯ㄓㄜˇ0쎯	-11.1245
ㄉㄨㄛ0쎯ㄘㄞˇ1쎯	-11.1245
▁̇ㄉㄜ0쎯ㄇㄠˋ4쎯	-11.1248
ㄅㄛˊ5쎯ㄌㄢˇ0쎯ㄏㄨㄟˋ2쎯	-11.1255
ㄔㄠˊ0쎯	-11.1256
ㄔㄤˋ0쎯	-11.1258
▁ㄧ0쎯ㄉㄢˋ1쎯	-11.126
ㄘㄨㄛˋ1쎯	-11.1262
▁ㄅㄢˋ0쎯ㄕˋ8쎯	-11.1266
ㄉㄞ0쎯	-11.1269
ㄐㄧㄢˋ15쎯	-11.1269
▁ㄕㄨㄟˇ쎯ㄩˋ7쎯	-11.1282
▁ㄅㄨˋ1쎯ㄓˋ13쎯	-11.1284
▁ㄩˇ6쎯ㄧㄢˊ2쎯ㄒㄩㄝˊ1쎯	-11.1284
▁ㄐㄧㄝˋ5쎯ㄐㄧㄢˋ12쎯	-11.1287
▁ㄉㄨㄛˋ5쎯	-11.1289
▁ㄩㄢˊ0쎯ㄉㄞˋ0쎯	-11.129
ㄓㄨㄥ0쎯ㄏㄨㄚˊ1쎯	-11.1294
▁ㄧㄢˇ0쎯ㄕㄥ1쎯	-11.1301
▁ㄑㄧˋ0쎯ㄕˋ7쎯	-11.1305
▁ㄊㄠˋ쎯ㄈㄤˊ3쎯	-11.1305
▁ㄕˋ18쎯ㄨㄞˋ쎯	-11.1309
▁ㄉㄚˋ쎯ㄕˇ2쎯	-11.1314
▁ㄕㄡˇ2쎯ㄈㄚ쎯	-11.1314
▁ㄐㄧㄝˊ0쎯	-11.1316
▁ㄏㄨㄥˊ1쎯ㄗㄠˇ1쎯	-11.1317
▁ㄅㄠˋ6쎯ㄅㄨˋ1쎯	-11.1318
▁ㄌㄧㄣˊ3쎯ㄅㄚ1쎯	-11.1318
▁ㄐㄧㄝ6쎯ㄕˋ2쎯	-11.1323
▁ㄅㄧㄢ0쎯ㄡ0쎯	-11.1329
ㄐㄩㄣˋ2쎯	-11.1333
▁ㄧㄢˊ0쎯ㄒㄩˋ6쎯	-11.1335
▁ㄌㄩˇ2쎯ㄏㄤˊ0쎯ㄕㄜˋ1쎯	-11.1336
▁ㄖㄣˊ3쎯ㄇㄧㄥˋ쎯	-11.1337
▁ㄩㄝˋ2쎯	-11.1338
ㄑㄧㄤ4쎯	-11.1338
▁ㄕˊ1쎯ㄓㄨㄥ3쎯	-11.1339
▁ㄍㄢ0쎯ㄖㄠˇ쎯	-11.1346
▁ㄨㄟ1쎯ㄒㄧㄝˊ3쎯	-11.1348
ㄔㄤˊ3쎯	-11.1348
ㄔㄢˊ4쎯	-11.1352
ㄌㄧˋ0쎯ㄒㄩㄝˊ1쎯	-11.1353
ㄐㄩㄣ3쎯	-11.1357
▁ㄐㄧ18쎯ㄌㄧㄝˋ2쎯	-11.1358
ㄐㄧㄥ3쎯	-11.136
▁ㄑㄧˊ11쎯	-11.1362
ㄍㄚ3쎯	-11.1364
▁ㄏㄨㄟˊ0쎯ㄍㄨㄟ0쎯	-11.1367
▁ㄇㄧˋ1쎯ㄐㄧˊ8쎯	-11.1368
▁ㄓㄨ1쎯ㄐㄧㄤ0쎯	-11.1373
▁ㄉㄧㄥˇ0쎯ㄅㄨˋ4쎯	-11.1375
ㄓㄢˋ4쎯	-11.1376
▁ㄑㄧㄥ5쎯ㄔㄢˊ0쎯	-11.1377
▁ㄎㄢ3쎯	-11.1381
▁ㄐㄧㄠˊ0쎯	-11.1381
▁ㄒㄧㄣ5쎯ㄊㄤˊ0쎯ㄕㄨ0쎯	-11.1383
▁ㄨˋ3쎯ㄌㄧㄠˋ0쎯	-11.1384
▁쎁쎆쎅	-11.1384
▁ㄍㄨㄥ6쎯ㄊㄧㄥˊ0쎯	-11.1386
▁ㄐㄩˋ4쎯ㄅㄣˇ0쎯	-11.1389
ㄍㄨㄥˋ0쎯ㄓㄨㄥ0쎯ㄧㄤ0쎯	-11.1392
▁ㄉㄚˋ쎯ㄆㄧ0쎯	-11.1394
▁ㄘㄨㄥ2쎯ㄏㄨㄚ0쎯	-11.1395
▁ㄓㄨㄥ2쎯ㄕㄣ2쎯	-11.1396
ㄆㄥˋ0쎯	-11.1409
▁ㄈㄨˇ4쎯	-11.141
▁ㄓㄨㄤ2쎯	-11.1411
▁ㄏㄟ0쎯ㄎㄜˋ2쎯	-11.1411
▁ㄐㄧˊ3쎯ㄒㄧㄢˋ2쎯	-11.1415
▁ㄘˊ3쎯ㄑㄧˋ7쎯	-11.1417
▁ㄘㄞˊ2쎯ㄓㄥˋ3쎯ㄐㄩˊ0쎯	-11.1418
▁ㄐㄧㄣ3쎯ㄧㄣˊ1쎯	-11.1421
ㄐㄧㄝ8쎯	-11.1422
ㄌㄨㄛˊ1쎯	-11.1424
▁ㄑㄧㄢˊ0쎯ㄐㄧㄣˋ0쎯	-11.1431
ㄓㄨㄤ1쎯ㄓㄣˋ3쎯	-11.1432
▁ㄨㄞˋ쎯ㄇㄠˋ2쎯	-11.1438
▁ㄓˋ8쎯ㄒㄩˋ1쎯	-11.1444
ㄐㄩㄝˊ1쎯	-11.1444
▁ㄉㄧㄢˋ0쎯ㄍㄨㄥ0쎯	-11.1455
▁ㄉㄚˋ쎯ㄍㄨㄟ2쎯ㄇㄛˊ3쎯	-11.1459
▁ㄒㄧㄤ1쎯ㄐㄧㄝ4쎯	-11.1459
ㄏㄜˊ1	-11.1461
▁ㄏㄞˊ0쎯ㄧㄠ4쎯	-11.1462
ㄔˋ1쎯	-11.1462
▁ㄓˋ11쎯ㄌㄧˋ0쎯	-11.1462
▁ㄖㄡˊ1쎯	-11.147
▁ㄓ7쎯ㄇㄧㄥˊ0쎯ㄉㄨˋ2쎯	-11.1471
▁ㄈㄤˋ쎯ㄑㄧˋ2쎯	-11.1475
▁う	-11.1476
▁ㄍㄨˇ2쎯ㄉㄨㄥ0쎯	-11.1483
▁ㄏㄨㄛˇ0쎯ㄔㄜ0쎯	-11.1484
ㄐㄧㄠ0쎯ㄧˋ12쎯ㄙㄨㄛˇ0쎯	-11.1485
▁ㄉㄧ0쎯ㄩˊ0쎯	-11.1485
ㄉㄨㄥ	-11.1486
▁ㄇㄛˊ0쎯ㄙㄨㄛˇ0쎯	-11.1487
▁ㄉㄢˋ0쎯ㄏㄨㄟ0쎯	-11.1489
▁ㄔㄨㄥˊ2쎯ㄒㄧㄡ1쎯	-11.149
▁ㄐㄧㄣˋ0쎯ㄑㄩˇ0쎯	-11.1493
▁ㄇㄧㄥˊ0쎯ㄆㄞˊ2쎯	-11.1497
▁ㄔㄨㄥ0쎯ㄊㄨ2쎯	-11.1497
▁ㄊㄜˋ0쎯ㄐㄧˊ2쎯	-11.1497
▁с	-11.1497
▁ㄙ0쎯ㄌㄧㄥˊ0쎯	-11.1498
▁^	-11.15
▁ㄧㄣˇ0쎯ㄔㄨㄥˊ1쎯	-11.1501
ㄒㄩㄢ	-11.1504
▁ㄗㄠ0쎯ㄉㄠˋ0쎯	-11.1509
▁ㄇㄛˋ5쎯ㄙ4쎯ㄎㄜ2쎯	-11.1509
ㄖㄨˇ0쎯	-11.151
▁ㄔㄨ0쎯ㄗ2쎯	-11.1511
▁ㄏㄨㄟˊ0쎯ㄕㄡ쎯	-11.1513
▁ㄌㄧˇ3쎯ㄘㄞˊ2쎯	-11.1518
▁ㄅㄧˋ1쎯ㄅㄟˋ2쎯	-11.1518
▁ㄕˋ3쎯ㄐㄧㄝˋ3쎯ㄅㄟ0쎯	-11.1521
쎅쎆쎀	-11.1523
▁ㄎㄞ0쎯ㄈㄥ3쎯	-11.1525
▁ㄆㄧㄥˊ0쎯ㄕˊ1쎯	-11.1526
▁ㄕㄢ0쎯ㄉㄧㄥˇ0쎯	-11.1527
▁ㄩˋ11쎯ㄕˇ0쎯	-11.1528
▁ㄑㄧㄢˇ1쎯	-11.1533
▁ㄒㄧㄣ5쎯ㄕˋ3쎯ㄐㄧˇ1쎯	-11.1538
ㄔㄨㄤ1쎯	-11.1542
▁ㄓㄥˋ1쎯ㄓㄡ1쎯ㄕˋ4쎯	-11.1545
▁ㄑㄧㄢˊ0쎯ㄉㄨㄢ0쎯	-11.1546
▁ㄈㄨˊ5쎯ㄧˋ10쎯	-11.1548
▁ㄧㄢ0쎯	-11.1554
▁ㄩㄥ5쎯ㄓㄥ0쎯	-11.156
▁ㄏㄨㄚˋ1쎯ㄩㄢˋ2쎯	-11.1563
▁ㄒㄧㄝˊ7쎯	-11.1563
▁ㄧㄡ0쎯ㄏㄨㄟˋ9쎯	-11.157
ㄌㄨㄥˊ4쎯	-11.1571
▁ㄎㄜ3쎯	-11.1575
▁ㄐㄧ18쎯ㄑㄧㄥˊ0쎯	-11.1583
ㄒㄧㄠ5쎯	-11.1584
▁ㄍㄜˇ1쎯ㄗ2쎯	-11.1584
▁ㄨㄟˋ5쎯ㄔㄤˊ2쎯	-11.1586
▁ㄕˋ11쎯ㄉㄧㄢˇ1쎯	-11.1592
▁ㄏㄨㄛˇ0쎯ㄐㄧㄢˋ15쎯	-11.1593
▁ㄙㄨㄢˋ1쎯ㄈㄚˇ0쎯	-11.1594
ㄏㄨㄢˊ0쎯ㄐㄧㄥˋ7쎯	-11.1594
▁ㄎㄞ0쎯ㄊㄨㄥ0쎯	-11.1595
ㄐㄧ2	-11.1596
▁ㄅㄨˇ0쎯ㄔㄤˊ5쎯	-11.1597
▁ㄌㄨㄣˊ1쎯ㄌㄧˇ3쎯	-11.1597
▁ㄒㄧㄝˇ0쎯ㄗˋ1쎯ㄌㄡˊ1쎯	-11.1597
▁ㄓㄢˋ2쎯ㄉㄧㄢˇ1쎯	-11.1603
ㄓㄨㄥ0쎯ㄧㄤ0쎯	-11.1604
ㄖㄣˇ0쎯	-11.1605
▁ㄧˊ7쎯ㄓˊ5쎯	-11.1606
ㄍㄨㄥˇ0쎯	-11.1608
▁ㄓˋ3쎯ㄗㄠˋ2쎯ㄕㄤ1쎯	-11.1611
▁ㄔㄨ0쎯ㄍㄨㄛ3쎯	-11.1613
ㄈㄣ6쎯	-11.1615
▁ㄦˊ0쎯ㄎㄜ2쎯	-11.1618
ㄨㄢˊ5쎯	-11.162
▁ㄎㄞ0쎯ㄅㄢˋ0쎯	-11.1622
▁ㄆㄧˊ2쎯ㄐㄧㄡˇ5쎯	-11.1626
▁ㄐㄧㄥˋ7쎯ㄐㄧㄝˋ3쎯	-11.1629
▁ㄇㄞˇ0쎯ㄇㄞˋ2쎯	-11.1631
▁ㄅㄧㄣ3쎯ㄏㄞˇ0쎯	-11.1632
▁ㄒㄧ1쎯ㄏㄨˊ5쎯	-11.1634
▁ㄕㄨˇ5쎯ㄓˊ3쎯	-11.1636
▁ㄍㄠ0쎯ㄈㄣ0쎯ㄗˇ0쎯	-11.1638
▁ㄕㄥˇ0쎯ㄅㄨˋ4쎯ㄐㄧˊ2쎯	-11.164
쎀쎁쎀	-11.1647
▁ㄘㄨˋ0쎯ㄩˊ0쎯	-11.1648
ㄏㄜˊ6쎯	-11.1652
▁ㄐㄧㄚ4쎯ㄑㄧㄥˋ0쎯	-11.1652
ㄐㄧㄚ1쎯	-11.1652
ㄊㄧㄢ0쎯ㄐㄧㄣ4쎯	-11.1654
ㄖㄨˇ2쎯	-11.1658
▁ㄍㄨㄥ2쎯ㄈㄣ0쎯	-11.166
▁ㄅㄟˋ5쎯ㄅㄨˇ1쎯	-11.1661
▁ㄊㄨㄥˊ4쎯ㄏㄨㄚˋ2쎯	-11.1665
ㄒㄧㄢ7쎯	-11.1666
▁ㄇㄛˊ0쎯ㄒㄩ4쎯	-11.1666
ㄈㄨˋ4쎯ㄕㄨˇ1쎯	-11.1668
ㄧㄝ1쎯	-11.1672
▁ㄕㄜˋ4쎯ㄨㄞˋ쎯	-11.1681
▁ㄙㄜˋ0쎯ㄙㄨˋ2쎯	-11.1692
ㄔㄤˊ4쎯ㄕㄥ1쎯ㄏㄨㄛˊ0쎯	-11.1694
ㄒㄧ1쎯ㄧㄚˋ1쎯	-11.1695
▁ㄆㄧㄝ0쎯	-11.1696
▁ㄕㄨㄤ0쎯ㄔㄨㄥˊ2쎯	-11.1698
▁ㄇㄧㄢˋ0쎯ㄊㄨㄢˊ0쎯	-11.1699
▁ㄕㄡˇ2쎯ㄒㄩㄢˇ0쎯	-11.1704
▁ㄚ0쎯ㄍㄣ0쎯ㄊㄧㄥˊ0쎯	-11.1704
▁ㄐㄧㄢ6쎯ㄎㄨˇ쎯	-11.1711
ㄅㄨˋ6쎯	-11.1712
ㄧㄥˊ9쎯	-11.1715
ㄊㄢˊ5쎯	-11.172
▁ㄍㄨˋ1쎯ㄒㄧㄤ0쎯	-11.1724
▁ㄢˋ1쎯ㄇㄚ2쎯	-11.1724
▁ㄎㄞ0쎯ㄘㄞˇ0쎯	-11.1728
▁ㄙˋ1쎯ㄓ8쎯	-11.173
ㄖㄨㄥˊ0쎯	-11.1731
▁ㄧㄝˋ0쎯ㄋㄟˋ쎯	-11.1734
▁ㄆㄞ쎯ㄇㄞˋ2쎯	-11.1736
▁쎁쎂쎃	-11.1739
▁ㄩˊ5쎯ㄧㄝˋ0쎯	-11.1747
▁ㄅㄧㄠˇ0쎯ㄍㄜˊ2쎯	-11.1748
▁ㄆㄨˊ4쎯ㄊㄧㄢˊ0쎯	-11.1749
▁ㄒㄧㄥ1쎯ㄐㄧˋ3쎯	-11.1755
▁ㄈㄥ1쎯ㄩˇ4쎯	-11.1755
▁ㄇㄟˇ2쎯	-11.1763
ㄨㄤ0쎯	-11.1763
▁ㄔㄤˊ0쎯ㄊㄨˊ2쎯	-11.1766
▁ㄊㄨㄥˊ0쎯ㄧˋ18쎯	-11.1766
ㄧㄝˋ7쎯	-11.1769
ㄗㄨㄛ0쎯ㄨˋ3쎯	-11.1769
▁ㄅㄧㄢˇ0쎯	-11.177
▁ㄗㄥˋ0쎯ㄍㄜˇ1쎯ㄓㄥ2쎯	-11.177
▁ㄉㄧˋ2쎯	-11.1775
ㄌㄨㄛˊ	-11.1775
▁ㄗㄚ0쎯ㄕˊ3쎯	-11.1775
▁ㄌㄧㄢˋ2쎯ㄞˋ1쎯	-11.1776
ㄩㄣˋ0쎯	-11.1778
▁ㄏㄨㄣ2쎯ㄌㄧˇ0쎯	-11.178
▁ㄐㄧㄣˋ0쎯ㄓㄢˇ2쎯	-11.1783
▁ㄅㄧˇ1쎯ㄌㄧˋ6쎯ㄕˊ1쎯	-11.1785
▁ㄕˊ4쎯ㄧㄢˊ7쎯	-11.1786
▁ㄒㄩㄢˇ0쎯ㄩˋ3쎯	-11.1787
▁ㄌㄧˋ3쎯ㄈㄚˇ0쎯	-11.1788
▁ㄕㄥ2쎯ㄎㄚˇ0쎯	-11.1792
▁ㄍㄨㄤ0쎯ㄖㄨㄥˊ2쎯	-11.1794
▁ㄉㄨㄢˋ3쎯ㄌㄧㄢˋ1쎯	-11.1794
▁ㄐㄧㄚ4쎯ㄒㄧㄥ0쎯	-11.1801
ㄈㄨˊ21쎯ㄌㄧㄥˊ12쎯	-11.1805
▁ㄉㄨˊ1쎯ㄉㄠˋ0쎯	-11.1806
▁ㄙㄨ0쎯ㄨㄟˊ6쎯ㄞ2쎯	-11.1808
▁ㄐㄧㄝˋ5쎯ㄓㄨˋ0쎯	-11.1808
▁ㄨㄟ3쎯ㄅㄛ1쎯	-11.1811
▁ㄅㄟ2쎯ㄏㄡˋ0쎯	-11.1812
▁ㄠˋ2쎯ㄌㄧㄣˊ1쎯ㄆㄧˇ0쎯	-11.1817
ㄍㄠ4쎯	-11.1819
▁ㄋㄚ1쎯ㄢˋ0쎯	-11.182
▁ㄊㄨㄥˊ0쎯ㄐㄧˇ3쎯	-11.182
▁ㄞ2쎯ㄐㄧˊ0쎯	-11.1822
ㄍㄡˇ1쎯	-11.1827
▁ㄔㄣˋ1쎯ㄏㄨ1쎯	-11.1829
▁ㄉㄧˋ1쎯ㄨㄤˊ1쎯	-11.1829
▁ㄅㄢˋ1쎯ㄉㄠˇ0쎯ㄊㄧ0쎯	-11.183
ㄧㄡˋ7쎯	-11.1831
▁ㄉㄥˇ0쎯ㄉㄞ1쎯	-11.1836
▁ㄨㄟˊ0쎯ㄓˇ0쎯	-11.184
ㄧㄥ5쎯	-11.184
▁ㄨㄣˊ0쎯ㄕˇ0쎯	-11.184
▁ㄏㄨˊ6쎯ㄉㄧㄝˊ4쎯	-11.1842
▁ㄕㄢ0쎯ㄌㄧㄣˊ1쎯	-11.1849
▁ㄈㄣ0쎯ㄔㄥˊ0쎯	-11.1851
ㄍㄨㄤˇ0쎯ㄅㄛ4쎯	-11.1852
▁ㄧㄤˋ0쎯ㄅㄣˇ0쎯	-11.1854
▁ㄇㄧㄥˊ1쎯ㄓㄨ1쎯	-11.1856
ㄎㄨˋ1쎯	-11.1856
▁ㄘㄨ쎯ㄓㄨㄤˋ0쎯	-11.1857
ㄢˇ5쎯	-11.1864
▁ㄅㄞˇ0쎯ㄍㄜˇ1쎯	-11.1868
쎇쎆쎈	-11.1869
ㄖㄤˋ쎯	-11.187
ㄌㄢˊ7쎯	-11.187
▁ㄈㄨ3쎯	-11.1876
▁ㄖㄨㄥˊ8쎯ㄉㄧㄢˇ1쎯	-11.1876
ㄆㄥˊ1쎯	-11.1876
▁ㄠˋ2쎯ㄩㄣˋ1쎯	-11.1883
▁ㄒㄩˋ1쎯ㄌㄧㄝˋ0쎯	-11.1884
▁ㄊㄧㄥ0쎯ㄔㄤˊ0쎯	-11.1884
▁ㄑㄧㄡ1쎯ㄐㄧˋ7쎯	-11.1885
ㄐㄧ6쎯ㄔㄤˊ1쎯	-11.1886
ㄆㄞ쎯	-11.1888
▁ㄉㄧㄢˋ8쎯ㄉㄧㄥˋ1쎯	-11.1894
▁ㄅㄟˇ쎯ㄨㄟˋ12쎯	-11.1899
▁ㄌㄚˋ0쎯ㄒㄧㄝˊ0쎯	-11.1902
▁ㄆㄟˊ3쎯	-11.1903
▁ㄆㄞˊ0쎯ㄍㄨ5쎯	-11.1907
ㄓㄚˊ2쎯	-11.1908
▁ㄧ0쎯ㄐㄧㄡˇ0쎯ㄐㄧㄡˇ0쎯	-11.1908
▁ㄕㄡˇ1쎯ㄏㄨˋ2쎯	-11.1908
▁ㄋㄢˊ0쎯ㄏㄞˊ1쎯	-11.1912
ㄋㄢˊ3쎯	-11.1912
▁ㄧㄣ4쎯ㄒㄧㄤˇ1쎯	-11.1915
▁ㄅㄞˇ0쎯ㄏㄨㄛˋ1쎯	-11.1919
▁ㄧㄢ0쎯ㄏㄡˊ1쎯	-11.1922
▁ㄓㄨˇ0쎯ㄒㄧㄢˋ3쎯	-11.1924
▁ㄓㄨˇ2쎯ㄕㄡˊ쎯	-11.1925
▁ㄧㄢˇ2쎯ㄎㄜ2쎯	-11.1928
▁ㄑㄧㄥ5쎯ㄐㄧㄠˇ7쎯	-11.193
▁ㄎㄨㄚˋ1쎯ㄩㄝˋ5쎯	-11.193
▁ㄧ2쎯ㄈㄨˊ5쎯	-11.1931
▁ㄕㄣ0쎯ㄅㄠˋ0쎯	-11.1932
▁ㄐㄧ18쎯ㄈㄚ쎯	-11.1932
▁ㄔ1쎯	-11.1935
▁ㄇㄢˇ0쎯ㄗㄨˊ1쎯	-11.1935
▁ㄑㄩㄝ0쎯ㄒㄧㄢˋ5쎯	-11.1936
▁ㄙㄢ0쎯ㄩㄝˋ0쎯	-11.1936
▁ㄓㄨㄤ3쎯ㄐㄧㄚˇ0쎯	-11.1939
▁ㄔㄨㄥˊ2쎯ㄗㄨˇ1쎯	-11.1944
ㄐㄩㄣ1쎯ㄕㄡ쎯ㄖㄨˋ0쎯	-11.1947
▁ㄈㄚˇ0쎯ㄕ2쎯	-11.1948
ㄜˋ4쎯	-11.1948
▁ㄐㄧˊ4쎯ㄕˋ15쎯	-11.1948
▁ㄔㄡˊ6쎯ㄐㄧㄢˋ2쎯	-11.1949
▁쎁쎉쎉쎄ㄋㄧㄢˊ0쎯	-11.1954
▁ㄔㄢˊ0쎯ㄔㄨㄣˊ0쎯	-11.1955
▁ㄌㄨˋ5쎯ㄇㄧㄢˋ0쎯	-11.1961
▁ㄐㄧㄢ7쎯ㄌㄧˇ3쎯	-11.1965
▁ㄓ0쎯ㄐㄧˋ5쎯	-11.1966
▁ㄦˋ0쎯ㄕˊ0쎯ㄧ0쎯	-11.1969
ㄔㄥˊ9쎯	-11.1971
ㄨㄛ2쎯	-11.1973
ㄧㄥˊ7쎯	-11.1975
▁ㄐㄧㄣˋ0쎯ㄦˊ1쎯	-11.1977
▁ㄇㄛˋ1쎯ㄉㄨㄢ0쎯	-11.1977
ㄍㄨㄤˇ0쎯ㄒㄧ1쎯ㄓㄨㄤˋ0쎯	-11.1977
ㄏㄨㄟˋ5쎯	-11.1981
ㄇㄛ쎯	-11.1981
▁ㄆㄟˋ2쎯ㄙㄨㄥˋ2쎯	-11.1987
▁ㄌㄧㄢˊ4쎯ㄒㄧㄤˇ2쎯	-11.1988
▁ㄧ4쎯ㄌㄞˋ1쎯	-11.1994
▁ㄍㄨㄥ5쎯ㄕㄨㄟˇ쎯	-11.1999
▁ㄒㄧㄣ5쎯ㄒㄧ1쎯ㄌㄢˊ0쎯	-11.2002
ㄉㄨㄥˋ2쎯	-11.2004
〖	-11.2004
▁ㄇㄧㄣˊ0쎯ㄩㄥˋ0쎯	-11.2008
▁ㄈㄥ3쎯ㄐㄧㄢˋ2쎯	-11.2014
▁ㄑㄧˇ2쎯ㄕˋ8쎯ㄧㄝˋ0쎯	-11.2018
ㄐㄧㄢˋ2쎯ㄓㄨˋ10쎯ㄨˋ3쎯	-11.2022
▁ㄍㄨㄥ2쎯ㄅㄢˋ0쎯	-11.2023
▁ㄐㄩˋ7쎯ㄔˇ0쎯	-11.2025
▁쎁쎉쎂쎃	-11.2026
▁ㄊㄨ2쎯ㄑㄧˇ4쎯	-11.2027
▁ㄋㄨㄥˊ2쎯	-11.2027
▁ㄇㄟˇ1쎯ㄓㄡ3쎯	-11.2029
▁쎁쎀쎉	-11.2031
▁ㄒㄧㄣˋ0쎯ㄈㄤˇ1쎯	-11.2034
▁ㄧˊ6쎯	-11.2036
▁ㄐㄧㄢˇ6쎯ㄈㄟˊ0쎯	-11.2036
ㄑㄩㄢˊ10쎯	-11.2036
▁ㄐㄧㄠ11쎯	-11.2037
▁ㄙ5쎯	-11.2037
ㄔㄚˋ0쎯	-11.2039
▁ㄅㄚ0쎯ㄐㄧㄠˇ0쎯	-11.2041
▁к	-11.2045
▁ㄕㄢ0쎯ㄍㄨˇ1쎯	-11.2045
▁〗	-11.2047
ㄉㄧㄠˋ2쎯ㄧㄢˊ6쎯ㄩㄢˊ2쎯	-11.2049
▁ㄩㄢˊ9쎯ㄗˋ0쎯	-11.2051
▁ㄓㄥ0쎯ㄧˋ1쎯	-11.2053
ㄜˊ4쎯	-11.2055
ㄙㄞ1쎯ㄦˇ0쎯	-11.2067
ㄏㄤˊ3쎯ㄎㄨㄥ0쎯	-11.207
▁ㄕㄥˇ0쎯ㄋㄟˋ쎯	-11.2071
▁ㄧㄥ3쎯ㄦˊ0쎯	-11.2083
▁ㄕㄢ0쎯ㄧㄠˋ0쎯	-11.2095
ㄍㄨˇ2쎯ㄈㄣˋ0쎯	-11.2096
ㄨㄟˊ6쎯ㄦˇ0쎯	-11.2096
——	-11.2098
ㄏㄨㄟˇ0쎯	-11.21
ㄐㄧㄠ6쎯ㄒㄩㄝˊ1쎯ㄌㄡˊ1쎯	-11.2104
▁ル	-11.2106
▁ㄒㄧㄝ4쎯	-11.2108
▁ㄒㄧㄣ4쎯	-11.2111
ㄆㄢˋ3쎯	-11.2111
▁ㄗㄞ2쎯	-11.2112
ㄒㄧㄠ2쎯	-11.2118
ㄐㄧㄤˇ0쎯	-11.2118
▁ス	-11.2121
ㄋㄧˊ0쎯ㄒㄧ1쎯ㄧㄚˋ1쎯	-11.2123
▁ㄐㄧㄤˇ1쎯ㄓㄤ1쎯	-11.2125
▁ㄊㄡˋ쎯ㄍㄨㄛ0쎯	-11.2126
ㄕˋ23쎯	-11.2129
▁ㄌㄚ2쎯	-11.213
ㄕㄠˊ0쎯	-11.213
▁ㄨㄣ0쎯ㄏㄜˊ2쎯	-11.2135
▁ㄐㄧㄠ0쎯ㄨㄤˇ2쎯	-11.2136
▁ㄗㄠˋ3쎯ㄧㄣ4쎯	-11.2138
▁ㄉㄨㄟˋ1쎯ㄏㄨㄚˋ2쎯	-11.2138
ㄅㄧˋ3쎯	-11.214
▁ㄍㄢˇ3쎯ㄉㄨㄥˋ0쎯	-11.2144
▁ㄨˊ0쎯ㄏㄨˊ5쎯	-11.2146
▁ㄏㄨㄢˋ0쎯ㄒㄧㄤˇ2쎯	-11.2149
▁ㄍㄣ1쎯ㄗㄨㄥ2쎯	-11.2151
▁ㄊㄜˋ0쎯ㄔㄤˊ0쎯	-11.2152
▁ㄐㄧㄝˇ1쎯ㄒㄧ5쎯	-11.2154
▁ㄨㄣˊ0쎯ㄒㄩㄢˇ0쎯	-11.2154
▁ㄓㄥ2쎯ㄕㄡ쎯	-11.2155
ㄨㄣˇ3쎯	-11.2156
▁ㄑㄩˇ0쎯ㄇㄧㄥˊ0쎯	-11.2157
▁ㄋㄚ1쎯ㄎㄞ0쎯	-11.2169
▁쎁쎉쎉쎅ㄋㄧㄢˊ0쎯	-11.2174
か	-11.2181
ㄓㄠ0쎯	-11.2184
▁ㄈㄥ1쎯ㄩㄣˊ0쎯	-11.2184
▁ㄊㄞˋ3쎯ㄕㄢ0쎯	-11.2188
▁ㄍㄨㄥ2쎯ㄕˋ5쎯	-11.2191
▁ㄓㄨ3쎯ㄏㄡˊ0쎯	-11.2192
▁ㄒㄧ12쎯	-11.2194
▁ㄈㄚˇ0쎯ㄩˇ6쎯	-11.2197
▁ㄔㄣˊ5쎯ㄌㄧㄝˋ0쎯	-11.2199
ㄍㄨㄚˋ1쎯	-11.22
▁ㄒㄧㄤ4쎯ㄊㄢˊ4쎯	-11.2202
▁ㄑㄧㄢˋ2쎯	-11.2204
ㄅㄧˋ15쎯	-11.221
▁ㄎㄢ2쎯ㄊㄢˋ2쎯	-11.2216
ㄩㄝ0쎯	-11.2217
▁ㄧㄥ0쎯ㄉㄤ0쎯	-11.2219
▁ㄓˋ3쎯ㄈㄚˇ0쎯	-11.2226
▁ㄆㄥˊ7쎯	-11.223
▁ㄩˇ6쎯ㄈㄚˇ0쎯	-11.2231
▁ㄎㄨㄛˋ0쎯ㄓㄤ0쎯	-11.2232
▁ㄉㄞ1쎯ㄩㄥˋ0쎯	-11.2234
ㄞˋ2쎯	-11.2234
ㄋㄠˋ0쎯	-11.2234
▁ㄌㄟˊ0쎯ㄐㄧˋ0쎯	-11.2237
ㄘㄞˋ1쎯	-11.224
▁ㄕˋ9쎯ㄌㄤˊ0쎯	-11.2242
▁ㄓㄤˋ5쎯	-11.2245
▁ㄊㄞˋ0쎯ㄎㄨㄥ0쎯	-11.2249
▁ㄆㄧㄣˇ쎯ㄨㄟˋ2쎯	-11.225
▁ㄓㄨ4쎯ㄧㄡˊ4쎯	-11.2253
▁в	-11.2254
▁쎁쎉쎉쎃ㄋㄧㄢˊ0쎯	-11.2255
▁ㄑㄩㄢˊ1쎯ㄔㄥˊ7쎯	-11.2258
▁ㄕˇ0쎯ㄒㄩㄝˊ1쎯	-11.2261
▁ㄖㄨˋ0쎯ㄇㄣˊ0쎯	-11.2264
ㄌㄧㄢˇ1쎯	-11.2275
▁ㄔˇ0쎯ㄌㄨㄣˊ4쎯	-11.2278
ㄧ0쎯ㄍㄜˇ0쎯	-11.2279
▁ㄓㄢˇ2쎯ㄔㄨ0쎯	-11.2281
▁ㄓˋ13쎯ㄩˊ0쎯	-11.2283
▁ㄨˇ0쎯ㄩㄝˋ0쎯	-11.2283
▁ㄈㄚˇ0쎯ㄉㄧㄥˋ1쎯	-11.2285
▁ㄐㄧㄢˋ2쎯ㄓˋ3쎯	-11.2285
▁ㄉㄢ0쎯ㄇㄞˋ1쎯	-11.2286
ㄏㄨㄤˊ1쎯ㄏㄜˋ3쎯ㄙㄜˋ0쎯	-11.2287
▁ㄔㄨ0쎯ㄒㄧˊ1쎯	-11.2289
▁ㄈㄥ1쎯ㄕㄨㄟˇ쎯	-11.229
▁ㄕㄠˇ쎯ㄦˊ0쎯	-11.2291
▁ㄆㄧㄥˊ0쎯ㄊㄢˇ0쎯	-11.2292
▁ㄈㄥ4쎯ㄎㄨㄤˊ0쎯	-11.2292
▁쎁쎉쎁쎃	-11.2292
ㄏㄨㄤˊ1	-11.2292
▁ㄍㄨㄛˊ0쎯ㄐㄧˊ12쎯	-11.2295
▁ㄒㄧㄣˋ0쎯ㄧㄤˇ0쎯	-11.2296
ㄨㄥ4쎯	-11.23
▁ㄉㄚˊ0쎯ㄆㄛˋ0쎯	-11.23
▁ㄧㄡˊ2쎯ㄆㄧㄠˋ0쎯	-11.2301
ㄆㄢ0쎯	-11.2302
▁ㄅㄢ4쎯ㄉㄧㄢˇ1쎯	-11.2302
▁ㄏㄢˋ0쎯ㄉㄞˋ0쎯	-11.2306
▁ㄅㄛˊ6쎯ㄏㄞˇ0쎯	-11.2309
▁ㄔㄨㄥ1쎯ㄗㄨˊ0쎯	-11.2309
▁ㄕㄣˇ1쎯ㄇㄟˇ1쎯	-11.231
▁ㄨㄟ3쎯ㄐㄧ6쎯	-11.231
▁ㄍㄨㄞˋ0쎯ㄨˋ3쎯	-11.2311
ㄊㄤˊ	-11.2311
▁ㄊㄧㄢ0쎯ㄓㄨˇ0쎯ㄐㄧㄠ6쎯	-11.2316
▁ㄈㄨˋ11쎯ㄏㄢˊ1쎯	-11.2317
▁ㄎㄜˇ0쎯ㄕˋ12쎯	-11.2318
ㄌㄨˋ3쎯ㄏㄨㄚˋ0쎯ㄌㄩˋ2쎯	-11.2318
ㄔㄥˊ0쎯ㄉㄡ0쎯	-11.2318
▁ㄐㄧㄢˋ0쎯ㄉㄠˋ0쎯	-11.232
ㄅㄧㄣ1쎯	-11.2321
ㄐㄧˇ4쎯	-11.2321
▁ㄨㄟ3쎯ㄅㄛˊ5쎯	-11.2323
▁ㄑㄧˋ0쎯ㄈㄣ4쎯	-11.2323
ㄐㄧㄢˋ18쎯	-11.233
ㄅㄛ7쎯	-11.233
▁ㄗˋ1쎯ㄈㄨˊ8쎯	-11.2335
▁ㄒㄧㄤ6쎯	-11.2337
ㄓㄨ3쎯	-11.234
ㄉㄚ	-11.2342
▁ㄓˊ0쎯ㄧㄝˋ0쎯	-11.2346
▁ㄓㄣ1쎯ㄐㄧㄡˇ3쎯	-11.2347
▁ㄨㄟ3쎯ㄖㄨㄢˇ0쎯	-11.2349
▁ㄍㄜˊ2쎯ㄐㄩˊ0쎯	-11.2352
▁ㄇㄧㄥˊ1쎯ㄌㄧㄤˋ0쎯	-11.2355
ㄓˊ0쎯	-11.2363
▁ㄩㄥˇ0쎯ㄌㄜˋ0쎯	-11.2364
▁쎂쎈쎀	-11.2365
▁쎁쎉쎂쎂	-11.2368
▁ㄍㄤ6쎯ㄅㄢˇ0쎯	-11.237
ㄓㄨㄥˇ1쎯	-11.2371
▁ㄇㄡˇ쎯ㄍㄜˇ0쎯	-11.2373
ㄈㄨˇ2쎯	-11.2374
ㄧㄥ1쎯ㄒㄩㄥˊ0쎯	-11.2377
ㄕㄣˊ1쎯ㄐㄧㄥ2쎯	-11.2378
▁쎂쎇쎀	-11.2379
ㄓㄨ5쎯	-11.2385
▁ㄏㄨㄟˋ5쎯ㄓˋ3쎯	-11.2385
▁ㄐㄧㄠˇ5쎯ㄒㄧㄚˋ0쎯	-11.2391
▁ㄧㄡ2쎯ㄧㄚˇ쎯	-11.2392
▁ㄊㄨㄥˋ0쎯ㄎㄨˇ쎯	-11.2394
▁ㄗㄨㄛ0쎯ㄘˊ0쎯	-11.2395
▁ㄓㄣ4쎯ㄔㄥˊ2쎯	-11.2396
▁ㄅㄠˇ2쎯ㄢ0쎯	-11.2396
▁ㄍㄜ7쎯ㄐㄩˋ4쎯	-11.2397
▁ㄊㄨˇ0쎯ㄦˇ1쎯ㄑㄧˊ1쎯	-11.2402
▁ㄈㄥ7쎯ㄇㄧˋ2쎯	-11.2402
▁ㄐㄧㄥˋ6쎯ㄉㄧㄢˋ0쎯	-11.2404
▁ㄨ1쎯ㄕㄨㄟˇ쎯	-11.2408
▁ㄍㄨㄛ0쎯ㄉㄨˋ3쎯	-11.2408
▁ㄒㄧㄢ1쎯ㄈㄥ6쎯	-11.2409
ㄍㄜˊ4쎯	-11.2409
▁ㄉㄥ1쎯ㄌㄧㄡˋ1쎯	-11.241
▁ㄒㄩㄝˊ1쎯ㄊㄤˊ1쎯	-11.2415
▁ㄧㄥˊ5쎯ㄌㄧˋ6쎯	-11.2415
▁ㄉㄞˋ0쎯ㄏㄠˊ0쎯	-11.2415
▁ㄏㄨㄚˋ0쎯ㄓㄨㄤ0쎯	-11.2416
▁ㄓˊ1쎯ㄉㄚˊ1쎯	-11.242
▁ㄓㄞˋ0쎯ㄑㄩㄢˋ1쎯	-11.2421
▁ㄐㄧㄤˇ0쎯ㄕㄡˋ2쎯	-11.2422
▁ㄊㄧㄢˊ0쎯ㄐㄧㄥˋ0쎯	-11.2428
ㄍㄢ9쎯	-11.2428
ㄐㄧ0쎯	-11.2428
▁ㄏㄨㄚˋ2쎯ㄐㄩˋ4쎯	-11.243
▁ㄕㄡˊ쎯ㄌㄧㄢˋ0쎯	-11.2431
▁ㄌㄟˊ1쎯ㄉㄚˊ1쎯	-11.2431
▁ㄧˊ8쎯ㄐㄧˋ9쎯	-11.2434
▁ㄉㄨㄛˊ0쎯ㄉㄜˊ0쎯	-11.2436
▁ㄉㄡˋ2쎯ㄨˋ3쎯	-11.244
▁쎁쎉쎁쎉	-11.2443
▁ㄅㄣ0쎯ㄊㄥˊ1쎯	-11.2443
▁ㄅㄢ1쎯ㄐㄧˊ2쎯	-11.2445
▁ㄇㄛˊ6쎯ㄍㄨ6쎯	-11.2445
▁ㄖㄨˊ0쎯ㄊㄨㄥˊ0쎯	-11.2447
▁ㄐㄧㄠˇ6쎯	-11.2447
▁ㄉㄨㄢ0쎯ㄗˇ0쎯	-11.2449
▁ㄕˊ0쎯ㄩㄝˋ0쎯	-11.2454
▁ㄉㄨㄢˇ쎯ㄐㄧ13쎯	-11.2457
▁ㄐㄧㄢˇ5쎯ㄙㄨㄛˇ1쎯	-11.2457
▁ㄈㄥ1쎯ㄙㄨˊ쎯	-11.2459
▁ㄕㄥ1쎯ㄔㄢˇ0쎯ㄔㄤˇ0쎯	-11.2461
▁ㄕㄚ0쎯ㄙˇ쎯	-11.2462
ㄉㄧˇ1쎯ㄩㄣˋ4쎯	-11.2468
ㄅㄢˇ3쎯	-11.247
▁ㄉㄨㄟˋ1쎯ㄎㄤˋ1쎯	-11.2471
▁ㄊㄧㄠˊ0쎯ㄨㄣˊ1쎯	-11.2475
▁ㄉㄧˋ0쎯ㄉㄧˋ0쎯	-11.2477
▁ㄎㄞ0쎯ㄈㄚ쎯ㄕㄤ1쎯	-11.2478
ㄗˋ4쎯	-11.2479
▁ㄔㄥˊ0쎯ㄆㄧㄣˇ쎯	-11.2481
▁ㄗㄠ0쎯ㄩˋ9쎯	-11.2482
▁ㄍㄢ1쎯ㄓㄜˋ2쎯	-11.2484
▁ㄖㄣˋ1쎯ㄓ7쎯	-11.2484
ㄓㄚˋ1쎯	-11.2486
▁ㄉㄧㄠˋ2쎯ㄌㄧˇ3쎯	-11.2489
ㄉㄢˋ6쎯ㄅㄞˊ0쎯	-11.2489
▁ㄧㄥ0쎯ㄌㄧˋ0쎯	-11.2494
▁ㄕˊ1쎯ㄓㄨㄤ3쎯	-11.2497
し	-11.2498
ㄔㄞˊ0쎯	-11.2499
▁ㄌㄜˋ0쎯ㄑㄩˋ1쎯	-11.2505
▁ㄒㄧㄣ5쎯ㄙˋ1쎯ㄐㄩㄣ0쎯	-11.2513
▁ㄑㄧㄢˊ0쎯ㄐㄧ13쎯	-11.2514
▁ㄐㄧㄠˇ4쎯	-11.2519
▁ㄎㄨㄥˇ1쎯ㄌㄨㄥˊ0쎯	-11.252
ㄗㄨㄛˋ0쎯	-11.2524
▁ㄎㄨㄛˋ0쎯ㄐㄧㄢˋ2쎯	-11.2525
▁ㄨㄢˇ2쎯ㄋㄧㄢˊ0쎯	-11.2527
▁ㄇㄧㄣˊ0쎯ㄓㄨㄥˋ1쎯	-11.2529
.쎅	-11.253
ㄈㄨˇ0쎯	-11.2533
ㄨㄟˊ6쎯ㄐㄧ9쎯	-11.2537
ㄅㄤ1쎯	-11.2538
▁ㄎㄞ0쎯ㄏㄨㄚ0쎯	-11.2538
ㄑㄧˇ2쎯	-11.254
ㄈㄚˊ3쎯	-11.2543
▁ㄗㄞˋ1쎯ㄐㄧㄠˋ2쎯ㄕㄥ1쎯	-11.2545
▁ㄏㄨㄚ0쎯ㄍㄨㄢ3쎯	-11.2546
ㄧㄡˊ10쎯	-11.255
ㄅㄧㄣ0쎯ㄍㄨㄢˇ0쎯	-11.255
▁ㄍㄨㄛ0쎯ㄉㄨㄛ0쎯	-11.2556
▁ㄐㄧㄝˇ1쎯ㄉㄡˋ2쎯	-11.256
▁ㄗˋ0쎯ㄏㄤˊ0쎯ㄔㄜ0쎯	-11.256
ㄨㄛ3쎯	-11.2561
ㄅㄟˋ1	-11.2564
ㄦˇ4쎯	-11.2565
▁ㄏㄜˊ16쎯	-11.2566
▁ㄊㄧ0쎯ㄏㄨㄟˋ2쎯	-11.2569
▁ㄕㄥ2쎯ㄌㄜˋ0쎯	-11.2569
▁ㄙㄢ0쎯ㄍㄨㄛˊ0쎯ㄓˋ1쎯	-11.2569
▁ㄘㄤ0쎯ㄔㄨˇ2쎯	-11.2571
▁ㄉㄢˋ0쎯ㄊㄡˊ0쎯	-11.2574
ㄓˇ12쎯	-11.2576
▁ㄖㄨˇ1쎯ㄒㄧㄢˋ9쎯	-11.258
▁ㄓㄠ0쎯ㄕㄡ쎯	-11.2583
▁ㄨˇ3쎯ㄔㄤ0쎯	-11.2585
▁ㄙㄨ0쎯ㄓㄡ1쎯ㄕˋ4쎯	-11.2585
▁ㄐㄧㄣˋ3쎯ㄕㄨ0쎯	-11.259
▁ㄆㄟˋ2쎯ㄧㄣ4쎯	-11.2591
▁ㄓㄥˇ1쎯ㄑㄧˊ0쎯	-11.2597
ㄊㄧㄢ0쎯ㄉㄨˊ1쎯ㄏㄡˋ1쎯	-11.2598
▁ㄏㄞˇ0쎯ㄉㄧˇ1쎯	-11.26
▁ㄧˊ3쎯ㄖㄣˊ0쎯	-11.26
▁ㄗㄨㄥˇ0쎯ㄉㄨㄟˋ0쎯	-11.2601
▁ㄐㄧㄝˇ1쎯ㄈㄤˋ쎯ㄏㄡˋ0쎯	-11.2601
ㄉㄧ3쎯	-11.2603
▁ㄌㄧˇ3쎯ㄕˋ8쎯ㄏㄨㄟˋ2쎯	-11.2604
▁ㄒㄩㄝˊ1쎯ㄕㄨㄟˋ0쎯	-11.2606
ㄙ4쎯ㄎㄜˋ0쎯	-11.2607
ㄌㄧㄣˊ5쎯	-11.2607
▁ㄇㄧㄥˊ3쎯	-11.2608
ㄧㄣˋ2쎯	-11.2613
▁ㄍㄢ2쎯ㄐㄩㄣ4쎯	-11.2615
ㄓㄨㄥ4쎯	-11.2616
▁ㄙㄞ3쎯	-11.2618
▁ㄆㄤˊ0쎯ㄉㄚˋ쎯	-11.2618
ㄧˊ4쎯	-11.262
ㄑㄧㄢˊ3쎯	-11.2622
▁ㄅㄨˋ2쎯ㄅㄧㄥ2쎯	-11.2626
▁ㄘˇ0쎯ㄕㄨ0쎯	-11.2628
ㄑㄧˋ3쎯	-11.263
▁ㄨˇ3쎯ㄒㄧㄚˊ1쎯	-11.2631
ㄘㄤ1쎯	-11.2632
ㄌㄧˇ2쎯ㄧㄚˋ1쎯	-11.2633
ㄍㄨㄥ0쎯ㄏㄨㄟˋ2쎯	-11.2635
▁ㄩˊ11쎯	-11.2644
▁ㄅㄧㄢˋ0쎯ㄧㄚ1쎯ㄑㄧˋ7쎯	-11.2645
▁ㄉㄠˋ3쎯ㄐㄩˋ2쎯	-11.2654
イ	-11.2655
ㄇㄟˋ2쎯	-11.2655
ㄐㄧ18쎯	-11.2656
▁ㄇㄚˊ1쎯ㄗㄨㄟˋ2쎯	-11.2663
ㄖㄤˇ0쎯	-11.2663
ㄐㄧㄢˋ2쎯ㄕㄜˋ0쎯	-11.2663
▁ㄧˇ0쎯ㄔㄨㄣˊ3쎯	-11.2663
▁ㄐㄩㄣ0쎯ㄍㄨㄢ2쎯	-11.2665
ㄈㄤ0쎯ㄕˋ5쎯	-11.2674
▁ㄒㄧㄠ2쎯ㄉㄨˊ0쎯	-11.2675
▁ㄐㄧㄝ0쎯ㄧㄠ2쎯	-11.2679
▁ㄗㄨㄥˇ0쎯ㄔㄣˋ1쎯	-11.268
▁ㄅㄠˊ1쎯ㄇㄛˊ4쎯	-11.2681
▁ㄑㄧㄥ5쎯ㄔㄨˊ0쎯	-11.2682
▁ㄉㄚˋ쎯ㄓˋ7쎯	-11.2682
▁ㄆㄧㄥˊ1쎯ㄉㄧㄥˋ1쎯	-11.2686
ㄩㄢˇ쎯ㄒㄧㄠ6쎯	-11.2689
▁ㄌㄧㄢˊ4쎯ㄧˋ16쎯	-11.2691
▁ㄐㄩˇ2쎯ㄖㄣˊ0쎯	-11.2691
▁ㄐㄧㄤ1쎯ㄌㄧㄥˇ1쎯	-11.2692
▁ㄆㄨˊ1쎯ㄊㄠˊ3쎯ㄧㄚˊ0쎯	-11.2695
▁ㄒㄩㄥˊ0쎯ㄖㄨㄟˇ쎯	-11.2697
▁ㄍㄨㄥ2쎯ㄖㄣˋ1쎯	-11.2698
ㄍㄤ7쎯	-11.27
▁ㄉㄜˊ1쎯ㄩˋ3쎯	-11.27
▁ㄐㄧㄣˇ2쎯ㄓㄤ0쎯	-11.27
▁ㄧㄥˋ1쎯ㄏㄨㄚˋ0쎯	-11.2702
▁ㄑㄧㄢˊ0쎯ㄐㄧㄥˇ1쎯	-11.2703
▁ㄕˊ3쎯ㄨˋ2쎯	-11.2704
▁ㄑㄧˇ0쎯	-11.2707
▁ㄈㄨˊ5쎯ㄩㄥˋ0쎯	-11.2709
▁ㄩㄢˊ1쎯ㄧˋ2쎯	-11.271
ㄧㄡˋ5쎯	-11.2711
ㄨㄣˊ0쎯ㄒㄩㄝˊ1쎯ㄩㄢˋ2쎯	-11.2712
▁ㄅㄧㄢˇ1쎯ㄆㄧㄥˊ0쎯	-11.2716
▁ㄕㄚ2쎯ㄇㄛˋ6쎯	-11.2719
▁ㄆㄧㄥˊ0쎯ㄈㄢˊ0쎯	-11.2721
ㄏㄞˋ0쎯	-11.2722
▁ㄇㄧㄥˊ0쎯ㄌㄧㄝˋ0쎯	-11.2724
ㄕㄢ2쎯	-11.2728
▁ㄉㄨㄢˋ3쎯	-11.2731
▁ㄓㄢ0쎯ㄐㄩ4쎯	-11.2733
ㄇㄤˇ0쎯	-11.2736
▁ㄌㄠˊ0쎯ㄨˋ2쎯	-11.2738
▁ㄕ2쎯ㄔㄤˊ0쎯	-11.2742
ㄐㄧㄣ5쎯	-11.2748
▁ㄓㄢˋ1쎯ㄕㄨˋ0쎯	-11.275
▁ㄅㄠˊ1쎯ㄆㄧㄢ0쎯	-11.2755
▁쎁쎉쎂쎁	-11.2755
▁ㄢ0쎯ㄓˋ13쎯	-11.2756
β	-11.2756
▁ㄍㄠ0쎯ㄕㄤˋ0쎯	-11.2757
ㄈㄟˋ2쎯	-11.276
▁ㄒㄧˊ0쎯ㄒㄧㄥˋ2쎯	-11.2761
ㄖㄨㄥˊ7쎯	-11.2768
▁ㄋㄚ1쎯ㄈㄟ2쎯	-11.2769
▁ㄊㄨㄢˊ0쎯ㄍㄡˋ1쎯	-11.2772
▁ㄅㄧㄥ2쎯ㄑㄧˋ7쎯	-11.2777
ㄍㄨㄢ5쎯	-11.2781
▁ㄈㄨˋ7쎯ㄧㄣˋ0쎯	-11.2782
▁ㄐㄧ9쎯ㄊㄜˋ0쎯	-11.2783
쎂쎀쎁쎂	-11.2786
▁ㄖㄨˋ0쎯ㄑㄧㄣ1쎯	-11.2791
▁ㄐㄧˊ4쎯ㄕˊ1쎯	-11.2791
▁ㄕㄨㄟˇ쎯ㄗ2쎯ㄩㄢˊ9쎯	-11.2796
▁ㄗˋ0쎯ㄔㄣˋ1쎯	-11.2801
▁ㄐㄧㄥ8쎯ㄊㄨㄥ0쎯	-11.2803
▁ㄔㄥˊ4쎯ㄍㄨㄢ0쎯	-11.2809
▁ㄔㄨˋ0쎯ㄇㄨˋ3쎯ㄧㄝˋ0쎯	-11.281
▁ㄐㄧㄝˇ0쎯ㄐㄧㄝˇ0쎯	-11.2811
ㄐㄧ7쎯	-11.2814
▁ㄐㄧˊ3쎯ㄐㄩˋ2쎯	-11.2821
▁ㄈㄨˊ7쎯ㄉㄧㄠ2쎯	-11.2823
▁ㄐㄧㄚˋ2쎯ㄍㄡˋ0쎯	-11.2829
▁ㄐㄧˋ2쎯ㄕ2쎯	-11.283
▁ㄇㄣˊ0쎯ㄓㄣˇ0쎯	-11.2832
▁ㄈㄣ0쎯ㄍㄨㄥ0쎯	-11.2835
▁ㄊㄨㄣˊ2쎯	-11.2836
▁ㄒㄧㄝˊ7쎯ㄕㄡˇ0쎯	-11.2839
ㄊㄚ3쎯	-11.2844
▁ㄘㄢ0쎯ㄎㄠˇ0쎯ㄕㄨ0쎯	-11.2844
▁ㄘˊ0쎯ㄩˇ6쎯	-11.2846
ㄧㄡ1쎯	-11.2847
▁ㄆㄞˊ0쎯ㄔㄤˊ0쎯	-11.2847
▁ㄏㄨㄥˊ1쎯ㄏㄜˊ3쎯ㄓㄡ1쎯	-11.2853
ㄇㄧㄢˇ1쎯	-11.2854
▁ㄧˋ18쎯ㄨㄟˋ3쎯	-11.2855
▁ㄒㄧㄚ0쎯ㄖㄣˊ2쎯	-11.2856
▁쎁쎉쎁쎄	-11.286
ㄇㄛˋ3쎯	-11.2863
▁ㄍㄨㄥ0쎯ㄧˋ2쎯ㄆㄧㄣˇ쎯	-11.2863
▁ㄓㄨㄢˇ쎯ㄒㄧㄤˋ0쎯	-11.2865
▁ㄖㄜˋ쎯ㄌㄧㄤˊ3쎯	-11.287
▁ㄌㄨˋ0쎯ㄓˋ3쎯	-11.2874
▁ㄊㄨㄥ0쎯ㄨㄤˇ2쎯	-11.2878
ㄌㄧㄢˊ1쎯	-11.2879
▁ㄨㄢˊ1쎯ㄅㄟˋ2쎯	-11.2884
▁ㄨㄟ1쎯ㄌㄧㄢˊ5쎯	-11.2885
▁ㄧㄢˇ2쎯ㄐㄧㄥˋ8쎯	-11.2888
▁ㄐㄧ13쎯ㄉㄞ1쎯	-11.2888
ㄆㄧ4쎯ㄌㄧˋ16쎯	-11.2889
▁ㄗㄠˋ2쎯ㄧˋ30쎯	-11.2894
ㄤˋ쎯	-11.2896
▁ㄑㄩ0쎯ㄕㄜˊ1쎯	-11.2897
▁ㄞˋ1쎯ㄒㄧㄣ0쎯	-11.2905
▁ㄕㄡˋ5쎯ㄖㄡˋ쎯	-11.2905
▁ㄌㄩˇ6쎯	-11.291
▁ㄐㄩˊ2쎯	-11.291
ㄆㄠˊ0쎯	-11.291
▁ㄕㄚ0쎯ㄖㄣˊ0쎯	-11.291
▁ㄍㄜˇ1쎯ㄈㄟˊ0쎯ㄕˋ4쎯	-11.2911
▁ㄊㄨˊ2쎯ㄓㄨㄥ0쎯	-11.2912
▁ㄍㄤ6쎯ㄐㄧㄣ5쎯	-11.2912
▁ㄋㄚ1쎯ㄍㄨㄚ0쎯	-11.2915
▁ㄆㄧㄣ0쎯ㄧㄣ4쎯	-11.2915
▁ㄕˇ0쎯ㄌㄧㄠˋ0쎯	-11.292
ㄑㄧㄢˋ1쎯ㄨㄟˊ6쎯	-11.292
ㄈㄨˊ2	-11.2921
▁ㄅㄞˊ0쎯ㄐㄧㄡˇ5쎯	-11.2922
ㄨㄣˇ1쎯	-11.2924
▁ㄗㄨˊ0쎯ㄧˇ2쎯	-11.2924
▁ㄩˇ3쎯ㄇㄠˊ0쎯	-11.2927
ㄧㄤ0쎯	-11.2929
▁쎁쎉쎁쎀	-11.293
▁ㄍㄞˇ쎯ㄐㄧㄢˋ2쎯	-11.2931
ㄩˊ30쎯	-11.2936
▁ㄜˇ쎯ㄒㄧㄥˋ2쎯	-11.2938
▁ㄅㄧㄥˋ0쎯ㄕˋ19쎯	-11.2942
▁ㄏㄞˇ0쎯ㄅㄧㄣ3쎯	-11.2943
▁ㄐㄧㄢˋ9쎯ㄐㄧㄢˋ9쎯	-11.2944
▁ㄚ3쎯ㄓˋ3쎯	-11.2947
▁ㄧㄠ4쎯ㄉㄧㄢˇ1쎯	-11.2948
▁ㄧㄡˊ4쎯ㄘㄞˋ0쎯	-11.2948
▁ㄎㄞ0쎯ㄎㄨㄛˋ2쎯	-11.2948
▁ㄍㄨㄛˇ0쎯ㄕㄨˋ3쎯	-11.295
▁ㄐㄧㄠ6쎯ㄏㄨㄟˋ2쎯	-11.2951
▁ㄐㄧㄝˊ6쎯ㄓˋ0쎯	-11.2954
▁ㄧㄡˇ1쎯ㄓㄨˋ0쎯ㄩˊ0쎯	-11.2957
ㄗㄨㄟˋ2쎯	-11.2963
ㄎㄨˋ2쎯	-11.2964
▁ㄘㄨˋ3쎯	-11.2965
ㄒㄧㄢˇ6쎯	-11.297
▁ㄔㄨㄢ1쎯ㄍㄨㄛ0쎯	-11.297
▁ㄨˋ2쎯ㄍㄨㄥ0쎯	-11.2971
▁ㄙㄚ0쎯ㄕㄤˇ0쎯	-11.2975
▁ㄧˋ4쎯ㄏㄨㄟˋ2쎯	-11.2976
ㄒㄧㄠˋ4쎯	-11.2978
▁ㄗㄨㄥˇ0쎯ㄜˊ7쎯	-11.2979
ㄧㄢ0쎯	-11.2993
▁ㄒㄧㄢˋ4쎯ㄈㄚˇ0쎯	-11.2995
▁ㄏㄜˊ3쎯ㄉㄠˋ3쎯	-11.2997
▁ㄧㄡˊ4쎯ㄍㄨㄛ3쎯	-11.2997
▁ㄦˊ1쎯ㄧˇ1쎯	-11.2999
ㄧㄝˋ8쎯	-11.3003
ㄕㄨˇ3쎯	-11.3005
ㄨˋ10쎯	-11.3006
▁ㄍㄢˋ0쎯ㄓㄡ1쎯	-11.3006
▁ㄈㄨˊ12쎯ㄓㄡ1쎯ㄕˋ4쎯	-11.3008
▁ㄈㄚ쎯ㄍㄨㄤ0쎯	-11.3008
▁ㄈㄡˇ0쎯ㄗㄜˊ0쎯	-11.3008
ㄔㄨㄥ1쎯ㄉㄧㄢˋ0쎯ㄑㄧˋ7쎯	-11.3009
ㄍㄨㄥ5쎯	-11.3009
ㄐㄧㄝˊ3쎯	-11.301
ㄓㄤˋ1쎯	-11.301
▁̇ㄕ쎯ㄇㄧㄣˊ0쎯	-11.301
▁ㄒㄩˇ0쎯ㄎㄜˇ0쎯ㄓㄥˋ0쎯	-11.3011
▁ㄉㄨˊ1쎯ㄗ2쎯	-11.3017
쎉쎅쎀	-11.3017
ㄗㄨˊ0쎯ㄑㄧㄡˊ2쎯	-11.3019
ㄅㄤˋ1쎯	-11.3023
▁ㄇㄛˊ0쎯ㄒㄧㄠˋ3쎯	-11.3025
▁ㄒㄧㄥ1쎯ㄐㄧ13쎯	-11.3026
ㄒㄧㄣ7쎯	-11.3029
▁ㄐㄧㄠ6쎯ㄩㄢˊ2쎯	-11.3031
▁ㄖㄜˋ쎯ㄉㄧㄢˇ1쎯	-11.3035
ㄍㄜˊ2쎯ㄦˇ0쎯	-11.3035
▁쎁쎉쎉쎂ㄋㄧㄢˊ0쎯	-11.3037
▁ㄌㄠˇ0쎯ㄅㄢˇ0쎯	-11.304
ㄒㄩ4쎯	-11.3041
▁ㄔㄨˊ1쎯ㄈㄤˊ3쎯	-11.3046
ㄓㄚˋ2쎯	-11.3046
▁ㄩㄥˇ0쎯ㄐㄧㄡˇ1쎯	-11.3047
▁ㄅㄧㄢ0쎯ㄐㄧㄥˋ7쎯	-11.3049
▁ㄔㄨˇ2쎯ㄅㄟˋ2쎯	-11.305
▁ㄅㄠˇ1쎯ㄉㄢˋ0쎯	-11.3053
ㄉㄨㄟ쎯	-11.3055
쎈쎈쎀	-11.3058
▁ㄧㄢˊ5쎯ㄢˋ0쎯	-11.306
ㄋㄨㄛˋ2쎯	-11.3063
ㄗㄨㄟˋ0쎯	-11.3065
▁ㄧㄚˋ0쎯	-11.3067
▁ㄑㄧㄢ0쎯ㄨㄚˇ0쎯	-11.3067
▁ㄅㄢˋ3쎯ㄙㄨㄟˊ1쎯	-11.3072
▁ㄑㄧㄠˊ3쎯	-11.3077
▁ㄉㄚˋ쎯ㄍㄤ5쎯	-11.3078
▁ㄐㄧㄥ2쎯ㄈㄟˋ4쎯	-11.3081
¥	-11.3082
▁ㄒㄧㄥˊ1쎯ㄕˋ6쎯	-11.3083
▁ㄐㄧㄢ7쎯ㄩˋ4쎯	-11.3086
▁ㄘㄤ0쎯ㄎㄨˋ0쎯	-11.3087
▁ㄉㄨㄛˇ2쎯	-11.3087
▁ㄒㄧㄡ0쎯ㄒㄧ7쎯	-11.3089
▁ㄗㄠˋ3쎯	-11.3091
▁ㄗㄨㄥˇ0쎯ㄉㄨ0쎯	-11.3091
▁ㄔㄨㄥ1쎯ㄉㄧㄢˋ0쎯	-11.3096
▁ㄌㄧˋ1쎯ㄕˇ0쎯ㄐㄧˋ3쎯	-11.3097
▁ㄅㄧㄥ0쎯ㄊㄤˊ5쎯	-11.3097
ㄅㄧˋ12쎯	-11.3098
▁ㄕˋ2쎯ㄈㄢˋ3쎯ㄒㄧㄥˋ2쎯	-11.3102
ㄕㄜˋ4쎯	-11.3103
ㄑㄧㄥ2쎯	-11.3112
쎂쎀쎁쎀	-11.3114
▁ㄎㄜ2쎯ㄏㄨㄢˋ0쎯	-11.3117
ㄕㄨ7쎯	-11.3118
▁ㄒㄧㄣ5쎯ㄧ0쎯ㄉㄞˋ0쎯	-11.3118
ㄊㄨㄟ0쎯	-11.3118
ㄇㄟˇ1쎯ㄕㄨˋ0쎯ㄍㄨㄢˇ0쎯	-11.3119
ㄉㄨㄢˋ	-11.312
ㄉㄨㄟˋ1쎯ㄅㄧˇ1쎯ㄉㄨˋ2쎯	-11.312
▁ㄧㄤˊ0쎯ㄕㄥ2쎯ㄑㄧˋ7쎯	-11.3121
▁쎃쎁쎀	-11.3124
▁ㄏㄢˊ4쎯ㄩˋ14쎯	-11.3127
▁ㄍㄨㄚˋ1쎯ㄆㄞˊ2쎯	-11.3128
▁ㄑㄩㄣˊ0쎯	-11.3128
▁ㄐㄧ18쎯ㄌㄧˋ5쎯	-11.3129
▁ㄌㄢˊ4쎯ㄧㄚˊ0쎯	-11.313
▁ㄧㄡˊ5쎯ㄌㄢˇ0쎯	-11.3131
▁ㄗㄨㄢ0쎯ㄉㄢˋ0쎯	-11.3134
▁ㄉㄨˋ0쎯ㄐㄩㄢ3쎯	-11.3139
ㄘㄤ3쎯	-11.3141
ㄈㄣˋ4쎯	-11.3144
▁ㄈㄨˋ9쎯ㄩˊ1쎯	-11.315
ㄈㄢˋ4쎯	-11.315
ㄧˊ8쎯ㄔㄢˇ0쎯	-11.315
▁ㄊㄡˊ1쎯ㄔㄢˇ0쎯	-11.3151
▁ㄧㄢ2쎯ㄘㄠˇ쎯	-11.3153
ㄐㄧㄢˇ3쎯	-11.3156
▁ㄋㄧˋ2쎯	-11.3158
▁ㄓˋ3쎯ㄐㄧˋ8쎯	-11.3162
ㄅㄠˇ2쎯ㄒㄧㄢˇ1쎯	-11.3167
磺	-11.3167
▁ㄔㄤˊ0쎯ㄈㄤ0쎯ㄒㄧㄥˊ1쎯	-11.317
▁ㄔㄨㄣ0쎯ㄊㄧㄢ0쎯	-11.3171
▁ㄔㄥˊ3쎯ㄐㄧㄝ4쎯	-11.3175
▁ㄐㄧㄡˋ0쎯ㄓˇ2쎯	-11.3176
▁ㄐㄩˋ4쎯ㄔㄤˊ1쎯	-11.3179
▁ㄓㄨㄛ2쎯ㄇㄧㄢˋ0쎯	-11.3179
▁ㄐㄧ4쎯	-11.3185
▁ㄈㄨˊ2쎯ㄆㄧㄣˊ0쎯	-11.3188
▁ㄊㄧㄢ0쎯ㄘㄞˊ0쎯	-11.3188
▁쎁쎉쎁쎈	-11.3194
▁ㄊㄞˋ0쎯ㄕㄡˇ1쎯	-11.3195
▁ㄓㄥ0쎯ㄍㄨㄟ2쎯	-11.3197
▁ㄙㄨˋ0쎯ㄙㄨㄥˋ0쎯	-11.3198
▁ㄗㄨㄛˇ0쎯ㄔㄨㄢˊ0쎯	-11.32
▁ㄇㄚ2쎯ㄘㄚ0쎯	-11.3201
▁ㄅㄨˇ2쎯ㄖㄨˇ1쎯	-11.3203
▁ㄜˇ쎯ㄇㄛˊ7쎯	-11.3205
▁ㄙㄨㄟˊ1쎯ㄧˋ18쎯	-11.3206
▁ㄍㄨㄢˇ0쎯ㄔㄤˊ0쎯	-11.3212
▁ㄐㄧㄣ3쎯ㄏㄨㄤˊ1쎯	-11.3214
▁ㄐㄧㄢˋ0쎯ㄐㄧㄝˇ1쎯	-11.3215
ㄒㄧㄤˇ0쎯ㄋㄧㄢˊ0쎯	-11.3217
▁ㄋㄞˇ1쎯ㄧㄡˊ4쎯	-11.3219
ㄈㄨˋ8쎯	-11.322
▁ㄌㄥˇ쎯ㄉㄨㄥˋ1쎯	-11.322
▁ㄔㄣˊ5쎯ㄆㄧˊ0쎯	-11.3223
▁ㄉㄠˋ0쎯ㄉㄧˇ1쎯	-11.3223
▁ㄓㄠ2쎯ㄔㄨㄥˊ2쎯	-11.3223
▁ㄏㄜˊ3쎯ㄎㄡˇ쎯	-11.3225
▁ㄓㄨㄤ1쎯ㄗˇ0쎯	-11.3228
▁ㄕㄡˇ2쎯ㄆㄧ0쎯	-11.3232
ㄕㄥ1쎯ㄔㄢˇ0쎯	-11.3233
▁ㄏㄨㄥˊ4쎯ㄨˇ3쎯	-11.3233
ㄏㄨㄟˋ2쎯ㄧˋ4쎯	-11.3235
▁̇ㄉㄜ0쎯ㄓˋ4쎯ㄒㄩㄝˊ1쎯	-11.3239
▁ㄐㄩㄣ2쎯ㄗˇ0쎯	-11.3241
▁ㄌㄩˇ3쎯ㄍㄜˇ1쎯ㄐㄧㄣ3쎯	-11.3245
▁ㄙㄨㄟˋ0쎯ㄩㄝˋ0쎯	-11.3247
▁ㄈㄤ0쎯ㄔㄥˊ7쎯	-11.325
▁ㄏㄢˋ6쎯ㄌㄧㄣˊ1쎯	-11.3251
▁ㄕㄥ1쎯ㄙˇ쎯	-11.3252
▁ㄌㄧㄡˊ5쎯ㄙㄨㄢ0쎯	-11.3253
▁ㄔㄨ0쎯ㄕㄡˋ3쎯	-11.3256
▁ㄐㄩㄣ2쎯ㄓㄨˇ0쎯	-11.326
▁ㄒㄧㄣˋ0쎯ㄖㄣˊ3쎯	-11.3261
▁ㄨㄣˊ0쎯ㄉㄤˋ1쎯	-11.327
▁쎂쎀쎀쎀쎀	-11.327
▁ㄘㄢ0쎯ㄙㄞˋ쎯	-11.3271
ㄗㄠˋ5쎯	-11.3273
▁ㄔㄤˊ0쎯ㄓㄥ2쎯	-11.3274
ㄠˊ5쎯	-11.3278
쎅쎀쎀쎀	-11.3282
▁ㄕㄡˇ2쎯ㄔㄨㄤ0쎯	-11.3282
ㄊㄞ1쎯	-11.3285
▁ㄕˋ11쎯ㄊㄨˊ0쎯	-11.3285
▁ㄉㄚˊ1쎯ㄅㄧㄠ0쎯	-11.3287
ㄍㄨˋ1쎯ㄕˋ8쎯	-11.3287
ㄨㄚ1쎯	-11.3288
▁ㄌㄧㄤˇ0쎯ㄉㄨㄢ0쎯	-11.329
▁ㄒㄩˇ0쎯ㄎㄜˇ0쎯	-11.329
▁ㄓㄨˇ0쎯ㄓˋ5쎯ㄧ3쎯ㄕ2쎯	-11.3292
ㄙㄠ1쎯	-11.3293
▁ㄉㄠˇ1쎯ㄕㄤˇ0쎯	-11.3293
▁ㄦˋ0쎯ㄕˊ0쎯ㄨˇ0쎯	-11.3294
▁ㄨˇ0쎯ㄒㄧㄥ1쎯ㄐㄧˊ2쎯	-11.3295
▁ㄑㄧㄠˇ0쎯ㄇㄧㄠˋ0쎯	-11.3306
ㄔㄡˊ1쎯	-11.3311
▁ㄐㄩˋ1쎯ㄐㄩㄝˊ2쎯	-11.3316
▁ㄘㄜˋ3쎯ㄏㄨㄟˋ5쎯	-11.3317
ㄩˊ4쎯	-11.3317
▁ㄏㄜˊ5쎯ㄙㄨㄢˋ1쎯	-11.3318
ㄌㄧㄝˋ3쎯	-11.3319
▁ㄧ4쎯ㄘˋ0쎯	-11.3326
▁ㄧㄚˊ0쎯ㄔˇ0쎯	-11.3328
ㄅㄛ0쎯	-11.3332
▁ㄋㄧˇ0쎯ㄉㄧㄥˋ0쎯	-11.3332
ㄕㄢ3쎯	-11.3333
쎅쎃쎃	-11.3334
▁ㄇㄧㄢˋ0쎯ㄇㄠˋ4쎯	-11.3337
ㄧㄣˊ1쎯ㄏㄤˊ0쎯	-11.3339
▁ㄊㄧㄥˊ3쎯ㄔㄜ0쎯	-11.3339
▁ㄩㄢˊ1쎯ㄋㄟˋ쎯	-11.3344
ㄧㄡˊ6쎯	-11.3345
▁ㄔㄥˊ3쎯ㄋㄨㄛˋ0쎯	-11.3347
▁ㄈㄚ쎯ㄕㄡˋ3쎯	-11.3347
▁ㄑㄩㄢˊ5쎯ㄕˋ20쎯	-11.335
ㄨㄢˇ6쎯	-11.3351
ㄏㄜˊ0쎯	-11.3351
▁ㄐㄧㄢˋ6쎯ㄑㄩㄢˊ1쎯	-11.3353
▁ㄐㄧㄢ3쎯ㄕˊ3쎯	-11.3353
ㄙ4쎯ㄉㄧˋ4쎯	-11.3353
ㄒㄧㄤ9쎯	-11.3353
▁ㄌㄜˋ0쎯ㄩㄢˊ1쎯	-11.3355
▁ㄧˋ12쎯ㄩˊ0쎯	-11.3355
ㄉㄞˋ12쎯	-11.3358
▁ㄕㄣˇ1쎯ㄔㄚˊ2쎯	-11.336
▁ㄅㄧㄢˋ0쎯ㄌㄧㄤˊ3쎯	-11.3363
▁ㄉㄨˇ1쎯	-11.3371
▁ㄇㄧㄥˊ0쎯ㄐㄧㄠˋ0쎯	-11.3371
ㄈㄥ0쎯ㄒㄧㄢˋ0쎯	-11.3379
ㄇㄧㄣˊ0쎯ㄐㄧㄥ2쎯ㄐㄧˇ3쎯	-11.3389
▁ㄐㄧ6쎯ㄒㄧㄥˊ2쎯	-11.3391
▁ㄍㄨㄢ1쎯ㄎㄢ1쎯	-11.3392
▁ㄒㄧㄠˇ0쎯ㄏㄞˊ1쎯	-11.3395
▁ㄒㄧㄚˋ1쎯ㄊㄧㄢ0쎯	-11.3398
▁ㄉㄨˊ1쎯ㄧㄡˇ1쎯	-11.34
▁ㄈㄤˋ쎯ㄓˋ13쎯	-11.3403
ㄅㄥˋ0쎯	-11.3407
ㄈㄚˇ0쎯ㄒㄩㄝˊ1쎯ㄩㄢˋ2쎯	-11.3408
▁ㄅㄟˋ2쎯ㄢˋ2쎯	-11.3411
▁ㄌㄧˊ3쎯ㄒㄧㄡ0쎯	-11.3411
▁ㄌㄩˋ2쎯ㄌㄧㄥˇ1쎯	-11.3412
쎃쎃쎃	-11.3412
ㄩˊ6쎯	-11.3412
▁ㄋㄚ1쎯ㄋㄧㄥˊ0쎯ㄕˋ4쎯	-11.3414
▁ㄌㄧㄡˋ1쎯ㄒㄩˋ6쎯	-11.3414
▁ㄩˊ20쎯	-11.3419
쎇쎈쎇	-11.342
▁ㄐㄧㄢˇ6쎯ㄑㄧㄥ1쎯	-11.3425
ㄒㄧˋ0쎯ㄐㄩˋ4쎯	-11.3426
▁ㄍㄨㄛ2쎯	-11.3429
▁ㄅㄧˋ13쎯ㄏㄨㄚˋ1쎯	-11.343
▁ㄘㄨㄥ2쎯ㄐㄧㄤ2쎯	-11.3431
쎇쎆쎀	-11.3433
ㄌㄧˊ5쎯	-11.3446
▁ㄙˋ3쎯	-11.3454
▁ㄈㄤˇ0쎯ㄓㄣ4쎯	-11.3456
ㄇㄟˋ1쎯	-11.3462
▁ㄅㄧㄢˋ0쎯ㄨㄟˊ0쎯	-11.3466
▁ㄘㄢ0쎯ㄍㄨㄢ1쎯	-11.347
▁ㄓㄢ0쎯ㄌㄧㄥˇ1쎯	-11.3471
ㄈㄟˇ3쎯	-11.3471
▁ㄔㄥˊ4쎯ㄅㄠˇ3쎯	-11.3473
▁ㄕㄨˋ3쎯ㄆㄧˊ0쎯	-11.3481
ㄇㄧㄣˊ0쎯ㄓㄥˋ3쎯ㄐㄩˊ0쎯	-11.3482
▁쎁쎉쎀쎅	-11.3484
─	-11.3486
ㄕㄢ0쎯ㄇㄞˋ3쎯	-11.3486
▁ㄡ0쎯ㄈㄣ0쎯	-11.3487
ㄐㄩˋ6쎯	-11.3488
▁ㄗˇ0쎯ㄋㄩˇ0쎯	-11.349
▁ㄈㄨ0쎯ㄑㄧ1쎯	-11.3491
▁ㄨㄢˇ2쎯ㄕㄤˇ0쎯	-11.3492
▁ㄅㄢˇ1쎯ㄏㄨㄚˋ1쎯	-11.3497
▁ㄔㄥˊ0쎯ㄒㄧㄤˋ3쎯	-11.35
▁ㄙˋ2쎯ㄩㄢˋ2쎯	-11.3504
ㄐㄧㄝ3쎯ㄍㄡˋ0쎯	-11.3507
▁ㄋㄧˇ0쎯ㄉㄧㄥˋ1쎯	-11.3515
ㄊㄨㄥ0쎯ㄒㄩㄣˋ1쎯ㄌㄨˋ0쎯	-11.3522
▁ㄒㄩㄥ4쎯ㄅㄨˋ4쎯	-11.3525
▁ㄗㄠˋ2쎯ㄓˇ3쎯	-11.3525
▁ㄔㄜˋ1쎯ㄒㄧㄠ6쎯	-11.3533
▁ㄒㄧㄢ3쎯ㄧㄢˋ2쎯	-11.3533
▁ㄐㄧㄣ3쎯ㄑㄧㄢˊ1쎯	-11.3536
▁ㄌㄨˊ4쎯	-11.3537
▁ㄐㄩˋ8쎯ㄍㄜˇ1쎯	-11.3539
▁ㄊㄧㄢ1쎯ㄐㄧㄚ0쎯ㄐㄧˋ8쎯	-11.3539
▁ㄧㄢˊ6쎯ㄊㄠˇ쎯ㄏㄨㄟˋ2쎯	-11.3539
▁ㄅㄧㄠ0쎯ㄑㄧㄢ5쎯	-11.354
▁ㄕ6쎯ㄖㄨㄣˋ1쎯	-11.3541
▁ㄨㄣ0쎯ㄖㄡˊ0쎯	-11.3541
ㄒㄧㄠ9쎯	-11.3542
ㄌㄨˊ2쎯	-11.3542
▁ㄑㄩㄝˋ1쎯ㄌㄧˋ3쎯	-11.3543
▁ㄑㄧˋ0쎯ㄨㄟˋ3쎯	-11.3544
▁ㄕㄨㄟˇ쎯ㄓㄨㄣˇ0쎯	-11.3545
▁ㄑㄧㄢˋ2쎯ㄖㄨˋ0쎯	-11.3545
▁ㄌㄧㄡˋ0쎯ㄩㄝˋ0쎯	-11.3548
▁ㄑㄧㄣˊ0쎯ㄘㄞˋ0쎯	-11.355
▁ㄗㄨˇ0쎯ㄎㄤˋ1쎯	-11.3551
ㄙ4쎯ㄊㄚˇ0쎯	-11.3553
▁ㄒㄧㄤ2쎯ㄑㄧˋ0쎯	-11.3557
ㄕㄣ7쎯	-11.3558
▁ㄑㄧㄡˊ1쎯ㄓˊ4쎯	-11.3559
▁ㄍㄨ4쎯ㄋㄧㄤˊ쎯	-11.3561
▁ㄔㄠ0쎯	-11.3564
ん	-11.3637
◆	-11.3929
ω	-11.4126
л	-11.448
な	-11.4596
ト	-11.4683
た	-11.4765
リ	-11.4793
き	-11.5002
ラ	-11.5213
@	-11.5254
)	-11.5287
т	-11.535
ク	-11.549
・	-11.5529
と	-11.5559
ア	-11.5582
◇	-11.5641
ま	-11.5755
m	-11.5853
み	-11.645
5	-11.6473
後	-11.655
り	-11.676
φ	-11.6876
羣	-11.7353
こ	-11.7488
•	-11.7528
さ	-11.758
ッ	-11.7681
く	-11.7792
る	-11.7895
м	-11.816
氽	-11.8281
ド	-11.8583
/	-11.8715
シ	-11.896
ら	-11.8964
$	-11.9016
あ	-11.9039
̇	-11.9062
□	-11.918
レ	-11.9458
д	-11.9531
は	-11.9531
お	-11.9654
に	-11.9704
呎	-11.9885
タ	-11.993
σ	-11.9956
ロ	-11.9987
〕	-12.0001
ا	-12.0074
γ	-12.0126
ち	-12.0147
%	-12.0402
フ	-12.0427
ジ	-12.0572
マ	-12.0572
у	-12.0665
☆	-12.0698
δ	-12.072
が	-12.0892
й	-12.0915
〇	-12.1051
г	-12.1096
カ	-12.1535
6	-12.1568
`	-12.1753
も	-12.1845
п	-12.1895
[	-12.1931
つ	-12.1944
"	-12.1995
c	-12.2007
v	-12.2051
б	-12.2133
て	-12.219
じ	-12.2242
ィ	-12.2358
テ	-12.2377
や	-12.2476
す	-12.3099
<	-12.3319
∼	-12.3333
コ	-12.3448
甙	-12.3448
ل	-12.3683
エ	-12.3735
g	-12.384
я	-12.3892
オ	-12.4037
だ	-12.4045
&	-12.4206
キ	-12.4247
■	-12.4342
λ	-12.4365
ウ	-12.4421
バ	-12.4606
デ	-12.468
́	-12.487
サ	-12.487
え	-12.4895
け	-12.4912
ひ	-12.4912
ミ	-12.4946
わ	-12.5005
π	-12.5022
△	-12.5022
ρ	-12.5201
≈	-12.5253
ナ	-12.5288
ょ	-12.5297
を	-12.5367
グ	-12.5419
モ	-12.5419
ニ	-12.5437
で	-12.5455
ム	-12.5455
れ	-12.549
ゆ	-12.5499
\	-12.5514
ガ	-12.5526
ь	-12.5597
ε	-12.5806
ブ	-12.5861
ャ	-12.588
よ	-12.5908
プ	-12.5973
ろ	-12.601
吋	-12.6076
、	-12.6309
っ	-12.644
>	-12.6457
ο	-12.6519
ュ	-12.6588
メ	-12.6648
鲶	-12.6718
チ	-12.6748
‧	-12.69
巖	-12.7286
|	-12.747
‰	-12.7599
馀	-12.7704
ダ	-12.7855
l	-12.7866
ي	-12.8002
T	-12.8094
ズ	-12.8163
M	-12.8187
頫	-12.8198
ビ	-12.8315
⊙	-12.8363
録	-12.8374
垅	-12.841
箇	-12.8434
ェ	-12.847
م	-12.8494
め	-12.8542
闇	-12.8848
_	-12.8899
х	-12.9011
疎	-12.9036
ф	-12.9061
o	-12.9074
τ	-12.9228
ر	-12.9267
せ	-12.9293
n	-12.9293
θ	-12.9423
ы	-12.945
峯	-12.9543
x	-12.9583
з	-12.9583
稜	-12.9992
ν	-13.0006
ι	-13.002
咲	-13.0048
牀	-13.009
η	-13.0104
寳	-13.0147
ハ	-13.0175
彊	-13.0189
ず	-13.0261
ς	-13.0289
ョ	-13.0376
囧	-13.0376
ノ	-13.039
ن	-13.0434
パ	-13.0463
a	-13.0492
و	-13.0492
そ	-13.0536
7	-13.0571
{	-13.0594
ば	-13.0685
ネ	-13.073
堀	-13.0866
ど	-13.1065
鬭	-13.1143
ゅ	-13.1575
〔	-13.1874
氵	-13.1991
セ	-13.2042
^	-13.2064
矽	-13.2077
κ	-13.2094
※	-13.2146
浄	-13.2146
ァ	-13.218
ب	-13.2232
ほ	-13.2232
ワ	-13.2267
蹠	-13.2426
の	-13.2454
®	-13.2587
戦	-13.2807
丶	-13.2862
ふ	-13.2881
د	-13.2993
ツ	-13.3031
濬	-13.3088
이	-13.3221
s	-13.326
ц	-13.3318
沢	-13.3475
濛	-13.3554
ゴ	-13.3634
ш	-13.3919
ケ	-13.3919
◎	-13.404
ぎ	-13.4064
ね	-13.4149
ゃ	-13.4212
đ	-13.4297
む	-13.4319
8	-13.4353
ة	-13.4362
}	-13.4363
h	-13.4384
碁	-13.4449
ヴ	-13.447
k	-13.4492
ψ	-13.458
徧	-13.4646
麼	-13.4646
↓	-13.4691
谘	-13.4736
ボ	-13.4781
÷	-13.4916
ソ	-13.4916
艹	-13.5008
飚	-13.5008
°	-13.5137
ご	-13.5217
「	-13.5304
ж	-13.5312
囯	-13.5312
〞	-13.5359
ザ	-13.5359
纔	-13.5407
ぶ	-13.5455
ぐ	-13.5479
u	-13.5503
摺	-13.5552
ヒ	-13.565
竜	-13.5674
黒	-13.5724
顗	-13.5748
県	-13.5773
←	-13.5848
b	-13.5923
ヤ	-13.5923
า	-13.5999
駅	-13.6127
س	-13.6205
d	-13.6231
〉	-13.629
t	-13.6309
ギ	-13.6309
栱	-13.6335
菴	-13.6521
卍	-13.6602
ɡ	-13.6629
ร	-13.6683
ピ	-13.671
ベ	-13.6737
麴	-13.6765
ع	-13.682
駰	-13.6903
p	-13.6931
砦	-13.7043
鷟	-13.7156
覩	-13.7156
↑	-13.7214
ォ	-13.7242
鰕	-13.73
拏	-13.7505
鋬	-13.7744
鮨	-13.7744
ح	-13.7805
閤	-13.7805
e	-13.7866
ー	-13.7869
9	-13.7918
ポ	-13.7927
寃	-13.7958
ざ	-13.802
ン	-13.8057
び	-13.8082
讎	-13.8082
げ	-13.8145
?	-13.8217
糸	-13.824
淛	-13.8272
缍	-13.8336
い	-13.8347
姫	-13.8368
υ	-13.8498
廝	-13.8498
∠	-13.8629
屌	-13.8629
і	-13.8662
'	-13.8746
儁	-13.8796
粧	-13.8796
遯	-13.883
r	-13.8863
∈	-13.9
ユ	-13.9069
ت	-13.9103
น	-13.9138
賸	-13.9173
√	-13.9173
〈	-13.9198
べ	-13.9243
へ	-13.9384
寔	-13.9384
̊	-13.942
袴	-13.9456
徳	-13.9528
魟	-13.9528
김	-13.9637
裏	-13.9674
대	-13.9674
э	-13.971
ゲ	-13.971
●	-13.9745
亻	-13.9747
凪	-13.9896
〜	-13.9934
覈	-13.9934
ی	-13.9972
戸	-14.0048
瀬	-14.0048
喫	-14.0086
×	-14.0128
≠	-14.0162
毬	-14.0162
蒾	-14.0162
煇	-14.024
畊	-14.0318
*	-14.0364
ư	-14.0436
ㄫ	-14.0436
齎	-14.0476
ł	-14.0555
粄	-14.0555
叡	-14.0596
襃	-14.0636
정	-14.0676
慙	-14.0717
도	-14.0717
鵟	-14.0758
蘇	-14.0799
한	-14.0799
ί	-14.084
∞	-14.0923
驩	-14.0923
拚	-14.1006
蚵	-14.1006
鍊	-14.1006
ف	-14.1048
=	-14.111
翫	-14.1133
ю	-14.1261
ぼ	-14.1261
瓌	-14.1261
嬅	-14.1304
ホ	-14.1348
―	-14.1371
煖	-14.1391
ệ	-14.1391
š	-14.1479
χ	-14.1479
緜	-14.1479
§	-14.1523
ö	-14.1656
—	-14.1691
毘	-14.1701
ˉ	-14.1837
ペ	-14.1837
▲	-14.1882
恵	-14.1882
洩	-14.1882
▪	-14.1928
効	-14.2067
군	-14.2067
畑	-14.2161
ά	-14.2161
艸	-14.2161
0	-14.2199
づ	-14.2255
조	-14.2255
ั	-14.2303
燿	-14.2303
鴷	-14.2351
성	-14.2351
−	-14.2399
鵙	-14.2544
復	-14.2593
炁	-14.2593
牋	-14.2593
～	-14.2641
ج	-14.2692
+	-14.2742
ə	-14.2742
ä	-14.2792
อ	-14.2792
疋	-14.2792
説	-14.2792
∕	-14.2842
旂	-14.2842
々	-14.2893
纍	-14.2893
č	-14.2943
ه	-14.2943
ゼ	-14.2943
ش	-14.3046
ย	-14.3046
伝	-14.3046
劵	-14.3046
ม	-14.3097
璿	-14.3097
ạ	-14.3149
壻	-14.3149
忄	-14.3149
〝	-14.3201
ё	-14.3254
시	-14.3254
지	-14.3254
栃	-14.3254
ı	-14.3306
ز	-14.3306
疒	-14.3359
茇	-14.3412
暐	-14.352
氹	-14.352
薙	-14.352
鴈	-14.352
주	-14.352
〃	-14.3574
사	-14.3574
선	-14.3574
ق	-14.3628
厓	-14.3628
晳	-14.3628
畠	-14.3628
俛	-14.3628
勑	-14.3683
勗	-14.3737
扌	-14.3737
盤	-14.3737
ิ	-14.3793
衞	-14.3793
¢	-14.3848
ζ	-14.3848
ก	-14.3848
斲	-14.3848
아	-14.3848
勅	-14.3904
囗	-14.396
瑠	-14.396
脷	-14.396
蹻	-14.396
楽	-14.396
เ	-14.4017
ố	-14.4017
篠	-14.4017
ć	-14.4074
寘	-14.4074
捱	-14.4074
ό	-14.4131
♂	-14.4131
攟	-14.4131
∑	-14.4304
。	-14.4304
민	-14.4304
인	-14.4304
気	-14.4422
麤	-14.4481
고	-14.4481
י	-14.454
歛	-14.454
丨	-14.46
辻	-14.46
脣	-14.466
榘	-14.4721
讙	-14.4721
♀	-14.4782
溼	-14.4782
祔	-14.4782
讌	-14.4782
다	-14.4782
ゾ	-14.4843
実	-14.4843
;	-14.4878
豊	-14.4905
ヨ	-14.4967
倅	-14.4967
屍	-14.4967
壎	-14.503
桜	-14.503
ス	-14.5068
゚	-14.5093
様	-14.5093
영	-14.5093
F	-14.5156
颺	-14.5156
국	-14.5156
廻	-14.5219
団	-14.5284
皁	-14.5284
리	-14.5284
ơ	-14.5348
妬	-14.5413
菑	-14.5413
餘	-14.5413
ş	-14.5413
ξ	-14.5413
嶋	-14.5413
閟	-14.5413
ă	-14.5478
ط	-14.5478
棊	-14.5478
遶	-14.5478
신	-14.5478
의	-14.5478
ส	-14.561
搢	-14.561
鮀	-14.561
寖	-14.5677
搆	-14.5677
나	-14.5677
	-14.5677
원	-14.5744
ế	-14.5812
敍	-14.5812
栢	-14.5812
鑪	-14.5812
隣	-14.5812
剣	-14.588
獣	-14.588
阝	-14.588
ậ	-14.5948
│	-14.5948
炤	-14.5948
ว	-14.6017
ả	-14.6017
紘	-14.6017
穂	-14.6017
”	-14.6076
巿	-14.6087
犭	-14.6087
–	-14.6147
梶	-14.6157
ו	-14.6157
ぞ	-14.6157
撝	-14.6157
‘	-14.6218
愬	-14.6227
하	-14.6227
ง	-14.6298
ท	-14.6298
鉄	-14.6298
鉏	-14.6298
関	-14.6298
가	-14.6298
★	-14.6363
円	-14.6369
朊	-14.6369
発	-14.6369
鎔	-14.6369
우	-14.6369
일	-14.6369
ộ	-14.6441
対	-14.6441
纁	-14.6441
鎓	-14.6441
暠	-14.6514
査	-14.6514
墻	-14.6587
峇	-14.6587
笹	-14.6587
痠	-14.666
礽	-14.666
穉	-14.666
筭	-14.666
鳾	-14.666
燄	-14.6734
竝	-14.6734
紵	-14.6734
菈	-14.6734
기	-14.6734
서	-14.6734
躭	-14.6809
醣	-14.6809
≦	-14.6884
ヘ	-14.6884
佉	-14.6884
巻	-14.6884
躄	-14.696
ž	-14.7036
甃	-14.7036
藭	-14.7036
諡	-14.7036
璫	-14.7036
釒	-14.7036
鸊	-14.7036
ç	-14.7113
懽	-14.7113
霊	-14.7113
櫂	-14.7191
籙	-14.7191
鼉	-14.7191
ุ	-14.7269
巘	-14.7269
挢	-14.7269
晧	-14.7269
豔	-14.7269
う	-14.7276
έ	-14.7348
呪	-14.7348
廕	-14.7348
洊	-14.7348
讐	-14.7348
鷙	-14.7348
箝	-14.7427
≡	-14.7507
榊	-14.7507
貍	-14.7507
郞	-14.7507
동	-14.7507
ล	-14.7588
ễ	-14.7588
埶	-14.7588
鯙	-14.7588
ル	-14.76
甿	-14.7669
瘖	-14.7669
絺	-14.7669
羶	-14.7669
鱇	-14.7669
絵	-14.7669
ô	-14.7751
ø	-14.7751
〒	-14.7751
瑒	-14.7751
譌	-14.7751
讞	-14.7751
嶮	-14.7834
경	-14.7834
f	-14.7917
ด	-14.7917
墬	-14.7917
憍	-14.7917
鮟	-14.7917
仮	-14.8001
沴	-14.8001
驤	-14.8001
鮈	-14.8001
鷉	-14.8001
구	-14.8001
수	-14.8001
ك	-14.8086
媿	-14.8086
燐	-14.8086
顒	-14.8086
ゥ	-14.8171
어	-14.8171
진	-14.8171
闍	-14.8257
槅	-14.8257
蟌	-14.8257
闘	-14.8257
鹓	-14.8257
현	-14.8257
ぬ	-14.8344
訏	-14.8344
ˈ	-14.8344
ầ	-14.8344
冴	-14.8344
蝨	-14.8344
飈	-14.8344
라	-14.8344
스	-14.8344
菓	-14.8432
蜺	-14.8432
왕	-14.8432
خ	-14.852
ぽ	-14.852
俤	-14.852
餽	-14.852
輶	-14.8521
ห	-14.861
勣	-14.861
榦	-14.861
缋	-14.861
蔵	-14.861
錡	-14.861
鶲	-14.861
琱	-14.861
ś	-14.87
∽	-14.87
朥	-14.87
紬	-14.87
舘	-14.87
飇	-14.87
龕	-14.87
阯	-14.8791
ј	-14.8791
ี	-14.8791
剗	-14.8791
広	-14.8791
박	-14.8791
ή	-14.8883
ה	-14.8883
箠	-14.8883
辺	-14.8883
鷲	-14.8883
麿	-14.8883
่	-14.8975
焮	-14.8975
羇	-14.8975
醲	-14.8975
陁	-14.8975
أ	-14.9069
์	-14.9069
峩	-14.9069
暘	-14.9069
歩	-14.9069
騃	-14.9069
跼	-14.9163
q	-14.9163
z	-14.9163
̄	-14.9163
א	-14.9163
晬	-14.9163
阨	-14.9163
ɑ	-14.9258
嵒	-14.9258
欷	-14.9258
繖	-14.9258
鮰	-14.9258
嬾	-14.9354
宀	-14.9354
擗	-14.9354
肜	-14.9354
踈	-14.9354
霤	-14.9354
鳋	-14.9354
w	-14.9354
y	-14.9354
樫	-14.9354
臞	-14.9354
钅	-14.9354
巵	-14.9451
輈	-14.9451
餗	-14.9451
상	-14.9451
안	-14.9451
с	-14.9497
刼	-14.9549
歳	-14.9549
絶	-14.9549
보	-14.9549
은	-14.9549
к	-14.9597
α	-14.9597
ช	-14.9648
พ	-14.9648
喦	-14.9648
擣	-14.9648
晻	-14.9648
糹	-14.9648
鈇	-14.9648
부	-14.9648
산	-14.9648
ต	-14.9748
∧	-14.9748
∩	-14.9748
灊	-14.9748
로	-14.9748
怳	-14.9849
槻	-14.9849
ى	-14.9951
亜	-14.9951
檝	-14.9951
澒	-14.9951
蜑	-14.9951
鱲	-14.9951
鼇	-14.9951
학	-14.9951
̈	-15.0055
ύ	-15.0055
จ	-15.0055
∮	-15.0055
堺	-15.0055
榎	-15.0055
辶	-15.0055
鎌	-15.0055
강	-15.0055
j	-15.0159
ר	-15.0159
刓	-15.0159
濆	-15.0159
礐	-15.0159
纘	-15.0159
翬	-15.0159
鵷	-15.0159
劒	-15.0264
綝	-15.0264
韡	-15.0264
제	-15.0264
ヌ	-15.0264
旛	-15.0264
楤	-15.0264
↘	-15.037
斾	-15.037
毎	-15.037
磾	-15.037
蠧	-15.037
閈	-15.037
柟	-15.0478
ظ	-15.0478
囍	-15.0478
樋	-15.0478
礮	-15.0478
諲	-15.0478
闉	-15.0478
鮓	-15.0478
ा	-15.0587
呴	-15.0587
暱	-15.0587
讬	-15.0587
교	-15.0587
澣	-15.0697
卽	-15.0697
悪	-15.0697
泝	-15.0697
蟳	-15.0697
蠔	-15.0697
釭	-15.0697
飡	-15.0697
유	-15.0697
濊	-15.0808
é	-15.0808
ヶ	-15.0808
堦	-15.0808
寀	-15.0808
歴	-15.0808
軿	-15.0808
鎗	-15.0808
자	-15.0808
ñ	-15.092
ص	-15.092
澔	-15.092
筴	-15.092
蕡	-15.092
辵	-15.092
邅	-15.092
남	-15.092
연	-15.092
!	-15.0997
咢	-15.1034
咭	-15.1034
尅	-15.1034
昰	-15.1034
欒	-15.1034
煣	-15.1034
筯	-15.1034
鞞	-15.1034
麄	-15.1034
천	-15.1034
━	-15.1149
〓	-15.1149
丿	-15.1149
椇	-15.1149
牓	-15.1149
絰	-15.1149
纚	-15.1149
耈	-15.1149
飱	-15.1149
화	-15.1149
н	-15.1231
瀞	-15.1265
熲	-15.1265
瓛	-15.1265
윤	-15.1265
्	-15.1265
้	-15.1265
噉	-15.1265
隤	-15.1265
최	-15.1265
鱓	-15.1382
撃	-15.1382
栿	-15.1382
痾	-15.1382
穠	-15.1382
미	-15.1382
양	-15.1382
전	-15.1382
해	-15.1382
蝟	-15.1502
â	-15.1502
ğ	-15.1502
া	-15.1502
斵	-15.1502
歊	-15.1502
臁	-15.1502
蓺	-15.1502
訢	-15.1502
錂	-15.1502
鏐	-15.1502
鞾	-15.1502
鷁	-15.1502
요	-15.1502
र	-15.1622
≧	-15.1622
ぷ	-15.1622
岕	-15.1622
櫜	-15.1622
皃	-15.1622
皐	-15.1622
褧	-15.1622
騄	-15.1622
희	-15.1622
媟	-15.1744
畧	-15.1744
睠	-15.1744
穽	-15.1744
筩	-15.1744
籺	-15.1744
脇	-15.1744
舺	-15.1744
薫	-15.1744
褭	-15.1744
诶	-15.1744
貙	-15.1744
轢	-15.1744
髴	-15.1744
ค	-15.1867
บ	-15.1867
佢	-15.1867
崐	-15.1867
巂	-15.1867
揲	-15.1867
斎	-15.1867
浿	-15.1867
緼	-15.1867
繻	-15.1867
賫	-15.1867
釿	-15.1867
장	-15.1867
∙	-15.1992
専	-15.1992
睺	-15.1992
錞	-15.1992
鑊	-15.1992
鞶	-15.1992
騑	-15.1992
에	-15.1992
ә	-15.2119
ض	-15.2119
増	-15.2119
게	-15.2119
소	-15.2119
埜	-15.2119
ぜ	-15.2247
刂	-15.2247
屮	-15.2247
慴	-15.2247
暍	-15.2247
犂	-15.2247
祫	-15.2247
踭	-15.2247
頔	-15.2247
랑	-15.2247
氊	-15.2377
ћ	-15.2377
ב	-15.2377
埑	-15.2377
琍	-15.2377
変	-15.2509
殢	-15.2509
ל	-15.2509
‖	-15.2509
∣	-15.2509
尫	-15.2509
皝	-15.2509
粦	-15.2509
総	-15.2509
翣	-15.2509
衤	-15.2509
醂	-15.2509
문	-15.2509
ぱ	-15.2642
æ	-15.2642
щ	-15.2642
嘅	-15.2642
鵩	-15.2642
공	-15.2642
灋	-15.2777
罝	-15.2777
髠	-15.2777
ą	-15.2777
楛	-15.2777
祅	-15.2777
穨	-15.2777
纟	-15.2777
荘	-15.2777
賔	-15.2777
雫	-15.2777
髣	-15.2777
孼	-15.2914
寛	-15.2914
憯	-15.2914
朞	-15.2914
瑊	-15.2914
詔	-15.2914
飜	-15.2914
鶡	-15.2914
齧	-15.2914
ะ	-15.3053
ị	-15.3053
嚬	-15.3053
宂	-15.3053
澚	-15.3053
盩	-15.3053
盻	-15.3053
臺	-15.3053
褔	-15.3053
迍	-15.3053
鴞	-15.3053
礤	-15.3053
ờ	-15.3194
ぃ	-15.3194
儗	-15.3194
儵	-15.3194
猋	-15.3194
袵	-15.3194
覊	-15.3194
鋐	-15.3194
鎞	-15.3194
鰲	-15.3194
는	-15.3194
頠	-15.3194
а	-15.333
磵	-15.3337
幰	-15.3337
榼	-15.3337
虀	-15.3337
阬	-15.3337
饟	-15.3337
ã	-15.3337
∫	-15.3337
劘	-15.3337
厔	-15.3337
幙	-15.3337
籓	-15.3337
袀	-15.3337
踧	-15.3337
郕	-15.3337
鄩	-15.3337
鱵	-15.3337
収	-15.3482
搨	-15.3482
瓟	-15.3482
糺	-15.3482
脰	-15.3482
雰	-15.3482
靦	-15.3482
鬐	-15.3482
니	-15.3482
재	-15.3482
태	-15.3482
眞	-15.3482
芶	-15.3482
غ	-15.3629
晩	-15.3629
続	-15.3629
饘	-15.3629
ồ	-15.3629
塲	-15.3629
壖	-15.3629
槖	-15.3629
欵	-15.3629
澁	-15.3629
硷	-15.3629
稾	-15.3629
紥	-15.3629
觔	-15.3629
陜	-15.3629
瘈	-15.3778
児	-15.3778
剸	-15.3778
売	-15.3778
岀	-15.3778
樛	-15.3778
満	-15.3778
璵	-15.3778
盝	-15.3778
蹏	-15.3778
鉨	-15.3778
驎	-15.3778
鮡	-15.3778
嗛	-15.3929
嘢	-15.3929
揜	-15.3929
葅	-15.3929
蠭	-15.3929
麕	-15.3929
호	-15.3929
昬	-15.3929
猨	-15.3929
罥	-15.3929
ɪ	-15.4083
∴	-15.4083
╠	-15.4083
㖞	-15.4083
喰	-15.4083
囓	-15.4083
愒	-15.4083
犽	-15.4083
睒	-15.4083
鍱	-15.4083
雝	-15.4083
韘	-15.4083
髩	-15.4083
弾	-15.4083
禩	-15.4083
#	-15.4088
ː	-15.424
ъ	-15.424
ک	-15.424
勷	-15.424
敎	-15.424
旳	-15.424
梈	-15.424
豭	-15.424
蹷	-15.424
転	-15.424
輙	-15.424
逈	-15.424
髙	-15.424
삼	-15.424
을	-15.424
ę	-15.4398
佷	-15.4398
國	-15.4398
挼	-15.4398
斿	-15.4398
稲	-15.4398
経	-15.4398
詧	-15.4398
賨	-15.4398
轘	-15.4398
遡	-15.4398
镟	-15.4398
闚	-15.4398
鱚	-15.4398
麪	-15.4398
너	-15.4398
오	-15.4398
중	-15.4398
旼	-15.4398
缾	-15.4398
ż	-15.456
ธ	-15.456
∨	-15.456
咁	-15.456
嶢	-15.456
帀	-15.456
悮	-15.456
斁	-15.456
欬	-15.456
瀁	-15.456
煚	-15.456
礻	-15.456
絅	-15.456
罏	-15.456
舃	-15.456
蕚	-15.456
蘂	-15.456
虵	-15.456
蟜	-15.456
踳	-15.456
鶒	-15.456
ա	-15.4724
↙	-15.4724
冇	-15.4724
嵓	-15.4724
廌	-15.4724
惣	-15.4724
歷	-15.4724
牕	-15.4724
癎	-15.4724
禨	-15.4724
諕	-15.4724
מ	-15.489
仏	-15.489
俬	-15.489
啗	-15.489
嗢	-15.489
歔	-15.489
涖	-15.489
滝	-15.489
熳	-15.489
緌	-15.489
纆	-15.489
罇	-15.489
菸	-15.489
蔴	-15.489
蠙	-15.489
遝	-15.489
頞	-15.489
鸂	-15.489
내	-15.489
당	-15.489
ヲ	-15.506
倢	-15.506
劻	-15.506
尒	-15.506
廼	-15.506
惸	-15.506
昞	-15.506
窰	-15.506
籩	-15.506
舡	-15.506
螘	-15.506
郷	-15.506
饣	-15.506
鮠	-15.506
무	-15.506
蔕	-15.506
鉟	-15.506
鑱	-15.506
闓	-15.506
鷇	-15.506
]	-15.5081
ώ	-15.5232
ไ	-15.5232
噏	-15.5232
朘	-15.5232
灝	-15.5232
為	-15.5232
虡	-15.5232
蜋	-15.5232
謦	-15.5232
鮋	-15.5232
광	-15.5232
마	-15.5232
逌	-15.5232
鬬	-15.5232
癥	-15.5408
ë	-15.5408
嘽	-15.5408
嫋	-15.5408
帟	-15.5408
憝	-15.5408
渀	-15.5408
璹	-15.5408
銙	-15.5408
駸	-15.5408
鳽	-15.5408
鷃	-15.5408
종	-15.5408
庀	-15.5408
’	-15.5435
ת	-15.5586
ი	-15.5586
挏	-15.5586
橿	-15.5586
穀	-15.5586
臛	-15.5586
荅	-15.5586
蚖	-15.5586
諴	-15.5586
贇	-15.5586
鎛	-15.5586
鱠	-15.5586
그	-15.5586
명	-15.5586
鸝	-15.5586
ป	-15.5768
ศ	-15.5768
┄	-15.5768
匽	-15.5768
壠	-15.5768
惓	-15.5768
搊	-15.5768
旟	-15.5768
渋	-15.5768
盨	-15.5768
眥	-15.5768
禖	-15.5768
籤	-15.5768
粃	-15.5768
絓	-15.5768
膴	-15.5768
裀	-15.5768
闒	-15.5768
鞚	-15.5768
준	-15.5768
ู	-15.5953
แ	-15.5953
ა	-15.5953
ề	-15.5953
伃	-15.5953
勦	-15.5953
唶	-15.5953
塩	-15.5953
戇	-15.5953
搥	-15.5953
暎	-15.5953
橚	-15.5953
犛	-15.5953
矟	-15.5953
窓	-15.5953
窾	-15.5953
籛	-15.5953
綖	-15.5953
讁	-15.5953
赩	-15.5953
鍚	-15.5953
鍠	-15.5953
靑	-15.5953
顇	-15.5953
髪	-15.5953
鼃	-15.5953
세	-15.5953
鮄	-15.5953
刲	-15.6142
铓	-15.6142
麐	-15.6142
ɛ	-15.6142
ө	-15.6142
נ	-15.6142
ש	-15.6142
◢	-15.6142
咈	-15.6142
嶔	-15.6142
攧	-15.6142
曽	-15.6142
沍	-15.6142
箒	-15.6142
籞	-15.6142
糶	-15.6142
臠	-15.6142
蠵	-15.6142
袠	-15.6142
襴	-15.6142
込	-15.6142
銛	-15.6142
髟	-15.6142
송	-15.6142
순	-15.6142
철	-15.6142
═	-15.6334
╳	-15.6334
喒	-15.6334
媮	-15.6334
懃	-15.6334
戞	-15.6334
暻	-15.6334
槙	-15.6334
灩	-15.6334
罃	-15.6334
蚡	-15.6334
貤	-15.6334
踡	-15.6334
를	-15.6334
씨	-15.6334
呾	-15.6334
敧	-15.6334
碕	-15.6334
輴	-15.6334
喣	-15.653
ד	-15.653
丂	-15.653
丌	-15.653
尓	-15.653
帯	-15.653
幷	-15.653
徯	-15.653
挐	-15.653
朶	-15.653
熺	-15.653
牸	-15.653
眴	-15.653
阸	-15.653
麞	-15.653
鼕	-15.653
년	-15.653
만	-15.653
생	-15.653
트	-15.653
湋	-15.653
ณ	-15.673
ỉ	-15.673
伬	-15.673
寧	-15.673
捴	-15.673
攵	-15.673
棃	-15.673
氷	-15.673
滈	-15.673
痏	-15.673
窆	-15.673
繸	-15.673
藳	-15.673
謏	-15.673
輋	-15.673
鏁	-15.673
颻	-15.673
鷸	-15.673
齕	-15.673
석	-15.673
예	-15.673
창	-15.673
홍	-15.673
稊	-15.673
畇	-15.6934
砢	-15.6934
鄮	-15.6934
嘒	-15.6934
姁	-15.6934
學	-15.6934
慓	-15.6934
憸	-15.6934
敻	-15.6934
斮	-15.6934
枌	-15.6934
璚	-15.6934
箙	-15.6934
繙	-15.6934
苳	-15.6934
蓴	-15.6934
趲	-15.6934
踆	-15.6934
闕	-15.6934
飣	-15.6934
駞	-15.6934
骭	-15.6934
청	-15.6934
ß	-15.7143
卐	-15.7143
悁	-15.7143
戯	-15.7143
泬	-15.7143
盭	-15.7143
紞	-15.7143
藂	-15.7143
蚘	-15.7143
謩	-15.7143
讠	-15.7143
跕	-15.7143
轝	-15.7143
闤	-15.7143
韁	-15.7143
騂	-15.7143
용	-15.7143
ָ	-15.7355
་	-15.7355
丱	-15.7355
丼	-15.7355
塭	-15.7355
姉	-15.7355
尃	-15.7355
揑	-15.7355
攴	-15.7355
斅	-15.7355
栘	-15.7355
氂	-15.7355
泆	-15.7355
瞤	-15.7355
禫	-15.7355
竻	-15.7355
絪	-15.7355
綵	-15.7355
繦	-15.7355
胾	-15.7355
袿	-15.7355
趫	-15.7355
踘	-15.7355
輗	-15.7355
鬅	-15.7355
蒭	-15.7573
آ	-15.7573
ấ	-15.7573
‚	-15.7573
憇	-15.7573
憹	-15.7573
捲	-15.7573
揾	-15.7573
渖	-15.7573
濈	-15.7573
盫	-15.7573
筊	-15.7573
箎	-15.7573
藋	-15.7573
銶	-15.7573
	-15.7573
ぁ	-15.7573
墝	-15.7573
応	-15.7573
歠	-15.7573
褘	-15.7573
鶱	-15.7573
塉	-15.7795
å	-15.7795
ĩ	-15.7795
ɔ	-15.7795
ئ	-15.7795
न	-15.7795
ứ	-15.7795
匄	-15.7795
噭	-15.7795
沲	-15.7795
澨	-15.7795
牣	-15.7795
瑇	-15.7795
璏	-15.7795
甎	-15.7795
硠	-15.7795
禡	-15.7795
絙	-15.7795
綯	-15.7795
耎	-15.7795
胔	-15.7795
読	-15.7795
讋	-15.7795
輮	-15.7795
迆	-15.7795
鋩	-15.7795
飠	-15.7795
鷩	-15.7795
黐	-15.7795
려	-15.7795
승	-15.7795
N	-15.8022
ự	-15.8022
ぴ	-15.8022
嚐	-15.8022
圏	-15.8022
媺	-15.8022
懞	-15.8022
旉	-15.8022
曀	-15.8022
柎	-15.8022
灬	-15.8022
盌	-15.8022
菫	-15.8022
葢	-15.8022
蒍	-15.8022
虖	-15.8022
託	-15.8022
讟	-15.8022
赬	-15.8022
頮	-15.8022
鯈	-15.8022
비	-15.8022
여	-15.8022
후	-15.8022
渞	-15.8022
狖	-15.8022
鮎	-15.8022
驊	-15.8022
桱	-15.8255
ן	-15.8255
乗	-15.8255
咗	-15.8255
屩	-15.8255
崱	-15.8255
慠	-15.8255
旍	-15.8255
時	-15.8255
機	-15.8255
琁	-15.8255
筰	-15.8255
罣	-15.8255
臿	-15.8255
舨	-15.8255
苶	-15.8255
覇	-15.8255
鋋	-15.8255
鐏	-15.8255
閦	-15.8255
骹	-15.8255
鳆	-15.8255
鳯	-15.8255
鶬	-15.8255
들	-15.8255
모	-15.8255
図	-15.8255
冚	-15.8493
揎	-15.8493
禇	-15.8493
ח	-15.8493
گ	-15.8493
ổ	-15.8493
倐	-15.8493
儛	-15.8493
剉	-15.8493
勲	-15.8493
厎	-15.8493
嚥	-15.8493
嚲	-15.8493
愊	-15.8493
掤	-15.8493
揔	-15.8493
摐	-15.8493
曶	-15.8493
栞	-15.8493
槀	-15.8493
欝	-15.8493
淲	-15.8493
狌	-15.8493
礚	-15.8493
簦	-15.8493
蚳	-15.8493
觝	-15.8493
頵	-15.8493
饦	-15.8493
속	-15.8493
야	-15.8493
울	-15.8493
형	-15.8493
∪	-15.8737
╱	-15.8737
█	-15.8737
ぺ	-15.8737
亀	-15.8737
侻	-15.8737
僕	-15.8737
匚	-15.8737
唫	-15.8737
嗃	-15.8737
墠	-15.8737
媢	-15.8737
峠	-15.8737
廞	-15.8737
恇	-15.8737
敺	-15.8737
晄	-15.8737
櫏	-15.8737
盬	-15.8737
禜	-15.8737
秏	-15.8737
綍	-15.8737
諟	-15.8737
趍	-15.8737
軃	-15.8737
輭	-15.8737
迻	-15.8737
釆	-15.8737
銍	-15.8737
鎚	-15.8737
魣	-15.8737
鱣	-15.8737
鴂	-15.8737
麃	-15.8737
龑	-15.8737
ƒ	-15.8987
ắ	-15.8987
▽	-15.8987
婣	-15.8987
宍	-15.8987
廵	-15.8987
恠	-15.8987
恡	-15.8987
憀	-15.8987
揵	-15.8987
會	-15.8987
栄	-15.8987
楢	-15.8987
榀	-15.8987
檿	-15.8987
淸	-15.8987
狥	-15.8987
蓨	-15.8987
藷	-15.8987
譞	-15.8987
豗	-15.8987
逷	-15.8987
鮍	-15.8987
鵾	-15.8987
과	-15.8987
단	-15.8987
바	-15.8987
혜	-15.8987
搉	-15.8987
贠	-15.8987
鴗	-15.8987
檇	-15.9243
齰	-15.9243
ţ	-15.9243
ע	-15.9243
ि	-15.9243
ল	-15.9243
┅	-15.9243
ぇ	-15.9243
䊨	-15.9243
卲	-15.9243
壼	-15.9243
屧	-15.9243
巟	-15.9243
慇	-15.9243
捜	-15.9243
枿	-15.9243
歘	-15.9243
淩	-15.9243
焼	-15.9243
痟	-15.9243
禪	-15.9243
縗	-15.9243
蔘	-15.9243
蝯	-15.9243
襆	-15.9243
誃	-15.9243
謌	-15.9243
謷	-15.9243
貮	-15.9243
遟	-15.9243
釴	-15.9243
閒	-15.9243
韝	-15.9243
駃	-15.9243
鰤	-15.9243
鵞	-15.9243
鷦	-15.9243
鸑	-15.9243
병	-15.9243
운	-15.9243
徬	-15.9506
♪	-15.9506
㙾	-15.9506
墯	-15.9506
嫲	-15.9506
庁	-15.9506
朅	-15.9506
枻	-15.9506
柲	-15.9506
棡	-15.9506
甖	-15.9506
睟	-15.9506
罒	-15.9506
舎	-15.9506
詖	-15.9506
譊	-15.9506
跡	-15.9506
醁	-15.9506
隠	-15.9506
魨	-15.9506
鼂	-15.9506
덕	-15.9506
	-15.9506
黈	-15.9777
¤	-15.9777
қ	-15.9777
ụ	-15.9777
∵	-15.9777
倶	-15.9777
嫮	-15.9777
愙	-15.9777
敭	-15.9777
書	-15.9777
涙	-15.9777
潄	-15.9777
爌	-15.9777
猒	-15.9777
矱	-15.9777
礧	-15.9777
箑	-15.9777
簑	-15.9777
緫	-15.9777
與	-15.9777
鉥	-15.9777
陿	-15.9777
頳	-15.9777
骫	-15.9777
麏	-15.9777
드	-15.9777
방	-15.9777
위	-15.9777
황	-15.9777
嚩	-16.0054
瘝	-16.0054
眡	-16.0054
鸜	-16.0054
­	-16.0054
إ	-16.0054
โ	-16.0054
ử	-16.0054
佹	-16.0054
呰	-16.0054
啲	-16.0054
喎	-16.0054
喼	-16.0054
嫺	-16.0054
尩	-16.0054
搧	-16.0054
搰	-16.0054
擕	-16.0054
晈	-16.0054
沕	-16.0054
灧	-16.0054
炰	-16.0054
珓	-16.0054
璅	-16.0054
皷	-16.0054
禕	-16.0054
稺	-16.0054
聤	-16.0054
腍	-16.0054
膋	-16.0054
苨	-16.0054
薆	-16.0054
酇	-16.0054
霣	-16.0054
鬖	-16.0054
黮	-16.0054
훈	-16.0054
»	-16.034
ũ	-16.034
ּ	-16.034
ภ	-16.034
ኁ	-16.034
⁄	-16.034
坱	-16.034
塙	-16.034
壆	-16.034
壊	-16.034
尠	-16.034
岧	-16.034
愞	-16.034
攲	-16.034
杅	-16.034
枏	-16.034
柹	-16.034
濇	-16.034
灂	-16.034
煠	-16.034
產	-16.034
矴	-16.034
窞	-16.034
籧	-16.034
薾	-16.034
蘗	-16.034
蛣	-16.034
裲	-16.034
諐	-16.034
輒	-16.034
轤	-16.034
迵	-16.034
酓	-16.034
鋗	-16.034
鑨	-16.034
铦	-16.034
鞿	-16.034
頟	-16.034
顦	-16.034
鬪	-16.034
鵄	-16.034
鵶	-16.034
麛	-16.034
건	-16.034
관	-16.034
백	-16.034
임	-16.034
함	-16.034
환	-16.034
회	-16.034
œ	-16.0634
ג	-16.0634
ہ	-16.0634
त	-16.0634
்	-16.0634
僴	-16.0634
啯	-16.0634
嚈	-16.0634
奫	-16.0634
妺	-16.0634
嶤	-16.0634
従	-16.0634
戹	-16.0634
擥	-16.0634
昜	-16.0634
曧	-16.0634
枼	-16.0634
楬	-16.0634
毚	-16.0634
氀	-16.0634
熤	-16.0634
瑮	-16.0634
皪	-16.0634
禵	-16.0634
糬	-16.0634
綷	-16.0634
羮	-16.0634
葇	-16.0634
螾	-16.0634
袛	-16.0634
躒	-16.0634
阤	-16.0634
隮	-16.0634
韔	-16.0634
颩	-16.0634
驒	-16.0634
鱬	-16.0634
鷰	-16.0634
노	-16.0634
면	-16.0634
역	-16.0634
월	-16.0634
파	-16.0634
臮	-16.0634
虙	-16.0634
پ	-16.0937
ე	-16.0937
ủ	-16.0937
ἀ	-16.0937
╬	-16.0937
◣	-16.0937
僝	-16.0937
刦	-16.0937
呫	-16.0937
塨	-16.0937
壝	-16.0937
姦	-16.0937
嬢	-16.0937
憖	-16.0937
拑	-16.0937
搤	-16.0937
攞	-16.0937
朒	-16.0937
枒	-16.0937
権	-16.0937
煿	-16.0937
獮	-16.0937
篔	-16.0937
紒	-16.0937
胕	-16.0937
脢	-16.0937
虣	-16.0937
觽	-16.0937
誾	-16.0937
賹	-16.0937
踖	-16.0937
躧	-16.0937
軨	-16.0937
郳	-16.0937
酖	-16.0937
鐻	-16.0937
阛	-16.0937
頍	-16.0937
餬	-16.0937
鰌	-16.0937
鵖	-16.0937
齮	-16.0937
있	-16.0937
ְ	-16.125
व	-16.125
জ	-16.125
რ	-16.125
ọ	-16.125
†	-16.125
伷	-16.125
冫	-16.125
凖	-16.125
動	-16.125
唅	-16.125
啍	-16.125
嚟	-16.125
埈	-16.125
塼	-16.125
帬	-16.125
廥	-16.125
廾	-16.125
斸	-16.125
昷	-16.125
業	-16.125
灺	-16.125
牴	-16.125
絁	-16.125
翏	-16.125
耉	-16.125
脤	-16.125
臝	-16.125
褎	-16.125
襌	-16.125
詶	-16.125
貛	-16.125
跫	-16.125
辠	-16.125
釂	-16.125
鐍	-16.125
镙	-16.125
颸	-16.125
馹	-16.125
鬱	-16.125
魮	-16.125
鴴	-16.125
거	-16.125
달	-16.125
말	-16.125
£	-16.1572
ї	-16.1572
פ	-16.1572
द	-16.1572
म	-16.1572
ษ	-16.1572
ṣ	-16.1572
┆	-16.1572
☉	-16.1572
凊	-16.1572
営	-16.1572
塽	-16.1572
夲	-16.1572
娭	-16.1572
對	-16.1572
巑	-16.1572
怱	-16.1572
慅	-16.1572
扢	-16.1572
抜	-16.1572
摵	-16.1572
暸	-16.1572
梱	-16.1572
椶	-16.1572
欑	-16.1572
汚	-16.1572
洟	-16.1572
渢	-16.1572
濶	-16.1572
牜	-16.1572
猓	-16.1572
獘	-16.1572
窋	-16.1572
緆	-16.1572
縯	-16.1572
罛	-16.1572
莋	-16.1572
蓚	-16.1572
薬	-16.1572
蜨	-16.1572
蝱	-16.1572
蟇	-16.1572
衺	-16.1572
製	-16.1572
讚	-16.1572
鄽	-16.1572
酧	-16.1572
鉷	-16.1572
靁	-16.1572
馺	-16.1572
騧	-16.1572
魌	-16.1572
鯵	-16.1572
鳲	-16.1572
鶂	-16.1572
齢	-16.1572
齾	-16.1572
계	-16.1572
린	-16.1572
별	-16.1572
타	-16.1572
평	-16.1572
嘷	-16.1572
柅	-16.1572
粬	-16.1572
轓	-16.1572
碔	-16.1906
鞉	-16.1906
ŋ	-16.1906
љ	-16.1906
ם	-16.1906
ข	-16.1906
ใ	-16.1906
ợ	-16.1906
∏	-16.1906
►	-16.1906
゙	-16.1906
傞	-16.1906
僄	-16.1906
務	-16.1906
単	-16.1906
咅	-16.1906
坣	-16.1906
壄	-16.1906
彯	-16.1906
柂	-16.1906
檟	-16.1906
汸	-16.1906
淈	-16.1906
渕	-16.1906
牐	-16.1906
畷	-16.1906
眛	-16.1906
碪	-16.1906
窻	-16.1906
簴	-16.1906
籐	-16.1906
絫	-16.1906
羃	-16.1906
苺	-16.1906
荈	-16.1906
諫	-16.1906
跧	-16.1906
踠	-16.1906
迴	-16.1906
醰	-16.1906
鋹	-16.1906
钶	-16.1906
険	-16.1906
雘	-16.1906
颷	-16.1906
鮸	-16.1906
鰧	-16.1906
鹥	-16.1906
齏	-16.1906
규	-16.1906
금	-16.1906
식	-16.1906
프	-16.1906
螓	-16.1906
〗	-16.2099
偟	-16.225
垜	-16.225
孮	-16.225
挻	-16.225
檥	-16.225
檮	-16.225
煕	-16.225
雟	-16.225
鞵	-16.225
韠	-16.225
饾	-16.225
ն	-16.2251
ญ	-16.2251
ད	-16.2251
ỳ	-16.2251
┃	-16.2251
両	-16.2251
佪	-16.2251
倈	-16.2251
哜	-16.2251
囝	-16.2251
埳	-16.2251
媜	-16.2251
尙	-16.2251
巎	-16.2251
徴	-16.2251
憃	-16.2251
扱	-16.2251
抶	-16.2251
晼	-16.2251
曚	-16.2251
柾	-16.2251
烱	-16.2251
煑	-16.2251
爁	-16.2251
猀	-16.2251
發	-16.2251
睆	-16.2251
硋	-16.2251
禟	-16.2251
笻	-16.2251
籯	-16.2251
菶	-16.2251
薉	-16.2251
袾	-16.2251
褌	-16.2251
褵	-16.2251
覼	-16.2251
譓	-16.2251
蹔	-16.2251
軏	-16.2251
進	-16.2251
韈	-16.2251
韍	-16.2251
頼	-16.2251
餵	-16.2251
駉	-16.2251
髈	-16.2251
體	-16.2251
鱈	-16.2251
鴒	-16.2251
鴳	-16.2251
鸃	-16.2251
黶	-16.2251
령	-16.2251
행	-16.2251
효	-16.2251
«	-16.2608
ð	-16.2608
ո	-16.2608
ث	-16.2608
य	-16.2608
ी	-16.2608
ु	-16.2608
ื	-16.2608
བ	-16.2608
ṭ	-16.2608
∥	-16.2608
◤	-16.2608
◥	-16.2608
➤	-16.2608
ぅ	-16.2608
來	-16.2608
厶	-16.2608
噞	-16.2608
姙	-16.2608
屴	-16.2608
旝	-16.2608
柸	-16.2608
栭	-16.2608
檵	-16.2608
滱	-16.2608
潚	-16.2608
獧	-16.2608
瑈	-16.2608
皰	-16.2608
秔	-16.2608
篨	-16.2608
簹	-16.2608
綌	-16.2608
縁	-16.2608
繫	-16.2608
纇	-16.2608
罳	-16.2608
翐	-16.2608
脁	-16.2608
蓱	-16.2608
蕣	-16.2608
袓	-16.2608
貒	-16.2608
轜	-16.2608
閲	-16.2608
闠	-16.2608
雑	-16.2608
雚	-16.2608
駈	-16.2608
験	-16.2608
髮	-16.2608
鬹	-16.2608
鱂	-16.2608
鶺	-16.2608
鷈	-16.2608
鷖	-16.2608
鼪	-16.2608
齒	-16.2608
齗	-16.2608
래	-16.2608
레	-16.2608
빈	-16.2608
심	-16.2608
	-16.2608
噁	-16.2608
鉧	-16.2978
ő	-16.2978
ִ	-16.2978
े	-16.2978
র	-16.2978
ে	-16.2978
ṇ	-16.2978
↗	-16.2978
≮	-16.2978
䳭	-16.2978
乇	-16.2978
僩	-16.2978
冖	-16.2978
劚	-16.2978
咶	-16.2978
啑	-16.2978
堮	-16.2978
奤	-16.2978
嫏	-16.2978
嶪	-16.2978
惷	-16.2978
搿	-16.2978
枊	-16.2978
枓	-16.2978
柤	-16.2978
涊	-16.2978
渉	-16.2978
湳	-16.2978
瀜	-16.2978
[...]
