[UNK]	0
[PAD]	0
[CLS]	0
[SEP]	0
[MASK]	0
▁,	-3.04388
▁r쎯	-3.53245
▁.	-3.55645
▁zzbd3쎯	-3.96704
▁rh쎯	-4.81049
▁j쎯	-5.00498
▁:	-5.09929
▁t쎯	-5.11161
▁d쎯	-5.15954
▁)	-5.26481
▁(	-5.28134
▁o쎯	-5.30301
▁	-5.38073
▁g쎯	-5.43096
▁pe쎯	-5.50982
▁b쎯	-5.54755
▁》	-5.57464
▁”	-5.5861
▁“	-5.59785
▁tffu쎯	-5.63303
▁《	-5.66033
▁i쎯	-5.68194
▁e쎯	-5.71871
▁k쎯	-5.76749
▁gf쎯	-5.78741
▁gn쎯	-5.81976
▁w쎯	-5.83165
▁;	-5.88462
▁쎁	-5.98893
▁-	-6.00899
▁c쎯	-6.04701
▁eee0쎯	-6.05978
▁k쎯l쎯	-6.16671
▁dd쎯	-6.19625
▁go쎯	-6.20504
▁쎂	-6.21933
▁pp쎯	-6.32128
▁h쎯	-6.34496
▁wh쎯	-6.34631
▁ey쎯	-6.36362
▁쎃	-6.39192
▁rg쎯	-6.44803
▁qq쎯	-6.49067
▁a쎯wt쎯	-6.49586
▁bn쎯	-6.55235
▁puhc쎯	-6.5534
▁dmj1쎯	-6.56654
▁wc쎯ngk쎯	-6.57029
▁쎅	-6.57702
▁zzbd10쎯	-6.60155
▁dg쎯	-6.64266
▁ua쎯	-6.64715
▁cf쎯	-6.65285
▁ym쎯	-6.6643
▁tp쎯gj쎯	-6.71495
▁whf0쎯og쎯	-6.7173
▁adw쎯	-6.73386
▁gkl쎯	-6.73711
▁쎄	-6.74239
▁rfc쎯sy쎯	-6.74951
▁tkh쎯	-6.75858
▁ak쎯	-6.77359
▁u쎯kkk쎯	-6.79599
▁sk쎯	-6.79957
▁/	-6.80005
▁mh쎯	-6.80037
▁fny0쎯og쎯	-6.8203
▁g쎯wh쎯	-6.82188
▁eb쎯tl쎯	-6.82239
w쎯	-6.83369
▁uqf쎯	-6.84486
▁v쎯nae0쎯	-6.84992
▁y쎯s쎯	-6.85467
▁usr쎯	-6.86905
▁wb쎯	-6.87745
▁et쎯	-6.87805
▁jf쎯	-6.91486
▁ih쎯	-6.91576
▁gmww쎯	-6.91902
▁dga쎯pwv쎯	-6.92308
▁rn쎯	-6.92729
l쎯	-6.92983
ymhj0쎯	-6.93184
▁qk쎯	-6.94199
▁gh쎯	-6.94569
▁jjjj0쎯	-6.95242
egc쎯	-6.98241
▁p쎯	-6.98616
▁wug0쎯gf쎯	-7.01121
▁쎁쎀	-7.02379
bb쎯	-7.02486
▁gc쎯	-7.02655
▁f쎯	-7.04292
▁쎆	-7.04703
▁gcf쎯	-7.05554
▁sg쎯	-7.06448
▁tg쎯u쎯	-7.11652
mmm쎯	-7.11819
▁쎈	-7.12209
▁wtf쎯	-7.13937
▁ww쎯	-7.15029
▁mw쎯	-7.16397
▁쎇	-7.16599
▁jb쎯	-7.16876
▁fg쎯	-7.17741
▁ta쎯	-7.17902
▁ymc쎯yf쎯	-7.19721
▁ftjb쎯	-7.20009
▁ii쎯	-7.2007
▁txi쎯xyc쎯	-7.20542
▁k쎯ny쎯	-7.23465
▁fqb0쎯	-7.2383
▁"	-7.24762
▁yygy쎯wx쎯	-7.2655
▁ce쎯	-7.27784
▁dm쎯tkw쎯	-7.28308
▁ip쎯suq쎯	-7.29954
▁ftbt쎯yce쎯	-7.30139
▁lpk0쎯	-7.30578
▁yynw1쎯	-7.31065
aq쎯	-7.3128
▁fq쎯	-7.31345
▁thd쎯	-7.31946
▁oy쎯	-7.32773
▁lh쎯	-7.33237
▁쎉	-7.33515
▁dd쎯ip쎯	-7.33912
▁tg쎯	-7.35014
▁sk쎯c쎯	-7.3512
▁zzbd9쎯	-7.3536
▁쎀	-7.37065
▁dn쎯	-7.37158
▁rj쎯waw쎯	-7.37177
▁wg쎯l쎯	-7.3776
sf쎯	-7.38166
ntg쎯	-7.38306
▁tx쎯	-7.38581
▁nnnn0쎯	-7.38906
▁ul쎯	-7.38935
▁%	-7.39278
▁a쎯tkgg1쎯	-7.39363
▁m쎯	-7.40695
▁fj쎯tf쎯	-7.40882
▁tk쎯	-7.41055
▁wc쎯jfd쎯	-7.41577
▁l쎯bf쎯	-7.41803
▁x쎯iyj쎯	-7.43108
▁cd쎯lk쎯	-7.43847
▁wf쎯	-7.44151
▁adw쎯k쎯	-7.44423
▁yi쎯	-7.44577
▁xxf쎯og쎯	-7.44764
▁bm쎯	-7.44813
▁dq쎯	-7.46426
qfhw1쎯	-7.46566
▁nnh쎯	-7.47101
▁l쎯	-7.47444
▁dn쎯uu쎯	-7.48342
▁ccc쎯	-7.49075
▁hw쎯e쎯	-7.49246
▁wtu쎯	-7.50145
▁uk쎯	-7.50222
▁vfhp1쎯ymc쎯	-7.50225
▁쎁쎂	-7.50246
▁e쎯bv쎯wc쎯ngk쎯	-7.50369
▁tu쎯rfc쎯	-7.5103
▁gg쎯	-7.51589
▁fm쎯	-7.53014
▁tx쎯g쎯	-7.53177
▁y쎯wtf쎯	-7.53721
▁sghg1쎯	-7.53952
▁adm쎯hhhh쎯	-7.54178
▁px쎯	-7.54451
▁uqw쎯	-7.54494
▁aqt쎯	-7.55047
▁ai쎯	-7.55068
▁ymc쎯tlf0쎯	-7.56555
▁wt쎯	-7.56728
▁ftbt쎯ip쎯	-7.57164
▁vk쎯	-7.57194
▁c쎯ey쎯	-7.57506
▁cep쎯fp쎯	-7.57744
▁wgkq0쎯	-7.58476
▁rxj쎯	-7.5883
▁q쎯	-7.59472
▁쎂쎀	-7.59766
▁wg쎯	-7.60379
▁vb쎯	-7.60618
▁udh쎯	-7.60909
▁fp쎯	-7.60992
▁wwj쎯	-7.61582
▁vfhp1쎯tam쎯	-7.61814
▁mj쎯	-7.61937
▁pp쎯g쎯	-7.62094
▁ylf0쎯	-7.62247
▁gd쎯	-7.6234
▁ll쎯	-7.62444
▁ue쎯	-7.63132
▁f쎯aq쎯	-7.63307
▁od쎯	-7.64299
▁lu쎯	-7.64343
▁dn쎯o쎯	-7.64604
▁ntg쎯	-7.64824
▁xt쎯	-7.65477
▁ga쎯v쎯	-7.65508
▁ww쎯gk쎯	-7.662
▁an쎯lwj쎯	-7.66791
▁kgn쎯	-7.67739
▁anb0쎯sy쎯	-7.67813
▁dr쎯	-7.68524
▁wgkq0쎯et쎯	-7.68587
wx쎯	-7.6868
▁rfm쎯jg쎯	-7.6872
fd쎯	-7.68791
▁py쎯wf쎯	-7.68849
▁qh쎯	-7.6893
xte쎯	-7.69086
▁xeg0쎯xkw쎯	-7.69789
▁bm쎯tg쎯	-7.70108
▁wt쎯kkk쎯	-7.70165
▁ujfj0쎯wug0쎯	-7.70285
▁ymhj0쎯fnrt쎯	-7.70614
▁gjq쎯	-7.70714
▁xq쎯	-7.71146
▁ggg0쎯	-7.71486
▁gip쎯	-7.71783
▁wjg쎯	-7.71962
▁reh쎯e쎯	-7.72205
▁mqq쎯xtk쎯	-7.72343
▁wv쎯	-7.72366
▁gm쎯	-7.72995
▁ux쎯yiu0쎯	-7.73298
▁wy쎯thn쎯	-7.73324
▁쎁쎁	-7.73554
kht쎯	-7.7373
▁ukn쎯	-7.74131
h쎯	-7.74146
▁ip쎯bpf쎯	-7.74485
k쎯	-7.74565
ip쎯	-7.75313
ytyh쎯	-7.75548
▁vcb쎯	-7.75601
▁hx쎯	-7.75614
▁jf쎯uj쎯	-7.75623
ii쎯	-7.76826
▁fl쎯wf쎯	-7.77269
▁ux쎯	-7.77325
▁tg쎯itd쎯	-7.77354
▁ugdu쎯l쎯	-7.77465
tfl쎯	-7.77509
▁ggi쎯fuj쎯	-7.77521
▁xe쎯	-7.77522
▁qqqq1쎯	-7.7778
uk쎯	-7.78211
▁s쎯	-7.78621
▁ige쎯	-7.78998
▁aq쎯	-7.79125
▁tfq쎯fj쎯	-7.79142
▁x쎯	-7.79771
yygy쎯	-7.80523
▁wq쎯	-7.80814
tg쎯	-7.81187
▁ymhj0쎯	-7.81303
▁rcn0쎯	-7.82413
▁ftbt쎯jgm쎯	-7.82522
▁yid쎯et쎯	-7.82707
▁gu쎯yy쎯oy쎯	-7.82808
▁zzbd15쎯	-7.829
dd쎯	-7.83509
qiu0쎯	-7.83553
▁wdn쎯te쎯	-7.83873
▁m쎯jf쎯	-7.83971
▁fhn쎯	-7.84043
▁th쎯	-7.84125
▁ip쎯tg쎯	-7.84359
▁ith쎯	-7.8471
▁쎃쎀	-7.8475
g쎯	-7.85024
▁gajf0쎯	-7.85117
▁txi쎯	-7.85224
▁ld쎯	-7.85226
▁thd쎯nng쎯	-7.86013
▁ftj쎯	-7.86637
▁tu쎯ip쎯	-7.86757
▁al쎯ce쎯	-7.87079
▁fc쎯rf쎯	-7.87153
▁wys쎯	-7.87567
▁qn쎯rtd쎯	-7.87987
쎁	-7.88079
▁tm쎯	-7.88083
sm쎯	-7.88346
▁sf쎯	-7.88446
▁uth쎯	-7.88535
▁jfd쎯	-7.88554
▁h쎯itx쎯	-7.89083
▁itd쎯fcl쎯	-7.89086
▁q쎯wu쎯	-7.89214
▁xw쎯	-7.89273
▁nm쎯	-7.89288
▁rrr쎯	-7.89337
▁쎁쎅	-7.8954
▁ntk쎯	-7.9014
▁if쎯	-7.90401
isk쎯	-7.90461
uthp0쎯	-7.90783
bm쎯	-7.9131
▁tve쎯	-7.91767
▁tv쎯km쎯wf쎯	-7.92391
▁lq쎯	-7.93058
▁uqd2쎯	-7.93187
▁tf쎯og쎯	-7.93492
dnv0쎯	-7.93779
▁tj쎯	-7.94065
▁egc쎯	-7.94112
▁vbn쎯	-7.94383
▁sh쎯	-7.94674
▁ip쎯nu쎯	-7.94833
▁yh쎯	-7.94885
▁wug0쎯	-7.95074
▁nnh쎯yn쎯	-7.95458
▁sfi쎯uwy0쎯	-7.95653
▁tu쎯	-7.95985
▁aa쎯	-7.96387
▁dgtg0쎯	-7.9646
▁x쎯apk쎯	-7.96798
▁wt쎯o쎯	-7.97196
▁tk쎯tkh쎯	-7.973
udi0쎯	-7.97544
adwr0쎯	-7.97619
▁pb쎯	-7.97723
rh쎯	-7.98006
▁txg쎯	-7.98221
▁lk쎯ty쎯	-7.98239
ftj쎯	-7.98604
▁sm쎯sq쎯	-7.98613
wf쎯	-7.98643
▁ts쎯	-7.98759
▁pt쎯yne쎯	-7.98961
▁awx쎯	-7.99125
▁uq쎯cep쎯	-7.99677
▁rp쎯	-7.99926
▁gkp쎯	-8.00043
▁kkk쎯thgf1쎯	-8.00335
▁!	-8.00465
itx쎯	-8.00717
▁rmc쎯uqwm1쎯	-8.00825
▁iytb0쎯ca쎯	-8.00899
▁tyna2쎯	-8.01191
▁ga쎯	-8.01909
▁hhhh쎯ue쎯	-8.01953
▁cc쎯	-8.02059
▁dl쎯kq쎯	-8.02121
▁jjjj0쎯sg쎯	-8.02349
▁yy쎯if쎯	-8.02612
▁xk쎯	-8.02644
f쎯	-8.027
▁od쎯gajf0쎯	-8.02781
if쎯	-8.02865
▁aqt쎯tj쎯	-8.02994
▁aw쎯	-8.03397
dx쎯	-8.03739
nnk쎯	-8.03882
▁dj쎯	-8.04445
▁amw쎯	-8.04561
▁ovt쎯	-8.04775
ss쎯	-8.04798
▁ftbt쎯rep쎯	-8.05015
▁adm쎯	-8.05076
▁k쎯aw쎯	-8.05281
▁yu쎯	-8.05361
jfd쎯	-8.05362
▁ght쎯ywf쎯	-8.05617
tu쎯	-8.05776
▁uy쎯	-8.05922
▁wys쎯lft쎯	-8.06015
▁gmf쎯	-8.06224
dd쎯ip쎯	-8.06474
▁vvv쎯	-8.0658
gd쎯	-8.06621
▁cn쎯	-8.07042
ny쎯	-8.07104
▁tq쎯	-8.07496
▁tgj쎯s쎯	-8.07572
▁txi쎯gq쎯	-8.07605
▁aft쎯qk쎯	-8.07795
▁qie쎯wyk쎯	-8.07924
▁ghd1쎯	-8.08058
pv쎯	-8.08058
《	-8.08184
▁itx쎯	-8.08195
ia쎯	-8.08208
je쎯	-8.08288
▁fd쎯ymhj0쎯	-8.089
▁wf쎯km쎯	-8.09013
▁쎁쎀쎀	-8.09072
▁pv쎯wg쎯	-8.09171
▁udbb쎯	-8.09416
▁xa쎯	-8.09592
▁ty쎯	-8.09857
▁zzbd8쎯	-8.1
▁쎅쎀	-8.10179
sg쎯	-8.10181
▁ip쎯	-8.10248
▁l쎯mw쎯	-8.10372
▁pei쎯og쎯	-8.10742
▁iv쎯	-8.10945
uyh쎯	-8.11716
▁kht쎯	-8.1177
qk쎯	-8.11777
lt쎯	-8.11779
▁fcu1쎯	-8.12
▁yi쎯j쎯	-8.12143
▁v쎯ge쎯	-8.1245
tf쎯	-8.12545
▁xf쎯sq쎯	-8.12655
▁ywx쎯yygy쎯	-8.1288
▁tem쎯	-8.1292
wxf쎯	-8.12961
▁lk쎯	-8.13635
▁ga쎯vck쎯	-8.13643
▁gae쎯dn쎯	-8.13829
ta쎯	-8.14387
▁a쎯og쎯	-8.1464
▁sb쎯	-8.1474
▁fgh쎯	-8.14849
▁tfq쎯rg쎯	-8.14857
▁es쎯et쎯	-8.15151
▁sm쎯	-8.15175
▁uj쎯	-8.15249
▁nfc쎯	-8.15417
▁tgj쎯	-8.15593
▁ya쎯	-8.15661
▁jb쎯dd쎯	-8.15783
dn쎯	-8.1588
▁쎂쎀쎀쎀	-8.16412
▁ujf0쎯qi쎯	-8.16453
▁bs쎯	-8.16534
▁adw쎯wb쎯	-8.16655
▁uqwm1쎯idr쎯	-8.16678
▁mqq쎯	-8.16868
▁mmm쎯	-8.16956
fm쎯	-8.1698
▁bm쎯thgc0쎯	-8.17214
▁je쎯	-8.17514
dgtg0쎯	-8.18441
wsg0쎯	-8.18665
▁xg쎯	-8.18691
trf0쎯	-8.1877
▁ftx쎯	-8.18991
qqqq1쎯	-8.19053
▁on쎯	-8.19139
▁lqw쎯wrh1쎯	-8.19239
e쎯bv쎯wc쎯ngk쎯	-8.19266
▁tx쎯fg쎯	-8.19359
sghg1쎯	-8.19665
▁wynb0쎯	-8.19802
▁gj쎯ywx쎯	-8.1983
▁dgh쎯	-8.19913
▁yy쎯dm쎯	-8.19965
▁ipk쎯km쎯	-8.20118
▁mw쎯pww쎯	-8.20215
▁ugdu쎯	-8.2045
▁udy쎯	-8.20515
mq쎯	-8.20556
▁dh쎯pgk쎯	-8.20755
▁hko쎯	-8.20812
tjh쎯	-8.20911
▁a	-8.21006
▁쎁쎆	-8.21029
▁?	-8.21319
▁wgk쎯wt쎯	-8.2146
▁mqu쎯	-8.21472
▁kf쎯	-8.21567
▁py쎯aq쎯	-8.2162
▁vfhp1쎯	-8.21789
▁jn쎯bb쎯	-8.21989
▁zzsx6쎯	-8.22093
▁쎁쎈	-8.22257
pl쎯	-8.22306
▁ntk쎯gf쎯	-8.22401
a	-8.22909
▁wsg0쎯	-8.22975
gu쎯	-8.23193
▁cep쎯	-8.23479
▁kha쎯	-8.23642
gf쎯	-8.23817
iq쎯	-8.23925
▁ym쎯xe쎯	-8.23926
▁rpw쎯rmhj쎯	-8.24153
▁wt쎯et쎯	-8.24583
▁gm쎯wtf쎯	-8.24623
dq쎯	-8.24662
▁ytey0쎯iytb0쎯	-8.24896
▁xx쎯	-8.25103
▁sft쎯ou쎯	-8.25456
▁ovt쎯rnd1쎯	-8.25486
▁tu쎯dga쎯	-8.25543
▁wdt쎯	-8.25676
▁ce쎯lt쎯	-8.2584
▁atd쎯bpf쎯	-8.2589
▁ad쎯dbm쎯	-8.26019
awx쎯	-8.2617
kkkk1쎯	-8.26331
▁og쎯tl쎯	-8.26351
▁w쎯n쎯	-8.26495
▁ukd1쎯jghm1쎯	-8.26873
▁djfd쎯oy쎯	-8.26968
▁ruv쎯	-8.27099
▁w쎯kkkk1쎯	-8.27106
▁w쎯km쎯	-8.27485
▁fwm쎯aj쎯	-8.27636
▁ny쎯	-8.27802
kkd쎯	-8.27834
▁wty0쎯	-8.27968
▁yff쎯	-8.27973
▁fqu쎯	-8.28133
▁hw쎯	-8.28214
▁tv쎯km쎯	-8.2836
▁wbj쎯usr쎯	-8.28635
▁kw쎯	-8.28736
▁rj쎯ym쎯	-8.28801
▁dnv0쎯	-8.29118
▁rvyo쎯	-8.29288
▁thg1쎯	-8.29484
▁yy쎯aa쎯	-8.29606
▁ag쎯	-8.29795
bj쎯	-8.29887
▁fuk쎯yk쎯	-8.30019
▁ad쎯sg쎯	-8.30023
▁img쎯	-8.30061
▁ick쎯ubk1쎯	-8.30118
▁wfhg0쎯	-8.30257
▁epc쎯	-8.30349
▁isgg2쎯yhk쎯	-8.30395
j	-8.30589
▁gm쎯wa쎯	-8.3085
cn쎯	-8.30936
▁yne쎯	-8.31077
▁tgj쎯hko쎯	-8.31093
▁쎂쎀쎀쎆	-8.31287
▁dm쎯	-8.31799
gh쎯	-8.31806
▁zzsx1쎯	-8.31925
▁rmhj쎯wt쎯	-8.32145
▁vfhp1쎯uu쎯	-8.32289
▁et쎯gf쎯	-8.32442
▁im쎯e쎯	-8.32714
▁uk쎯wv쎯	-8.32809
▁tf쎯	-8.32958
t	-8.33023
▁ipw쎯	-8.33085
▁ck쎯	-8.33114
▁sve쎯rnd1쎯	-8.33139
▁wfny0쎯xyc쎯	-8.33648
▁ic쎯ytt쎯	-8.3366
▁yygy쎯	-8.33788
▁fii쎯	-8.33824
▁wv쎯sr쎯	-8.33978
▁hk쎯f쎯	-8.34131
▁ujfj0쎯	-8.34212
▁adwe1쎯	-8.34342
▁qm쎯gmu1쎯	-8.34445
▁ugm쎯	-8.34449
▁lk쎯a쎯	-8.34646
ai쎯	-8.34785
▁wb쎯wu쎯	-8.35133
▁et쎯yne쎯	-8.35172
ggg0쎯	-8.35335
▁fny0쎯	-8.35379
ru쎯	-8.35429
▁dp쎯	-8.35507
▁fhl쎯	-8.35511
og쎯	-8.35552
▁wycm1쎯fakg0쎯	-8.35564
▁xeg0쎯	-8.35815
▁쎂쎀쎀쎈	-8.35819
dm쎯	-8.35831
▁쎂쎀쎁쎀	-8.36196
f	-8.3628
▁c쎯h쎯	-8.36535
▁lkd쎯	-8.36688
▁sm쎯sa쎯	-8.3693
▁ip쎯sy쎯	-8.36946
▁x쎯cwg쎯	-8.37192
gk쎯	-8.3728
▁fp쎯tkgg1쎯	-8.37563
▁ygu쎯o쎯	-8.37751
▁pa쎯	-8.37825
▁y쎯	-8.37832
▁xeg0쎯dn쎯	-8.37944
r	-8.38035
▁ba쎯	-8.38382
▁ruv쎯kkkk1쎯	-8.38544
▁쎂쎀쎀쎇	-8.38655
▁vii쎯ntk쎯	-8.38672
▁w쎯ft쎯	-8.38839
▁gae쎯	-8.38934
an쎯	-8.39051
▁uthp0쎯	-8.3924
▁djd쎯	-8.39319
▁wfny0쎯	-8.39322
▁g쎯wsg0쎯	-8.39383
▁쎄쎀	-8.39563
▁mfk쎯	-8.39604
▁k쎯md쎯	-8.39638
▁mh쎯gf쎯	-8.3964
dgt1쎯	-8.3991
▁쎂쎀쎀쎉	-8.39984
▁wqa쎯	-8.4006
qc쎯	-8.40117
▁pv쎯	-8.40321
▁gu쎯	-8.40412
▁ep쎯	-8.40444
▁dd쎯gajf0쎯	-8.4047
▁yww쎯	-8.405
▁psu0쎯	-8.40799
▁xp쎯wgk쎯	-8.40919
▁gu쎯ck쎯	-8.41213
▁uf쎯	-8.41246
▁puv쎯	-8.41283
▁쎂쎅	-8.41386
▁dx쎯	-8.41446
▁u쎯og쎯	-8.41735
▁bk쎯og쎯	-8.41775
▁th쎯gj쎯	-8.41819
yy쎯	-8.41929
▁kha쎯yb쎯	-8.41961
쎅	-8.42012
nnh쎯	-8.42144
▁tfn쎯	-8.42158
▁wk쎯ryn1쎯	-8.42188
aa쎯	-8.42256
rt쎯	-8.4226
▁gm쎯e쎯	-8.42271
▁fge쎯fghg쎯	-8.42654
▁pyj쎯	-8.42675
dp쎯	-8.42744
▁v쎯	-8.42759
▁pu쎯gm쎯	-8.42822
i	-8.42831
▁gu쎯yy쎯wc쎯jfd쎯	-8.43025
xg쎯	-8.43369
▁o쎯y쎯	-8.43479
▁fggh쎯	-8.43484
▁wcy0쎯	-8.43762
o쎯	-8.43781
▁//	-8.43854
▁fdm쎯s쎯	-8.43888
▁tq쎯o쎯	-8.44032
▁lfo쎯	-8.44458
k	-8.44669
d	-8.45003
▁sh쎯ud쎯	-8.45005
▁ip쎯dl쎯	-8.4512
e쎯	-8.45156
▁쎂쎀쎀쎅	-8.45234
ck쎯	-8.45305
▁쎂쎀쎀쎃	-8.45357
▁se쎯	-8.45382
▁yvh쎯	-8.45587
q	-8.45676
uff쎯	-8.4597
▁gl쎯	-8.46004
▁wv쎯qkhh1쎯	-8.46114
▁ip쎯wf쎯	-8.4612
▁xf쎯wgk쎯	-8.46517
▁you1쎯	-8.46607
▁saj0쎯aa쎯	-8.46716
▁rxj쎯nf쎯	-8.46743
▁kkkk1쎯	-8.46758
▁rmhj쎯tfkp0쎯	-8.46818
▁e쎯ud쎯	-8.46823
▁qfhw1쎯	-8.47063
▁pp쎯uj쎯	-8.47157
▁nnh쎯if쎯	-8.47283
▁ip쎯wug0쎯	-8.47286
▁yygy쎯ip쎯	-8.47388
jjjj0쎯	-8.4758
w	-8.47687
▁jn쎯	-8.47779
▁vt쎯	-8.48075
▁k쎯ip쎯	-8.48137
▁sfhg쎯tr쎯	-8.48146
▁yt쎯	-8.48549
▁uh쎯	-8.48563
▁ddm쎯fghg쎯	-8.48636
fhn쎯	-8.4903
▁s쎯fiy쎯	-8.49302
▁wsg0쎯txi쎯	-8.49403
▁mqq쎯uh쎯	-8.49461
rnb쎯	-8.495
▁*	-8.49741
쎆	-8.49901
▁pfq쎯dn쎯	-8.50016
▁td쎯ykw쎯	-8.50082
v쎯	-8.50223
▁lg쎯	-8.50289
▁hhu0쎯	-8.50314
▁ymc쎯ytb쎯	-8.50536
wc쎯	-8.50537
▁an쎯xn쎯	-8.50617
▁mq쎯	-8.50745
▁dty0쎯	-8.50848
▁tp쎯	-8.50851
▁rc쎯	-8.50859
▁tjf0쎯iawn0쎯	-8.50896
▁rs쎯	-8.50924
▁jyie쎯ktm쎯	-8.50976
▁쎂쎀쎀쎄	-8.5099
▁vfb쎯	-8.51126
lfq쎯	-8.51374
▁uyh쎯	-8.51456
▁zzts0쎯	-8.51467
▁dn쎯km쎯	-8.51564
▁쎆쎀	-8.51806
▁p쎯wh쎯	-8.519
a쎯	-8.51936
fn쎯	-8.52174
▁tjh쎯et쎯	-8.52324
▁v쎯tg쎯	-8.52363
▁rhf0쎯	-8.52483
▁jgm쎯	-8.5265
▁trf0쎯hko쎯	-8.52856
▁wv쎯dmh0쎯	-8.52868
▁xte쎯	-8.53106
▁uk쎯uyh쎯	-8.53321
▁wa쎯ge쎯	-8.53331
▁tc쎯	-8.5337
▁yo쎯	-8.53482
▁wycm1쎯nf쎯	-8.53808
std쎯	-8.54043
n	-8.54082
▁ipkh1쎯	-8.54318
▁쎁쎇	-8.54376
km쎯	-8.54406
▁ud쎯txi쎯	-8.54596
▁lw쎯wc쎯pgc쎯	-8.54824
jg쎯	-8.54877
▁gj쎯wynn3쎯	-8.55011
▁jn쎯jyie쎯	-8.55138
▁gj쎯gk쎯	-8.55181
▁iq쎯	-8.55285
▁쎁쎃	-8.55524
▁q쎯l쎯	-8.55562
▁쎂쎄	-8.55813
▁ltu0쎯	-8.56298
dg쎯	-8.56453
▁쎁쎄	-8.56624
g	-8.56727
▁+	-8.56776
▁rjg1쎯wtf쎯	-8.56896
▁uvo쎯	-8.57058
▁wqin쎯	-8.5717
▁yj쎯	-8.57281
▁gef쎯	-8.57426
▁thd쎯qd쎯	-8.57428
▁wh쎯w쎯	-8.57518
▁ad쎯f쎯	-8.57526
▁mt쎯	-8.57673
▁rymn쎯	-8.579
▁dn쎯js쎯	-8.57992
▁wvf0쎯yvi쎯	-8.58033
fnrt쎯	-8.58107
▁yy쎯	-8.58241
ide쎯	-8.58326
▁pl쎯	-8.58501
jgm쎯	-8.58628
pp쎯	-8.58752
▁aib쎯lfnh쎯	-8.58914
▁nnnn0쎯x쎯	-8.58988
쎈	-8.59
uh쎯	-8.59059
▁jty쎯	-8.59108
▁rnb쎯	-8.59463
▁gk쎯og쎯	-8.59507
▁irn쎯lg쎯	-8.59577
▁wbj쎯wt쎯	-8.59595
▁trf0쎯qc쎯	-8.59751
▁k	-8.59803
▁dga쎯pwv쎯tg쎯	-8.60089
▁tf쎯ght쎯	-8.60131
▁jty쎯ysi쎯	-8.60164
▁tx쎯dg쎯	-8.60418
쎃	-8.60449
▁a쎯anb0쎯	-8.60673
▁f쎯yy쎯	-8.6076
▁ic쎯	-8.60895
rmhj쎯	-8.61055
lg쎯	-8.61445
▁rmhj쎯	-8.61496
▁fcu0쎯	-8.61526
▁jf쎯adwe1쎯	-8.61575
▁um쎯og쎯	-8.61974
▁um쎯	-8.61985
▁tdg1쎯	-8.61986
▁bm쎯gm쎯	-8.62026
▁쎂쎀쎀쎂	-8.62044
쎂	-8.62059
▁w쎯tr쎯	-8.62095
▁fuk쎯udyj쎯	-8.62165
▁ugdu쎯sy쎯	-8.62342
▁tfq쎯	-8.62473
▁st쎯	-8.62496
▁uq쎯iyc쎯	-8.62609
▁it쎯	-8.62627
▁wdm쎯	-8.62764
fghg쎯	-8.63185
▁oge쎯	-8.63232
th쎯	-8.63319
▁synw쎯ny쎯	-8.63372
gc쎯	-8.63378
▁ii쎯gu쎯	-8.63386
▁qk쎯tq쎯	-8.63428
▁fha쎯	-8.63436
▁af쎯wgkb0쎯	-8.6346
▁mqb쎯	-8.63598
▁jh쎯	-8.63663
▁yid쎯	-8.63664
▁dga쎯v쎯	-8.63694
▁x쎯fp쎯	-8.63808
y	-8.63859
▁wg쎯dm쎯	-8.63862
▁udi0쎯	-8.6391
▁oge쎯pyj쎯	-8.63977
▁mmm쎯ai쎯	-8.63977
▁ntg쎯ce쎯	-8.64154
▁rpv쎯	-8.64376
▁ih쎯ip쎯	-8.6448
▁ujj쎯	-8.64518
▁쎂쎀쎁쎁	-8.64551
▁dn쎯al쎯	-8.64737
cep쎯	-8.64749
bw쎯	-8.64832
▁rn쎯e쎯	-8.65015
▁pu쎯ytb쎯	-8.65034
▁iy쎯mm쎯	-8.65067
▁atd쎯ip쎯	-8.65195
bpf쎯	-8.65262
▁bwt쎯	-8.65425
▁g쎯pg쎯	-8.65451
▁fcb쎯	-8.65523
▁hhhh쎯	-8.6554
▁v쎯gm쎯	-8.65881
▁ffff1쎯	-8.65928
▁쎂쎀쎀쎁	-8.66012
idr쎯	-8.66255
▁wj쎯xvk쎯	-8.66598
▁u쎯tg쎯	-8.66717
▁tj쎯gc쎯	-8.66858
i쎯	-8.66903
▁a쎯	-8.67109
▁dp쎯gc쎯	-8.67254
qi쎯	-8.67282
▁thgc0쎯	-8.67395
▁dty0쎯gk쎯	-8.67429
▁tjf0쎯	-8.67451
▁gu쎯fqu쎯	-8.6755
wy쎯	-8.67743
ym쎯	-8.67769
▁쎈쎀	-8.67863
▁wgk쎯	-8.67922
▁ld쎯o쎯	-8.67999
▁fd쎯	-8.68012
▁i	-8.68112
lll쎯	-8.68181
▁nyi2쎯fghy1쎯	-8.68276
n쎯	-8.68373
▁rh쎯wa쎯	-8.68398
▁qev쎯	-8.68814
▁tg쎯gf쎯	-8.6882
▁yy쎯tm쎯	-8.68833
▁fcp쎯fcl쎯	-8.68834
ps쎯	-8.69065
▁ck쎯iyo쎯	-8.6908
▁kkk쎯tkh쎯	-8.6909
▁wyv쎯kkk쎯	-8.69171
▁tq쎯kgn쎯	-8.69174
wv쎯	-8.69192
wys쎯	-8.692
▁bb쎯	-8.69222
▁lfn쎯	-8.6955
▁yf쎯tha쎯sm쎯	-8.69621
▁qq쎯uqw쎯	-8.69639
▁g쎯hxf쎯	-8.69675
▁cd쎯gn쎯	-8.6972
▁wx쎯	-8.69783
pgc쎯	-8.69795
usr쎯	-8.69929
▁nge쎯ukq쎯	-8.70045
▁if쎯tvfh0쎯	-8.7005
▁yygt쎯itp쎯	-8.70068
▁wdn쎯rfm쎯	-8.70163
▁hhhh쎯sfi쎯	-8.70248
▁dif쎯f쎯	-8.70336
fqb0쎯	-8.70362
▁tkh쎯sfhg쎯	-8.70465
▁w쎯n쎯ght쎯ywf쎯	-8.70513
▁wxf쎯	-8.70592
쎄	-8.70719
▁fj쎯	-8.70825
▁nnh쎯gl쎯	-8.71004
▁ymf쎯	-8.7108
▁wa쎯	-8.71218
nge쎯	-8.71273
▁wt쎯ftj쎯	-8.71373
▁tmg1쎯	-8.71475
▁yf쎯aj쎯	-8.71498
▁ght쎯ick쎯	-8.71533
▁ss쎯	-8.71548
▁wv쎯klj쎯	-8.71692
▁khu쎯gfi쎯	-8.71696
▁ymc쎯	-8.71705
pgy쎯	-8.7174
gog쎯	-8.71751
▁yygt쎯dd쎯	-8.7176
qynm1쎯	-8.71944
▁n쎯ytt쎯	-8.71968
▁ffi쎯	-8.71973
kkk쎯	-8.72045
▁pei쎯n쎯	-8.72089
▁gm쎯d쎯	-8.72101
ige쎯	-8.72115
s	-8.72145
▁cd쎯ovt쎯	-8.72188
▁yx쎯	-8.72314
▁bde쎯	-8.72509
▁fc쎯	-8.72621
kq쎯	-8.72633
▁um쎯tl쎯	-8.72791
ad쎯	-8.72925
▁ab쎯	-8.73042
▁qc쎯	-8.73227
▁fhw쎯	-8.73241
wgk쎯	-8.73267
▁pg쎯	-8.73284
▁wg쎯sf쎯	-8.73301
▁irr쎯ia쎯	-8.73494
▁src쎯	-8.73545
ih쎯	-8.73554
fny0쎯	-8.73604
ff쎯	-8.73681
▁g쎯fh쎯	-8.73845
▁ga쎯nae0쎯	-8.73945
fcu0쎯	-8.74171
▁ipk쎯tv쎯	-8.74227
rb쎯	-8.7458
▁wbj쎯vfhp1쎯	-8.74656
▁qgf쎯	-8.74814
iyc쎯	-8.74872
▁qtj쎯uu쎯	-8.7493
▁fnr0쎯	-8.75072
▁yv쎯vb쎯	-8.75185
st쎯	-8.75202
▁jcf쎯rf쎯	-8.75297
▁ghd1쎯aa쎯	-8.75349
▁kkd쎯	-8.75448
ipkf0쎯	-8.75481
▁ln쎯shn쎯	-8.75518
jf쎯	-8.75579
▁kg쎯	-8.7558
mw쎯	-8.75587
jtg쎯	-8.7559
▁ygk쎯yyy쎯	-8.757
▁ow쎯	-8.75834
▁>	-8.75839
▁yjs쎯tkgg1쎯	-8.75969
j쎯	-8.76353
▁ftbt쎯	-8.76403
▁ad쎯	-8.76611
tr쎯	-8.76654
▁qev쎯un쎯	-8.76711
▁jn쎯pym쎯	-8.76818
▁wug0쎯lfhf쎯	-8.76848
▁nnk쎯ta쎯	-8.76866
▁iyc쎯	-8.76951
▁nh쎯ty쎯	-8.76995
▁y쎯yam쎯	-8.77062
▁qg쎯	-8.77255
▁rt쎯	-8.77355
▁aq쎯fakg0쎯	-8.77401
m	-8.77567
ujn쎯	-8.77777
▁yygy쎯wrh1쎯	-8.77785
▁ssss0쎯	-8.77885
▁p쎯hxf쎯	-8.77886
pfi쎯	-8.78035
▁gef쎯rh쎯	-8.78095
▁yygt쎯	-8.78267
▁utd쎯ugm쎯	-8.78278
▁suq쎯	-8.78346
▁ld쎯hx쎯	-8.78414
▁da쎯dk쎯	-8.78439
▁jg쎯	-8.78465
hhu0쎯	-8.78541
u	-8.78571
ya쎯	-8.78627
iw쎯	-8.78745
hko쎯	-8.78771
et쎯	-8.78775
▁ght쎯tgm쎯	-8.78827
▁isgg2쎯	-8.78841
kgn쎯	-8.78938
▁itx쎯rdc쎯	-8.79031
▁kq쎯	-8.79056
▁k쎯yygy쎯	-8.79207
▁쎀쎀	-8.79292
xe쎯	-8.79407
xa쎯	-8.79528
▁mq쎯st쎯	-8.79592
ssss0쎯	-8.79623
▁qr쎯	-8.79699
▁bm쎯thgc0쎯py쎯	-8.79778
▁ih쎯yu쎯	-8.79875
ygk쎯	-8.79952
rrr쎯	-8.80122
ugdu쎯	-8.80146
▁wc쎯	-8.80247
▁r	-8.80298
▁sf쎯n쎯	-8.80348
▁pn쎯	-8.80488
▁쎂쎀쎀	-8.80555
▁atd쎯ubk1쎯	-8.80834
▁iit쎯	-8.80912
▁djd쎯ipkh1쎯	-8.80941
▁tfk0쎯	-8.80972
▁sf쎯tv쎯wf쎯	-8.80991
▁ts쎯wrh1쎯	-8.81051
▁pgc쎯	-8.81202
▁mww쎯	-8.81283
▁tr쎯	-8.81476
tffh1쎯	-8.81577
▁yygt쎯ytyh쎯	-8.81791
▁gae쎯aa쎯	-8.81882
▁rn쎯c쎯	-8.81888
▁xl쎯	-8.81919
ty쎯	-8.82009
▁qve쎯tf쎯	-8.82033
▁trf0쎯klj쎯	-8.82398
▁uqt쎯js쎯	-8.82426
▁yw쎯ygh쎯	-8.82446
▁js쎯	-8.82933
▁fj쎯ty쎯	-8.82934
nx쎯	-8.82955
mqq쎯	-8.83093
▁=	-8.83282
▁wynk쎯	-8.83318
▁nty0쎯af쎯	-8.8335
▁tfl쎯	-8.83397
▁ooo쎯	-8.83468
▁khu쎯	-8.83644
▁sn쎯	-8.83719
fcl쎯	-8.84098
▁fhv쎯	-8.84147
▁kgd쎯	-8.84262
▁dmh0쎯	-8.8428
▁aw쎯m쎯	-8.84378
▁ip쎯tu쎯	-8.84435
▁lft쎯	-8.84525
▁lh쎯kthh1쎯	-8.84798
yq쎯	-8.84824
▁hc쎯	-8.84826
tp쎯	-8.84868
▁tjt쎯	-8.84868
▁rkk쎯wt쎯	-8.84929
▁tfqp쎯rcf쎯	-8.85011
hc쎯	-8.85053
▁pu쎯cwg쎯	-8.85084
rn쎯	-8.85147
▁ypt쎯oy쎯	-8.85147
thg1쎯	-8.85286
qd쎯	-8.85365
▁yt쎯ty쎯	-8.85395
fg쎯	-8.8543
▁ih쎯jf쎯	-8.85587
▁an쎯	-8.85596
▁yygt쎯sghg1쎯	-8.85611
▁e쎯uqt쎯	-8.85628
uu쎯	-8.8569
▁y쎯rf쎯	-8.85694
▁wgj쎯	-8.85712
▁nd쎯	-8.85787
▁wsg0쎯yce쎯	-8.85798
▁kwg쎯	-8.85976
▁sov쎯	-8.86013
▁w쎯wu쎯	-8.86073
▁jtyl쎯hich0쎯	-8.86075
▁f쎯th쎯	-8.86149
▁mmm쎯ai쎯ith쎯	-8.86249
▁sg쎯tu쎯	-8.8625
▁rx쎯uwy0쎯	-8.86283
x쎯	-8.86293
▁amd쎯ygk쎯	-8.86458
▁ax쎯	-8.8651
▁wf쎯yyq쎯	-8.8652
▁k쎯wxf쎯	-8.86527
▁yy쎯wgj쎯	-8.8654
▁dgt1쎯	-8.8666
tmd쎯	-8.86731
gy쎯	-8.86898
▁jf쎯wa쎯	-8.86926
▁yygt쎯ai쎯	-8.87088
▁ge쎯gm쎯	-8.87232
fw쎯	-8.87316
▁aw쎯u쎯ipk쎯	-8.8739
▁thd쎯fcl쎯	-8.87391
▁tg쎯tr쎯	-8.87403
▁sve쎯	-8.87429
▁ta쎯adwe1쎯	-8.87556
▁tkw쎯se쎯	-8.87617
▁nf쎯jgm쎯	-8.87663
▁pgn쎯	-8.87681
▁쎂쎁	-8.87695
▁bc쎯tj쎯	-8.87979
▁pei쎯sf쎯	-8.88007
▁s	-8.88106
▁bc쎯	-8.88243
▁usr쎯ub쎯	-8.88267
▁jqr쎯	-8.88287
▁kkk쎯rfm쎯	-8.8847
▁ddu1쎯	-8.88615
▁쎁쎉쎉쎉	-8.88675
▁pfq쎯uduk0쎯	-8.88723
▁amd쎯l쎯	-8.8876
dr쎯	-8.88774
▁fnw쎯	-8.88812
▁bg쎯tg쎯	-8.88834
▁dy쎯	-8.89007
ftbt쎯	-8.89039
▁쎁쎉	-8.89069
pn쎯	-8.89097
tjf0쎯	-8.89103
▁pu쎯khg0쎯	-8.89122
▁jhng0쎯	-8.89128
wc쎯ngk쎯	-8.89178
▁jn쎯idr쎯	-8.8929
gah쎯	-8.89575
sov쎯	-8.89576
▁wrh1쎯	-8.89579
kthh1쎯	-8.8966
▁q	-8.89716
▁qq쎯tkh쎯	-8.89945
qgf쎯	-8.90026
▁gah쎯	-8.90151
amw쎯	-8.90209
▁tld1쎯	-8.90216
adwe1쎯	-8.90311
fj쎯	-8.90586
▁qn쎯	-8.90672
▁rx쎯	-8.90682
ovt쎯	-8.90725
▁oi쎯	-8.90791
▁qqqq1쎯gkm쎯	-8.90819
▁쎂쎂	-8.90859
▁tel쎯	-8.90936
▁av쎯	-8.90939
▁gyt쎯	-8.90983
▁gcf쎯wynb0쎯	-8.90989
t쎯	-8.90993
▁yngk1쎯	-8.91004
▁waw쎯	-8.9106
▁umd1쎯	-8.91111
dw쎯	-8.91572
l	-8.91618
ux쎯	-8.91695
pg쎯	-8.91835
▁idr쎯	-8.91907
um쎯	-8.91948
▁ft쎯	-8.91972
▁ytfp0쎯	-8.92191
▁ajj0쎯	-8.92336
xmw쎯	-8.92353
▁xx쎯lu쎯	-8.92488
ip쎯bpf쎯	-8.92544
wfny0쎯	-8.92557
▁apk쎯qie쎯	-8.92581
▁sw쎯imj쎯	-8.92668
▁g쎯fhn쎯	-8.9273
▁rfm쎯	-8.92839
▁fnrt쎯	-8.92905
gae쎯	-8.9291
ytt쎯	-8.93054
▁pp쎯rg쎯	-8.93238
▁xfn쎯	-8.93253
▁ide쎯fm쎯	-8.93257
▁wyv쎯	-8.93269
▁kn쎯	-8.93322
ugm쎯	-8.93404
▁lkmi0쎯	-8.93419
▁쎅쎀쎀	-8.93431
dmh0쎯	-8.93545
c쎯	-8.9356
▁wc쎯kht쎯	-8.9357
▁ia쎯alw쎯	-8.93581
▁fcl쎯tr쎯	-8.93638
ajj0쎯	-8.93663
fq쎯	-8.93673
▁ey쎯adw쎯	-8.93742
yny0쎯	-8.93824
▁l쎯mw쎯qh쎯	-8.93827
▁tuj0쎯tq쎯	-8.93893
▁aws쎯	-8.93905
▁wu쎯	-8.93937
▁fh쎯	-8.94221
▁uu쎯	-8.94278
▁yy쎯pvs쎯	-8.94279
lwj쎯	-8.94301
vvv쎯	-8.94422
▁ugm쎯gxgu쎯	-8.94426
▁ru쎯	-8.94458
▁rvy쎯tf쎯	-8.94523
▁eg쎯	-8.94724
qe쎯	-8.94742
fawk0쎯	-8.94755
▁wg쎯gfi쎯	-8.94791
▁dl쎯wtf쎯	-8.94933
▁wkh0쎯fj쎯	-8.94949
▁hk쎯	-8.95021
▁쎂쎀쎁쎂	-8.95088
scf쎯	-8.95108
hka쎯	-8.95133
▁~	-8.95227
▁inr쎯	-8.95366
iex쎯	-8.95424
▁gip쎯e쎯	-8.95434
▁qi쎯	-8.95496
ltu0쎯	-8.95536
▁ipk쎯	-8.95632
▁uo쎯cep쎯	-8.95641
▁vcl쎯lt쎯	-8.95717
▁wv쎯o쎯	-8.9578
hhhh쎯	-8.95787
▁fwm쎯saj0쎯	-8.95795
e	-8.95811
kf쎯	-8.95814
▁wx쎯ip쎯	-8.95853
▁pv쎯ufy쎯	-8.95931
▁lpdk1쎯	-8.95961
▁t	-8.96003
tv쎯	-8.96275
ab쎯	-8.96282
▁tmd쎯	-8.96395
p	-8.96422
▁pw쎯uj쎯	-8.96455
wn쎯	-8.96501
y쎯	-8.96516
▁ftbt쎯sft쎯	-8.96527
▁v쎯tf쎯	-8.96654
▁dd쎯jg쎯	-8.96699
▁yqa쎯	-8.96737
▁epc쎯gc쎯	-8.96767
▁gk쎯	-8.96962
▁ytf쎯qq쎯	-8.97265
▁fh쎯ruv쎯	-8.97347
▁fdm쎯fiy쎯	-8.97367
▁km쎯a쎯	-8.97409
▁nui쎯	-8.97543
▁yb쎯	-8.97572
▁yygt쎯ai쎯ith쎯	-8.97781
txi쎯	-8.97843
▁rj쎯bm쎯	-8.98115
▁shn쎯	-8.98128
▁xxg0쎯	-8.98147
▁adwe1쎯uj쎯	-8.98148
▁rs쎯tfkp0쎯	-8.98208
▁xv쎯qc쎯	-8.98244
▁tg쎯dyn쎯	-8.98249
▁wyc쎯	-8.98381
▁trf0쎯gqr쎯	-8.98444
▁gy쎯	-8.98514
▁tdp쎯et쎯	-8.98536
▁nty0쎯	-8.98574
▁lp쎯	-8.98638
▁yny0쎯	-8.9877
▁xl쎯eqn쎯	-8.98845
▁naj0쎯	-8.98872
▁쎁쎉쎉쎈	-8.98874
jn쎯	-8.9891
yx쎯	-8.98922
▁f쎯ltu0쎯	-8.98934
▁uqwk0쎯yqj쎯	-8.99167
ma쎯	-8.99184
▁tfqp쎯	-8.99256
▁ral쎯syp쎯	-8.99366
▁vs쎯fn쎯	-8.99415
▁fggh쎯uk쎯	-8.99421
▁vtk쎯	-8.99433
▁tfq쎯tg쎯	-8.99475
lft쎯	-8.99509
mtd쎯	-8.99521
▁쎃쎂	-8.99566
gef쎯	-8.99697
쎇	-8.99731
▁wc쎯lfq쎯	-8.99732
▁쎂쎈	-8.99769
▁qa쎯	-8.99873
쎀	-8.99883
▁qq쎯rh쎯	-8.99946
▁tkgg1쎯ycb쎯	-9.00025
▁쎉쎀	-9.00059
▁ffff1쎯f쎯	-9.0007
▁rwyg0쎯yygt쎯	-9.00158
▁ai쎯ux쎯	-9.005
▁yo쎯wx쎯	-9.00532
▁ce쎯qkqq0쎯	-9.00548
▁ud쎯gf쎯	-9.00673
rg쎯	-9.00725
▁ijl쎯ya쎯	-9.00728
▁ick쎯	-9.00806
yhk쎯	-9.00992
▁ymhj0쎯tv쎯	-9.01159
gajf0쎯	-9.01222
pyg쎯	-9.01552
▁쎂쎆	-9.01617
▁vk쎯js쎯	-9.01663
▁wgj쎯tjh쎯	-9.01706
▁ith쎯xe쎯	-9.01729
▁whw쎯qi쎯uk쎯	-9.01749
▁wwf쎯ait쎯	-9.01773
jy쎯	-9.01854
▁쎃쎅	-9.01963
▁쎂쎃	-9.02013
▁hka쎯ltk쎯	-9.02053
▁nh쎯	-9.02084
h	-9.02101
▁wk쎯	-9.02201
gl쎯	-9.02236
▁mmm쎯aq쎯	-9.02303
▁tfl쎯l쎯	-9.02377
▁ytb쎯a쎯	-9.02425
fnr0쎯	-9.02429
▁ygk쎯	-9.02528
cnh쎯	-9.02557
u쎯	-9.02569
▁jb쎯ym쎯	-9.02573
d쎯	-9.02651
x	-9.02686
▁yygy쎯je쎯	-9.02745
▁쎁쎉쎉쎅	-9.02882
▁cqy쎯	-9.02947
▁xf쎯js쎯	-9.02979
pyj쎯	-9.0298
up쎯	-9.02992
ywx쎯	-9.02992
▁y	-9.0308
▁amd쎯yygy쎯	-9.0308
▁pfi쎯xj쎯	-9.03149
▁kgb쎯	-9.03163
▁ad쎯qqqq1쎯	-9.03257
src쎯	-9.03273
▁dt쎯egl쎯	-9.03347
▁yyy쎯	-9.03415
riu0쎯	-9.03463
▁wqj쎯	-9.03479
▁qtj쎯trf0쎯	-9.03537
nd쎯	-9.03543
▁adnt1쎯	-9.03559
▁zzbd0쎯	-9.03625
▁jn쎯eyb쎯	-9.03631
▁uqwm1쎯ou쎯	-9.03667
▁쎃쎀쎀	-9.03923
yfd쎯	-9.03929
▁gmu1쎯wtf쎯	-9.03948
▁ae쎯	-9.04
▁fm쎯yiu0쎯	-9.04014
▁dhb쎯d쎯	-9.04094
▁ywx쎯	-9.04156
▁vca쎯	-9.04282
▁p쎯jfd쎯	-9.04292
▁pym쎯hid쎯	-9.04351
▁ygu쎯	-9.04464
▁fgh쎯wv쎯	-9.0462
▁oug0쎯	-9.04684
▁쎇쎀	-9.04731
▁bpf쎯ta쎯	-9.04741
hi쎯	-9.04793
suq쎯	-9.04834
▁sghg1쎯fm쎯	-9.04948
▁td쎯	-9.04975
rgw쎯	-9.05043
lk쎯	-9.05044
▁쎁쎉쎈쎄	-9.05115
▁kl쎯	-9.05165
▁ufy쎯qnth쎯	-9.05269
img쎯	-9.05345
▁cnh쎯	-9.05562
▁sgn쎯ddu1쎯	-9.05597
▁dmj1쎯eg쎯	-9.05608
▁fwm쎯pg쎯	-9.05727
▁bk쎯	-9.05738
fp쎯	-9.0574
▁fhu쎯	-9.05787
▁ma쎯	-9.05866
▁isk쎯	-9.05868
▁vkgd쎯qi쎯	-9.05941
▁trf0쎯	-9.05943
tl쎯	-9.05985
ep쎯	-9.06033
lw쎯	-9.06196
▁rmhj쎯ya쎯	-9.06248
▁ih쎯xeg0쎯	-9.06282
▁쎁쎉쎉쎃	-9.06383
vfhp1쎯	-9.0641
▁gog쎯	-9.06479
▁yygt쎯tfkf0쎯	-9.06511
tj쎯	-9.06631
▁nua쎯ajdh쎯	-9.06839
▁by쎯	-9.06843
▁bu쎯wgk쎯	-9.07085
▁cff0쎯	-9.07133
▁ia쎯alw쎯ith쎯	-9.07153
▁쎁쎉쎉쎂	-9.07199
▁wbj쎯lw쎯	-9.07217
▁gfi쎯	-9.0727
jj쎯	-9.07343
▁tf쎯o쎯	-9.07367
▁ri쎯	-9.07535
ae쎯	-9.07536
▁qr쎯kht쎯	-9.07562
▁j	-9.07569
▁pei쎯	-9.07574
ihc쎯	-9.07609
▁dfy쎯	-9.07728
ga쎯	-9.07801
▁if쎯l쎯	-9.07971
▁fqp쎯	-9.08008
▁pww쎯jg쎯	-9.08049
▁ggi쎯	-9.08074
qh쎯	-9.08126
▁a쎯tkgg1쎯jgm쎯	-9.08239
▁jv쎯	-9.08241
▁adw쎯px쎯	-9.08252
▁d	-9.08345
▁nnk쎯	-9.08353
쎉	-9.08404
▁aps쎯aqt쎯	-9.08455
wug0쎯	-9.08479
▁jtg쎯	-9.08504
wt쎯	-9.08563
▁sam쎯	-9.08578
▁wdn쎯rvyl0쎯	-9.08685
▁lft쎯bw쎯	-9.08754
▁vcb쎯sk쎯	-9.08832
sc쎯	-9.08993
py쎯	-9.09
o	-9.0904
▁isk쎯fm쎯	-9.09209
▁wht쎯	-9.09221
▁ipk쎯xeg0쎯	-9.09249
wfg0쎯	-9.09257
vb쎯	-9.09297
▁pgj쎯wfny0쎯	-9.09359
▁irr쎯ia쎯ith쎯	-9.09444
▁egc쎯tv쎯	-9.09499
ue쎯	-9.09596
▁f쎯gj쎯	-9.09614
vt쎯	-9.09718
▁yw쎯o쎯	-9.09799
yyy쎯	-9.09939
▁ktn쎯	-9.09977
▁bnn2쎯	-9.09988
▁fu쎯lk쎯	-9.10101
qq쎯	-9.10108
▁alw쎯	-9.10355
▁fcp쎯tf쎯	-9.10378
▁gs쎯	-9.10402
▁yaa쎯cwg쎯	-9.10466
▁dw쎯	-9.10524
pb쎯	-9.10649
▁iy쎯	-9.10659
▁wtf쎯tl쎯	-9.10678
▁'	-9.10808
yn쎯	-9.10812
▁egc쎯fd쎯	-9.10887
tgj쎯	-9.10899
▁pgy쎯	-9.1091
▁lt쎯	-9.10959
▁ggi쎯wk쎯	-9.11058
▁lt쎯jg쎯	-9.11177
▁w	-9.11186
▁ymc쎯e쎯	-9.11299
▁jb쎯xtu쎯	-9.11322
▁ge쎯dm쎯	-9.11342
『	-9.1142
▁』	-9.11446
▁gfq쎯	-9.11453
▁trf0쎯tgh쎯	-9.11472
pk쎯	-9.11648
▁pfq쎯wg쎯	-9.11667
▁fa쎯	-9.11691
▁jb쎯rg쎯	-9.1176
▁jf쎯imkf1쎯	-9.11761
▁쎄쎅	-9.11846
▁pu쎯bf쎯	-9.11988
gfi쎯	-9.12
▁uq쎯	-9.12045
▁dga쎯pwv쎯rn쎯	-9.12151
▁’	-9.12304
▁xh쎯	-9.12466
▁fiy쎯	-9.12508
ooo쎯	-9.12526
▁g쎯xe쎯	-9.1255
▁쎁쎉쎈쎅	-9.1255
▁wbj쎯tfkp0쎯	-9.12596
▁qqqq1쎯ntk쎯	-9.12668
▁wjg쎯j쎯	-9.12717
▁td쎯qk쎯	-9.12765
▁udp쎯	-9.12814
▁jo쎯fi쎯	-9.12857
fk쎯	-9.12986
▁sgn쎯	-9.13043
iyo쎯	-9.13105
▁ge쎯	-9.13124
▁ws쎯usi1쎯	-9.13201
▁gkip0쎯ya쎯	-9.13206
gj쎯	-9.13251
xwy0쎯	-9.13325
▁쎀쎁	-9.1335
ud쎯	-9.13465
▁nnw쎯	-9.13497
▁ia쎯	-9.13552
▁yjs쎯jghm1쎯	-9.13635
bu쎯	-9.13654
qt쎯	-9.13854
▁iv쎯jf쎯	-9.13959
▁fj쎯hi쎯	-9.13964
▁apk쎯udyj쎯	-9.14026
▁lwg쎯ty쎯	-9.14089
▁쎁쎉쎉쎄	-9.14194
▁wxj쎯	-9.14204
js쎯	-9.14211
▁pu쎯	-9.14313
▁iytb0쎯	-9.14476
▁xh쎯fhn쎯	-9.14504
ln쎯	-9.14505
▁ufy쎯	-9.14538
▁m	-9.14551
▁쎁쎉쎉쎀	-9.14588
▁tjh쎯	-9.14661
▁aqq쎯iyt1쎯	-9.1472
▁쎁쎀쎀쎀	-9.14727
▁rdj쎯	-9.14793
▁쎁쎉쎉쎇rh쎯	-9.1481
▁qng1쎯	-9.14842
▁xxr쎯	-9.14881
td쎯	-9.15103
▁kwyg0쎯g쎯	-9.15111
▁yni1쎯	-9.15194
▁ijl쎯	-9.15292
▁xyy1쎯	-9.15355
▁qmgk1쎯	-9.15506
▁tqv쎯pg쎯	-9.15707
▁wg쎯uk쎯	-9.15736
▁pw쎯	-9.15767
wa쎯	-9.15824
▁rep쎯cbj쎯	-9.15848
iawn0쎯	-9.1587
▁쎁쎉쎈쎈	-9.15881
▁am쎯fmud쎯	-9.15934
▁fje쎯	-9.1598
▁iagw쎯khu쎯	-9.16141
▁pv쎯tmgt3쎯	-9.16142
▁aw쎯e쎯	-9.16203
gg쎯	-9.16243
▁zzts1쎯	-9.1626
▁sk쎯ce쎯	-9.16293
▁synw쎯	-9.16424
▁cep쎯ipkh1쎯	-9.16437
dwiu쎯	-9.16492
▁uqwm1쎯qqqq1쎯	-9.1668
▁ak쎯ftj쎯	-9.16692
▁u	-9.16718
▁iv쎯wa쎯	-9.16728
▁쎁쎉쎈쎉	-9.16783
▁ide쎯ux쎯	-9.1684
▁fhq쎯	-9.16915
▁jo쎯	-9.16997
▁sm쎯ud쎯	-9.17042
ghd1쎯	-9.17305
▁bu쎯	-9.1735
▁adk쎯	-9.1736
▁wfny0쎯rtol0쎯	-9.17365
▁tffh1쎯uthp0쎯	-9.1741
▁gm쎯wa쎯wx쎯	-9.17516
▁n	-9.17572
▁n쎯	-9.17627
▁qn쎯ufy쎯	-9.17645
▁wv쎯od쎯	-9.1775
oy쎯	-9.17756
▁lw쎯ip쎯	-9.17859
ywf쎯	-9.17872
dgh쎯	-9.17878
▁wbj쎯	-9.17931
▁wx쎯a쎯	-9.17946
c	-9.17964
lp쎯	-9.181
▁yjjh0쎯	-9.18137
▁gxi쎯rfm쎯	-9.18149
▁ipg쎯km쎯	-9.18169
▁쎁쎂eee0쎯	-9.18242
▁isk쎯fm쎯ith쎯	-9.18259
▁yft쎯	-9.1826
▁lh쎯kthh1쎯ith쎯	-9.184
▁puh쎯	-9.185
▁nnw쎯gkip0쎯	-9.18529
ds쎯	-9.18574
▁bpf쎯	-9.18585
ic쎯	-9.18612
▁fcp쎯lwg쎯	-9.18796
▁nyu0쎯	-9.18939
▁dgh쎯wa쎯	-9.18969
▁dd쎯ih쎯	-9.19024
▁gae쎯qje쎯	-9.19035
▁xyna1쎯	-9.19087
qnp쎯	-9.19155
wtf쎯	-9.19182
mwyc0쎯	-9.19191
▁쎁쎉쎈쎆	-9.19203
▁xf쎯	-9.19203
▁쎁쎉쎈쎇	-9.1921
▁fffy0쎯	-9.19481
▁ufk0쎯qv쎯	-9.19615
▁ywu쎯	-9.19626
▁sghg1쎯ux쎯	-9.19777
mqb쎯	-9.19796
▁pyg쎯vfhp1쎯	-9.19827
쎁쎉	-9.19948
▁djb쎯	-9.20068
▁cf쎯gf쎯	-9.20177
qa쎯	-9.20264
▁c쎯gh쎯	-9.20295
▁wsk쎯	-9.20319
vi쎯	-9.20354
▁mdf0쎯	-9.20539
▁tg쎯ta쎯	-9.20549
v	-9.20654
▁tdp쎯wgk쎯	-9.20694
▁dr쎯ou쎯	-9.2075
▁tve쎯qq쎯	-9.2081
▁rhk0쎯	-9.20858
▁qt쎯ujff쎯	-9.20942
gmy0쎯	-9.20967
▁cw쎯	-9.20994
▁hka쎯qv쎯	-9.20994
▁dht쎯	-9.21088
▁qd쎯rg쎯	-9.21118
▁eu쎯	-9.21164
▁wk쎯ygh쎯	-9.21176
▁tuj0쎯ujfj0쎯	-9.21219
▁lll쎯	-9.21263
▁쎁쎉쎈쎂	-9.21263
▁hj쎯	-9.21315
yff쎯	-9.21377
▁wf쎯ta쎯	-9.21419
ght쎯	-9.21454
▁fcu0쎯fm쎯	-9.21458
▁ipkh1쎯tl쎯	-9.21489
▁ua쎯eg쎯	-9.21598
▁qe쎯	-9.216
▁aps쎯iwyf1쎯	-9.21672
▁‘	-9.21778
▁gd쎯ivfh1쎯	-9.21803
▁anu0쎯thg1쎯	-9.21889
▁ttg0쎯	-9.21986
▁p쎯su쎯	-9.22006
▁isk쎯ux쎯	-9.2201
▁pwd쎯bm쎯	-9.22015
▁qgb쎯	-9.2203
lh쎯	-9.22174
▁ge쎯fi쎯	-9.22205
amd쎯	-9.22276
▁bk쎯a쎯	-9.22364
ire쎯	-9.22373
▁sdm쎯	-9.22435
uj쎯	-9.2253
▁rrr쎯qc쎯	-9.22573
▁lw쎯	-9.22763
▁nd쎯n쎯	-9.22903
▁wy쎯	-9.23039
▁qyv쎯jqr쎯	-9.23086
▁ytt쎯	-9.23101
▁fku쎯cqw쎯	-9.2311
▁fcu0쎯fm쎯ith쎯	-9.23143
▁jn쎯ib쎯	-9.23174
▁ym쎯k쎯	-9.23264
▁suq쎯lfq쎯	-9.23277
▁qy쎯	-9.23319
▁w쎯od쎯	-9.23332
▁xx쎯pfjm1쎯	-9.2351
▁k쎯atd쎯	-9.23526
▁dhb쎯	-9.23721
▁uxe쎯	-9.23925
▁ugl쎯	-9.23963
▁ihc쎯	-9.24052
▁lwg쎯bm쎯	-9.24224
▁w쎯fqu쎯	-9.24316
▁y쎯xyna1쎯	-9.24327
ith쎯	-9.24333
gyt쎯	-9.2436
▁eajd쎯	-9.24549
▁qgu쎯	-9.24615
▁amd쎯	-9.24679
▁uwyc2쎯	-9.24706
eee0쎯	-9.24719
swc쎯	-9.24837
iit쎯	-9.24975
▁pu쎯cwg쎯pgc쎯	-9.25027
▁me쎯	-9.25179
▁ww쎯dmj1쎯	-9.25207
▁rnd1쎯	-9.25358
▁xv쎯	-9.25377
▁scf쎯	-9.2539
▁yle쎯	-9.25402
rfm쎯	-9.25445
▁a쎯hw쎯	-9.25459
▁nh쎯adnt1쎯	-9.25573
▁ymc쎯uu쎯	-9.25656
▁fawk0쎯	-9.25677
▁aet1쎯	-9.25722
▁ivw쎯	-9.25745
▁qve쎯	-9.25771
▁tf쎯ght쎯sf쎯	-9.25813
▁tt쎯	-9.25857
▁gkl쎯ftbt쎯rep쎯	-9.2614
wk쎯	-9.26147
▁xqa쎯	-9.26196
▁mw쎯dhb쎯	-9.2624
▁un쎯pg쎯	-9.26249
▁fdm쎯	-9.26278
▁kc쎯	-9.26307
▁fhv쎯fp쎯	-9.26376
▁bi쎯	-9.26478
dj쎯	-9.26528
▁hka쎯	-9.26594
xx쎯	-9.26612
yvi쎯	-9.26645
▁쎂쎉	-9.26647
▁ujf0쎯	-9.26666
▁lc쎯	-9.26752
▁jb쎯wffg쎯	-9.26769
▁fjfh1쎯l쎯	-9.26859
▁vtk쎯www쎯	-9.2687
▁쎂쎇	-9.26874
▁itf쎯uqv쎯	-9.27062
▁yfn쎯	-9.27123
▁uq쎯jqr쎯	-9.27124
▁xyna1쎯lkb쎯	-9.27256
▁swc쎯	-9.27298
▁rt쎯sm쎯	-9.27367
▁yfn쎯ftj쎯	-9.27372
▁g쎯su쎯	-9.27379
▁suq쎯ta쎯	-9.27526
▁gcft0쎯lt쎯gf쎯	-9.2757
▁ftg쎯yaa쎯	-9.27599
▁gip쎯j쎯	-9.27654
▁bynw0쎯bb쎯	-9.27795
▁tgj쎯yd쎯	-9.27808
rvyo쎯	-9.27875
▁gqx쎯	-9.27886
▁tr쎯rfm쎯	-9.2805
▁iagw쎯	-9.28051
▁u쎯	-9.28123
▁pyg쎯vfhp1쎯ith쎯	-9.28153
▁ccc쎯tq쎯	-9.28159
▁gkih0쎯	-9.28201
wg쎯	-9.28232
▁ovt쎯ip쎯	-9.28274
▁iw쎯	-9.2835
▁h쎯itx쎯ymhj0쎯	-9.28374
▁g쎯iyc쎯	-9.28527
▁tak쎯	-9.28592
▁ybf0쎯epc쎯	-9.28611
wwk쎯	-9.28685
▁pgk쎯	-9.28711
ce쎯	-9.28794
ftbt쎯yce쎯	-9.28854
isgg2쎯	-9.29023
▁fny0쎯lkb쎯	-9.2909
▁ire쎯	-9.29143
▁www쎯qq쎯	-9.29151
▁rpv쎯jvko0쎯	-9.29165
apk쎯	-9.29245
▁da쎯	-9.2927
▁쎁쎉쎉쎁	-9.29357
▁uthp0쎯kht쎯	-9.29594
▁cy쎯	-9.2966
▁iwf쎯lw쎯	-9.29694
▁yc쎯wv쎯	-9.29767
▁bw쎯	-9.29803
pu쎯	-9.29829
xxg0쎯	-9.29859
pw쎯	-9.29886
▁lfq쎯	-9.29906
▁oat쎯	-9.29954
ax쎯	-9.29979
▁fuj쎯mw쎯	-9.29988
▁tg쎯wgkb0쎯	-9.30096
sh쎯	-9.30167
ujf0쎯	-9.30183
▁qh쎯tu쎯	-9.30227
uqd2쎯	-9.30227
▁uduk0쎯	-9.30234
fggh쎯	-9.30295
▁sksw쎯	-9.30318
sgc쎯	-9.30338
▁xyc쎯g쎯	-9.30506
uo쎯	-9.3054
▁kw쎯e쎯	-9.3055
nae0쎯	-9.30668
▁yygy쎯tr쎯	-9.30832
▁udy쎯dyn쎯	-9.3085
▁bd쎯rjg1쎯	-9.30886
▁gkih0쎯wh쎯	-9.30915
▁ovt쎯pb쎯	-9.30944
▁tk쎯f쎯	-9.30971
▁hv쎯	-9.30991
wty0쎯	-9.30997
▁jn쎯lt쎯	-9.31003
fqp쎯	-9.31098
▁udyj쎯	-9.31137
▁ia쎯sghg1쎯	-9.31227
▁rwyg0쎯bm쎯	-9.31318
thd쎯	-9.31326
▁ai쎯sghg1쎯	-9.31337
ufy쎯	-9.31341
▁lk쎯xk쎯	-9.31457
▁yiu0쎯	-9.31457
▁db쎯ukd1쎯	-9.31492
▁um쎯kkk쎯	-9.31641
▁쎁쎉쎈쎃	-9.31667
▁ukn쎯dm쎯tkw쎯	-9.31707
▁rb쎯	-9.31728
s쎯	-9.31784
k쎯l쎯	-9.31845
▁dmjf1쎯	-9.3185
▁rbcc쎯jyie쎯	-9.31875
wyv쎯	-9.31961
▁de쎯	-9.32009
▁bw쎯wgg1쎯	-9.32073
p쎯	-9.32189
▁ux쎯yiu0쎯ymhj0쎯	-9.3222
▁ltu0쎯nnh쎯	-9.32283
gxi쎯	-9.32314
▁a쎯wt쎯ftj쎯	-9.32338
▁&	-9.32342
▁n쎯uj쎯	-9.32429
▁vfhp1쎯dn쎯	-9.32492
▁qf쎯	-9.32502
dc쎯	-9.32607
tm쎯	-9.32637
▁fg쎯fgh쎯	-9.32675
▁rc쎯yid쎯	-9.32679
▁nae0쎯	-9.32705
▁uo쎯	-9.3292
▁apl쎯fcl쎯	-9.33018
▁wk쎯rf쎯	-9.33112
▁f	-9.33115
▁je쎯jo쎯	-9.33175
▁ftjo1쎯	-9.3328
▁wa쎯gj쎯	-9.3338
▁ide쎯ux쎯ith쎯	-9.33416
▁kfi쎯	-9.33535
▁vaf쎯wsg0쎯	-9.33645
▁tqq쎯fcl쎯	-9.33727
▁wgq쎯	-9.338
ll쎯	-9.33806
▁fwm쎯aib쎯	-9.33811
▁gy쎯oy쎯	-9.33834
▁쎇eee0쎯	-9.33859
▁qmq쎯	-9.33888
▁thd쎯mh쎯	-9.33891
▁lqw쎯	-9.33982
▁emc쎯	-9.34042
▁dn쎯xgm쎯	-9.34042
▁ymc쎯lfhf쎯	-9.34057
▁dnnl쎯	-9.34092
ag쎯	-9.34363
vk쎯	-9.3439
flf1쎯	-9.34482
▁tgm쎯aj쎯	-9.34508
▁ym쎯ya쎯	-9.34628
ft쎯	-9.34636
▁ujn쎯	-9.3484
▁twt쎯	-9.34886
cm쎯	-9.34931
▁jf쎯whn쎯	-9.34945
tld1쎯	-9.35072
▁ukh쎯	-9.35101
od쎯	-9.35387
▁tgj쎯dd쎯	-9.3539
uq쎯	-9.35545
▁cm쎯	-9.35587
▁ybv0쎯	-9.35661
▁tr쎯iyc쎯	-9.35674
thgf1쎯	-9.3582
▁ipw쎯fkh쎯	-9.35883
▁ytb쎯	-9.36058
▁nt쎯ed쎯	-9.3606
▁qyvl0쎯	-9.36065
▁xp쎯wgk쎯ntg쎯	-9.3607
▁ipkh1쎯tv쎯	-9.3619
fcp쎯	-9.36277
▁aca쎯	-9.36307
▁yn쎯	-9.36324
▁lhnh쎯	-9.36486
▁pv쎯tmgt3쎯ith쎯	-9.36525
▁gogj쎯	-9.36526
ngk쎯	-9.36566
▁vo쎯	-9.3662
te쎯	-9.3667
▁oe쎯	-9.36674
▁쎄쎀쎀	-9.36691
▁tdp쎯peg쎯	-9.3675
▁sri쎯	-9.36777
▁afs쎯	-9.3678
ylk0쎯	-9.36882
yd쎯	-9.36938
▁m쎯rh쎯	-9.36952
ahty0쎯	-9.36968
▁tmo쎯	-9.36975
▁wgc쎯	-9.37142
▁yge쎯	-9.37182
xeg0쎯	-9.37252
▁jb쎯usr쎯	-9.37346
▁ajt쎯	-9.37373
▁f쎯rfm쎯	-9.37383
▁ym쎯gkip0쎯	-9.37391
▁yjj1쎯wg쎯	-9.37391
▁쎁쎅쎀	-9.37473
k쎯ip쎯	-9.37521
iyt1쎯	-9.37527
▁iyw쎯	-9.37559
▁qtj쎯	-9.3761
▁e쎯udh쎯	-9.3762
▁x	-9.37675
▁fcl쎯	-9.37706
dskf쎯	-9.3771
▁ide쎯fm쎯ith쎯	-9.37892
yv쎯	-9.37937
▁fcp쎯fcl쎯km쎯	-9.37984
imgk쎯	-9.38058
afl쎯	-9.38073
▁yq쎯	-9.38084
▁dgkn0쎯	-9.38159
▁rj쎯	-9.38159
▁fcp쎯et쎯	-9.38185
▁wtf쎯wsk쎯	-9.3821
▁oyvk1쎯	-9.38225
▁ou쎯	-9.38355
tel쎯	-9.38484
▁uqt쎯lt쎯	-9.38518
▁lw쎯wc쎯	-9.38542
▁wmj1쎯	-9.38542
▁sksw쎯ma쎯	-9.38561
▁yny0쎯f쎯u쎯	-9.38571
▁adwr0쎯	-9.38583
dh쎯	-9.38589
▁hxx쎯	-9.38598
qgj쎯	-9.38615
▁hw쎯wsg0쎯	-9.38832
▁vk쎯wsk쎯	-9.38928
▁uk쎯ta쎯	-9.38935
▁dga쎯rmhj쎯	-9.3898
▁ugv쎯	-9.38982
▁g쎯tffu쎯uqd2쎯	-9.39128
▁cep쎯wy쎯	-9.39176
▁rfc쎯ce쎯	-9.39206
pfjm1쎯	-9.39235
▁dd쎯bfm쎯	-9.39236
▁vn쎯	-9.39265
bfw쎯	-9.39478
▁mw쎯uk쎯	-9.39495
sgh쎯	-9.39557
▁idr쎯gf쎯	-9.39633
pvs쎯	-9.39638
ldn쎯	-9.39694
hv쎯	-9.39712
mdf0쎯	-9.39731
▁rh쎯ya쎯	-9.39739
▁jy쎯	-9.39933
▁sss쎯ss쎯	-9.39968
▁amd쎯fghy1쎯	-9.40028
▁id쎯	-9.40055
dgkn0쎯	-9.40094
▁yk쎯xan쎯	-9.40125
▁tkgg1쎯ya쎯	-9.40153
▁g쎯av쎯	-9.40167
▁ip쎯fghg쎯	-9.4039
▁ywt쎯	-9.40466
▁eb쎯	-9.40477
▁쎁쎉쎉쎆	-9.4048
▁yygt쎯fnrt쎯	-9.40508
▁ui쎯	-9.40533
▁fwm쎯st쎯	-9.40572
bg쎯	-9.40573
gmd0쎯	-9.40674
▁xyna1쎯pgn쎯	-9.40718
▁rj쎯tak쎯	-9.40796
yps쎯	-9.40807
▁imj쎯yaa쎯	-9.40847
▁ip쎯ftj쎯	-9.40871
▁wyq쎯kkd쎯	-9.40944
▁lwj쎯	-9.40964
▁fo쎯	-9.40972
▁mw쎯lfhf쎯	-9.40978
▁ryl쎯ta쎯	-9.41097
▁zzbd9쎯zzbd9쎯	-9.41116
▁bgu쎯sghg1쎯	-9.41124
▁f쎯fhg1쎯	-9.41124
yad쎯	-9.41135
ib쎯	-9.41218
▁we쎯	-9.41268
▁쎀쎉	-9.41321
▁tgj쎯jg쎯	-9.4135
▁pnt쎯	-9.41352
▁mmm쎯sghg1쎯	-9.41387
▁fn쎯	-9.41431
▁temk0쎯	-9.41444
▁jy쎯cm쎯	-9.41449
▁ih쎯aq쎯	-9.41466
▁ad쎯dbm쎯h쎯	-9.4156
▁gkih0쎯wsg0쎯	-9.41664
uy쎯	-9.41696
▁xeg0쎯wgk쎯	-9.41829
▁epi쎯	-9.41887
▁ydn쎯wy쎯	-9.41943
▁fcp쎯apk쎯	-9.41956
▁yygt쎯rtol0쎯	-9.41958
▁igt쎯	-9.41959
▁bt쎯	-9.42011
▁ny쎯gj쎯	-9.42017
▁dga쎯pwv쎯wf쎯	-9.42018
stx쎯	-9.42057
▁ynt0쎯	-9.42167
▁tdp쎯jg쎯	-9.42184
▁rw쎯	-9.42302
xjm쎯	-9.42311
xt쎯	-9.42342
▁lfo쎯qc쎯	-9.42363
▁rmhj쎯pg쎯	-9.42421
▁tyg쎯	-9.42441
gkp쎯	-9.42451
wwx쎯	-9.42489
▁imj쎯jg쎯	-9.42572
yni1쎯	-9.42574
tkh쎯	-9.42584
▁yygy쎯anb0쎯	-9.42634
▁to쎯	-9.42642
▁fny0쎯uyh쎯	-9.42653
▁bde쎯udh쎯	-9.42657
▁xgu쎯	-9.4267
▁iv쎯f쎯	-9.42903
▁gik쎯	-9.43091
b	-9.43101
▁wf쎯yf쎯	-9.43111
▁tdkj0쎯ce쎯	-9.43133
eb쎯	-9.43173
▁wk쎯buj쎯	-9.43175
▁yf쎯tha쎯	-9.43253
▁ab쎯hhhh쎯	-9.43346
jgm쎯aib쎯dd쎯ip쎯	-9.4336
▁wgk쎯gj쎯	-9.43381
▁wnnp0쎯fiy쎯	-9.43444
▁if쎯fwm쎯	-9.43446
▁bj쎯	-9.43496
▁yfj0쎯	-9.43512
▁utem1쎯qc쎯	-9.43528
qr쎯	-9.43639
▁be쎯	-9.43684
▁tu쎯ta쎯	-9.43684
▁hid쎯yx쎯	-9.43701
▁nge쎯	-9.43727
▁ue쎯tmd쎯	-9.43771
▁tr쎯gj쎯	-9.43771
▁wye쎯	-9.43776
sss쎯	-9.43905
to쎯	-9.43924
▁tey0쎯pw쎯	-9.43964
ujj쎯	-9.44044
▁peg쎯	-9.44119
▁wuk쎯	-9.44122
yu쎯	-9.44149
▁ym쎯suq쎯	-9.44287
▁rp쎯rh쎯	-9.44316
▁dn쎯ta쎯	-9.44326
▁bu쎯txi쎯	-9.44343
▁iyc쎯tf쎯	-9.44361
▁fjfh1쎯	-9.44435
▁sm쎯fnrt쎯	-9.44574
▁nf쎯ipg쎯	-9.44588
ick쎯	-9.4464
▁dk쎯	-9.44753
▁lm쎯	-9.44776
me쎯	-9.44796
▁std쎯	-9.44855
▁wk쎯bwg쎯	-9.44892
sksw쎯	-9.44912
▁sw쎯sj쎯	-9.44952
▁us쎯	-9.4496
▁ugdu쎯gmy0쎯	-9.45013
▁v쎯dmh0쎯	-9.45074
pt쎯	-9.45077
anb0쎯	-9.45085
▁aft쎯wt쎯	-9.45135
▁pu쎯et쎯	-9.45166
itk쎯	-9.45265
▁nae0쎯fi쎯	-9.45295
▁dfy쎯lt쎯	-9.45353
▁qkq쎯xjm쎯	-9.45357
▁rtf쎯	-9.45383
▁fge쎯	-9.45442
▁usr쎯gajf0쎯	-9.45527
▁gah쎯ic쎯	-9.45642
▁kkk쎯	-9.45646
▁ufy쎯lfhf쎯	-9.45676
▁lwx쎯	-9.45691
▁uqwm1쎯u쎯	-9.45759
▁dgkn0쎯ivs쎯	-9.45793
ytyh쎯ymhj0쎯	-9.45902
▁x쎯maw쎯	-9.46
▁pl쎯gk쎯	-9.46006
▁dgtg0쎯img쎯	-9.4601
▁uda쎯	-9.46037
▁px쎯wu쎯	-9.46076
▁isk쎯ux쎯ith쎯	-9.46091
▁ide쎯	-9.46175
ndj쎯	-9.46188
▁wwf쎯	-9.46254
▁lud쎯	-9.46372
▁sfc쎯	-9.4639
▁pyj쎯x쎯	-9.4643
▁pu쎯lt쎯	-9.46454
▁alt쎯	-9.46459
▁ccc쎯qk쎯	-9.46584
▁mq쎯jy쎯	-9.46605
▁xwy0쎯ryn1쎯	-9.4667
▁dga쎯pwv쎯km쎯	-9.46673
▁hao쎯	-9.46677
wr쎯	-9.46679
ou쎯	-9.46708
▁쎀쎇	-9.4671
▁th쎯ta쎯	-9.46715
▁dwt쎯	-9.46716
▁bm쎯kkkk1쎯	-9.46716
ago쎯	-9.46825
▁ebn0쎯	-9.46832
▁dr쎯qk쎯	-9.4687
lkd쎯	-9.47116
▁dd쎯fny0쎯	-9.47183
▁쎁쎉쎈쎀	-9.47192
▁wyna0쎯	-9.47196
▁yjj1쎯	-9.47243
▁e쎯bv쎯	-9.47305
▁wvt쎯	-9.47331
▁쎃쎆	-9.47341
▁fv쎯	-9.474
m쎯	-9.47481
ait쎯	-9.4761
fge쎯	-9.47648
▁tfkp0쎯dn쎯	-9.47696
▁l쎯ffff1쎯	-9.47717
▁etj쎯	-9.47723
▁sh쎯cf쎯	-9.47782
thgc0쎯	-9.47864
▁dgj쎯	-9.47866
wksf쎯	-9.47963
▁eb쎯ufy쎯	-9.48064
lhnh쎯	-9.48127
▁wc쎯rtt0쎯	-9.48144
▁y쎯jghm1쎯	-9.48149
▁qim쎯	-9.48234
sve쎯	-9.48245
▁jo쎯hhu0쎯	-9.48289
▁wygg쎯	-9.48494
▁sfi쎯	-9.4863
▁ymf쎯gkih0쎯	-9.48683
gn쎯	-9.487
icf쎯	-9.48712
▁hka쎯ufk0쎯	-9.48841
▁wc쎯aw쎯	-9.48844
fcu1쎯	-9.48846
vo쎯	-9.4885
▁cd쎯ftg쎯	-9.48934
▁dhb쎯wyf0쎯	-9.48942
▁c쎯rg쎯	-9.48983
▁iie쎯xjm쎯ftj쎯	-9.48993
▁ujn쎯yq쎯	-9.49074
▁sw쎯cwg쎯	-9.49141
ow쎯	-9.49143
ye쎯	-9.49177
▁ge쎯ipg쎯	-9.49249
▁xgb쎯	-9.49286
▁mw쎯apg쎯dgh쎯	-9.4947
▁쎁쎉쎈쎁	-9.49664
▁rrk쎯ip쎯	-9.49718
mmq쎯	-9.49728
▁sym쎯ytyh쎯	-9.4973
rhk0쎯	-9.49769
▁do쎯	-9.49817
▁vck쎯xtu쎯	-9.4984
▁trf0쎯ntg쎯	-9.49868
▁emc쎯wwv쎯	-9.49877
kd쎯	-9.49938
▁gm쎯qje쎯	-9.49963
▁ovt쎯jg쎯	-9.50065
▁fny0쎯tjh쎯	-9.50081
▁ym쎯uqt쎯	-9.50162
▁pyg쎯	-9.502
▁ght쎯fl쎯	-9.50219
▁y쎯wtf쎯atd쎯jgm쎯	-9.50381
▁gq쎯	-9.50381
fjk쎯	-9.50412
xn쎯	-9.50434
▁nkuf쎯	-9.50441
▁txg쎯rh쎯	-9.50445
▁bgh쎯	-9.50575
▁dskf쎯	-9.50589
yj쎯	-9.5059
▁ud쎯	-9.50644
▁rrg1쎯rbcc쎯	-9.50674
lq쎯	-9.50711
▁dd쎯pfjm1쎯	-9.50879
▁yygy쎯pb쎯	-9.50916
▁uk쎯bw쎯	-9.50978
▁ijlc쎯gl쎯	-9.51074
▁ipg쎯bm쎯	-9.51092
▁g	-9.51094
▁eq쎯	-9.51124
▁yn쎯vi쎯	-9.51177
wfh0쎯	-9.51308
ggi쎯	-9.51324
▁xqc쎯	-9.51345
▁쎃쎁	-9.51355
vx쎯	-9.51451
▁thd쎯qd쎯sf쎯	-9.51529
▁vvv쎯ntg쎯	-9.51565
▁sq쎯dn쎯	-9.5158
▁sgi쎯	-9.5162
▁yv쎯	-9.51621
▁ymf쎯sj쎯	-9.51658
▁kr쎯	-9.5167
ftx쎯	-9.51678
▁dn쎯sg쎯	-9.51764
fje쎯	-9.51789
▁jfc쎯	-9.51832
▁dnv2쎯adw쎯	-9.51845
▁pei쎯wt쎯tr쎯	-9.51855
▁쎁쎉쎇쎈	-9.51873
▁tfkd쎯	-9.51894
▁god쎯st쎯	-9.51916
▁ntf쎯	-9.52232
pye쎯	-9.52275
▁쎁쎂쎀	-9.523
▁etn쎯	-9.52319
▁xxe쎯	-9.52361
vtkd0쎯	-9.52372
▁fhh쎯	-9.52411
▁bct쎯	-9.52422
▁usr쎯xfg0쎯	-9.52545
▁ipkh1쎯mqb쎯	-9.5255
▁uqwm1쎯sg쎯	-9.52593
▁svc쎯wynn3쎯	-9.5261
etg쎯	-9.52634
▁wycm1쎯tfq쎯	-9.5269
▁e	-9.52745
▁fi쎯aib쎯	-9.52756
yneg0쎯	-9.52872
▁gd쎯qd쎯	-9.52876
▁cqw쎯qbp쎯	-9.52877
▁쎂쎀쎁쎃	-9.52902
▁qkd쎯	-9.52923
▁bfm쎯	-9.52973
▁pym쎯	-9.52983
▁w쎯tg쎯	-9.52985
▁cd쎯	-9.53028
▁xo쎯xfn쎯	-9.53128
▁rr쎯	-9.53174
▁qgj쎯	-9.53185
▁klj쎯	-9.53209
▁ufy쎯tlf0쎯	-9.53215
▁쎁쎉쎇쎉	-9.53217
▁쎀쎈	-9.53257
▁ghc쎯gyb쎯	-9.53269
▁쎈eee0쎯	-9.5327
▁rb쎯tfkf0쎯	-9.5336
▁lkmi0쎯gae쎯	-9.53397
ymd쎯	-9.53428
hw쎯	-9.5349
ftjb쎯	-9.53527
▁stx쎯	-9.53625
▁jce쎯	-9.53633
▁yygy쎯ujj쎯	-9.53646
▁jghm1쎯	-9.53653
▁ymhj0쎯ght쎯ywf쎯	-9.53683
▁qtfj0쎯	-9.53769
▁nty0쎯yo쎯	-9.53776
▁wtf쎯ftbt쎯	-9.53883
▁wy쎯kgn쎯	-9.53917
▁ith쎯tv쎯	-9.53929
▁dqe쎯pg쎯	-9.54
jyie쎯	-9.54022
▁nt쎯	-9.5403
▁iawn0쎯	-9.5405
ffff1쎯	-9.54051
▁tfkp0쎯	-9.54065
rxj쎯	-9.54074
dy쎯	-9.54102
▁l쎯tl쎯bpf쎯	-9.54112
▁dn쎯ybv0쎯	-9.54116
pf쎯	-9.54134
▁vs쎯	-9.54169
▁wgkb0쎯qk쎯	-9.54367
▁wys쎯k쎯	-9.54439
▁yhk쎯	-9.5445
▁rnb쎯ijl쎯	-9.54482
▁wdn쎯ugdu쎯	-9.5449
▁lfhf쎯	-9.54497
▁쎃eee0쎯	-9.54758
▁ytd쎯	-9.54764
▁쎆쎀쎀	-9.54809
▁wqu쎯	-9.54826
▁wys쎯dn쎯	-9.54874
▁w쎯ovt쎯	-9.54994
▁udb쎯	-9.55033
▁fm쎯uk쎯	-9.55042
▁rt쎯sy쎯	-9.55079
▁ipk쎯suq쎯	-9.55179
vtk쎯	-9.55291
▁쎁쎉쎅쎈	-9.55295
▁jn쎯ytd쎯	-9.55329
▁dr쎯gj쎯	-9.55342
▁ym쎯usr쎯rfc쎯sy쎯	-9.55343
▁qc쎯ese쎯	-9.55358
▁dgj쎯tel쎯	-9.55386
▁fu쎯	-9.55412
▁f쎯wug0쎯	-9.5542
▁sghg1쎯pv쎯	-9.55442
ts쎯	-9.5553
▁ruv쎯epc쎯	-9.55556
▁fl쎯ymf쎯	-9.55581
▁xyc쎯yf쎯	-9.55618
▁tn쎯nnh쎯ta쎯	-9.55744
▁gx쎯bu쎯mqq쎯	-9.55932
▁a쎯um쎯	-9.55955
▁ytf쎯	-9.55956
▁ai쎯fm쎯	-9.56159
bk쎯	-9.56163
▁ai쎯yy쎯	-9.56168
▁ju쎯	-9.56243
▁mf쎯tl쎯	-9.56264
▁pfj쎯	-9.5632
▁v	-9.56357
sb쎯	-9.56529
▁wdn쎯	-9.56542
▁yfj0쎯syp쎯	-9.56612
fghy2쎯	-9.56695
▁wyq쎯	-9.56773
▁qnth쎯	-9.56818
▁h	-9.56824
▁dn쎯ftjb쎯	-9.569
jlc쎯	-9.56945
▁gk쎯wrh1쎯	-9.5695
ttg0쎯	-9.57046
▁hi쎯	-9.57052
▁ujn쎯dd쎯tjh쎯	-9.57067
▁ugdu쎯pww쎯	-9.57072
xk쎯	-9.57083
▁rgw쎯	-9.57113
mp쎯	-9.57154
▁gj쎯shn쎯	-9.57232
▁n쎯l쎯	-9.57246
▁itf쎯	-9.57267
▁tgjn2쎯	-9.57296
tmo쎯	-9.57318
▁eyb쎯	-9.57336
ygh쎯	-9.57472
▁xeg0쎯vfhp1쎯	-9.57481
▁bwf쎯rp쎯	-9.57704
▁tie쎯	-9.5771
▁kj쎯qd쎯	-9.57729
▁im쎯	-9.57799
▁gmi쎯	-9.57838
yne쎯	-9.57842
▁gxi쎯	-9.57873
tfk0쎯	-9.57909
gr쎯	-9.57917
▁iqn쎯	-9.57917
yjjh0쎯	-9.57922
▁qdm쎯yneg0쎯	-9.57922
▁pfqf쎯pl쎯	-9.57943
▁cf쎯qje쎯	-9.57978
▁xh쎯fj쎯	-9.57983
▁xwy0쎯wht쎯	-9.58045
▁uqwm1쎯st쎯	-9.58079
ha쎯	-9.58149
▁yud1쎯xl쎯	-9.58165
▁mfk쎯lp쎯	-9.58186
▁wc쎯fqb0쎯	-9.58195
▁v쎯rpl쎯	-9.58219
▁tux쎯	-9.58265
▁sghg1쎯uk쎯	-9.58322
▁ukn쎯x쎯gj쎯	-9.58385
▁toln1쎯	-9.58416
▁qyng0쎯	-9.58435
▁t쎯yxxr1쎯	-9.58483
▁flf1쎯	-9.58546
▁qsu쎯	-9.58555
▁ait쎯	-9.58556
▁ywe쎯on쎯	-9.58566
▁sgc쎯	-9.58594
▁ipw쎯ty쎯	-9.5866
wyc쎯	-9.58692
▁yaa쎯	-9.58702
iytb0쎯	-9.58756
▁lfof3쎯	-9.58783
oo쎯	-9.58795
▁xwy0쎯	-9.58875
yqa쎯	-9.58889
▁atd쎯ax쎯	-9.58943
▁rmc쎯ty쎯	-9.58956
▁aft쎯	-9.59024
▁xuj쎯	-9.5911
▁nd쎯wygg쎯	-9.59118
▁aig쎯	-9.5923
▁ee쎯dc쎯	-9.59239
▁pw쎯rnb쎯	-9.5924
▁vb쎯ygu쎯	-9.59329
▁쎈쎀쎀	-9.59373
▁쎀쎃	-9.59441
▁wnh쎯	-9.59463
▁ip쎯qk쎯	-9.59488
sk쎯	-9.59504
dl쎯	-9.59509
▁nfp쎯gkip0쎯	-9.59519
▁nhy쎯	-9.59575
▁euk쎯	-9.59597
▁nua쎯	-9.59602
▁adf쎯	-9.59622
▁yjs쎯	-9.59664
bc쎯	-9.59681
▁pt쎯yny0쎯	-9.59756
▁ec쎯	-9.5979
yo쎯	-9.59817
▁fpm쎯	-9.59828
iu쎯	-9.60094
pym쎯	-9.60151
▁gjq쎯lk쎯	-9.60203
▁wycb쎯	-9.60206
qn쎯	-9.60214
▁pg쎯wug0쎯	-9.60223
▁wyo쎯	-9.60226
▁efcb쎯	-9.60256
▁ipkr쎯rng2쎯	-9.60276
▁ul쎯wtf쎯	-9.60301
dmj1쎯	-9.60341
fyv쎯	-9.60357
▁fny0쎯et쎯	-9.60362
▁st쎯aa쎯	-9.60367
▁wgi쎯	-9.60378
▁apk쎯	-9.60379
▁xln0쎯qt쎯lfq쎯	-9.60389
▁tffu쎯tffu쎯	-9.60447
▁vck쎯vfhp1쎯	-9.60521
▁rmc쎯	-9.60532
aps쎯	-9.60654
▁yssd0쎯	-9.60731
▁tmd쎯wsg0쎯	-9.60744
▁쎃쎄	-9.60913
▁fge쎯tr쎯qnp쎯	-9.60995
▁kkhn쎯ftj쎯	-9.61018
▁aqrn1쎯	-9.61024
▁hc쎯efw쎯	-9.61055
▁ymhj0쎯aq쎯	-9.61126
▁fgh쎯fg쎯	-9.61129
▁imkf1쎯	-9.61132
mfk쎯	-9.61161
jfc쎯	-9.61178
▁쎁eee0쎯	-9.61181
▁쎆eee0쎯	-9.6121
▁wv쎯uyt1쎯yx쎯	-9.61254
▁itd쎯	-9.61264
▁ux쎯uk쎯	-9.61301
▁tfp쎯	-9.61312
▁h쎯ymhj0쎯	-9.61322
▁ti쎯	-9.61356
▁cbd쎯	-9.61378
▁uep쎯	-9.61452
dgv쎯	-9.6149
▁ia쎯sghg1쎯ith쎯	-9.61532
▁ese쎯	-9.61602
▁ghd1쎯ipkh1쎯	-9.61667
tdkj0쎯	-9.61817
▁qe쎯qc쎯	-9.61853
▁xk쎯dd쎯	-9.61889
▁ajd0쎯	-9.61915
▁bwj쎯wdm쎯	-9.61967
▁wqj쎯gxi쎯	-9.6197
▁nh쎯vi쎯	-9.61994
gny쎯	-9.62018
▁fcp쎯	-9.62031
ntk쎯	-9.6204
tkgg1쎯	-9.62107
iv쎯	-9.62186
▁쎃쎈	-9.62254
▁rc쎯jmd쎯	-9.62286
▁os쎯	-9.62305
▁iwf쎯tf쎯	-9.6236
uth쎯	-9.62392
▁쎁쎀eee0쎯	-9.62421
▁tdp쎯yid쎯	-9.62445
fv쎯	-9.62474
▁쎇쎅	-9.62487
rta쎯	-9.62548
dga쎯pwv쎯rn쎯	-9.62566
▁ipkh1쎯et쎯	-9.62594
▁tvr쎯	-9.62595
▁w쎯wsg0쎯	-9.62652
▁rn쎯ntk쎯	-9.62674
▁bgk쎯	-9.62679
▁tffu쎯xe쎯	-9.62732
gq쎯	-9.6274
▁fjh0쎯tr쎯	-9.628
pei쎯	-9.62802
▁」	-9.62878
▁zzzy21쎯	-9.62934
▁oge쎯kkk쎯	-9.62952
▁w쎯fghg쎯	-9.62953
▁vtg쎯	-9.62971
▁rwyg0쎯	-9.63005
fh쎯	-9.63027
▁hq쎯qnq쎯	-9.63115
▁eyni쎯	-9.63122
▁mhg쎯	-9.63188
▁jjjj0쎯adwe1쎯	-9.63228
ip쎯wf쎯	-9.63279
wm쎯	-9.63303
▁lw쎯gj쎯	-9.63398
▁al쎯yx쎯	-9.63629
▁ylk0쎯	-9.63697
▁tk쎯adm쎯	-9.63715
▁yf쎯	-9.63729
▁mhkg2쎯	-9.6384
▁pujn0쎯qc쎯	-9.63879
a쎯tkgg1쎯	-9.63957
▁al쎯	-9.63965
▁kl쎯qh쎯	-9.63995
▁ijo쎯	-9.64083
▁xn쎯wynn3쎯	-9.64237
▁sgh쎯	-9.64238
▁jtyq1쎯pg쎯	-9.64277
▁fj쎯g쎯hi쎯	-9.64315
▁wbj쎯og쎯	-9.64386
▁ihi쎯ey쎯	-9.64437
▁「	-9.6444
▁ltu0쎯thg1쎯	-9.64493
▁wk쎯wvf0쎯	-9.64531
▁qje쎯	-9.6456
▁pu쎯tf쎯	-9.64582
so쎯	-9.64598
▁sfg쎯	-9.6468
ge쎯	-9.64694
uqwm1쎯	-9.64694
qev쎯	-9.64701
kfi쎯	-9.64733
jhny쎯	-9.64789
btg쎯	-9.64831
▁rwyg0쎯fcl쎯	-9.64842
▁uwy0쎯	-9.64867
▁gog쎯iyt1쎯	-9.64868
▁ek쎯uqyl쎯	-9.64914
▁pwat0쎯	-9.64919
▁ugh쎯	-9.64963
myd0쎯	-9.64969
▁ukn쎯uk쎯	-9.65017
uduk0쎯	-9.65128
▁wbj쎯uu쎯	-9.65167
tfn쎯	-9.6517
▁ghd1쎯d쎯	-9.65192
▁adwn4쎯gcf쎯	-9.65206
▁f쎯fdf1쎯	-9.65247
▁쎁쎁eee0쎯	-9.65265
▁sgmj쎯	-9.65283
▁kj쎯	-9.65322
▁thd쎯tmd쎯	-9.65323
▁geq쎯	-9.65394
▁dyt쎯	-9.65481
▁ud쎯iy쎯	-9.65548
ytd쎯	-9.65605
▁fhw쎯ghd1쎯	-9.65629
tt쎯	-9.65675
▁rlg0쎯	-9.65832
▁ajdf쎯	-9.65842
▁pfq쎯gkih0쎯	-9.65889
▁ax쎯tr쎯	-9.6593
▁쎉eee0쎯	-9.65944
▁yff쎯w쎯	-9.66048
iqc쎯	-9.66068
qgb쎯	-9.6608
▁ep쎯nge쎯	-9.6614
▁tffh1쎯	-9.66143
▁sksw쎯rt쎯	-9.66171
▁o	-9.66303
▁쎁쎉쎄쎉	-9.66393
pww쎯	-9.66499
▁uuk1쎯yfn쎯	-9.66531
▁av쎯dn쎯	-9.66549
▁ftbt쎯yce쎯uk쎯	-9.66575
▁ps쎯	-9.66608
▁txg쎯wh쎯	-9.66612
▁sty0쎯	-9.66722
ng쎯	-9.66737
▁khgp0쎯fhg1쎯	-9.66832
▁dcw쎯djb쎯	-9.66886
▁thd쎯fcl쎯wx쎯	-9.66894
▁쎀쎅	-9.66945
▁kfa쎯	-9.67108
▁e쎯sm쎯	-9.67164
▁jn쎯pym쎯ck쎯	-9.67179
▁bk쎯tq쎯	-9.67183
▁wys쎯wsg0쎯	-9.67189
▁fas쎯fuk쎯	-9.67202
▁imk쎯	-9.67206
yygt쎯	-9.67251
mww쎯	-9.67264
▁qkhh1쎯	-9.67265
sy쎯	-9.67266
▁xa쎯qc쎯	-9.67301
▁ubtf0쎯ou쎯	-9.67359
nfc쎯	-9.67394
▁ga쎯yt쎯	-9.67394
▁udj쎯	-9.67434
▁fcl쎯gl쎯	-9.67449
▁쎀쎆	-9.67858
▁<	-9.67871
▁lm쎯bd쎯	-9.67973
wyq쎯	-9.68031
▁maw쎯gajf0쎯	-9.68077
▁dm쎯tm쎯	-9.68177
▁gqje0쎯	-9.68182
▁wdn쎯fha쎯	-9.68289
▁khd쎯	-9.68304
▁f쎯gh쎯	-9.68376
▁qf쎯cf쎯	-9.68407
▁jyie쎯pym쎯	-9.68421
▁bgu쎯sghg1쎯ith쎯	-9.68494
wht쎯	-9.68494
ym쎯gkip0쎯wc쎯kht쎯	-9.68495
▁wv쎯bb쎯	-9.68545
yta쎯	-9.68568
▁rmhj쎯kkk쎯	-9.68583
▁lks쎯	-9.68657
yvcb0쎯	-9.68693
rgf쎯	-9.68727
▁ssq쎯	-9.68733
▁...	-9.68749
▁ujf0쎯hid쎯	-9.68795
▁io쎯	-9.68976
▁wynk쎯jg쎯	-9.68978
▁ym쎯tffu쎯	-9.68992
▁and쎯	-9.69068
▁kjj쎯	-9.69069
pe쎯	-9.69256
▁adwe1쎯fjh0쎯	-9.69273
▁ime쎯	-9.69303
▁fk쎯	-9.6931
▁ltk쎯	-9.69396
▁trs쎯trtg쎯	-9.69456
▁tfkp0쎯gajf0쎯	-9.6949
▁rgf쎯	-9.69502
wxf쎯w쎯n쎯aw쎯t쎯l쎯	-9.69511
▁epi쎯il쎯	-9.69563
▁dmu1쎯	-9.69658
▁qgb쎯nmh쎯	-9.69707
▁wygg쎯pta쎯	-9.6971
dm쎯tkw쎯	-9.69712
tfqp쎯	-9.69714
▁fqu쎯qu쎯	-9.6981
▁sqt쎯	-9.69867
yww쎯	-9.69881
▁bt쎯wqa쎯	-9.69897
▁dr쎯ld쎯	-9.69953
▁sgn쎯lfhf쎯	-9.69986
▁ymf쎯ab쎯	-9.70005
▁dh쎯	-9.70062
▁quj쎯	-9.70083
▁pt쎯	-9.70161
g1쎯	-9.70179
▁tffy0쎯	-9.70265
▁쎃쎃	-9.70364
▁k쎯uj쎯	-9.70426
▁fghy2쎯	-9.70436
▁rm쎯	-9.70473
▁wdn쎯yv쎯	-9.70521
aws쎯	-9.70526
▁x쎯ipkh1쎯	-9.70531
qmq쎯	-9.70542
▁쎁쎉쎅쎆	-9.70553
▁bwf쎯	-9.70711
▁thgf1쎯	-9.70719
▁ty쎯tfqp쎯	-9.70734
gqx쎯	-9.70759
▁pgj쎯	-9.70821
▁imgk쎯	-9.70859
▁mfk쎯lfnh쎯	-9.70863
fhw쎯	-9.70906
▁iie쎯	-9.70939
▁nty0쎯uduk0쎯	-9.70941
▁x쎯dl쎯	-9.71002
fpx쎯	-9.71029
atd쎯	-9.71049
▁ftg쎯	-9.71073
pgk쎯	-9.71104
▁ygh쎯	-9.71115
pyu쎯	-9.71164
▁쎄eee0쎯	-9.71178
▁gkih0쎯wgk쎯	-9.71209
▁xfm쎯tavn쎯	-9.71219
쎀쎀	-9.71227
쎁쎅	-9.71228
xq쎯	-9.71265
▁ndo쎯tjt쎯	-9.71285
▁pl쎯aq쎯	-9.71359
▁uce쎯	-9.71363
▁fh쎯tca쎯	-9.71381
ba쎯	-9.71433
▁iaw쎯	-9.71469
▁l쎯qh쎯	-9.71538
ymf쎯	-9.71623
▁ldd0쎯pg쎯	-9.71668
▁pynn0쎯	-9.71688
▁uxe쎯jy쎯	-9.71695
▁쎅eee0쎯	-9.717
▁rpws쎯fpx쎯	-9.71708
▁xww쎯	-9.71788
▁쎁쎉쎆쎃	-9.71858
▁ga쎯v쎯aq쎯	-9.7187
▁wwk쎯	-9.71921
wgkb0쎯	-9.71954
▁ftx쎯jgm쎯	-9.71977
▁rh쎯uj쎯	-9.72024
mc쎯	-9.72045
▁cbd쎯by쎯	-9.72058
▁wgk쎯ua쎯	-9.72073
yngk1쎯	-9.72106
fkuk2쎯	-9.72168
▁aqu0쎯	-9.72238
▁ef쎯	-9.72384
▁yss쎯	-9.72405
▁itx쎯iu쎯	-9.72431
▁by쎯ick쎯	-9.72432
tuk쎯	-9.72447
fhc쎯	-9.72502
▁쎁쎉쎉쎆rh쎯	-9.72538
pnt쎯	-9.72555
▁lfq쎯ss쎯	-9.72577
▁ukd1쎯	-9.72583
▁ce쎯idr쎯	-9.72594
▁kthh1쎯	-9.72601
▁ieb쎯	-9.72647
▁wqu쎯us쎯	-9.72654
▁nny1쎯	-9.72673
▁jq쎯	-9.7268
▁쎉쎈	-9.72693
▁yc쎯iagw쎯	-9.72738
▁ke쎯nh쎯	-9.72742
▁wdt쎯bm쎯	-9.72747
gm쎯	-9.72788
▁alw쎯ytyh쎯	-9.7291
▁wg쎯usr쎯	-9.7296
▁wfny0쎯lwg쎯	-9.73002
▁wm쎯	-9.73016
▁qkm쎯	-9.7311
▁fge쎯fghg쎯tg쎯	-9.73187
▁ga쎯rd쎯	-9.73251
쎂쎀	-9.73286
▁gef쎯qynm1쎯	-9.73307
▁fm쎯ux쎯	-9.73353
(	-9.73439
▁twf쎯wgk쎯	-9.7344
al쎯	-9.73482
▁cbj쎯	-9.7349
▁hwb쎯	-9.73511
▁afd1쎯	-9.73534
▁wsg0쎯gm쎯	-9.73584
▁udg2쎯it쎯	-9.73591
▁tgv쎯bd쎯	-9.73596
▁uqv쎯	-9.7361
▁fku쎯	-9.73613
▁qgb쎯ya쎯	-9.73654
▁rlg0쎯khev0쎯	-9.7367
▁cep쎯ynf쎯	-9.73677
tu쎯rfc쎯	-9.73697
fmk쎯	-9.73727
▁rtol0쎯yt쎯	-9.73795
▁fcl쎯dyn쎯	-9.73815
▁guw쎯	-9.73939
▁rwyg0쎯fj쎯	-9.73977
wrh1쎯	-9.74
▁sh쎯m쎯	-9.74013
▁iie쎯xjm쎯	-9.74036
▁gcft0쎯lt쎯	-9.74088
▁vep쎯	-9.74106
▁fnrt쎯rn쎯	-9.74156
▁og쎯	-9.74159
▁lxx쎯wycb쎯	-9.74219
▁ijx쎯	-9.74236
▁gjq쎯qk쎯	-9.74302
▁ipw쎯epc쎯	-9.74344
▁iy쎯tgj쎯	-9.74381
▁vvv쎯bb쎯	-9.74418
▁tgj쎯yd쎯ymhj0쎯	-9.74453
▁aqq쎯	-9.74453
▁ldd0쎯	-9.74461
ipkh1쎯	-9.74475
▁fq쎯if쎯	-9.74494
▁쎄쎈	-9.7455
ntf쎯	-9.74579
▁lft쎯wsg0쎯	-9.74586
▁stt쎯ugl쎯	-9.74665
▁ght쎯	-9.74736
pfjs쎯	-9.74862
▁pfq쎯ugdu쎯	-9.74878
▁iy쎯ujn쎯	-9.74897
▁fjk쎯	-9.74913
fjh0쎯	-9.75027
yvh쎯	-9.75035
sfi쎯	-9.75036
pynn0쎯	-9.75143
▁gajf0쎯kgn쎯	-9.75161
▁fq쎯xg쎯	-9.75312
▁xyna1쎯rmhj쎯	-9.75335
▁ol쎯	-9.7534
▁lw쎯gk쎯th쎯	-9.75365
▁mmm쎯sghg1쎯ith쎯	-9.75418
▁bp쎯ps쎯ith쎯	-9.75424
▁kd쎯	-9.75427
▁ye쎯	-9.7543
▁jn쎯bb쎯um쎯tl쎯	-9.75441
▁wwv쎯	-9.75442
▁mqq쎯hhu0쎯	-9.75452
▁adwn4쎯	-9.75488
▁rf쎯xfn쎯	-9.75562
os쎯	-9.75576
▁rt쎯wdm쎯	-9.75578
▁jo쎯aft쎯	-9.75604
▁fu쎯xk쎯	-9.75658
▁th쎯gf쎯	-9.75661
▁fwm쎯	-9.75677
▁qev쎯yt쎯pl쎯	-9.75705
▁mqc쎯tr쎯	-9.75741
▁ynky6쎯tj쎯	-9.75769
▁ul쎯x쎯	-9.75779
▁vck쎯	-9.75889
▁hw쎯tlf0쎯	-9.75908
▁쎁쎉쎆쎄	-9.75911
▁tjt쎯vs쎯	-9.75958
▁toln1쎯ycf쎯	-9.75959
▁wfkb0쎯tdp쎯	-9.7597
▁gd쎯gh쎯	-9.76018
umd1쎯	-9.76023
▁쎆쎄	-9.76104
▁ltu0쎯nnh쎯qnp쎯	-9.76328
▁it쎯ytf쎯	-9.76427
ipk쎯	-9.76429
▁ycf쎯	-9.76435
▁jn쎯dfy쎯	-9.76466
▁쎀쎄	-9.76509
▁ahty0쎯	-9.76738
▁khgm3쎯ytyh쎯	-9.76779
jcm쎯	-9.76847
▁tp쎯gj쎯nnk쎯	-9.76849
▁쎅쎅	-9.76864
▁xk쎯ya쎯	-9.76945
▁anh쎯ae쎯	-9.77075
ahn쎯	-9.7708
▁wny1쎯	-9.77086
▁x쎯gj쎯	-9.7709
▁ytyh쎯	-9.77093
▁pgc쎯mw쎯	-9.77152
▁ygh쎯nnh쎯	-9.77167
▁qev쎯toc쎯	-9.77168
fl쎯	-9.77176
▁ln쎯	-9.77234
dtf쎯	-9.77267
uqt쎯	-9.77335
▁pei쎯yne쎯	-9.77341
djd쎯	-9.77359
▁m쎯fn쎯	-9.77424
▁y쎯wsg0쎯	-9.77428
fc쎯	-9.77435
▁k쎯uk쎯	-9.77453
alw쎯	-9.77467
▁jy쎯aq쎯	-9.77484
▁tdt쎯	-9.77539
▁td쎯uthp0쎯	-9.77673
sgi쎯	-9.77675
▁qh쎯gae쎯	-9.77686
▁qq쎯vaf쎯wsg0쎯	-9.77703
▁ngk쎯	-9.77799
▁ke쎯	-9.77835
▁wtuf1쎯	-9.77882
▁mm쎯	-9.77908
▁tk쎯wh쎯	-9.77917
▁swb쎯	-9.7793
▁yssc0쎯	-9.77974
▁ˋ	-9.77979
▁fmy0쎯	-9.7802
▁y쎯tp쎯	-9.78032
▁pf쎯	-9.78037
ywt쎯	-9.78066
cqy쎯	-9.78115
▁bqr쎯	-9.78188
▁쎀쎂	-9.78207
▁yfd쎯	-9.78259
uqw쎯	-9.78315
▁wnnp0쎯	-9.78373
▁atd쎯	-9.78406
▁wyp쎯	-9.78418
▁at쎯fmk쎯	-9.78418
gkip0쎯	-9.78421
“	-9.78471
▁rffg0쎯	-9.78485
▁xtf쎯xwy0쎯	-9.78558
▁ipk쎯fc쎯uk쎯	-9.78621
ytfp0쎯	-9.78657
▁tdaf0쎯	-9.7866
▁yvi쎯	-9.78675
▁sai쎯	-9.78695
▁dcw쎯	-9.78717
▁es쎯	-9.78732
▁pww쎯jqr쎯	-9.78736
▁dd쎯jgm쎯	-9.78782
▁mqj쎯	-9.78822
▁gj쎯	-9.78833
▁rq쎯	-9.78883
▁bd쎯	-9.78916
▁uji2쎯	-9.78917
▁fhw쎯pu쎯	-9.78974
▁쎃쎇	-9.79021
by쎯	-9.79044
▁dhc쎯	-9.79055
▁dwiu쎯	-9.7909
dyt쎯	-9.79129
▁lw쎯if쎯	-9.7913
xyna1쎯	-9.79135
▁wsg0쎯cwg쎯	-9.79142
▁sm쎯rmhj쎯	-9.79143
▁uqt쎯yx쎯	-9.79309
gcf쎯	-9.79421
▁fku쎯ep쎯	-9.79441
▁wyv쎯et쎯	-9.79444
▁wgku1쎯	-9.7946
▁ai쎯uk쎯	-9.795
▁thd쎯y쎯	-9.79558
▁uwa쎯	-9.79609
alp쎯	-9.7962
▁udyj쎯gqf쎯	-9.79652
▁me쎯fggh쎯	-9.79659
▁dwf쎯	-9.79698
▁ca쎯	-9.79718
▁fwyc2쎯	-9.79765
▁ab쎯ce쎯	-9.7985
▁v쎯je쎯	-9.79866
▁w쎯yygy쎯	-9.79879
▁qlp쎯	-9.79922
▁wfny0쎯yu쎯	-9.7993
▁ujn쎯ln쎯	-9.79953
▁fcl쎯lt쎯	-9.8002
▁tuj0쎯	-9.80025
▁ryn1쎯	-9.80027
▁falw쎯	-9.80068
fuj쎯	-9.8008
▁yta쎯gh쎯	-9.80134
▁yn쎯fa쎯	-9.80162
▁apg쎯	-9.80175
▁www쎯	-9.80194
nui쎯	-9.80309
▁ey쎯jf쎯	-9.80343
▁saj0쎯	-9.80451
ese쎯	-9.80495
▁ytey0쎯	-9.80498
▁dn쎯wv쎯	-9.80625
▁쎁쎉쎆쎂	-9.80637
▁bp쎯ps쎯	-9.80725
▁xx쎯wgq쎯	-9.80758
nf쎯	-9.80786
▁yneg0쎯	-9.80807
▁qk쎯pb쎯	-9.80809
adnt1쎯	-9.80823
▁rny1쎯	-9.80839
▁wtl쎯	-9.80873
▁al쎯uqt쎯	-9.80896
▁ufy쎯wht쎯	-9.80953
▁gcft0쎯	-9.80977
▁ysi쎯	-9.8098
ftg쎯	-9.81039
▁kw쎯j쎯	-9.81045
▁wg쎯ith쎯	-9.81047
▁gny쎯	-9.8113
▁bqr쎯uqwn2쎯	-9.81174
▁qe쎯ya쎯	-9.81191
▁d쎯bk쎯	-9.81231
▁쎉쎅	-9.81237
▁god쎯tgj쎯	-9.8133
▁ijx쎯wgk쎯	-9.81355
▁wgk쎯dn쎯	-9.81372
▁tgj쎯usr쎯	-9.81403
▁lfnh쎯	-9.81428
▁cbts1쎯	-9.81472
▁egl쎯gj쎯	-9.81503
▁ukqb2쎯qv쎯	-9.81534
ub쎯	-9.81546
▁yu쎯je쎯	-9.81552
▁yfj0쎯jgm쎯	-9.81635
gku쎯	-9.81636
atd쎯bpf쎯	-9.81638
▁jh쎯adwe1쎯	-9.81719
▁ad쎯gf쎯	-9.81728
▁py쎯	-9.81729
▁gma쎯	-9.8173
▁awx쎯lfq쎯	-9.81733
pfjf1쎯	-9.81761
▁mf쎯ght쎯	-9.81767
▁x쎯iyj쎯ip쎯	-9.81786
gb쎯	-9.81789
qy쎯	-9.81791
▁qvfp1쎯	-9.81871
▁ntg쎯rfm쎯	-9.81911
▁nudu쎯	-9.81956
dnnl쎯	-9.82055
▁aqt쎯uqd2쎯	-9.82098
▁dg쎯fgh쎯	-9.8217
ux쎯yiu0쎯	-9.82187
▁wgk쎯m쎯	-9.82191
▁쎄쎂	-9.82199
▁tuj0쎯wj쎯	-9.82231
▁tuu0쎯	-9.82236
2쎯	-9.82336
iaw쎯	-9.82343
▁qh쎯cm쎯	-9.82348
▁bq쎯	-9.82381
f0쎯	-9.82387
udy쎯	-9.8242
▁nf쎯gcft0쎯	-9.82448
▁egm쎯	-9.82674
▁xte쎯qfhw1쎯	-9.82688
▁bt쎯ii쎯jg쎯	-9.82702
▁wwkw0쎯	-9.82703
wvt쎯	-9.82708
▁bpf쎯suq쎯	-9.8272
rvyl0쎯	-9.82725
▁dd쎯uthp0쎯	-9.82731
▁qyt쎯	-9.82732
▁ipgh0쎯ow쎯	-9.82747
gjh2쎯	-9.82775
▁쎁쎉쎆쎅	-9.8278
▁bk쎯ce쎯	-9.82794
▁yi쎯og쎯	-9.82852
▁fqb0쎯gxi쎯	-9.82884
▁sgn쎯wgk쎯	-9.82887
xf쎯	-9.82902
▁wv쎯sgn쎯	-9.8293
▁ywx쎯ffc쎯	-9.82933
▁iwf쎯	-9.82977
utk쎯	-9.82998
ivw쎯	-9.83034
▁hx쎯qh쎯	-9.83122
▁xv쎯wx쎯	-9.83143
▁pp쎯k쎯	-9.83161
jvko0쎯	-9.83173
▁w쎯a쎯	-9.83207
▁tb쎯	-9.83272
▁god쎯	-9.83277
▁gu쎯oy쎯	-9.83278
▁bk쎯tl쎯	-9.83401
dfy쎯	-9.8343
▁ta쎯ia쎯	-9.83471
▁xte쎯sf쎯	-9.83486
▁ybb쎯	-9.83595
▁wffg쎯	-9.83598
▁amw쎯qc쎯	-9.83599
▁inx쎯	-9.83622
▁w쎯dd쎯	-9.83629
bm쎯thgc0쎯py쎯	-9.83631
▁ywyg1쎯	-9.83632
▁ytm쎯	-9.83636
▁dgv쎯	-9.83757
wxj쎯	-9.83799
▁zzzy22쎯	-9.83807
▁_	-9.83818
iyj쎯	-9.83838
▁rvk쎯	-9.83869
alt쎯	-9.83948
▁fj쎯kkkk1쎯	-9.83952
xgu쎯	-9.83974
▁qvn0쎯	-9.83984
lwx쎯	-9.84005
▁kfi쎯oge쎯	-9.84048
pr쎯	-9.84056
▁gogn0쎯	-9.84071
▁wfny0쎯vaf쎯	-9.84089
▁qt쎯	-9.8411
▁vfhp1쎯yyq쎯	-9.84234
▁ry쎯nae0쎯	-9.84276
▁gtu쎯	-9.84311
▁jsd쎯	-9.84324
dcw쎯	-9.84356
▁dl쎯	-9.84386
▁쎆쎅	-9.84389
▁dnv2쎯	-9.84411
▁pfi쎯ftbt쎯	-9.84415
▁gkip0쎯	-9.84448
▁lpdk1쎯aq쎯	-9.84467
▁nae0쎯jtyq0쎯	-9.84496
▁쎁쎉쎇쎆	-9.84569
▁ruv쎯qejy쎯	-9.84598
▁vtkd0쎯	-9.84622
▁wt쎯hka쎯	-9.84622
▁hka쎯fghg쎯	-9.84705
▁dmd쎯	-9.84732
▁rn쎯d쎯f쎯	-9.8475
yt쎯	-9.84838
▁rnb쎯whn쎯	-9.8492
▁tkh쎯od쎯	-9.85001
▁di쎯	-9.85027
▁pk쎯	-9.85045
pgf1쎯	-9.85066
▁wfh0쎯	-9.85079
▁uvo쎯wtf쎯	-9.85147
▁ld쎯gxi쎯	-9.85167
▁}	-9.85169
▁iagw쎯ujn쎯	-9.85175
▁ygh쎯udv쎯	-9.85204
▁iqc쎯	-9.85231
▁imj쎯	-9.8525
▁sc쎯	-9.85255
temk0쎯	-9.85304
▁yud1쎯	-9.85314
▁sh쎯iv쎯	-9.85319
▁rta쎯	-9.85353
▁쎂eee0쎯	-9.8545
av쎯	-9.85513
vn쎯	-9.8555
▁pfi쎯	-9.85552
▁ukn쎯w쎯kkkk1쎯	-9.85643
▁fgh쎯g쎯	-9.85646
▁py쎯wf쎯y쎯yq쎯	-9.85656
▁le쎯	-9.85667
▁ft쎯ce쎯	-9.8568
▁rn쎯ta쎯	-9.85721
▁ha쎯	-9.85835
▁ed쎯	-9.8587
cf쎯	-9.85882
▁bu쎯jel쎯	-9.85908
gs쎯	-9.86033
▁rnnw0쎯pgn쎯	-9.8604
▁yyn2쎯ukd1쎯	-9.86079
▁wynk쎯e쎯	-9.86102
ay쎯	-9.86134
▁fcl쎯wt쎯	-9.86178
▁myd0쎯	-9.86237
▁qq쎯adm쎯	-9.86253
▁gae쎯dyn쎯	-9.86324
tjt쎯	-9.86348
▁saj0쎯gajf0쎯	-9.8642
▁f쎯gfi쎯	-9.86469
▁mc쎯	-9.86477
rnr쎯	-9.86504
▁tgh쎯	-9.86535
▁wk쎯dhb쎯	-9.86582
▁qaj0쎯	-9.86594
▁쎃쎀쎀쎀	-9.86645
▁wycm1쎯	-9.86695
ijl쎯	-9.86727
▁mw쎯tu쎯	-9.86769
▁xeg0쎯ta쎯	-9.86791
▁쎁쎉쎇쎀	-9.86813
ptkm1쎯	-9.86906
▁rh쎯lc쎯	-9.86922
▁쎂쎅쎀	-9.86922
wfhg0쎯	-9.86969
▁vv쎯vvv쎯	-9.86979
▁abi쎯	-9.8698
▁{	-9.87009
mhny1쎯	-9.87014
▁rep쎯	-9.87014
▁dn쎯yi쎯	-9.87054
khgm3쎯	-9.87056
▁and쎯dd쎯	-9.87149
▁gxgu쎯	-9.87286
▁wye쎯rta쎯	-9.87405
▁thl쎯	-9.87526
▁upy쎯	-9.87647
▁rxj쎯rpl쎯	-9.87661
▁fu쎯ta쎯	-9.87747
yf쎯	-9.87773
sft쎯	-9.87809
▁wc쎯ga쎯	-9.87833
jat쎯	-9.87857
xqa쎯	-9.87857
▁rfc쎯sy쎯w쎯km쎯	-9.87865
▁rhf0쎯gc쎯	-9.87932
▁mhny1쎯	-9.87947
▁usg쎯	-9.87998
xxe쎯	-9.88002
▁gm쎯fnrt쎯	-9.88019
cff0쎯	-9.88061
▁jhny쎯	-9.88102
▁bm쎯th쎯	-9.88104
▁ry쎯dd쎯	-9.88124
▁khv쎯	-9.88206
▁ufk0쎯	-9.88221
▁syg쎯	-9.88286
igey0쎯	-9.88349
ypm쎯	-9.88372
▁raj쎯ytb쎯	-9.88439
▁ymhj0쎯xe쎯	-9.88441
mh쎯	-9.88465
tq쎯	-9.88469
▁uejo0쎯	-9.88515
▁fny0쎯aft쎯	-9.88528
▁ifh0쎯	-9.88543
▁uff쎯	-9.88587
▁ipg쎯kjj쎯	-9.88608
▁wv쎯wf쎯	-9.88654
▁yygy쎯fmud쎯	-9.88669
▁fl쎯egl쎯	-9.88694
iy쎯	-9.88716
g0쎯	-9.88855
▁atg쎯gk쎯ta쎯	-9.88887
▁thgc0쎯sg쎯	-9.889
▁tn쎯nnh쎯	-9.88919
▁amw쎯qqqq1쎯	-9.88922
▁dy쎯bj쎯	-9.88948
▁hcd쎯	-9.88952
oyvk1쎯	-9.88978
쎂쎅	-9.89002
uwl쎯	-9.89015
▁wgq쎯vk쎯	-9.89043
▁it쎯rh쎯	-9.89063
naw쎯	-9.89111
▁uwy0쎯tlf0쎯	-9.89134
▁oh쎯	-9.89236
▁lfq쎯aq쎯	-9.89251
▁o쎯uwy0쎯	-9.89264
ih쎯ip쎯	-9.89276
▁khgp0쎯	-9.8934
▁fl쎯yyq쎯	-9.89376
▁g쎯gcft0쎯	-9.89382
▁ng쎯	-9.89424
▁wdn쎯wx쎯	-9.89458
yiu0쎯	-9.8946
atd쎯ip쎯bpf쎯	-9.8951
xv쎯	-9.89592
▁pfqf쎯	-9.89616
dht쎯	-9.89733
▁apl쎯fcl쎯lt쎯	-9.89808
▁jb쎯vb쎯	-9.89822
▁sy쎯	-9.8983
aqb0쎯	-9.89866
▁ah쎯	-9.89914
yygy쎯ip쎯	-9.89947
▁yw쎯ykw쎯	-9.8996
dtb쎯	-9.89973
wffg쎯	-9.90067
tmg1쎯	-9.9007
▁tkw쎯	-9.90077
ufk0쎯	-9.90084
▁jyie쎯	-9.90107
yss쎯	-9.90124
▁a쎯dgt1쎯	-9.90163
khn쎯	-9.90181
▁y쎯qe쎯	-9.90262
▁fkuc3쎯	-9.90315
▁udg2쎯	-9.90377
▁쎁쎉쎇쎅	-9.90428
▁lft쎯xf쎯	-9.9062
iagw쎯	-9.90675
fl쎯wf쎯	-9.90678
▁wgj쎯rgv쎯	-9.90681
▁ndj쎯	-9.90686
▁쎁쎉쎅쎀	-9.90798
쎁쎄	-9.90803
▁wgc쎯ty쎯	-9.90846
▁etg쎯	-9.90855
sn쎯	-9.90859
▁puv쎯k쎯	-9.91082
go쎯	-9.91084
▁waw쎯yid쎯	-9.91133
▁ˊ	-9.91139
▁l쎯uthp0쎯	-9.91141
▁iwt쎯	-9.91149
▁rxj쎯sfi쎯	-9.91272
쎉쎉	-9.9133
▁saj0쎯rny1쎯	-9.91523
▁ovt쎯dcg쎯	-9.91545
▁pfjm1쎯	-9.91577
▁g쎯txi쎯gq쎯	-9.91588
▁쎁쎈쎀	-9.9159
▁qn쎯wynk쎯	-9.91663
ggw쎯	-9.91667
▁thp쎯	-9.91671
▁lk쎯wgkr1쎯dd쎯	-9.91716
▁esv쎯	-9.91751
▁aft쎯e쎯	-9.91848
klj쎯	-9.91848
쎁쎈	-9.91858
ey쎯	-9.91895
▁ii쎯tev쎯	-9.9194
▁jn쎯pym쎯ndj쎯	-9.91971
▁y쎯lw쎯	-9.91996
▁zz	-9.91999
▁dgkn0쎯ipmq쎯	-9.92052
▁wy쎯thn쎯wx쎯	-9.9206
▁fd쎯aq쎯	-9.92082
▁ipq쎯bj쎯	-9.92094
▁fgh쎯gg쎯	-9.92132
▁uwl쎯	-9.92134
▁lp쎯xxe쎯	-9.92138
▁uyiy0쎯	-9.92171
▁wye쎯rnd1쎯	-9.92218
▁nf쎯	-9.92225
▁fnud쎯	-9.92257
ca쎯	-9.92313
wgi쎯	-9.92316
▁iuc쎯	-9.92337
▁ipkr쎯	-9.92364
▁xyna1쎯kgn쎯	-9.92375
▁et쎯if쎯	-9.92383
▁fcn쎯	-9.92389
▁ge쎯dp쎯	-9.92431
vtkb0쎯	-9.92434
▁sfi쎯fn쎯	-9.92461
▁du쎯	-9.92496
▁waj0쎯	-9.92589
▁pg쎯yq쎯	-9.92589
▁thd쎯q쎯	-9.9259
----------------	-9.92646
▁mq쎯bwg쎯	-9.92681
▁ywf쎯	-9.92686
nkuf쎯	-9.92695
▁dga쎯pwv쎯bpf쎯	-9.92848
▁qkk쎯	-9.92863
▁qynm1쎯	-9.92916
x쎯iyj쎯	-9.9303
▁et쎯kkk쎯	-9.93041
wtl쎯	-9.93058
▁tkw쎯lx쎯	-9.93068
vvf1쎯	-9.9313
▁쎁쎉쎆쎀	-9.93139
▁xgb쎯nh쎯ty쎯	-9.93207
▁drt쎯	-9.93254
abu쎯	-9.93274
h쎯itx쎯	-9.93301
wfk쎯	-9.93327
▁yxu쎯	-9.93335
▁e쎯jf쎯	-9.93417
▁qm쎯	-9.93497
▁pw쎯ymf쎯	-9.93561
▁쎄쎃	-9.93621
▁fjt쎯btg쎯	-9.93639
▁wc쎯xd쎯	-9.93646
ip쎯suq쎯	-9.9367
▁yy쎯qf쎯	-9.93744
thn쎯	-9.93745
▁afd1쎯vij쎯	-9.9376
▁rdfh0쎯	-9.93865
▁fh쎯ntk쎯	-9.93927
▁w쎯n쎯tmh0쎯	-9.93957
▁tsh1쎯	-9.9396
▁uqf쎯pl쎯	-9.94002
▁nty0쎯tfkp0쎯	-9.94127
qdm쎯	-9.94131
ol쎯	-9.94168
▁if쎯ip쎯	-9.94225
쎂쎄	-9.94349
▁쎃쎉	-9.94353
▁tfk0쎯oy쎯	-9.9437
▁wbj쎯ujn쎯	-9.94385
▁ooo쎯lg쎯uh쎯	-9.94402
▁wtfm1쎯waj0쎯	-9.94435
▁dd쎯ip쎯tg쎯	-9.94447
▁쎁쎉쎆쎈	-9.94489
▁ffuk쎯	-9.94527
▁tj쎯qk쎯	-9.9456
▁aw쎯ybf0쎯	-9.94608
▁ipq쎯	-9.94662
▁et쎯wtp쎯	-9.94727
▁dd쎯lt쎯	-9.94808
▁my쎯	-9.9482
bi쎯	-9.94883
▁xwf쎯gl쎯	-9.94886
▁tg쎯dhb쎯	-9.94894
▁ga쎯ymc쎯	-9.94918
▁l쎯n쎯ipk쎯	-9.9493
▁sj쎯	-9.94945
▁ipe쎯	-9.95
▁tkh쎯bb쎯	-9.9501
▁dhc쎯fgi쎯	-9.95097
쎁쎆	-9.95118
▁jn쎯rnb쎯	-9.95148
▁ypeu쎯wxf쎯	-9.95258
▁ige쎯wa쎯	-9.953
cw쎯	-9.95343
▁fd쎯qfhw1쎯	-9.95397
▁쎄쎆	-9.95402
▁sh쎯gx쎯	-9.95482
▁fi쎯	-9.95496
▁gu쎯tqdh0쎯	-9.95567
jq쎯	-9.95619
▁rfc쎯agnn1쎯	-9.95695
▁sgn쎯wrh1쎯	-9.95728
▁ige쎯ii쎯	-9.95756
aup쎯	-9.95773
qyng0쎯	-9.95816
▁n쎯y쎯	-9.9585
khu쎯	-9.95921
sdm쎯	-9.95983
▁tmdf1쎯	-9.96021
maw쎯	-9.96053
ujfj0쎯	-9.96084
▁hh쎯	-9.96183
▁ca쎯ndj쎯	-9.9626
▁db쎯pt쎯	-9.96344
▁mmm쎯ii쎯	-9.96355
ffc쎯	-9.96379
▁gh쎯ymc쎯	-9.96447
▁thd쎯ick쎯aq쎯	-9.96448
▁cqy쎯nhj쎯	-9.96488
▁gj쎯qev쎯	-9.96512
sj쎯	-9.96623
▁쎁쎉쎅쎅	-9.9663
▁tf쎯fcl쎯	-9.96709
▁ugdu쎯wyv쎯	-9.96719
▁ub쎯	-9.96723
▁쎈쎅	-9.968
tx쎯	-9.96925
it쎯	-9.96978
▁pgn쎯wt쎯	-9.96979
▁wxj쎯ftbt쎯	-9.96993
▁gd쎯ivfh1쎯ymhj0쎯	-9.97035
▁rb쎯uthp0쎯	-9.97073
▁wgku1쎯yn쎯	-9.97093
dhb쎯	-9.97095
쎃쎄	-9.97106
▁rgf쎯up쎯	-9.97205
▁qev쎯yt쎯	-9.97266
y쎯yq쎯	-9.97307
▁rrg1쎯	-9.97341
▁ith쎯ymhj0쎯	-9.97367
▁ipm쎯	-9.97369
yvc쎯	-9.9737
▁qtdn1쎯	-9.97401
wdm쎯	-9.97498
▁rxj쎯pg쎯	-9.97502
cc쎯	-9.97555
▁aq쎯tv쎯	-9.97561
▁ftbt쎯pgc쎯	-9.97721
▁gf쎯j쎯	-9.97834
▁ttd쎯	-9.97861
▁fny0쎯tu쎯	-9.97906
▁bbh0쎯	-9.97947
▁rmhj쎯dn쎯	-9.97976
▁diu1쎯	-9.97989
▁a쎯w쎯	-9.98076
▁tgj쎯pym쎯	-9.98116
▁sghg1쎯gyt쎯ah쎯	-9.98121
▁gyg0쎯	-9.98281
ww쎯	-9.983
▁qten1쎯qmq쎯	-9.98375
▁vi쎯	-9.98418
▁gl쎯dm쎯	-9.98455
▁jvko0쎯	-9.98475
▁ds쎯	-9.98548
▁mqq쎯h쎯	-9.98575
▁tkgg1쎯	-9.986
▁gae쎯pww쎯	-9.98674
▁rwyg0쎯adh쎯	-9.98697
▁sh쎯yid쎯	-9.98755
▁쎁쎉쎅쎇	-9.98796
▁fqb0쎯rh쎯	-9.98871
ynt0쎯	-9.99031
▁wv쎯yb쎯	-9.99035
▁gr쎯	-9.99045
▁ddm쎯fghg쎯tg쎯	-9.99068
af쎯wgkb0쎯	-9.99087
▁쎄쎄	-9.99156
▁dd쎯wf쎯	-9.9923
▁xo쎯	-9.99275
ffi쎯	-9.99324
k쎯ny쎯	-9.99326
▁쎅쎆	-9.99378
▁iytb0쎯fmk쎯	-9.99414
▁gku쎯	-9.99424
▁wtr쎯	-9.9948
▁dgk쎯	-9.99488
▁tcy0쎯	-9.99496
▁xmw쎯	-9.99531
▁ltu0쎯wqj쎯	-9.99532
▁alf0쎯	-9.99534
▁vfhp1쎯gf쎯	-9.99547
▁wxm쎯	-9.99556
▁ulg쎯	-9.99559
▁쎉쎉	-9.99583
lks쎯	-9.99585
▁xln0쎯	-9.99587
▁ii쎯tjh쎯	-9.99806
▁ygu쎯wd쎯	-9.99892
rs쎯	-9.99893
lfn쎯	-9.99984
▁sghg1쎯adnt1쎯	-10.0005
tfq쎯	-10.0006
▁lfo쎯dx쎯ia쎯ith쎯	-10.0008
▁wt쎯bm쎯	-10.001
▁nnw쎯qi쎯	-10.0013
▁gkp쎯wycm1쎯	-10.0015
▁jyie쎯thg1쎯	-10.0017
▁fnr0쎯ujf0쎯	-10.003
▁쎁쎉쎅쎂	-10.0031
▁gmd0쎯	-10.0033
▁pnt쎯ya쎯	-10.0034
iugg0쎯	-10.0036
▁si쎯pvs쎯	-10.0037
▁wy쎯iwyf1쎯	-10.0037
▁tdkj0쎯dhd쎯	-10.0037
▁pj쎯yf쎯	-10.0039
▁xu쎯	-10.004
▁쎁쎉쎆쎉	-10.0047
gbnm1쎯	-10.0049
▁jc쎯	-10.0054
▁tca쎯	-10.0054
iqpl1쎯	-10.0066
▁gqg0쎯	-10.0066
▁ssn쎯	-10.0073
▁oyv쎯wyv쎯	-10.0075
▁trfh1쎯ggi쎯	-10.0078
쎀쎀쎀쎀쎈쎀쎁	-10.0081
▁jtyl쎯rpw쎯	-10.0084
▁thd쎯qd쎯tu쎯ip쎯	-10.0085
uxx쎯	-10.0086
▁yce쎯	-10.0089
▁pp쎯ue쎯	-10.0093
▁jghy0쎯	-10.0094
▁uwy0쎯dqe쎯	-10.0095
▁xm쎯	-10.0095
▁ipw쎯fkh쎯ymhj0쎯	-10.01
▁egc쎯ght쎯ywf쎯	-10.0101
▁kf쎯thg1쎯	-10.0106
▁ugk쎯shi쎯	-10.0111
▁gef쎯it쎯rh쎯	-10.0112
▁쎁쎉쎇쎂	-10.0113
▁oyn쎯	-10.0114
▁oa쎯	-10.0114
rgd0쎯	-10.0117
▁qv쎯	-10.0119
▁ukn쎯nh쎯ty쎯	-10.0122
▁dd쎯uk쎯wv쎯	-10.0124
ld쎯	-10.0125
▁lg쎯lgm쎯	-10.0127
▁tk쎯lwj쎯	-10.0128
쎃쎆	-10.0132
▁gm쎯pu쎯	-10.0137
lfo쎯	-10.0138
쎃쎅	-10.0138
▁lgk쎯tmdf1쎯	-10.014
▁ss쎯f쎯	-10.0142
yk쎯	-10.0147
▁yn쎯ftj쎯	-10.0147
▁jn쎯kkd쎯	-10.0148
▁′	-10.0151
▁f쎯dm쎯	-10.0155
▁g쎯uthp0쎯	-10.0166
▁ujn쎯mqb쎯	-10.0171
▁mt쎯tuh0쎯	-10.0172
eajd쎯	-10.0172
yfn쎯	-10.0175
▁〔	-10.0176
inr쎯	-10.0179
▁amd쎯dcw쎯	-10.0186
▁쎁쎆쎀	-10.0208
▁ftbt쎯bk쎯a쎯	-10.0208
▁d쎯xg쎯	-10.0208
▁khi쎯	-10.0213
▁dpq쎯	-10.0216
▁쎁쎉쎇쎇	-10.0218
wqj쎯	-10.022
▁od쎯wny1쎯	-10.0221
▁awf쎯	-10.0223
qje쎯	-10.0225
▁wdy1쎯	-10.023
쎈쎈	-10.0234
▁dmh0쎯nnk쎯	-10.0235
▁fj쎯wht쎯	-10.0236
▁whtn0쎯qy쎯	-10.0239
▁ud쎯qvfp1쎯	-10.0241
wgku1쎯	-10.0245
▁tp쎯lpdk1쎯	-10.0246
▁vfhp1쎯tfkp0쎯	-10.0247
▁sghg1쎯yy쎯	-10.0256
▁pfjf1쎯	-10.0257
▁ta쎯ya쎯	-10.0258
adwr0쎯trf0쎯	-10.0263
gcg쎯	-10.0267
▁awb쎯	-10.0268
▁gkm쎯wgk쎯	-10.0271
hx쎯	-10.0275
▁w쎯lt쎯	-10.0276
yb쎯	-10.0281
ugl쎯	-10.0282
▁wtf쎯bk쎯	-10.0283
▁ipg쎯	-10.029
▁k쎯tffu쎯	-10.0299
▁gah쎯kkd쎯	-10.0299
▁rymn쎯jjjj0쎯	-10.0302
▁g쎯gkp쎯	-10.0304
adw쎯	-10.0308
▁xg쎯kht쎯	-10.0309
▁ffff1쎯fyk쎯	-10.0309
▁쎁쎉쎇쎄	-10.031
▁hjj쎯fha쎯	-10.031
▁at쎯	-10.0311
▁wyk쎯rg쎯eb쎯tl쎯	-10.0329
▁쎁쎉쎅쎉	-10.0329
▁itx쎯pl쎯	-10.0335
▁trh0쎯	-10.034
peg쎯	-10.034
▁aib쎯	-10.0341
▁ycb쎯	-10.0344
▁jhk1쎯yge쎯	-10.0345
▁wfg0쎯	-10.0346
cd쎯	-10.0347
n0쎯	-10.0347
▁c	-10.0349
▁km쎯	-10.0351
ap쎯	-10.0353
▁쎁쎉쎆쎆	-10.0359
▁kh	-10.0368
▁wxm쎯tr쎯	-10.0368
tym쎯	-10.0383
▁nhj쎯rrr쎯	-10.0387
▁iak쎯	-10.0388
▁oo쎯	-10.0391
▁sk쎯tfkd쎯	-10.0397
oge쎯	-10.0399
▁nnw쎯rgv쎯	-10.04
▁nyiy0쎯	-10.0418
▁xgu쎯us쎯	-10.0424
lfhf쎯	-10.0428
▁rb쎯fjh0쎯	-10.043
▁itx쎯fm쎯	-10.0436
▁rpws쎯	-10.0437
udyj쎯	-10.0443
▁lk쎯rvyo쎯	-10.0444
▁pl쎯bw쎯	-10.0444
▁lgey2쎯egl쎯	-10.0444
▁fp쎯fcu1쎯	-10.0454
▁ruv쎯fyk쎯	-10.0463
▁fgh쎯dg쎯	-10.0466
▁쎁쎉쎅쎃	-10.0467
▁tx쎯lh쎯	-10.0468
▁rpw쎯	-10.0469
▁fwm쎯tvfh0쎯	-10.0474
▁egl쎯	-10.0477
▁cm쎯pwfi0쎯	-10.0479
▁iwyf1쎯o쎯	-10.0481
▁fny0쎯iy쎯	-10.0484
bs쎯	-10.0486
iwf쎯	-10.0487
▁bu쎯wgk쎯wf쎯	-10.0493
▁rlg0쎯ck쎯	-10.0496
▁gk쎯tl쎯	-10.0497
▁egc쎯ta쎯	-10.0497
▁sg쎯kkk쎯	-10.0509
jqr쎯	-10.0509
tlf0쎯	-10.0511
▁h쎯gh쎯	-10.0517
▁hid쎯	-10.0519
qkm쎯	-10.0532
▁apl쎯	-10.0537
▁qk쎯w쎯	-10.0538
gxgu쎯	-10.0544
rpw쎯	-10.0546
▁ese쎯qc쎯	-10.0549
qg쎯	-10.0553
▁y쎯ipg쎯	-10.0554
▁fkuk2쎯	-10.056
▁fggh쎯okk쎯	-10.0565
wxm쎯	-10.057
wfn쎯	-10.0572
▁xn쎯	-10.0575
▁rnb쎯wsg0쎯	-10.0579
ivfh1쎯	-10.0584
n1쎯	-10.0588
▁ym쎯tu쎯rfc쎯	-10.0588
▁iyj쎯fm쎯	-10.0589
쎁쎃	-10.0589
▁gu쎯dm쎯	-10.059
▁ftb쎯	-10.0592
▁um쎯sfi쎯	-10.0602
ifj쎯	-10.0603
▁e쎯hxf쎯	-10.0621
▁th쎯gj쎯kkd쎯	-10.0622
ssq쎯	-10.0627
▁tep쎯	-10.063
dga쎯pwv쎯	-10.0635
us쎯	-10.0635
▁v쎯tmdf1쎯	-10.0636
쎁쎂	-10.0643
▁gmww쎯wmj1쎯	-10.0646
▁l	-10.0649
isgg2쎯yhk쎯	-10.0651
▁yi쎯yfn쎯	-10.0653
▁yfn쎯nnh쎯	-10.0656
쎂쎆	-10.0665
▁ss쎯og쎯	-10.0667
▁ishg쎯	-10.0668
bnn2쎯	-10.0669
▁pr쎯qnp쎯	-10.0669
mmm쎯egc쎯	-10.0671
▁ynk쎯fcl쎯	-10.0677
▁쎁쎉쎅쎄	-10.0679
▁cf쎯qh쎯	-10.0681
▁yid쎯yynw1쎯	-10.0684
▁sg쎯udh쎯	-10.0684
▁fpx쎯	-10.0686
▁쎉쎆	-10.069
▁klj쎯qk쎯	-10.0692
▁gh쎯fa쎯	-10.0696
▁wv쎯tp쎯	-10.0697
uce쎯	-10.0699
▁tqq쎯	-10.0699
▁tk쎯xe쎯	-10.0707
yid쎯	-10.0712
▁tlf0쎯et쎯	-10.0712
▁od쎯klj쎯	-10.0715
dga쎯pwv쎯bpf쎯	-10.0718
▁쎁쎉쎃쎈	-10.0726
▁ux쎯yiu0쎯dd쎯ip쎯	-10.0726
bgh쎯	-10.0726
fwm쎯	-10.0728
▁afi쎯	-10.0731
▁lqy쎯	-10.0732
▁tr쎯og쎯	-10.0733
▁fj쎯tkgg1쎯	-10.0733
▁bj쎯iq쎯	-10.0734
▁itm쎯dd쎯tjh쎯gog쎯	-10.0738
▁fk쎯ss쎯ith쎯	-10.0739
▁usr쎯lk쎯fhc쎯	-10.0742
▁쎅쎂	-10.0746
▁ue쎯rg쎯	-10.0754
▁sff1쎯	-10.0756
▁op쎯	-10.0759
▁ih쎯gajf0쎯	-10.076
▁쎁쎉쎆쎁	-10.0761
▁jtyl쎯imj쎯	-10.0762
▁egcn쎯	-10.0767
▁nj쎯ntg쎯	-10.0769
tak쎯	-10.0771
▁ym쎯ijl쎯	-10.0771
fyn쎯	-10.0772
쎁쎇	-10.0773
▁un쎯tgm쎯	-10.0774
▁cccs3쎯	-10.0774
▁qge쎯	-10.0782
▁tg쎯u쎯xg쎯	-10.0788
쎂쎂	-10.0789
▁sc쎯dgv쎯	-10.0794
▁fq쎯ywx쎯	-10.0795
▁ax쎯kkk쎯	-10.0796
▁qm쎯gmu1쎯w쎯	-10.0796
▁ii쎯ylk0쎯	-10.0801
▁wgkb0쎯	-10.0808
▁qg	-10.0809
▁wyv쎯tr쎯	-10.0813
sff1쎯	-10.0813
xuj쎯	-10.0814
▁xtu쎯	-10.0816
▁yw쎯sk쎯	-10.0821
on쎯	-10.0823
tffu쎯	-10.0826
▁ghd1쎯dqe쎯	-10.0829
▁by쎯hh쎯	-10.083
▁ubt쎯	-10.083
▁l쎯e쎯	-10.0831
▁xf쎯gki쎯	-10.0835
qrm쎯	-10.0838
▁n쎯apk쎯	-10.084
▁uag1쎯	-10.084
▁gqx쎯ynv쎯	-10.0844
▁쎁쎉쎇쎃	-10.0844
quj쎯	-10.0849
▁lg쎯uh쎯	-10.0852
▁ngk쎯if쎯	-10.086
udbb쎯	-10.0861
▁wh쎯ntg쎯	-10.0861
▁qi쎯bw쎯	-10.0866
▁fuf0쎯pyg쎯	-10.0868
▁rhc쎯	-10.0868
fmy0쎯	-10.0889
▁oq쎯	-10.0895
▁쎁쎉쎄쎅	-10.0898
▁쎁쎁쎀	-10.09
kgd쎯	-10.09
▁쎉쎀쎀쎁	-10.0903
wygg쎯	-10.0906
▁gx쎯fcl쎯	-10.0907
▁uth쎯ftjb쎯	-10.0908
▁rqc쎯	-10.0909
▁〕	-10.0918
▁rrhy쎯	-10.0921
▁afd1쎯vij쎯ith쎯	-10.0925
▁jn쎯iyc쎯	-10.0932
▁ad쎯nfc쎯	-10.0932
▁uqsg쎯img쎯	-10.0933
▁fkhk쎯	-10.0934
▁ta쎯iit쎯	-10.0944
txgt쎯	-10.0949
▁wv쎯wc쎯ngk쎯	-10.0949
▁ia쎯fm쎯	-10.0955
hj쎯	-10.0961
▁sgn쎯tlf0쎯	-10.0966
▁dqe쎯wk쎯	-10.0974
▁qkq쎯	-10.0979
▁wg쎯nnh쎯	-10.0984
▁wqu쎯xgu쎯	-10.0984
yjs쎯	-10.0985
▁sq쎯tfkp0쎯	-10.0988
aet1쎯	-10.0992
▁og쎯xgm쎯	-10.0992
▁wc쎯pjm쎯	-10.0994
▁xjm쎯	-10.0996
▁uqwm1쎯ynf쎯	-10.0998
dty0쎯	-10.1008
▁sft쎯rfm쎯	-10.1014
tvfh0쎯	-10.1019
ah쎯	-10.102
▁nfc쎯uqw쎯	-10.1022
▁ftjb쎯ymhj0쎯	-10.1031
▁qbp쎯	-10.1031
▁ifn쎯ivs쎯	-10.1037
▁tvfh0쎯jgm쎯	-10.1039
▁fmk쎯	-10.1044
ajt쎯	-10.1044
de쎯	-10.1046
▁mga쎯	-10.1049
▁yo쎯dn쎯	-10.1055
▁yw쎯fhw쎯	-10.1055
▁쎂쎂쎀	-10.1057
uqf쎯	-10.1058
▁pye쎯	-10.1059
fffy0쎯	-10.107
bj쎯egc쎯	-10.1073
▁ynty0쎯	-10.1077
▁cep쎯uthp0쎯	-10.108
▁wtr쎯lq쎯adwr0쎯	-10.1081
▁ii쎯inx쎯	-10.1083
▁c쎯o쎯	-10.1087
tyg쎯	-10.1098
▁nty0쎯o쎯	-10.11
bf쎯	-10.11
쎁쎁	-10.1101
▁쎅dnv0쎯	-10.1105
▁sve쎯rnd1쎯f쎯	-10.1106
▁ujfj0쎯fqb0쎯	-10.1109
fa쎯	-10.1109
▁wg쎯yy쎯wug0쎯	-10.111
▁mpf쎯	-10.1112
▁쎁쎉쎃쎄	-10.1119
▁sfh쎯	-10.1121
▁xy쎯xkw쎯	-10.1123
▁tmd쎯wwv쎯	-10.1124
▁tdkj0쎯	-10.1125
▁bgh쎯sm쎯	-10.1129
▁rkk쎯wt쎯txi쎯xyc쎯	-10.1129
kqy쎯	-10.113
▁lu쎯o쎯	-10.1136
geq쎯	-10.1146
▁쎄쎁	-10.1151
▁쎈쎆	-10.1157
▁ifj쎯	-10.1157
fku쎯	-10.116
▁khgm3쎯	-10.116
▁dga쎯	-10.1161
▁il쎯	-10.1165
▁drin0쎯	-10.1168
▁gjq쎯j쎯	-10.1172
▁g쎯uk쎯wv쎯	-10.1177
▁tjt쎯wgk쎯	-10.1186
▁iv쎯tfqp쎯	-10.1195
▁dmj1쎯j쎯	-10.1196
▁rbcc쎯wqj쎯udi0쎯	-10.1196
wqu쎯	-10.1202
▁ftbt쎯dga쎯pgc쎯	-10.1204
▁쎀쎀쎀	-10.1204
▁iry쎯iq쎯	-10.1208
▁grd쎯	-10.1208
▁tk쎯od쎯	-10.1209
apg쎯	-10.1209
▁kw쎯s쎯	-10.1214
▁qnq쎯	-10.1222
wtu쎯	-10.1222
k쎯yygy쎯	-10.1226
bwt쎯	-10.1226
▁i쎯m쎯	-10.123
▁fke쎯	-10.1234
▁oth쎯	-10.1234
▁wgkq0쎯tj쎯	-10.1244
▁u쎯jg쎯	-10.1251
▁iha쎯	-10.1253
▁saj0쎯hw쎯	-10.1253
▁bg쎯	-10.1254
▁cm쎯www쎯	-10.1256
uf쎯	-10.1259
▁tdt쎯w쎯	-10.1259
▁lc쎯swc쎯	-10.1261
▁iq쎯xft쎯	-10.1263
yyq쎯	-10.1267
▁gjq쎯usr쎯	-10.1267
tp쎯gj쎯	-10.1268
▁qiu0쎯	-10.1277
eu쎯	-10.1277
wvf0쎯	-10.1279
▁nhj쎯	-10.128
▁tuk쎯	-10.1281
▁je쎯wa쎯	-10.1296
rlg0쎯	-10.1302
udh쎯	-10.1308
▁vf쎯	-10.1316
▁ux쎯yy쎯	-10.1318
▁sm쎯wf쎯	-10.1318
▁wfi쎯	-10.1321
▁wxf쎯ai쎯	-10.1321
▁gae쎯udy쎯	-10.1323
▁itx쎯qh쎯	-10.1326
▁srm쎯	-10.1329
▁sk쎯dp쎯	-10.133
tey0쎯	-10.1333
▁ftx쎯rh쎯	-10.134
▁wye쎯if쎯	-10.134
▁wg쎯wsg0쎯	-10.134
▁pwd쎯dhc쎯	-10.1347
▁es쎯bc쎯	-10.1349
▁py쎯lft쎯	-10.135
pj쎯	-10.1358
rgm쎯	-10.1358
▁d쎯gf쎯	-10.1361
ujfj0쎯wug0쎯	-10.1364
▁nui쎯sm쎯	-10.1364
ltk쎯	-10.137
▁yny0쎯ngc쎯	-10.1372
▁ftg쎯ty쎯	-10.1373
▁tom쎯	-10.1379
▁khgm3쎯ytyh쎯ith쎯	-10.1383
▁ra쎯gc쎯	-10.1386
▁ad쎯ld쎯	-10.1387
▁qnp쎯	-10.139
▁hn쎯	-10.139
qm쎯	-10.1393
▁yned쎯	-10.14
▁ujn쎯ykw쎯	-10.1402
▁쎁쎉쎅쎁	-10.1407
▁쎁쎂쎀쎀	-10.1409
▁ce쎯jg쎯	-10.1409
▁쎁쎉쎄쎈	-10.141
▁xx쎯kwgj0쎯	-10.1411
▁dm쎯cf쎯	-10.1411
▁jb쎯o쎯	-10.1415
▁gh쎯lpdk1쎯	-10.1415
▁yff쎯sksw쎯	-10.1418
▁jvko0쎯thg1쎯	-10.1428
▁fwyf0쎯	-10.143
▁kqb0쎯uxh쎯	-10.1431
▁g쎯hko쎯	-10.1435
▁em쎯	-10.1436
▁rh쎯hwbc쎯	-10.1439
tfpd0쎯	-10.1439
▁qvfp1쎯tel쎯	-10.1446
▁ygk쎯yygy쎯	-10.1459
▁bu쎯pfjm1쎯	-10.1463
▁rn쎯yle쎯	-10.1464
▁nae0쎯ga쎯	-10.1466
▁lfnh쎯xat0쎯	-10.1471
▁kwg쎯qiu0쎯ipr쎯	-10.1472
쎇쎂	-10.148
▁tgm쎯ltk쎯	-10.148
▁gku쎯ywfw0쎯	-10.1482
fd쎯aq쎯	-10.1484
▁fje쎯qgu쎯	-10.1485
▁yb쎯bb쎯	-10.1487
▁wt쎯ma쎯	-10.1491
▁ny쎯gj쎯ip쎯	-10.1494
shn쎯	-10.1496
▁oge쎯ny쎯	-10.1499
▁v쎯yce쎯	-10.1514
▁afff2쎯	-10.1516
rdf0쎯	-10.1518
▁쎉쎀쎀	-10.1527
▁adw쎯pu쎯	-10.1528
▁dr쎯vck쎯	-10.1528
▁ytn쎯	-10.1528
▁ipwk0쎯	-10.1532
▁tduh0쎯	-10.1535
▁afs쎯hxf쎯	-10.1536
▁yta쎯	-10.1538
▁ngj쎯	-10.154
▁gx쎯	-10.1545
▁yoo쎯	-10.1546
nla쎯	-10.155
▁kkh0쎯	-10.1558
▁ykw쎯klj쎯	-10.1562
tdn쎯	-10.1563
▁tdn쎯	-10.1567
▁lfn쎯tqq쎯	-10.1568
쎂쎁	-10.157
▁vgk쎯	-10.1573
▁qgfj쎯	-10.158
▁so쎯bm쎯	-10.1584
▁ivp쎯	-10.1585
mm쎯	-10.1587
▁ra쎯	-10.1588
▁umd1쎯kkkk1쎯	-10.159
▁ukn쎯xf쎯	-10.1598
iyw쎯	-10.1598
▁쎁쎉쎇쎁	-10.1603
쎂쎃	-10.1605
▁쎁쎅쎀쎀	-10.1606
▁gj쎯gk쎯ta쎯	-10.1606
▁aet1쎯yygy쎯	-10.1607
▁v쎯dp쎯	-10.161
▁jn쎯kht쎯	-10.1611
▁br쎯	-10.1613
▁wgkl2쎯	-10.1616
▁fj쎯fghg쎯	-10.1616
▁ybf0쎯e쎯	-10.1618
fgu쎯	-10.1622
▁fk쎯ss쎯	-10.1622
▁dtf쎯	-10.1623
▁rs쎯qgb쎯	-10.1626
▁uqd2쎯ddnl쎯	-10.1628
쎇쎈	-10.1635
▁쎁쎉쎃쎆	-10.1642
▁yn쎯nn쎯	-10.1646
▁wxd쎯	-10.1647
▁wynb0쎯gd쎯	-10.1647
▁wfkb0쎯	-10.1648
▁ryn1쎯gj쎯	-10.1652
▁vfb쎯hxf쎯	-10.1653
▁tjh쎯uwl쎯	-10.1656
▁atd쎯tg쎯	-10.1663
▁bib쎯ovt쎯	-10.167
▁쎁쎉쎃쎇	-10.1674
▁fgh쎯rh쎯	-10.1674
▁ymf쎯kfi쎯	-10.1676
▁aps쎯	-10.1678
wynb0쎯	-10.1686
▁쎁쎉쎃쎅	-10.1687
▁isw쎯	-10.1691
qve쎯	-10.1693
▁ugh쎯udy쎯	-10.1694
fhu쎯	-10.1715
▁xwy0쎯tg쎯gxi쎯	-10.1716
▁쎄쎇	-10.1718
qie쎯	-10.1718
▁ur쎯	-10.1719
▁udy쎯ukq쎯	-10.1724
▁awx쎯ycb쎯	-10.1724
쎃쎂	-10.1727
▁mt쎯wh쎯	-10.1728
nu쎯	-10.1729
▁atd쎯jgm쎯	-10.1741
▁iyw쎯wsg0쎯	-10.1747
▁쎁쎉쎉쎇	-10.1749
▁qjf쎯	-10.1757
▁wvd쎯v쎯	-10.1761
▁fm쎯yy쎯	-10.1763
▁ib쎯	-10.1765
▁dfny1쎯	-10.1767
▁c쎯ue쎯	-10.1768
▁pyj쎯tn쎯	-10.1773
qng1쎯	-10.1782
▁ip쎯km쎯	-10.1784
h1쎯	-10.1787
adk쎯	-10.1791
▁xte쎯ght쎯ywf쎯	-10.1792
▁k쎯ax쎯	-10.1794
wkhh쎯	-10.1801
▁xln0쎯qt쎯	-10.1801
yjj1쎯	-10.1805
▁te쎯	-10.1812
▁jjj0쎯	-10.1812
wys쎯lft쎯	-10.1813
▁rf쎯	-10.1816
▁pgk쎯e쎯	-10.1824
jghm1쎯	-10.1825
▁ld쎯dmj1쎯	-10.1826
▁jjjj0쎯ipkh1쎯	-10.1829
▁pvs쎯wgq쎯	-10.1834
▁iqgg쎯	-10.1834
wnt쎯	-10.1835
puv쎯	-10.1836
▁ynma쎯	-10.1836
▁vvv쎯w쎯	-10.1836
www쎯	-10.1838
▁k쎯atd쎯ax쎯	-10.1844
fhl쎯	-10.1845
▁쎅쎀쎀쎀	-10.1848
▁f쎯gkp쎯	-10.185
▁ldn쎯	-10.1853
▁wwg쎯nnh쎯	-10.1859
▁wg쎯ymhj0쎯	-10.1861
nh쎯	-10.1863
▁oja쎯	-10.1863
▁vtkb0쎯	-10.1867
▁ntg쎯st쎯	-10.187
ipmq쎯	-10.187
icw쎯	-10.187
▁uqwm1쎯rfm쎯	-10.1876
tu쎯ip쎯	-10.1876
pdc쎯	-10.188
▁tak쎯xe쎯	-10.1899
▁gkih0쎯gj쎯	-10.1905
▁rnnw0쎯	-10.1906
▁h쎯xe쎯	-10.191
▁ct쎯	-10.1913
▁lk쎯h쎯	-10.1914
▁jn쎯sm쎯	-10.1917
쎃쎈	-10.192
▁qkq쎯umc쎯	-10.1925
▁abu쎯	-10.1925
▁ait쎯pu쎯	-10.1932
gyg0쎯	-10.1934
▁hid쎯uthp0쎯	-10.1939
▁ga쎯ud쎯	-10.194
▁nu쎯nxf쎯	-10.194
▁fuj쎯	-10.1942
▁gg쎯fgh쎯	-10.1945
▁wo쎯wuf쎯	-10.1945
▁ripq0쎯rufh1쎯	-10.1945
wbj쎯	-10.195
▁ian1쎯	-10.1951
▁쎈쎈	-10.1951
▁nh쎯wys쎯	-10.1955
▁jsd쎯oug0쎯	-10.1957
ian1쎯	-10.1957
▁d쎯suq쎯	-10.1961
mdfj쎯	-10.1964
▁kk쎯	-10.1969
zz	-10.197
▁dff2쎯	-10.1971
▁wys쎯lft쎯wc쎯ngk쎯	-10.1975
▁vtk쎯wsg0쎯	-10.1981
▁egc쎯xe쎯	-10.1982
▁aj쎯	-10.1982
▁qdb쎯bwg쎯	-10.1985
▁zzts8쎯	-10.1992
wcw쎯	-10.1994
fiy쎯	-10.1995
sfiu1쎯	-10.1998
▁g쎯ddu1쎯	-10.2
▁oft쎯	-10.2002
▁buj쎯djg쎯	-10.2011
▁amw쎯isk쎯	-10.2011
▁fny0쎯og쎯wx쎯	-10.2013
쎂쎉	-10.2017
▁fghg쎯	-10.2022
▁xa쎯pl쎯	-10.2024
▁jpx쎯	-10.2028
▁nd쎯tv쎯wf쎯	-10.2028
▁vi쎯ujf0쎯	-10.203
▁쎅쎈	-10.2031
▁쎁쎈쎀쎀	-10.2031
▁ls쎯cw쎯	-10.2032
▁xjm쎯et쎯	-10.2043
▁nhj쎯rrr쎯rfm쎯	-10.2043
▁txg쎯gd쎯	-10.2044
efcb쎯	-10.2044
fkuc3쎯	-10.2049
▁eb쎯tl쎯kkd쎯	-10.205
▁fiyt쎯	-10.2051
▁jyie쎯ktm쎯lt쎯	-10.2052
▁tyg쎯tyg쎯	-10.2053
ugh쎯	-10.2056
▁wsg0쎯tkw쎯	-10.2064
▁wvf0쎯tmd쎯	-10.2065
▁mqc쎯nudu쎯	-10.2065
▁blf0쎯	-10.2068
▁fgh쎯wty0쎯	-10.2071
▁쎁쎉쎃쎃	-10.2072
▁nx쎯	-10.2073
▁su쎯	-10.2075
▁kqw쎯	-10.2077
▁khx쎯	-10.2084
▁gkp쎯udi0쎯w쎯	-10.2088
▁bfm쎯pl쎯	-10.209
▁bm쎯ffff1쎯	-10.209
pwfi0쎯	-10.2091
▁uxt쎯	-10.2101
▁uyh쎯yne쎯	-10.2102
▁sfi쎯uwy0쎯wx쎯	-10.2108
▁rrr쎯oyvk1쎯	-10.2113
▁wgk쎯qqqq1쎯	-10.2121
▁iq쎯ip쎯	-10.2124
▁nty0쎯fj쎯	-10.2129
▁ngc쎯	-10.2135
▁uth쎯tfq쎯	-10.2139
▁cep쎯td쎯	-10.214
▁gjh2쎯	-10.2141
ydn쎯	-10.2146
▁ftbt쎯ip쎯gyt쎯	-10.2148
adj쎯	-10.2154
▁wc쎯uq쎯	-10.2155
▁etg쎯tjh쎯	-10.2156
▁pu쎯og쎯	-10.2163
▁sbd쎯lkmi0쎯gae쎯	-10.2174
▁kfg쎯	-10.2176
▁pww쎯	-10.2177
▁ymc쎯yf쎯jgm쎯	-10.2178
▁쎂쎄쎀	-10.2178
▁ep쎯vb쎯ftj쎯	-10.2183
ipw쎯	-10.2186
sw쎯	-10.2186
▁jm쎯	-10.2189
▁vyi0쎯	-10.22
am쎯	-10.2201
wdn쎯	-10.2207
▁wsg0쎯rmhj쎯	-10.2208
eyni쎯	-10.2208
▁쎁쎂쎈	-10.221
▁knx쎯	-10.221
▁쎁쎉쎄쎆	-10.2214
▁pv쎯rdj쎯	-10.2214
▁ukn쎯ovt쎯	-10.2218
▁ff쎯	-10.2222
▁쎁쎉쎄쎇	-10.2222
▁sqj쎯eu쎯	-10.2224
▁wh쎯wsg0쎯	-10.2224
▁kg쎯gm쎯	-10.2226
▁g쎯tg쎯	-10.2226
▁txgi5쎯wxf쎯	-10.2233
hq쎯	-10.2235
▁fkue0쎯	-10.2237
▁fhu쎯tm쎯	-10.2239
▁쎅쎄	-10.2242
▁nnh쎯tdij0쎯	-10.2243
▁쎅쎁	-10.225
nyu0쎯	-10.225
uda쎯	-10.2251
▁nae0쎯gm쎯	-10.2253
▁lfn쎯rq쎯	-10.2255
▁dgt1쎯yny0쎯	-10.2261
▁lg쎯tkgg1쎯	-10.2267
▁siq쎯	-10.2273
ydm쎯	-10.2273
▁qejy쎯	-10.2274
▁ke쎯xh쎯	-10.2285
▁mf쎯x쎯	-10.2287
▁mnm쎯	-10.2287
iya쎯	-10.229
▁emc쎯sfiu1쎯	-10.229
▁fmud쎯	-10.229
▁ej쎯	-10.2294
▁ago쎯	-10.2294
▁zzts10쎯	-10.2298
ynk쎯	-10.2301
▁wgkr1쎯	-10.2305
▁je쎯jtg쎯	-10.2311
▁rx쎯v쎯	-10.2315
▁hhhh쎯vi쎯	-10.2318
srg쎯	-10.2319
isj쎯	-10.2333
▁wht쎯nty0쎯	-10.2334
▁fcp쎯wt쎯	-10.2334
▁wxf쎯w쎯	-10.2342
▁ga쎯og쎯	-10.2346
▁lwg쎯udp쎯	-10.2348
▁rn쎯d쎯	-10.2352
▁wg쎯egc쎯	-10.2362
▁tt쎯gl쎯	-10.2365
▁gmf쎯uqw쎯	-10.2367
▁cf쎯jvko0쎯	-10.2367
▁qhk쎯	-10.2369
쎃쎀	-10.2375
▁ukn쎯xyc쎯	-10.2376
▁ovt쎯rnd1쎯ylk0쎯	-10.2379
▁fgh쎯uy쎯	-10.238
▁ibi쎯ugl쎯	-10.2383
▁xwf쎯	-10.2385
rcy1쎯	-10.2387
fnhc0쎯	-10.2387
▁wc쎯dmh0쎯	-10.2387
▁iugg0쎯	-10.2391
sks쎯	-10.2394
be쎯	-10.2395
▁quj쎯udi0쎯	-10.2395
▁sg쎯f쎯	-10.2397
▁mfk쎯rh쎯	-10.2399
▁ijo쎯ya쎯	-10.24
▁t쎯gu쎯	-10.2403
▁sgtu0쎯	-10.2403
pfqf쎯	-10.2409
▁lh쎯fgh쎯	-10.2414
qnth쎯	-10.2414
▁cep쎯et쎯	-10.2415
▁qt쎯bb쎯	-10.2433
xu쎯	-10.2435
▁tp쎯uthp0쎯	-10.2437
tfhy쎯	-10.2447
▁xxm쎯	-10.2448
▁m쎯su쎯	-10.245
▁lgey2쎯nf쎯	-10.2454
▁dx쎯udi0쎯	-10.2454
▁iw쎯vfhp1쎯	-10.2454
▁dd쎯www쎯	-10.2461
fd쎯egc쎯	-10.2462
▁caq쎯fcl쎯	-10.2464
▁cy쎯f쎯	-10.247
▁lfo쎯dx쎯ia쎯	-10.2472
▁h쎯dm쎯	-10.2473
▁fuf0쎯	-10.2473
▁w쎯gk쎯	-10.2474
▁yo쎯tkh쎯	-10.2483
▁ige쎯jsr쎯	-10.2488
▁ym쎯nfc쎯	-10.2491
▁nk쎯qkq쎯	-10.2496
▁rpws쎯yfy2쎯	-10.2499
▁ym쎯dfy쎯	-10.2501
yuo쎯	-10.2507
▁uk쎯wug0쎯	-10.251
▁hq쎯ds쎯	-10.2511
▁jgm쎯aib쎯dd쎯ip쎯	-10.2513
▁쎆쎆	-10.2514
▁rep쎯sc쎯	-10.2519
▁aynq쎯	-10.2519
▁enr쎯	-10.252
▁ium쎯	-10.2523
▁gkp쎯e쎯	-10.2523
▁avi쎯	-10.2524
ajd0쎯	-10.2527
▁쎁쎉쎉쎈rh쎯	-10.253
▁wdt쎯vb쎯	-10.2531
▁db쎯	-10.2533
▁tep쎯je쎯	-10.2533
pv쎯egc쎯	-10.2537
▁yvh쎯wa쎯	-10.254
▁trf0쎯pg쎯	-10.2541
▁sh쎯wny1쎯	-10.2541
▁ynj쎯	-10.2544
▁iv쎯rh쎯	-10.2545
▁uqsg쎯	-10.2548
qtvb0쎯	-10.255
tb쎯	-10.2552
fi쎯	-10.2555
▁rnu0쎯wx쎯	-10.2557
▁yff쎯yngk1쎯	-10.256
▁gu쎯yy쎯	-10.2561
▁atd쎯tu쎯	-10.2563
▁bk쎯gmu1쎯	-10.2566
▁qrm쎯	-10.2568
uygh1쎯	-10.2568
tsh1쎯	-10.257
▁dt쎯	-10.2571
▁ln쎯xwy0쎯	-10.2571
▁bwf쎯ntk쎯	-10.2574
rj쎯	-10.2579
emc쎯	-10.2581
an쎯lwj쎯	-10.2587
▁std쎯ivw쎯	-10.2589
▁rvyl0쎯	-10.2591
▁iqc쎯cep쎯	-10.2593
쎃쎉	-10.2593
▁te쎯gmy0쎯	-10.2595
▁qnq쎯wyv쎯	-10.2598
fkhk쎯	-10.2601
rq쎯	-10.2601
▁es쎯mqc쎯	-10.2602
▁jvko0쎯je쎯	-10.2606
▁uck쎯qqqq1쎯	-10.2608
▁pwd쎯	-10.261
▁lfnh쎯vjsj쎯	-10.2611
▁dw쎯to쎯	-10.2617
▁jn쎯xjt쎯	-10.262
qkhh1쎯	-10.2623
▁ugm쎯w쎯	-10.2626
▁py쎯wf쎯tu쎯ip쎯	-10.2626
▁g쎯gh쎯	-10.2631
ngc쎯	-10.2633
▁vk쎯hx쎯	-10.2633
▁ugdu쎯vb쎯	-10.2636
▁mw쎯qh쎯	-10.2636
▁ltu0쎯pvs쎯	-10.2636
▁iyc쎯jg쎯	-10.2637
▁uq쎯ian1쎯	-10.2643
▁쎅쎃	-10.2643
▁―	-10.2644
atj쎯	-10.2648
▁rdj쎯gq쎯	-10.2648
▁fhv쎯xe쎯	-10.2653
▁xh쎯nf쎯	-10.2654
▁rdf0쎯	-10.2656
▁ou쎯isgg2쎯	-10.266
▁bv쎯rmhj쎯	-10.2664
xl쎯	-10.2664
▁tn쎯pnt쎯	-10.2666
▁smu1쎯	-10.2668
▁tg쎯fcl쎯	-10.267
▁pwr쎯	-10.267
▁aqky1쎯	-10.2671
▁yvi쎯ahko0쎯	-10.2671
dyn쎯	-10.2682
▁ih쎯gtu쎯	-10.2682
▁fqp쎯tkgg1쎯	-10.2684
▁ddh쎯uyh쎯	-10.2687
▁qd쎯dmj1쎯	-10.269
ykw쎯	-10.2691
▁tg쎯dn쎯	-10.2692
▁vf쎯ra쎯	-10.2693
▁jy쎯hko쎯	-10.2698
▁mfky쎯	-10.2699
fd쎯ymhj0쎯	-10.2703
▁klj쎯jfcf쎯	-10.2705
▁uygh1쎯	-10.2706
tmdf1쎯	-10.2708
ftb쎯	-10.2709
fnw쎯	-10.2711
gw쎯	-10.2716
▁up쎯	-10.272
▁uqwm1쎯	-10.2722
fakg0쎯	-10.2723
▁djd쎯iyt1쎯	-10.2725
▁pwdj쎯	-10.273
▁dyn쎯ya쎯	-10.2735
▁kv쎯	-10.2737
▁qtal1쎯	-10.2745
▁aws쎯kf쎯	-10.2746
oyn쎯	-10.275
▁b	-10.2751
▁iss쎯	-10.2754
rfc쎯sy쎯	-10.2757
yon쎯	-10.2758
▁pj쎯pg쎯	-10.2762
▁gef쎯dw쎯	-10.2766
▁qh쎯l쎯	-10.2771
▁nui쎯tf쎯	-10.2771
ipg쎯	-10.2774
vq쎯	-10.2775
▁anb0쎯	-10.2777
쎇쎇	-10.2779
jtyq1쎯	-10.278
auqw쎯	-10.2781
tqdh0쎯	-10.2783
▁uthp0쎯tfl쎯	-10.2783
▁tdg1쎯wy쎯	-10.2784
▁f쎯qr쎯	-10.2786
쎂쎇	-10.2787
▁h쎯mqq쎯	-10.279
▁uc쎯	-10.2791
▁쎁쎉쎃쎀	-10.2792
▁k쎯yygy쎯txi쎯	-10.2793
▁mdf0쎯dgtg0쎯	-10.2794
▁wynn3쎯	-10.2795
▁wr쎯	-10.2797
thp쎯	-10.2799
▁eck쎯	-10.2805
쎈쎉	-10.2811
▁xk쎯gqjo0쎯	-10.2812
▁jgm쎯tg쎯	-10.2826
▁iyn1쎯	-10.2826
▁mf쎯	-10.2828
▁ym쎯si쎯	-10.283
▁xo쎯bd쎯	-10.2832
▁um쎯qyv쎯	-10.2832
▁gfi쎯bw쎯	-10.2834
▁xyna1쎯tv쎯	-10.2834
▁iyc쎯fcl쎯	-10.2837
▁anu0쎯	-10.2841
▁y쎯wtf쎯tv쎯km쎯	-10.2841
▁y쎯ick쎯	-10.2844
▁dgt1쎯um쎯	-10.2844
▁xef쎯	-10.2845
▁uqi0쎯	-10.2848
my쎯	-10.2851
▁au쎯	-10.2852
▁rnr쎯	-10.2855
▁qq쎯al쎯ce쎯	-10.2855
▁iie쎯by쎯	-10.2856
▁ojf쎯	-10.2858
▁tlo쎯	-10.286
▁tga쎯fh쎯	-10.2862
▁ygh쎯je쎯	-10.2866
hm쎯	-10.2871
▁lg쎯uj쎯	-10.2881
▁a쎯wf쎯	-10.2882
▁qyvl0쎯gh쎯	-10.2889
udj쎯	-10.2891
▁wt쎯og쎯	-10.2892
nt쎯	-10.2893
▁fny0쎯jghm1쎯	-10.2896
▁wnt쎯	-10.2897
▁gogj쎯tak쎯	-10.2901
▁ykg0쎯	-10.2902
f1쎯	-10.2904
▁qk쎯o쎯	-10.2906
▁nu쎯	-10.2907
▁akgl쎯	-10.2908
▁ugdu쎯fqb0쎯	-10.2916
▁ps쎯ihc쎯	-10.2916
▁kw쎯ce쎯	-10.2917
▁sgm쎯	-10.2921
▁쎁쎉쎄쎀	-10.2924
▁ic쎯ygk쎯	-10.2928
▁vfhp1쎯e쎯	-10.2929
ycb쎯	-10.2933
▁xnf쎯xq쎯	-10.2933
▁nge쎯dgkn0쎯	-10.2935
▁waye쎯	-10.2935
ukn쎯	-10.2936
쎃쎇	-10.2939
au쎯	-10.2939
▁mq쎯jy쎯aq쎯	-10.2947
▁쎁쎉쎃쎉	-10.2951
▁uu쎯wsg0쎯	-10.2952
yce쎯	-10.2955
▁ftg쎯pwfi0쎯	-10.2956
3쎯	-10.2961
whf0쎯og쎯	-10.2963
mf쎯	-10.2964
aw쎯	-10.2967
naj0쎯	-10.2968
▁dd쎯bw쎯	-10.2974
▁wyq쎯ge쎯	-10.2975
▁vfhp1쎯sft쎯	-10.2976
▁쎇쎂	-10.2985
▁rcy1쎯	-10.2985
▁ygu쎯ywx쎯	-10.2985
apl쎯	-10.2986
lud쎯	-10.2994
▁zzdw5쎯	-10.2995
▁jtyl쎯	-10.2995
▁ssq쎯shn쎯	-10.2996
r쎯	-10.2999
▁yox쎯	-10.3002
tdij0쎯	-10.3003
▁쎇쎀쎀	-10.3004
▁pnt쎯fffy0쎯	-10.3007
▁sg쎯tmd쎯	-10.3013
jel쎯	-10.3014
▁uo쎯ynm쎯	-10.3014
▁rs쎯ga쎯	-10.3016
▁dm쎯ow쎯	-10.3022
▁xeg0쎯xkw쎯uk쎯	-10.3023
▁sq쎯vfhp1쎯	-10.3026
▁rqn쎯	-10.3029
▁mu쎯	-10.3031
▁wwwk0쎯tq쎯	-10.3031
tfkp0쎯	-10.3036
ujqu쎯	-10.3039
▁wc쎯uwl쎯	-10.304
jty쎯	-10.3044
lf쎯	-10.3044
▁rd쎯nae0쎯	-10.3047
▁jb쎯qq쎯	-10.3048
tgh쎯	-10.3054
▁qdt쎯	-10.3057
▁qgo쎯	-10.3058
mnm쎯	-10.3058
e0쎯	-10.306
▁fh쎯gc쎯	-10.3065
▁wdt쎯if쎯	-10.3065
ri쎯	-10.3066
▁ijl쎯riu0쎯	-10.3068
syg쎯	-10.3075
▁dgh쎯ftx쎯	-10.3075
▁m쎯hi쎯	-10.3088
qsu쎯	-10.3096
▁ll쎯bb쎯	-10.3104
▁쎈쎀쎂	-10.3106
▁yc쎯	-10.3108
▁tga쎯	-10.3108
▁wbj쎯vck쎯w쎯	-10.3109
▁udb쎯ytyh쎯	-10.3118
y0쎯	-10.3125
▁imj쎯pg쎯	-10.3128
xyc쎯	-10.3132
▁v쎯fcl쎯sm쎯	-10.3133
▁sm쎯kkd쎯	-10.3135
▁usr쎯vfhp1쎯	-10.3136
▁it쎯vvv쎯	-10.314
쎇쎃	-10.3144
rtol0쎯	-10.3149
▁trf0쎯e쎯	-10.3151
▁js쎯pu쎯	-10.3156
▁ymhj0쎯ta쎯	-10.3158
fgh쎯	-10.3159
▁riq쎯hka쎯	-10.3161
▁dtf쎯wgkb0쎯	-10.3164
adn쎯	-10.3167
▁qci쎯	-10.317
▁fhv쎯ymhj0쎯	-10.3175
▁fggh쎯uqv쎯	-10.3179
▁pym쎯ipmq쎯	-10.3184
▁gcf쎯h쎯	-10.3187
▁sm쎯jn쎯	-10.3188
eerq쎯	-10.3189
▁dgh쎯maw쎯	-10.3196
▁mtd쎯	-10.3197
▁rnu0쎯	-10.32
wye쎯	-10.3202
▁kmh0쎯	-10.3204
▁rvy쎯if쎯	-10.3208
▁riu0쎯	-10.3212
▁puv쎯adwe1쎯	-10.3218
ygu쎯	-10.3221
▁쎂쎀쎁쎄	-10.3222
▁wam쎯ffi쎯	-10.3224
▁ywe쎯ick쎯	-10.3224
▁wyk쎯	-10.3226
▁gkm쎯	-10.3227
syp쎯	-10.323
▁쎄쎉	-10.3233
▁nk쎯	-10.3233
▁vep쎯ws쎯	-10.3246
▁fgh쎯lh쎯	-10.3254
▁bde쎯sm쎯	-10.3263
▁dga쎯pwv쎯pgc쎯	-10.3265
쎅쎉	-10.3265
▁qh쎯ygk쎯	-10.3267
▁wg쎯ta쎯	-10.3268
▁ifw쎯	-10.3272
▁rvyo쎯gkp쎯	-10.3275
▁wy쎯et쎯	-10.3276
▁ai쎯fm쎯gog쎯	-10.328
▁jgm쎯uqwm1쎯	-10.3283
▁itk쎯	-10.3294
▁qtq쎯	-10.3295
▁ipw쎯ya쎯	-10.3296
▁jghx쎯	-10.33
▁ubtf0쎯	-10.3301
▁fm쎯fje쎯	-10.3302
▁god쎯yak쎯	-10.3305
ytf쎯	-10.3307
▁y쎯nf쎯	-10.3307
▁rg쎯adwe1쎯	-10.3308
▁oge쎯pnt쎯	-10.3311
▁fhc쎯	-10.3311
▁ujqu쎯	-10.3315
▁txg쎯jjjj0쎯	-10.3315
▁rpw쎯emc쎯	-10.3318
▁rnb쎯qje쎯	-10.3319
▁hao쎯rny1쎯	-10.3325
▁쎉쎇	-10.3325
tmh0쎯	-10.3327
vv쎯	-10.333
▁wfny0쎯dskf쎯	-10.3337
▁kfi쎯uthp0쎯	-10.3338
▁khn쎯	-10.3339
▁fggh쎯gk쎯	-10.3339
▁e쎯rn쎯	-10.3339
▁uq쎯rq쎯	-10.334
▁yssc0쎯if쎯	-10.3343
bd쎯	-10.3347
▁ukn쎯wsg0쎯	-10.3349
hnd쎯	-10.3353
▁itol쎯	-10.3354
eyb쎯	-10.3356
awn쎯	-10.3356
▁쎆쎈	-10.3358
▁yvi쎯tjt쎯	-10.3362
▁m쎯ip쎯	-10.3363
▁fghy1쎯	-10.3364
▁jaw쎯	-10.3366
ipr쎯	-10.3367
▁ssf쎯	-10.3368
▁naw쎯	-10.3368
tyna2쎯	-10.3369
쎇쎉	-10.3371
▁ltu0쎯gae쎯	-10.3375
▁쎄쎀쎀쎀	-10.3377
▁uft쎯	-10.3377
jgf쎯	-10.3383
▁jtyl쎯pwfi0쎯	-10.3389
▁e쎯w쎯	-10.3391
dga쎯	-10.3392
▁vk쎯wynb0쎯	-10.3398
▁saj0쎯fnw쎯	-10.3403
▁bp쎯	-10.3404
▁gkih0쎯gae쎯	-10.341
▁jvk쎯	-10.3416
▁wht쎯vfhp1쎯	-10.3427
▁qyvl0쎯ip쎯	-10.3427
▁wwg쎯	-10.343
▁쎆쎂	-10.3434
▁udr0쎯	-10.3436
▁wdn쎯ahty0쎯	-10.3438
▁qmq쎯ggw쎯	-10.3439
▁xk쎯wx쎯	-10.3441
▁dl쎯kq쎯h쎯	-10.3447
▁pvs쎯wrh1쎯	-10.3449
▁쎁쎉쎃쎁	-10.3451
bfm쎯	-10.3452
▁iyc쎯fakg0쎯	-10.3453
wtp쎯	-10.3455
▁ukqb2쎯pfjm1쎯	-10.3457
udp쎯	-10.3459
▁nty0쎯xyna1쎯	-10.3463
thd쎯ick쎯aq쎯	-10.3468
▁qjq쎯	-10.3468
gogj쎯	-10.3469
▁pgj쎯wfny0쎯uk쎯	-10.3472
▁bm쎯thd쎯	-10.3476
▁dj쎯rh쎯	-10.3477
▁oge쎯ya쎯	-10.3481
▁uqt쎯yid쎯	-10.3482
▁ipg쎯dwg쎯	-10.3486
▁btg쎯	-10.3487
▁if쎯w쎯	-10.3487
▁fqu쎯o쎯	-10.3488
▁aqk쎯	-10.349
ypeu쎯	-10.3495
▁gc쎯dp쎯	-10.3496
▁uvo쎯bk쎯	-10.3497
▁tha쎯	-10.3499
▁y쎯apk쎯	-10.3502
▁alw쎯bu쎯	-10.3505
▁yk쎯	-10.3508
fhv쎯	-10.351
▁pnt쎯dcg쎯	-10.3512
cel쎯	-10.3517
▁ymd쎯	-10.3519
▁ovt쎯rpw쎯	-10.3529
jx쎯	-10.353
qtd쎯	-10.3536
▁wj쎯rfm쎯	-10.3537
▁aq쎯klj쎯	-10.3538
▁gh쎯ntk쎯	-10.3543
▁fd쎯xte쎯	-10.3544
▁bg쎯jtg쎯	-10.3544
▁gk쎯dty0쎯	-10.3544
q쎯	-10.3546
▁oge쎯amd쎯	-10.3546
pd쎯	-10.3547
▁uejv0쎯	-10.3549
▁lv쎯uthp0쎯	-10.3551
wycm1쎯	-10.3557
▁xqc쎯cf쎯	-10.3558
쎅쎇	-10.3566
▁rqb0쎯rmhj쎯	-10.3567
▁qtg쎯	-10.3568
▁ruv쎯nh쎯	-10.3568
yop쎯	-10.3572
bj쎯ymhj0쎯	-10.3575
▁eb쎯qnth쎯	-10.3577
▁tdd쎯	-10.3579
tha쎯	-10.3581
▁ih쎯qt쎯	-10.3582
▁apk쎯og쎯	-10.3583
adf쎯	-10.3585
wgkq0쎯	-10.3591
▁쎁쎉쎆쎇	-10.3591
▁vo쎯itd쎯	-10.3591
▁adw쎯uj쎯	-10.3606
awv쎯	-10.3612
▁nyi2쎯	-10.3613
▁oa쎯mdo쎯	-10.3614
▁ex쎯eyn쎯	-10.3615
▁dj쎯vtg쎯	-10.3616
ngj쎯	-10.3617
siq쎯	-10.3621
wfny0쎯dgkn0쎯kkd쎯	-10.3623
▁k쎯l쎯aw쎯u쎯ipk쎯	-10.3626
▁pyg쎯ytyh쎯	-10.363
se쎯	-10.3634
▁nb쎯	-10.3635
▁gk쎯nge쎯	-10.3636
▁img쎯gl쎯	-10.3638
▁fhqv0쎯rvyl0쎯	-10.3638
▁tv쎯	-10.364
▁wgk쎯st쎯	-10.3642
▁mfky쎯ynt0쎯	-10.3645
▁jn쎯wy쎯	-10.3645
▁uqt쎯uwl쎯	-10.3645
qyv쎯	-10.3652
tuu0쎯	-10.3653
pfj쎯	-10.3655
▁ln쎯ftg쎯	-10.3657
▁uqwm1쎯ipw쎯	-10.3661
▁dgkn0쎯epc쎯	-10.3662
▁\	-10.3666
▁rlf0쎯	-10.367
hwbc쎯	-10.367
▁mhu쎯	-10.3673
.	-10.3673
▁tey0쎯gd쎯	-10.3676
▁ldj쎯	-10.3679
▁k쎯l쎯tu쎯ip쎯bpf쎯	-10.368
idt쎯	-10.3681
▁쎇쎆	-10.3682
▁xtu쎯gf쎯	-10.3683
▁---	-10.3686
▁ians0쎯uthp0쎯	-10.3691
▁cad쎯	-10.3694
▁iyw쎯dfy쎯	-10.3701
▁tam쎯	-10.3701
▁tv쎯rta쎯	-10.3701
id쎯	-10.3704
▁mfk쎯adwe1쎯	-10.3709
▁qu쎯	-10.3715
▁sh쎯wycb쎯	-10.3718
▁pwt쎯kkkk1쎯	-10.3718
▁wk쎯qyvl0쎯	-10.372
▁g쎯wsg0쎯wx쎯	-10.3723
▁khq쎯	-10.3728
▁gmi쎯iry쎯	-10.3729
▁ufg쎯	-10.373
▁iie쎯wx쎯	-10.3737
▁kt쎯ke쎯	-10.3741
쎉쎇	-10.3742
▁qtb쎯ldj쎯	-10.3743
▁쎁쎉쎄쎁	-10.3745
▁wxm쎯tmh0쎯	-10.375
aqk쎯	-10.3752
▁jb쎯puv쎯	-10.3756
djb쎯	-10.3758
▁naj0쎯ipkh1쎯	-10.3759
▁kn쎯wdt쎯	-10.3761
tffy0쎯	-10.3768
▁dn쎯ftjb쎯ymhj0쎯	-10.377
▁qyt쎯gae쎯	-10.3774
▁iu쎯	-10.3777
▁xx쎯vk쎯	-10.3784
▁temk0쎯ter1쎯	-10.3789
▁jfd쎯dm쎯	-10.3789
▁gk쎯tr쎯	-10.379
▁ahtb0쎯	-10.3797
▁ymf쎯ou쎯	-10.3802
▁tk쎯l쎯	-10.3803
▁hxf쎯	-10.3804
yn	-10.3806
jtyl쎯	-10.3806
fof쎯	-10.381
▁wv쎯sfc쎯	-10.3812
▁쎁쎉쎄쎂	-10.3812
▁fcl쎯ijlc쎯	-10.3813
xqc쎯	-10.3814
▁apg쎯dgh쎯	-10.3819
▁쎁쎃쎀	-10.382
▁fdf1쎯	-10.3824
▁cep쎯ytd쎯	-10.3827
▁쎁쎉쎃쎂	-10.3828
▁vvv쎯qt쎯	-10.3829
▁zzbd12쎯	-10.383
▁cb쎯	-10.3832
iaqg쎯	-10.3836
▁atd쎯ip쎯wf쎯	-10.3837
▁iqp쎯	-10.3842
enr쎯	-10.3842
▁sve쎯sg쎯	-10.3843
▁v쎯fhn쎯	-10.3844
▁쎈쎄	-10.3846
▁m쎯g쎯	-10.385
▁zzsx5쎯	-10.3852
▁awx쎯faj쎯	-10.3854
▁uth쎯uqw쎯	-10.3862
alf0쎯	-10.3866
ttd쎯	-10.3867
▁ypm쎯	-10.3868
▁fhg1쎯	-10.387
sf쎯w쎯	-10.3872
▁wht쎯tjt쎯	-10.388
hh쎯	-10.3881
▁tdp쎯	-10.3887
▁iw쎯fhb쎯	-10.3889
▁iyc쎯tkgg1쎯	-10.389
▁pt쎯fcp쎯	-10.3893
▁iqpl1쎯or쎯	-10.3893
▁bb쎯wc쎯ngk쎯	-10.3898
▁jyie쎯wqj쎯	-10.3908
▁nty0쎯qk쎯	-10.3909
▁yd쎯	-10.391
vcb쎯	-10.3912
▁yny0쎯uj쎯	-10.3923
▁rdf0쎯fcl쎯	-10.3925
▁iyw쎯jjj0쎯	-10.3926
▁tld1쎯tp쎯	-10.3926
▁qk쎯iwyf1쎯	-10.3929
sgn쎯	-10.393
▁mmq쎯wug0쎯	-10.3938
▁ya쎯wnh쎯	-10.394
▁fw쎯	-10.3941
k0쎯	-10.3941
▁awsk쎯uff쎯	-10.3942
▁wdt쎯gc쎯	-10.3946
▁jef1쎯	-10.3948
xan쎯	-10.3952
▁쎆쎃	-10.3953
▁bda쎯	-10.3955
▁udyj쎯tg쎯	-10.3956
▁kwyg0쎯	-10.3959
ulg쎯	-10.396
ryn1쎯	-10.3965
▁uuj쎯syp쎯	-10.3969
qv쎯	-10.3975
eeq쎯	-10.3976
▁쎁쎉쎄쎄	-10.3978
▁gah쎯ic쎯ymhj0쎯	-10.3982
▁dr쎯wbj쎯	-10.3983
▁rxj쎯ovt쎯	-10.3985
▁p	-10.3986
▁xn쎯tv쎯	-10.3988
▁iyc쎯wfny0쎯	-10.399
▁쎇쎈	-10.3992
▁rqci0쎯lt쎯	-10.3995
bqr쎯	-10.3997
▁yuo쎯	-10.3998
▁ojf쎯ruv쎯	-10.3999
▁k쎯ny쎯r쎯	-10.4
▁oyv쎯	-10.4
yoo쎯	-10.4003
▁ypeu쎯	-10.4004
▁dd쎯xq쎯	-10.4008
▁hka쎯tmc쎯	-10.4009
▁suq쎯aq쎯	-10.4011
쎈쎄	-10.4012
쎃쎃	-10.4018
▁pwt쎯	-10.4023
▁쎅쎉	-10.4026
▁ww쎯hx쎯	-10.403
▁dgj쎯wrh1쎯	-10.4033
▁gkf0쎯	-10.4037
▁쎂dnv0쎯	-10.4038
▁tgj쎯vfhp1쎯	-10.4041
▁uu쎯khu쎯	-10.4043
▁thfn쎯	-10.405
▁lfn쎯wx쎯	-10.4051
▁ukqb2쎯qv쎯lt쎯	-10.4052
bl쎯	-10.4053
▁cf쎯yy쎯	-10.4055
▁dd쎯std쎯	-10.4057
▁tduh0쎯maw쎯	-10.4059
▁yfy2쎯ywx쎯	-10.4061
▁cnh쎯tqt쎯	-10.4062
iyv쎯	-10.4066
▁dr쎯bb쎯	-10.4067
▁wfd0쎯	-10.4067
▁viq쎯	-10.4071
▁k쎯xe쎯	-10.4077
ex쎯	-10.4082
쎇쎄	-10.4088
▁qwyc1쎯fnr0쎯	-10.409
▁goi쎯	-10.4092
▁qmq쎯qr쎯	-10.4093
▁dgkn0쎯nge쎯	-10.4099
▁yf쎯jg쎯	-10.4103
▁rwv쎯ipg쎯	-10.4104
▁yb쎯ga쎯	-10.4104
▁yssr0쎯	-10.4105
▁qnr쎯	-10.4105
▁ajj0쎯sg쎯	-10.4105
▁jx쎯jhny쎯	-10.4106
▁yo쎯gae쎯	-10.411
ajdh쎯	-10.4111
▁agu쎯js쎯	-10.4116
▁mqc쎯	-10.4118
▁alw쎯aq쎯	-10.4119
▁ige쎯wxf쎯dd쎯ip쎯	-10.412
wsk쎯	-10.4124
▁toc쎯	-10.4126
imkf1쎯	-10.4127
▁fha쎯fm쎯	-10.4127
▁ige쎯itf쎯	-10.4128
▁pw쎯pl쎯	-10.4132
▁suf쎯hhhh쎯	-10.4134
▁l쎯by쎯	-10.4135
jjjj0쎯rb쎯	-10.414
ahko0쎯	-10.4142
▁ivfh1쎯mhkg2쎯	-10.4144
▁wdn쎯hko쎯	-10.4146
▁kjj쎯thg1쎯	-10.4147
▁iq쎯caq쎯	-10.4153
▁qq쎯ovt쎯	-10.4154
쎁쎀	-10.4157
▁mfky쎯ubtf0쎯	-10.4157
uter쎯	-10.416
▁ytey0쎯pt쎯	-10.4161
▁vvv쎯bynw0쎯	-10.4164
▁ajt쎯qc쎯	-10.4168
▁tr쎯kkk쎯	-10.4172
▁thp쎯wjh쎯	-10.4173
▁f쎯hko쎯	-10.4181
▁wul쎯	-10.4181
▁tq쎯pp쎯o쎯	-10.4182
▁ythp1쎯tg쎯	-10.4185
▁jm쎯gc쎯	-10.4189
▁ruv쎯tffy0쎯	-10.419
pfq쎯	-10.4192
▁raw쎯	-10.4196
hn쎯	-10.4199
▁rv쎯ral쎯	-10.4202
▁rmn0쎯	-10.4202
▁thd쎯xln0쎯	-10.4204
tei쎯	-10.4208
▁dd쎯ddh쎯	-10.421
wynn3쎯	-10.4212
kh	-10.4216
▁jghm1쎯sft쎯	-10.4218
▁tdij0쎯	-10.422
▁gah쎯sy쎯	-10.4222
qyvl0쎯	-10.4222
▁vfhp1쎯l쎯	-10.4228
▁adk쎯fggh쎯	-10.4231
▁ijx쎯uxt쎯ffff1쎯	-10.4232
▁tfqm1쎯	-10.4238
▁lkd쎯gc쎯	-10.424
▁ytn쎯lfn쎯	-10.4241
qg	-10.4244
▁c쎯w쎯o쎯sg쎯	-10.4244
▁jlx쎯	-10.4248
▁yf쎯aj쎯tg쎯yce쎯	-10.4254
▁bd쎯qn쎯	-10.4256
xo쎯	-10.4259
▁je쎯dqe쎯	-10.4269
▁aqg쎯aqr쎯	-10.4273
pwy쎯	-10.4276
▁rvh쎯fpx쎯	-10.4279
▁mt쎯fgh쎯	-10.4279
sgyb0쎯	-10.4279
▁qqqq1쎯uqd2쎯	-10.428
▁wa쎯dcg쎯	-10.4295
▁uff쎯ytyh쎯	-10.4299
aqt쎯	-10.43
▁iv쎯ue쎯	-10.4301
▁ftjb쎯wf쎯	-10.4306
▁anb0쎯w쎯	-10.4306
▁wc쎯pv쎯	-10.4309
yssr0쎯	-10.431
▁lt쎯ip쎯	-10.431
qqq쎯	-10.4312
▁fjh0쎯	-10.4318
▁gd쎯f쎯	-10.4321
▁ym쎯dp쎯	-10.4321
vfb쎯	-10.4324
▁wa쎯ge쎯wt쎯	-10.4328
▁pa쎯gkp쎯	-10.4329
▁wc쎯y쎯	-10.433
wj쎯	-10.4334
sfc쎯	-10.434
▁dn쎯w쎯	-10.4342
▁ftx쎯w쎯	-10.4346
▁쎁쎉쎂쎉	-10.4348
▁ynnd쎯	-10.435
▁mjq쎯	-10.4352
lkmi0쎯	-10.4352
▁ruv쎯rp쎯	-10.4359
kwg쎯	-10.4359
▁ftbt쎯yce쎯nnk쎯	-10.4362
yyn2쎯	-10.4364
▁lwg쎯	-10.4365
▁ige쎯usr쎯	-10.4366
▁by쎯ryn1쎯	-10.437
▁rvyo쎯nge쎯	-10.4377
▁ty쎯ipk쎯	-10.4377
▁yw쎯pg쎯	-10.4378
▁fwy0쎯	-10.4378
wgu쎯	-10.4389
▁tkh쎯sfhg쎯og쎯	-10.4391
▁vkf0쎯ga쎯	-10.4394
▁stt쎯	-10.44
af쎯	-10.4415
▁ith쎯ght쎯ywf쎯	-10.4423
▁y쎯sm쎯	-10.4423
gqjo0쎯	-10.4434
▁bc쎯bm쎯	-10.4435
▁gq쎯o쎯	-10.4439
▁ptkm1쎯	-10.444
▁ydn쎯	-10.445
▁pds쎯	-10.445
psu0쎯	-10.4453
▁ai쎯fm쎯uk쎯	-10.4454
▁uu쎯yy쎯oy쎯	-10.4458
▁ymhj0쎯ght쎯	-10.446
▁dgh쎯fd쎯	-10.4462
▁tx쎯g쎯uqw쎯	-10.4463
▁tu쎯ip쎯bpf쎯	-10.4466
▁ai쎯yiu0쎯	-10.4471
▁fge쎯fghg쎯rg쎯	-10.4472
▁kcg쎯	-10.4474
▁jhk1쎯	-10.4477
tgj쎯s쎯	-10.4478
▁xkw쎯	-10.4481
▁rvyo쎯ii쎯	-10.4483
▁itd쎯ntg쎯	-10.4485
▁쎅쎇	-10.4486
▁nj쎯	-10.4491
▁jc쎯pnt쎯	-10.4493
▁zzy1쎯	-10.4499
▁ll쎯vvv쎯	-10.4504
▁pu쎯wsg0쎯	-10.4504
▁nc쎯	-10.4516
▁sghg1쎯ux쎯uk쎯	-10.4519
▁atg쎯	-10.4523
▁dyw쎯	-10.4526
▁qvn0쎯ntg쎯	-10.4527
▁ynky6쎯	-10.4528
▁pwy쎯	-10.4533
▁nla쎯	-10.4534
▁dty0쎯buj쎯	-10.4538
▁ijl쎯ytyh쎯	-10.454
▁fp쎯iha쎯	-10.4541
▁fct쎯	-10.4542
▁wjm쎯	-10.4543
▁gu쎯dr쎯	-10.4552
▁kkkk1쎯epw쎯	-10.4554
▁fnrt쎯h쎯	-10.4554
▁tlf0쎯	-10.4554
ldd0쎯pg쎯uqwm1쎯u쎯	-10.4557
▁pgf1쎯pm쎯	-10.4562
▁xjk쎯	-10.4562
▁qje쎯tgh쎯	-10.4564
▁nc쎯ulg쎯	-10.4569
swb쎯	-10.4578
yygy쎯wx쎯	-10.4581
▁ukn쎯xg쎯	-10.4583
▁vv쎯tu쎯	-10.4586
▁쎁쎉쎄쎃	-10.4587
▁temq0쎯	-10.4588
▁dd쎯rnb쎯	-10.459
▁tld1쎯iyw쎯	-10.459
▁쎃쎂쎀	-10.4592
▁qnth쎯ipg쎯	-10.4593
▁sdw쎯	-10.4593
▁mhr쎯	-10.4595
▁ahn쎯	-10.4595
▁nii0쎯	-10.4603
▁uo쎯ey쎯	-10.4611
▁txgi5쎯	-10.4615
▁fq쎯bv쎯	-10.4617
▁pww쎯xmw쎯	-10.4618
▁ii쎯wv쎯	-10.462
▁、	-10.4622
sqt쎯	-10.4623
oq쎯	-10.4624
ifh0쎯	-10.4625
▁wygg쎯yny0쎯	-10.4625
qf쎯	-10.4626
▁rt쎯if쎯	-10.4628
t쎯l쎯	-10.463
▁klj쎯w쎯	-10.4631
▁fyv쎯	-10.4632
▁cc쎯yy쎯	-10.4633
tdt쎯	-10.4633
rw쎯	-10.4635
▁tt쎯yn쎯sg쎯	-10.4643
▁nnl쎯	-10.4644
▁fh쎯uu쎯	-10.4646
itd쎯	-10.4647
▁telb쎯	-10.4648
eud쎯	-10.4648
▁k쎯qh쎯	-10.4649
▁wv쎯fc쎯	-10.4653
▁wv쎯nnk쎯	-10.4653
▁bw쎯ta쎯	-10.4654
rnn0쎯	-10.4656
▁ipkf0쎯	-10.4658
▁xxf쎯og쎯tg쎯	-10.466
▁v쎯fcl쎯	-10.466
1쎯	-10.4666
▁waw쎯yid쎯um쎯	-10.4667
dfe쎯	-10.4673
▁ukn쎯wc쎯ngk쎯	-10.4673
▁dyn쎯	-10.4673
▁usi1쎯	-10.4677
▁lkm쎯	-10.4677
ymc쎯	-10.4679
▁fuk쎯yce쎯	-10.4679
▁sga쎯	-10.4681
▁bm쎯fnrt쎯	-10.4682
itdy쎯	-10.4682
▁jo쎯dhb쎯	-10.4684
▁wxm쎯fcp쎯	-10.4688
▁k쎯mmm쎯	-10.469
▁lft쎯ta쎯	-10.4692
vs쎯	-10.4692
▁iya쎯	-10.4693
▁waw쎯jn쎯	-10.4695
▁iwt쎯ou쎯	-10.4706
▁igd쎯lk쎯	-10.4706
▁eve쎯	-10.471
▁mqq쎯dmu1쎯	-10.471
▁]	-10.471
▁ud쎯ab쎯	-10.4713
itfk0쎯	-10.4715
▁uth쎯yam쎯	-10.4718
▁k쎯fny0쎯	-10.472
▁fc쎯bw쎯	-10.4722
nua쎯	-10.4723
▁infy쎯	-10.4726
tffu쎯ftbt쎯yce쎯	-10.4728
dhd쎯	-10.4729
▁ick쎯gj쎯	-10.4736
▁iyc쎯cep쎯	-10.4737
▁sh쎯wy쎯	-10.4745
jo쎯	-10.4747
▁rym쎯	-10.4748
▁rap쎯bm쎯	-10.4748
▁cm쎯ipkm1쎯	-10.4749
▁usr쎯aq쎯	-10.4753
▁ynm쎯	-10.4758
-	-10.4759
▁gj쎯a쎯dd쎯ip쎯	-10.4761
rp쎯	-10.4763
pgn쎯	-10.4768
▁txg쎯uqw쎯	-10.4769
su쎯	-10.4771
▁v쎯bm쎯	-10.4772
▁rkm쎯wtl쎯	-10.4773
▁dy쎯gu쎯	-10.4781
▁mq쎯iq쎯	-10.4784
▁cbd쎯imj쎯	-10.4784
▁ll쎯w쎯	-10.4785
▁rvy쎯	-10.4785
▁rae쎯	-10.4789
shi쎯	-10.4791
▁쎈쎂	-10.4792
▁tu쎯km쎯	-10.4793
▁ms쎯	-10.4793
▁um쎯fnrt쎯	-10.4794
▁sgn쎯e쎯	-10.4795
▁bw쎯km쎯	-10.48
▁wxf쎯fm쎯	-10.4801
▁jo쎯fi쎯nua쎯	-10.4803
▁qdm쎯	-10.4805
▁rw쎯fcu1쎯	-10.4806
▁ii쎯js쎯	-10.4808
▁rh쎯xe쎯	-10.4809
▁rkm쎯rw쎯	-10.481
▁iak쎯ssss0쎯	-10.4813
wug0쎯gf쎯	-10.4814
▁ud쎯ny쎯	-10.4816
es쎯	-10.4825
▁oge쎯xl쎯	-10.4825
▁ipwk0쎯gf쎯	-10.4832
ynf쎯	-10.4835
▁u쎯og쎯wx쎯	-10.4836
▁wfk쎯	-10.4836
ui쎯	-10.4837
▁pp쎯qh쎯	-10.4838
▁wwwk0쎯	-10.484
▁ln쎯kht쎯	-10.4842
▁hnd쎯	-10.4847
ie쎯	-10.4852
▁jj쎯	-10.4852
j0쎯	-10.4853
▁cm쎯imj쎯	-10.4855
▁dwiu쎯l쎯	-10.4856
▁oge쎯ese쎯	-10.486
▁pntj0쎯	-10.4863
▁sy쎯ygk쎯	-10.4867
▁wgk쎯ec쎯	-10.4868
▁it쎯ovt쎯n쎯ytt쎯	-10.4868
usg쎯	-10.4869
mqi0쎯	-10.4872
▁rnn0쎯	-10.4873
▁usr쎯xtd쎯	-10.4876
▁iytb0쎯fmk쎯bw쎯	-10.4877
▁tg쎯gj쎯	-10.4879
▁tdij0쎯xfm쎯	-10.488
▁wf쎯yf쎯jgm쎯	-10.4881
▁ynk쎯	-10.4882
▁a쎯tkgg1쎯ip쎯bpf쎯	-10.4889
▁y쎯src쎯	-10.489
▁wc쎯fqb0쎯ue쎯	-10.4891
▁wjjg쎯nf쎯	-10.4893
▁kkd쎯sft쎯	-10.4893
▁fj쎯bm쎯kkkk1쎯	-10.4896
▁쎇쎄	-10.4897
▁ws쎯	-10.4904
aqq쎯	-10.4904
▁ige쎯ifk0쎯	-10.4906
ja쎯	-10.4909
▁ujff쎯	-10.491
▁qd쎯	-10.491
▁fc쎯rip쎯	-10.4912
iqv쎯	-10.4913
▁itd쎯lt쎯	-10.4917
▁gkh0쎯	-10.4923
▁utu쎯uce쎯	-10.4924
▁gjq쎯o쎯	-10.4926
▁trf0쎯tkh쎯	-10.4929
▁un쎯	-10.4931
tgm쎯	-10.4934
▁wg쎯jjjj0쎯rmhj쎯	-10.4935
▁sfiq0쎯	-10.4937
▁rua쎯	-10.4937
▁et쎯jg쎯	-10.4938
▁mq쎯kfi쎯	-10.494
lx쎯	-10.494
▁ipw쎯ynt0쎯	-10.4941
▁tx쎯g쎯u쎯og쎯	-10.4943
▁xan쎯	-10.4945
▁vit쎯	-10.4949
▁tfqp쎯et쎯	-10.495
▁lk쎯gkip0쎯	-10.4951
▁ywwf0쎯	-10.4953
▁yni1쎯fqp쎯	-10.4954
▁ymhj0쎯n쎯	-10.4957
▁teg1쎯	-10.496
fuk쎯	-10.4961
▁rdj쎯qk쎯	-10.4963
adwr0쎯fjg0쎯	-10.4965
▁tx쎯gg쎯	-10.4967
:	-10.4968
▁bm쎯tmd쎯	-10.497
▁oge쎯fhl쎯	-10.497
gtu쎯	-10.4973
▁rk쎯	-10.4977
▁wc쎯pv쎯nnk쎯	-10.4978
▁rbcc쎯	-10.4985
yr쎯	-10.4985
▁ai쎯ux쎯uk쎯	-10.4986
▁ymhj0쎯k쎯ny쎯	-10.4991
fhg1쎯	-10.4994
▁uq쎯cyi쎯	-10.4998
▁qnnk2쎯ou쎯	-10.5003
▁tmo쎯fcp쎯wf쎯	-10.5004
yygt쎯ytyh쎯ymhj0쎯	-10.5005
▁qc쎯icf쎯	-10.5007
▁fc쎯wfy0쎯	-10.5014
drt쎯	-10.5014
▁tmd쎯ym쎯	-10.5016
▁ivfh1쎯	-10.5018
▁jx쎯je쎯	-10.5021
▁klk쎯kdj쎯	-10.5024
▁jb쎯wqa쎯	-10.5026
▁imkf1쎯nnh쎯	-10.5029
▁bde쎯rg쎯	-10.5034
▁begg쎯	-10.5034
▁gtu쎯dq쎯mq쎯	-10.5037
▁rvk쎯bmg쎯	-10.5039
▁zzy0쎯	-10.5042
da쎯	-10.5042
gss쎯	-10.5044
▁ige쎯fje쎯	-10.5048
▁uqwn2쎯	-10.5053
▁lk쎯jel쎯	-10.5054
▁wyn쎯	-10.5055
▁vk쎯gh쎯	-10.5056
▁쎇쎃	-10.5056
▁lgm쎯	-10.5056
pl쎯fcl쎯saj0쎯aib쎯	-10.5061
waye쎯	-10.5065
▁pnt쎯av쎯	-10.5066
▁wsg0쎯tgj쎯	-10.5068
▁lqp쎯lkb쎯	-10.507
ec쎯	-10.507
▁ys쎯	-10.5076
qnu1쎯	-10.5083
▁gqjo0쎯fghg쎯	-10.509
▁g쎯thg1쎯	-10.5091
dcg쎯	-10.5093
geh0쎯	-10.5093
▁ogbn0쎯	-10.5097
imj쎯	-10.5097
▁hv쎯hg쎯	-10.5101
▁ghd1쎯j쎯	-10.5102
mmm쎯aq쎯	-10.5105
jv쎯	-10.5111
▁#	-10.5113
▁dg쎯qe쎯	-10.5114
aft쎯	-10.5115
▁xat0쎯	-10.5115
▁qgh쎯	-10.5115
▁rytp1쎯yge쎯	-10.512
▁ahnh2쎯	-10.5124
▁jb쎯rp쎯	-10.5124
bip쎯	-10.5135
▁kd쎯tjh쎯	-10.5136
u쎯kkk쎯	-10.5138
▁saj0쎯trf0쎯	-10.5139
▁xan쎯nu쎯	-10.5141
▁doq쎯	-10.5144
agnt0쎯	-10.5146
▁rj쎯bc쎯	-10.5147
▁es쎯wys쎯	-10.5148
▁tjf0쎯kfi쎯	-10.5153
lfof3쎯	-10.5155
▁rfw쎯	-10.5156
▁쎆쎁	-10.5158
epv0쎯	-10.5169
ffuk쎯	-10.517
▁fu쎯u쎯	-10.5171
▁tjs쎯	-10.5179
▁ygu쎯pj쎯	-10.5182
gcft0쎯	-10.5186
▁em쎯efw쎯	-10.519
▁xyx쎯	-10.5192
▁djdn3쎯	-10.5195
▁kt쎯	-10.5195
▁uwyc2쎯fcb쎯	-10.5201
mga쎯	-10.5207
▁ipkm1쎯	-10.5207
▁ew쎯	-10.5212
▁k쎯ih쎯ip쎯	-10.5213
▁bd쎯lw쎯	-10.5217
▁wuh0쎯	-10.5219
▁쎈쎉	-10.5219
▁fhn쎯hko쎯	-10.522
▁sj쎯yqj쎯	-10.522
▁uqv쎯wx쎯	-10.5224
▁ubk1쎯uqt쎯	-10.5227
▁dy쎯gu쎯iu쎯	-10.5227
▁xyc쎯	-10.5228
jvk쎯	-10.5229
ytm쎯	-10.523
▁nge쎯rb쎯	-10.5235
▁nnk쎯uk쎯	-10.5235
▁rufh1쎯qu쎯	-10.5237
▁ige쎯rvyo쎯	-10.5242
▁cm쎯wynn3쎯	-10.5246
▁f쎯u쎯	-10.5249
do쎯	-10.5251
▁yft쎯qq쎯	-10.5253
▁tu쎯uo쎯	-10.5255
▁ic쎯pb쎯	-10.5255
▁xk쎯ymf쎯	-10.5258
synw쎯	-10.5258
▁ytey0쎯tf쎯	-10.5258
▁wv쎯ybf0쎯	-10.5262
nny1쎯	-10.5264
▁wwx쎯ybt쎯	-10.5266
▁iytb0쎯pt쎯	-10.527
▁sghg1쎯fm쎯uk쎯	-10.5272
▁쎉쎂	-10.5273
▁fhn쎯idr쎯	-10.5274
▁sh쎯xx쎯	-10.5276
ukd1쎯	-10.528
wy	-10.5285
▁wtl쎯pd쎯	-10.529
▁sfhg쎯	-10.5292
▁jcm쎯	-10.5296
ir쎯	-10.5297
▁vnu1쎯sfi쎯	-10.5313
fu쎯	-10.5317
▁fgh쎯ag쎯	-10.532
▁ert쎯	-10.532
yynw1쎯	-10.532
▁lk쎯nnw쎯	-10.5321
▁rufh1쎯	-10.5321
▁dyt쎯tr쎯	-10.5325
▁wgen1쎯	-10.5326
mmm쎯ymhj0쎯	-10.5328
▁k쎯ih쎯whf0쎯og쎯	-10.5328
▁iyj쎯	-10.5335
▁pwd쎯qd쎯	-10.5339
▁wy쎯gkim1쎯	-10.5341
▁mqq쎯dc쎯	-10.5343
rc쎯	-10.5343
▁uda쎯naj0쎯	-10.5349
mqq쎯xtk쎯	-10.535
kjj쎯	-10.535
▁ktm쎯yid쎯	-10.5353
▁g쎯wa쎯	-10.5356
▁ge쎯uje쎯	-10.5362
y1쎯	-10.5364
▁wfn쎯dd쎯	-10.5366
▁mh쎯hx쎯	-10.537
▁ex쎯	-10.5375
▁jn쎯fcl쎯	-10.5375
▁mmm쎯f쎯	-10.5376
fpm쎯	-10.5378
▁ftg쎯synw쎯	-10.5381
▁iq쎯ime쎯	-10.5384
qr쎯kht쎯	-10.5385
▁cnh쎯sghg1쎯	-10.5388
▁cf쎯yid쎯	-10.5389
▁fpo쎯	-10.5397
▁awx쎯tg쎯	-10.5397
▁tw쎯	-10.5397
▁ym쎯ftg쎯	-10.5398
▁ugdu쎯cm쎯	-10.5399
▁dcg쎯udi0쎯	-10.5403
▁tt쎯qk쎯	-10.5404
▁itm쎯uyh쎯	-10.5406
▁yww쎯ait쎯	-10.5408
▁sk쎯ep쎯	-10.541
▁alp쎯	-10.5423
▁pfq쎯	-10.5425
▁tg쎯jjjj0쎯	-10.5425
▁ig쎯	-10.5426
bct쎯	-10.5427
ldj쎯	-10.5429
ia쎯egc쎯	-10.5429
▁uth쎯nm쎯	-10.5431
▁ffh0쎯	-10.5432
▁ktm쎯	-10.5432
▁itk쎯bj쎯	-10.5434
ql쎯	-10.5434
▁qdm쎯eaj쎯	-10.5436
▁wn쎯	-10.5441
wbb0쎯	-10.5442
▁y쎯fcl쎯	-10.5443
▁bm쎯qc쎯	-10.5445
▁tg쎯idf1쎯	-10.5448
▁tfkf0쎯	-10.5452
▁psu0쎯wa쎯	-10.5452
▁pynn0쎯kkk쎯	-10.5452
twt쎯	-10.5453
▁w쎯vtk쎯	-10.5453
afd1쎯	-10.5454
em쎯	-10.5459
oyv쎯	-10.5462
▁ijl쎯fnm쎯	-10.5463
▁pyj쎯ytd쎯	-10.5464
▁qaj0쎯ykg0쎯	-10.5467
▁rmay쎯	-10.5469
▁zzzy32쎯	-10.547
▁hxx쎯qc쎯	-10.5472
▁utem1쎯	-10.5472
rf쎯	-10.5473
▁l쎯gl쎯	-10.5473
▁wfny0쎯uxhp쎯	-10.5474
qkqp0쎯	-10.5478
▁pwat0쎯fha쎯	-10.5479
▁wt쎯tr쎯	-10.5485
▁쎉쎄	-10.5486
▁oanw쎯	-10.5488
db쎯	-10.5501
dhc쎯	-10.5503
▁iawn0쎯kkkk1쎯	-10.551
mqc쎯	-10.5515
▁uwa쎯uyh쎯	-10.5516
▁dwf쎯fmud쎯	-10.5521
▁yygy쎯bu쎯	-10.5521
gwy1쎯	-10.5523
▁f쎯wdm쎯	-10.5525
▁cm쎯hko쎯	-10.5526
▁sgjq쎯	-10.5528
▁sdm쎯umd1쎯	-10.5528
▁dd쎯tffh1쎯	-10.5529
sfg쎯	-10.553
▁dwg쎯	-10.5531
▁ght쎯ick쎯uk쎯	-10.5537
▁kkkk1쎯kfi쎯	-10.5546
▁wwj쎯st쎯	-10.5548
▁uqt쎯	-10.5549
▁qejy쎯rajd쎯	-10.555
b0쎯	-10.555
ul쎯	-10.5551
▁sc쎯tjh쎯	-10.5551
yaa쎯	-10.5554
▁dcg쎯	-10.5557
▁uw쎯	-10.5559
▁ps쎯dht쎯	-10.556
▁xpw쎯	-10.556
▁ygk쎯ujf0쎯	-10.5569
▁epw쎯	-10.5572
fha쎯	-10.5574
▁k쎯dr쎯	-10.5574
di쎯	-10.5574
▁txgi5쎯gqf쎯	-10.5575
▁hxw쎯	-10.5579
▁ukn쎯fay쎯	-10.5579
▁bqn쎯bb쎯	-10.558
▁rmhj쎯ax쎯	-10.5582
▁ylf0쎯u쎯	-10.5587
▁fhfk1쎯	-10.5588
▁rp쎯wa쎯	-10.5589
▁lwj쎯dm쎯	-10.5591
▁etn쎯gcf쎯	-10.5591
▁v쎯udp쎯	-10.5591
▁gk쎯yop쎯	-10.5596
▁vck쎯vfhp1쎯gf쎯	-10.5596
▁isk쎯iyc쎯	-10.5603
▁wxf쎯ux쎯	-10.5606
▁kht쎯xg쎯	-10.561
rr쎯	-10.561
wnh쎯	-10.5613
▁opw쎯	-10.5613
▁tmd쎯h쎯	-10.5616
▁up쎯l쎯	-10.562
xvk쎯	-10.5622
dq쎯adwr0쎯	-10.5626
▁ddg1쎯	-10.5628
▁y쎯lt쎯	-10.5631
▁l쎯ggg0쎯	-10.5633
▁zzj0쎯	-10.5639
▁dc쎯	-10.5641
▁yaf쎯	-10.5642
▁lqj쎯	-10.5646
▁apk쎯tfkp0쎯	-10.5648
aeu쎯	-10.5649
▁gv쎯bb쎯	-10.5649
▁xmw쎯oy쎯	-10.5649
nnw쎯	-10.565
▁fnh쎯	-10.565
▁ukh쎯fmk쎯	-10.5652
▁if쎯rmhj쎯	-10.5652
▁jlc쎯	-10.5655
▁oge쎯ugdu쎯	-10.5655
▁tqd쎯	-10.5658
▁tey0쎯	-10.5658
▁toc쎯yt쎯	-10.5659
▁wgk쎯if쎯	-10.566
▁fcu1쎯an쎯	-10.5661
▁a쎯wt쎯pgc쎯	-10.5664
▁ukn쎯j쎯	-10.5665
▁dd쎯dd쎯	-10.5665
▁mq쎯nge쎯	-10.5668
▁uqyl쎯	-10.567
▁rdc쎯	-10.5671
▁ll쎯ntg쎯	-10.5672
▁gmap쎯	-10.5672
▁mc쎯mrg0쎯	-10.5674
▁sf쎯yfd쎯	-10.5676
▁ijlc쎯	-10.5676
▁mf쎯pgk쎯	-10.5678
▁쎃dnv0쎯	-10.568
▁pei쎯u쎯kkk쎯	-10.5681
▁iwe쎯	-10.5687
udng0쎯	-10.5691
▁tjtl쎯gfi쎯	-10.5692
▁쎁쎄쎀	-10.5693
▁cexo0쎯	-10.5694
▁pn쎯yy쎯	-10.5694
▁aah0쎯	-10.5696
bv쎯	-10.5697
▁oja쎯v쎯	-10.5698
▁fhl쎯og쎯	-10.5701
inx쎯	-10.5703
▁jtyl쎯tp쎯	-10.5708
hid쎯	-10.5711
▁qjn쎯	-10.5712
▁djb쎯ya쎯	-10.5713
▁ywfw0쎯	-10.5717
▁rvk쎯tg쎯	-10.5717
▁wtfm1쎯	-10.5718
▁pyuf0쎯	-10.5718
tfkf0쎯	-10.5718
▁lkb쎯	-10.5718
▁xyc쎯ick쎯	-10.5721
utem1쎯	-10.5724
▁ggi쎯ab쎯	-10.5731
yssc0쎯	-10.5741
akgl쎯	-10.5751
▁ybf0쎯	-10.5752
nty0쎯	-10.5753
▁iq쎯icf쎯	-10.5755
fhq쎯	-10.5756
▁tuk쎯nh쎯	-10.5757
▁fj쎯bc쎯	-10.5758
▁iry쎯	-10.5761
▁sd쎯	-10.5761
▁wvl쎯	-10.5764
▁uq쎯lwj쎯	-10.5764
▁tuk쎯tl쎯	-10.5765
ynj쎯	-10.5766
▁dl쎯wa쎯	-10.577
▁txe쎯ynt0쎯	-10.578
▁ivs쎯	-10.578
▁etj쎯uk쎯	-10.5781
▁aj쎯wv쎯	-10.5785
▁jb쎯ih쎯	-10.5785
▁ntk쎯ntg쎯	-10.5792
▁lx쎯	-10.5793
▁cm쎯iq쎯	-10.5793
▁wfhg0쎯tj쎯	-10.5799
ysi쎯	-10.5801
▁usr쎯iw쎯	-10.5804
▁khgp0쎯wfny0쎯	-10.5806
▁쎁쎆쎀쎀	-10.5809
toc쎯	-10.581
▁iex쎯	-10.581
ps쎯egc쎯	-10.5814
ukh쎯	-10.5815
▁쎆쎇	-10.5817
oa쎯	-10.582
egl쎯	-10.5821
▁scf쎯uu쎯	-10.5822
▁pwu0쎯	-10.5823
vnu1쎯	-10.5824
▁inro쎯	-10.5824
▁xuj쎯ntg쎯	-10.5824
▁faw쎯	-10.5824
iff1쎯	-10.5825
▁tfqp쎯rt쎯	-10.5826
ggn쎯	-10.5827
▁xtdp1쎯	-10.5831
adm쎯	-10.5833
mhr쎯	-10.5836
▁ga쎯ii쎯	-10.5836
▁cq쎯ytf쎯	-10.5839
▁ufw쎯	-10.5839
ve쎯	-10.5843
▁yyq쎯	-10.5844
▁pj쎯	-10.5845
tg쎯tr쎯	-10.5847
hao쎯	-10.5851
ydjn1쎯	-10.5851
▁irr쎯	-10.5854
mqj쎯	-10.5856
▁atd쎯ip쎯bpf쎯	-10.5858
aqky1쎯	-10.5858
▁ue쎯tyg쎯	-10.5861
▁lft쎯tv쎯	-10.5863
mgu쎯	-10.5865
▁xeg0쎯dn쎯uk쎯wv쎯	-10.5865
▁ga쎯wbj쎯	-10.5875
gkh0쎯	-10.5875
▁iy쎯ty쎯	-10.5875
▁dl쎯x쎯	-10.5876
▁wsg0쎯ta쎯	-10.5878
▁rtb쎯	-10.5879
▁uy쎯fgh쎯	-10.588
▁ca쎯ma쎯	-10.5884
▁pa쎯ya쎯	-10.5885
▁et쎯f쎯	-10.5885
qjq쎯	-10.5889
▁qq쎯it쎯	-10.59
▁tr쎯tkh쎯	-10.59
▁ta쎯pv쎯	-10.5901
mfky쎯	-10.5902
▁lfn쎯yo쎯	-10.591
▁wye쎯tfkd쎯	-10.5914
▁sm쎯ysi쎯	-10.5915
▁ymc쎯pg쎯	-10.5921
▁yx쎯tfq쎯	-10.5923
▁puh쎯yc쎯	-10.5924
▁a쎯anb0쎯ugdu쎯sy쎯	-10.5924
▁rh쎯u쎯	-10.5925
im쎯	-10.5926
▁ipw쎯djb쎯	-10.5928
▁ykw쎯	-10.5929
▁gah쎯ufy쎯	-10.5929
▁xl쎯alt쎯	-10.593
▁pgj쎯dmh0쎯	-10.5931
▁pta쎯	-10.5931
▁fq쎯qjq쎯	-10.5931
▁rvyo쎯ep쎯	-10.5931
▁wk쎯wht쎯	-10.5932
▁rrp쎯an쎯	-10.5932
▁h쎯uk쎯	-10.5932
ujff쎯	-10.5938
▁tg쎯u쎯ce쎯lt쎯	-10.594
▁wda쎯	-10.5941
▁lk쎯c쎯	-10.5941
▁iie쎯bwt쎯	-10.5944
▁dn쎯gajf0쎯	-10.5947
▁dr쎯e쎯	-10.5947
▁usr쎯qgu쎯	-10.5951
rdj쎯	-10.5952
▁tx쎯uy쎯	-10.5955
▁qdt쎯tfkp0쎯	-10.5958
▁nywf1쎯	-10.5963
ldd0쎯	-10.5963
xjk쎯	-10.5963
▁fgh쎯mt쎯	-10.5964
▁ts쎯wgq쎯	-10.5965
▁쎁쎉쎂쎇	-10.5968
▁ym쎯tffu쎯ip쎯suq쎯	-10.5971
▁mmgd0쎯	-10.5976
▁lh쎯mfk쎯	-10.5977
▁wgj쎯gf쎯	-10.5981
op쎯	-10.5988
bwf쎯	-10.5989
▁bwf쎯wrh1쎯	-10.5993
▁dd쎯sov쎯	-10.5994
▁aw쎯u쎯ipk쎯km쎯	-10.5994
▁wyl쎯	-10.5995
▁mwy0쎯	-10.6008
▁ftg쎯han쎯	-10.6009
▁xtu쎯umd1쎯	-10.601
▁ynv쎯	-10.6011
▁mw쎯ibi쎯	-10.6014
▁gx쎯sh쎯	-10.6015
▁wsg0쎯mw쎯	-10.6019
▁sad쎯	-10.6019
▁jhnr쎯qie쎯	-10.6025
▁h쎯tak쎯	-10.6025
dfi쎯	-10.6025
w쎯n쎯ght쎯ywf쎯	-10.6027
pwr쎯	-10.6028
▁u쎯sc쎯	-10.6029
un쎯	-10.6035
▁pp쎯h쎯	-10.6038
▁cw쎯c쎯	-10.6038
▁rw쎯mty1쎯	-10.604
▁fnrt쎯f쎯	-10.6046
▁kkkk1쎯tca쎯	-10.6048
▁tdj쎯	-10.605
ssn쎯	-10.6051
▁de쎯shi쎯	-10.6051
▁xf쎯jjj0쎯	-10.6053
iqny쎯	-10.6055
▁ii쎯k쎯	-10.6056
▁trt쎯	-10.6056
▁ldd0쎯wsg0쎯	-10.6062
쎁쎀쎀	-10.6062
▁bm쎯v쎯	-10.6063
▁nmh쎯	-10.6069
▁rnw쎯lfnh쎯	-10.6069
▁gh쎯dm쎯	-10.6071
▁bib쎯rep쎯	-10.6075
▁g쎯gd쎯	-10.6076
▁maw쎯	-10.608
rhj쎯	-10.6082
▁bv쎯	-10.6082
▁bwj쎯	-10.6085
▁rcp쎯	-10.6087
▁쎈쎃	-10.6088
▁pvs쎯	-10.6088
▁bpf쎯fghg쎯	-10.6091
▁ght쎯if쎯	-10.6092
▁dgt1쎯ta쎯	-10.6095
i0쎯	-10.6097
dwt쎯	-10.6098
▁pdc쎯	-10.6099
▁deb쎯	-10.61
▁pwl쎯	-10.6102
▁쎆쎀쎀쎀	-10.6104
▁zzsx34쎯	-10.6106
▁aet1쎯rvyo쎯	-10.6109
▁aqq쎯ugdu쎯	-10.6111
▁|	-10.6111
▁iie쎯thn쎯	-10.6115
▁itx쎯mw쎯qh쎯	-10.6119
▁gaj쎯	-10.612
▁pu	-10.6121
▁dfy쎯xpw쎯	-10.6122
▁ifh1쎯	-10.6129
nhj쎯	-10.6133
▁qq쎯rh쎯tg쎯	-10.6136
▁itp쎯	-10.6136
▁uxh쎯bb쎯	-10.6139
▁hgm쎯	-10.6139
bwg쎯	-10.6139
sgx쎯	-10.6143
▁ai쎯wycb쎯	-10.6143
▁iej쎯	-10.6144
▁yynw1쎯nnh쎯	-10.6145
▁dyt쎯u쎯	-10.6145
tu쎯rfc쎯dd쎯ip쎯	-10.6147
▁yxl쎯trt쎯	-10.6147
▁vcb쎯uqf쎯	-10.6149
rpws쎯	-10.6151
▁ccc쎯j쎯	-10.6155
▁txgi5쎯aps쎯	-10.616
▁xten1쎯	-10.6163
▁aeu쎯	-10.6163
▁tjf0쎯avd쎯	-10.6167
wgq쎯	-10.6169
wcn0쎯	-10.617
▁tvfh0쎯	-10.617
▁ny쎯vo쎯	-10.617
wwwk0쎯	-10.6175
▁cds쎯	-10.6177
▁lkmi0쎯syg쎯	-10.6182
▁imk쎯itx쎯	-10.6183
▁ypt쎯tak쎯	-10.6183
▁쎁쎉쎂쎈	-10.6185
▁wfny0쎯bd쎯	-10.6188
uxe쎯	-10.6189
▁tg쎯gqf쎯	-10.619
▁tu쎯xe쎯	-10.6191
▁ipk쎯xeg0쎯xkw쎯	-10.6192
▁auq쎯	-10.6194
▁쎁쎈쎄	-10.6195
▁oa쎯dyt쎯	-10.6198
▁fhw쎯pw쎯	-10.6199
▁qgu쎯je쎯	-10.62
saj0쎯	-10.6202
▁kqy쎯	-10.6204
qnr쎯	-10.621
▁wgkb0쎯fcp쎯	-10.6215
▁it쎯jg쎯	-10.6216
▁by쎯ii쎯	-10.6223
▁쎁쎀dnv0쎯	-10.6226
w쎯n쎯wa쎯ge쎯dd쎯wf쎯	-10.6228
▁ajj0쎯dr쎯	-10.623
b쎯	-10.6235
▁dd쎯qq쎯	-10.6245
▁yy쎯yyy쎯	-10.6249
rgv쎯	-10.6249
▁ipe쎯ya쎯	-10.6251
wmg1쎯	-10.6253
▁et쎯wt쎯	-10.626
▁ssg쎯thn쎯	-10.6263
▁ssss0쎯cn쎯	-10.6266
▁sh쎯wfny0쎯	-10.6267
▁oge쎯iad쎯	-10.627
▁dd쎯gf쎯	-10.6271
dyw쎯	-10.6271
▁tmgk2쎯	-10.6274
▁kjq쎯	-10.6274
▁ooo쎯mmm쎯	-10.6284
▁oge쎯tfqp쎯	-10.6291
jqb쎯	-10.6292
▁itd쎯khtd2쎯	-10.6292
▁x쎯iyj쎯uqt쎯uwl쎯	-10.6293
jgg0쎯	-10.6294
▁ru쎯sgh쎯	-10.6296
drin0쎯	-10.6297
▁ynm쎯dmh0쎯	-10.6298
nywf1쎯	-10.6299
wgc쎯	-10.6299
▁lw쎯wc쎯ds쎯	-10.6299
▁xl쎯eaf쎯	-10.63
▁tev쎯	-10.63
▁hx쎯rg쎯	-10.6307
▁pww쎯kkd쎯	-10.6307
puw쎯	-10.6308
pgj쎯	-10.6314
nx쎯gog쎯	-10.6315
gkm쎯	-10.6317
▁sw쎯	-10.6318
▁ral쎯pgn쎯	-10.6321
▁de쎯alq쎯hhy0쎯	-10.6323
▁쎉쎃	-10.633
qqk쎯	-10.6331
▁uoo쎯	-10.6331
▁rnr쎯ytyh쎯	-10.6333
▁tjt쎯rmhj쎯	-10.6336
▁ftbt쎯xan쎯	-10.6337
vyi0쎯	-10.634
▁nng쎯	-10.6346
▁fgh쎯wffg쎯	-10.6348
▁zzjp86쎯	-10.6348
yam쎯	-10.635
▁rt쎯a쎯	-10.635
▁쎇쎉	-10.635
▁ub쎯qk쎯	-10.6351
▁rcp쎯lkd쎯	-10.6355
▁rtt0쎯	-10.6359
▁rhk0쎯mww쎯	-10.6361
▁wtp쎯tca쎯	-10.6366
ymc쎯yf쎯	-10.6367
▁tjf0쎯img쎯	-10.637
▁by쎯trh0쎯	-10.6374
▁jgm쎯ww쎯	-10.6376
▁iq쎯tel쎯	-10.6389
▁ggw쎯	-10.6389
hxx쎯	-10.6392
▁dfek쎯	-10.6397
▁ipf쎯	-10.6398
ytb쎯	-10.6398
t0쎯	-10.6399
▁qdb쎯pd쎯	-10.6409
ians0쎯	-10.6411
▁fhn쎯yq쎯	-10.6412
▁pye쎯tdij0쎯	-10.6413
▁yne쎯ovt쎯	-10.6416
▁iat1쎯	-10.6416
▁wfy0쎯	-10.6418
▁rg쎯bg쎯	-10.6418
cccs3쎯	-10.6421
▁qqc쎯	-10.6423
▁ipe쎯deb쎯	-10.6429
▁g쎯dj쎯	-10.6433
po쎯	-10.6433
▁hka쎯l쎯	-10.6435
▁rnc쎯	-10.6436
ifk0쎯	-10.6437
4쎯	-10.6437
▁xyna1쎯aft쎯	-10.6439
▁lt쎯fiy쎯	-10.6442
▁do쎯qc쎯	-10.6442
▁nf쎯tm쎯	-10.6443
▁wdn쎯naj0쎯	-10.6443
▁pg쎯hko쎯	-10.645
yw쎯	-10.6451
▁rtol0쎯	-10.6451
▁pww쎯tkw쎯	-10.6451
▁fof쎯	-10.6451
kr쎯	-10.6453
gk	-10.6456
▁qt	-10.6456
▁ynnu쎯	-10.6459
▁y쎯w쎯	-10.6465
xm쎯	-10.6466
▁vfhp1쎯tam쎯tr쎯	-10.6466
▁tqt쎯	-10.6469
▁rgm쎯	-10.647
▁ggg0쎯fje쎯	-10.6471
▁xnh쎯qaj0쎯	-10.6473
▁saj0쎯aib쎯	-10.6478
▁fw쎯w쎯	-10.6478
▁xe쎯klj쎯	-10.648
▁bu쎯wgk쎯l쎯	-10.6485
xh쎯	-10.6488
▁f쎯fakg0쎯	-10.6492
▁tj쎯c쎯	-10.6494
▁sfiu1쎯	-10.6497
▁ymf쎯ty쎯	-10.6498
▁qk쎯thgf1쎯	-10.6498
▁쎃쎅쎀	-10.65
▁afs쎯tkh쎯	-10.6501
▁fhw쎯ydn쎯	-10.6503
▁itx쎯fm쎯ith쎯	-10.6503
▁dd쎯uyh쎯	-10.6503
▁mp쎯	-10.6504
gu쎯egc쎯	-10.6507
▁san쎯	-10.6508
fiyt쎯	-10.6508
▁gv쎯	-10.6512
a쎯og쎯	-10.6513
qge쎯	-10.6514
▁gq쎯ty쎯	-10.6515
tuj0쎯	-10.6517
▁tr쎯wsg0쎯	-10.6517
▁lkc쎯ckq쎯	-10.6518
▁it쎯ovt쎯	-10.652
▁yne쎯qh쎯	-10.6521
epw쎯	-10.6523
▁쎆dnv0쎯	-10.6523
▁ftbt쎯yce쎯ds쎯	-10.6524
▁sh쎯yneg0쎯	-10.6524
▁vnu1쎯	-10.6525
▁jc쎯wycb쎯	-10.6533
▁cbq쎯	-10.6535
▁sc쎯uwl쎯	-10.6536
rnd1쎯	-10.6538
▁if쎯bpf쎯	-10.6543
mmm쎯qfhw1쎯	-10.6543
▁qgf쎯od쎯	-10.6544
▁vp쎯	-10.6549
▁쎈쎇	-10.6553
▁pg쎯rmhj쎯	-10.6554
▁rfq쎯	-10.6562
▁jgm쎯aib쎯	-10.6562
▁mty1쎯	-10.6563
lftj쎯	-10.6568
▁c쎯qh쎯	-10.6575
▁jn쎯du쎯	-10.6575
▁rb쎯aqky1쎯	-10.6583
udb쎯	-10.6583
▁ugdu쎯kfi쎯	-10.6584
tn쎯	-10.6584
▁ulk3쎯	-10.6584
▁wyp쎯lg쎯fnrt쎯	-10.6587
▁fwyc2쎯wyk쎯	-10.6588
▁thfn쎯su쎯	-10.659
vnx쎯	-10.6591
▁txi쎯ovt쎯	-10.6592
▁gm쎯udy쎯	-10.6595
▁sks쎯	-10.6597
▁pu쎯jf쎯	-10.6601
ddu1쎯	-10.6608
▁vq쎯	-10.6614
tv쎯wf쎯	-10.6614
▁tri쎯	-10.6614
ih쎯yu쎯	-10.6615
▁ryl쎯	-10.6616
▁h쎯syp쎯	-10.6619
▁iq쎯jn쎯	-10.6619
▁ndj쎯nge쎯	-10.6624
▁n쎯wwwk0쎯	-10.6627
ggi쎯fuj쎯wk쎯ryn1쎯	-10.6629
l쎯bf쎯	-10.6632
▁jh쎯rh쎯	-10.6634
▁ubk1쎯if쎯	-10.6641
▁ipr쎯	-10.6641
▁qevj쎯	-10.6645
▁pym쎯qe쎯	-10.6647
▁ryc쎯	-10.6648
▁uvh쎯	-10.665
▁aak쎯	-10.6652
▁쎁쎀쎅	-10.6653
gogn0쎯	-10.6658
▁uxxn0쎯	-10.6667
▁gyiy쎯	-10.6669
▁fgi쎯	-10.6679
▁ma쎯xg쎯	-10.6681
▁qdb쎯sm쎯	-10.6685
▁nf쎯xuj쎯	-10.6685
▁sg쎯w쎯	-10.6699
▁gkp쎯fcl쎯	-10.67
▁gb쎯	-10.6702
▁쎆쎉	-10.6703
tv쎯km쎯wf쎯	-10.6706
▁wx쎯dgtg0쎯	-10.6709
▁u쎯gf쎯	-10.671
▁qsu쎯pd쎯	-10.6714
▁ai쎯apfq쎯	-10.6721
▁ftbt쎯dga쎯	-10.6726
▁vcb쎯wgkq0쎯	-10.6727
▁hx쎯jf쎯	-10.6728
▁fym쎯	-10.6732
▁wbb0쎯	-10.6734
▁dgty쎯	-10.674
ito쎯	-10.6742
▁qkm쎯oyn쎯	-10.6752
fjfh1쎯	-10.6752
▁tu쎯pgc쎯	-10.6753
uyiy0쎯	-10.6753
▁tjh쎯iugg0쎯	-10.6754
▁jlx쎯ytn쎯	-10.6754
▁x쎯iyj쎯jgm쎯	-10.6754
▁kgn쎯dcg쎯	-10.6756
▁gki쎯	-10.6761
▁nwy쎯	-10.6762
▁edjn쎯	-10.6764
▁쎈쎁	-10.6767
▁yps쎯	-10.6775
ad	-10.6776
▁xfm쎯pwat0쎯	-10.6777
▁maw쎯ahty0쎯	-10.678
▁kkhn쎯	-10.6785
▁wxf쎯k쎯	-10.6786
ywwg2쎯	-10.6788
▁riq쎯	-10.6791
▁rmhj쎯uwyc2쎯	-10.6794
쎃쎀쎀	-10.6795
▁ep쎯l쎯	-10.68
▁dyt쎯mmm쎯	-10.6802
qtyd0쎯	-10.6804
▁wg쎯tmd쎯	-10.6804
▁awx쎯shi쎯	-10.681
▁qmk쎯	-10.6811
▁ftbt쎯tv쎯	-10.6811
wc쎯py쎯	-10.6812
uqsg쎯	-10.6812
쎈쎀쎀	-10.6812
▁wv쎯qev쎯	-10.6813
▁ifj쎯iyc쎯	-10.682
▁fakg0쎯	-10.682
ubk1쎯	-10.6825
▁we쎯qd쎯	-10.6831
▁dy쎯bb쎯	-10.6837
▁mmm쎯fhc쎯	-10.6838
▁dy쎯dr쎯	-10.6841
▁wyq쎯aa쎯	-10.6845
▁fq쎯ovt쎯	-10.6847
▁ii쎯jn쎯	-10.6848
▁tg쎯yce쎯	-10.6849
m0쎯	-10.6849
▁fl쎯wt쎯	-10.6855
pwdj쎯	-10.6856
▁ftl쎯	-10.6857
ru쎯adwr0쎯	-10.6858
etj쎯	-10.6858
ipkr쎯	-10.686
쎅쎀쎀	-10.6864
▁wg쎯an쎯lwj쎯	-10.6867
pyv쎯	-10.6869
▁wx쎯uv쎯kkk쎯	-10.6873
▁ww쎯og쎯	-10.6874
▁dd쎯qq쎯ovt쎯	-10.6876
▁rc쎯cf쎯	-10.6877
▁gmd0쎯fghg쎯	-10.6877
▁mb쎯	-10.6878
▁qtb쎯	-10.6878
▁qh쎯fpm쎯	-10.688
▁v쎯jn쎯	-10.6882
▁ym쎯mmm쎯	-10.6883
▁ta쎯dw쎯	-10.6886
▁puv쎯xe쎯k쎯ip쎯	-10.689
▁zzxx11쎯	-10.6896
▁iie쎯rw쎯	-10.6897
▁ipk쎯tv쎯nnh쎯yn쎯	-10.6898
▁쎁쎉쎀쎀	-10.69
ytn쎯	-10.6909
vc쎯	-10.6912
▁fny0쎯bk쎯	-10.6916
▁xyna1쎯ndj쎯	-10.6917
▁gmww쎯mdfj쎯	-10.6919
▁ghg1쎯	-10.6924
▁he쎯pg쎯	-10.6927
yle쎯	-10.6928
▁rn쎯gcft0쎯	-10.6935
▁rnb쎯thn쎯	-10.6946
▁awnu1쎯	-10.6947
yveh쎯	-10.6954
▁bu쎯dtb쎯	-10.6957
khx쎯	-10.6962
▁ssss0쎯sft쎯	-10.6962
rqc쎯	-10.6964
▁fny0쎯adm쎯	-10.6967
▁oge쎯gcft0쎯	-10.6969
▁ditn1쎯	-10.6971
▁ipmq쎯	-10.6972
▁rvyf0쎯	-10.6973
▁tuk쎯tl쎯nnk쎯	-10.6978
atd쎯ip쎯	-10.698
▁qq쎯fqb0쎯wx쎯	-10.698
▁fm쎯yiu0쎯ymhj0쎯	-10.698
▁jjjj0쎯pl쎯	-10.6981
▁sk쎯j쎯	-10.6984
fyb0쎯	-10.6985
▁rwye1쎯rt쎯	-10.699
▁mw쎯f쎯	-10.6992
▁tg쎯ugv쎯	-10.6996
▁rhj쎯	-10.6996
▁qh쎯uk쎯	-10.6997
▁sgty쎯	-10.6998
▁ipwk0쎯iyw쎯	-10.7
▁qkm쎯mw쎯	-10.7001
mdff3쎯	-10.7009
▁pyj쎯dskf쎯	-10.701
▁gh쎯bt쎯	-10.7011
▁mf쎯u쎯	-10.7015
fcr쎯	-10.7017
▁whf0쎯	-10.7022
▁iv쎯wynb0쎯	-10.7022
▁ftbt쎯ip쎯sov쎯	-10.7024
jh쎯	-10.7024
▁jty쎯jf쎯	-10.7027
▁wynb0쎯rh쎯	-10.7028
▁ad쎯qqqq1쎯wf쎯	-10.7029
▁at쎯yfn쎯	-10.703
▁tr쎯uqwm1쎯	-10.7032
▁pye쎯l쎯	-10.7034
▁pu쎯wgq쎯	-10.7035
▁auk쎯abu쎯	-10.7037
▁w쎯uqw쎯	-10.7039
th	-10.704
ifh1쎯	-10.7045
wgj쎯	-10.705
afff2쎯	-10.705
fpo쎯	-10.7053
▁rrr쎯fcu0쎯	-10.7057
fm쎯egc쎯	-10.7057
▁gfi쎯gae쎯	-10.7059
▁qi쎯kkd쎯	-10.7059
▁gcg쎯	-10.706
▁pu쎯bf쎯h쎯	-10.7061
kcb0쎯	-10.7062
▁y쎯tp쎯uk쎯uyh쎯	-10.7063
▁aw쎯gef쎯lft쎯	-10.7069
▁hko쎯fmk쎯	-10.7071
tmc쎯	-10.7072
iy쎯ujf0쎯	-10.7072
▁oyvk1쎯nii0쎯ugm쎯	-10.7074
▁lr쎯	-10.7074
qev쎯toc쎯	-10.7075
ywe쎯	-10.7079
▁wff0쎯	-10.7084
▁wb쎯w쎯	-10.7085
▁bue쎯uthp0쎯	-10.7085
▁wvf0쎯	-10.7092
whn쎯	-10.7092
▁ufg쎯dd쎯	-10.7092
▁yad쎯	-10.7092
▁aqt쎯bc쎯	-10.7093
▁udjh쎯on쎯	-10.7094
▁rum쎯	-10.7095
▁fc쎯uk쎯	-10.7095
▁dpr쎯	-10.7097
▁gmy0쎯	-10.7097
si쎯	-10.71
▁rwb쎯	-10.7103
▁rnt쎯	-10.7105
▁l쎯u쎯	-10.7106
▁aqt쎯l쎯	-10.7107
▁wa쎯fwf쎯	-10.7107
ynjh1쎯	-10.7113
cn쎯go쎯sghg1쎯gog쎯	-10.7118
▁cd쎯mqb쎯	-10.7119
uem쎯	-10.7121
▁pt쎯w쎯	-10.7123
▁pj쎯synw쎯	-10.7131
ej쎯	-10.7136
▁dy쎯bj쎯ce쎯	-10.7138
anb0쎯sy쎯	-10.7144
bq쎯	-10.7145
▁vq쎯vld0쎯	-10.7149
▁cf쎯tq쎯	-10.7149
▁oqdo쎯oat쎯	-10.7153
tcy0쎯	-10.7155
▁iaqg쎯	-10.7157
▁sdm쎯xe쎯	-10.7158
▁fm쎯jj쎯	-10.7172
▁aqky1쎯pwfi0쎯	-10.7173
▁oge쎯wxf쎯	-10.7173
▁uqd2쎯adm쎯	-10.7173
▁dd쎯fw쎯	-10.7176
▁jtg쎯xe쎯	-10.7185
▁쎂쎅쎆	-10.7186
▁inr쎯jghx쎯	-10.7193
▁l쎯bf쎯wx쎯	-10.7195
▁쎇쎇	-10.7195
vit쎯	-10.7198
▁ygu쎯tfqp쎯	-10.7198
▁l쎯uu쎯	-10.7203
jc쎯	-10.7203
▁gh쎯uk쎯	-10.7205
▁ue쎯imk쎯	-10.7205
▁sk쎯mqb쎯	-10.7205
▁it쎯uqf쎯	-10.7213
xyy1쎯	-10.7214
▁sfw쎯	-10.7214
▁utd쎯	-10.7217
▁y쎯xt쎯	-10.7218
▁gm쎯dhb쎯	-10.7219
yfd쎯sf쎯	-10.7222
opf쎯	-10.7223
xfn쎯	-10.7224
▁dl쎯tkgg1쎯	-10.7225
▁awsk쎯	-10.7231
▁i쎯on쎯	-10.7235
▁bg쎯tg쎯uk쎯	-10.7236
▁vs쎯uq쎯	-10.7236
▁so쎯	-10.7237
▁rqa쎯	-10.724
▁----	-10.7243
qaj0쎯	-10.7244
ukk쎯	-10.7244
▁fjf쎯	-10.7248
▁ujt쎯	-10.7255
fpb쎯	-10.7259
▁cn쎯dq쎯ln쎯y쎯yq쎯	-10.726
▁qgbn1쎯	-10.7262
▁hl쎯	-10.7263
▁rqw쎯ipkm1쎯	-10.7264
gkih0쎯	-10.7264
▁og쎯wtu쎯	-10.7265
▁ral쎯xwf쎯	-10.7271
▁dd쎯f쎯	-10.7273
▁whw쎯	-10.7274
dhq쎯	-10.7279
pynk0쎯	-10.7279
▁s쎯gxi쎯	-10.7282
▁kl쎯e쎯	-10.7287
▁tfn쎯icf쎯ai쎯	-10.7289
▁dfa쎯	-10.7289
▁itx쎯mdfj쎯	-10.729
▁vfb쎯wh쎯	-10.7291
sr쎯	-10.7293
▁vynu쎯	-10.7296
ytey0쎯	-10.7299
▁tdp쎯iv쎯	-10.7301
▁ywx쎯syp쎯	-10.7302
wb쎯	-10.7304
▁rpwn0쎯rnbm쎯	-10.7305
▁cccg0쎯	-10.7307
▁nbm쎯	-10.7312
▁cbd쎯tha쎯	-10.7312
▁v쎯sgfb쎯	-10.7313
▁qgj쎯nfp쎯	-10.7315
▁fwm쎯aib쎯wx쎯	-10.7318
▁wdn쎯te쎯uqd2쎯	-10.7318
jjjj0쎯hka쎯qv쎯	-10.7319
▁um쎯fd쎯	-10.7323
fdf1쎯	-10.7325
▁pr쎯	-10.7333
▁tuh0쎯	-10.7341
▁amyn1쎯ndm쎯	-10.7341
▁xtdh0쎯	-10.7342
▁kkfb1쎯	-10.7342
rdfh0쎯	-10.7342
▁og쎯lwj쎯	-10.7344
▁tavn쎯yqa쎯	-10.7345
vs쎯fn쎯	-10.7345
▁et쎯c쎯	-10.7347
▁iyv쎯ijlc쎯	-10.7347
▁am쎯	-10.7348
▁ipkh1쎯ytyh쎯	-10.7351
▁ggi쎯xat0쎯	-10.7352
▁gmiu쎯	-10.7354
▁tfk0쎯dq쎯	-10.7364
▁gmw쎯	-10.7366
▁pg쎯adwe1쎯	-10.7366
▁ght쎯tv쎯	-10.7369
▁ywfw0쎯qnj쎯	-10.7372
▁rcn0쎯rng2쎯	-10.7373
▁bct쎯wys쎯	-10.7378
▁ipkh1쎯fwm쎯	-10.7381
▁fue쎯	-10.7386
▁쎁쎇쎀	-10.739
▁k쎯l쎯gl쎯	-10.739
▁icd쎯tep쎯	-10.7394
▁qtgw1쎯	-10.7396
▁puv쎯xe쎯	-10.7397
▁lh쎯tb쎯	-10.74
▁jfc쎯tg쎯	-10.7402
▁lkd쎯l쎯	-10.7402
mb쎯	-10.7403
▁wty0쎯fgh쎯	-10.7406
▁[	-10.7407
fym쎯	-10.7414
se쎯o쎯	-10.7415
▁xwy0쎯rf쎯	-10.7417
▁iak쎯ivc쎯	-10.7418
▁tfqp쎯iwf쎯	-10.742
▁nnh쎯gl쎯bpf쎯	-10.7422
▁ssk쎯	-10.7427
srm쎯	-10.7428
▁ybv0쎯ton쎯	-10.7429
▁av쎯rq쎯	-10.743
▁iv쎯k쎯	-10.7432
ain쎯	-10.7435
xtdh0쎯	-10.7438
▁tffy0쎯sm쎯	-10.744
▁xxf쎯	-10.744
▁쎃쎆쎀	-10.7442
aqo쎯	-10.7445
▁wa쎯ge쎯ntg쎯	-10.7451
▁tqv쎯pg쎯ntg쎯	-10.7451
▁uqwm1쎯egl쎯	-10.7452
▁tdj쎯ssss0쎯	-10.7457
▁wvm쎯	-10.7457
▁쎁dnv0쎯	-10.746
▁th쎯xe쎯	-10.7462
▁ak쎯j쎯	-10.7464
san쎯	-10.7471
▁qyi0쎯	-10.7472
▁bl쎯	-10.7475
▁dc쎯vb쎯	-10.7478
▁qgb쎯v쎯	-10.748
▁jcu쎯	-10.7489
▁caq쎯	-10.7489
▁trf0쎯xq쎯	-10.7492
▁tqq쎯n쎯	-10.7494
epc쎯	-10.7496
c0쎯	-10.7498
▁qev쎯gxgu쎯	-10.7499
▁w쎯dd쎯wa쎯ge쎯	-10.75
▁rdj쎯ii쎯	-10.75
▁ajdh쎯	-10.7504
▁gmd0쎯maw쎯	-10.7509
▁ucw쎯a쎯	-10.751
▁쎉쎁	-10.7512
▁ukn쎯gj쎯	-10.7513
▁sagg0쎯lks쎯	-10.7523
▁rmc쎯uqwm1쎯ftj쎯	-10.7523
▁yjs쎯ipkf0쎯	-10.7524
toc쎯yq쎯	-10.7526
▁wh쎯ntg쎯wx쎯	-10.7526
▁pu쎯nu쎯	-10.7527
▁pp쎯gh쎯	-10.7528
▁srg쎯	-10.7531
▁ge쎯je쎯	-10.7536
▁uqwl쎯	-10.7537
▁fqb0쎯wrh1쎯	-10.7538
▁em쎯mww쎯	-10.754
▁kq쎯yn쎯	-10.7542
▁ukn쎯nnk쎯	-10.7543
▁lgey2쎯	-10.7543
▁쎁jjjj0쎯	-10.7544
▁wqbh0쎯	-10.7545
rfc쎯	-10.7546
aik쎯	-10.7546
▁vc쎯vc쎯	-10.7547
uge쎯	-10.7548
▁〈	-10.7549
▁tg쎯tr쎯ip쎯	-10.7554
mwwk0쎯	-10.7557
▁sm쎯tmd쎯	-10.757
▁xh쎯wycm1쎯	-10.7573
▁kkkk1쎯dgkn0쎯	-10.7577
▁ek쎯	-10.7578
wmj1쎯	-10.7584
▁ty쎯wgg1쎯	-10.7586
▁he쎯	-10.7587
▁쎇쎁	-10.7589
▁uit쎯	-10.759
▁av쎯thg1쎯	-10.7591
aib쎯	-10.7597
▁thp쎯ta쎯	-10.7598
▁dd쎯ooo쎯	-10.7598
▁gfq쎯hw쎯	-10.7601
▁h쎯iytb0쎯	-10.7602
▁yny0쎯u쎯	-10.7608
▁ith쎯uk쎯xe쎯	-10.7613
dd쎯ipkh1쎯tv쎯wf쎯	-10.7614
▁nt쎯s쎯	-10.7615
▁atg쎯gk쎯	-10.7619
▁fgh쎯vt쎯	-10.7622
▁jhf1쎯bwg쎯	-10.7624
▁〉	-10.7625
▁vcag쎯	-10.7625
▁pn쎯km쎯	-10.7626
aiit쎯	-10.7627
tkw쎯	-10.7631
▁wfg1쎯	-10.7639
▁wc쎯www쎯	-10.7642
▁rh쎯yqa쎯	-10.7645
▁dnv0쎯dl쎯	-10.7647
▁tve쎯nnw쎯	-10.765
▁df쎯	-10.7651
▁rtol0쎯bm쎯	-10.7652
▁ipkh1쎯tv쎯wf쎯	-10.7652
▁bnn2쎯bb쎯	-10.7654
vyv쎯	-10.7655
j1쎯	-10.7657
▁tfqp쎯yce쎯	-10.7658
fqp쎯qie쎯	-10.7658
▁ux쎯psu0쎯	-10.7659
▁py쎯tu쎯	-10.7661
▁vfb쎯jfd쎯	-10.7663
▁sghg1쎯wycb쎯	-10.7666
▁gef쎯itx쎯	-10.7667
▁ykge쎯	-10.7669
▁nh쎯xjm쎯	-10.7669
▁wyp쎯hh쎯	-10.7671
▁dlf0쎯ufk0쎯	-10.7673
▁dd쎯ahn쎯	-10.7674
▁uu쎯vcb쎯	-10.7675
ipw쎯fkh쎯ymhj0쎯	-10.7681
▁e쎯lt쎯	-10.7686
▁uk쎯wrh1쎯	-10.7686
hjj쎯	-10.7688
wx쎯ip쎯	-10.7688
▁v쎯rnbm쎯	-10.7691
▁pj쎯rx쎯	-10.7693
▁rxj쎯fi쎯	-10.7693
▁tfl쎯yce쎯	-10.7694
▁gg쎯qqqq1쎯	-10.7694
▁tl쎯pu쎯	-10.7695
▁bwg쎯	-10.7696
fmud쎯	-10.7696
▁awx쎯adwe1쎯	-10.7698
▁sghg1쎯wmj1쎯	-10.7701
▁rmn0쎯tpi쎯	-10.7704
kk쎯	-10.7707
쎄쎀쎀	-10.7708
▁rt쎯mm쎯	-10.7708
tdj쎯	-10.7711
ssf쎯	-10.7711
▁qfhw1쎯ta쎯	-10.7711
▁jan쎯	-10.7712
fcp쎯fcl쎯	-10.7712
▁g쎯dm쎯	-10.7714
ybb쎯	-10.7714
▁uf쎯mmm쎯aq쎯	-10.7716
tmgk2쎯	-10.7717
▁ugk쎯	-10.772
tfj0쎯	-10.7721
tuh0쎯	-10.7723
tri쎯	-10.7723
nc쎯	-10.7724
▁je쎯fje쎯	-10.7725
yaf쎯	-10.7728
▁kkd쎯sa쎯	-10.7728
▁fm쎯psu0쎯	-10.773
▁qtfj0쎯mww쎯	-10.7731
▁vo쎯fcr쎯	-10.7734
▁adw쎯wtu쎯	-10.7741
▁rry쎯	-10.7742
▁sgj쎯	-10.7743
▁itx쎯h쎯	-10.7744
▁pg쎯ygk쎯	-10.7745
sfhg쎯	-10.7745
▁rmhj쎯tlf0쎯	-10.7745
b1쎯	-10.7748
▁xj쎯d쎯	-10.7752
▁qty2쎯	-10.7752
▁hjs쎯	-10.7753
▁wk쎯ijl쎯	-10.7754
▁gk쎯adm쎯	-10.7759
▁alp쎯awx쎯	-10.7764
yxu쎯	-10.7764
▁imkf1쎯fii쎯	-10.7765
▁쎁쎉쎂쎆	-10.7766
▁thd쎯tf쎯	-10.7767
▁fg쎯tffu쎯uqd2쎯	-10.7776
▁iyv쎯	-10.7777
▁mb쎯wrh1쎯	-10.7781
va쎯	-10.7785
▁khgp0쎯u쎯	-10.7787
▁yox쎯ma쎯	-10.7795
▁lfc쎯	-10.7795
▁uyt1쎯	-10.7795
▁twgi쎯xq쎯	-10.7795
lfod0쎯	-10.7798
▁qkm쎯k쎯	-10.7799
▁fj쎯at쎯	-10.7804
▁yt쎯tmdf1쎯	-10.7807
▁nf쎯tey0쎯	-10.7807
▁qnq쎯ou쎯	-10.7808
▁xng2쎯	-10.7811
▁wygg쎯pwdj쎯	-10.7811
▁wwgj0쎯	-10.7815
▁tm쎯h쎯	-10.7818
▁wxf쎯wtd쎯	-10.7818
sgmk0쎯	-10.7818
eve쎯	-10.782
wh쎯	-10.7821
▁f쎯gae쎯	-10.7821
▁shi쎯	-10.7823
▁rno쎯	-10.7823
aig쎯	-10.7826
▁gw쎯khgm3쎯	-10.783
▁sg쎯tu쎯tg쎯	-10.7831
iyni1쎯	-10.7831
▁k쎯gef쎯rh쎯	-10.7831
wc쎯lfq쎯	-10.7833
▁qdb쎯	-10.7835
▁qnu1쎯	-10.7837
▁sh쎯iv쎯gf쎯	-10.7841
▁wv쎯bb쎯jg쎯	-10.7843
▁adnt1쎯nnh쎯	-10.7843
▁ep쎯vb쎯	-10.7847
▁k쎯sghg1쎯atd쎯xf쎯	-10.7857
▁쎁쎀쎈	-10.7858
▁xh쎯ty쎯	-10.786
▁f쎯rvyl0쎯	-10.7865
▁cwg쎯nh쎯	-10.7865
▁ny쎯eyf쎯	-10.7866
▁rt쎯fcl쎯	-10.7868
▁xkjn1쎯	-10.787
▁rs쎯fmk쎯	-10.7872
▁rawk쎯sgn쎯	-10.7873
uag1쎯	-10.7873
▁iww쎯	-10.7874
▁ip쎯rb쎯	-10.7876
▁isjg쎯	-10.7877
▁xr쎯	-10.7877
▁pw쎯k쎯	-10.7879
▁ujn쎯qh쎯	-10.7881
hwb쎯	-10.7887
▁쎁쎂쎅	-10.7888
hk쎯	-10.7888
hic쎯	-10.789
▁g쎯xg쎯	-10.789
▁eqd쎯	-10.7893
▁gxi쎯e쎯	-10.7894
▁pyg쎯tjh쎯	-10.7895
▁idl쎯	-10.7898
▁usgp1쎯trfh1쎯	-10.7899
▁dga쎯yfy2쎯wf쎯	-10.7899
lkm쎯	-10.7901
▁ii쎯u쎯	-10.7904
▁sgy쎯	-10.7909
▁jjjj0쎯rb쎯	-10.791
▁ifw쎯lt쎯	-10.7915
▁gk쎯tl쎯rn쎯	-10.792
▁wf쎯yyq쎯pgc쎯	-10.7921
▁txt쎯	-10.7926
▁y쎯iyc쎯	-10.7927
▁wv쎯aet1쎯	-10.7934
tjs쎯	-10.7934
▁g쎯cf쎯	-10.7935
▁jjjj0쎯uwl쎯	-10.7936
▁m쎯od쎯	-10.7939
▁ux쎯xfnh쎯	-10.7943
▁xl쎯ab쎯	-10.7943
▁ue쎯qtd쎯	-10.7944
▁ick쎯pv쎯	-10.7945
▁ipkh1쎯ipkh1쎯	-10.7946
ugv쎯	-10.7947
▁ymf쎯dga쎯	-10.7947
▁w쎯uj쎯	-10.7949
▁udi0쎯uk쎯	-10.7951
▁wa쎯ytm쎯	-10.7952
vep쎯	-10.7953
▁fhv쎯fha쎯	-10.7956
▁usr쎯fd쎯	-10.7964
▁yuvo1쎯	-10.7964
▁iyc쎯wsg0쎯	-10.7967
▁iann0쎯	-10.7968
▁qnr쎯yhk쎯	-10.7971
jjj0쎯	-10.7971
▁qta쎯	-10.7973
▁ujf0쎯tsh1쎯	-10.7976
▁wqa쎯ijl쎯	-10.7976
▁zzxe0쎯	-10.7976
bp쎯	-10.7978
▁afd1쎯ajj0쎯	-10.798
▁....	-10.7988
pi쎯	-10.7991
▁tfq쎯umd1쎯	-10.7993
▁teg1쎯wtfm3쎯	-10.7997
▁iff1쎯	-10.7997
▁yvk쎯	-10.7997
▁gef쎯hgo쎯	-10.8
▁rc쎯tmdf1쎯	-10.8001
▁yopy1쎯	-10.8003
nfif0쎯	-10.8005
▁m쎯tf쎯	-10.8008
qkq쎯	-10.8009
▁gfi쎯km쎯	-10.8009
▁n쎯lw쎯	-10.8016
▁qkqy0쎯	-10.8018
▁kwn쎯	-10.8018
▁mdfj쎯	-10.8024
▁tb쎯ab쎯	-10.8024
▁acbt1쎯	-10.8037
▁fjg0쎯dq쎯	-10.8038
▁bm쎯wtf쎯	-10.8041
▁ap쎯yss쎯	-10.8044
▁xyna1쎯ty쎯	-10.8045
tqq쎯	-10.8045
▁de쎯shi쎯ow쎯	-10.8048
vck쎯	-10.8053
▁wgkb0쎯wyc쎯	-10.8053
▁sft쎯	-10.8054
▁kb쎯	-10.8056
py쎯wf쎯	-10.8061
▁xqc쎯xxe쎯	-10.8062
▁yaop0쎯	-10.8064
▁wyf0쎯	-10.8064
▁rjq쎯	-10.8066
ip쎯rb쎯	-10.8068
▁ndn쎯	-10.8069
▁yam쎯	-10.807
▁wwj쎯wfhg0쎯	-10.807
vtk쎯qynm1쎯	-10.8071
▁gu쎯pv쎯	-10.8074
▁wv쎯suq쎯	-10.8074
▁fge쎯jtyq0쎯wf쎯	-10.8079
▁uth쎯ywf쎯	-10.8079
▁ebf0쎯	-10.8079
▁vtd쎯	-10.8081
▁ukn쎯jtyl쎯	-10.8086
ai쎯kht쎯	-10.8087
▁tmg1쎯tg쎯tr쎯	-10.8087
▁fku쎯ndj쎯	-10.809
▁ujq쎯	-10.809
▁mqb쎯gf쎯	-10.8092
▁wk쎯bg쎯	-10.8096
▁nr쎯	-10.8097
▁fk쎯wb쎯	-10.8097
▁f쎯h쎯	-10.8101
▁wv쎯pp쎯	-10.8102
▁tk쎯thd쎯	-10.8104
▁uduk0쎯gf쎯	-10.8107
io쎯	-10.8111
cb쎯	-10.8124
▁cbd쎯yf쎯	-10.8124
▁rj쎯fi쎯	-10.8124
d0쎯	-10.8125
▁wmg1쎯	-10.8127
▁gae쎯rvyl0쎯	-10.8128
▁ubtf0쎯tfkp0쎯	-10.8129
▁rer쎯	-10.8132
▁dav쎯	-10.8133
tduh0쎯	-10.8136
▁fm쎯itx쎯	-10.8138
▁ytb쎯tf쎯	-10.8139
▁khgm3쎯ytt쎯	-10.8142
▁bm쎯tld1쎯	-10.8145
wda쎯	-10.8148
▁rvn2쎯	-10.8149
▁ajq쎯	-10.8149
▁dm쎯src쎯	-10.8152
▁vbn쎯wu쎯	-10.8154
▁jn쎯begg쎯	-10.8159
gmi쎯	-10.8168
▁eee0쎯wwv쎯	-10.8169
wbg0쎯	-10.817
▁rnn0쎯pu쎯	-10.8171
▁xf쎯vq쎯	-10.8172
uxh쎯	-10.818
▁cqw쎯	-10.8182
▁tqdh0쎯	-10.8182
▁tjgh3쎯	-10.8185
sve쎯rnd1쎯	-10.8187
▁qyvl0쎯suq쎯	-10.8189
aqu0쎯	-10.8191
▁sh쎯xo쎯	-10.8195
▁trfg0쎯myd0쎯	-10.8195
▁ii쎯dm쎯	-10.8201
▁ga쎯ynk쎯	-10.8203
▁sgn쎯yy쎯	-10.8206
▁madt2쎯	-10.8207
▁ffff1쎯ssss0쎯	-10.8209
b쎯ght쎯xyna1쎯dcg쎯	-10.8209
▁y쎯yfj0쎯	-10.8209
▁fl쎯	-10.821
▁iie쎯ditn1쎯	-10.8213
▁ie쎯	-10.8217
▁src쎯fnw쎯	-10.8218
▁bm쎯kkk쎯	-10.8225
▁at쎯ud쎯	-10.8227
fm쎯kht쎯	-10.8227
▁ym쎯ige쎯	-10.823
▁wge쎯	-10.8233
qtdn1쎯	-10.8235
▁wgkq0쎯wgkb0쎯	-10.8239
ym쎯tffu쎯bpf쎯suq쎯	-10.8239
▁yygt쎯uit쎯	-10.824
lqy쎯	-10.8241
▁tfkf0쎯yr쎯	-10.8241
▁puv쎯hi쎯	-10.8244
▁vkb쎯	-10.8245
▁dan쎯	-10.8245
▁hi쎯tf쎯	-10.8246
▁쎈dnv0쎯	-10.8253
▁쎂쎅쎀쎀	-10.8254
fjg0쎯	-10.8256
▁yu쎯je쎯nnh쎯	-10.8256
▁zzjp82쎯	-10.8261
▁gw쎯	-10.8262
ptf쎯	-10.8262
▁k쎯adwe1쎯	-10.8263
▁jn쎯ck쎯	-10.8264
▁qnnk2쎯udyj쎯	-10.8265
▁agnn1쎯	-10.8268
▁dm쎯jty쎯	-10.8272
▁aigy쎯	-10.8272
▁ww쎯ih쎯	-10.8272
▁fh쎯gcf쎯	-10.8276
▁fs쎯	-10.8278
▁rymn쎯hka쎯	-10.8279
▁iyjh쎯jtyq0쎯	-10.8281
fct쎯	-10.8281
▁nh쎯mqc쎯	-10.8282
▁ud쎯uft쎯	-10.8285
vj쎯	-10.8286
▁fnr0쎯iwyf1쎯	-10.8287
▁yfj0쎯qev쎯	-10.8288
▁uxh쎯	-10.8296
qtfj0쎯	-10.8301
▁cf쎯rt쎯	-10.831
▁uvo쎯pww쎯	-10.8312
▁xcy0쎯rnr쎯	-10.8313
▁yid쎯qvn0쎯	-10.8316
▁pynn0쎯wyq쎯	-10.832
▁irn쎯	-10.8321
▁spq쎯	-10.8322
vnn0쎯	-10.8327
▁y쎯w쎯wc쎯	-10.8331
▁ai쎯wmj1쎯	-10.8332
▁eu쎯gkh0쎯	-10.8333
mpf쎯	-10.8336
▁oufg쎯	-10.8341
▁fug0쎯fe쎯	-10.8341
▁pei쎯fnrt쎯	-10.8342
▁rb쎯xqa쎯	-10.8342
▁rc쎯tjt쎯	-10.8351
▁ta쎯fd쎯	-10.8351
▁iqr쎯	-10.8353
▁cyi쎯	-10.8353
▁kf쎯sgm쎯	-10.8357
▁sm쎯tsh1쎯	-10.8357
▁sg쎯ffff1쎯	-10.8358
iwy2쎯	-10.836
▁bd쎯yad쎯	-10.836
▁usgd1쎯pg쎯	-10.836
▁tevc쎯	-10.836
smgk쎯	-10.8374
▁lfn쎯gkip0쎯	-10.8374
▁rj쎯qk쎯	-10.8377
uwy0쎯	-10.8381
tk쎯	-10.8385
▁ym쎯tld1쎯dfy쎯	-10.8387
▁cep쎯mq쎯	-10.8388
▁ivp쎯iqn쎯	-10.839
qn	-10.839
▁rg쎯ic쎯nnh쎯	-10.8392
▁rawk쎯	-10.8395
qlp쎯	-10.8405
▁qtbl쎯	-10.8406
▁bu쎯xtk쎯	-10.8406
▁itx쎯ii쎯	-10.8409
nnl쎯	-10.8409
▁rpwn0쎯	-10.8412
▁gkip0쎯yx쎯	-10.8414
▁rkk쎯	-10.8414
▁je쎯ige쎯	-10.8414
lfof3쎯sghg1쎯sks쎯	-10.8416
▁wgku1쎯fnrt쎯	-10.8416
▁td쎯ykw쎯u쎯sc쎯	-10.8417
▁pym쎯jfc쎯	-10.8419
▁nge쎯ab쎯	-10.8419
▁ipkh1쎯rh쎯	-10.8422
▁rer쎯iuc쎯	-10.8425
▁ukk쎯	-10.8427
▁y쎯rf쎯w쎯	-10.8433
▁pt쎯cm쎯	-10.8433
▁쎈쎀쎀쎀	-10.8434
▁no쎯	-10.8436
▁wdn쎯gjh2쎯	-10.8436
▁bb쎯pk쎯	-10.8449
▁srm쎯awx쎯	-10.8449
▁fnrt쎯jy쎯	-10.845
▁ifn쎯ii쎯	-10.845
fge쎯tr쎯qnp쎯	-10.8457
wwkw0쎯	-10.8459
jcf쎯	-10.8463
tjh쎯gog쎯	-10.8465
▁qynm1쎯mgn쎯	-10.8468
▁bm쎯ipg쎯	-10.8469
▁xj쎯	-10.8469
▁gw쎯gr쎯	-10.8471
▁wgnb0쎯	-10.8474
▁txgt쎯dgkn0쎯	-10.8477
goi쎯	-10.848
▁int쎯nii0쎯	-10.8483
▁kml쎯ujj쎯	-10.8484
ee쎯	-10.8484
▁d쎯mw쎯	-10.8485
ubtf0쎯	-10.8487
▁nyp쎯	-10.8494
fjhh쎯	-10.85
▁h쎯jmd쎯	-10.8502
▁yeu쎯	-10.8504
▁nkue0쎯	-10.8505
▁uxe쎯dm쎯	-10.8506
▁gj쎯ip쎯	-10.8507
▁nty0쎯rmhj쎯	-10.851
▁gt쎯grq쎯	-10.851
▁cl쎯	-10.8512
lfnh쎯	-10.8519
▁nh쎯uwl쎯	-10.8525
▁sp쎯qc쎯	-10.8526
▁ny쎯tld1쎯tp쎯	-10.8528
▁zzpj45쎯	-10.8533
▁wfny0쎯fcl쎯	-10.8535
▁sym쎯ytyh쎯ymhj0쎯	-10.8535
agnn1쎯	-10.8541
bpx쎯	-10.8541
lv쎯	-10.8545
▁scf쎯ex쎯	-10.8545
▁ian1쎯wys쎯	-10.8545
▁ijo쎯f쎯	-10.8545
▁dqe쎯yw쎯	-10.8547
ws쎯	-10.8547
▁jjj0쎯wsg0쎯	-10.8547
▁um쎯wf쎯	-10.855
▁ny쎯k쎯	-10.855
▁pu쎯et쎯ntg쎯	-10.8553
wt쎯ftj쎯	-10.8553
▁cm쎯ujf0쎯	-10.8556
▁wg쎯tq쎯	-10.8559
▁bm쎯yam쎯	-10.856
jm쎯	-10.8561
▁쎅쎁쎂	-10.8561
▁lfon1쎯	-10.8563
▁gkm쎯uqwm1쎯	-10.8565
▁whn쎯	-10.8566
▁ode쎯	-10.8579
▁yngk1쎯ian1쎯	-10.858
jaw쎯	-10.8581
▁ght쎯tl쎯	-10.8584
▁aga쎯	-10.8585
▁tmg1쎯sm쎯	-10.8589
▁u쎯f쎯	-10.8598
▁쎁쎉쎂쎀	-10.8602
gmw쎯	-10.8602
▁tdjh1쎯	-10.8604
▁dd쎯rx쎯	-10.8605
cal쎯	-10.8605
▁sup쎯	-10.8605
▁bq쎯adnt1쎯	-10.8607
▁sgtk1쎯	-10.8607
▁usr쎯wxf쎯	-10.8608
▁gyt쎯y쎯wtf쎯	-10.8609
▁nge쎯jy쎯	-10.8611
▁jn쎯uh쎯	-10.8614
▁ssg쎯	-10.8614
mhh쎯	-10.8618
▁iuw쎯	-10.8619
▁oge쎯dqe쎯	-10.8623
▁xn쎯sw쎯	-10.8627
▁ugdu쎯ip쎯	-10.8629
puh쎯	-10.8633
▁sym쎯	-10.8634
▁gip쎯dr쎯	-10.8634
▁tqv쎯	-10.8638
▁iry쎯gqjo0쎯	-10.864
▁yle쎯ygk쎯	-10.864
▁dht쎯tb쎯	-10.8642
pwf쎯	-10.8643
▁oja쎯oth쎯	-10.8644
▁uxl쎯	-10.8647
dnp쎯	-10.8649
▁reh쎯	-10.865
mty1쎯	-10.8651
▁lfo쎯rrr쎯	-10.8653
▁tmd쎯lp쎯	-10.8655
▁쎃쎀dnv0쎯	-10.8661
▁gqg0쎯utd쎯w쎯	-10.8663
▁rg쎯akgl쎯	-10.8668
▁ic쎯nnh쎯	-10.8668
▁xyna1쎯dcg쎯	-10.867
▁gq	-10.8672
▁tuu0쎯tb쎯	-10.8673
qgu쎯	-10.8674
▁ubtf0쎯eu쎯	-10.8676
▁rvh쎯	-10.8677
▁ftg쎯dgh쎯	-10.8677
▁ve쎯	-10.8681
dwg쎯	-10.8689
jlx쎯	-10.8694
mhk쎯	-10.8694
▁ntt쎯tf쎯	-10.87
▁tgj쎯tjt쎯	-10.8701
▁rgd0쎯bfw쎯	-10.8701
▁cbt쎯rfh1쎯	-10.8704
ktm쎯	-10.8706
▁xvk쎯iw쎯	-10.8708
▁xyna1쎯tkgg1쎯	-10.8709
▁쎄쎅쎀	-10.8712
yygt쎯ytyh쎯	-10.8712
shy0쎯	-10.8712
▁pwtf1쎯	-10.8713
▁xpw쎯pgn쎯	-10.8714
▁xnn1쎯	-10.8714
▁wyb쎯	-10.8715
▁쎁쎁쎅	-10.8716
wdy1쎯	-10.8718
▁gmww쎯dm쎯	-10.8724
▁m쎯qk쎯	-10.8725
▁ai쎯x쎯	-10.8727
▁u쎯tr쎯	-10.8736
▁uh쎯ta쎯	-10.8744
▁rxj쎯fm쎯	-10.8745
yi쎯	-10.8748
ish쎯	-10.8749
▁ffff1쎯gku쎯	-10.8752
▁yu쎯if쎯	-10.8753
▁synw쎯siq쎯	-10.8754
▁nfd0쎯	-10.8755
▁emc쎯wwv쎯rmhj쎯	-10.8756
ycf쎯	-10.8759
▁fcu1쎯hc쎯	-10.8764
jmd쎯	-10.8766
▁og쎯mw쎯	-10.877
▁jhk1쎯rb쎯	-10.8771
▁jjjj0쎯ygk쎯	-10.8772
▁wtf쎯ujn쎯	-10.8776
▁qkqp0쎯	-10.8777
fnh쎯	-10.8782
▁nae0쎯bm쎯	-10.8787
▁qn쎯yjse쎯	-10.8789
▁ipg쎯yo쎯	-10.8791
ruv쎯	-10.8791
▁xl쎯gcft0쎯	-10.8793
▁ih쎯gf쎯	-10.8795
▁ujfj0쎯qtj쎯	-10.8804
▁mww쎯rfm쎯	-10.881
ivs쎯	-10.8813
ob쎯	-10.8815
▁wg쎯l쎯ntg쎯	-10.8816
▁zzts11쎯	-10.8817
▁iq쎯aps쎯	-10.8817
cqw쎯	-10.882
▁jo쎯fi쎯kkd쎯	-10.8821
▁wwf쎯sfi쎯	-10.8824
▁wxf쎯dht쎯	-10.8827
▁us쎯thd쎯	-10.8828
▁qnw쎯	-10.8829
▁쎄쎈쎀	-10.8831
▁k쎯fm쎯	-10.8831
▁lkmi0쎯qwy1쎯	-10.8833
▁fkuc3쎯ddnl쎯	-10.8833
▁a쎯tv쎯	-10.8836
▁se쎯adw쎯	-10.8837
▁tl쎯	-10.884
▁쎁쎈쎅	-10.8841
▁fgh쎯pb쎯	-10.8842
vcl쎯	-10.8844
▁td쎯qk쎯ya쎯	-10.8845
▁a쎯ip쎯	-10.8845
▁eri쎯	-10.8847
▁ggg0쎯l쎯	-10.8849
▁tve쎯it쎯	-10.8849
▁awx쎯ur쎯	-10.8851
▁gkm쎯ty쎯	-10.8853
▁wkso2쎯	-10.8856
▁qn	-10.8857
▁mw쎯ny쎯	-10.8862
▁usr쎯k쎯l쎯	-10.8863
▁ih쎯ktn쎯	-10.8863
▁khv쎯khp쎯	-10.8865
bwj쎯	-10.8866
sgtu0쎯	-10.8869
ihic쎯	-10.8871
▁ypm쎯ya쎯	-10.8871
xln0쎯	-10.8873
irn쎯lg쎯	-10.8875
rqw쎯	-10.8875
▁itx쎯ud쎯	-10.8878
fhb쎯	-10.8886
▁rgf쎯rg쎯	-10.8887
qtb쎯	-10.8887
fwyc2쎯	-10.8889
tx쎯g쎯	-10.8889
fjgh0쎯	-10.889
▁zzsx35쎯	-10.8892
▁faw쎯hh쎯	-10.8892
▁wjh쎯	-10.8892
yc쎯	-10.8895
▁qie쎯	-10.8896
▁a쎯uqwm1쎯	-10.8896
▁쎁쎉쎂쎅	-10.8897
▁pei쎯og쎯uk쎯	-10.8909
▁ijl쎯jef1쎯	-10.8912
▁iyj쎯fm쎯ymhj0쎯	-10.8914
▁dg쎯xwy0쎯	-10.8915
▁mb쎯ght쎯	-10.8919
▁alq쎯hhy0쎯	-10.8919
▁aq쎯ght쎯ywf쎯	-10.8925
▁icd쎯	-10.8926
▁iu쎯aqrn1쎯	-10.893
▁aq쎯ta쎯	-10.893
tqt쎯	-10.8931
blf0쎯	-10.8933
▁aq쎯mw쎯	-10.8933
▁wkhh쎯	-10.8937
▁pj쎯udjh쎯	-10.8937
rnu0쎯	-10.8937
▁hxs쎯	-10.8938
▁ux쎯ugdu쎯	-10.894
▁qyng0쎯od쎯	-10.8941
iwyf2쎯	-10.8941
▁pyk쎯	-10.8941
▁ftg쎯tg쎯	-10.8941
▁bde쎯jf쎯	-10.8942
▁vijh쎯	-10.8942
▁cd쎯yaf쎯ta쎯	-10.8943
▁tn쎯	-10.8943
▁wkh0쎯	-10.8944
wdk쎯	-10.8946
▁쎁쎀쎀쎀쎀	-10.8947
ijlc쎯	-10.8947
▁twf쎯	-10.8948
▁ipl쎯	-10.8953
▁twf쎯kgn쎯	-10.8957
▁rxj쎯wyc쎯	-10.896
ime쎯	-10.896
▁khij쎯	-10.8961
avd쎯	-10.8965
qtj쎯	-10.8966
▁ipwk0쎯qev쎯	-10.8968
▁s쎯hko쎯	-10.8969
▁qm쎯awsk쎯	-10.8969
wgmy2쎯	-10.897
▁wys쎯wgk쎯	-10.8972
▁iq쎯je쎯	-10.8974
kml쎯	-10.8974
▁k쎯sghg1쎯	-10.8974
wny1쎯	-10.8977
▁bg쎯pym쎯	-10.8979
uwyc2쎯	-10.8981
▁ipmq쎯tj쎯	-10.8983
▁l쎯n쎯	-10.8984
▁sff1쎯ss쎯	-10.8985
▁aynr쎯	-10.8986
wgg1쎯	-10.8987
▁uym쎯	-10.8988
▁sgn쎯udp쎯	-10.8989
▁gu쎯tf쎯	-10.8992
jpx쎯	-10.8992
kt쎯	-10.8996
▁f쎯tv쎯	-10.8997
▁lk쎯dd쎯	-10.8998
▁ujf0쎯uqt쎯	-10.8999
▁qnqv0쎯	-10.9
▁wvf0쎯wg쎯	-10.9003
you1쎯	-10.9004
▁ugdu쎯iwyf1쎯	-10.9007
▁qh쎯bm쎯	-10.9009
▁tffu쎯gf쎯	-10.9011
xgb쎯	-10.9011
rrk쎯	-10.9011
nng쎯	-10.9014
▁pfjs쎯	-10.9014
▁ytf쎯sk쎯ygh쎯	-10.9026
▁yca쎯	-10.9026
▁o쎯wfh0쎯	-10.9032
▁wuf쎯	-10.9033
jgm쎯aib쎯ip쎯bpf쎯	-10.9033
▁usr쎯w쎯	-10.9035
▁dg쎯tffu쎯uqd2쎯	-10.9037
▁isf쎯	-10.9041
▁dyt쎯og쎯	-10.9046
yh쎯	-10.9046
▁rmc쎯jyie쎯	-10.9048
▁ght쎯sc쎯	-10.9052
▁xh쎯v쎯	-10.9052
asg쎯	-10.9054
▁jcf쎯	-10.9054
▁pei쎯ax쎯	-10.9056
▁jgg0쎯	-10.9057
▁twgi쎯	-10.9059
▁dgkn0쎯yid쎯	-10.9059
▁pu쎯hka쎯	-10.9071
▁ujfj0쎯g쎯	-10.9072
▁a쎯wt쎯w쎯km쎯	-10.9074
▁ai쎯apfq쎯ymhj0쎯	-10.9075
▁ow쎯gs쎯	-10.908
▁uthp0쎯iq쎯	-10.9085
▁lx쎯yf쎯	-10.9086
▁wny1쎯tuh0쎯	-10.9087
▁rma쎯	-10.9094
▁fnrt쎯wgk쎯	-10.9097
▁ag쎯fgh쎯	-10.9098
▁rjg1쎯	-10.9101
ajdf쎯	-10.9105
▁waw쎯ii쎯	-10.9106
▁rrg1쎯fnud쎯	-10.9107
▁wyf0쎯dhb쎯	-10.9107
▁dyi쎯fw쎯	-10.9108
▁py쎯ta쎯	-10.911
▁xq쎯fjw쎯	-10.9112
▁rpwi쎯	-10.9112
▁ugdu쎯vvv쎯	-10.9114
▁iytb0쎯iyni1쎯	-10.912
▁po쎯pd쎯	-10.9123
▁ywe쎯ubk1쎯	-10.9124
▁rjg1쎯wk쎯	-10.9126
▁sfhg쎯sri쎯	-10.9129
▁vv쎯	-10.9132
▁sghg1쎯pv쎯ymhj0쎯	-10.9135
sfh쎯	-10.9136
▁ivg쎯	-10.9136
▁fa쎯wsg0쎯	-10.9139
▁dd쎯uqd2쎯	-10.9141
qkd쎯	-10.9144
aigh쎯	-10.9147
▁ihi쎯	-10.9148
sm쎯sa쎯	-10.915
▁oge쎯vo쎯	-10.9158
▁wc쎯tl쎯km쎯	-10.9163
▁dn쎯ygk쎯	-10.9164
▁rgs쎯	-10.9164
sft쎯ou쎯	-10.9165
▁jgm쎯aib쎯ip쎯bpf쎯	-10.9165
▁nhd0쎯	-10.9166
▁thp쎯pv쎯	-10.9166
▁aww쎯	-10.9168
▁ydm쎯	-10.9169
▁sg	-10.917
▁wg쎯thd쎯fcl쎯	-10.9174
▁ukqb2쎯	-10.9175
▁ftbt쎯ipkf0쎯	-10.9176
▁ipe쎯djb쎯	-10.9177
▁ta쎯dp쎯	-10.9177
▁yaa쎯hko쎯	-10.9178
▁puh쎯wi쎯	-10.9179
▁kwgj0쎯	-10.9179
▁suq쎯wfk쎯	-10.918
▁aws쎯jghx쎯	-10.918
▁jn쎯sux쎯	-10.9181
▁wj쎯	-10.9188
ed쎯	-10.9193
▁c쎯fm쎯	-10.9193
▁lrj쎯	-10.9194
▁ggg0쎯bb쎯	-10.9194
yga쎯	-10.9195
▁jf쎯ynt0쎯	-10.9196
oqd쎯	-10.92
▁abi쎯irn쎯	-10.9202
▁trng쎯	-10.9202
▁sux쎯	-10.9204
▁bd쎯ruv쎯	-10.9207
▁iwy2쎯	-10.9208
▁fay쎯	-10.9211
▁rfc쎯if쎯	-10.9211
▁쎁쎀쎄	-10.9213
▁khr쎯	-10.9214
eeqy쎯	-10.9215
▁tp쎯gj쎯ip쎯	-10.9217
▁fnhp0쎯	-10.9219
cwg쎯	-10.9221
▁iyc쎯jhnr쎯	-10.9221
▁yyn2쎯	-10.9224
▁sk쎯tfqp쎯	-10.9225
▁tdx쎯	-10.9226
▁smgk쎯	-10.9228
▁rxj쎯bm쎯	-10.923
dxy쎯	-10.9232
fuf0쎯	-10.9232
▁fwf쎯wa쎯	-10.9235
▁pr쎯pt쎯	-10.9236
▁rwye1쎯gkp쎯	-10.9237
▁wvt쎯adwr0쎯uff쎯	-10.9239
▁fh쎯iyc쎯	-10.924
▁fjt쎯	-10.924
▁cd쎯yaf쎯	-10.9241
▁tx쎯wty0쎯	-10.9246
▁lkd쎯nh쎯	-10.9249
qmgk1쎯	-10.9253
▁tr쎯gj쎯ip쎯	-10.9254
itf쎯	-10.9257
wycb쎯	-10.9258
▁ht쎯	-10.9261
▁ipm쎯tkw쎯	-10.9265
▁uqw쎯rh쎯	-10.9268
md쎯	-10.927
▁ihc쎯uff쎯	-10.9271
▁tol쎯	-10.9273
▁adj쎯	-10.928
▁nge쎯xft쎯	-10.928
▁geq쎯jn쎯	-10.9282
▁qgq쎯	-10.9283
▁xxm쎯lfod0쎯	-10.9286
▁fq쎯fdm쎯	-10.9287
▁ajt쎯ah쎯	-10.9287
▁ypk쎯	-10.9288
▁g쎯tmd쎯	-10.9289
▁–	-10.9289
▁zzxe14쎯	-10.9289
▁rnr쎯fnr0쎯kkd쎯	-10.9293
▁rnd1쎯yu쎯	-10.9293
▁rpw쎯rmhj쎯kkd쎯	-10.9294
▁wg쎯tkgg1쎯	-10.9296
▁pdx쎯tr쎯	-10.9307
▁fje쎯bj쎯	-10.9307
▁rv쎯	-10.9309
▁qrm쎯sfi쎯pfjm1쎯	-10.9315
▁oat쎯rvyo쎯	-10.9317
faf1쎯	-10.9324
▁dp쎯sfi쎯	-10.9325
▁uai0쎯	-10.9326
▁ab쎯dwg쎯	-10.9326
▁ab쎯xq쎯	-10.9329
▁fcr쎯	-10.9332
▁fj쎯hi쎯uqd2쎯	-10.9334
▁wf쎯nae0쎯	-10.9339
▁ga쎯a쎯	-10.9342
▁쎁쎃쎀쎀	-10.9344
▁fii쎯td쎯	-10.9347
▁ngk쎯wyc쎯uk쎯	-10.9349
wx쎯a쎯	-10.935
▁wye쎯qd쎯	-10.9351
▁o쎯l쎯	-10.9353
▁scf쎯ssss0쎯	-10.9353
▁igey0쎯	-10.9354
▁rh쎯eee0쎯	-10.9356
▁pgf1쎯	-10.936
▁usr쎯an쎯xn쎯	-10.9361
▁ofd쎯oy쎯	-10.9362
jb쎯	-10.9365
▁ue쎯fj쎯	-10.937
▁pfjm1쎯gk쎯	-10.9371
bt쎯	-10.9372
▁qh쎯uq쎯	-10.9374
▁kht쎯dm쎯	-10.9375
▁ab쎯jjjj0쎯	-10.9379
▁cf쎯xx쎯	-10.9379
▁wtf쎯wgkb0쎯	-10.9381
▁rvk쎯um쎯	-10.9383
▁rtol0쎯tkh쎯	-10.9386
tdg1쎯	-10.9388
rmhj쎯kkk쎯	-10.9391
▁fwyc2쎯wrh1쎯	-10.9392
▁gbnm1쎯	-10.9394
▁twt쎯ytyh쎯	-10.9394
▁f쎯nfc쎯	-10.9397
▁rfc쎯	-10.9398
▁ck쎯ux쎯	-10.94
▁ii쎯jjj0쎯	-10.9403
▁tq쎯wt쎯	-10.9407
▁nyu0쎯tp쎯	-10.9409
oge쎯pyj쎯yygy쎯je쎯	-10.9416
▁rhyi0쎯	-10.942
▁cal쎯	-10.9425
▁tfqm1쎯iwyf1쎯	-10.9426
▁skf쎯	-10.9427
▁qk쎯jgm쎯	-10.9431
▁pei쎯dl쎯	-10.9434
ishg쎯	-10.9435
▁ulg쎯atd쎯	-10.9436
at쎯	-10.9441
▁iie쎯gxgu쎯	-10.9447
cexo0쎯	-10.9447
▁gk쎯pu쎯	-10.9451
▁ua쎯ty쎯	-10.9456
▁쎄dnv0쎯	-10.9456
▁tfhy쎯	-10.9459
▁qmq쎯src쎯	-10.9459
▁jcf쎯pu쎯	-10.946
▁uqd2쎯ujj쎯	-10.946
▁xrc쎯	-10.946
wdt쎯	-10.9461
▁wx쎯wgk쎯tr쎯	-10.9462
pu	-10.9469
nhd0쎯	-10.9469
▁rtfp0쎯	-10.9471
▁gcf쎯it쎯	-10.9471
▁dr쎯o쎯	-10.9471
▁fny0쎯tu쎯ip쎯suq쎯	-10.9472
▁trf0쎯bmg쎯	-10.948
ua쎯	-10.9482
ybt쎯	-10.9484
iugi1쎯	-10.9484
▁pym쎯o쎯	-10.9484
tca쎯	-10.9485
▁jy쎯qc쎯	-10.9486
▁e쎯tjh쎯gf쎯	-10.949
▁tmdf1쎯fmk쎯	-10.9495
▁aqg쎯aqr쎯isgg2쎯	-10.9497
▁fje쎯tfpd0쎯	-10.9501
qt	-10.9502
ugk쎯	-10.9502
▁hjj쎯	-10.9503
▁e쎯fhb쎯	-10.9509
▁tcy0쎯w쎯	-10.9509
▁dgj쎯wx쎯	-10.9509
▁whf0쎯gk쎯og쎯	-10.9516
▁ghd1쎯dm쎯	-10.9517
wqb1쎯	-10.9518
▁zzxe8쎯	-10.9518
▁wynb0쎯jjjj0쎯	-10.9522
dfny1쎯	-10.9523
esv쎯	-10.9529
▁tr	-10.9533
▁zzy2쎯	-10.9538
쎂쎀쎀	-10.9541
▁fh쎯xg쎯	-10.9544
▁nnu쎯	-10.9545
uf쎯qynm1쎯	-10.9545
nk쎯	-10.9547
▁wbb0쎯wyf0쎯	-10.9548
▁wgk쎯uqwm1쎯	-10.9548
▁lftj쎯	-10.955
▁ol쎯ck쎯	-10.9555
▁ay쎯	-10.9559
▁gd쎯wgkq0쎯	-10.9559
▁lw쎯gk쎯	-10.956
fwn쎯	-10.956
▁fggh쎯rdn쎯	-10.9562
▁pdhj0쎯	-10.9563
txi쎯xyc쎯	-10.9564
▁dgj쎯ya쎯	-10.9567
▁xev쎯	-10.9568
▁쎁쎀쎆	-10.9568
▁xa쎯qh쎯	-10.957
▁aqo쎯	-10.957
▁qq쎯su쎯	-10.9571
▁iugg0쎯ime쎯	-10.958
yuvo1쎯	-10.9582
▁tuj0쎯ifk0쎯	-10.9582
▁rpv쎯yssr0쎯	-10.9584
uw쎯	-10.9585
▁tr쎯ou쎯	-10.9589
▁ysj쎯	-10.959
▁ty쎯kkkk1쎯	-10.959
▁uq쎯lwj쎯th쎯	-10.9591
▁aq쎯wug0쎯	-10.9591
ii쎯egc쎯	-10.9593
kthh1쎯egc쎯	-10.9593
hka쎯qv쎯	-10.9594
aynq쎯	-10.9594
▁wgep쎯	-10.9595
kn쎯	-10.9596
▁dc쎯ype쎯	-10.9597
▁amw쎯rcy1쎯	-10.9597
▁ipg쎯xcf쎯	-10.9598
▁rgd0쎯	-10.9604
▁x쎯xjm쎯	-10.9604
▁trw쎯ycb쎯	-10.9606
▁fhn쎯ajj0쎯	-10.961
▁ipkh1쎯wygg쎯	-10.961
▁ybo쎯qntf쎯	-10.9616
▁oqdo쎯ou쎯	-10.9617
▁ipwk0쎯yjjh0쎯	-10.9618
▁tdp쎯sgn쎯kkd쎯	-10.9619
▁thc쎯	-10.962
e1쎯	-10.962
▁dg쎯qe쎯gae쎯	-10.9628
▁ta쎯iit쎯ymhj0쎯	-10.9629
▁yq쎯tl쎯	-10.9638
▁riu0쎯ytyh쎯	-10.9639
▁tvt쎯	-10.9641
gqg0쎯	-10.9642
▁ptkm1쎯pg쎯	-10.9652
▁wynk쎯yq쎯	-10.9652
▁gh쎯iytb0쎯	-10.9653
xfg0쎯	-10.9653
udr0쎯	-10.9654
▁nku쎯	-10.9655
▁dmh0쎯lfhf쎯	-10.9656
▁jtyl쎯gj쎯	-10.9658
▁trf0쎯ta쎯	-10.9658
▁c쎯wgj쎯	-10.9661
▁sg쎯rfm쎯	-10.9663
djdl2쎯	-10.9665
▁kd쎯ycb쎯	-10.9669
▁kqb0쎯	-10.967
▁pyfc1쎯	-10.9672
▁fc쎯iyc쎯	-10.9677
▁qtw쎯	-10.9678
▁uth쎯tfqp쎯	-10.968
▁wg쎯uqwm1쎯	-10.9681
ls쎯	-10.9684
rmn0쎯	-10.969
pwt쎯	-10.969
▁nh쎯xpw쎯	-10.9692
▁swgu쎯	-10.9692
▁ipgg0쎯	-10.9696
ecl쎯	-10.9697
▁tqq쎯sfhg쎯	-10.9702
▁icf쎯	-10.9704
▁po쎯	-10.9704
▁xtdh0쎯cw쎯	-10.9707
▁nty0쎯tq쎯	-10.9713
u0쎯	-10.9713
▁gmf쎯tg쎯	-10.9713
▁wcy0쎯e쎯	-10.9715
▁rwyg0쎯tf쎯	-10.9716
▁e쎯qk쎯	-10.972
▁k쎯aw쎯k쎯md쎯	-10.9721
xgm쎯	-10.9722
▁xfm쎯	-10.9723
fjw쎯	-10.9725
▁sc쎯lt쎯	-10.9725
▁adwe1쎯wxm쎯	-10.9726
▁xtu쎯tmd쎯	-10.9727
▁vv쎯u쎯tu쎯	-10.9727
lpk0쎯	-10.9738
w쎯n쎯	-10.9741
▁ym쎯bk쎯	-10.9744
▁fj쎯nae0쎯	-10.9748
twf쎯	-10.9748
lgey2쎯	-10.9749
falw쎯	-10.9751
▁tx쎯ag쎯	-10.9751
▁tg쎯u쎯dgt1쎯	-10.9752
fgjg쎯	-10.9756
▁wyv쎯fhl쎯	-10.9757
▁wc쎯n쎯	-10.9758
▁jtd쎯	-10.9758
▁gef쎯itx쎯ith쎯	-10.9763
▁dd쎯gku쎯	-10.9766
▁ga쎯lw쎯	-10.9767
▁m쎯tf쎯og쎯	-10.9767
wg	-10.977
▁gajh쎯	-10.9771
ddg1쎯	-10.9772
fcn쎯	-10.9773
▁dr쎯sg쎯	-10.9775
ux쎯kht쎯	-10.9776
▁ght쎯a쎯	-10.9776
▁qgb쎯qje쎯	-10.9777
▁syp쎯	-10.9778
▁ih쎯ooo쎯	-10.9778
▁wy쎯wtf쎯	-10.978
▁gj쎯ywx쎯dga쎯pwv쎯	-10.9783
ebn0쎯	-10.9785
▁bc쎯wa쎯	-10.9786
h0쎯	-10.9788
▁mt쎯wsk쎯	-10.9789
▁mq쎯ynnd쎯	-10.9797
▁si쎯	-10.9797
vij쎯	-10.9798
▁dyc쎯	-10.98
hhy0쎯	-10.98
sgm쎯	-10.9801
▁wtd쎯	-10.9803
▁ps쎯ihc쎯ymhj0쎯	-10.9805
trt쎯	-10.9806
▁ld쎯bb쎯	-10.9807
▁quk쎯	-10.9808
▁ipf쎯yaa쎯	-10.9809
▁tdtf0쎯vfhp1쎯	-10.981
▁mmgj0쎯bwt쎯	-10.981
▁gd쎯qd쎯rnb쎯	-10.9816
▁v쎯rvyo쎯	-10.9816
▁yw쎯	-10.9817
▁iq쎯xtf쎯	-10.9817
fwyf0쎯	-10.9818
▁ipg쎯anb0쎯	-10.9821
ieb쎯	-10.9821
zzts9쎯	-10.9826
▁rmc쎯u쎯	-10.9826
gxw쎯	-10.983
▁tf쎯sb쎯	-10.983
▁ddu1쎯yny0쎯	-10.9832
▁wgj쎯j쎯	-10.9833
▁uge쎯	-10.9836
▁nfh1쎯	-10.9837
▁g쎯uf쎯	-10.9837
▁sfi쎯sg쎯	-10.9839
dd쎯ddh쎯	-10.9842
▁lfo쎯ju쎯	-10.9846
▁qf쎯qyo쎯	-10.9852
▁쎂쎁쎀	-10.9852
▁sk쎯kkkk1쎯	-10.9854
▁rhk0쎯ve쎯	-10.9854
▁rnv0쎯	-10.9855
▁dm쎯ue쎯	-10.9855
▁wg쎯qfhw1쎯	-10.9855
▁wv쎯int쎯	-10.9857
iujg0쎯	-10.9859
▁er쎯	-10.9862
gki쎯	-10.9862
▁lkd쎯jv쎯	-10.9868
▁qh쎯qyv쎯	-10.987
▁uf쎯nf쎯wsg0쎯	-10.987
▁ih쎯veg쎯	-10.9872
▁io쎯ii쎯	-10.9873
▁a쎯pei쎯	-10.9873
▁ygu쎯pg쎯	-10.9875
▁fqu쎯sk쎯	-10.9875
▁ai쎯ic쎯	-10.9878
t1쎯	-10.9879
▁uxxn0쎯uduk0쎯	-10.988
▁ai쎯itx쎯	-10.988
▁pdc쎯cm쎯	-10.988
▁g쎯kht쎯	-10.9883
▁vfb쎯su쎯	-10.9884
jef1쎯	-10.9891
mt쎯	-10.9894
eq쎯	-10.9894
▁rfc쎯anb0쎯	-10.9896
▁dnp쎯	-10.9896
▁gajh쎯gk쎯	-10.9897
▁aqw쎯	-10.9898
▁lp쎯lwj쎯	-10.9906
▁ige쎯ujfj0쎯	-10.9906
dfff0쎯	-10.9906
▁ige쎯ssn쎯	-10.9907
x쎯iyj쎯ip쎯	-10.9907
▁awx쎯xyy1쎯	-10.9911
▁jh쎯hq쎯	-10.9911
▁kkk쎯wug0쎯	-10.9922
▁pg쎯nd쎯	-10.9923
▁hi쎯cbc쎯	-10.9932
쎀쎅쎀	-10.9933
▁wv쎯gqje0쎯	-10.9936
▁vcn1쎯	-10.9936
▁itdy쎯	-10.9937
▁ngk쎯wyc쎯	-10.9937
▁tx쎯vt쎯	-10.9937
rhf0쎯	-10.9938
▁gq쎯lg쎯	-10.9939
kg쎯	-10.9945
▁agq쎯	-10.9945
▁n쎯et쎯	-10.9949
gajh쎯	-10.995
big쎯	-10.9952
▁v쎯ugm쎯	-10.9952
wq쎯	-10.9954
▁dd쎯fwm쎯saj0쎯	-10.9954
▁fcb쎯j쎯	-10.9954
▁ae쎯ujfj0쎯	-10.9954
sup쎯	-10.9956
▁ymf쎯yaa쎯	-10.9957
▁쎁쎁쎀쎀	-10.9957
pw	-10.9957
acbt1쎯	-10.9959
▁bdx쎯	-10.9959
▁fad쎯tq쎯	-10.9963
▁ad쎯hich0쎯ftbt쎯	-10.9965
▁l쎯n쎯x쎯iyj쎯	-10.9967
▁dn쎯kkk쎯	-10.9969
▁wdt쎯dn쎯	-10.9969
▁vkf0쎯	-10.997
▁yqa쎯uk쎯	-10.9971
▁rhyc1쎯	-10.9975
qiu0쎯adwr0쎯	-10.9978
▁nnh쎯pgn쎯	-10.9978
▁ux쎯dd쎯	-10.998
▁itx쎯fakg0쎯	-10.9988
▁jn쎯a쎯	-10.9988
grd쎯	-10.9989
god쎯	-10.9989
▁ipq쎯bj쎯ymhj0쎯	-10.9989
▁wg쎯suq쎯	-10.9992
▁ue쎯jy쎯	-10.9992
▁wqa쎯gf쎯	-10.9992
▁c쎯ux쎯	-10.9995
uqwv쎯	-10.9997
▁a쎯og쎯aq쎯	-10.9998
▁qkqq0쎯	-10.9999
pjv쎯	-10.9999
▁ujqn1쎯ydn쎯	-10.9999
▁ujf0쎯ktm쎯	-11
▁qqw쎯	-11
▁yce쎯w쎯	-11.0003
▁yygy쎯nnh쎯	-11.0007
▁gg쎯wa쎯	-11.001
▁iqgg쎯og쎯	-11.0012
▁ipk쎯ukn쎯fc쎯	-11.0015
▁xh쎯aqkr쎯	-11.0018
▁wycm1쎯pum쎯	-11.002
▁pgc쎯qh쎯	-11.0025
▁xte쎯ta쎯	-11.0026
▁fkuk2쎯uge쎯	-11.003
▁xww쎯sam쎯	-11.0032
py쎯wf쎯tu쎯ip쎯bpf쎯	-11.0033
▁ga쎯cep쎯	-11.0034
▁gj쎯gk쎯wf쎯	-11.0035
▁sw쎯fpx쎯	-11.0038
▁fcl쎯eyni쎯	-11.004
▁gmi쎯kq쎯	-11.0045
dgkn0쎯gc쎯	-11.005
▁fq쎯qc쎯	-11.0051
mmm쎯ai쎯	-11.0054
▁kkd쎯wrh1쎯	-11.0054
▁khd쎯fha쎯	-11.0055
ngkg쎯	-11.006
▁udyj쎯gqf쎯og쎯	-11.0061
▁itm쎯	-11.0066
▁st쎯nnk쎯	-11.0066
▁p쎯uqw쎯	-11.0067
dd쎯isgg2쎯yhk쎯	-11.0068
▁yiu0쎯ndj쎯	-11.0068
▁t쎯xyx쎯	-11.0068
▁rmhj쎯tfkp0쎯um쎯	-11.007
dif쎯	-11.007
▁qqqq1쎯thgf1쎯	-11.007
▁wds쎯	-11.0072
▁sm쎯wsg0쎯	-11.0072
▁xg쎯ts쎯	-11.0074
▁uthp0쎯ftbt쎯	-11.0075
▁ga쎯fffy0쎯	-11.0076
▁va쎯	-11.0076
trh0쎯	-11.0078
▁qq쎯nfc쎯	-11.0078
iv쎯qd쎯	-11.0079
▁iry쎯nge쎯	-11.0081
smu1쎯	-11.0083
▁faf1쎯	-11.0084
▁hwb쎯lwx쎯	-11.0084
▁thd쎯ip쎯	-11.0087
yssd0쎯	-11.0093
▁xqi쎯	-11.01
oug0쎯	-11.0102
▁w쎯ntg쎯wx쎯	-11.0102
▁yo쎯dfy쎯kkd쎯	-11.0104
aw쎯t쎯l쎯	-11.0107
tfp쎯	-11.011
▁gdj쎯	-11.0112
▁fwf쎯	-11.0113
▁rnp쎯ad쎯sgc쎯	-11.0114
▁ixj쎯	-11.0115
tdd쎯	-11.0117
▁rvyl0쎯lt쎯	-11.012
gkim1쎯	-11.0121
▁fg쎯fgh쎯g쎯	-11.0125
▁yt쎯ny쎯	-11.0126
▁g쎯jgf쎯	-11.0129
▁adef1쎯aynr쎯	-11.0129
▁wvm쎯ls쎯	-11.0131
jtyq0쎯	-11.0135
▁tfkd쎯rp쎯	-11.0135
▁qt쎯tu쎯	-11.0136
▁ry쎯	-11.0141
▁gip쎯s쎯	-11.0146
▁sk쎯c쎯yu쎯	-11.0147
▁wt쎯mq쎯	-11.0147
tfqm1쎯	-11.0153
▁g쎯fnw쎯	-11.0155
lm쎯	-11.016
▁vkf0쎯kqm쎯	-11.0161
▁pujn0쎯	-11.0167
▁vij쎯	-11.0167
▁uk쎯ait쎯	-11.017
▁adw쎯rg쎯	-11.0172
▁gd쎯xg쎯	-11.0174
▁kkd쎯pn쎯	-11.0177
▁udjh쎯	-11.0178
▁ija쎯dmh0쎯	-11.0182
쎁쎉쎆	-11.0182
xft쎯	-11.0184
nv쎯	-11.0187
▁lkd쎯nn쎯	-11.0189
▁w쎯rnb쎯	-11.0191
▁sqq쎯	-11.0193
▁vt쎯dx쎯	-11.0195
suh쎯	-11.0198
fajv쎯	-11.02
▁g쎯lp쎯	-11.0203
▁sm쎯kkd쎯w쎯	-11.0209
ght쎯ywf쎯	-11.021
▁dgtg0쎯wx쎯	-11.0211
lt쎯ip쎯	-11.0212
sds쎯	-11.0215
whf0쎯	-11.0219
▁k쎯gxgu쎯	-11.022
▁ugdu쎯sy쎯qnp쎯	-11.0221
▁pb쎯xgu쎯	-11.0222
std쎯qfhw1쎯	-11.0225
▁tjt쎯qgb쎯	-11.0227
qwyc1쎯	-11.0228
▁qk쎯yngk1쎯	-11.0229
▁su쎯bb쎯	-11.023
▁jq쎯adwe1쎯	-11.0232
▁isf쎯ypm쎯	-11.0232
▁fg쎯fgh쎯lh쎯	-11.0233
▁jhnr쎯	-11.0233
▁emc쎯ai쎯	-11.0235
awsk쎯	-11.0235
▁rd쎯	-11.0238
▁pgy쎯pgy쎯	-11.0239
▁yfj0쎯rep쎯	-11.0241
▁igk쎯	-11.0243
▁thd쎯drin0쎯	-11.0243
▁ftbt쎯nf쎯	-11.0249
vd쎯	-11.0252
▁f쎯qk쎯	-11.0253
ijo쎯	-11.0254
▁nj쎯nj쎯	-11.0263
ju쎯	-11.0264
▁xn쎯vi쎯	-11.0264
▁ae쎯qde0쎯	-11.0268
▁iy쎯tmdf1쎯	-11.0268
▁cd쎯cm쎯	-11.0273
uqwn2쎯	-11.0273
▁rg쎯ftj쎯	-11.0274
▁쎁쎆쎈	-11.0278
▁wynm1쎯	-11.0279
▁wycm1쎯nf쎯w쎯	-11.028
yyv쎯	-11.0283
▁kkkk1쎯eb쎯	-11.0285
▁tdp쎯yid쎯ugh쎯	-11.0286
▁m쎯ujn쎯	-11.0286
▁igey0쎯ai쎯	-11.0287
▁hk쎯e쎯	-11.0289
ihcv쎯	-11.0294
▁tdkj0쎯lt쎯	-11.0297
▁vte쎯	-11.0298
▁ybv0쎯xan쎯	-11.0298
▁cwg쎯	-11.0298
▁wxf쎯gmy0쎯	-11.03
nuk1쎯	-11.0301
wuf쎯	-11.0302
▁krt쎯isgg2쎯	-11.0302
▁쎁쎉쎉쎄rh쎯	-11.0304
ybv0쎯	-11.0304
▁rqym쎯	-11.0305
▁rkm쎯pd쎯	-11.0308
he쎯	-11.0312
▁zzxx0쎯	-11.0313
▁flf1쎯dp쎯	-11.0314
▁gr쎯pgy쎯	-11.0316
wd쎯	-11.0316
▁rkm쎯	-11.0318
cq쎯	-11.032
▁jaj1쎯	-11.0325
dt쎯	-11.0326
▁ttt쎯	-11.0327
▁ym쎯wv쎯bb쎯	-11.0328
mfc쎯	-11.0331
▁je쎯gd쎯	-11.0332
▁k쎯gajf0쎯	-11.0333
▁uwyc2쎯ii쎯	-11.0336
pwu0쎯	-11.0337
▁wht쎯ys쎯	-11.0344
▁rwye1쎯	-11.0344
▁yon쎯	-11.0345
▁pj쎯sj쎯	-11.035
▁vtg쎯qk쎯	-11.035
▁geq쎯eyni쎯	-11.0352
▁ytey0쎯tf쎯py쎯	-11.0352
▁trf0쎯xe쎯	-11.0352
▁lhnh쎯xe쎯	-11.0352
▁kftj1쎯	-11.0353
▁ax쎯et쎯	-11.0356
▁g쎯yy쎯	-11.0359
▁ep쎯ny쎯	-11.0359
▁qwd쎯oanw쎯	-11.0359
▁yid쎯iv쎯	-11.0363
▁ugm쎯yo쎯	-11.0365
ugdu쎯l쎯	-11.0366
▁oft쎯ol쎯	-11.0367
uqb쎯	-11.0371
▁yygy쎯sg쎯	-11.0373
wfy0쎯	-11.0375
▁lh쎯yy쎯	-11.0375
▁ifn쎯	-11.0375
▁gmap쎯gc쎯	-11.0376
▁syf쎯	-11.0379
▁gyt쎯xe쎯	-11.0381
▁vpe쎯	-11.0386
▁bm쎯uqwm1쎯	-11.0386
▁asg쎯	-11.0386
eri쎯	-11.0388
▁wt쎯yygy쎯	-11.0394
▁qvb쎯	-11.0396
▁waj0쎯egl쎯	-11.0396
▁ynm쎯ey쎯	-11.0398
sym쎯	-11.0399
▁tei쎯	-11.0399
▁fk쎯pyu쎯	-11.04
efc쎯	-11.0402
▁ufg쎯gqjo0쎯	-11.0402
▁rbcc쎯wqj쎯sm쎯	-11.0405
▁o쎯hh쎯	-11.0407
▁ugm쎯gj쎯	-11.0412
▁f쎯src쎯	-11.0412
▁th쎯yy쎯	-11.0415
▁ue쎯adwe1쎯	-11.0422
▁cw쎯ya쎯	-11.0423
▁y쎯ou쎯	-11.0425
▁dm쎯qn쎯	-11.0427
atd쎯tu쎯dd쎯ip쎯	-11.0431
▁yff쎯wys쎯	-11.0436
jjjj0쎯sg쎯	-11.044
▁ry쎯vfhp1쎯	-11.0441
▁wtc쎯syp쎯	-11.0441
▁쎁쎉쎂쎄	-11.0443
▁pfq쎯tlf0쎯	-11.0447
▁iy쎯mm쎯ge쎯	-11.0451
fn	-11.0452
▁fq쎯w쎯	-11.0452
▁waj0쎯jtyq1쎯	-11.0453
▁gklp쎯	-11.0453
▁tha쎯if쎯	-11.0455
abf1쎯	-11.0457
▁usg쎯tgj쎯	-11.0457
▁pl쎯tqf0쎯	-11.0457
▁quh1쎯	-11.0459
▁ntg쎯klj쎯	-11.0461
▁쎁쎃쎅	-11.0462
▁ae쎯txi쎯	-11.0466
ajdn0쎯	-11.0467
▁av쎯pdhj0쎯	-11.0467
▁쎁쎇쎈	-11.0468
▁xi쎯	-11.0469
w쎯tr쎯	-11.047
mhj쎯	-11.0473
▁ndj쎯sg쎯	-11.0474
▁쎁쎀쎁	-11.0474
tvr쎯	-11.0476
vtg쎯	-11.048
yuv쎯	-11.0482
jhk1쎯	-11.0483
▁jx쎯	-11.0483
▁rg쎯w쎯	-11.0485
▁qqqq1쎯mqj쎯	-11.0485
▁wg쎯lt쎯	-11.0489
▁k쎯fnrt쎯	-11.0492
▁qb쎯	-11.0494
▁jhf1쎯	-11.0497
▁ywwg2쎯	-11.0499
▁luf0쎯	-11.0499
▁gyt쎯ta쎯	-11.0499
▁ym쎯usr쎯	-11.0501
▁adwe1쎯tffy0쎯	-11.0504
▁쎁쎀쎇	-11.0504
▁lkd쎯ytt쎯	-11.0505
▁lh쎯dd쎯	-11.0506
▁wbb0쎯ylk0쎯	-11.0507
▁iyjh쎯jtyq0쎯kkd쎯	-11.0507
▁ypt쎯	-11.0511
▁yt쎯yca쎯	-11.0513
aflf0쎯	-11.0515
▁aft쎯tq쎯	-11.0515
gef쎯qynm1쎯ymhj0쎯	-11.0519
▁ux쎯dm쎯	-11.0526
ai쎯egc쎯	-11.0527
awg쎯	-11.0527
▁amw쎯mmm쎯	-11.0527
▁ihk쎯	-11.0528
▁wycb쎯rp쎯	-11.0533
▁jfj쎯	-11.0537
▁pwf쎯mqb쎯	-11.0542
▁be쎯bj쎯	-11.0542
tdh쎯	-11.0545
▁ipkh1쎯tl쎯tv쎯km쎯	-11.0545
▁eb쎯et쎯	-11.0546
▁ngk쎯cn쎯	-11.0546
▁rf쎯e쎯	-11.055
▁qh쎯l쎯ygk쎯	-11.0551
▁fq쎯sm쎯	-11.0559
▁rmhj쎯yjjh0쎯	-11.0559
▁쎁쎄쎀쎀	-11.0564
▁′′	-11.0564
ipm쎯	-11.0565
▁mfk쎯gc쎯	-11.0566
▁ice쎯	-11.0568
▁by쎯ywfw0쎯	-11.0568
▁py쎯wf쎯ip쎯	-11.0569
▁hka쎯fnrt쎯	-11.0569
▁trf0쎯u쎯	-11.0572
▁cbts1쎯lqw쎯	-11.0576
▁쎇쎅쎀	-11.0578
▁adj쎯tvfh0쎯pr쎯	-11.0579
▁dd쎯gj쎯	-11.0579
ddh쎯	-11.0581
▁q쎯suq쎯	-11.0583
▁xl쎯ta쎯	-11.0583
▁ga쎯es쎯	-11.0585
▁k쎯ai쎯	-11.0585
▁ooo쎯eve쎯	-11.0586
▁pw쎯rrr쎯	-11.0586
▁rmn0쎯bqv쎯	-11.0592
▁uuk1쎯jtyq0쎯pgc쎯	-11.0595
▁sksw쎯kjj쎯	-11.0601
xkjn1쎯	-11.0603
df쎯	-11.0603
▁tuj0쎯wsg0쎯	-11.0604
▁wsg0쎯wf쎯	-11.0605
▁ua쎯djd쎯	-11.0608
▁gmii2쎯	-11.0608
▁xa쎯yta쎯	-11.0612
▁tgj쎯xeg0쎯	-11.0613
khgp0쎯	-11.0615
▁ifhw쎯	-11.0618
▁aqv1쎯	-11.0622
▁qgo쎯thg1쎯	-11.0624
▁wy쎯yyn2쎯	-11.0624
vcn1쎯	-11.0628
▁mn쎯	-11.0629
vah쎯	-11.063
xy쎯	-11.0632
▁gah쎯ic쎯dd쎯ip쎯	-11.0633
▁amd쎯st쎯uff쎯	-11.0636
▁ide쎯ir쎯	-11.0639
tg쎯u쎯	-11.0641
▁iry쎯v쎯	-11.0643
▁fu쎯wfhg0쎯	-11.0644
▁jy쎯tfl쎯qfhw1쎯	-11.0649
▁sm쎯xeg0쎯	-11.0649
▁쎁쎉쎉쎃rh쎯	-11.0654
▁xgo쎯ytt쎯	-11.0654
▁yxl쎯	-11.0654
▁itf쎯ye쎯	-11.0655
▁tgj쎯wht쎯	-11.0656
ogm쎯	-11.0656
▁vtg쎯qa쎯	-11.0656
▁쎁쎉쎉쎅rh쎯	-11.066
▁쎁쎀쎀dnv0쎯	-11.0667
▁sksw쎯yngk1쎯	-11.0673
▁dif쎯	-11.0674
atg쎯	-11.0675
wwg쎯	-11.0677
▁uq쎯jqr쎯rn쎯	-11.0678
▁bu쎯shn쎯	-11.0678
▁wk쎯pv쎯	-11.068
▁mmm쎯sdm쎯	-11.0683
▁dj쎯wxm쎯	-11.0683
▁fj쎯wx쎯	-11.0684
▁쎁쎉쎁쎂	-11.0685
▁y쎯yq쎯	-11.0686
▁fhw쎯alt쎯	-11.0687
▁lk쎯ii쎯	-11.0688
▁tu쎯tv쎯	-11.069
▁yvc쎯	-11.0692
▁rvl쎯	-11.0692
tw쎯	-11.0692
▁qtjh0쎯bb쎯	-11.0697
▁tem쎯r쎯	-11.0697
isw쎯	-11.0697
▁dj쎯dnv0쎯	-11.07
▁it쎯qt쎯	-11.07
▁ntk쎯gh쎯	-11.0702
wul쎯	-11.0704
pyuf0쎯	-11.0705
▁f쎯eerq쎯	-11.0706
▁dg쎯l쎯	-11.071
▁uu쎯if쎯	-11.0711
▁aqk쎯og쎯	-11.0712
rf쎯xfn쎯v쎯nae0쎯	-11.0715
▁thdu0쎯	-11.0715
vf쎯	-11.0724
▁ux쎯wmj1쎯	-11.0725
▁ym쎯gf쎯	-11.0729
▁fwm쎯ujj쎯	-11.0731
▁rnx쎯	-11.0735
▁pyu쎯	-11.0737
▁lgey2쎯ou쎯	-11.0739
▁vii쎯	-11.074
wyo쎯	-11.074
▁ta쎯tyna2쎯ih쎯yu쎯	-11.0746
▁hv쎯tu쎯	-11.0747
▁udi0쎯uce쎯	-11.0749
▁tcy0쎯uu쎯	-11.075
▁rfw쎯wvm쎯	-11.0751
▁u쎯wfhg0쎯	-11.0757
▁sghg1쎯ic쎯	-11.0757
▁qev쎯yt쎯rg쎯	-11.076
▁dqe쎯	-11.0766
fgh쎯wty0쎯	-11.0767
▁dgv쎯elw쎯	-11.0769
▁if쎯pg쎯	-11.0772
▁qgu쎯ugdu쎯	-11.0774
▁lnn2쎯	-11.0774
▁tfkp0쎯xqa쎯	-11.0775
▁ii쎯rfm쎯	-11.0776
▁twik0쎯	-11.0778
▁ftbt쎯tkgg1쎯	-11.078
▁yygy쎯wx쎯uk쎯	-11.078
▁tmo쎯fcp쎯	-11.0782
▁yc쎯khu쎯	-11.0783
▁gqx쎯rg쎯	-11.0783
wvl쎯	-11.0783
▁gu쎯jf쎯	-11.0784
▁dqq쎯	-11.0785
▁udb쎯ytyh쎯ymhj0쎯	-11.0788
mqu쎯	-11.0791
▁af쎯	-11.0795
▁dqe쎯uu쎯	-11.0799
vff0쎯	-11.0803
▁thc쎯hx쎯	-11.0803
▁td쎯egc쎯	-11.0804
▁bll쎯	-11.0805
▁n쎯www쎯	-11.081
▁쎂쎃쎀	-11.0812
▁qmq쎯tp쎯	-11.0812
▁ftbt쎯km쎯	-11.0813
▁itd쎯inty쎯	-11.0813
fr쎯	-11.0818
an쎯lwj쎯dd쎯hka쎯	-11.0819
▁xyy1쎯qnth쎯	-11.0825
▁ry쎯xt쎯	-11.0827
▁buk쎯	-11.0828
iqn쎯	-11.0829
▁ukh쎯pwd쎯	-11.0831
▁gd쎯rnb쎯	-11.0836
▁ygk쎯yyy쎯ip쎯	-11.0837
vpq쎯	-11.0841
▁ooo쎯lg쎯	-11.0845
sghg1쎯gog쎯	-11.0849
▁pv쎯lfhf쎯	-11.0852
nhy쎯	-11.0853
wfd0쎯	-11.0859
▁kcb0쎯	-11.086
▁dg쎯qn쎯	-11.0863
▁dgh쎯w쎯	-11.0863
▁xox쎯	-11.0866
pta쎯	-11.0873
▁hak쎯	-11.088
▁tfq쎯qtd쎯	-11.0882
▁qkk쎯wgk쎯qqqq1쎯	-11.0883
mds쎯	-11.0884
▁g쎯xfm쎯	-11.0884
▁cds쎯fghg쎯	-11.0886
▁rnb쎯rfm쎯	-11.089
▁pfjm1쎯tb쎯	-11.0894
▁iwgu쎯	-11.0903
▁qqqq1쎯amw쎯qc쎯	-11.0904
▁khgp1쎯	-11.0906
▁sgn쎯ou쎯	-11.0908
gad쎯	-11.0909
▁adwl쎯rpws쎯	-11.091
jan쎯	-11.0915
▁rvy쎯tf쎯l쎯	-11.0917
▁iyo쎯	-11.0919
▁x쎯qie쎯	-11.0919
▁tmgt3쎯	-11.092
▁mq쎯ijo쎯	-11.0921
▁gkl쎯dga쎯pwv쎯km쎯	-11.0925
▁el쎯	-11.0925
▁yygy쎯kq쎯	-11.0926
tev쎯	-11.0927
▁mf쎯ght쎯nnk쎯	-11.093
▁쎁쎉쎁쎁	-11.0933
▁gj쎯mf쎯	-11.0935
ivg쎯	-11.0938
▁sgtk1쎯hpgh0쎯	-11.0941
▁qv쎯bc쎯	-11.0941
xtu쎯	-11.0943
▁ii쎯jn쎯uh쎯	-11.0943
ssk쎯	-11.0944
▁gkim1쎯	-11.0947
▁ny쎯nge쎯	-11.0948
▁mq쎯fghy2쎯	-11.0948
▁pjm쎯	-11.095
▁jmd쎯	-11.0957
▁pwkw쎯	-11.0958
▁wfi쎯pynn1쎯	-11.0958
▁쎁쎁쎆	-11.0959
▁bukn0쎯je쎯	-11.096
▁yc쎯jn쎯	-11.096
▁ovt쎯wfhg0쎯	-11.0964
▁tdkj0쎯ce쎯wx쎯	-11.0967
nm쎯	-11.0967
▁ymf쎯rmhj쎯	-11.0967
▁gkih0쎯yjj1쎯	-11.0969
▁pwfi0쎯	-11.0975
▁you1쎯sk쎯	-11.0976
ypk쎯	-11.0981
▁puhc쎯rge쎯	-11.0983
ujf0쎯qi쎯	-11.0985
▁쎁쎀쎂	-11.0988
▁rpf쎯	-11.0988
▁ukn쎯ptkm1쎯	-11.0989
▁vi쎯rmhj쎯	-11.099
xcy0쎯	-11.0992
▁bmg쎯	-11.0992
▁xcy0쎯	-11.0992
▁afl쎯	-11.0994
▁rqk쎯	-11.0995
▁wye쎯gkim1쎯	-11.0999
▁okk쎯	-11.0999
irn쎯	-11.1001
▁ssss0쎯rfm쎯	-11.1002
▁rawk쎯vfhp1쎯	-11.1005
▁tfkp0쎯yxj쎯	-11.1005
ynv쎯	-11.1005
▁afw쎯	-11.1006
uj	-11.101
pa쎯	-11.101
▁ige쎯bwt쎯	-11.1011
▁gd쎯yygy쎯	-11.1014
▁yvcb0쎯	-11.1015
▁sjs쎯	-11.1018
▁fq쎯xg쎯jn쎯	-11.1019
▁zzts13쎯	-11.1019
kqb0쎯	-11.102
▁geht0쎯	-11.1026
▁tg쎯wx쎯	-11.1029
▁ajd0쎯adwr0쎯tu쎯	-11.1033
▁tol쎯alkf0쎯	-11.1034
▁nudu쎯fnud쎯	-11.1034
etn쎯	-11.1037
▁vq쎯pynn0쎯	-11.1038
▁ta쎯dd쎯	-11.104
▁tt쎯kd쎯	-11.1042
▁siq쎯awx쎯	-11.1044
▁fuj쎯lwj쎯	-11.1047
▁sdm쎯uk쎯	-11.1048
ukn쎯a쎯tkgg1쎯jgm쎯	-11.1053
▁imj쎯xwf쎯	-11.1053
qj쎯	-11.1056
qd쎯wk쎯ryn1쎯aq쎯	-11.1056
▁oge쎯yv쎯	-11.1059
▁yne쎯gajf0쎯	-11.1059
▁khh0쎯	-11.1059
▁rvk쎯nh쎯	-11.1063
▁ige쎯gs쎯	-11.1065
▁thp쎯xfn쎯	-11.1065
▁gd쎯pw쎯	-11.1066
▁ugm쎯rrp쎯	-11.1068
▁iwg쎯yoo쎯	-11.1073
▁dn쎯ddu1쎯	-11.1075
▁vb쎯dc쎯	-11.1075
▁kkdu쎯	-11.1075
▁stx쎯awx쎯	-11.1077
▁gqto0쎯	-11.1078
▁qnq쎯et쎯	-11.1082
▁rh쎯lc쎯w쎯	-11.1084
▁ycb쎯gq쎯	-11.1088
wo쎯	-11.1088
lqw쎯	-11.109
▁if쎯jgm쎯	-11.109
▁riv쎯	-11.1098
ndj쎯bpf쎯	-11.1099
▁lfn쎯tm쎯	-11.1099
▁pj쎯ugdu쎯	-11.11
dr쎯ou쎯	-11.11
▁kkks1쎯ujf0쎯	-11.1101
▁fct쎯ey쎯	-11.1101
▁qh쎯ge쎯	-11.1102
▁sce쎯	-11.1104
▁dty0쎯xte쎯	-11.1106
▁ymf쎯wtf쎯	-11.1107
▁fny0쎯wtf쎯	-11.1108
▁ifp쎯itx쎯	-11.1109
▁yff쎯yygy쎯	-11.1113
▁aig쎯eajd쎯	-11.1117
zzbd9쎯zzbd9쎯	-11.1119
ef쎯	-11.1121
▁ydx쎯dd쎯	-11.1123
▁fny0쎯og쎯ntg쎯	-11.1123
▁dm쎯eerq쎯	-11.1124
ufw쎯	-11.1127
▁ipk쎯ght쎯	-11.1128
▁cep쎯wwwk0쎯	-11.1129
ipkm1쎯	-11.1133
▁fcln쎯	-11.1133
▁dg쎯eee0쎯	-11.1136
▁rwb쎯fiyt쎯	-11.114
▁dd쎯ej쎯	-11.1141
▁pei쎯sm쎯	-11.1141
▁yu쎯ytd쎯	-11.1142
▁wgg1쎯	-11.1146
gmww쎯	-11.1149
▁pk쎯tfpd0쎯	-11.1156
▁je쎯gr쎯	-11.1156
▁ii쎯uwy0쎯	-11.1162
▁fhqv0쎯	-11.1163
▁sgyb0쎯	-11.1169
▁kqr쎯	-11.117
▁ooo쎯tue쎯	-11.117
▁jf쎯qkhh1쎯	-11.1173
yca쎯	-11.1177
cccg0쎯	-11.1178
▁rvy쎯og쎯	-11.118
▁tdtv0쎯	-11.1184
mhkg2쎯	-11.1186
▁ukqb2쎯rfc쎯	-11.1187
▁uth쎯wbj쎯	-11.1188
▁x쎯qie쎯um쎯	-11.119
▁fffy0쎯uft쎯	-11.1194
▁pyb1쎯	-11.1195
▁pp쎯bf쎯	-11.1205
▁yss쎯sgy쎯	-11.1212
▁tdg1쎯adwe1쎯	-11.1215
▁wsg0쎯gajf0쎯	-11.1219
yygt쎯rtol0쎯	-11.1221
▁iry쎯ddnl쎯	-11.1222
▁jf쎯pw쎯	-11.1222
▁ssm쎯	-11.1223
▁ujn쎯o쎯	-11.1228
▁uqwn2쎯kkd쎯	-11.1228
▁alw쎯la쎯	-11.1228
▁akgl쎯dlf0쎯	-11.1228
▁a쎯og쎯lfq쎯	-11.1229
▁afie0쎯	-11.123
▁jd쎯	-11.1234
tg쎯ywwf0쎯	-11.1235
▁a쎯anb0쎯kkk쎯	-11.1237
▁ukn쎯bw쎯	-11.1239
▁쎁쎁쎈	-11.1239
▁shy0쎯	-11.1239
▁tue쎯	-11.124
▁ajj0쎯f쎯	-11.1243
▁rcbs쎯	-11.1245
▁tmg1쎯oy쎯	-11.1245
▁pe쎯ytfp0쎯	-11.1245
abe쎯	-11.1246
▁ip쎯ipkf0쎯	-11.1247
▁gjq쎯e쎯	-11.1248
vjs쎯	-11.1249
▁dgkf1쎯yny0쎯	-11.1249
▁toc쎯yygy쎯	-11.1253
▁tf쎯ght쎯aq쎯	-11.1253
qqug1쎯	-11.1256
▁ynh쎯	-11.1259
▁sq쎯	-11.1261
uwe쎯	-11.1262
▁dm쎯lft쎯	-11.1265
▁rpws쎯imj쎯	-11.1268
▁kynw0쎯kgkw쎯	-11.1269
▁gl쎯bpf쎯	-11.127
▁n쎯ght쎯	-11.127
▁쎁쎀쎂쎄	-11.1274
▁쎂쎆쎀	-11.1275
▁xyc쎯tq쎯	-11.1277
▁wc쎯aa쎯	-11.1277
▁et쎯ax쎯	-11.128
▁xa쎯sov쎯ssq쎯	-11.1283
wu쎯	-11.1284
sam쎯	-11.129
▁dr쎯sft쎯ou쎯	-11.1292
▁ihi쎯qh쎯	-11.1292
elv쎯	-11.1293
▁wyn쎯fhw쎯	-11.1295
▁alw쎯ytyh쎯ymhj0쎯	-11.1296
▁tl쎯a쎯	-11.1298
suf쎯	-11.1299
▁rs쎯dhc쎯	-11.1299
▁tgh쎯nh쎯	-11.1301
gv쎯	-11.1304
▁yid쎯lt쎯	-11.1307
tux쎯	-11.1308
▁dlf0쎯	-11.1309
▁dwiu쎯mmm쎯	-11.1309
▁pd쎯	-11.131
▁fj쎯dmj1쎯	-11.1312
▁uq쎯lw쎯	-11.1313
▁rnb쎯rnw쎯	-11.1317
jd쎯	-11.1318
er쎯	-11.1324
set쎯	-11.1324
▁wyf0쎯tlf0쎯	-11.1325
▁uq쎯tyg쎯	-11.1325
▁yx쎯wycm1쎯	-11.1333
▁tffu쎯tffy0쎯	-11.134
▁wbj쎯fjh0쎯	-11.1341
wcd쎯	-11.1342
▁fn쎯drin0쎯ftj쎯	-11.1342
ufg쎯	-11.1342
▁fad쎯	-11.1344
▁vck쎯gf쎯	-11.1348
▁dd쎯yy쎯	-11.1353
▁kyn1쎯	-11.1358
▁xuq쎯	-11.1361
▁je쎯ypm쎯	-11.1362
rnp쎯sgc쎯	-11.1363
▁fm쎯dm쎯	-11.1364
yfj0쎯	-11.1367
▁p쎯jf쎯	-11.1373
▁ihg1쎯	-11.1375
▁rdjn0쎯	-11.1377
nkuy0쎯	-11.1378
▁sks쎯sks쎯	-11.1378
ccw쎯	-11.1378
▁khtd2쎯	-11.1378
▁nty0쎯vfhp1쎯	-11.1382
▁sqdy쎯	-11.1382
▁ujfj0쎯xgb쎯	-11.1384
▁vvv쎯tg쎯	-11.1391
▁sam쎯tm쎯	-11.1391
▁fnhp0쎯if쎯	-11.1393
lpdk1쎯	-11.1397
▁ow쎯xxg0쎯	-11.1397
▁bwf쎯lk쎯	-11.14
▁ipr쎯itx쎯	-11.1402
▁gu쎯ime쎯	-11.1402
▁ue쎯bg쎯	-11.1403
▁쎅wn쎯	-11.1406
▁aqt쎯tj쎯ftj쎯	-11.1408
▁쎁쎁쎄	-11.1409
gmiu쎯	-11.1409
jn쎯bb쎯	-11.141
▁usr쎯lh쎯pl쎯	-11.1411
kk	-11.1412
sq쎯	-11.1412
▁bfm쎯xfn쎯	-11.1414
▁dgkn0쎯fcl쎯	-11.1418
▁dgh쎯wynb0쎯	-11.1418
▁ith쎯mw쎯	-11.1419
▁cd쎯xyna1쎯	-11.142
▁ck쎯aa쎯	-11.1424
▁ol쎯ajj0쎯	-11.1425
▁y쎯xg쎯	-11.1427
▁yygy쎯wsg0쎯	-11.1427
▁h쎯yy쎯	-11.1428
▁bwff0쎯	-11.143
▁qug2쎯	-11.1431
rrg1쎯	-11.1432
▁se쎯bv쎯	-11.1432
▁vfi쎯vfi쎯	-11.144
▁w쎯cd쎯	-11.1441
ytt쎯thd쎯ick쎯egc쎯	-11.1442
▁fnr0쎯qi쎯	-11.1444
fm쎯yiu0쎯	-11.1444
▁ygu쎯tv쎯	-11.145
▁yvh쎯fje쎯	-11.145
▁ai쎯mq쎯	-11.1451
▁bmg쎯yge쎯	-11.1451
ia쎯aq쎯	-11.1453
▁yw쎯td쎯	-11.1454
vp쎯	-11.1455
▁fqb0쎯wa쎯	-11.1455
▁jc쎯xt쎯	-11.1455
bg쎯tg쎯	-11.1457
▁pgn쎯pb쎯sov쎯	-11.1465
▁tep쎯fp쎯	-11.1466
gma쎯	-11.1468
▁qmq쎯telb쎯	-11.1469
qtjh0쎯	-11.1471
▁pr쎯ygk쎯	-11.1474
▁rhy쎯	-11.1475
▁ddi쎯	-11.1475
▁dd쎯oy쎯	-11.1476
▁ge쎯st쎯	-11.148
▁twgi쎯ys쎯	-11.148
▁nwgk0쎯	-11.1481
dwf쎯	-11.1483
deb쎯	-11.1484
▁쎁쎉쎂쎃	-11.1484
uxxn0쎯	-11.1484
xnn1쎯	-11.1489
▁fffy0쎯vfhp1쎯	-11.1491
qjn쎯	-11.1493
▁vcb쎯j쎯	-11.1494
▁ue쎯rj쎯	-11.1495
▁gxw쎯	-11.1497
▁ufy쎯lhnh쎯	-11.1497
▁dyi쎯	-11.1497
▁fkuk2쎯yd쎯	-11.1498
▁agnt0쎯	-11.1499
▁jgm쎯ta쎯	-11.1501
▁sfi쎯twgi쎯	-11.1502
▁uh쎯hko쎯	-11.1505
ipq쎯	-11.1507
▁xnh쎯xwv쎯	-11.1507
▁rcf쎯	-11.1507
dgty쎯	-11.151
▁ga쎯nku쎯	-11.151
▁xdmd2쎯ql쎯	-11.151
▁wjm쎯wqj쎯	-11.1511
jmh쎯	-11.1513
▁qk쎯ae쎯	-11.1516
▁pwdj쎯wfk쎯	-11.1517
▁e쎯hko쎯	-11.1517
▁qc쎯gxi쎯	-11.1519
▁hk쎯wycm1쎯	-11.1519
▁쎂쎈쎀	-11.152
fo쎯	-11.1523
▁─	-11.1524
dww쎯	-11.1525
▁k쎯l쎯w쎯	-11.1528
wff0쎯	-11.1528
▁udg2쎯lc쎯	-11.1529
▁gik쎯mj쎯	-11.1531
xi쎯	-11.1532
▁쎉쎇쎈	-11.1533
ykhe쎯	-11.1536
▁mb쎯sfiu1쎯	-11.1538
▁w쎯fqu쎯nh쎯ty쎯	-11.154
▁qna쎯	-11.154
▁tjf0쎯ae쎯	-11.1541
xtf쎯xwy0쎯	-11.1544
▁tfk0쎯gny쎯	-11.1544
▁ii쎯fakg0쎯	-11.1547
▁eb쎯tmc쎯	-11.1547
▁lfhf쎯gf쎯	-11.1547
vfi쎯	-11.155
▁g쎯m쎯	-11.1551
▁qya쎯	-11.1552
▁gog쎯rvyo쎯gkp쎯	-11.1556
▁mmm쎯eyni쎯	-11.1556
▁fm쎯wmj1쎯	-11.1559
▁zzzy33쎯	-11.156
▁rjq쎯fi쎯	-11.156
▁ipw쎯wx쎯	-11.1562
▁rg쎯dm쎯	-11.1562
▁ishg쎯isj쎯	-11.1564
▁wv쎯dn쎯	-11.1565
gqje0쎯	-11.1565
▁cqy쎯mww쎯	-11.1568
▁rfc쎯jgm쎯	-11.1572
▁uk쎯lftj쎯	-11.1574
▁ws쎯thn쎯	-11.1576
▁xp쎯wgk쎯tgh쎯	-11.1578
▁sk쎯tfkd쎯ntg쎯	-11.1579
▁wgk쎯ec쎯ymhj0쎯	-11.1579
▁lp쎯aq쎯	-11.1579
▁lw쎯wc쎯sov쎯	-11.1581
▁rke쎯	-11.1583
▁lfq쎯mw쎯	-11.1585
gah쎯ic쎯	-11.1585
nnnn0쎯	-11.1588
wfg1쎯	-11.1589
▁lfq쎯anb0쎯	-11.1589
▁nuk1쎯	-11.159
▁dd쎯afi쎯	-11.1593
▁fm쎯yiu0쎯dd쎯ip쎯	-11.1597
▁ds쎯ta쎯	-11.1601
▁rfm쎯f쎯	-11.1602
▁mqb쎯gc쎯	-11.1602
▁uce쎯adf쎯	-11.1604
▁sghg1쎯ide쎯	-11.1608
▁ieb쎯mfky쎯	-11.1608
agq쎯	-11.161
▁mmq쎯	-11.161
▁tp쎯tv쎯wf쎯	-11.1612
▁zzzy35쎯	-11.1614
▁mmm쎯h쎯	-11.1616
ybj쎯	-11.1616
,	-11.1618
▁wvm쎯ls쎯sf쎯	-11.1618
▁pnt쎯wys쎯	-11.162
▁ians0쎯	-11.1621
▁pjv쎯	-11.1622
k1쎯	-11.1626
qu쎯	-11.1633
▁fm쎯ga쎯	-11.1633
▁yce쎯tkh쎯	-11.1634
dk쎯	-11.1635
▁oyna0쎯	-11.1637
qqw쎯	-11.1637
▁fp쎯iya쎯	-11.1637
wy0쎯	-11.1644
▁qwy1쎯	-11.1646
▁cf쎯tgm쎯	-11.165
▁to쎯tb쎯	-11.1652
▁puf0쎯	-11.1653
arj쎯	-11.1654
▁wgku1쎯bfm쎯	-11.1655
fii쎯	-11.1657
hna쎯	-11.166
▁ye쎯eb쎯	-11.166
lkb쎯	-11.1662
▁ym쎯imkf1쎯	-11.1664
▁wvf0쎯ert쎯	-11.1669
pq쎯	-11.1669
xj쎯	-11.167
▁gog쎯tkh쎯	-11.1674
alkf0쎯	-11.1674
▁tmo쎯f쎯tjh쎯	-11.1674
aqrn1쎯	-11.1675
▁ujff쎯ytd쎯	-11.1676
▁av쎯bwt쎯	-11.168
ndj쎯lft쎯	-11.1682
qtny1쎯	-11.1682
▁trh0쎯kq쎯	-11.1683
▁ii쎯uqwm1쎯idr쎯	-11.1684
▁dyc쎯sgc쎯	-11.1686
▁maf1쎯	-11.1687
▁toln1쎯oi쎯	-11.1687
alfj1쎯	-11.1687
▁tj쎯gd쎯qtj쎯djb쎯	-11.1688
▁dgj쎯tt쎯	-11.1688
fgh쎯fg쎯	-11.169
gj쎯ip쎯	-11.1692
▁kaqy쎯	-11.1694
sghg1쎯kht쎯	-11.1701
gaj쎯	-11.1702
▁suq쎯xe쎯	-11.1705
▁lks쎯sq쎯	-11.1708
lsh0쎯	-11.1711
▁zzhb4쎯	-11.1717
▁saq쎯xnf쎯	-11.1718
rn쎯yle쎯	-11.1721
▁bmg쎯o쎯	-11.1722
▁mmm쎯ss쎯	-11.1722
▁fh쎯dp쎯	-11.1724
▁fgu쎯	-11.1726
▁쎁쎉쎉쎂rh쎯	-11.1726
▁ugdu쎯iyt1쎯	-11.1728
▁yssr0쎯rpwi쎯	-11.1731
▁gg쎯eee0쎯	-11.1734
▁jn쎯mqq쎯	-11.1734
▁eud쎯	-11.1736
▁tdtf0쎯	-11.1739
▁wy쎯wqbh0쎯	-11.1739
▁^	-11.1741
▁py쎯wf쎯lft쎯wsg0쎯	-11.1742
▁esw쎯	-11.1744
▁jel쎯	-11.1745
iex쎯egc쎯	-11.1746
▁awx쎯qyng0쎯	-11.1747
dfek쎯	-11.1748
▁tx쎯fgh쎯	-11.1749
▁qi쎯fhb쎯	-11.175
pgm쎯	-11.1751
emc쎯wwv쎯	-11.1752
ald0쎯	-11.1752
▁dd쎯isgg2쎯yhk쎯	-11.1754
bh쎯	-11.1755
▁ynt0쎯vi쎯	-11.1756
▁ugv쎯thg1쎯	-11.1757
▁xxm쎯ahty0쎯	-11.1758
▁yni1쎯qy쎯	-11.1758
uqyl쎯	-11.176
▁쎂쎀dnv0쎯	-11.1761
▁hi쎯rgw쎯	-11.1761
▁sksw쎯rlg0쎯	-11.1762
▁oqdo쎯rnb쎯	-11.1763
▁amyn1쎯	-11.1767
▁rvy쎯nf쎯	-11.1767
▁v쎯iq쎯	-11.1769
▁ghd1쎯fwm쎯	-11.1771
▁bs쎯qiu0쎯	-11.1772
▁dxy쎯	-11.1772
▁lkc쎯	-11.1775
▁ran쎯xqc쎯	-11.1775
ipks쎯	-11.1775
▁d쎯suq쎯tg쎯	-11.1775
▁nnh쎯bpf쎯	-11.1775
▁adn쎯	-11.1778
▁xx쎯tjh쎯jf쎯	-11.1778
▁itp쎯rxj쎯	-11.1779
▁nh쎯aqt쎯	-11.1781
▁ixj쎯ii쎯	-11.1781
▁y쎯ick쎯atd쎯jgm쎯	-11.1783
mmqu쎯	-11.1784
▁kxe쎯	-11.1784
▁xn쎯wynn3쎯qnp쎯	-11.1785
▁w쎯st쎯	-11.1786
▁me쎯tu쎯	-11.1786
▁itfk0쎯	-11.1788
▁yfj0쎯yww쎯	-11.179
▁og쎯y쎯	-11.1792
iie쎯	-11.1793
▁gyt쎯bb쎯	-11.1797
▁pgy쎯mhny1쎯	-11.1797
▁ecl쎯	-11.1799
▁nng쎯wtf쎯	-11.1801
iwb쎯	-11.1805
▁pb쎯twf쎯	-11.181
▁hhu0쎯thg1쎯	-11.1811
mh	-11.1812
▁o쎯hx쎯	-11.1812
▁qnj쎯	-11.1814
▁ytf쎯sk쎯	-11.1816
▁e쎯uwl쎯	-11.1817
▁pl쎯pn쎯	-11.1819
▁dtb쎯	-11.182
iytb0쎯ca쎯	-11.1823
▁mmv0쎯qt쎯	-11.1825
▁nt쎯tlf0쎯	-11.1826
▁uwb쎯	-11.1831
▁igd쎯	-11.1832
▁l쎯ygk쎯	-11.1837
▁fgh쎯eee0쎯	-11.1837
▁iv쎯jv쎯	-11.1838
▁um쎯lud쎯	-11.1838
▁쎁쎉쎂쎂	-11.184
▁jtg쎯txi쎯	-11.1842
▁qev쎯sr쎯	-11.1844
sga쎯	-11.1844
▁qr쎯uthp0쎯	-11.1845
▁sfi쎯rgw쎯	-11.1847
▁gmm쎯gde쎯	-11.1848
oat쎯	-11.1849
▁mga쎯cbj쎯	-11.1852
▁wynb0쎯rg쎯	-11.1853
▁wyv쎯yuo쎯	-11.1853
▁gu쎯src쎯	-11.1853
▁wcn0쎯	-11.1854
▁ue쎯umd1쎯	-11.1854
▁jge쎯	-11.1857
akgn0쎯	-11.1858
▁khgp0쎯yop쎯	-11.1858
isk쎯egc쎯	-11.1858
▁zzpj3쎯	-11.1859
▁usr쎯sghg1쎯uff쎯	-11.1859
▁yxt쎯ghd1쎯	-11.1859
▁ryj쎯	-11.1862
▁ovt쎯pb쎯wx쎯	-11.1867
nx쎯adwr0쎯	-11.1867
rrk쎯ip쎯	-11.1868
▁ipkh1쎯xv쎯	-11.1869
▁ywwf0쎯gf쎯	-11.1873
▁mb쎯jn쎯	-11.1873
tkm쎯	-11.1878
▁yxl쎯trt쎯og쎯	-11.188
▁gef쎯awx쎯	-11.1884
▁yyq쎯wf쎯	-11.1885
▁wv쎯bb쎯aa쎯	-11.1886
▁gm쎯qqqq1쎯	-11.1892
▁xwf쎯rmhj쎯	-11.1894
▁alw쎯xwy0쎯fct쎯	-11.1896
▁fq쎯rn쎯	-11.1899
▁bqv쎯	-11.19
▁ip쎯yu쎯	-11.1901
▁ile쎯	-11.1901
ym쎯xe쎯	-11.1901
▁cel쎯	-11.1902
▁nty0쎯yv쎯	-11.1907
▁fqu쎯tqdh0쎯	-11.1909
ms쎯	-11.1913
▁wc쎯yw쎯	-11.1925
▁qtj쎯uqwm1쎯	-11.1926
▁uxe쎯rg쎯	-11.1927
rvk쎯	-11.1929
▁wvp쎯	-11.1931
fgh쎯lh쎯	-11.1932
▁zzxe13쎯	-11.1936
▁fm쎯cep쎯	-11.1937
▁vk쎯m쎯	-11.1938
▁sh쎯ruv쎯	-11.1941
▁lwx쎯eck쎯	-11.1942
▁yb쎯ws쎯	-11.1943
▁k쎯wxf쎯n쎯ytt쎯	-11.1944
▁iagw쎯ytt쎯	-11.1945
▁igd쎯lk쎯yjjh0쎯	-11.1946
tmgt3쎯	-11.1953
xkw쎯	-11.1954
▁ptf쎯if쎯	-11.1955
▁hh쎯uce쎯	-11.1955
▁fm쎯mdfj쎯	-11.1956
▁ia쎯ide쎯	-11.1956
▁jf쎯ufy쎯	-11.1961
vfhp1쎯tam쎯	-11.1962
▁rdf0쎯iw쎯	-11.1963
▁kkkk1쎯drt쎯	-11.1963
ov쎯	-11.1967
d1쎯	-11.197
▁fm쎯ps쎯	-11.1971
▁jc쎯udw쎯	-11.1973
▁xww쎯bw쎯	-11.1974
▁쎇dnv0쎯	-11.198
tig쎯	-11.1981
xeg0쎯xkw쎯	-11.1982
▁oge쎯cep쎯	-11.1984
▁yr쎯ywc쎯	-11.1984
▁gdk쎯	-11.1985
▁sm쎯jm쎯	-11.1986
▁jq쎯rh쎯	-11.1988
▁mwyc0쎯	-11.1989
▁synw쎯tha쎯	-11.199
▁dd쎯ds쎯	-11.1991
▁gmww쎯ftj쎯	-11.1991
▁wcw쎯	-11.1994
▁cel쎯gf쎯	-11.1997
▁js쎯scf쎯	-11.2001
▁usr쎯g쎯wa쎯	-11.2002
▁hx쎯f쎯	-11.2002
uqi0쎯	-11.2002
rfh1쎯	-11.2003
▁ujn쎯kfi쎯	-11.2004
▁gjq쎯rq쎯	-11.2008
▁rvyo쎯jg쎯	-11.2009
▁jde쎯jan쎯	-11.2009
wy쎯thn쎯	-11.201
▁쎁쎉쎁쎉	-11.201
qdb쎯	-11.2013
▁dm쎯ou쎯	-11.2016
fgh쎯gg쎯	-11.2016
▁mqb쎯qev쎯	-11.2017
ifw쎯	-11.2019
▁kuq쎯	-11.2021
▁pds쎯tg쎯	-11.2021
▁p쎯wug0쎯	-11.2021
vkf0쎯	-11.2022
▁sk쎯pym쎯	-11.2023
▁qr쎯kht쎯nnk쎯	-11.2023
▁se쎯hw쎯	-11.2027
▁cc쎯tgj쎯	-11.2028
쎉쎀쎀	-11.2029
ew쎯	-11.2035
▁oat쎯ga쎯	-11.2036
▁wx쎯uv쎯	-11.2039
▁xnf쎯	-11.2039
xad쎯	-11.2041
▁lkd쎯rb쎯	-11.2043
v0쎯	-11.2043
▁nkuf쎯gl쎯	-11.2048
▁bc쎯qk쎯	-11.2048
w1쎯	-11.2049
gq	-11.2049
▁qi쎯lfq쎯	-11.2049
▁xln0쎯jhny쎯	-11.205
wf쎯yyq쎯	-11.2051
▁dgtg0쎯udi0쎯	-11.2051
▁hich0쎯	-11.2052
▁rpl쎯	-11.2052
▁uk쎯uth쎯	-11.2053
nck쎯	-11.2054
▁bgk쎯yb쎯	-11.2057
pr쎯qnp쎯	-11.2058
▁qtj쎯e쎯	-11.2059
▁dmjf1쎯yssd0쎯	-11.206
▁oun쎯	-11.2065
gip쎯	-11.2067
▁ncd쎯	-11.2069
▁ic쎯wa쎯	-11.2071
sse쎯	-11.2072
▁alf0쎯ytt쎯	-11.2072
▁wv쎯a쎯	-11.2078
▁yfy2쎯	-11.2079
rfq쎯	-11.2079
wjm쎯	-11.208
▁x쎯xn쎯	-11.208
rdn쎯	-11.2081
lqw쎯wrh1쎯	-11.2081
▁x쎯l쎯	-11.2082
▁rmhj쎯tfkp0쎯og쎯	-11.2083
▁ls쎯	-11.2088
▁sghg1쎯lp쎯	-11.209
apw쎯	-11.2091
▁hk쎯rnd1쎯	-11.2093
▁tfj0쎯	-11.2096
▁rvyo쎯hko쎯	-11.2098
▁ijl쎯ytyh쎯ymhj0쎯	-11.2098
▁x쎯qyv쎯	-11.2098
▁hx쎯nnh쎯	-11.2099
nn쎯	-11.2099
▁dg쎯jtg쎯	-11.2099
▁mh	-11.21
▁qten1쎯	-11.21
▁thn쎯	-11.21
▁efcb쎯gh쎯	-11.2101
▁lh쎯efc쎯	-11.2102
▁jat쎯	-11.2103
▁epe0쎯	-11.2104
▁d쎯wug0쎯	-11.2108
▁rmhj쎯fcl쎯	-11.2109
▁kq쎯ou쎯	-11.2109
▁irr쎯ia쎯dd쎯ip쎯	-11.211
sm쎯fnrt쎯	-11.2114
khtd2쎯	-11.2115
ytt쎯thd쎯ick쎯aq쎯	-11.2115
▁쎁쎀쎀쎀dnv0쎯	-11.2116
mdo쎯	-11.2117
nfi1쎯	-11.212
▁kld쎯kwn쎯	-11.212
▁ygk쎯if쎯	-11.2122
▁rmhj쎯ys쎯	-11.2127
▁uwyc2쎯uai0쎯	-11.213
rvy쎯	-11.213
▁ytd쎯ndj쎯	-11.2131
▁sfh쎯alt쎯	-11.2131
▁cf쎯dm쎯	-11.2135
▁cf쎯rymn쎯	-11.2137
▁ntg쎯udy쎯	-11.2137
pwat0쎯	-11.2137
k쎯mmm쎯	-11.214
▁kld쎯	-11.2141
jj쎯egc쎯	-11.2142
▁mdo쎯	-11.2143
▁vfhp1쎯rmhj쎯	-11.2144
▁qsu쎯gqx쎯	-11.2145
▁wc쎯wv쎯	-11.2146
▁쎅쎀쎀dnv0쎯	-11.215
▁sss쎯	-11.2151
▁fp쎯qq쎯	-11.2155
▁hq쎯	-11.2156
▁l쎯bf쎯sfi쎯uwy0쎯	-11.2157
▁쎁쎂쎆	-11.2157
▁fc쎯ref쎯	-11.2159
▁fak쎯	-11.216
▁a쎯og쎯lfq쎯aq쎯	-11.216
▁ftbt쎯wf쎯	-11.216
▁rdj쎯ta쎯	-11.2164
qtq쎯	-11.2165
pwkw쎯	-11.2165
qim쎯	-11.2166
▁qi쎯lft쎯	-11.2167
ar쎯	-11.2167
qvn0쎯	-11.2167
▁oug0쎯bb쎯	-11.2169
▁lfo쎯pt쎯	-11.217
▁isk쎯uthp0쎯	-11.2172
▁wff0쎯yvcb0쎯	-11.2175
▁sm쎯fcl쎯	-11.2178
▁dy쎯pw쎯	-11.2178
▁rdj쎯yt쎯	-11.2182
▁pei쎯lll쎯	-11.2183
▁idr쎯thd쎯	-11.2184
▁sdh쎯	-11.2185
▁wk쎯udyj쎯	-11.2185
ipkh1쎯tg쎯itd쎯	-11.2186
px쎯	-11.2187
▁awnu0쎯	-11.2189
▁쎁쎇쎅	-11.2189
▁k쎯mmm쎯dd쎯ip쎯	-11.219
▁wc쎯gu쎯	-11.2191
▁ukn쎯hich0쎯	-11.2197
oufg쎯	-11.2198
▁aik쎯	-11.2199
▁ai쎯lp쎯	-11.2202
▁gr쎯itx쎯	-11.2203
▁jtyl쎯qtyd0쎯	-11.2205
rmay쎯	-11.2206
▁ndj쎯hhhh쎯	-11.2206
▁pf쎯ryn1쎯	-11.2206
▁ux쎯itx쎯	-11.2208
▁gu쎯fjg0쎯	-11.2208
wvmj쎯	-11.2208
▁jjjj0쎯yygy쎯	-11.2209
rffg0쎯	-11.2209
m1쎯	-11.2211
▁wgk쎯wt쎯py쎯	-11.2211
▁vcb쎯jf쎯	-11.2213
▁myd0쎯gtu쎯	-11.2215
▁dd쎯ftjb쎯	-11.2215
쎂쎀쎀쎀	-11.2216
rnv0쎯	-11.2217
▁kq쎯ip쎯	-11.2217
▁cc쎯tm쎯	-11.2217
▁ifw쎯ny쎯	-11.222
▁dww쎯	-11.2222
▁쎁쎉쎁쎃	-11.2224
▁ohj쎯	-11.2225
▁ff쎯bpf쎯	-11.2226
▁wyp쎯lg쎯	-11.2227
▁thd쎯tf쎯lg쎯	-11.2228
xyx쎯	-11.2228
▁lh쎯qe쎯	-11.223
▁tmg1쎯lqw쎯	-11.2233
nnh쎯gl쎯	-11.2234
rvyf0쎯	-11.2239
▁dgkf1쎯	-11.2239
▁awn쎯	-11.2241
▁nck쎯	-11.2241
▁fm쎯ps쎯ymhj0쎯	-11.2241
▁msj쎯	-11.2245
yygt쎯fnrt쎯	-11.2246
▁is쎯	-11.2246
▁rny1쎯pg쎯	-11.2249
▁rnb쎯rvyl0쎯	-11.2249
▁qrn쎯	-11.2251
▁qtjh0쎯	-11.2253
▁on쎯gqje0쎯	-11.2253
▁rffg0쎯thgf1쎯	-11.2256
yge쎯	-11.2256
▁c쎯ai쎯	-11.2256
▁rt쎯k쎯	-11.2257
▁qnp쎯ta쎯	-11.2259
▁dm쎯uk쎯	-11.2261
▁yt쎯lfhf쎯	-11.2263
▁yt쎯dd쎯	-11.2263
▁tu쎯ip쎯rfc쎯sy쎯	-11.2264
▁yygy쎯si쎯	-11.2265
▁fwyc2쎯uk쎯wrh1쎯	-11.2267
▁dskf쎯trf0쎯	-11.2267
wqbh0쎯	-11.2267
▁an쎯lwj쎯sgi쎯	-11.227
▁wuf쎯bde쎯	-11.2271
tfq쎯fj쎯a쎯wt쎯ftj쎯	-11.2271
▁ajdf쎯f쎯	-11.2271
▁zzxe16쎯	-11.2272
ukq쎯	-11.2274
iwgu쎯	-11.2275
▁wc쎯ghd1쎯	-11.2275
dyc쎯	-11.2276
▁쎂쎀쎀dnv0쎯	-11.2279
kyn1쎯	-11.2284
▁by쎯ooo쎯	-11.2285
▁wj쎯ty쎯	-11.2285
tp쎯gj쎯uqwk0쎯yqj쎯	-11.2285
▁afs쎯wh쎯	-11.2289
▁ty쎯wvp쎯	-11.2289
agf0쎯	-11.229
ek쎯	-11.2293
▁qwyc1쎯	-11.2295
▁qyk쎯	-11.2295
▁yngk1쎯maw쎯	-11.2297
▁dd쎯gcft0쎯	-11.2299
▁tcy0쎯apk쎯	-11.2301
▁tp쎯gj쎯th쎯	-11.2301
▁ym쎯wqa쎯	-11.2302
▁ga쎯v쎯um쎯	-11.2305
▁mw쎯wv쎯int쎯	-11.2309
▁zzxe5쎯	-11.2309
▁rrr쎯isgg2쎯	-11.2309
▁gs쎯umd1쎯	-11.231
zzbd0쎯쎅	-11.2311
▁ym쎯ntg쎯ce쎯	-11.2311
▁gd쎯y쎯ftbt쎯	-11.2311
▁nv쎯	-11.2311
▁ryc쎯qie쎯	-11.2313
▁fq쎯uqt쎯	-11.2314
▁gef쎯mmm쎯	-11.2315
▁fm쎯bj쎯	-11.2315
aak쎯	-11.2316
xd쎯	-11.2316
gh	-11.2318
▁ghd1쎯yq쎯	-11.2319
xxf쎯	-11.2319
▁ty쎯ip쎯	-11.2322
▁ui쎯tsh1쎯	-11.2328
▁wty0쎯qe쎯	-11.2328
▁k쎯tu쎯bpf쎯	-11.2329
▁fm쎯djd쎯	-11.2334
▁rgw쎯lft쎯	-11.2336
▁vt쎯fgh쎯	-11.234
uuk1쎯	-11.2344
▁udg2쎯ec쎯	-11.2345
▁jtg쎯adwe1쎯	-11.2346
▁ayn쎯	-11.2347
udg2쎯	-11.2348
▁rgv쎯	-11.2349
▁khu쎯qkqq0쎯	-11.2349
▁w쎯tfkp0쎯	-11.235
▁pu쎯tl쎯	-11.2351
▁dgtg0쎯ynt0쎯	-11.2354
▁rfc쎯sy쎯km쎯	-11.2358
▁ijl쎯t쎯	-11.2358
▁peg쎯w쎯	-11.2362
▁쎁쎁쎂	-11.2365
▁쎁쎉쎂쎁	-11.2367
▁yss쎯img쎯	-11.2368
▁ipg쎯yfj0쎯	-11.2368
0쎯	-11.2373
▁ref쎯	-11.2373
cds쎯	-11.2374
utd쎯	-11.2378
▁su쎯sg쎯	-11.238
▁jq쎯h쎯	-11.2382
▁fm쎯lp쎯	-11.2382
▁kru쎯	-11.2384
▁il쎯il쎯	-11.2384
▁umq쎯qtg쎯	-11.2392
▁bde쎯ujn쎯	-11.2393
▁ll쎯bynw0쎯	-11.2396
▁쎃쎅쎀쎀	-11.2396
▁lft쎯mqc쎯	-11.2397
▁yao쎯	-11.2397
▁pl쎯wv쎯aq쎯	-11.2397
▁su쎯kkk쎯	-11.2403
▁tlf0쎯pvs쎯	-11.2405
▁apl쎯tl쎯	-11.2405
▁쎂쎀쎀쎀쎀	-11.2409
▁odm쎯	-11.2411
▁bm쎯wyk쎯	-11.2411
▁khgm3쎯bj쎯	-11.2412
▁tmg1쎯gajf0쎯	-11.2413
xtd쎯	-11.2415
▁ffff1쎯bgh쎯adw쎯	-11.2416
▁wgmy2쎯udv쎯	-11.2416
▁dr쎯u쎯	-11.2419
▁efk쎯eta쎯	-11.242
▁fuk쎯yk쎯gyt쎯	-11.2423
aah0쎯	-11.243
▁mdff3쎯	-11.243
▁ym쎯mtd쎯	-11.2431
▁o쎯w쎯	-11.2431
▁wa쎯kgn쎯	-11.2431
▁zzxx1쎯	-11.2433
▁usgp1쎯pf쎯	-11.2433
aj쎯	-11.2434
uqv쎯	-11.2434
▁iwyf2쎯	-11.2437
▁ymf쎯dga쎯km쎯	-11.2437
▁pgk쎯wynk쎯	-11.2439
▁tgj쎯lt쎯	-11.244
▁wq쎯wu쎯	-11.2441
▁xwv쎯xwv쎯	-11.2442
kcy0쎯	-11.2443
uck쎯	-11.2445
▁e쎯egl쎯gf쎯	-11.2446
rnc쎯	-11.2448
▁ih쎯qfhw1쎯	-11.245
fwy0쎯	-11.245
▁qhk쎯dgtg0쎯	-11.2453
▁hka쎯sy쎯	-11.2456
ajj0쎯sg쎯sfhg쎯tr쎯	-11.2456
▁cm쎯rhf0쎯	-11.2458
▁gu쎯tffu쎯	-11.246
▁aq쎯wv쎯	-11.2461
▁tfqp쎯rdc쎯	-11.2461
▁dl쎯kq쎯ip쎯	-11.2464
aw쎯yf쎯	-11.2467
▁cep쎯tyg쎯	-11.2469
▁ga쎯uit쎯	-11.2474
dsh0쎯	-11.2474
▁tmo쎯ss쎯aqv1쎯dq쎯	-11.2485
▁e쎯pd쎯	-11.2487
lc쎯	-11.2489
▁yy쎯tkgg1쎯	-11.2489
luf0쎯	-11.2489
▁ta쎯tgh쎯	-11.2491
▁g쎯tfk0쎯	-11.2493
▁ym쎯dr쎯	-11.2494
▁rgw쎯kkd쎯	-11.2495
▁bm쎯uthp0쎯	-11.2495
▁cd쎯pfjm1쎯	-11.2497
▁rs쎯qgb쎯sm쎯	-11.2499
▁bib쎯	-11.2501
▁ga쎯awx쎯	-11.2502
▁hj쎯fhg1쎯	-11.2502
▁a쎯og쎯dd쎯ip쎯	-11.2504
▁iytb0쎯jtyq0쎯	-11.2505
vtg쎯qk쎯	-11.2505
▁qv쎯yyq쎯	-11.251
▁wgkm5쎯	-11.2513
▁ux쎯lp쎯	-11.2514
▁xf쎯og쎯	-11.2514
▁rj쎯ue쎯	-11.2514
▁kjf0쎯	-11.2515
▁qtj쎯gc쎯	-11.2515
ywu쎯	-11.2519
▁jh쎯d쎯	-11.252
▁sm쎯gj쎯	-11.2523
▁ym쎯ahty0쎯	-11.2531
irr쎯ia쎯	-11.2533
mhg쎯	-11.2534
ynty0쎯	-11.2535
▁ffh0쎯puh쎯	-11.2538
▁qsu쎯alt쎯	-11.2538
▁jqr쎯gf쎯	-11.2539
▁쎁쎉쎁쎄	-11.254
▁hv쎯quj쎯	-11.2546
▁rge쎯	-11.2547
▁if쎯ygk쎯	-11.2548
▁mq쎯fcu0쎯	-11.2549
▁djde0쎯	-11.255
atm쎯	-11.255
▁쎁쎀쎃	-11.2552
▁bb쎯vvv쎯	-11.2555
▁ukn쎯wf쎯	-11.2555
▁tdtf0쎯tlf0쎯	-11.2556
rmc쎯	-11.2557
▁lhnh쎯udy쎯eri쎯	-11.2558
▁qqk쎯	-11.2559
▁thd쎯wy쎯	-11.256
▁uji2쎯sghg1쎯	-11.256
▁bs쎯sve쎯tfpd0쎯	-11.2562
▁dd쎯thd쎯qd쎯	-11.2563
mhm쎯	-11.2564
▁ltu0쎯nnh쎯pgc쎯	-11.2564
▁utk쎯	-11.2565
▁xa쎯gmiu쎯	-11.2565
▁fakg0쎯qk쎯	-11.2565
▁rvk쎯sfi쎯	-11.2566
▁by쎯oja쎯	-11.2566
gj쎯a쎯dd쎯ip쎯	-11.2567
▁hjs쎯dm쎯	-11.2567
▁mw쎯d쎯	-11.2571
▁mq쎯ii쎯	-11.2572
▁swgj0쎯	-11.2573
▁ir쎯	-11.2573
▁maf1쎯ty쎯	-11.2575
▁gu쎯my쎯	-11.2575
▁쎁쎇쎉	-11.2577
▁up쎯ggg0쎯	-11.2577
▁yni1쎯qi쎯	-11.2578
▁pwat0쎯fp쎯	-11.2579
▁wtp쎯k쎯	-11.258
▁bm쎯tf쎯	-11.2584
▁g쎯ya쎯	-11.2584
▁xeg0쎯wrh1쎯	-11.2585
▁oe쎯ufg쎯	-11.2587
▁bgu쎯	-11.2588
▁ykk쎯	-11.2591
▁wvn쎯	-11.2594
▁tuj0쎯xq쎯	-11.2594
mmm쎯xte쎯	-11.2596
▁dx쎯uyh쎯	-11.2596
qgj쎯ssss0쎯yjj1쎯	-11.2597
▁jq쎯wf쎯	-11.26
▁mhh쎯	-11.2602
▁xnn1쎯shn쎯	-11.2602
▁gh쎯tfj0쎯	-11.2604
gm쎯wa쎯	-11.2606
▁kwyn1쎯	-11.2611
▁rua쎯rgef쎯	-11.2614
▁qnd쎯hwb쎯	-11.2618
▁rxj쎯nf쎯km쎯	-11.262
▁yygt쎯sghg1쎯ufg쎯	-11.262
▁tq쎯kt쎯	-11.2623
▁yc쎯jn쎯kkd쎯	-11.2623
▁nir쎯	-11.2624
▁qtfj0쎯img쎯	-11.2627
n쎯sw쎯pwfi0쎯bpf쎯	-11.2628
thd쎯ick쎯ytyh쎯	-11.2628
▁rck쎯	-11.263
▁shn쎯qje쎯	-11.2631
▁dp쎯dn쎯	-11.2631
▁wty0쎯kht쎯pl쎯	-11.2631
▁pwd쎯fhn쎯	-11.2633
▁aqn쎯	-11.2636
▁um쎯et쎯	-11.2636
▁g쎯jf쎯	-11.2636
sai쎯	-11.2637
▁ab쎯ith쎯	-11.2638
▁c쎯sghg1쎯	-11.2643
han쎯	-11.2645
▁pu쎯tr쎯	-11.2646
▁dhc쎯dyw쎯	-11.2652
yfd쎯qfhw1쎯	-11.2654
▁xh쎯tkh쎯	-11.2655
▁gmap쎯jm쎯	-11.2657
▁ght쎯ick쎯tv쎯km쎯	-11.2658
▁ukn쎯a쎯wf쎯	-11.2658
▁rny1쎯ys쎯	-11.2659
veg쎯	-11.266
q0쎯	-11.266
▁l쎯bf쎯qyv쎯jqr쎯	-11.2663
▁dn쎯wwv쎯	-11.2668
▁bct쎯wgk쎯	-11.2669
▁eqn쎯	-11.267
wwf쎯	-11.2672
▁ywx쎯ygh쎯	-11.2672
▁ufy쎯sgn쎯	-11.2676
▁ax쎯og쎯	-11.2678
▁ige쎯wxf쎯	-11.2679
▁wdn쎯tfq쎯	-11.268
▁ja쎯	-11.268
yvk쎯	-11.2681
pwv쎯	-11.2683
▁itx쎯yqa쎯	-11.2684
▁nh쎯gc쎯	-11.2684
▁whtn0쎯	-11.2685
▁ssf쎯hh쎯	-11.2685
▁uxe쎯iq쎯	-11.2686
▁lll쎯tca쎯	-11.2686
sym쎯ytyh쎯	-11.2686
▁ux쎯tvr쎯	-11.2688
▁rte쎯	-11.2688
▁lt쎯ya쎯	-11.2689
▁kkk쎯kfi쎯	-11.2694
qbn1쎯	-11.2696
▁sps쎯sap쎯	-11.2696
▁쎅쎀dnv0쎯	-11.2696
▁eerq쎯	-11.2697
▁e쎯xg쎯	-11.2699
▁iqv쎯	-11.2699
why쎯	-11.2701
ha	-11.2702
▁tffy0쎯jm쎯	-11.2703
▁efg1쎯	-11.2706
▁fiy쎯bk쎯	-11.2708
yft쎯	-11.271
▁ddm쎯	-11.2714
▁xyj쎯	-11.2714
wdyy1쎯	-11.2715
▁itx쎯ipr쎯	-11.2715
▁wc쎯lw쎯	-11.2716
▁eaj쎯	-11.2716
▁udh쎯tgj쎯	-11.2716
xpw쎯	-11.2717
▁agnn1쎯vit쎯	-11.2717
▁yo쎯o쎯	-11.2718
▁ucd쎯	-11.2719
▁iit쎯iaj0쎯	-11.272
▁cw쎯jghm1쎯	-11.272
▁oqdo쎯	-11.2721
▁ith쎯uthp0쎯	-11.2721
▁sg쎯qk쎯	-11.2722
hxs쎯	-11.2723
uai0쎯	-11.2725
telb쎯	-11.2726
▁lfn쎯gajf0쎯	-11.2729
▁sksw쎯ndj쎯	-11.2732
▁gkl쎯y쎯yam쎯	-11.2732
▁pyg쎯ytyh쎯ymhj0쎯	-11.2734
gmu1쎯	-11.2737
▁wg쎯aq쎯	-11.2737
tdp쎯	-11.2738
▁ovt쎯fgh쎯	-11.2739
xr쎯	-11.274
▁anb0쎯sy쎯kkk쎯	-11.274
▁v쎯gc쎯	-11.274
▁ith쎯wf쎯	-11.2741
▁dd쎯xm쎯	-11.2742
ssyx쎯	-11.2744
▁smq쎯	-11.2747
▁wnnf0쎯	-11.2751
▁pgy쎯dgtg0쎯	-11.2753
lhj쎯	-11.2754
▁umd1쎯bb쎯	-11.276
▁쎅쎅쎀	-11.2761
isk쎯qfhw1쎯	-11.2764
▁ce쎯rt쎯	-11.2768
▁faw쎯gcf쎯	-11.2768
▁um쎯w쎯	-11.2769
▁쎁쎃쎆	-11.277
▁쎁쎉쎉쎁rh쎯	-11.2771
jqw쎯	-11.2771
▁rta쎯fcp쎯	-11.2772
▁df쎯tj쎯	-11.2773
dmjf1쎯	-11.2773
tet0쎯	-11.2773
ftxu1쎯	-11.2774
▁aqg쎯aqr쎯ah쎯	-11.2774
▁dg쎯mgu쎯	-11.2774
▁yo쎯hid쎯	-11.2775
▁uth쎯rx쎯	-11.2778
▁kht쎯h쎯	-11.278
▁thd쎯bg쎯	-11.2781
▁iwgj0쎯	-11.2781
▁ywx쎯aft쎯	-11.2781
▁usr쎯tg쎯	-11.2784
iwe쎯	-11.2784
▁thd쎯egl쎯	-11.279
▁aqrn1쎯awx쎯	-11.279
pt쎯yww쎯ftbt쎯rep쎯	-11.2793
jft쎯	-11.2793
▁uxh쎯uxh쎯	-11.2796
▁ait쎯kf쎯	-11.2797
mgn쎯	-11.2797
▁qhk쎯dga쎯	-11.2799
▁dyt쎯ysi쎯	-11.2799
▁ii쎯lll쎯	-11.2802
▁dw쎯gd쎯	-11.2806
▁bd쎯epc쎯	-11.2806
▁bd쎯yw쎯	-11.2807
▁yon쎯ep쎯	-11.2807
▁mmm쎯wwk쎯	-11.2807
▁dl쎯kq쎯txi쎯	-11.2809
▁mqu쎯eee0쎯	-11.2809
▁gqjo0쎯	-11.281
▁쎁쎉쎁쎈	-11.2812
fkue0쎯	-11.2813
▁yfn쎯tr쎯	-11.2815
▁eyni쎯ukh쎯	-11.2816
▁yo쎯jg쎯	-11.2818
▁qk쎯fd쎯	-11.2819
▁iqpl1쎯	-11.282
▁tnp쎯wynb0쎯	-11.2821
▁qev쎯yfn쎯	-11.2821
▁udh쎯lt쎯	-11.2822
▁vjs쎯	-11.2823
▁fuk쎯	-11.2827
▁qtgf3쎯	-11.2829
▁mqq쎯hko쎯	-11.283
wxb0쎯	-11.283
▁eta쎯	-11.2832
▁gg쎯jtg쎯xe쎯	-11.2835
rnu0쎯wx쎯	-11.2836
▁hep쎯uj쎯	-11.2839
▁ntt쎯	-11.284
▁ripq0쎯	-11.284
▁thgf1쎯bb쎯	-11.2841
▁rh쎯puv쎯	-11.2841
▁img쎯ae쎯	-11.2842
vgk쎯	-11.2843
ihg1쎯	-11.2845
▁dfa쎯eud쎯	-11.2847
▁thd쎯ick쎯	-11.2848
cbj쎯	-11.2849
▁wye쎯uqw쎯	-11.285
▁rrhy쎯wygg쎯	-11.2853
▁rx쎯ygu쎯	-11.2855
▁khu쎯c쎯	-11.2855
▁uy쎯eee0쎯	-11.2857
eck쎯	-11.2858
▁fl쎯m쎯	-11.2859
pfjf1쎯qiu0쎯	-11.2861
▁rit쎯	-11.2862
yygy쎯ip쎯bpf쎯	-11.2863
▁fu쎯dd쎯	-11.2864
▁see쎯	-11.2864
▁ww쎯k쎯	-11.2867
▁fge쎯jtyq0쎯	-11.2867
▁wc쎯py쎯	-11.2867
▁jgm쎯aib쎯ip쎯suq쎯	-11.2869
▁rgt쎯rgy쎯gfi쎯	-11.2869
▁ad쎯uk쎯	-11.2871
▁dn쎯wqj쎯	-11.2872
▁rng2쎯	-11.2875
▁yy쎯qf쎯ght쎯tgm쎯	-11.2877
▁khv쎯bde쎯	-11.2877
udjh쎯	-11.2878
▁bm쎯ty쎯	-11.2879
▁tmg1쎯ihc쎯	-11.288
sf쎯tv쎯wf쎯	-11.288
▁c쎯tyg쎯	-11.2888
▁ige쎯gj쎯	-11.2889
wi쎯	-11.2891
▁ftx쎯src쎯	-11.2892
▁sfi쎯ykw쎯	-11.2897
rjt쎯	-11.2897
▁trf0쎯rytp1쎯	-11.2901
▁yygy쎯wys쎯	-11.2904
▁〗	-11.2905
▁zzxe17쎯	-11.2906
ig쎯	-11.2907
▁dj쎯wgk쎯	-11.2909
▁쎁쎇쎆	-11.2909
▁xk쎯rmhj쎯	-11.2909
▁dg쎯gog쎯	-11.2912
▁xyna1쎯pj쎯	-11.2913
▁iq쎯idr쎯	-11.2914
▁fg쎯fgh쎯gg쎯	-11.2918
▁gmww쎯umd1쎯	-11.2919
sgy쎯	-11.292
rrqc0쎯	-11.2924
▁qtdn1쎯vk쎯	-11.2927
▁qnqn쎯	-11.2928
iy	-11.2929
▁sf쎯jfd쎯	-11.2933
fgey쎯	-11.2934
ke쎯	-11.2935
igmh0쎯	-11.2935
▁xv쎯f쎯	-11.2935
▁bqn쎯	-11.2937
ype쎯	-11.2938
qty2쎯	-11.2938
xl쎯eqn쎯	-11.294
oanw쎯	-11.2942
▁qn쎯lfnh쎯	-11.2943
▁dd쎯od쎯	-11.2944
▁gxgu쎯ntg쎯	-11.2946
▁yft쎯wnt쎯	-11.2946
▁k쎯bw쎯	-11.2947
▁yf쎯tg쎯	-11.2948
▁iwf쎯w쎯	-11.295
lqj쎯	-11.2952
▁ru쎯wr쎯	-11.2953
▁sm쎯gajf0쎯	-11.2954
▁opw쎯hko쎯	-11.2954
▁uth쎯v쎯	-11.2956
▁aqt쎯tj쎯l쎯	-11.2956
▁lt쎯qv쎯	-11.2958
rkk쎯	-11.296
▁amyn1쎯dx쎯	-11.2963
tyna2쎯ih쎯yu쎯	-11.2966
dn쎯ftjb쎯	-11.2966
▁udyj쎯ryn1쎯	-11.2967
▁pv쎯by쎯	-11.2967
▁es쎯yyn2쎯	-11.2968
▁afd1쎯aya쎯	-11.2969
ahnh2쎯	-11.2972
▁yaa쎯ltu0쎯	-11.2974
▁gg쎯g쎯	-11.2974
▁zzxl1쎯	-11.2975
▁ta쎯yy쎯gae쎯	-11.2977
puq쎯	-11.2977
▁pa쎯imkt쎯	-11.2981
▁uxhp쎯	-11.2981
▁hm쎯	-11.2981
쎇쎀쎀	-11.2981
▁ytn쎯tvfh0쎯	-11.2982
▁ba쎯gq쎯	-11.2984
▁dwy0쎯	-11.2985
▁bm쎯qkm쎯	-11.2985
▁xef쎯qev쎯	-11.299
▁ywg쎯toc쎯	-11.299
dfef0쎯	-11.2992
▁sgtk1쎯ep쎯	-11.2994
▁hx쎯uqw쎯	-11.2994
▁tfqp쎯o쎯	-11.2994
▁yynw1쎯suq쎯	-11.2995
▁쎁쎈쎇	-11.2998
adwr0쎯dq쎯	-11.2998
ger쎯	-11.3002
▁prh쎯	-11.3002
▁sp쎯	-11.3004
awb쎯	-11.3006
▁pg쎯o쎯	-11.3009
usi1쎯	-11.3011
▁dq쎯eb쎯	-11.3012
▁fiy쎯pu쎯	-11.3012
▁wgqt쎯	-11.3015
▁gkq쎯	-11.3017
▁ue쎯dm쎯	-11.3017
▁ikh1쎯unr0쎯	-11.3018
gkf0쎯	-11.3018
bukn0쎯	-11.302
▁aje쎯	-11.3021
▁vd쎯vyv쎯	-11.3021
▁dg쎯dj쎯	-11.3024
▁um쎯yhk쎯	-11.3024
▁uqf쎯wycm1쎯	-11.3028
vkgd쎯	-11.3028
▁ghd1쎯eee0쎯	-11.3029
▁ii쎯yygy쎯	-11.303
gfq쎯	-11.3032
▁wxd쎯wtuf1쎯	-11.3034
▁hhu0쎯kkd쎯	-11.304
▁snb2쎯sjtq쎯	-11.304
madt2쎯	-11.3041
▁hhu0쎯cep쎯	-11.3041
▁geq쎯dyn쎯	-11.3041
▁gd쎯bb쎯	-11.3042
▁yssr0쎯rta쎯lg쎯	-11.3046
▁qth쎯	-11.3048
▁jc쎯jc쎯	-11.305
▁ih쎯bynw0쎯	-11.3051
▁aga쎯ytyh쎯	-11.3052
sfhg쎯tr쎯	-11.3054
om쎯	-11.3055
▁sh쎯sm쎯	-11.3055
▁wkhh쎯fay쎯	-11.3058
▁ty쎯uyh쎯	-11.3058
▁fjgh0쎯	-11.306
atgq쎯	-11.3063
▁emc쎯ta쎯	-11.3064
▁vo쎯txgt쎯ya쎯	-11.3066
▁jtyq1쎯	-11.3069
rgb쎯	-11.3069
uqwl쎯	-11.307
▁pyv쎯	-11.3072
▁qo쎯	-11.3072
▁yjjh0쎯jg쎯	-11.3074
wgkl2쎯	-11.3074
▁uhc쎯apl쎯	-11.3075
▁vd쎯	-11.3076
쎀쎀쎁	-11.3078
▁rumt0쎯	-11.3079
▁gc쎯yqa쎯	-11.3079
▁ue쎯gq쎯eri쎯	-11.3079
▁ke쎯bwf쎯	-11.3082
▁lp쎯fuj쎯	-11.3083
cbts1쎯	-11.3083
▁itm쎯iyt1쎯	-11.3084
▁쎂wn쎯	-11.3086
▁thd쎯tq쎯	-11.3087
rvk쎯um쎯xh쎯uqwm1쎯	-11.3089
a쎯ip쎯bpf쎯	-11.3091
▁av쎯pu쎯	-11.3093
ode쎯	-11.3095
▁py쎯wf쎯uqt쎯uwl쎯	-11.3097
▁yygy쎯w쎯	-11.3098
▁bv쎯ya쎯	-11.31
▁ugdu쎯fl쎯	-11.3102
▁ad쎯sg쎯h쎯	-11.3106
▁fjh0쎯wgku1쎯	-11.3106
▁apk쎯tjh쎯	-11.3106
ujf0쎯qi쎯ip쎯bpf쎯	-11.3109
▁atgn쎯	-11.311
dqq쎯	-11.3113
▁ytey0쎯iytb0쎯aq쎯	-11.3114
▁afqb1쎯ide쎯	-11.3114
▁ef쎯oo쎯	-11.3116
fjt쎯	-11.3117
▁tfk0쎯dnv0쎯	-11.3117
▁ma쎯rr쎯	-11.3117
▁qh쎯ian1쎯	-11.3119
ujv쎯	-11.3121
▁ayx쎯	-11.3122
▁egi쎯	-11.3122
thl쎯	-11.3124
▁wa쎯gj쎯um쎯	-11.3131
▁fnr0쎯hhu0쎯	-11.3133
tue쎯	-11.3133
▁cqw쎯qi쎯	-11.3134
▁qbn1쎯	-11.3135
▁tu쎯fl쎯	-11.3139
▁wfny0쎯udp쎯	-11.3139
▁v쎯rnr쎯	-11.314
▁dgtg0쎯amd쎯	-11.3141
▁rvyo쎯th쎯gj쎯	-11.3144
jf쎯whn쎯	-11.3145
▁uj쎯bgk쎯	-11.3145
▁os쎯iq쎯	-11.3145
▁ii쎯idr쎯	-11.3146
▁aup쎯	-11.3147
▁mmm쎯ax쎯	-11.315
▁ays쎯avd쎯	-11.3153
▁dmj1쎯nnnn0쎯	-11.3153
▁dy쎯ide쎯	-11.3154
▁fpg쎯	-11.3155
▁ipe쎯xpw쎯	-11.3159
sx쎯	-11.3161
▁dcw쎯ann0쎯	-11.3163
▁iyc쎯ii쎯	-11.3165
▁jtd쎯pntj0쎯	-11.3165
▁a쎯um쎯nnk쎯	-11.3169
frc쎯	-11.3173
▁wxd쎯tm쎯	-11.3174
qtal1쎯	-11.3174
▁tdh쎯	-11.3176
▁fghg쎯rgw쎯	-11.3176
itol쎯	-11.3177
xwy0쎯qiu0쎯	-11.3177
▁dgk쎯dh쎯	-11.3178
▁쎁쎉쎁쎀	-11.3179
▁nnk쎯dm쎯	-11.3179
▁amy쎯ldd0쎯	-11.3179
▁uje쎯	-11.3182
▁thgc0쎯gl쎯	-11.3182
▁pp쎯mw쎯	-11.3186
▁ukn쎯u쎯wfhg0쎯	-11.3187
rk쎯	-11.3187
▁tmg1쎯fge쎯	-11.3189
▁ftjo1쎯ybv0쎯	-11.3192
▁sr쎯	-11.3197
▁tm쎯ue쎯	-11.32
▁cf쎯ytd쎯	-11.3201
▁wcy0쎯wcy0쎯	-11.3201
▁wtc쎯	-11.3205
▁k쎯wj쎯	-11.3209
▁dgh쎯shy0쎯	-11.3209
fgh쎯ag쎯	-11.321
▁dmq쎯	-11.321
▁fhu쎯bm쎯	-11.3211
dgn쎯	-11.3211
▁fas쎯	-11.3212
▁qlh1쎯	-11.3213
▁ygu쎯xx쎯	-11.3214
▁uthp0쎯hw쎯	-11.3214
bqv쎯	-11.3216
ss	-11.3217
▁mhj쎯	-11.322
▁elv쎯fghg쎯	-11.322
▁qajf0쎯	-11.3221
▁eyb쎯tld1쎯tp쎯	-11.3223
▁mmm쎯ai쎯dd쎯ip쎯	-11.3224
▁an쎯w쎯	-11.3226
▁rytp1쎯	-11.3228
▁fi쎯aib쎯ntg쎯	-11.323
▁mmm쎯sf쎯	-11.3231
▁ruv쎯udi0쎯	-11.3231
▁hic쎯	-11.3232
▁gyg0쎯hko쎯	-11.3233
▁pb쎯wsg0쎯	-11.3234
▁qh쎯lwj쎯	-11.3234
▁ypt쎯dq쎯	-11.3235
▁dfi쎯	-11.3236
▁drin0쎯ujn쎯	-11.3241
▁yygy쎯tfqp쎯	-11.3243
▁쎉쎀쎀쎀	-11.3244
xtdp1쎯	-11.3245
▁ymf쎯gj쎯	-11.3246
▁iq쎯yuo쎯	-11.3247
▁pynn1쎯	-11.3247
▁wcd쎯	-11.3248
▁qtd쎯	-11.325
ud	-11.325
tavn쎯	-11.3252
▁eb쎯tl쎯og쎯	-11.3256
▁qnqn쎯t쎯	-11.3256
▁efc쎯	-11.3257
▁iry쎯gxi쎯	-11.3257
▁suf쎯	-11.326
▁vv쎯bu쎯	-11.3261
▁ob쎯	-11.3263
rymn쎯	-11.3264
wqa쎯	-11.3266
▁vs쎯rfm쎯	-11.3267
▁mgu쎯wwk쎯	-11.3268
▁dhd쎯	-11.3268
5쎯	-11.3273
▁ts쎯xyy1쎯	-11.3273
▁nu쎯ntg쎯	-11.3275
jfd쎯gog쎯	-11.3276
▁sh쎯rc쎯	-11.3277
▁awx쎯pfqf쎯	-11.3279
▁wup쎯	-11.3284
▁ue쎯gq쎯	-11.3288
▁ipm쎯ipgh0쎯	-11.329
▁t쎯imkf1쎯	-11.329
▁mnbm0쎯fhn쎯	-11.3291
▁ugdu쎯nae0쎯	-11.3292
▁ndj쎯fnrt쎯	-11.3293
ton쎯	-11.3293
▁jh쎯ybv0쎯	-11.3294
▁yfd쎯ymhj0쎯	-11.3294
▁uqwv쎯dyn쎯	-11.3296
▁cwg쎯ygh쎯	-11.3296
▁jty쎯irh0쎯	-11.3297
▁wgej1쎯	-11.3299
wyb쎯	-11.33
▁ykg0쎯uda쎯	-11.3301
▁쎆쎅쎀	-11.3302
▁fjw쎯ss쎯	-11.3304
▁wmw쎯	-11.3306
sgmj쎯	-11.3306
rep쎯	-11.3308
▁dty0쎯pk쎯	-11.3308
▁wgu쎯	-11.3309
▁쎁쎉쎁쎇	-11.331
▁nawe0쎯	-11.331
▁fd쎯wksf쎯	-11.3311
jtd쎯	-11.3311
▁img쎯ex쎯	-11.3312
▁usgp1쎯	-11.3313
▁ga쎯sm쎯	-11.3316
▁udyj쎯ftx쎯	-11.3317
▁wgk쎯tdp쎯	-11.332
▁kkks1쎯fnr0쎯	-11.3321
▁egcn쎯rffg0쎯	-11.3322
xwy0쎯dskf쎯	-11.3325
▁rdj쎯me쎯	-11.3327
gkq쎯	-11.3329
▁xv쎯wx쎯yx쎯	-11.3334
▁dd쎯m쎯	-11.3334
▁ymkc1쎯	-11.3335
▁zzbd17쎯	-11.3341
jn쎯ck쎯	-11.3342
▁zzpj5쎯	-11.3342
awf쎯	-11.3342
▁jn쎯jyie쎯ab쎯	-11.3343
▁lk쎯pnt쎯	-11.3343
▁uda쎯klj쎯	-11.3343
▁ud쎯ng쎯	-11.3346
▁qq쎯fqb0쎯	-11.3347
st쎯qiu0쎯	-11.335
▁ynma쎯gu쎯	-11.3353
▁wqa쎯dfy쎯	-11.3354
▁nnl쎯sgyb0쎯	-11.3355
▁yo쎯fcl쎯	-11.3356
▁쎁쎀쎉	-11.3359
▁amw쎯pujn0쎯qc쎯	-11.3361
▁lge쎯	-11.3361
▁wvl쎯f쎯	-11.3362
xfm쎯	-11.3362
▁pju0쎯	-11.3362
jl쎯	-11.3362
▁wat쎯	-11.3364
wuk쎯	-11.3368
mcw쎯	-11.3369
▁iytb0쎯qi쎯	-11.337
▁qmq쎯sft쎯	-11.3372
▁by쎯pw쎯	-11.3373
ph쎯	-11.3374
▁fn쎯drin0쎯	-11.3375
▁ijo쎯iugg0쎯	-11.3379
▁ss쎯og쎯nnk쎯	-11.338
▁yge쎯fiy쎯	-11.3384
▁ym쎯xe쎯k쎯ip쎯	-11.3385
▁tyt쎯	-11.3387
▁sfhg쎯puhc쎯	-11.3387
▁cd쎯ftg쎯nnh쎯	-11.3391
nnh쎯bpf쎯	-11.3391
▁ruv쎯udh쎯	-11.3392
iwt쎯	-11.3393
▁xyc쎯tdtf0쎯	-11.3393
▁nat0쎯	-11.3394
jn쎯jyie쎯	-11.3396
▁tt쎯yn쎯	-11.3397
▁wg쎯rh쎯	-11.34
------	-11.34
alq쎯	-11.34
▁rhf0쎯mqb쎯	-11.34
▁lfn쎯ty쎯	-11.3402
▁gh쎯yy쎯	-11.3402
▁qk쎯kn쎯	-11.3403
▁ytfp0쎯bpf쎯	-11.3405
▁txe쎯	-11.3405
ftxu1쎯gxi쎯	-11.3405
▁ipk쎯vfhp1쎯	-11.3408
▁idl쎯gef쎯	-11.341
gmm쎯	-11.341
▁thd쎯ick쎯egc쎯	-11.3411
9쎯	-11.3412
▁wty0쎯eee0쎯	-11.3414
▁ffi쎯aa쎯	-11.3417
▁gah쎯jj쎯	-11.3419
▁dl쎯jf쎯	-11.3425
▁rwgk쎯	-11.3425
▁pfq쎯vb쎯	-11.3426
▁hc쎯af쎯	-11.3427
wtr쎯	-11.3428
▁iw쎯fhn쎯	-11.3428
▁dht쎯gd쎯	-11.343
▁whm쎯pwfi0쎯	-11.343
▁iq쎯xg쎯	-11.3431
dd쎯bw쎯	-11.3433
▁qsu쎯w쎯	-11.3434
eaj쎯	-11.3436
▁tr쎯gj쎯txi쎯	-11.3437
▁e쎯ycb쎯	-11.3438
▁vvv쎯fghg쎯	-11.3438
▁fhu쎯fj쎯	-11.3439
▁xyna1쎯xkw쎯	-11.3442
▁ian1쎯bct쎯	-11.3443
dd쎯uthp0쎯	-11.3449
▁iqn쎯igs쎯	-11.3449
▁atdp쎯	-11.3451
▁dgv쎯itx쎯	-11.3452
▁tffy0쎯et쎯	-11.3452
▁pv쎯wg쎯ntg쎯	-11.3453
▁xy쎯	-11.3456
▁oe쎯otf쎯	-11.3457
▁yni1쎯ngj쎯	-11.3458
uni1쎯	-11.3458
▁veg쎯veg쎯	-11.3461
▁쎃쎁쎀	-11.3461
▁qve쎯uqd2쎯	-11.3462
oja쎯	-11.3462
▁fjg0쎯	-11.3466
▁bu쎯wk쎯	-11.3467
▁ah쎯hwb쎯	-11.3468
▁ajf1쎯	-11.3468
▁fcu1쎯bwt쎯	-11.3469
▁gm쎯wynb0쎯	-11.3469
▁ht쎯hna쎯	-11.3469
▁najg쎯	-11.3472
sk쎯yle쎯	-11.3473
oge쎯uwl쎯fiy쎯oge쎯	-11.3477
▁dgv쎯yuvo1쎯	-11.3478
▁gn쎯adw쎯	-11.3483
▁bfq쎯	-11.3483
▁rnb쎯fcl쎯	-11.3486
▁쎁쎂쎈쎀	-11.3488
▁mmv0쎯	-11.3488
ref쎯	-11.3492
▁ta쎯tyna2쎯	-11.3494
▁jjjj0쎯bb쎯	-11.3496
▁vtdj0쎯	-11.3498
▁oo쎯ugh쎯	-11.3502
▁dy쎯pf쎯	-11.3502
ys쎯	-11.3507
▁bu쎯ype쎯wf쎯	-11.3508
vfhp1쎯ymc쎯	-11.3509
▁de	-11.3509
o1쎯	-11.3511
▁wys쎯qfhw1쎯	-11.3512
▁mqq쎯gfi쎯	-11.3514
▁jsg쎯	-11.3516
▁wht쎯gj쎯	-11.3517
teg1쎯	-11.3517
▁vfh쎯	-11.352
ssu쎯	-11.352
▁nae0쎯wf쎯	-11.3524
sdw쎯	-11.3524
▁qqqq1쎯ptkm1쎯	-11.3525
▁kkkk1쎯mdfj쎯	-11.3525
▁rmhj쎯if쎯	-11.3526
▁rgb쎯	-11.3526
▁imk쎯mdfj쎯	-11.3527
▁ynt0쎯adf쎯	-11.3527
▁qk쎯atd쎯	-11.3527
▁udy쎯fqb0쎯	-11.3528
xx쎯gog쎯	-11.3529
▁qgl쎯	-11.3533
yyne0쎯	-11.3535
▁nc쎯tr쎯	-11.3535
qiu0쎯trf0쎯	-11.3537
▁dl쎯rh쎯	-11.3538
▁wd쎯yf쎯	-11.3542
▁rua쎯ujf0쎯	-11.3542
▁nty0쎯af쎯ga쎯yt쎯	-11.3546
▁dd쎯eyb쎯	-11.3548
▁xf쎯tha쎯	-11.3548
ajq쎯	-11.3549
▁쎁쎉쎁쎆	-11.3549
▁ag쎯eee0쎯	-11.355
▁itf쎯its쎯	-11.355
▁puvk2쎯	-11.3551
ayn쎯	-11.3552
▁cel쎯nb쎯	-11.3552
▁ii쎯iyc쎯	-11.3553
▁usr쎯yvh쎯nnh쎯	-11.3554
▁dhb쎯yt쎯	-11.3554
▁bwf쎯vi쎯	-11.3555
▁쎁쎉쎀쎅	-11.3557
▁kkks1쎯	-11.3559
▁uuk1쎯	-11.356
▁vt쎯eee0쎯	-11.3562
▁dga쎯pwv쎯tg쎯bpf쎯	-11.3563
▁wgk쎯aft쎯	-11.3564
▁ud쎯bu쎯	-11.3571
▁gd쎯ipkf0쎯	-11.3572
▁zzxe2쎯	-11.3575
wamj쎯	-11.3575
▁ndj쎯lft쎯	-11.3575
▁ooo쎯oqv쎯	-11.3575
▁gj쎯ntg쎯	-11.3576
▁gh쎯fcu1쎯	-11.3577
▁apg쎯dgh쎯ytt쎯	-11.358
▁zzjp74쎯	-11.3581
▁ma쎯anb0쎯	-11.3583
nyi2쎯	-11.3585
▁fp쎯txgt쎯	-11.3588
▁qve쎯skf쎯	-11.3592
▁쎇쎀쎀쎀	-11.3594
mjq쎯	-11.3595
▁gkih0쎯ifk0쎯	-11.3595
▁yd쎯pyk쎯	-11.3596
▁dd쎯yd쎯	-11.3597
▁ow쎯dyw쎯	-11.3597
▁xn쎯tvfh0쎯	-11.3597
▁zzjp24쎯	-11.3598
fnud쎯	-11.36
dh쎯egc쎯	-11.3602
awnu0쎯	-11.3604
▁rnb쎯kfi쎯	-11.3604
▁ngj쎯jtg쎯	-11.3605
▁zzxe10쎯	-11.3606
idr쎯egc쎯	-11.3607
▁fg쎯fgh쎯wty0쎯	-11.3611
▁fge쎯pt쎯	-11.3611
▁edjn쎯rmhj쎯	-11.3615
▁epq쎯	-11.3615
▁puhc쎯rpd1쎯	-11.3617
euk쎯	-11.3618
▁nfc쎯dm쎯	-11.3618
rx쎯	-11.3618
▁ivs쎯qc쎯wsg0쎯	-11.3619
▁wgmy2쎯tl쎯	-11.3623
▁tg쎯gqx쎯	-11.3623
▁bg쎯iww쎯	-11.3623
jfd쎯adwr0쎯	-11.3624
▁mf쎯ght쎯uk쎯	-11.3624
▁nu쎯wwwk0쎯	-11.3624
▁aig쎯thg1쎯	-11.3625
▁rqa쎯rymn쎯	-11.3625
▁wa쎯ge쎯dd쎯wf쎯	-11.3626
tr쎯gj쎯	-11.3627
▁xyna1쎯thdi0쎯	-11.3629
▁icw쎯	-11.3638
▁uu쎯wsg0쎯fnr0쎯	-11.3639
oqm쎯	-11.3639
▁vaf쎯wj쎯	-11.364
▁dxy쎯fmk쎯	-11.364
thc쎯	-11.3642
▁srg쎯ss쎯	-11.3643
▁tg쎯tr쎯rfc쎯sy쎯	-11.3646
▁uqb쎯	-11.3649
▁ai쎯dm쎯	-11.365
▁vf쎯fiy쎯	-11.3651
▁n쎯tg쎯	-11.3654
▁euk쎯ait쎯	-11.3655
▁qiu0쎯ipr쎯ymhj0쎯	-11.3655
▁qynm1쎯h쎯	-11.3656
xte쎯w쎯	-11.3658
▁xef쎯nj쎯	-11.3659
▁a쎯ycb쎯	-11.3661
fgh쎯uy쎯	-11.3662
▁dskf쎯yop쎯	-11.3663
▁lxx쎯	-11.3666
yned쎯	-11.3668
▁ngkg쎯	-11.3668
smq쎯	-11.3669
▁uth쎯wycm1쎯	-11.367
▁adjd쎯	-11.367
▁uq쎯gx쎯	-11.367
▁rgef쎯	-11.367
▁udi0쎯v쎯	-11.3671
▁ii쎯wug0쎯	-11.3673
a쎯wt쎯	-11.3675
▁uxt쎯bct쎯	-11.3675
▁yyq쎯km쎯	-11.3677
▁xuj쎯tamw2쎯	-11.3678
▁ovt쎯rnd1쎯xg쎯	-11.3678
▁g쎯kgn쎯	-11.3679
▁xgm쎯uqt쎯	-11.3679
▁qqqq1쎯qg쎯	-11.3683
▁fg쎯rt쎯	-11.3684
▁fny0쎯ta쎯	-11.3684
▁eee0쎯x쎯	-11.3685
6쎯	-11.3686
▁쎈쎅쎀	-11.3693
▁ftx쎯rh쎯w쎯	-11.3695
▁svc쎯syp쎯	-11.3697
▁iie쎯goi쎯	-11.3697
▁ec쎯itdy쎯	-11.3698
▁odm쎯nyb쎯	-11.3703
▁gcft0쎯pgk쎯	-11.3703
▁gmf쎯gm쎯	-11.3704
▁pg쎯tm쎯	-11.3707
sa쎯	-11.3708
dty0쎯gk쎯	-11.3714
▁ugm쎯ugh쎯	-11.3715
▁qgu쎯dhq쎯	-11.3715
▁yy쎯gae쎯	-11.3718
sfm쎯	-11.3719
▁pujs쎯	-11.3719
▁me쎯rr쎯	-11.3722
ywwf0쎯	-11.3722
▁cbd쎯tlf0쎯	-11.3722
ap	-11.3722
▁wtr쎯ygk쎯	-11.3723
▁mftj1쎯	-11.3726
▁iaw쎯gah쎯	-11.3726
▁tmdf1쎯xg쎯	-11.3726
▁nngt쎯	-11.3728
▁wxj쎯mmm쎯ymhj0쎯	-11.3729
▁bfm쎯f쎯	-11.373
zzbd0쎯	-11.3731
▁ooo쎯qkm쎯	-11.3731
▁ynvf쎯	-11.3732
▁isk쎯kkkk1쎯	-11.3732
▁fw쎯gv쎯	-11.3733
▁ss쎯fnrt쎯	-11.3734
upy쎯	-11.3735
▁쎁쎂쎁	-11.3736
▁ftg쎯ygh쎯	-11.3742
▁gef쎯qmgk1쎯	-11.3743
▁ue쎯ftj쎯	-11.3745
▁xg쎯ntg쎯	-11.3745
▁쎁쎉쎀쎈	-11.3747
▁lv쎯	-11.3748
dpq쎯	-11.3748
▁ygh쎯rnd1쎯	-11.3748
fss쎯	-11.3748
▁ige쎯tjf0쎯	-11.375
▁쎂쎇쎀	-11.3751
▁ipw쎯tj쎯	-11.3752
▁qf쎯cf쎯ntg쎯	-11.3753
nfh1쎯	-11.3754
qb쎯	-11.3755
▁iuj쎯ytyh쎯	-11.3757
quk쎯	-11.3758
▁begg쎯hh쎯	-11.3758
▁bb쎯uxh쎯	-11.3759
▁tda쎯	-11.3759
▁yfj0쎯pwv쎯	-11.3763
▁dhq쎯	-11.3764
dga쎯pwv쎯wf쎯	-11.3764
▁uyh쎯ywe쎯	-11.3766
jplh0쎯	-11.3766
▁wbj쎯wtl쎯	-11.3766
▁qqqq1쎯wxf쎯	-11.3767
▁eaf쎯	-11.3768
▁쎁쎂쎄	-11.377
▁ta쎯dtf쎯	-11.3772
dgj쎯	-11.3775
▁yngk1쎯ygk쎯	-11.3775
▁pg쎯jf쎯	-11.3776
udv쎯	-11.3779
l0쎯	-11.3779
p0쎯	-11.3781
▁qw쎯	-11.3782
▁gr쎯ia쎯	-11.3784
▁쎁쎉쎁쎅	-11.3787
▁kht쎯tca쎯	-11.3788
▁rfw쎯rf쎯	-11.3788
ymhj0쎯fnrt쎯	-11.3788
▁ax쎯sft쎯	-11.379
gyiy쎯	-11.3795
▁쎁쎂쎂	-11.3797
▁tjf0쎯ou쎯	-11.3799
adwl쎯	-11.38
▁gfi쎯fnrt쎯	-11.38
sgd0쎯	-11.3801
▁wv쎯ga쎯	-11.3802
▁yid쎯rytp1쎯	-11.3805
bty0쎯	-11.3806
▁ipkh1쎯mqb쎯ugm쎯	-11.3809
▁tux쎯wwf쎯	-11.3809
▁vca쎯j쎯	-11.3811
▁wv쎯tf쎯	-11.3811
▁apo쎯iq쎯	-11.3813
▁sfi쎯yn쎯	-11.3814
▁fq쎯qjq쎯ymhj0쎯	-11.3817
▁wk쎯pg쎯	-11.3817
▁ai쎯mmm쎯	-11.3819
▁tjt쎯jgf쎯	-11.3819
▁rte쎯tfp쎯	-11.382
▁gae쎯wny1쎯	-11.3821
uq쎯cep쎯dd쎯ip쎯	-11.3823
▁yny0쎯bb쎯	-11.3824
▁sghg1쎯rcy1쎯	-11.3825
▁l쎯tdij0쎯	-11.3826
▁ip쎯ire쎯	-11.3827
▁emc쎯sc쎯	-11.3828
▁xmw쎯tuk쎯	-11.3828
▁ifk0쎯uqv쎯	-11.383
▁ym쎯dd쎯	-11.383
▁jc쎯qvn0쎯	-11.3833
▁fc쎯syg쎯	-11.3835
sg	-11.3835
▁mq쎯wwwk0쎯	-11.3837
▁vvv쎯pyj쎯	-11.3838
▁tdu0쎯	-11.3838
▁ukn쎯xyna1쎯lkb쎯	-11.3839
▁f쎯ge쎯	-11.3841
▁rnf쎯	-11.3843
▁sgn쎯ujf0쎯	-11.3843
▁qk쎯etg쎯	-11.3844
▁ixw쎯fyn쎯	-11.3846
▁qqqq1쎯qve쎯	-11.3849
▁gd쎯ft쎯	-11.3851
▁qmq쎯xf쎯sq쎯	-11.3852
▁uvh쎯mww쎯	-11.3853
ntx쎯	-11.3855
▁tjf0쎯rnb쎯	-11.3861
▁bwf쎯gkp쎯	-11.3862
▁쎂쎈쎀쎀	-11.3862
jq쎯rb쎯	-11.3863
▁yvh쎯mmm쎯	-11.3864
▁scbk쎯	-11.3865
▁vah쎯	-11.3871
▁쎁쎁쎇	-11.3872
▁ptf쎯	-11.3873
▁rj쎯wjjg쎯	-11.3873
ybf0쎯rh쎯	-11.3876
▁kr쎯gc쎯	-11.3878
fie쎯	-11.3884
▁sagg0쎯	-11.3884
tey0쎯pw쎯	-11.3885
▁ax쎯ip쎯	-11.3887
ykk쎯	-11.3888
▁쎁쎉쎀쎆	-11.3889
atdp쎯	-11.389
▁dgtg0쎯sft쎯	-11.3892
▁lc쎯lc쎯	-11.3893
uwa쎯	-11.3895
▁ve쎯img쎯	-11.3896
▁ta쎯bb쎯	-11.3901
fay쎯	-11.3901
▁vtkd0쎯bb쎯	-11.3905
▁fq쎯gxgu쎯	-11.3905
▁nny1쎯tfn쎯	-11.3905
▁f쎯fnw쎯	-11.3906
▁wv쎯aq쎯	-11.3909
ijfg1쎯	-11.3911
sgj쎯	-11.3912
▁g쎯yid쎯whw쎯wg쎯	-11.3912
▁iv쎯gk쎯w쎯	-11.3912
▁eq쎯uk쎯	-11.3913
▁rfh1쎯	-11.3913
▁oyx쎯	-11.3916
▁cep쎯ynf쎯vi쎯	-11.3917
▁wg쎯n쎯	-11.3917
▁쎂쎂쎀쎀	-11.3918
▁uf쎯qynm1쎯	-11.3922
▁qtge쎯	-11.3923
▁iyc쎯ire쎯	-11.3923
▁adww2쎯	-11.3929
▁rvf쎯dgv쎯	-11.3931
▁g쎯ts쎯dx쎯	-11.3931
▁yo쎯tfp쎯	-11.3932
▁ruj0쎯	-11.3932
qnq쎯	-11.3933
an쎯xn쎯	-11.3935
▁ogu쎯	-11.3935
▁lfn쎯fcl쎯	-11.3935
▁nt쎯qd쎯	-11.3938
▁ym쎯usr쎯aq쎯	-11.3938
sad쎯	-11.3939
▁qre쎯	-11.3939
▁wmj1쎯dm쎯	-11.3939
▁jn쎯se쎯	-11.3943
▁gl쎯nae0쎯	-11.3944
uve쎯	-11.3945
▁ipw쎯th쎯	-11.3947
▁mee0쎯	-11.3955
▁qvn0쎯fiyt쎯	-11.3958
▁gogn0쎯yssc0쎯	-11.3958
▁rc쎯qnk쎯	-11.3959
▁ry쎯aet1쎯	-11.396
▁k쎯wdm쎯	-11.3961
▁tgm쎯	-11.3961
▁rnb쎯tld1쎯	-11.3963
▁ay쎯tjf0쎯	-11.3966
nhj쎯rrr쎯	-11.3967
▁lg쎯gajf0쎯	-11.3968
▁jx쎯mmm쎯	-11.3969
▁쎂쎄쎀쎀	-11.397
▁gd쎯yygy쎯ip쎯	-11.3972
fqu쎯	-11.3973
▁ukn쎯jg쎯	-11.3973
▁wfny0쎯ltk쎯	-11.3974
▁ym쎯rt쎯	-11.3974
▁veg쎯vfi쎯	-11.3974
▁iyb쎯	-11.3975
▁ngk쎯wyc쎯km쎯	-11.3977
▁쎇쎂쎀	-11.3978
▁쎁쎂쎉	-11.3982
▁f쎯rfm쎯ip쎯	-11.3982
▁wfny0쎯ivs쎯ugm쎯	-11.3984
▁rpws쎯bwg쎯	-11.3984
puvc1쎯	-11.3985
▁ryn1쎯efw쎯	-11.3986
▁oq쎯rgw쎯	-11.3989
▁ybf0쎯iwyf1쎯	-11.399
▁qtgw1쎯pwtf1쎯	-11.3992
▁gah쎯aqky1쎯	-11.3993
mu쎯	-11.3993
▁fggh쎯jfj쎯	-11.3994
▁ipw쎯tfkp0쎯	-11.3994
▁tuj0쎯wgj쎯	-11.3995
▁tfkp0쎯yi쎯	-11.3995
▁wt쎯yngk1쎯	-11.3995
▁yo쎯rq쎯	-11.3996
▁qyk쎯maf1쎯	-11.3996
iwyf1쎯	-11.3997
▁cep쎯lg쎯	-11.3998
▁ige쎯vjsj쎯	-11.3998
▁wys쎯mb쎯	-11.3999
▁xtu쎯rh쎯	-11.4
▁rqb0쎯	-11.4
▁wvp쎯ltk쎯	-11.4001
▁doq쎯sgc쎯	-11.4002
▁xh쎯et쎯	-11.4002
xp쎯	-11.4003
xa쎯qc쎯	-11.4006
▁lh쎯eee0쎯	-11.4008
jghy0쎯	-11.4009
▁vtkd0쎯y쎯	-11.4009
▁kkd쎯tr쎯	-11.4009
▁uqvd1쎯	-11.4011
▁pei쎯ip쎯	-11.4014
iex쎯qfhw1쎯	-11.4016
▁qlp쎯ruv쎯	-11.4016
▁yi쎯bk쎯	-11.4017
▁itd쎯tld1쎯	-11.4018
▁ipg쎯wx쎯	-11.4018
▁kpt쎯	-11.4021
▁zzxx23쎯	-11.4022
▁dd쎯k쎯gajf0쎯	-11.4022
▁ydn쎯pu쎯	-11.4022
▁y쎯tv쎯	-11.4023
▁rg쎯wa쎯	-11.4023
▁ruv쎯ty쎯	-11.4025
▁fd쎯ffuk쎯	-11.4026
▁adwe1쎯bv쎯	-11.4028
▁yo쎯gjq쎯	-11.4028
▁dn쎯rh쎯	-11.403
▁nae0쎯jtyq0쎯wf쎯	-11.403
▁dx쎯riu0쎯	-11.4031
▁tym쎯	-11.4032
begg쎯	-11.4033
▁sf쎯ait쎯	-11.4033
▁qnq쎯ii쎯	-11.4033
umia0쎯	-11.4033
▁fyn쎯	-11.4037
▁pdx쎯	-11.4037
iyb쎯	-11.4037
▁wgkb0쎯jghm1쎯	-11.4039
▁bk쎯wug0쎯	-11.404
▁h쎯tfj0쎯	-11.4044
▁fny0쎯apk쎯	-11.405
▁ukn쎯tq쎯	-11.4051
um쎯tl쎯	-11.4052
▁wc쎯uu쎯	-11.4052
▁fm쎯rcy1쎯	-11.4052
▁nnnn0쎯td쎯	-11.4052
▁zzzy30쎯	-11.4053
▁lds쎯gae쎯	-11.4053
▁rg쎯an쎯	-11.4054
▁hhu0쎯ru쎯	-11.4057
▁쎁쎁쎉	-11.4057
wwgi쎯	-11.4058
kkkk1쎯qfhw1쎯	-11.4058
▁y쎯rs쎯	-11.4062
▁jja쎯iq쎯	-11.4062
▁bm쎯teg1쎯	-11.4063
▁ufy쎯e쎯	-11.4064
▁vfhp1쎯ymc쎯uk쎯	-11.4065
▁zzts12쎯	-11.4066
▁ack쎯	-11.407
▁yjse쎯	-11.407
▁de쎯m쎯	-11.4071
▁i쎯sk쎯	-11.4072
▁yssc0쎯sy쎯	-11.4073
▁ijl쎯cbts1쎯	-11.4073
▁ft쎯j쎯	-11.4074
lfo	-11.4074
▁ovt쎯hhhh쎯	-11.4074
▁io쎯amw쎯qc쎯	-11.4076
ujqn1쎯	-11.4076
jn쎯pym쎯	-11.4078
djdy1쎯	-11.4079
▁ss쎯ssss0쎯	-11.4079
▁qk쎯vi쎯	-11.4083
...	-11.4088
vl쎯	-11.4089
oqdo쎯	-11.409
yf쎯aj쎯	-11.409
▁uduk0쎯yv쎯	-11.409
▁du쎯tel쎯	-11.4091
a0쎯	-11.4092
▁wyw쎯	-11.4092
▁dd쎯ysi쎯	-11.4093
▁cd쎯yyq쎯	-11.4095
▁jtyl쎯pym쎯	-11.4096
▁ytd쎯jghm1쎯	-11.4097
▁yb쎯ny쎯	-11.4101
▁img쎯rnb쎯	-11.4103
▁tqv쎯hi쎯	-11.4103
▁wk쎯pnt쎯	-11.4103
▁sgc쎯ntg쎯	-11.4104
▁pg쎯jg쎯	-11.4105
▁avd쎯	-11.4105
tfk0쎯dnv0쎯	-11.4105
▁ert쎯le쎯	-11.4105
pntj0쎯	-11.4107
▁nynn0쎯	-11.4107
▁tw쎯pvs쎯	-11.4109
▁fqp쎯yb쎯	-11.411
▁gqr쎯	-11.411
▁rmn0쎯hko쎯	-11.4116
▁ta쎯dw쎯ymhj0쎯	-11.4116
▁쎁쎇쎀쎀	-11.412
▁xtf쎯	-11.4121
▁tu쎯ftbt쎯	-11.4122
▁sfg쎯keq쎯	-11.4123
eg쎯	-11.4123
▁sq쎯wrh1쎯	-11.4124
▁bqt쎯fd쎯	-11.4125
▁cf쎯xx쎯ya쎯	-11.4127
▁wsg0쎯yce쎯fnrt쎯	-11.4129
kkhn쎯	-11.4132
▁......	-11.4136
ahtg0쎯	-11.4138
▁qk쎯suq쎯	-11.4144
▁jghy0쎯wfg0쎯	-11.4145
▁ui쎯kthh1쎯	-11.4146
▁wye쎯jvko0쎯	-11.4149
▁of쎯	-11.415
bwf쎯ntk쎯	-11.415
bjm쎯	-11.4151
fnm쎯	-11.4153
▁ooo쎯po쎯	-11.4155
▁suj쎯	-11.4155
▁tkm쎯	-11.4157
▁fqw쎯	-11.416
iry쎯	-11.4161
▁yid쎯cf쎯	-11.4162
▁tf쎯fhu쎯	-11.4162
▁sm쎯lg쎯	-11.4164
▁adwl쎯pwfi0쎯	-11.4165
yygy쎯wx쎯khgp0쎯u쎯	-11.4165
▁hhy0쎯	-11.4165
▁쎁쎂쎃	-11.4166
▁rymn쎯alt쎯	-11.4167
▁egl쎯ftbt쎯	-11.4172
▁tu쎯xnn1쎯	-11.4174
▁tmc쎯	-11.4179
▁vq쎯xi쎯	-11.418
▁lfhf쎯og쎯	-11.4182
▁쎁쎁쎃	-11.4186
▁afb쎯ujfb1쎯	-11.4188
qnr쎯yhk쎯	-11.4188
▁uf쎯tca쎯	-11.4188
▁rep쎯yjs쎯	-11.4189
▁pde쎯	-11.4191
▁xad쎯tfn쎯	-11.4192
▁dnnl쎯u쎯	-11.4192
▁rmn0쎯it쎯	-11.4192
▁svc쎯rtd쎯	-11.4193
▁pl쎯w쎯	-11.4194
▁ftx쎯wx쎯	-11.4194
▁wtr쎯l쎯	-11.4196
nkue0쎯	-11.4197
▁pjm쎯ujn쎯	-11.4198
▁i쎯b쎯	-11.4209
▁uqb쎯aq쎯	-11.4209
ifn쎯	-11.421
khi쎯	-11.4215
nmh쎯	-11.4215
ght쎯fl쎯	-11.4218
▁rp쎯wny1쎯	-11.4219
▁sf쎯xe쎯	-11.4219
sghg1쎯pv쎯	-11.422
▁pu쎯rfm쎯	-11.422
▁v쎯wyk쎯	-11.4222
▁rvyo쎯ny쎯	-11.4229
▁fg쎯eee0쎯	-11.4231
cbq쎯	-11.4231
▁ugdu쎯v쎯	-11.4233
▁zzzy11쎯	-11.4234
k쎯atd쎯ip쎯bpf쎯	-11.4234
▁itd쎯fcl쎯pgc쎯	-11.4235
▁amd쎯trf0쎯qiu0쎯	-11.4242
▁fg쎯fgh쎯fg쎯	-11.4243
▁fhv쎯dd쎯	-11.4244
▁saj0쎯wyn쎯	-11.4245
ykge쎯	-11.4245
▁wsg0쎯rfm쎯	-11.4246
▁wht쎯ghd1쎯	-11.4246
▁gg쎯dj쎯	-11.4247
kpt쎯	-11.4252
▁n쎯gk쎯	-11.4252
▁yfd쎯bb쎯	-11.4257
▁tk쎯yy쎯dm쎯	-11.4262
▁drin0쎯yneg0쎯	-11.4263
▁qqqq1쎯amw쎯	-11.4263
▁tuxj쎯wtu쎯	-11.4265
▁jmhn1쎯	-11.4265
tol쎯	-11.4267
▁aw쎯t쎯l쎯	-11.4267
▁rae쎯h쎯	-11.4269
▁wxj쎯mmm쎯	-11.427
cyi쎯	-11.427
▁isk쎯luf0쎯	-11.4273
▁rcw쎯	-11.4273
▁aqb0쎯	-11.4274
▁ftbt쎯yce쎯ip쎯	-11.4274
▁rt쎯rxj쎯	-11.4275
▁epc쎯wtl쎯	-11.4276
mmv0쎯	-11.4276
▁rt쎯xfn쎯	-11.4277
▁hi쎯tf쎯tffh1쎯	-11.4278
khq쎯	-11.428
▁fu쎯igd쎯	-11.4285
▁wgkq0쎯et쎯ftj쎯	-11.4287
▁fkuk2쎯iw쎯	-11.4288
▁du쎯fnrt쎯	-11.4291
▁zzpj10쎯	-11.4291
▁쎁쎀쎈쎀	-11.4294
is쎯	-11.4295
ggi쎯kht쎯	-11.4298
nyiy0쎯	-11.4303
▁qnd쎯	-11.4304
g쎯wh쎯	-11.4305
▁쎄쎂쎀	-11.4306
▁fcp쎯fcl쎯wf쎯	-11.4308
eqd쎯	-11.4309
▁xkw쎯tr쎯	-11.4311
▁aqq쎯jel쎯	-11.4313
▁amw쎯isgg2쎯	-11.4313
▁쎃쎈쎀	-11.4313
▁fii쎯ce쎯	-11.4316
▁tg쎯gu쎯	-11.4317
uwb쎯	-11.432
▁g쎯wmj1쎯	-11.4321
xwf쎯	-11.4325
▁pgy쎯khgm3쎯	-11.4326
aga쎯	-11.4329
uqwm1쎯idr쎯	-11.4334
▁pp쎯od쎯	-11.4334
▁wtl쎯pfj쎯	-11.4338
▁aib쎯ldt쎯	-11.4339
▁euk쎯yb쎯	-11.4339
▁je쎯rrr쎯	-11.434
▁tak쎯bt쎯	-11.434
▁img쎯lll쎯	-11.4346
▁vu쎯	-11.4349
▁qs쎯	-11.4349
▁lh쎯dm쎯	-11.435
▁stt쎯ugl쎯yx쎯	-11.435
▁wkh0쎯fj쎯wf쎯	-11.435
▁rnp쎯	-11.4351
▁yi쎯s쎯	-11.4353
▁bwf쎯e쎯	-11.4355
▁wfny0쎯fhw쎯	-11.4356
▁쎁쎃쎄	-11.4356
jhnr쎯	-11.4358
▁begg쎯rymn쎯	-11.4359
▁ipkh1쎯ybv0쎯	-11.4359
▁xke쎯	-11.436
▁jf쎯iq쎯	-11.436
▁쎁쎂쎇	-11.4361
▁wc쎯ud쎯	-11.4361
▁wg쎯pl쎯	-11.4363
▁xwv쎯	-11.4365
o0쎯	-11.4369
▁tg쎯itd쎯yy쎯aa쎯	-11.437
ny쎯gj쎯uqwk0쎯yqj쎯	-11.437
▁ajl쎯	-11.437
▁g쎯yy쎯dm쎯	-11.4371
▁pwd쎯v쎯	-11.4372
1	-11.4372
▁trfh1쎯	-11.4374
▁쎁쎉쎀	-11.4376
▁zzjp3쎯	-11.4377
▁pei쎯trt쎯	-11.4378
▁al쎯fw쎯	-11.4378
▁fmk쎯mty1쎯	-11.438
w0쎯	-11.4382
ynwy2쎯	-11.4383
▁ipgg1쎯ivs쎯	-11.4383
▁zzpj22쎯	-11.4383
▁k쎯sghg1쎯atd쎯	-11.4384
▁mmm쎯ii쎯gl쎯	-11.4384
▁wty0쎯g쎯	-11.4386
gef쎯qynm1쎯	-11.4389
▁qwd쎯	-11.439
▁vck쎯wbj쎯	-11.439
▁iytb0쎯w쎯	-11.4391
dwy0쎯	-11.4392
▁jtyq1쎯ipkm1쎯	-11.4393
▁awj0쎯	-11.4393
▁gmu1쎯	-11.4394
▁쎁쎃쎃	-11.4394
▁쎁쎆쎅	-11.4397
▁tdp쎯k쎯	-11.4398
amd쎯yygy쎯	-11.44
isk쎯fm쎯	-11.4403
▁rvy쎯ftbt쎯	-11.4403
ynwy1쎯	-11.4404
▁khq쎯uthp0쎯	-11.4405
sghg1쎯egc쎯	-11.4406
▁xmw쎯ty쎯	-11.4406
▁mq쎯sm쎯	-11.4407
dfa쎯	-11.4409
▁qh쎯dm쎯	-11.4411
▁yoo쎯udjh쎯	-11.4411
▁쎁쎃쎈	-11.4412
▁hi쎯swb쎯	-11.4413
▁qk쎯gq쎯	-11.4413
wyv쎯kkk쎯	-11.4415
svc쎯	-11.4417
▁쎁쎉쎀쎉	-11.4419
▁pye쎯tfq쎯	-11.4419
▁bfw쎯	-11.4421
▁ykge쎯ftx쎯	-11.4421
▁aps쎯uu쎯	-11.4423
▁bm쎯fcu1쎯	-11.4425
▁wy쎯wynn3쎯	-11.4425
▁pwfd쎯	-11.4427
ahtb0쎯	-11.4428
gm	-11.4428
▁wsg0쎯yce쎯qnp쎯	-11.4431
▁lfod0쎯	-11.4432
▁쎁쎇쎄	-11.4434
kvi쎯	-11.4436
▁qytb0쎯wx쎯	-11.4437
▁ip쎯ywf쎯	-11.4447
▁fg쎯fgh쎯dg쎯	-11.4447
▁ifj쎯ytyh쎯	-11.4451
▁yxt쎯	-11.4452
▁vfhp1쎯tam쎯jgm쎯	-11.4453
▁sbd쎯lkmi0쎯	-11.4455
▁udj쎯mww쎯	-11.4455
▁xyna1쎯lkb쎯uk쎯	-11.4459
▁fhwe쎯	-11.4463
wyk쎯	-11.4463
▁jjjj0쎯yn쎯	-11.4464
imk쎯	-11.4464
ftl쎯	-11.4464
rqcf1쎯	-11.4467
j쎯l쎯	-11.4467
▁etg쎯f쎯	-11.4467
iug0쎯	-11.4467
▁dg쎯l쎯fn쎯	-11.4468
▁img쎯qkm쎯	-11.4468
kwgj0쎯	-11.447
▁amw쎯img쎯	-11.4471
pue쎯	-11.4471
▁rwyg0쎯gj쎯	-11.4471
idg1쎯	-11.4472
tx쎯fg쎯	-11.4474
▁ton쎯	-11.4476
▁wk쎯qgu쎯	-11.4476
▁gs쎯rh쎯	-11.4478
▁ilg2쎯	-11.4478
▁vcy0쎯	-11.448
▁ddg1쎯ntg쎯	-11.448
▁wf쎯rn쎯	-11.448
▁gkp쎯pa쎯	-11.4481
▁vep쎯tmc쎯	-11.4485
▁sx쎯nnh쎯	-11.4486
lge쎯	-11.4486
▁ym쎯khgm3쎯	-11.449
▁tgl쎯	-11.4491
waw쎯	-11.4493
▁tak쎯ym쎯	-11.4497
▁yd쎯maw쎯	-11.4501
▁us쎯av쎯	-11.4501
▁eyj쎯	-11.4509
▁vcb쎯wug0쎯	-11.4511
▁ovt쎯ip쎯txi쎯	-11.4511
nnh쎯if쎯	-11.4515
▁dd쎯uqd2쎯pfjm1쎯	-11.4517
▁rg쎯yem쎯	-11.4521
▁uxe쎯uk쎯	-11.4521
rwyg0쎯	-11.4522
ack쎯	-11.4522
쎂쎀쎁쎀	-11.4523
▁쎁쎉쎀쎇	-11.4525
▁puv쎯rh쎯	-11.4525
▁ih쎯yvi쎯	-11.4526
▁ubte쎯	-11.4527
쎂쎀쎁쎂	-11.4527
▁ui쎯oyvk1쎯	-11.4528
▁h쎯up쎯	-11.453
▁c쎯dy쎯mqq쎯	-11.4532
▁yygt쎯yq쎯	-11.4534
▁dd쎯wgkq0쎯	-11.4534
w쎯n쎯if쎯bpf쎯	-11.4535
▁k쎯l쎯l쎯	-11.4537
▁ym쎯hid쎯	-11.4542
▁fge쎯tr쎯bpf쎯	-11.4543
▁py	-11.4544
▁iwy2쎯fm쎯	-11.4549
▁sh쎯tffu쎯	-11.455
▁ugdu쎯wx쎯	-11.4552
▁bg쎯tg쎯ds쎯	-11.4554
▁wk쎯ryn1쎯aq쎯	-11.4557
▁imh쎯udi0쎯	-11.4558
▁lfn쎯yh쎯	-11.4562
▁uu쎯fn쎯	-11.4565
▁thd쎯qsu쎯	-11.4568
▁jqb쎯	-11.4568
efw쎯	-11.4569
umc쎯	-11.4569
▁da쎯wfny0쎯	-11.457
▁yo쎯af쎯	-11.4571
▁wmw쎯wx쎯	-11.4572
▁ff쎯ymd쎯	-11.4575
▁hc쎯efw쎯ugm쎯	-11.4576
▁wg쎯dm쎯v쎯nae0쎯	-11.4581
▁yuv쎯	-11.4581
igt쎯	-11.4581
▁wwx쎯gj쎯	-11.4581
▁tf쎯wgkq0쎯	-11.4582
▁hx쎯th쎯	-11.4583
▁wm쎯w쎯	-11.459
▁cd쎯jvko0쎯	-11.459
▁be쎯uthp0쎯	-11.4591
▁ymf쎯ya쎯	-11.4594
▁ftxu1쎯	-11.4597
qkqy0쎯	-11.4598
▁uywu0쎯	-11.4599
▁suq쎯fhg1쎯	-11.46
▁uyh쎯pwt쎯	-11.4601
▁jn쎯xg쎯	-11.4602
▁pfqf쎯ny쎯ugm쎯	-11.4603
▁pw쎯ny쎯	-11.4604
▁yhk쎯qge쎯	-11.4604
rhyi0쎯	-11.4605
▁ta쎯wtp쎯	-11.4605
▁adnt1쎯ytt쎯	-11.4612
rv쎯	-11.4615
▁mqq쎯n쎯	-11.4616
▁oge쎯rmhj쎯	-11.4616
▁쎁쎉쎀쎄	-11.4616
▁rvyo쎯uyh쎯	-11.4621
▁aw쎯u쎯y쎯yq쎯	-11.4623
▁ybt쎯or쎯	-11.4624
▁w쎯tfqp쎯	-11.4624
▁wvd쎯dmh0쎯	-11.4624
▁ymf쎯rpw쎯	-11.4626
▁maw쎯aib쎯	-11.4626
▁suq쎯mq쎯	-11.4629
afcu2쎯	-11.463
▁yid쎯e쎯	-11.4632
▁tonu0쎯	-11.4632
apgy0쎯	-11.4635
k쎯kht쎯	-11.4637
▁khj쎯	-11.4637
▁rqw쎯	-11.4638
▁rf쎯qy쎯	-11.4639
ium쎯	-11.464
▁fcp쎯lfn쎯	-11.464
▁mq쎯es쎯	-11.4643
cb	-11.4646
▁dty0쎯jfd쎯	-11.4647
▁ba쎯hc쎯	-11.465
▁khn쎯ydn쎯	-11.465
▁m쎯ick쎯	-11.4651
k쎯wxf쎯	-11.4652
iffg쎯	-11.4654
▁fu쎯tg쎯	-11.4654
▁rhb쎯	-11.4655
▁.....	-11.4656
▁ipw쎯fqp쎯	-11.4656
fqw쎯	-11.4656
▁le쎯enr쎯	-11.4658
▁bqv쎯ty쎯	-11.466
▁xpw쎯tdg1쎯	-11.4661
temq0쎯	-11.4661
▁jaw쎯fcl쎯	-11.4663
▁gajh쎯if쎯	-11.4666
▁qev쎯yt쎯hka쎯qv쎯	-11.4666
▁jujf1쎯	-11.4668
jn쎯pym쎯ck쎯	-11.4668
▁iaw쎯ii쎯	-11.467
xtk쎯	-11.4672
▁fwy0쎯tkw쎯	-11.4673
▁tf쎯gq쎯	-11.4673
▁rdw쎯	-11.4675
▁gogj쎯nnh쎯	-11.4676
▁iwb쎯	-11.4677
▁pv쎯pg쎯	-11.4678
fh	-11.4678
udi0쎯sf쎯	-11.4679
ft	-11.4682
▁wc쎯nyi2쎯	-11.4683
▁wfny0쎯an쎯	-11.4684
lkc쎯	-11.4684
쎃dnv0쎯	-11.4685
▁jx쎯je쎯ymhj0쎯	-11.4688
▁temq0쎯bw쎯	-11.4689
wynk쎯	-11.4689
gu쎯dr쎯	-11.4691
▁tdp쎯gf쎯	-11.4692
▁ux쎯mdfj쎯	-11.4692
▁dd쎯itx쎯	-11.4692
▁dgh쎯tdij0쎯	-11.4693
sgc쎯fhl쎯	-11.4693
▁awv쎯uff쎯	-11.4693
▁cd쎯pl쎯	-11.4693
▁tk쎯naj0쎯	-11.4694
▁dmj1쎯rg쎯	-11.4695
▁vi쎯wqj쎯	-11.4695
▁fcl쎯w쎯	-11.4696
▁tnb0쎯	-11.4698
iqgg쎯	-11.4698
▁ibi쎯	-11.4704
▁itx쎯mgu쎯	-11.4706
▁su쎯aa쎯	-11.4708
▁bct쎯wgk쎯tr쎯	-11.4709
k쎯l쎯a쎯pei쎯xa쎯pl쎯	-11.4712
▁tjt쎯iw쎯	-11.4714
qiu0쎯tfl쎯	-11.4714
fgf0쎯	-11.4715
pv쎯tmgt3쎯	-11.4716
▁xgb쎯uqv쎯	-11.4717
▁jn쎯ce쎯	-11.4719
▁jqr쎯ip쎯	-11.4721
▁tfh쎯	-11.4722
▁rp쎯adwe1쎯	-11.4723
▁qev쎯bwt쎯	-11.4725
pujn0쎯	-11.4726
▁e쎯sk쎯ce쎯	-11.4729
▁fh쎯cm쎯	-11.473
▁yygt쎯jn쎯	-11.473
fqng쎯	-11.4733
▁m쎯wfg0쎯	-11.4733
ht쎯	-11.4733
▁v쎯yt쎯	-11.4735
▁tmfk1쎯	-11.4735
aaf0쎯	-11.4739
▁ym쎯u쎯	-11.4739
ipw쎯fkh쎯	-11.4742
iaj0쎯	-11.4743
▁scf쎯hc쎯	-11.4744
▁pfjm1쎯lg쎯	-11.4744
hf쎯	-11.4744
▁a쎯og쎯uk쎯	-11.4746
▁sqj쎯	-11.4746
▁ugdu쎯w쎯	-11.4746
▁g쎯fg쎯	-11.4747
▁yte쎯	-11.4748
fgh쎯vt쎯	-11.475
▁itx쎯kkkk1쎯	-11.475
▁wygg쎯bpf쎯	-11.4753
▁rtf쎯ty쎯	-11.4753
▁qh쎯wmj1쎯	-11.4754
▁aw쎯vfhp1쎯	-11.4755
▁tif쎯tg쎯	-11.4755
▁lq쎯zzbd10쎯	-11.4756
▁by쎯aib쎯	-11.4756
▁fc쎯lks쎯	-11.4756
▁wyf0쎯jg쎯	-11.4758
▁saj0쎯ode쎯	-11.4762
▁abi쎯v쎯	-11.4762
▁kma쎯	-11.4762
▁waw쎯dwf쎯	-11.4763
▁peg쎯iw쎯	-11.4763
▁wug0쎯nd쎯	-11.4764
▁iit쎯icw쎯	-11.4764
▁uqw쎯ovt쎯	-11.4767
▁thgc0쎯sc쎯	-11.4768
▁pb쎯ovt쎯	-11.4768
qs쎯	-11.4772
▁rad쎯	-11.4775
▁arj쎯ae쎯	-11.4775
▁ldd0쎯wx쎯	-11.4775
▁dc쎯w쎯	-11.4781
▁fg쎯fgh쎯uy쎯	-11.4781
vte쎯	-11.4782
▁zzxx20쎯	-11.4782
▁www쎯tg쎯	-11.4784
sagg0쎯	-11.4785
▁ynw쎯	-11.4786
▁ud쎯ab쎯oo쎯	-11.4791
▁mhkg2쎯rp쎯	-11.4793
▁dty0쎯nd쎯	-11.4793
▁in쎯	-11.4795
▁v쎯idr쎯	-11.4797
▁uub쎯	-11.4797
▁k쎯ip쎯tg쎯	-11.4798
▁yaa쎯yjjh0쎯	-11.4798
wge쎯	-11.48
▁cn쎯qwyc1쎯alfj1쎯	-11.4801
▁wjm쎯qd쎯	-11.4802
▁pynk0쎯	-11.4803
bib쎯	-11.4803
▁i쎯it쎯	-11.4805
▁sbb쎯	-11.4806
▁b쎯qev쎯	-11.4807
wtd쎯	-11.481
▁sk쎯o쎯	-11.4811
tffh1쎯uthp0쎯	-11.4811
▁ufg쎯ytt쎯	-11.4812
qmw쎯	-11.4819
▁nhj쎯ougo0쎯	-11.482
▁ypt쎯fq쎯	-11.4822
▁fw쎯vv쎯	-11.4823
▁ijl쎯gkp쎯	-11.4823
▁sb쎯rrr쎯	-11.4823
▁wx쎯ip쎯txi쎯	-11.4827
▁qtk쎯	-11.4829
kt쎯t쎯itfk0쎯trf0쎯	-11.4829
▁ix쎯	-11.4829
dga쎯v쎯	-11.4838
▁jfdj1쎯jhny쎯	-11.4839
gx쎯	-11.4839
ia쎯qfhw1쎯	-11.4841
or쎯	-11.4843
▁bb쎯yny0쎯	-11.4844
▁ydx쎯	-11.4844
▁xa쎯isk쎯ytyh쎯	-11.4848
▁tqf0쎯	-11.4849
▁op쎯w쎯	-11.4852
▁qsu쎯rt쎯	-11.4853
▁rymn쎯ukk쎯	-11.4854
▁qk쎯ujfj0쎯	-11.4855
▁쎈쎆쎃	-11.4855
▁wfny0쎯yn쎯	-11.4858
▁rdj쎯bm쎯	-11.4862
▁by쎯uqwl쎯	-11.4864
▁etj쎯f쎯	-11.4865
bde쎯	-11.4866
▁aqo쎯awx쎯	-11.4868
▁dg쎯tfk0쎯	-11.4869
▁fl쎯um쎯	-11.4872
uyu쎯	-11.4873
▁ger쎯	-11.4875
▁wbg0쎯	-11.4878
▁ivk쎯icf쎯	-11.4879
▁qh쎯uqwm1쎯	-11.4882
▁rpv쎯qvfp1쎯	-11.4882
ya쎯nx쎯sghg1쎯gog쎯	-11.4885
▁xfnh쎯	-11.4885
▁ep쎯h쎯	-11.4886
▁vb쎯wqj쎯	-11.4886
▁alf0쎯ssss0쎯	-11.4888
tgj쎯yd쎯	-11.489
▁dhb쎯ffi쎯	-11.489
▁rjg1쎯qm쎯	-11.4891
▁aqrn1쎯ugv쎯	-11.4892
x쎯apk쎯	-11.4895
▁bd쎯fa쎯	-11.4895
▁syc쎯	-11.4897
▁ajdn0쎯	-11.4898
▁fhn쎯wdy1쎯	-11.4898
▁al쎯ditn1쎯	-11.4898
r0쎯	-11.49
▁qbp쎯ruv쎯	-11.4901
▁mqj쎯mqj쎯	-11.4902
tdx쎯	-11.4902
▁qk쎯yq쎯	-11.4905
▁isj쎯	-11.4905
▁qfhw1쎯ght쎯ywf쎯	-11.4906
vnh쎯	-11.4911
▁fjfh1쎯wgen1쎯	-11.4912
▁kkd쎯hw쎯	-11.4914
d쎯l쎯	-11.4915
▁bm쎯l쎯	-11.4917
▁elv쎯	-11.4918
▁pykw쎯	-11.4919
xwx쎯	-11.4921
▁rfc쎯sy쎯ip쎯bpf쎯	-11.4922
▁vtf쎯vdf0쎯	-11.4926
▁l쎯ip쎯	-11.4928
▁fay쎯udjh쎯	-11.4929
▁rh쎯fqu쎯	-11.493
vcy0쎯	-11.4931
▁ep쎯qiu0쎯uff쎯	-11.4931
▁qvhc0쎯	-11.4932
▁n쎯sksw쎯	-11.4932
▁c쎯dy쎯	-11.4934
tg	-11.4935
▁fiyt쎯ref쎯	-11.4939
▁qtr쎯	-11.4942
▁bc쎯iie쎯	-11.4943
▁jcf쎯pg쎯	-11.4943
▁yygy쎯af쎯	-11.4945
▁lh쎯jtg쎯xe쎯	-11.4945
khp쎯	-11.4949
▁w쎯tq쎯	-11.4949
▁glf쎯	-11.495
wfkb0쎯	-11.4952
▁쎂쎀쎅	-11.4952
▁age쎯lll쎯	-11.4952
▁jmh쎯	-11.4955
▁e쎯tjh쎯	-11.4956
▁tmd쎯sft쎯	-11.4957
wam쎯	-11.4959
▁ige쎯iyct쎯	-11.4961
▁y쎯u쎯	-11.4961
▁it쎯mqb쎯	-11.4963
▁suq쎯mw쎯	-11.4965
▁c쎯qc쎯gq쎯	-11.4965
▁hi쎯wat쎯	-11.4965
▁dpr쎯xh쎯	-11.4967
▁e쎯xg쎯jn쎯pym쎯	-11.4969
qnf쎯	-11.4975
▁pum쎯	-11.4976
▁rnv0쎯wx쎯	-11.4976
▁wffg쎯wt쎯	-11.4978
▁tfl쎯ygk쎯	-11.4979
▁dy쎯dr쎯ymhj0쎯	-11.4979
▁rymn쎯ugm쎯	-11.498
tjtl쎯	-11.4981
itk쎯dq쎯	-11.4981
fs쎯	-11.4982
▁xry쎯	-11.4983
▁ya쎯wnh쎯sf쎯	-11.4986
▁ktr쎯	-11.4986
g쎯k쎯	-11.4987
pydk1쎯	-11.4989
nj쎯	-11.4993
▁xfn쎯tey0쎯	-11.4994
▁w쎯n쎯if쎯bpf쎯	-11.4996
▁ujq쎯qd쎯	-11.4996
▁ad쎯dbm쎯gj쎯ywx쎯	-11.4997
vke쎯	-11.5002
swgj0쎯	-11.5003
▁set쎯	-11.5007
▁klj쎯gcft0쎯	-11.5007
▁dgt1쎯aq쎯	-11.5007
tr	-11.501
▁djd쎯if쎯	-11.5011
▁gx쎯egl쎯	-11.5011
▁v쎯wt쎯	-11.5016
▁jtyq1쎯klj쎯	-11.5016
▁rdj쎯bwt쎯	-11.5017
▁xf쎯pu쎯	-11.5017
▁um쎯og쎯tffh1쎯	-11.5017
▁jft쎯	-11.5018
▁쎈jjjj0쎯	-11.502
rma쎯	-11.5024
yfy2쎯	-11.5026
▁qqqq1쎯qc쎯	-11.5026
▁lfn쎯og쎯	-11.5027
adwr0쎯fawk0쎯	-11.503
▁um쎯ip쎯bpf쎯	-11.5031
▁mht쎯	-11.5032
▁hndm0쎯	-11.5033
▁bb쎯bi쎯	-11.5033
uv쎯	-11.5033
▁et쎯yny0쎯	-11.5038
rdfj1쎯	-11.5039
iak쎯	-11.5039
lhnh쎯ad쎯	-11.5039
▁qqqq1쎯bfw쎯	-11.504
▁mf쎯wf쎯	-11.5041
▁awx쎯mmq쎯mdf0쎯	-11.5041
▁aguw쎯	-11.5042
▁sghg1쎯dm쎯	-11.5042
▁uu쎯adm쎯	-11.5043
▁w쎯lt쎯uqwm1쎯idr쎯	-11.5049
▁ih쎯kf쎯	-11.505
▁jh쎯nnnn0쎯	-11.5051
▁fcl쎯sfhg쎯tr쎯	-11.5052
fcl쎯rpw쎯rmhj쎯	-11.5055
pei쎯og쎯	-11.5058
▁kkkk1쎯ygk쎯	-11.5059
▁qbl쎯	-11.506
▁gae쎯wsg0쎯	-11.5065
jgm쎯dd쎯	-11.5065
▁sg쎯nnh쎯	-11.5065
▁qdy1쎯	-11.5067
▁dqw쎯	-11.5068
uud0쎯	-11.5068
itm쎯	-11.5069
▁uym쎯qkhh1쎯	-11.5071
hak쎯	-11.5072
▁skf쎯wfg0쎯	-11.5075
▁g쎯yu쎯	-11.5075
nbm쎯	-11.5075
▁fhb쎯	-11.5075
ot쎯	-11.5076
dmu1쎯	-11.508
▁rap쎯fhn쎯	-11.5082
▁qvw쎯	-11.5083
▁pye쎯wqu쎯	-11.5084
▁ny쎯jfd쎯	-11.5086
▁rfc쎯sy쎯ga쎯v쎯aq쎯	-11.5087
▁dh쎯pgk쎯qq쎯ese쎯	-11.5087
▁w쎯o쎯	-11.5088
k쎯md쎯	-11.5089
kwyn1쎯	-11.509
dx쎯mmm쎯	-11.5092
▁wxf쎯dnnl쎯gbnm1쎯	-11.5092
▁y쎯fggh쎯uthp0쎯	-11.5093
▁txgi5쎯qq쎯	-11.5093
yth쎯	-11.5093
▁tf쎯jtg쎯	-11.5094
▁xl쎯ih쎯	-11.5094
▁lc쎯a쎯	-11.5094
▁tlf0쎯wwv쎯	-11.5095
▁dgh쎯yop쎯	-11.5096
ougo0쎯	-11.5097
▁dw쎯tb쎯	-11.5099
▁fgh쎯dnv0쎯	-11.51
▁rkh쎯	-11.51
▁ick쎯wgen1쎯	-11.5102
▁wvm쎯adf쎯	-11.5103
▁wxj쎯wqj쎯	-11.5104
▁fhwm1쎯	-11.5106
▁ty쎯wygg쎯	-11.5107
▁ipk쎯tl쎯	-11.511
▁cep쎯tf쎯	-11.511
fy쎯	-11.5111
▁xnf쎯gkp쎯	-11.5113
▁tgj쎯gajf0쎯	-11.5115
▁yy쎯yjjh0쎯	-11.5117
▁ddh쎯uyh쎯ymhj0쎯	-11.5119
pfqc1쎯	-11.5119
▁sq쎯tam쎯	-11.5121
▁btg쎯fhn쎯	-11.5126
▁ivs쎯ou쎯	-11.5126
ythp1쎯	-11.5132
▁fp쎯ya쎯	-11.5134
▁ujff쎯rh쎯	-11.5136
▁jyiy0쎯	-11.5136
▁utdk쎯	-11.5138
▁qqqq1쎯mmm쎯	-11.5139
▁ire쎯khgp1쎯	-11.5139
▁yxxr1쎯	-11.5139
▁sfhg쎯tr쎯img쎯	-11.5141
쎅쎀쎀쎀	-11.5141
▁srq쎯	-11.5142
▁ufg쎯cm쎯	-11.5144
▁xq쎯pg쎯	-11.5145
ibg1쎯	-11.5148
▁dnv0쎯tr쎯	-11.515
▁tey0쎯itx쎯	-11.5154
▁aqq쎯bj쎯	-11.5155
▁tjh쎯yx쎯	-11.5157
▁wys쎯wsg0쎯x쎯iyj쎯	-11.5161
▁cc쎯nfc쎯	-11.5161
▁gog쎯fcp쎯wf쎯	-11.5163
▁pwv쎯ujq쎯	-11.5163
▁cbd쎯rb쎯	-11.5164
▁jc쎯tfkd쎯	-11.5165
▁pl쎯ght쎯	-11.5166
▁vep쎯bm쎯	-11.5167
▁iyc쎯x쎯	-11.5168
▁tqdh0쎯bj쎯	-11.5168
▁gmww쎯lp쎯	-11.517
▁hx쎯od쎯	-11.5173
▁src쎯sft쎯	-11.5175
▁py쎯uq쎯	-11.5177
▁l쎯bf쎯h쎯	-11.5178
see쎯	-11.5185
▁qaf쎯	-11.5186
▁xg쎯h쎯	-11.5189
▁eyf쎯	-11.519
rvh쎯fpx쎯xh쎯aqkr쎯	-11.5192
▁wqc쎯wqc쎯	-11.5192
▁jvko0쎯db쎯	-11.5193
▁쎁쎁쎁	-11.5194
▁yqa쎯yww쎯	-11.5195
▁trf0쎯dd쎯	-11.5196
▁yfd쎯lfq쎯	-11.5196
▁mw쎯ymc쎯	-11.5197
▁yy쎯ghd1쎯	-11.5197
ymb쎯	-11.5198
gmap쎯epc쎯	-11.52
▁xqa쎯xt쎯	-11.52
▁cw쎯tj쎯	-11.5201
▁ivs쎯qc쎯	-11.5207
▁apk쎯ta쎯	-11.521
uc쎯	-11.521
▁ssu쎯	-11.5212
zzbd0쎯쎀	-11.5215
▁aft쎯syp쎯	-11.5219
▁ml쎯usr쎯	-11.5219
▁isgg2쎯oge쎯	-11.5221
▁pp쎯puv쎯	-11.5221
tdtf0쎯	-11.5222
▁dn쎯gae쎯	-11.5222
hame0쎯	-11.5226
▁gog쎯pl쎯	-11.5231
▁wfn쎯	-11.5233
▁yad쎯mhny1쎯qiu0쎯	-11.5234
▁adu1쎯	-11.5235
▁gkih0쎯ick쎯	-11.5239
ann0쎯	-11.524
▁du쎯ntg쎯	-11.524
▁tmg1쎯wbj쎯	-11.524
▁bu쎯mqq쎯	-11.5241
▁vi쎯bc쎯	-11.5242
▁rvh쎯wys쎯	-11.5242
▁dgtg0쎯do쎯	-11.5242
▁kd쎯ick쎯	-11.5243
ip쎯txi쎯	-11.5244
▁sj쎯rhf0쎯	-11.5244
▁gkih0쎯sm쎯	-11.5245
lh쎯kthh1쎯	-11.5245
▁iss쎯iww쎯	-11.5249
▁ebf0쎯vv쎯	-11.5249
bhc쎯	-11.5251
▁쎂쎀쎁	-11.5251
mmm쎯eyni쎯	-11.5251
▁e쎯qc쎯qqqq1쎯ntk쎯	-11.5252
vt쎯gg쎯	-11.5253
sux쎯	-11.5253
▁fm쎯mmm쎯	-11.5255
▁gd쎯wsg0쎯	-11.5256
rtd쎯	-11.5257
▁ukh쎯itf쎯	-11.526
▁lrj쎯jf쎯	-11.526
▁n쎯ght쎯nnk쎯	-11.526
tfj1쎯	-11.5261
▁py쎯km쎯	-11.5262
▁tg쎯ujn쎯	-11.5262
▁amd쎯cel쎯	-11.5264
▁th쎯th쎯	-11.527
▁wdt쎯o쎯	-11.5271
gkl쎯	-11.5271
▁txg쎯eee0쎯	-11.5272
adwr0쎯gbnm1쎯	-11.5274
▁kcy0쎯	-11.5274
▁lhnh쎯tffu쎯	-11.5277
▁lhj쎯	-11.5278
▁tj쎯td쎯	-11.528
▁ecl쎯tjh쎯	-11.528
▁iv쎯wt쎯	-11.5281
▁dy쎯qq쎯	-11.5281
▁tdtj쎯	-11.5282
▁cff0쎯f쎯	-11.5289
ynnd쎯	-11.5291
▁g쎯uqw쎯ntg쎯	-11.5291
▁oaw쎯	-11.5292
▁pl쎯lft쎯	-11.5292
▁wbj쎯tfkp0쎯ntg쎯	-11.5292
qna쎯	-11.5293
▁utem1쎯ou쎯	-11.5293
▁nq쎯	-11.5294
▁udg2쎯gkip0쎯	-11.5296
hjs쎯	-11.5296
▁rn	-11.5298
▁fu쎯qq쎯	-11.5299
▁vp쎯rfq쎯	-11.5301
qtg쎯	-11.5301
▁mta쎯yne쎯	-11.5301
▁ipw쎯ipw쎯	-11.5302
▁fm쎯umd1쎯	-11.5302
vpe쎯	-11.5303
▁ya쎯wnh쎯aq쎯	-11.5304
▁mfk쎯jqr쎯	-11.5305
▁kht쎯kkkk1쎯	-11.5307
adwr0쎯ad쎯	-11.5308
tvt쎯	-11.531
bn쎯	-11.5311
▁ycf쎯qk쎯	-11.5313
▁sgye0쎯	-11.5318
bfw쎯egc쎯	-11.532
▁lfn쎯hka쎯	-11.532
▁mmm쎯mtd쎯	-11.5322
tep쎯	-11.5323
▁lll쎯lfq쎯	-11.5328
▁yop쎯	-11.5331
▁ihc쎯adwr0쎯	-11.5332
▁rrr쎯ae쎯	-11.5333
▁ssss0쎯bgh쎯	-11.5334
▁trf0쎯uqt쎯	-11.5335
▁sec쎯bu쎯	-11.5335
vynu쎯	-11.5338
mff1쎯	-11.5339
▁dw쎯ab쎯	-11.5342
▁vyv쎯	-11.5343
▁ss쎯gh쎯	-11.5344
mmm쎯sghg1쎯ith쎯	-11.5346
ad쎯dbm쎯	-11.5346
▁dyc쎯wx쎯	-11.535
▁dgkn0쎯jhf1쎯	-11.5351
▁쎇쎆쎈	-11.5352
▁ihcv쎯	-11.5359
oy쎯qiu0쎯	-11.5359
▁ny쎯eyf쎯ugm쎯	-11.536
▁tkw쎯wv쎯	-11.5361
▁ahtb0쎯gogn0쎯	-11.5363
▁ebn0쎯eri쎯	-11.5364
and쎯	-11.5365
▁ss쎯k쎯	-11.5366
kmh0쎯	-11.5366
▁udh쎯qc쎯	-11.5367
▁fcl쎯lt쎯ip쎯	-11.5367
▁pgy쎯cqy쎯	-11.5371
ykg0쎯	-11.5372
▁www쎯w쎯	-11.5375
▁xq쎯gki쎯	-11.5375
▁uwl쎯tdkj0쎯	-11.5376
▁tuj0쎯dl쎯	-11.5379
▁dd쎯fmy0쎯	-11.5382
▁jqw쎯	-11.5385
▁adiy쎯	-11.5385
▁vvv쎯ipg쎯km쎯	-11.539
▁anb0쎯sy쎯ab쎯	-11.5393
▁ob쎯oug0쎯	-11.5395
▁uygh1쎯yntw0쎯	-11.5398
▁fp쎯dgj쎯	-11.5398
ij쎯	-11.5399
▁cc쎯rt쎯	-11.5399
▁iwy2쎯pv쎯	-11.5401
▁ax쎯yjjh0쎯	-11.5402
▁fft쎯	-11.5405
u1쎯	-11.5406
▁oyv쎯img쎯	-11.5406
▁et쎯ny쎯	-11.5408
▁pei쎯ss쎯	-11.541
wnnf0쎯	-11.541
iyy쎯	-11.5411
▁a쎯um쎯bu쎯	-11.5412
▁whm쎯rpws쎯	-11.5412
▁vvv쎯ggg0쎯	-11.5414
▁mhny1쎯fpm쎯	-11.5414
▁wdt쎯gk쎯	-11.5414
▁pgk쎯puw쎯	-11.5415
▁yri쎯	-11.5419
▁xyna1쎯rdj쎯	-11.542
쎀쎀쎀dnv0쎯	-11.5421
▁kft쎯kmd쎯	-11.5425
▁zzy3쎯	-11.5425
▁usr쎯fu쎯	-11.5426
▁fcp쎯tha쎯	-11.5427
atd쎯ip쎯wf쎯	-11.5432
▁spwk0쎯	-11.5433
▁rl쎯	-11.5433
▁rgv쎯dq쎯	-11.5435
ccyj1쎯	-11.5435
ica쎯	-11.5437
▁gl쎯yyv쎯	-11.5439
▁qh쎯gk쎯	-11.5444
▁ty쎯rt쎯	-11.5444
▁yq쎯tl쎯ftbt쎯yce쎯	-11.5444
lwi0쎯	-11.5448
▁epc쎯gj쎯	-11.545
▁qfhw1쎯ia쎯	-11.545
▁nnh쎯fl쎯	-11.5452
▁ps쎯geq쎯	-11.5453
dyi쎯	-11.5453
dan쎯	-11.5454
▁pwat0쎯udh쎯	-11.5455
▁gq쎯wfny0쎯	-11.5455
rny1쎯	-11.5455
▁vs쎯fn쎯py쎯	-11.5457
▁wgkg1쎯	-11.5458
▁rbcc쎯jyie쎯jgm쎯	-11.5459
▁mq쎯eerq쎯	-11.5459
▁wvm쎯tld1쎯	-11.546
▁yw쎯m쎯	-11.5461
▁sw쎯pwfi0쎯	-11.5466
▁rcb쎯nge쎯	-11.5468
▁rs쎯a쎯	-11.5468
▁yt쎯tmdf1쎯ntg쎯	-11.5468
▁symh쎯	-11.547
▁yaa쎯jghm1쎯	-11.547
▁fd쎯mw쎯	-11.5471
dgh쎯wa쎯	-11.5473
▁iwv쎯	-11.5474
▁gkub0쎯gku쎯	-11.5478
▁xww쎯tm쎯	-11.5478
▁jcf쎯ldd0쎯	-11.5483
sgtq쎯	-11.5485
▁fpb쎯	-11.5487
▁@	-11.5488
▁alw쎯st쎯uff쎯	-11.549
▁fcl쎯a쎯	-11.5493
▁med쎯	-11.5493
khu쎯gfi쎯	-11.5494
▁tu쎯hhhh쎯	-11.5499
▁yvw쎯	-11.55
▁ifk0쎯	-11.5501
▁쎁쎉쎀쎂	-11.5502
▁e쎯gxgu쎯	-11.5503
▁hj쎯jf쎯	-11.5504
▁by쎯ooo쎯ffuk쎯	-11.5506
▁fq쎯wc쎯pd쎯	-11.5508
▁wht쎯udyj쎯	-11.5508
▁wy쎯et쎯hhu0쎯	-11.5508
▁dgh쎯qfhw1쎯	-11.551
▁wgku1쎯h쎯	-11.551
▁fiyt쎯egl쎯	-11.5511
▁bi쎯k쎯mmm쎯	-11.5512
▁atd쎯tl쎯	-11.5512
▁rge쎯rkh쎯	-11.5513
▁ivy쎯	-11.5515
▁yo쎯rfm쎯	-11.5517
▁jcf쎯dgj쎯	-11.5518
▁nt쎯fdm쎯	-11.5519
▁k쎯md쎯pw쎯ymf쎯	-11.5521
▁fhw쎯sh쎯	-11.5521
▁mqb쎯ygh쎯	-11.5521
▁wyn쎯wxj쎯	-11.5522
▁etj쎯epw쎯	-11.5523
ei쎯	-11.5523
▁ggi쎯gfi쎯	-11.5523
쎇dnv0쎯	-11.5524
ybf0쎯	-11.5525
▁ime쎯fv쎯	-11.5525
▁dy쎯se쎯udr0쎯	-11.5526
▁wy쎯ny쎯	-11.5527
fhh쎯	-11.5528
▁dr쎯gajf0쎯	-11.5528
▁wvt쎯yvc쎯	-11.5529
▁wyv쎯ipkf0쎯	-11.553
▁alfj1쎯	-11.553
▁rxj쎯tm쎯	-11.5532
▁zzzy34쎯	-11.5533
▁ipkh1쎯e쎯	-11.5533
mmm쎯sf쎯	-11.5534
▁ujn쎯fuj쎯	-11.5536
▁ga쎯kkkk1쎯	-11.5538
▁qng1쎯dq쎯uff쎯	-11.5538
▁fnrt쎯dm쎯	-11.5539
▁adw쎯uqw쎯	-11.554
wv쎯sr쎯	-11.554
▁w쎯ntg쎯	-11.5541
▁um쎯og쎯aq쎯	-11.5544
▁bwt쎯fcu1쎯	-11.5545
▁oge쎯med쎯	-11.5546
▁lk쎯img쎯	-11.5546
▁쎁쎉쎀쎃	-11.5548
▁apk쎯fcp쎯	-11.5549
▁kjj쎯sksw쎯	-11.5551
▁rvy쎯ght쎯	-11.5554
udb쎯ytyh쎯	-11.5555
rdc쎯	-11.5561
▁duo쎯ruj0쎯	-11.5561
▁ruv쎯xg쎯	-11.5563
gqf쎯	-11.5564
▁uve쎯	-11.5564
dd쎯tffh1쎯	-11.5568
▁wv쎯bpf쎯	-11.5568
bgk쎯	-11.5568
▁ian1쎯xyna1쎯	-11.5568
▁fgig쎯	-11.5569
▁sks쎯wwx쎯xx쎯gog쎯	-11.5569
yygy쎯wx쎯yqa쎯axj쎯	-11.5569
▁jp쎯	-11.5569
▁nuf쎯	-11.5571
▁sh쎯gx쎯wt쎯et쎯	-11.5571
▁wyo쎯hko쎯	-11.5572
▁dma쎯	-11.5573
▁tfc쎯	-11.5576
▁tfl쎯ytyh쎯	-11.5576
▁zzpj82쎯	-11.5576
▁ffc쎯	-11.5577
▁ai쎯gog쎯	-11.5577
▁xeg0쎯wv쎯	-11.5579
▁lh쎯kthh1쎯dd쎯ip쎯	-11.558
cbn1쎯	-11.5581
▁sqqd0쎯	-11.5582
▁trf0쎯naj0쎯	-11.5583
▁fqd쎯	-11.5584
▁wa쎯ge쎯lft쎯	-11.5587
▁dd쎯bw쎯ta쎯	-11.5587
▁tdnj0쎯sj쎯	-11.5587
▁yiu0쎯jgm쎯	-11.559
▁wys쎯ufy쎯tsh1쎯	-11.5592
▁ih쎯kkk쎯	-11.5593
▁infy쎯imgk쎯	-11.5597
▁rb쎯py쎯	-11.5597
▁qtj쎯wbj쎯	-11.56
▁ujf0쎯wqj쎯	-11.5601
rcn0쎯	-11.5602
▁dd쎯svc쎯	-11.5602
▁gmy0쎯ia쎯	-11.5602
▁jn쎯pww쎯	-11.5603
▁svc쎯yx쎯	-11.5603
▁k쎯ta쎯adwe1쎯	-11.5605
▁eee0쎯ypm쎯	-11.5607
adwr0쎯tu쎯	-11.5608
▁ef쎯ugm쎯	-11.5608
jfd쎯dq쎯	-11.5609
▁ynt0쎯gl쎯	-11.561
rnt쎯	-11.5611
▁ain쎯	-11.5611
▁uu쎯aa쎯	-11.5614
qr쎯kht쎯nnk쎯	-11.5616
▁fq쎯pwl쎯	-11.5617
▁jg쎯bb쎯	-11.5618
▁qdw쎯	-11.5619
▁ujfj0쎯yngk1쎯	-11.5622
▁qie쎯jg쎯	-11.5626
▁qnth쎯kkk쎯	-11.5627
▁ftjo1쎯ixj쎯	-11.5628
▁inr쎯ifh0쎯	-11.5631
▁〖	-11.5632
▁xn쎯vi쎯thg1쎯	-11.5632
wgkg1쎯	-11.5633
▁uthp0쎯gj쎯	-11.5633
▁kt쎯kn쎯	-11.5633
▁fcn쎯eup쎯	-11.5635
ia쎯alw쎯	-11.5636
▁ymhj0쎯mw쎯	-11.5636
sgag쎯	-11.5637
▁w쎯n쎯jjjj0쎯rb쎯	-11.5638
▁agnn1쎯dq쎯lt쎯	-11.564
▁wh쎯klj쎯	-11.5642
▁sq쎯ltu0쎯	-11.5645
▁uqd2쎯ip쎯qqqq1쎯	-11.5651
qk	-11.5651
▁yuw쎯	-11.5651
▁cad쎯uk쎯	-11.5651
tp쎯gj쎯nnk쎯	-11.5652
쎁쎅쎀	-11.5652
▁qyvl0쎯ip쎯tg쎯	-11.5654
▁saj0쎯src쎯	-11.5655
▁afwu0쎯apw쎯	-11.5657
▁w쎯qk쎯	-11.5658
▁qqqq1쎯dgtg0쎯	-11.5658
▁bg쎯tg쎯nnk쎯	-11.5659
qk쎯tq쎯	-11.5661
▁edy1쎯	-11.5661
▁rmc쎯tmd쎯	-11.5663
▁nnk쎯fakg0쎯mqq쎯	-11.5663
▁ga쎯ny쎯	-11.5664
▁ujj쎯ab쎯	-11.5672
og쎯e쎯bv쎯wc쎯ngk쎯	-11.5672
▁qtj쎯hw쎯	-11.5672
▁mta쎯	-11.5673
▁fg쎯hka쎯	-11.5673
▁c쎯mw쎯	-11.5674
▁btg쎯tgj쎯	-11.5675
▁nge쎯w쎯	-11.5675
wdu쎯	-11.5677
▁k쎯qj쎯	-11.568
▁un쎯pfjm1쎯	-11.5684
yygt쎯ai쎯	-11.5684
▁쎂쎃쎂	-11.5686
ndn쎯	-11.5686
▁l쎯apk쎯	-11.5687
rrp쎯	-11.5689
▁n쎯tey0쎯	-11.569
▁jjjj0쎯dl쎯	-11.5691
▁ynty0쎯ii쎯	-11.5692
▁rkm쎯fgi쎯	-11.5694
▁fhb쎯kfi쎯	-11.5696
wwwk0쎯jqr쎯nat0쎯	-11.5697
▁qve쎯isk쎯	-11.5697
쎂쎀쎁쎁	-11.57
▁ab쎯hko쎯	-11.57
gmu1쎯wtf쎯	-11.57
afqb1쎯	-11.5702
▁xfn쎯ndj쎯	-11.5705
vh쎯	-11.5706
▁gw쎯kkk쎯	-11.5708
mgt쎯	-11.571
▁dyt쎯dgtg0쎯	-11.5711
▁dny쎯	-11.5711
▁dnnl쎯tf쎯	-11.5714
▁sov쎯nfc쎯	-11.5714
▁adwe1쎯yneg0쎯	-11.5715
fgh쎯dg쎯	-11.5717
▁tx쎯fgh쎯g쎯	-11.5718
▁nd쎯fghg쎯	-11.5719
▁jb쎯nnw쎯	-11.572
▁v쎯ujf0쎯	-11.5721
▁쎄쎅쎀쎀	-11.5721
▁ykk쎯bj쎯	-11.5722
▁itk쎯bj쎯ymhj0쎯	-11.5725
gds쎯	-11.5726
▁qh쎯um쎯	-11.5727
wgk쎯ec쎯	-11.5727
▁qmw쎯	-11.5729
▁rkk쎯xww쎯	-11.573
▁riq쎯tfqp쎯	-11.5732
▁gyc쎯gyb쎯	-11.5733
jg쎯fqb0쎯gxi쎯	-11.5733
▁rryf쎯	-11.5733
fyv쎯qfhw1쎯	-11.5736
al쎯ce쎯	-11.5737
▁cv쎯adf쎯	-11.5738
▁fkuk2쎯uqd2쎯	-11.574
▁vyi1쎯	-11.5742
▁efw쎯	-11.5744
▁te	-11.5745
▁aitl쎯	-11.5746
txgi5쎯	-11.5748
▁tx쎯fg쎯uqw쎯	-11.5749
▁xln0쎯rh쎯	-11.5749
▁zzzy20쎯	-11.575
▁ivl쎯fge쎯	-11.5753
▁toc쎯yq쎯	-11.5754
▁ny쎯em쎯	-11.5756
▁yny0쎯gajf0쎯	-11.5757
ktn쎯	-11.5757
ipgh0쎯	-11.5758
▁sfg쎯geh0쎯	-11.5758
▁xp쎯wgk쎯ick쎯gj쎯	-11.5759
▁tqd쎯e쎯	-11.5762
▁tuj0쎯jqr쎯	-11.5764
▁ugvv쎯	-11.5764
▁yn쎯syp쎯	-11.5764
▁w쎯w쎯	-11.5765
yvw쎯	-11.5767
▁kmd쎯	-11.5767
gef쎯rh쎯	-11.5768
▁yoj쎯	-11.5772
▁uj쎯ruv쎯	-11.5777
oyw쎯	-11.5779
sgo쎯	-11.578
▁vo쎯dgkn0쎯	-11.5782
▁uji2쎯fm쎯	-11.5784
▁wv쎯je쎯	-11.5785
ayw쎯	-11.5788
▁an쎯wa쎯	-11.5788
▁bl쎯f쎯	-11.579
▁rnwy1쎯	-11.579
▁nft쎯	-11.5791
▁yi쎯j쎯yu쎯	-11.5797
▁iwe쎯syg쎯	-11.5799
▁gklp쎯fhw쎯	-11.5799
▁tdp쎯yid쎯ntg쎯	-11.58
▁sghg1쎯mdfj쎯	-11.5801
▁wwg쎯tg쎯	-11.5801
▁lk쎯a쎯dgt1쎯	-11.5803
▁qsu쎯gxgu쎯	-11.5803
▁tp쎯gj쎯ftj쎯	-11.5804
▁nny1쎯tfn쎯gfi쎯	-11.5804
▁th쎯d쎯	-11.5805
▁rxj쎯rpl쎯uk쎯	-11.5805
▁bfh1쎯	-11.5805
ice쎯	-11.581
▁usr쎯sf쎯	-11.581
▁m쎯iyj쎯	-11.5811
▁st쎯ufk0쎯	-11.5813
▁qg쎯tmh0쎯	-11.5813
▁fhv쎯ym쎯	-11.5815
vfh쎯	-11.5816
▁fje쎯bj쎯aq쎯	-11.5821
▁bm쎯gf쎯	-11.5822
▁ait쎯rg쎯	-11.5822
▁pb쎯gae쎯	-11.5823
▁thd쎯e쎯	-11.5824
▁fh쎯rtol0쎯	-11.5826
▁pb쎯ab쎯	-11.5827
▁fy쎯	-11.5828
▁xtu쎯hko쎯	-11.5828
▁쎁쎅dnv0쎯	-11.583
▁fo쎯bg쎯bw쎯	-11.5832
ko쎯	-11.5833
▁db쎯qk쎯ln쎯yq쎯	-11.5834
▁ii쎯txi쎯	-11.5835
fct쎯qiu0쎯	-11.5839
▁kgk쎯kwy1쎯	-11.5839
▁upy쎯lp쎯	-11.584
▁rb쎯ge쎯	-11.584
▁svc쎯ywx쎯	-11.5842
▁adnt1쎯kkk쎯	-11.5845
▁qq쎯yy쎯	-11.5846
▁gef쎯shi쎯	-11.585
▁tgh쎯eb쎯	-11.5852
▁ymf쎯et쎯	-11.5853
▁spn쎯	-11.5855
▁ylk0쎯dhb쎯	-11.5856
▁ywt쎯uj쎯	-11.5856
▁aqg쎯aqr쎯oyvk1쎯	-11.5857
▁sghg1쎯iu쎯	-11.5857
▁ihc쎯ta쎯	-11.5859
▁qejy쎯qe쎯	-11.586
▁rbi쎯fiyt쎯	-11.586
▁qnp쎯km쎯	-11.5861
▁fc쎯bm쎯	-11.5861
bqn쎯	-11.5862
▁dr쎯tdij0쎯	-11.5864
▁bq쎯nd쎯	-11.5865
▁tg쎯ue쎯	-11.5867
▁fhw쎯w쎯	-11.5869
▁sw쎯umc쎯	-11.587
uft쎯	-11.5873
▁riu0쎯ii쎯	-11.5874
▁n쎯nd쎯	-11.5874
▁gmy0쎯ii쎯	-11.5874
ibi쎯	-11.5875
rrr쎯ae쎯	-11.5876
uqg1쎯	-11.5876
▁sfiu1쎯tl쎯	-11.5876
▁ux쎯gu쎯	-11.5877
▁쎁쎃쎀dnv0쎯	-11.5877
▁uq쎯dc쎯	-11.5879
▁wg쎯nnk쎯	-11.5879
▁ygh쎯pu쎯	-11.5879
▁ifj쎯ijo쎯	-11.5882
▁sgye0쎯isgg2쎯	-11.5882
8쎯	-11.5884
▁rh쎯u쎯wfhg0쎯	-11.5885
▁pei쎯a쎯	-11.5886
▁dhv쎯	-11.5886
▁tffh1쎯udi0쎯	-11.5887
▁ymf쎯sj쎯dga쎯pwv쎯	-11.5887
nb쎯	-11.5889
▁ij쎯	-11.589
▁wqj쎯j쎯	-11.5891
▁ipg쎯kjj쎯wf쎯	-11.5892
▁rtol0쎯yt쎯kkd쎯	-11.5895
▁dgtg0쎯ypk쎯	-11.5895
▁vk쎯ujn쎯	-11.5895
y쎯wtf쎯atd쎯jgm쎯	-11.5896
▁쎁쎄쎅	-11.5896
▁dn쎯jhny쎯	-11.5899
▁rw쎯hna쎯	-11.5901
nnu쎯	-11.5901
▁u쎯rg쎯	-11.5902
▁pyj쎯wm쎯	-11.5902
bm쎯tg쎯	-11.5902
▁iyc쎯ii쎯xg쎯	-11.5903
▁kkkk1쎯kgn쎯	-11.5903
▁ii쎯lfof3쎯	-11.5903
▁id쎯umd1쎯	-11.5905
▁f쎯k쎯itx쎯	-11.5905
hich0쎯	-11.5907
▁duo쎯	-11.5908
▁mhkg2쎯ny쎯	-11.5909
▁qyt쎯vjs쎯	-11.5914
▁iw쎯dlf0쎯	-11.5914
xfm쎯tavn쎯	-11.5914
▁wyv쎯wwkw0쎯	-11.5916
▁zzzy7쎯	-11.5916
▁gd쎯rgf쎯	-11.5917
▁ivl쎯fge쎯ymhj0쎯	-11.5917
▁쎃쎃쎀	-11.5918
▁tfqp쎯bc쎯	-11.5919
▁tjgh3쎯tfqp쎯	-11.5919
▁wc쎯tfkf0쎯	-11.592
▁qr쎯dyt쎯	-11.5922
▁isk쎯wwk쎯	-11.5922
▁mwyc0쎯fm쎯	-11.5925
▁ajdf쎯agq쎯	-11.5927
▁wk쎯wht쎯hhu0쎯	-11.5927
qqc쎯	-11.5932
▁tlf0쎯epc쎯	-11.5932
▁hhu0쎯qiu0쎯	-11.5934
xf쎯sq쎯	-11.5934
▁xk쎯lt쎯	-11.5934
▁qk쎯etg쎯aq쎯	-11.5937
gah쎯up쎯	-11.5938
▁avi쎯mmm쎯	-11.594
▁xeg0쎯ufy쎯	-11.5941
▁tfp쎯tqq쎯	-11.5943
▁ia쎯be쎯	-11.5943
▁sm쎯sa쎯wx쎯	-11.5944
▁pg쎯qk쎯	-11.5944
▁synw쎯uwy0쎯	-11.5944
▁a쎯wt쎯uh쎯	-11.5945
gcft2쎯	-11.5947
▁mhhm0쎯	-11.5947
ddm쎯	-11.5947
▁wfl쎯	-11.5948
▁ukk쎯ugh쎯	-11.5948
gqtg1쎯	-11.595
▁fc쎯rnb쎯tp쎯	-11.5952
▁ynk쎯v쎯	-11.5953
dj쎯dnv0쎯	-11.5954
▁wt쎯fl쎯	-11.5955
▁qi쎯ffc쎯	-11.5956
▁pt쎯um쎯	-11.5958
▁yiu0쎯ftjb쎯	-11.596
▁pey쎯	-11.5962
▁fcu1쎯rh쎯	-11.5963
▁fg쎯dj쎯	-11.5964
▁fg쎯xe쎯	-11.5964
jfi쎯	-11.5965
▁fkuk2쎯pg쎯	-11.5969
▁qie쎯wyk쎯ptkm1쎯	-11.597
▁ww쎯fii쎯	-11.597
▁epc쎯wsg0쎯	-11.5972
▁tuu0쎯rcy1쎯	-11.5973
kw쎯	-11.5974
▁di쎯mdf0쎯	-11.5976
y쎯s쎯	-11.5978
▁ea쎯	-11.5978
xww쎯	-11.5981
▁fhu쎯fp쎯	-11.5983
tgjn2쎯	-11.5983
▁gh쎯gq쎯	-11.5984
▁yceh1쎯	-11.599
▁쎂쎁쎀쎀	-11.5992
▁scf쎯tkh쎯	-11.5995
▁rnt쎯ffi쎯	-11.5998
▁a쎯wrh1쎯	-11.6
▁mw쎯eyf쎯	-11.6002
▁rvl쎯iq쎯	-11.6002
▁fny0쎯km쎯	-11.6002
▁nge쎯fhb쎯	-11.6004
▁oaw쎯fggh쎯	-11.6006
▁sqk쎯snn1쎯	-11.6007
▁be쎯yaf쎯	-11.6007
▁gjh2쎯ytyh쎯	-11.6008
▁ga쎯fqb0쎯	-11.6012
wycm1쎯nf쎯gyt쎯bb쎯	-11.6012
xx	-11.6015
▁fp쎯iha쎯kkd쎯	-11.6016
▁xad쎯	-11.6017
▁tg쎯dyn쎯ip쎯	-11.6025
▁sgfb쎯xgu쎯	-11.6027
▁쎉dnv0쎯	-11.6029
▁die쎯	-11.6031
▁yuvo1쎯ght쎯	-11.6032
▁tel쎯k쎯	-11.6033
▁pynn0쎯yn쎯	-11.6034
▁ukj쎯	-11.6035
▁fq쎯xx쎯	-11.6037
▁ryn1쎯fghg쎯	-11.6037
▁iwyf1쎯	-11.6038
▁rx쎯jg쎯	-11.6039
▁ksk쎯	-11.604
▁lwx쎯yyb쎯	-11.604
swyo0쎯	-11.6043
▁gmf쎯ya쎯	-11.6045
▁rdj쎯tf쎯sup쎯	-11.6045
▁qm쎯rjg1쎯	-11.6046
▁ybo쎯	-11.6046
▁dx쎯mdf0쎯ymhj0쎯	-11.6046
▁h쎯dj쎯	-11.605
▁xyna1쎯ycf쎯	-11.605
▁tmd쎯ny쎯	-11.6052
▁qnm쎯	-11.6054
▁yiu0쎯fd쎯	-11.6055
▁ylk0쎯pww쎯	-11.6055
▁bo쎯	-11.6055
▁qh쎯f쎯	-11.6056
▁dn쎯uqt쎯	-11.6058
rpd1쎯	-11.6058
▁ire쎯bm쎯	-11.606
▁ap쎯	-11.6061
▁qq쎯yy쎯dm쎯	-11.6061
▁tkh쎯ytt쎯	-11.6062
▁ymf쎯qev쎯	-11.6062
afi쎯	-11.6064
▁egl쎯rt쎯	-11.6064
rkm쎯	-11.6064
oc쎯	-11.6064
▁os쎯hw쎯	-11.6067
▁ire쎯bm쎯rn쎯	-11.6071
▁nkuv0쎯	-11.6072
▁ym쎯qiu0쎯fw쎯	-11.6076
▁cd쎯nae0쎯	-11.6077
▁vt쎯ia쎯	-11.6079
▁fh쎯tak쎯sm쎯	-11.608
▁trf0쎯aq쎯	-11.608
▁amw쎯awx쎯	-11.6081
▁wv쎯pdhj0쎯	-11.6082
▁ugdu쎯sy쎯jgm쎯	-11.6082
▁bm쎯teg1쎯lg쎯	-11.6082
▁mpf쎯pyhm0쎯	-11.6083
▁uxt쎯xf쎯	-11.6085
▁zzxe11쎯	-11.6085
▁yni1쎯pg쎯	-11.6088
▁쎁wn쎯	-11.6088
▁rm쎯qje쎯	-11.6088
▁pg쎯tvfh0쎯	-11.609
▁tf쎯ckq쎯	-11.6091
▁ufy쎯iam쎯	-11.6093
▁ngc쎯sdm쎯	-11.6095
▁dy쎯se쎯	-11.6095
ftxj0쎯	-11.6101
▁uqwv쎯	-11.6102
fi	-11.6104
qcf쎯	-11.6105
zy4쎯	-11.6107
▁ixj쎯hko쎯	-11.6112
▁ih쎯wgj쎯	-11.6115
yod쎯	-11.6118
wwv쎯	-11.6118
▁dgk쎯bj쎯	-11.6121
▁쎃쎁쎆	-11.6121
▁ifw쎯d쎯	-11.6122
▁if쎯pn쎯	-11.6123
▁fc쎯sgn쎯	-11.6123
▁svc쎯	-11.6124
▁rdj쎯gfi쎯	-11.6128
trf0쎯ru쎯	-11.6128
wyl쎯	-11.613
▁fiy쎯ip쎯	-11.6132
▁yqa쎯nfc쎯	-11.6132
qtbh0쎯	-11.6132
▁jcf쎯xk쎯	-11.6132
▁mw쎯ye쎯	-11.6134
▁tjt쎯nu쎯	-11.6134
khtg0쎯	-11.6136
doq쎯	-11.6141
▁yo쎯qc쎯	-11.6142
▁pw	-11.6143
▁do쎯rrr쎯qc쎯	-11.6144
▁gk쎯og쎯uk쎯	-11.6146
▁rr쎯tmdf1쎯	-11.6147
wat쎯	-11.6148
kdh쎯	-11.6149
▁yud1쎯nyu0쎯	-11.6149
▁rry쎯tfp쎯	-11.615
▁xyna1쎯nf쎯	-11.6151
kgk쎯	-11.6151
▁yo쎯naj0쎯	-11.6152
▁at쎯fmk쎯lt쎯	-11.6152
▁c쎯gcf쎯	-11.6153
▁x쎯iyj쎯wt쎯tr쎯	-11.6155
▁쎁쎃쎂	-11.6156
ddnl쎯	-11.6156
ubte쎯	-11.6163
▁rfm쎯wk쎯	-11.6164
▁si쎯uqw쎯	-11.6164
rtfj0쎯	-11.6165
▁dj쎯awx쎯	-11.6165
▁rjfg0쎯	-11.6169
▁wfny0쎯rep쎯	-11.6169
▁mqi0쎯	-11.6171
gwg쎯	-11.6173
▁xk쎯cal쎯	-11.6173
▁kgn쎯vkf0쎯	-11.6173
w쎯km쎯	-11.6176
▁alkf0쎯bb쎯	-11.6177
▁tjt쎯jgf쎯dd쎯ip쎯	-11.6179
▁qqy1쎯	-11.618
▁fgh쎯fg쎯eee0쎯	-11.618
▁wv쎯wx쎯	-11.6181
▁qqb쎯ah쎯tjh쎯	-11.6182
wys쎯lft쎯wc쎯ngk쎯	-11.6182
alw쎯ytyh쎯	-11.6184
▁k쎯atd쎯bpf쎯	-11.6184
a쎯og쎯dd쎯ip쎯	-11.619
▁vck쎯pye쎯	-11.6192
▁dmu1쎯dm쎯	-11.6193
▁tg쎯u쎯lt쎯	-11.6195
▁yyv쎯	-11.6195
▁ftx쎯dj쎯vtg쎯	-11.6196
▁xp쎯wgk쎯gajf0쎯	-11.6196
▁zzbd10쎯..	-11.6197
dlf0쎯	-11.62
▁yygy쎯ftbt쎯	-11.62
cad쎯	-11.6201
▁x쎯um쎯	-11.6201
▁lkd쎯wgk쎯	-11.6201
▁saq쎯	-11.6201
pdhj0쎯	-11.6203
▁ia쎯ux쎯	-11.6204
▁yynw1쎯ndj쎯	-11.6205
gd쎯ivfh1쎯	-11.6205
▁yygt쎯o쎯	-11.6206
pfjs쎯sf쎯	-11.6206
▁ec쎯ou쎯	-11.6207
▁ooo쎯oan쎯	-11.6209
▁tmd쎯o쎯	-11.621
▁qh쎯yygy쎯	-11.621
▁wf쎯m쎯	-11.6211
▁yygy쎯jj쎯	-11.6211
dgtg0쎯kkd쎯jf쎯wa쎯	-11.6212
qtfe0쎯	-11.6212
▁fgh쎯g쎯gg쎯	-11.6213
▁fg쎯ftj쎯	-11.6214
▁me쎯met쎯	-11.6215
▁ait쎯dn쎯	-11.6215
▁uve쎯yop쎯	-11.6218
▁wxf쎯ygk쎯	-11.6218
▁ftbt쎯rep쎯xe쎯	-11.622
▁qtoy0쎯	-11.622
▁ypm쎯hko쎯	-11.622
▁ftbt쎯bk쎯km쎯a쎯	-11.622
▁er쎯dgkn0쎯	-11.6222
▁ukj쎯sr쎯	-11.6223
yxl쎯	-11.6227
▁fkuk2쎯pr쎯	-11.6228
diu1쎯	-11.6229
▁es쎯dyt쎯	-11.6229
▁ltd쎯lg쎯	-11.6229
[...]
