[UNK]	0
[PAD]	0
[CLS]	0
[SEP]	0
[MASK]	0
▁	-2.79756
▁,	-3.23584
▁的	-3.69637
▁。	-3.92102
▁、	-4.11843
▁年	-4.99984
▁是	-5.21996
▁和	-5.25419
▁在	-5.29394
▁:	-5.30817
▁)	-5.44748
▁一	-5.45394
▁(	-5.4622
▁为	-5.46532
▁.	-5.63349
▁家	-5.68499
▁了	-5.68682
▁”	-5.75793
▁“	-5.76913
▁中	-5.77766
▁等	-5.78975
▁》	-5.80066
▁有	-5.8025
▁不	-5.81131
▁《	-5.88521
▁大	-5.92005
▁人	-5.95516
▁与	-5.9772
▁1	-6.00921
▁于	-6.01006
▁;	-6.04226
▁-	-6.0963
▁以	-6.11911
人	-6.17701
▁月	-6.25577
▁2	-6.26758
▁中国	-6.32513
▁上	-6.35371
▁来	-6.36785
▁之	-6.41046
市	-6.41782
▁个	-6.46352
▁3	-6.47163
▁高	-6.48906
▁后	-6.51734
▁及	-6.52141
▁多	-6.54402
▁5	-6.55561
子	-6.56864
国	-6.57674
▁工作	-6.60423
▁对	-6.63871
▁三	-6.6614
▁公司	-6.68135
▁4	-6.68671
区	-6.69025
性	-6.70171
▁新	-6.7049
▁被	-6.70934
县	-6.72025
山	-6.73011
▁而	-6.73283
▁也	-6.74196
▁并	-6.75287
▁管理	-6.75815
部	-6.76999
化	-6.78666
▁企业	-6.8057
▁可	-6.80685
学	-6.82507
▁技术	-6.83628
▁其	-6.84096
生	-6.84148
▁·	-6.84309
▁地	-6.84379
▁名	-6.84708
▁服务	-6.87245
▁小	-6.87435
▁下	-6.88222
会	-6.89118
▁产品	-6.89337
▁用	-6.9006
▁水	-6.9192
▁种	-6.92964
▁副	-6.93216
▁专业	-6.9369
▁或	-6.94916
▁发展	-6.95176
▁将	-6.9554
▁/	-6.95861
▁日	-6.96208
▁由	-6.97586
▁两	-6.98358
水	-6.99153
▁10	-7.00427
▁本	-7.00763
年	-7.0139
▁一个	-7.01579
▁6	-7.0166
▁所	-7.0298
▁他	-7.03463
▁时	-7.03588
▁长	-7.03668
业	-7.04242
▁研究	-7.04906
▁主要	-7.0555
▁全	-7.05563
力	-7.06179
▁无	-7.06252
机	-7.06637
中	-7.09678
地	-7.10035
▁出	-7.10035
▁这	-7.108
▁总	-7.11098
▁最	-7.11204
大	-7.12023
▁内	-7.12312
于	-7.12322
▁自	-7.12491
万	-7.13324
▁8	-7.13545
▁7	-7.13653
长	-7.13928
体	-7.14937
▁到	-7.15016
▁同	-7.15303
上	-7.16044
州	-7.16061
面	-7.18949
▁生产	-7.19596
▁从	-7.20587
▁至	-7.20593
▁分	-7.21021
▁南	-7.21964
▁二	-7.22715
道	-7.23996
法	-7.24269
▁9	-7.25049
▁生	-7.25307
▁四	-7.25632
▁位于	-7.26327
▁元	-7.27185
▁都	-7.27334
村	-7.2741
▁任	-7.28468
▁设计	-7.28529
器	-7.28973
名	-7.29184
尔	-7.29342
文	-7.30269
▁成	-7.30477
镇	-7.30542
▁外	-7.30858
▁前	-7.31128
00	-7.31764
▁系统	-7.33058
▁第	-7.33169
▁教育	-7.33688
▁中心	-7.33827
路	-7.34635
为	-7.34875
▁国	-7.35681
▁东	-7.36152
城	-7.36529
▁文化	-7.36788
方	-7.36937
▁清	-7.37276
物	-7.37327
▁能	-7.37882
▁19	-7.38301
▁西	-7.39135
▁"	-7.39523
▁天	-7.39543
局	-7.39697
斯	-7.39879
级	-7.40113
有	-7.40134
▁各	-7.4029
员	-7.40445
▁五	-7.40825
度	-7.41164
▁主	-7.41561
出	-7.4299
▁该	-7.43142
▁学校	-7.43769
1	-7.43843
行	-7.44315
▁连	-7.44515
▁原	-7.44658
▁国际	-7.45138
▁工程	-7.45148
科	-7.45179
书	-7.45205
产	-7.46595
▁提供	-7.4839
大学	-7.48527
▁可以	-7.48597
▁北	-7.49171
▁12	-7.49684
▁全国	-7.49736
▁精	-7.49831
▁面积	-7.49895
线	-7.49912
动	-7.50441
心	-7.50687
▁0	-7.50734
▁开	-7.50737
▁相	-7.50812
▁%	-7.51693
▁已	-7.51812
▁经济	-7.51829
品	-7.52453
▁作	-7.52778
▁米	-7.53535
▁—	-7.5378
一	-7.53862
▁更	-7.53887
▁进行	-7.5398
▁如	-7.54883
天	-7.55014
者	-7.55124
▁就	-7.55188
南	-7.55566
点	-7.55626
▁十	-7.56068
色	-7.56479
军	-7.5651
工	-7.56543
▁建设	-7.56676
日	-7.57123
海	-7.57205
3	-7.57401
▁指	-7.57452
电	-7.5761
头	-7.58015
▁教学	-7.58082
▁首	-7.58239
▁20	-7.58376
德	-7.5881
制	-7.58821
▁书	-7.58942
▁会	-7.59555
量	-7.60158
▁机	-7.60804
发	-7.60956
▁金	-7.61127
▁部	-7.61194
▁第一	-7.61389
▁曾	-7.61473
▁使	-7.61911
▁电	-7.62129
▁大学	-7.62491
▁其中	-7.62546
利	-7.62847
▁男	-7.63047
用	-7.63141
▁又	-7.632
理	-7.63836
▁花	-7.63901
▁省	-7.63935
乡	-7.6394
2	-7.63982
师	-7.6401
▁毕业	-7.64141
▁项目	-7.64255
是	-7.64339
▁具有	-7.64808
▁价	-7.6519
河	-7.65209
安	-7.65277
▁公里	-7.65571
▁参加	-7.65605
▁余	-7.65625
江	-7.65673
口	-7.6609
▁成立	-7.6614
▁获	-7.66426
▁过	-7.66514
▁设备	-7.66536
下	-7.66722
▁社会	-7.67139
门	-7.67179
入	-7.67555
▁好	-7.68318
西	-7.6849
▁通过	-7.68697
▁有限公司	-7.68699
代	-7.68705
明	-7.68799
▁法	-7.69013
场	-7.69443
▁我	-7.6964
时	-7.69984
本	-7.69989
▁美	-7.70071
到	-7.7009
▁科技	-7.70269
▁次	-7.70565
院	-7.70666
阳	-7.71329
事	-7.71357
▁加	-7.71475
▁此	-7.71699
▁白	-7.72063
▁克	-7.72199
▁着	-7.72227
语	-7.72475
克	-7.72599
▁组织	-7.7284
▁经	-7.72891
▁起	-7.73037
▁现	-7.7314
委	-7.73161
▁以及	-7.73987
▁11	-7.74013
▁质量	-7.74479
▁海	-7.74605
▁它	-7.74728
▁较	-7.74808
定	-7.74816
▁发	-7.74951
▁黄	-7.75362
▁开发	-7.75645
▁公	-7.75796
▁平	-7.76167
形	-7.76255
▁艺术	-7.76484
▁即	-7.77185
▁山	-7.77398
▁主任	-7.78032
花	-7.78213
▁通	-7.78254
光	-7.78383
▁市场	-7.78402
▁亩	-7.78649
▁王	-7.78712
▁古	-7.78821
▁性	-7.78888
▁还	-7.78907
▁使用	-7.78998
金	-7.79024
▁光	-7.79136
▁成为	-7.79445
石	-7.79548
▁单位	-7.79773
▁信息	-7.79823
▁石	-7.80021
成	-7.80129
▁则	-7.80146
▁建筑	-7.80195
▁世界	-7.80218
东	-7.80261
▁科	-7.80604
▁区	-7.8065
▁当	-7.80942
▁张	-7.80951
华	-7.81508
▁强	-7.81536
▁市	-7.81676
林	-7.81679
▁明	-7.81738
▁号	-7.82069
▁地区	-7.8228
▁类	-7.82363
▁18	-7.82516
▁北京	-7.82772
▁每	-7.82821
▁热	-7.83542
里	-7.83976
4	-7.84185
▁要	-7.84491
▁红	-7.84777
兰	-7.85135
▁之一	-7.85158
外	-7.85176
▁拥有	-7.855
建	-7.85773
▁百	-7.85775
▁先进	-7.85818
期	-7.85908
▁变	-7.86433
平	-7.86446
▁双	-7.86912
▁约	-7.87172
▁网络	-7.87397
▁从事	-7.88005
▁15	-7.88285
▁女	-7.88378
士	-7.88794
▁环境	-7.88935
气	-7.89099
▁正	-7.8994
▁但	-7.90066
▁作品	-7.9016
达	-7.90281
▁接	-7.90343
▁流	-7.90432
▁风	-7.90684
▁得	-7.90751
▁集	-7.91107
亚	-7.91125
▁因	-7.91328
▁处	-7.91413
▁文	-7.91637
数	-7.91663
▁生活	-7.91882
▁学	-7.9261
▁时间	-7.93166
▁青	-7.93265
▁科学	-7.93325
▁把	-7.93332
型	-7.93477
管	-7.93619
▁优秀	-7.93686
料	-7.93852
▁重	-7.93907
务	-7.9412
车	-7.94244
队	-7.94361
后	-7.94388
治	-7.94563
▁传	-7.94584
▁学生	-7.94649
▁美国	-7.94653
作	-7.94686
情	-7.94786
手	-7.94835
▁级	-7.95251
▁我们	-7.95317
▁向	-7.95604
特	-7.95612
▁回	-7.95796
▁体	-7.95964
▁应用	-7.96029
▁入	-7.96192
▁同时	-7.96217
▁教师	-7.9639
资	-7.96397
▁你	-7.96404
内	-7.96411
▁30	-7.96498
实	-7.96517
▁深	-7.96682
▁华	-7.96846
片	-7.96869
▁出生	-7.97139
十	-7.97284
民	-7.97311
▁协会	-7.97442
▁标准	-7.97512
▁建	-7.98104
▁条	-7.98267
▁活动	-7.98286
▁奖	-7.98498
▁县	-7.98862
▁心	-7.99125
拉	-7.9917
▁很	-7.99276
▁字	-7.99283
式	-7.99331
▁功能	-7.99365
▁学院	-7.99678
▁路	-8.00081
▁平方米	-8.00225
▁专	-8.00374
集	-8.00438
世	-8.0045
风	-8.00511
▁带	-8.00624
▁近	-8.00703
▁单	-8.00713
程	-8.00739
▁村	-8.00944
龙	-8.01537
▁老	-8.01594
▁再	-8.01632
▁行业	-8.01975
岛	-8.02025
▁型	-8.02152
▁马	-8.02718
▁特	-8.02726
▁自己	-8.02732
▁里	-8.02934
9	-8.0304
▁网	-8.03134
报	-8.03175
▁数	-8.03176
商	-8.03193
▁支持	-8.03266
▁～	-8.03378
▁教	-8.03916
▁做	-8.04099
▁客户	-8.04294
▁给	-8.04402
学院	-8.05008
▁系	-8.05144
▁包括	-8.05765
▁面	-8.05772
▁集团	-8.05841
▁共	-8.05947
▁商	-8.05976
前	-8.06026
▁调	-8.06047
▁经营	-8.06123
▁工业	-8.062
▁属	-8.06245
▁历史	-8.06326
通	-8.06449
0	-8.06511
月	-8.06887
▁车	-8.07119
馆	-8.07146
▁上海	-8.07219
美	-8.07447
▁转	-8.07582
园	-8.07641
室	-8.07682
分	-8.07858
▁病	-8.0795
界	-8.07951
▁投资	-8.08108
▁防	-8.08164
▁支	-8.08214
▁届	-8.08413
小	-8.08512
位	-8.08788
▁师	-8.08867
合	-8.0892
质	-8.08997
▁她	-8.0934
▁让	-8.09437
▁学习	-8.09513
▁罗	-8.0958
▁品牌	-8.09743
▁16	-8.09762
▁获得	-8.09846
▁...	-8.09971
处	-8.10549
▁去	-8.10751
权	-8.11008
▁各种	-8.11099
身	-8.11156
▁机构	-8.11287
▁安全	-8.11302
▁委员会	-8.11424
▁位	-8.11673
▁六	-8.11691
新	-8.11814
▁气	-8.11871
▁爱	-8.11916
▁工	-8.11919
起	-8.11945
开	-8.12009
▁合	-8.12317
材	-8.12574
▁周	-8.13063
▁油	-8.13098
▁诗	-8.13283
▁作为	-8.13703
▁今	-8.13843
儿	-8.13893
▁手	-8.13999
原	-8.14018
▁说	-8.14034
▁口	-8.14158
运	-8.14192
校	-8.14623
系	-8.14625
病	-8.14876
▁交通	-8.14938
▁初	-8.14952
▁太	-8.15085
件	-8.1523
流	-8.15317
▁常	-8.15365
▁目前	-8.15613
▁者	-8.15693
▁!	-8.15701
台	-8.15761
▁式	-8.16034
带	-8.16048
多	-8.16483
职	-8.16673
▁制	-8.16827
次	-8.16863
马	-8.16929
然	-8.17308
▁实	-8.17525
▁50	-8.17575
立	-8.17817
▁100	-8.17898
▁销售	-8.17968
▁定	-8.1818
格	-8.18764
族	-8.18818
▁八	-8.18864
源	-8.18914
▁农业	-8.18958
▁放	-8.18973
▁行	-8.19135
▁保	-8.19181
星	-8.1921
重	-8.19375
义	-8.1938
站	-8.19972
画	-8.20007
经	-8.2013
▁书记	-8.20132
▁系列	-8.20423
▁进	-8.20449
▁方法	-8.20764
▁篇	-8.20875
▁直	-8.20927
▁项	-8.21261
▁微	-8.21677
▁称	-8.21746
▁重要	-8.21888
▁比	-8.21913
▁交	-8.21957
▁国内	-8.22015
油	-8.22017
教	-8.22049
元	-8.22163
▁均	-8.22216
▁合作	-8.22278
▁间	-8.22291
▁干	-8.22431
▁数据	-8.22471
▁断	-8.22507
尼	-8.22507
所	-8.22566
▁日本	-8.22566
▁打	-8.22664
▁阿	-8.22697
政	-8.22971
节	-8.2303
▁加入	-8.23105
战	-8.23172
种	-8.23218
▁解	-8.23236
▁反	-8.23306
▁教授	-8.23393
王	-8.23463
木	-8.23472
意	-8.23941
▁少	-8.23954
▁负责	-8.23986
▁政府	-8.24063
▁线	-8.24153
▁超	-8.24305
▁中共	-8.24394
录	-8.24623
▁游戏	-8.2467
▁受	-8.24672
▁安	-8.24754
▁改	-8.24986
▁农	-8.2515
信	-8.25295
纳	-8.25335
▁龙	-8.2546
公	-8.25694
▁选	-8.25756
▁类型	-8.25781
▁排	-8.25893
▁城市	-8.2601
▁极	-8.26309
▁李	-8.2632
音	-8.26391
▁神	-8.26508
▁收	-8.26563
厂	-8.26586
厅	-8.26664
间	-8.26811
▁宽	-8.26822
自	-8.26908
▁户	-8.27087
▁应	-8.27135
▁般	-8.27166
▁结构	-8.2722
▁民	-8.27398
称	-8.27732
▁就是	-8.27773
夫	-8.27888
▁低	-8.27949
▁资源	-8.28045
▁非	-8.28338
▁形成	-8.28422
▁著名	-8.2848
▁最大	-8.28529
▁控制	-8.28558
▁会员	-8.28653
▁香	-8.28661
▁台	-8.28825
▁城	-8.28986
得	-8.29007
能	-8.29106
▁采用	-8.29173
卫	-8.29569
▁点	-8.29633
▁2000	-8.29737
▁综合	-8.30031
堂	-8.30183
▁人民	-8.30189
样	-8.30311
好	-8.30335
▁先后	-8.30428
▁论文	-8.30435
湖	-8.30481
▁第二	-8.30777
药	-8.30812
关	-8.3086
▁事	-8.30863
▁半	-8.31032
▁音乐	-8.31055
▁14	-8.3108
网	-8.31139
社	-8.31515
▁未	-8.31627
公司	-8.31722
▁开始	-8.31862
▁卷	-8.31973
▁电子	-8.32011
▁门	-8.32069
《	-8.32092
▁图	-8.32177
▁理论	-8.32284
▁只	-8.32326
北	-8.32427
▁根据	-8.32835
典	-8.32846
▁汉	-8.33333
兴	-8.33565
布	-8.33593
▁层	-8.33604
▁其他	-8.33642
▁发表	-8.33855
▁叶	-8.33928
▁培训	-8.33987
▁创新	-8.34004
▁方面	-8.34152
乐	-8.34187
▁13	-8.34246
▁编	-8.34252
▁丰富	-8.34319
▁旅游	-8.34419
▁火	-8.34422
▁代表	-8.34594
▁值	-8.34756
论	-8.34809
▁出版	-8.34856
桥	-8.35307
▁七	-8.35362
板	-8.35434
楼	-8.35504
▁软件	-8.3551
之	-8.35783
▁产业	-8.35935
▁基础	-8.35989
▁温	-8.36089
▁道	-8.36119
命	-8.36203
基	-8.36228
房	-8.36253
团	-8.36274
奖	-8.36338
▁人员	-8.36459
志	-8.36487
▁军	-8.36508
历	-8.3659
▁期	-8.36788
▁高级	-8.36815
▁材料	-8.37024
▁九	-8.37118
▁座	-8.37143
▁提高	-8.37143
▁处理	-8.37211
▁科研	-8.37225
▁业务	-8.37258
▁管	-8.3744
▁能力	-8.37588
▁那	-8.3783
味	-8.37909
▁岁	-8.37931
艺	-8.38151
白	-8.38231
▁校	-8.38418
▁?	-8.38522
纪	-8.38629
▁唐	-8.3872
▁武	-8.38801
五	-8.38968
三	-8.38992
▁规划	-8.39005
▁抗	-8.39091
▁随	-8.39159
▁细	-8.39351
宁	-8.39559
▁仅	-8.39762
20	-8.39819
▁基本	-8.39856
以	-8.39888
热	-8.39967
▁故	-8.40072
▁修	-8.40111
▁内容	-8.40167
▁问题	-8.40196
▁万	-8.40217
▁组	-8.4029
联	-8.40435
传	-8.40582
▁节	-8.40745
高	-8.40758
▁立	-8.40801
▁作用	-8.40943
备	-8.41124
▁度	-8.41168
▁建立	-8.41454
▁评	-8.41498
术	-8.41897
▁社区	-8.41921
曲	-8.42013
友	-8.42163
▁40	-8.42216
主	-8.4222
▁早	-8.42351
▁×	-8.42494
▁几	-8.43232
▁黑	-8.4327
和	-8.43359
▁画	-8.43443
任	-8.43464
▁加工	-8.43587
角	-8.43598
取	-8.44011
▁盐	-8.44055
容	-8.44095
▁兼	-8.44134
▁方式	-8.44218
▁重点	-8.44241
层	-8.44339
▁17	-8.44372
▁真	-8.44471
▁一体	-8.44532
州市	-8.44574
▁达	-8.44596
▁现代	-8.44712
在	-8.44779
血	-8.44875
▁2006	-8.4503
▁用户	-8.45138
击	-8.45181
▁临	-8.4521
▁党员	-8.45234
▁状	-8.45389
具	-8.45624
▁联	-8.45635
解	-8.45662
▁分析	-8.45693
▁短	-8.45785
女	-8.45935
剧	-8.46025
田	-8.46025
▁切	-8.46133
观	-8.46152
▁医院	-8.46733
▁机械	-8.46905
▁人才	-8.47042
压	-8.47156
号	-8.47222
▁以上	-8.47346
向	-8.47363
▁木	-8.47444
▁制造	-8.47538
▁看	-8.47623
▁距	-8.47652
▁观	-8.47746
▁陈	-8.47826
▁宋	-8.48089
▁25	-8.48243
▁卡	-8.48433
▁化	-8.48445
▁属于	-8.48458
清	-8.48507
▁治疗	-8.48525
▁2008	-8.48564
▁没有	-8.48657
边	-8.48721
▁片	-8.48761
▁领导	-8.48932
▁领域	-8.48935
▁人口	-8.48937
▁影响	-8.48949
▁指导	-8.48997
办	-8.49006
销	-8.49091
进	-8.49352
▁钢	-8.49621
火	-8.498
▁先	-8.50148
▁器	-8.50389
▁传统	-8.50503
▁硕士	-8.50598
▁他们	-8.50612
▁委员	-8.50644
▁供	-8.50646
▁制作	-8.50659
▁离	-8.50665
古	-8.50851
▁2007	-8.50866
.	-8.50914
害	-8.50971
▁部分	-8.50999
▁代	-8.51011
▁博士	-8.51068
▁酒店	-8.51095
▁实现	-8.51104
▁物	-8.51193
▁评为	-8.51203
泉	-8.51288
同	-8.51409
▁现任	-8.51517
▁经验	-8.51576
率	-8.51638
▁方	-8.51751
▁中央	-8.51855
▁理事	-8.51886
记	-8.52037
酸	-8.52316
▁学术	-8.52333
▁林	-8.52364
▁复	-8.52395
▁保护	-8.52425
释	-8.52574
▁形	-8.52584
▁厘米	-8.52671
▁血	-8.52689
目	-8.52777
▁职业	-8.52862
▁参	-8.52938
▁草	-8.52947
▁过程	-8.52959
▁乡	-8.5297
感	-8.53003
医	-8.53212
街	-8.53297
丽	-8.53448
▁占地	-8.53487
▁2010	-8.53754
▁用于	-8.53851
▁结	-8.53882
▁具	-8.5398
▁平台	-8.54178
类	-8.54273
列	-8.54412
省	-8.54437
审	-8.54543
▁体系	-8.54706
▁远	-8.54765
▁提	-8.54809
▁见	-8.54811
寺	-8.54849
交	-8.55086
▁大型	-8.55192
云	-8.55328
二	-8.5537
5	-8.55449
宝	-8.55543
说	-8.55641
▁情	-8.55759
▁2009	-8.55881
速	-8.55892
查	-8.56006
▁由于	-8.56093
草	-8.56129
▁有关	-8.56184
▁需要	-8.56205
九	-8.56265
▁信	-8.56268
▁头	-8.56539
▁取	-8.56579
叶	-8.56716
专	-8.56801
税	-8.56816
▁组成	-8.57001
宗	-8.57064
▁土	-8.5727
史	-8.57282
朝	-8.57414
▁现有	-8.57419
▁配	-8.57433
百	-8.57602
▁2005	-8.57606
▁引	-8.57636
贵	-8.57645
▁按	-8.57657
收	-8.57734
▁预	-8.57754
▁千	-8.57914
装	-8.57924
空	-8.58131
展	-8.58152
▁相关	-8.5819
庄	-8.58385
标	-8.58389
▁笔	-8.58415
▁行政	-8.58483
卡	-8.58516
选	-8.58556
▁党	-8.5856
▁要求	-8.58663
▁站	-8.58894
知	-8.5893
约	-8.58999
货	-8.59006
▁越	-8.59035
▁感	-8.5927
▁模式	-8.59273
范	-8.59292
昌	-8.59446
波	-8.59627
▁2003	-8.59811
四	-8.6003
▁部门	-8.60213
▁身	-8.60253
见	-8.60253
▁镇	-8.60393
▁苏	-8.60454
▁关	-8.60476
▁60	-8.60697
▁增	-8.61133
▁//	-8.6132
球	-8.61397
酒	-8.61439
▁汉族	-8.61585
▁结合	-8.61594
▁完成	-8.6187
▁果	-8.61872
▁精神	-8.61904
图	-8.62128
▁战	-8.62237
素	-8.62288
▁江	-8.62291
▁环	-8.62354
帝	-8.62475
声	-8.62533
祖	-8.62546
6	-8.62591
50	-8.62661
景	-8.62667
▁章	-8.62797
▁理念	-8.62813
▁政治	-8.62814
庆	-8.62821
▁亦	-8.63042
▁批	-8.63069
▁知识	-8.63083
▁考	-8.63166
库	-8.6335
春	-8.63389
▁设施	-8.6341
▁接口	-8.63606
像	-8.63652
▁场	-8.63869
▁2004	-8.63893
▁利用	-8.63949
▁乐	-8.63975
端	-8.64089
▁药	-8.64098
▁格	-8.64142
属	-8.64276
▁植物	-8.64343
▁毛	-8.64376
官	-8.64412
黄	-8.64771
▁优	-8.6482
▁游	-8.64821
▁广	-8.64834
▁自然	-8.64929
菜	-8.64939
▁除	-8.65049
▁网站	-8.65094
80	-8.65143
▁为主	-8.65166
视	-8.65249
▁80	-8.65286
▁矿	-8.65351
溪	-8.65367
望	-8.65527
密	-8.65546
▁隶属	-8.65551
保	-8.65561
话	-8.65583
▁您	-8.65588
步	-8.65612
亿	-8.65758
川	-8.65849
可	-8.65874
导	-8.65986
虫	-8.66126
红	-8.66164
▁书法	-8.66181
▁官	-8.66331
码	-8.66353
▁*	-8.6643
▁便	-8.66435
▁学历	-8.66439
兵	-8.66496
▁距离	-8.66501
▁之间	-8.66613
▁团	-8.66705
10	-8.66705
▁美术	-8.66769
▁世纪	-8.66779
▁粉	-8.66814
米	-8.66881
维	-8.66923
此	-8.66943
居	-8.66964
剂	-8.67053
▁基地	-8.67143
季	-8.67164
土	-8.67271
▁工艺	-8.67358
▁医学	-8.67398
洋	-8.67526
▁永	-8.67541
比	-8.67749
▁刘	-8.68091
店	-8.68161
▁中学	-8.68183
▁商业	-8.68187
技	-8.6819
▁成果	-8.68223
▁版	-8.68282
▁卫生	-8.68296
香	-8.68347
▁称为	-8.68404
府	-8.68495
▁分钟	-8.6852
▁茶	-8.68574
干	-8.68656
峰	-8.68676
▁注册	-8.68713
▁表	-8.68756
▁树	-8.68799
▁健康	-8.68928
▁目	-8.68929
不	-8.6894
▁学会	-8.69039
武	-8.69119
▁设	-8.69227
▁这个	-8.69291
▁么	-8.69364
▁史	-8.69397
▁平方公里	-8.69451
▁关系	-8.69465
▁医	-8.69644
▁子	-8.69646
▁活	-8.69664
▁实施	-8.69664
▁学位	-8.69701
铁	-8.69705
八	-8.69724
▁全面	-8.69769
营	-8.69796
▁汽车	-8.69917
常	-8.69949
▁写	-8.69962
▁基	-8.6997
▁液	-8.69981
▁兴	-8.70082
▁厂	-8.70091
▁产	-8.70186
▁地方	-8.70207
统	-8.70302
▁香港	-8.70324
▁+	-8.70427
协	-8.70473
珠	-8.70524
洲	-8.70529
▁消	-8.70535
计	-8.70572
班	-8.70702
爱	-8.70759
▁球	-8.70778
▁率	-8.70865
▁发生	-8.71113
控	-8.7116
皮	-8.7117
▁文学	-8.71246
▁星	-8.71313
▁河	-8.71387
▁特点	-8.71415
境	-8.71497
▁第三	-8.71714
▁电影	-8.71842
字	-8.71977
证	-8.71999
有限公司	-8.72141
30	-8.7218
▁二十	-8.72281
▁研究生	-8.72302
▁24	-8.72336
▁°C	-8.7256
籍	-8.7269
▁生物	-8.7272
▁成员	-8.72739
赛	-8.72759
序	-8.72871
正	-8.72907
▁培养	-8.72933
▁已经	-8.72989
▁我国	-8.73088
▁特色	-8.73299
▁范围	-8.7349
▁冷	-8.7352
势	-8.736
▁水平	-8.73652
▁声	-8.73671
▁研发	-8.73895
客	-8.73915
词	-8.74018
▁房	-8.74297
炎	-8.74383
▁个人	-8.74407
▁色	-8.74575
▁办公室	-8.74613
▁2002	-8.74632
▁占	-8.74784
表	-8.74803
肉	-8.74928
▁巴	-8.75042
▁书画	-8.75327
扬	-8.75331
▁交流	-8.75412
▁语	-8.75461
秀	-8.75481
沙	-8.75508
▁报	-8.75515
▁装	-8.76003
费	-8.76235
汉	-8.76364
青	-8.76652
相	-8.76835
落	-8.76851
效	-8.76934
洛	-8.77552
组	-8.77594
鱼	-8.7771
胜	-8.77717
加	-8.77778
案	-8.78104
算	-8.78167
箱	-8.78207
树	-8.78217
言	-8.78362
监	-8.78705
仁	-8.78842
额	-8.78879
英	-8.78944
域	-8.79179
雅	-8.79844
侧	-8.80277
六	-8.80292
奇	-8.80501
值	-8.81018
应	-8.81042
岸	-8.81175
别	-8.81362
先	-8.81499
如	-8.81609
益	-8.82019
远	-8.82085
瑞	-8.82417
状	-8.82531
造	-8.82567
户	-8.82825
等	-8.82952
令	-8.83629
亮	-8.83709
要	-8.83766
牌	-8.8385
菌	-8.83901
息	-8.84036
议	-8.84063
荣	-8.84437
检	-8.84515
-	-8.84656
近	-8.84729
巴	-8.84827
衣	-8.85047
存	-8.85072
放	-8.85485
宾	-8.856
除	-8.86189
结	-8.86488
去	-8.86639
习	-8.87163
革	-8.87195
服	-8.87271
蒙	-8.87644
刻	-8.877
频	-8.88157
陵	-8.88214
福	-8.88738
调	-8.88878
而	-8.8889
变	-8.88892
编	-8.88991
俗	-8.89166
限	-8.89299
广	-8.89428
神	-8.89451
修	-8.89718
游	-8.89809
泽	-8.89903
果	-8.90134
雕	-8.90196
润	-8.90277
痛	-8.90697
塔	-8.91144
晶	-8.91243
章	-8.91541
示	-8.91582
伯	-8.91695
农	-8.91699
创	-8.91898
过	-8.92044
宫	-8.93128
盘	-8.93352
少	-8.93444
歌	-8.93454
似	-8.93651
群	-8.93779
射	-8.94097
将	-8.94502
思	-8.94553
底	-8.94558
7	-8.95366
持	-8.95567
致	-8.95678
象	-8.95833
复	-8.96031
博	-8.96089
无	-8.96381
贸	-8.96757
塑	-8.97099
众	-8.97173
潮	-8.97332
8	-8.97364
植	-8.97483
七	-8.97515
今	-8.97683
认	-8.97895
诚	-8.97963
千	-8.98049
什	-8.98173
溶	-8.98198
述	-8.98262
刊	-8.98539
粉	-8.98571
全	-8.98946
塞	-8.99217
张	-8.99228
玉	-8.99521
载	-8.99678
察	-8.99698
至	-8.99796
项	-8.99814
当	-8.99986
诺	-9.00227
智	-9.00418
愿	-9.00593
助	-9.00701
戏	-9.00971
损	-9.0109
止	-9.01148
伤	-9.01167
温	-9.01199
食	-9.01716
异	-9.01918
都	-9.01947
湾	-9.02245
岩	-9.02367
老	-9.02524
丝	-9.02535
使	-9.02627
执	-9.02751
影	-9.02883
探	-9.02973
播	-9.03004
莱	-9.03109
凤	-9.03333
遇	-9.03354
照	-9.03692
练	-9.03889
池	-9.04148
太	-9.04192
派	-9.04276
激	-9.04289
邮	-9.04422
设	-9.04741
谷	-9.0486
旗	-9.05381
岭	-9.05561
研	-9.05629
毒	-9.05686
藏	-9.05822
育	-9.05888
考	-9.06079
牙	-9.0608
洁	-9.06085
恩	-9.06432
升	-9.06473
妇	-9.06499
往	-9.06613
索	-9.06626
测	-9.06639
对	-9.06834
浓	-9.06926
领	-9.07243
径	-9.07402
壮	-9.07569
迹	-9.08206
真	-9.085
灵	-9.08554
旋	-9.08634
普	-9.08758
哥	-9.08773
护	-9.08803
断	-9.09336
条	-9.0963
养	-9.10001
闻	-9.10035
织	-9.10048
健	-9.10506
伦	-9.10513
缺	-9.106
糖	-9.10641
婚	-9.10999
鲁	-9.1154
萨	-9.11618
烈	-9.11756
症	-9.11831
津	-9.11973
庙	-9.12804
介	-9.12822
构	-9.13131
康	-9.13182
隆	-9.13319
露	-9.13325
段	-9.13379
勤	-9.13648
册	-9.13657
回	-9.13702
摩	-9.13709
趣	-9.13959
劳	-9.14
态	-9.14003
桃	-9.14046
瓜	-9.14253
贯	-9.14324
接	-9.14395
划	-9.14402
豆	-9.14598
易	-9.14748
港	-9.15055
誉	-9.15074
兽	-9.15074
液	-9.15515
活	-9.15699
振	-9.15907
融	-9.16051
苗	-9.16214
根	-9.16339
珍	-9.16343
诗	-9.16473
彩	-9.16583
荷	-9.16827
沟	-9.17255
指	-9.17368
订	-9.17505
勒	-9.17509
济	-9.17592
功	-9.17724
余	-9.17741
确	-9.17866
聘	-9.17877
氏	-9.18456
辞	-9.18547
购	-9.18631
演	-9.18788
防	-9.18812
肠	-9.18896
党	-9.19017
斗	-9.19087
桂	-9.19195
置	-9.19232
寿	-9.19596
良	-9.19635
转	-9.19877
汇	-9.2002
爆	-9.20054
坡	-9.20093
求	-9.20318
律	-9.20401
盟	-9.20534
卖	-9.20537
丁	-9.20586
守	-9.20764
染	-9.20914
缩	-9.21034
着	-9.21345
配	-9.21352
松	-9.21568
锦	-9.21706
核	-9.21859
牧	-9.22221
规	-9.22221
离	-9.22379
夏	-9.22494
票	-9.22513
漫	-9.22734
肥	-9.22822
初	-9.22871
送	-9.23048
舍	-9.2307
错	-9.23079
饮	-9.2329
及	-9.23309
航	-9.23661
乙	-9.23694
塘	-9.23709
椒	-9.23744
琴	-9.23781
判	-9.23839
泰	-9.23923
架	-9.23957
念	-9.242
周	-9.24217
宿	-9.24244
谢	-9.24326
绘	-9.24341
邻	-9.24659
敏	-9.24896
待	-9.24928
矿	-9.25052
套	-9.25317
故	-9.25432
谈	-9.25522
脉	-9.26082
席	-9.26134
骨	-9.26352
快	-9.26375
虎	-9.26398
单	-9.26416
题	-9.26473
响	-9.26509
炉	-9.26636
灌	-9.26931
积	-9.27111
冠	-9.2716
强	-9.27199
细	-9.27213
吉	-9.27238
宇	-9.27249
甲	-9.27448
枪	-9.27631
谱	-9.27788
末	-9.27817
肌	-9.27847
岗	-9.27904
脂	-9.27973
浪	-9.27996
失	-9.28007
希	-9.2836
识	-9.28411
览	-9.28431
汁	-9.28639
托	-9.28996
雷	-9.29013
氧	-9.2915
富	-9.29319
企	-9.29331
毛	-9.29489
臣	-9.29512
谋	-9.29815
座	-9.29827
切	-9.29949
餐	-9.30005
储	-9.30136
例	-9.30444
档	-9.30494
滨	-9.30553
环	-9.30601
莲	-9.30608
足	-9.30722
眼	-9.30771
浦	-9.30887
完	-9.31029
支	-9.31052
丛	-9.31332
告	-9.31418
殿	-9.31476
迪	-9.3152
斑	-9.31664
宏	-9.32217
坝	-9.325
床	-9.32507
弟	-9.32553
征	-9.3266
笔	-9.32893
饰	-9.33025
卵	-9.3307
疗	-9.33239
其	-9.33311
洞	-9.33677
贫	-9.3373
母	-9.33853
恒	-9.3397
御	-9.33984
凡	-9.342
怪	-9.34249
著	-9.34269
丰	-9.34352
售	-9.34363
纸	-9.34427
郎	-9.34674
付	-9.34755
锡	-9.35006
觉	-9.35104
钢	-9.35322
散	-9.3536
雨	-9.3539
灾	-9.35801
仪	-9.36108
亭	-9.36246
授	-9.36392
秋	-9.36434
仓	-9.36641
坦	-9.36726
决	-9.36753
验	-9.37106
址	-9.37307
囊	-9.3738
腔	-9.37571
督	-9.37796
伟	-9.37912
『	-9.38265
杰	-9.38342
勇	-9.38673
堡	-9.38773
童	-9.38905
款	-9.39013
险	-9.39079
京	-9.39093
极	-9.39142
崇	-9.39211
螺	-9.39224
警	-9.39231
读	-9.39339
瓦	-9.3935
顿	-9.39382
曼	-9.39503
包	-9.39504
死	-9.396
乱	-9.3976
闭	-9.39821
姆	-9.39951
败	-9.40189
厚	-9.40241
危	-9.40296
忠	-9.40331
住	-9.40599
盛	-9.40621
蛋	-9.40748
惠	-9.40837
威	-9.40879
野	-9.40919
窗	-9.4099
始	-9.41201
碎	-9.41296
顺	-9.41346
锅	-9.41367
首	-9.41411
疑	-9.41442
梅	-9.41708
签	-9.41788
版	-9.41856
弱	-9.42068
辛	-9.42073
纹	-9.42095
署	-9.42137
难	-9.42225
轮	-9.42242
苏	-9.4238
祥	-9.4251
苦	-9.4258
固	-9.42739
龄	-9.42893
膜	-9.42961
盐	-9.43075
准	-9.43356
司	-9.43474
森	-9.4356
深	-9.43595
块	-9.43607
印	-9.43674
灭	-9.43718
赞	-9.43956
缓	-9.44086
顾	-9.44266
柱	-9.44331
写	-9.44527
谓	-9.44534
腐	-9.44756
井	-9.44839
饭	-9.44866
越	-9.44979
才	-9.45028
鉴	-9.4532
埃	-9.45419
现	-9.45482
炮	-9.45576
杆	-9.45605
呼	-9.4579
貌	-9.45973
赏	-9.45989
际	-9.46337
佳	-9.46466
贝	-9.46572
敬	-9.46786
衡	-9.47061
善	-9.47081
礼	-9.47352
淮	-9.47416
想	-9.47724
献	-9.47941
炼	-9.47953
笑	-9.47958
筹	-9.48197
弹	-9.48444
铺	-9.4846
丘	-9.48576
临	-9.4879
纲	-9.48866
圆	-9.48904
邦	-9.49339
租	-9.4944
刑	-9.49442
伏	-9.49474
震	-9.49594
坊	-9.49697
召	-9.49827
汽	-9.49955
滑	-9.50351
佛	-9.50375
举	-9.50411
顶	-9.50553
休	-9.50744
留	-9.509
总	-9.50992
凝	-9.50998
拍	-9.51005
换	-9.51083
争	-9.51087
牛	-9.51253
朗	-9.51344
皇	-9.51517
寨	-9.51623
役	-9.51704
畅	-9.51768
庭	-9.51872
赋	-9.51944
罗	-9.52076
桑	-9.52331
缘	-9.52391
湘	-9.52405
麦	-9.52442
昆	-9.52633
份	-9.52712
燃	-9.5288
胆	-9.52957
幽	-9.53268
拜	-9.53375
男	-9.53541
镜	-9.5356
铸	-9.53562
奶	-9.53575
第	-9.53764
李	-9.53923
齐	-9.53957
耗	-9.53998
误	-9.54038
试	-9.54147
幻	-9.54161
伸	-9.54463
戴	-9.54657
屋	-9.54773
扎	-9.54935
训	-9.5519
暴	-9.55245
抓	-9.55311
概	-9.55427
批	-9.55449
犹	-9.55588
享	-9.55703
久	-9.55758
侯	-9.55892
续	-9.55975
幕	-9.56161
炸	-9.56179
阔	-9.56245
略	-9.56289
注	-9.56501
筑	-9.56531
访	-9.56829
黎	-9.56835
阶	-9.56875
棉	-9.56933
裁	-9.57189
非	-9.57448
腺	-9.57557
个	-9.57627
贤	-9.5782
静	-9.57961
唐	-9.58176
玛	-9.58634
郡	-9.58907
澳	-9.5891
廷	-9.58915
篇	-9.58941
胎	-9.58952
柏	-9.58994
锋	-9.59213
永	-9.59373
渡	-9.59483
钻	-9.59523
脏	-9.596
郭	-9.59643
慢	-9.597
雪	-9.59742
些	-9.60085
家	-9.60187
答	-9.60212
茶	-9.60223
癌	-9.60228
禁	-9.60266
翅	-9.60471
舰	-9.60611
雄	-9.6088
满	-9.61013
鼎	-9.61086
燕	-9.61159
暖	-9.61283
奥	-9.61326
候	-9.6143
络	-9.61467
担	-9.6162
飞	-9.6162
仙	-9.6171
阵	-9.61802
匙	-9.6184
巧	-9.61989
遍	-9.6201
途	-9.62076
据	-9.62107
诉	-9.62188
币	-9.62203
操	-9.62216
免	-9.6223
浆	-9.62338
灯	-9.62392
改	-9.62773
峡	-9.6286
便	-9.62884
寻	-9.6292
鼠	-9.62964
赖	-9.63003
捕	-9.63093
搜	-9.63168
徒	-9.63617
掌	-9.63619
仿	-9.63653
银	-9.63826
妙	-9.63843
引	-9.63914
寄	-9.64054
奏	-9.64128
袋	-9.64284
诊	-9.64301
坛	-9.64673
耳	-9.64679
绿	-9.64825
丹	-9.64896
枝	-9.64935
侵	-9.65158
微	-9.65193
替	-9.65546
凯	-9.65823
腾	-9.66043
尺	-9.66097
救	-9.66111
董	-9.66224
倾	-9.6625
渐	-9.66262
半	-9.66385
偶	-9.664
拿	-9.66465
岳	-9.66477
豪	-9.6666
从	-9.66775
殖	-9.66847
怀	-9.66993
芳	-9.67262
驱	-9.67319
尚	-9.67373
精	-9.67455
君	-9.67526
坪	-9.67666
浴	-9.67729
的	-9.67766
净	-9.67841
廉	-9.68021
拔	-9.68163
截	-9.68283
阁	-9.68405
唱	-9.68444
申	-9.68445
毫	-9.68564
畜	-9.68777
尘	-9.68788
郁	-9.69147
尿	-9.69319
船	-9.69361
韵	-9.69389
孝	-9.69735
醇	-9.69735
麻	-9.69746
舞	-9.69833
伴	-9.69864
稳	-9.69885
直	-9.70037
辅	-9.70051
杯	-9.70323
默	-9.70433
墨	-9.70497
肿	-9.70854
茂	-9.70919
困	-9.71118
鬼	-9.71503
酷	-9.71509
询	-9.71545
污	-9.71613
厦	-9.71722
与	-9.71773
鸡	-9.71805
竹	-9.71855
粮	-9.71865
聚	-9.72042
姓	-9.72066
扩	-9.72224
′	-9.72253
符	-9.72324
搭	-9.72521
烤	-9.72555
亡	-9.72664
提	-9.72705
仲	-9.72736
壳	-9.73017
策	-9.73413
陷	-9.73444
尾	-9.73491
映	-9.73731
累	-9.73898
遭	-9.73993
嘉	-9.74043
须	-9.74128
淋	-9.74257
熟	-9.74295
夜	-9.74385
宜	-9.74513
宋	-9.74639
援	-9.74809
泵	-9.74846
乔	-9.75019
承	-9.7505
辉	-9.75093
课	-9.7516
携	-9.75372
胶	-9.75422
拳	-9.75431
鸟	-9.75466
恋	-9.75574
颜	-9.75593
匀	-9.75616
补	-9.75657
碑	-9.75677
瓶	-9.7574
芝	-9.75774
归	-9.75798
鲜	-9.76058
柄	-9.7608
幼	-9.76176
栋	-9.76211
梯	-9.76227
旦	-9.76265
滩	-9.76371
盆	-9.76406
屏	-9.76406
妻	-9.76519
姐	-9.76676
评	-9.76709
孩	-9.76716
渔	-9.76812
颈	-9.76821
填	-9.77048
障	-9.77386
汤	-9.77397
共	-9.774
妹	-9.78026
奋	-9.78038
朴	-9.78205
卒	-9.78214
砖	-9.78326
由	-9.78589
晓	-9.78602
烟	-9.7864
腿	-9.78791
摄	-9.78925
洪	-9.78975
菇	-9.79003
蒜	-9.79013
瓷	-9.79049
赫	-9.79097
参	-9.79144
扶	-9.7922
丸	-9.79239
孟	-9.79307
沈	-9.79597
登	-9.79611
绍	-9.79695
鸣	-9.80017
纤	-9.80215
遥	-9.80336
降	-9.80447
弗	-9.80594
返	-9.80614
嫩	-9.81096
骑	-9.81208
棋	-9.81264
洗	-9.81272
湿	-9.81484
陆	-9.81525
翼	-9.81528
纷	-9.81574
陈	-9.81759
杀	-9.81759
夺	-9.81789
弯	-9.81799
蒂	-9.81829
梦	-9.81839
\	-9.81846
浸	-9.81882
析	-9.81892
虾	-9.81912
沃	-9.82121
卢	-9.82324
辖	-9.82326
罪	-9.82404
瓣	-9.82444
缝	-9.82461
衰	-9.82571
潭	-9.82728
裂	-9.82788
靠	-9.83119
漆	-9.83237
充	-9.83248
跃	-9.83318
讨	-9.83333
迎	-9.83341
打	-9.8341
绕	-9.83423
钟	-9.83602
受	-9.83615
尽	-9.83823
墙	-9.84109
脊	-9.84125
弃	-9.84414
杂	-9.84514
稿	-9.84635
辽	-9.84668
优	-9.84873
贴	-9.84988
软	-9.85367
孔	-9.85393
低	-9.85528
鞋	-9.85718
拼	-9.85959
番	-9.86021
圣	-9.86103
秘	-9.86125
酱	-9.86623
肯	-9.86753
梁	-9.86863
I	-9.87462
圈	-9.8747
郊	-9.87571
慈	-9.87595
涉	-9.88345
启	-9.88399
午	-9.88523
绵	-9.8853
胞	-9.88545
叉	-9.88551
侨	-9.88572
稻	-9.88763
绝	-9.89071
摇	-9.8918
跑	-9.89291
避	-9.89305
壁	-9.89351
差	-9.89586
魂	-9.89588
锐	-9.89749
们	-9.89808
翠	-9.90015
腊	-9.9013
掉	-9.90159
碱	-9.90191
弦	-9.90195
奔	-9.9031
盗	-9.9031
苑	-9.9044
硫	-9.90444
乎	-9.90465
靖	-9.90512
鸭	-9.90831
孙	-9.90835
赠	-9.90849
鹿	-9.91496
筋	-9.91511
患	-9.91581
蜜	-9.91873
硅	-9.92192
肤	-9.92246
封	-9.92262
旺	-9.92277
攻	-9.92376
俱	-9.92431
颖	-9.92461
愈	-9.92472
枣	-9.92527
蚀	-9.92546
僧	-9.92608
菲	-9.92634
吕	-9.92708
窑	-9.93015
己	-9.93162
娘	-9.93249
鸿	-9.93398
斋	-9.93453
割	-9.93532
幸	-9.93669
伊	-9.93671
采	-9.93838
抵	-9.93968
祭	-9.9398
破	-9.94022
邓	-9.94032
漏	-9.94103
蔡	-9.94171
嘴	-9.94197
(	-9.94202
勘	-9.94535
递	-9.94542
揭	-9.94557
做	-9.9459
苍	-9.94599
剪	-9.94644
昭	-9.94731
何	-9.9482
刚	-9.94834
禅	-9.9484
弘	-9.94889
励	-9.94951
脑	-9.95088
碗	-9.95176
抚	-9.95267
筒	-9.95313
碧	-9.9532
孤	-9.95468
钱	-9.95547
寒	-9.95569
逃	-9.95636
反	-9.95669
抗	-9.9574
模	-9.95839
透	-9.95948
莞	-9.962
霞	-9.96235
因	-9.96397
鹤	-9.96438
荒	-9.96618
阴	-9.96667
吾	-9.96776
翰	-9.96795
械	-9.96973
叠	-9.97069
柜	-9.97397
毁	-9.97413
纽	-9.97656
急	-9.9768
{	-9.97808
找	-9.97918
走	-9.98074
旨	-9.98076
蛇	-9.98128
束	-9.98173
尝	-9.98268
即	-9.98606
怎	-9.98652
袁	-9.98785
妆	-9.98793
敢	-9.98977
盒	-9.98977
栏	-9.99035
扁	-9.9908
羊	-9.9914
掘	-9.99253
肩	-9.99336
帮	-9.99347
帕	-9.99391
盖	-9.9943
酶	-9.99459
促	-9.99604
浩	-9.99672
鳞	-9.99743
看	-9.99816
债	-9.99851
欢	-9.99885
霍	-9.9993
父	-10.0002
悉	-10.0005
穴	-10.0007
芦	-10.0014
栖	-10.0019
谁	-10.0029
“	-10.0029
滋	-10.0031
孕	-10.0041
垂	-10.0042
葬	-10.0054
泌	-10.0057
忘	-10.0058
拌	-10.0062
铭	-10.0072
财	-10.0082
汗	-10.0107
扇	-10.0121
泊	-10.0128
磷	-10.0129
继	-10.0129
浙	-10.0135
迁	-10.0136
廊	-10.0154
针	-10.0158
捷	-10.0163
附	-10.0165
随	-10.017
狂	-10.0184
沸	-10.0191
醒	-10.0191
舒	-10.0196
刀	-10.0205
氨	-10.021
黑	-10.0228
冷	-10.0232
磨	-10.0233
佩	-10.0253
丙	-10.0261
迈	-10.0265
迫	-10.0296
荆	-10.0299
卷	-10.0318
输	-10.0329
折	-10.0333
颗	-10.036
辑	-10.0365
狱	-10.0386
伍	-10.0389
袭	-10.0399
藤	-10.0411
屯	-10.0415
冲	-10.0419
吐	-10.0421
抱	-10.0436
硬	-10.0457
舟	-10.0457
悲	-10.0474
冒	-10.0475
未	-10.0484
许	-10.0493
芽	-10.0501
冻	-10.0503
徽	-10.0511
违	-10.0514
儒	-10.0518
堆	-10.0539
柴	-10.0542
拨	-10.0544
脾	-10.0559
脚	-10.0562
贡	-10.0572
猎	-10.0573
披	-10.0577
围	-10.0579
穆	-10.059
姜	-10.0599
逆	-10.0601
喜	-10.0601
疾	-10.0609
获	-10.0612
犯	-10.0612
凭	-10.0627
饼	-10.0632
杭	-10.0637
侍	-10.0638
坏	-10.066
负	-10.0663
虑	-10.0667
猫	-10.0683
摆	-10.069
央	-10.0725
褐	-10.0745
问	-10.075
粤	-10.0763
讲	-10.0763
晋	-10.0764
讯	-10.0764
ˋ	-10.0765
彼	-10.0766
蜂	-10.0799
遵	-10.0801
萧	-10.0826
虹	-10.086
泳	-10.0886
轨	-10.0891
哲	-10.0896
艳	-10.0907
烯	-10.0913
耶	-10.0918
朵	-10.0949
滴	-10.0959
伐	-10.0973
佐	-10.0988
俊	-10.0992
卿	-10.0998
冯	-10.1007
挖	-10.1012
劲	-10.103
串	-10.1037
踪	-10.1037
齿	-10.1048
翔	-10.105
彰	-10.1076
贾	-10.1083
来	-10.1089
邪	-10.1095
需	-10.1109
耕	-10.1116
疫	-10.1118
桐	-10.112
坑	-10.1121
杨	-10.1128
泡	-10.1147
乌	-10.1156
赣	-10.1158
滤	-10.1161
盾	-10.1166
ㄨ	-10.1166
几	-10.1184
雾	-10.1191
涵	-10.1193
熊	-10.1211
贺	-10.1224
蝶	-10.1231
葛	-10.1235
榜	-10.1237
剑	-10.1239
短	-10.1242
偿	-10.1255
卜	-10.1257
撰	-10.1263
逸	-10.1263
伪	-10.1274
独	-10.128
烂	-10.1289
仰	-10.1293
枢	-10.1299
葱	-10.1299
氯	-10.1304
衔	-10.1309
芬	-10.1327
捐	-10.1334
究	-10.1339
抢	-10.1351
茅	-10.1352
彭	-10.1365
冈	-10.1367
狮	-10.137
撒	-10.1388
纱	-10.139
姿	-10.1395
穷	-10.1401
罐	-10.1409
卓	-10.141
超	-10.1433
熔	-10.1436
扣	-10.145
刘	-10.1455
娜	-10.1468
毕	-10.1482
卧	-10.1487
距	-10.1494
框	-10.1497
届	-10.151
醉	-10.153
壶	-10.155
暂	-10.1555
灰	-10.1562
扰	-10.1575
双	-10.1581
菊	-10.1588
渗	-10.1593
竟	-10.1598
巷	-10.1608
湛	-10.1611
纺	-10.1612
狭	-10.1613
棒	-10.1628
畔	-10.1641
孢	-10.1664
欧	-10.1673
谊	-10.1702
兹	-10.171
胡	-10.1724
拆	-10.1755
桌	-10.1756
旱	-10.1758
漂	-10.1764
苯	-10.1765
荡	-10.1779
瘤	-10.1789
舌	-10.1809
椭	-10.1816
屈	-10.1822
泛	-10.1853
亲	-10.187
爵	-10.1878
杏	-10.1879
纬	-10.1905
勋	-10.1912
狗	-10.1922
梨	-10.1936
肢	-10.1939
棕	-10.1939
培	-10.1943
凌	-10.1943
赢	-10.1963
糊	-10.1975
浏	-10.1982
釉	-10.2022
轻	-10.2037
恐	-10.2048
辣	-10.205
崖	-10.2051
若	-10.2055
霸	-10.2062
甸	-10.2066
ˊ	-10.2075
姚	-10.2084
醋	-10.2089
脸	-10.2093
戈	-10.2116
铃	-10.2121
宪	-10.2123
韦	-10.213
延	-10.2132
沧	-10.2133
酯	-10.2138
肖	-10.2147
旧	-10.2157
听	-10.2161
迅	-10.2166
弥	-10.2172
爽	-10.2181
侦	-10.2184
叙	-10.2192
竭	-10.2195
祝	-10.22
楚	-10.22
焊	-10.2213
兆	-10.2216
婴	-10.2221
睡	-10.2225
宴	-10.2233
箭	-10.224
豫	-10.2243
移	-10.2244
覆	-10.2263
侠	-10.2292
撤	-10.2302
〕	-10.2305
悦	-10.2315
潘	-10.2321
吹	-10.235
穿	-10.235
〔	-10.2357
股	-10.2366
邑	-10.2372
晚	-10.2374
忧	-10.2393
凉	-10.2408
奈	-10.2417
厨	-10.2436
责	-10.2444
芯	-10.2447
喉	-10.2454
闲	-10.2468
祠	-10.2471
贞	-10.2471
戒	-10.2475
盈	-10.2487
竞	-10.2488
阿	-10.2513
晨	-10.2513
耀	-10.2514
勃	-10.2539
噪	-10.2558
鼓	-10.2559
摸	-10.2561
膏	-10.2575
绣	-10.2578
磁	-10.2581
蓝	-10.2593
排	-10.2604
乏	-10.261
尖	-10.2612
迷	-10.262
艰	-10.2623
邀	-10.2628
慧	-10.2636
悟	-10.265
猛	-10.265
仔	-10.2659
辰	-10.2666
退	-10.2669
沪	-10.2673
这	-10.2674
辨	-10.2679
蓄	-10.2697
裕	-10.2704
矩	-10.2709
宅	-10.272
陶	-10.2725
牵	-10.2751
丈	-10.2776
忍	-10.2787
姑	-10.2794
吊	-10.2802
阅	-10.2805
巢	-10.2823
冬	-10.2828
唯	-10.2834
鄂	-10.2839
缸	-10.2842
闹	-10.2857
萝	-10.2861
氢	-10.2864
烦	-10.2873
瘦	-10.2875
脆	-10.2915
蕴	-10.2956
蓬	-10.2967
隶	-10.2976
渠	-10.3005
踏	-10.3013
雌	-10.3018
驰	-10.3018
沂	-10.3036
辟	-10.3056
页	-10.306
赐	-10.3073
绩	-10.3073
襄	-10.3078
墓	-10.3094
沥	-10.313
阜	-10.3147
吴	-10.315
笋	-10.3155
眉	-10.3161
琼	-10.3166
钙	-10.3192
握	-10.3227
冶	-10.3229
嵌	-10.3234
撑	-10.3234
腻	-10.324
馨	-10.3242
怕	-10.3246
句	-10.3248
茄	-10.3261
犬	-10.3263
龟	-10.3271
枯	-10.3282
椅	-10.3295
履	-10.3334
勾	-10.3358
整	-10.3361
叔	-10.3376
依	-10.3382
眠	-10.3383
柯	-10.3384
昂	-10.3399
辈	-10.3405
鹰	-10.3406
藻	-10.3407
已	-10.3414
鳍	-10.3416
寸	-10.342
轩	-10.3434
聊	-10.3436
描	-10.3444
堪	-10.3445
怒	-10.3446
夷	-10.3464
禽	-10.3496
莉	-10.3507
沿	-10.3508
帅	-10.352
★	-10.3546
搞	-10.3559
薯	-10.3559
锂	-10.356
胀	-10.3567
懂	-10.3579
诱	-10.3593
吏	-10.3597
艇	-10.3638
擦	-10.3649
遗	-10.3661
蒲	-10.3674
横	-10.3677
刷	-10.3677
哈	-10.3694
奠	-10.3708
挑	-10.3712
含	-10.373
烹	-10.3741
锥	-10.3743
椎	-10.3745
恶	-10.3754
吃	-10.3762
涯	-10.3763
砂	-10.3782
硕	-10.3805
傅	-10.3814
呢	-10.382
拥	-10.3824
垫	-10.3825
蒋	-10.3827
凸	-10.383
梗	-10.3836
催	-10.3838
泄	-10.3846
汕	-10.3846
弄	-10.3855
哪	-10.386
柳	-10.3872
雀	-10.3875
丧	-10.3887
饱	-10.3893
淀	-10.3911
他	-10.3926
纠	-10.3927
铜	-10.3955
驾	-10.3964
翁	-10.397
剖	-10.3977
镀	-10.3986
髓	-10.3987
麓	-10.3992
摘	-10.3995
飘	-10.4005
译	-10.4005
搬	-10.4015
蜀	-10.4032
淘	-10.4054
绒	-10.4062
魔	-10.4065
矣	-10.4069
绳	-10.407
宠	-10.4087
惟	-10.4092
增	-10.4122
衍	-10.4141
甫	-10.4146
汪	-10.415
兄	-10.4162
慕	-10.4168
婆	-10.4186
就	-10.419
削	-10.4212
显	-10.4225
脱	-10.4237
炭	-10.4244
唇	-10.4251
拓	-10.4262
妖	-10.4265
胺	-10.4268
―	-10.4281
臂	-10.4282
咨	-10.4283
狼	-10.4287
·	-10.4287
莫	-10.4329
猪	-10.4332
锻	-10.4375
邵	-10.4391
拖	-10.4406
拱	-10.4412
酵	-10.4447
紧	-10.4451
窝	-10.4452
饶	-10.4453
霉	-10.4463
朋	-10.4467
仕	-10.4476
漠	-10.451
痕	-10.4531
敦	-10.4538
却	-10.4543
纯	-10.4552
夕	-10.4557
绪	-10.4561
敌	-10.4563
宽	-10.457
账	-10.4574
那	-10.4574
契	-10.4576
搏	-10.459
兔	-10.4601
陀	-10.4615
施	-10.4617
奴	-10.4618
罕	-10.4623
寓	-10.4651
莎	-10.4672
贼	-10.4691
咽	-10.4693
阻	-10.4696
禄	-10.4724
遣	-10.4726
甘	-10.473
忽	-10.4733
宙	-10.4738
旬	-10.4764
涛	-10.4772
埋	-10.4788
酿	-10.4795
杉	-10.4799
庵	-10.4814
筛	-10.4821
涌	-10.4844
芒	-10.4865
凰	-10.4866
籽	-10.4866
凹	-10.4884
聪	-10.4893
粒	-10.4905
适	-10.4916
闸	-10.4929
卉	-10.4934
严	-10.4968
尸	-10.4973
匹	-10.4975
茨	-10.4978
幅	-10.4987
鑫	-10.4993
霜	-10.5009
扭	-10.5011
添	-10.5017
鹅	-10.5032
±	-10.5034
肃	-10.506
奉	-10.5077
隋	-10.5078
攀	-10.509
渊	-10.5096
睛	-10.5106
蚕	-10.5116
帽	-10.5117
各	-10.5147
挂	-10.515
泻	-10.5154
隙	-10.5157
逢	-10.5188
够	-10.5194
→	-10.5197
抛	-10.5201
挤	-10.5202
屿	-10.5208
暗	-10.521
叫	-10.5214
请	-10.5215
袖	-10.5221
撞	-10.5223
乾	-10.5224
迟	-10.5226
咳	-10.5238
腌	-10.5258
弧	-10.5293
糕	-10.5315
—	-10.5316
辩	-10.5323
芜	-10.5324
幢	-10.5333
欲	-10.5348
澄	-10.5351
慎	-10.5365
崔	-10.5373
洒	-10.5394
淄	-10.5402
伞	-10.5422
庞	-10.5424
暨	-10.5432
忌	-10.5435
郑	-10.5443
擎	-10.5443
睿	-10.5446
钩	-10.5448
隔	-10.5451
假	-10.5465
圳	-10.549
钦	-10.5491
喻	-10.5521
忆	-10.5547
埠	-10.5552
汝	-10.5572
麟	-10.5579
庐	-10.5584
锁	-10.5591
锌	-10.56
惜	-10.5609
唤	-10.5609
欣	-10.5623
旅	-10.5631
泥	-10.5632
窄	-10.5632
逊	-10.5639
彦	-10.5645
蓉	-10.5653
勺	-10.5666
帖	-10.5675
占	-10.5682
冀	-10.5684
棱	-10.569
综	-10.5705
堤	-10.5721
泪	-10.5728
挺	-10.573
溢	-10.5732
鹏	-10.5747
逝	-10.5748
仇	-10.5752
剩	-10.5757
沫	-10.5766
赶	-10.5775
鞍	-10.5781
陕	-10.579
扫	-10.5794
浑	-10.5794
栗	-10.5803
玄	-10.5808
帐	-10.5813
毅	-10.5815
笼	-10.5818
薄	-10.5828
酥	-10.5833
彝	-10.584
疮	-10.585
挡	-10.5872
漳	-10.5897
轴	-10.5911
烧	-10.5917
蟹	-10.5922
殊	-10.5941
虚	-10.5955
墩	-10.5962
乳	-10.5982
颂	-10.5983
贮	-10.5984
刺	-10.5994
况	-10.5998
娃	-10.6004
膨	-10.6015
罚	-10.6017
胃	-10.6022
痰	-10.6031
爷	-10.6048
宰	-10.6055
钠	-10.6067
我	-10.6069
巾	-10.6081
券	-10.6109
吗	-10.6122
尉	-10.6124
雍	-10.6141
叛	-10.6144
辆	-10.6162
棚	-10.617
糯	-10.6177
怡	-10.6192
挥	-10.6212
瀑	-10.6214
趋	-10.6222
该	-10.6275
潍	-10.6282
妃	-10.6283
株	-10.6295
裹	-10.6298
偷	-10.6303
珊	-10.6311
淡	-10.6311
姻	-10.6315
暑	-10.6317
零	-10.6319
恨	-10.6324
诏	-10.6333
碟	-10.6344
逼	-10.6346
锈	-10.6366
渣	-10.6369
羽	-10.6391
估	-10.6392
薛	-10.6395
|	-10.6395
#	-10.6396
○	-10.6404
喝	-10.6411
熙	-10.6434
埔	-10.6436
疆	-10.6438
予	-10.6455
嫁	-10.6467
努	-10.6472
荫	-10.6484
尊	-10.6486
柔	-10.6494
榆	-10.6497
祀	-10.6504
凶	-10.6516
背	-10.6518
烘	-10.6519
谦	-10.652
後	-10.6526
懈	-10.6528
雁	-10.6531
必	-10.6546
乘	-10.656
滚	-10.6562
并	-10.6567
缠	-10.657
隧	-10.6571
仅	-10.6578
氮	-10.6582
臭	-10.6584
琳	-10.6613
循	-10.6621
牢	-10.663
押	-10.664
喀	-10.6645
矛	-10.6666
溃	-10.667
魏	-10.6671
斤	-10.6692
掩	-10.6698
轧	-10.6704
瑰	-10.6728
橙	-10.6749
卸	-10.6756
忙	-10.6756
叹	-10.6763
ˇ	-10.678
浇	-10.6803
瑶	-10.6805
猴	-10.6813
铅	-10.6816
私	-10.682
浮	-10.6877
衬	-10.6879
悠	-10.6886
冰	-10.6922
宣	-10.6929
突	-10.6947
让	-10.6952
禹	-10.6969
媒	-10.697
氟	-10.6984
扑	-10.699
皖	-10.6991
渴	-10.702
巩	-10.7036
稽	-10.704
拒	-10.7041
淳	-10.7049
讼	-10.7051
括	-10.7056
秦	-10.7056
滞	-10.7057
惑	-10.7071
禾	-10.7078
伙	-10.712
腹	-10.7123
烫	-10.7154
咏	-10.7154
虞	-10.7167
煤	-10.7178
韧	-10.7189
匠	-10.7211
颁	-10.7223
爪	-10.7225
饲	-10.7234
倒	-10.7244
馅	-10.7252
剥	-10.727
怨	-10.7271
ー	-10.7278
晒	-10.7288
缴	-10.7292
丑	-10.7327
鲍	-10.733
≤	-10.7337
消	-10.7346
栽	-10.736
:	-10.737
炖	-10.7378
亨	-10.7408
彻	-10.7415
芹	-10.7436
哀	-10.7437
萃	-10.7452
恰	-10.7455
砌	-10.7456
楷	-10.7476
傲	-10.7494
姬	-10.7524
劫	-10.7527
徐	-10.7531
简	-10.7535
篮	-10.7545
尹	-10.7567
谜	-10.7573
酮	-10.7601
弓	-10.7602
坐	-10.7603
裔	-10.7628
玲	-10.7637
跌	-10.765
钓	-10.7651
厌	-10.7655
肴	-10.7663
紫	-10.7671
菱	-10.7677
昏	-10.7692
灸	-10.7705
鞘	-10.771
泼	-10.7728
帆	-10.7756
涂	-10.776
吻	-10.7764
寂	-10.777
陇	-10.7781
狐	-10.7788
斩	-10.7793
碰	-10.7814
洽	-10.7832
坎	-10.786
樱	-10.7861
蜡	-10.7865
桶	-10.7886
锯	-10.7898
谐	-10.7921
昔	-10.7923
镶	-10.7931
曾	-10.7948
赵	-10.7948
瑟	-10.7955
堰	-10.7994
胁	-10.8019
爸	-10.8039
疲	-10.804
黔	-10.804
绥	-10.805
屡	-10.8051
蔽	-10.8056
杜	-10.8081
谭	-10.8084
韩	-10.8111
竖	-10.8113
秩	-10.8114
萼	-10.8127
歇	-10.8128
殷	-10.8133
焦	-10.8143
恭	-10.8152
晕	-10.8162
贪	-10.8242
枫	-10.826
吞	-10.8286
瞬	-10.8313
竣	-10.8315
擅	-10.8344
匪	-10.8348
皱	-10.8348
遮	-10.8365
坚	-10.8368
苔	-10.8385
妮	-10.8395
ㄢ	-10.8409
顽	-10.8413
了	-10.8417
钝	-10.8423
伽	-10.8427
厢	-10.843
诞	-10.8433
甜	-10.8443
罩	-10.8462
倡	-10.8476
抹	-10.8492
馈	-10.8492
渝	-10.8508
骤	-10.8515
榄	-10.8552
祛	-10.8553
の	-10.8559
浅	-10.8564
则	-10.8582
焉	-10.8589
秉	-10.859
缅	-10.8602
溉	-10.8607
玫	-10.8611
仑	-10.8614
卤	-10.8614
蹄	-10.8614
俄	-10.8639
旁	-10.8644
邱	-10.8672
惯	-10.8685
减	-10.8706
丞	-10.8715
被	-10.873
敞	-10.8736
尧	-10.874
帘	-10.8756
玩	-10.8767
赁	-10.8783
苞	-10.879
删	-10.8795
檐	-10.8814
萍	-10.8817
劝	-10.8822
没	-10.883
μ	-10.8831
轰	-10.8882
坤	-10.8898
均	-10.8903
函	-10.8917
喘	-10.892
朱	-10.8931
矮	-10.8935
沼	-10.8936
奎	-10.8939
枕	-10.8946
驻	-10.895
捞	-10.8968
栓	-10.8979
屠	-10.9007
吟	-10.9011
贷	-10.9013
绎	-10.9019
孜	-10.9022
迄	-10.9031
粥	-10.9044
罢	-10.9047
胚	-10.9057
肝	-10.908
抑	-10.9081
更	-10.9082
〉	-10.9089
膝	-10.9104
祸	-10.9108
庸	-10.911
副	-10.9127
硝	-10.9142
酰	-10.916
焰	-10.9161
梧	-10.9165
垦	-10.9171
喇	-10.9176
渭	-10.9191
肚	-10.9212
疹	-10.9216
择	-10.9216
钾	-10.922
烷	-10.9223
〈	-10.9224
隐	-10.9259
粹	-10.926
刹	-10.9286
捉	-10.9286
睐	-10.93
梵	-10.9312
爬	-10.9343
拾	-10.935
黏	-10.9354
桔	-10.9358
ン	-10.9376
镁	-10.9381
膀	-10.9396
肇	-10.9418
巫	-10.943
稠	-10.9444
邹	-10.9453
晴	-10.9456
疏	-10.95
棘	-10.953
畏	-10.9548
旭	-10.9581
疯	-10.959
链	-10.9602
峻	-10.9608
薇	-10.9611
邢	-10.9617
鼻	-10.9639
蕉	-10.9645
舆	-10.9677
樊	-10.9686
礁	-10.9689
岁	-10.971
陪	-10.9717
啊	-10.9718
蕾	-10.9719
峪	-10.9738
盲	-10.975
涤	-10.9775
刮	-10.9784
连	-10.9804
◆	-10.9807
涨	-10.9816
劣	-10.9818
沉	-10.9823
葫	-10.9833
剿	-10.984
蕊	-10.9881
杞	-10.9895
互	-10.9906
朔	-10.9907
砚	-10.9923
酬	-10.9923
炒	-10.9924
奸	-10.9932
肛	-10.9937
逐	-10.9941
煲	-10.9943
抒	-10.9957
钮	-10.9962
桩	-10.9979
亥	-10.9983
祁	-10.9983
艾	-10.9991
仆	-10.9991
锤	-10.9995
涡	-10.9996
屑	-11.0007
藩	-11.0028
惊	-11.0031
惨	-11.0044
芙	-11.0047
崩	-11.0054
募	-11.0056
投	-11.0069
篆	-11.0071
澜	-11.0073
◎	-11.0084
艘	-11.0104
芋	-11.0106
颠	-11.0112
汾	-11.0118
惧	-11.0131
傍	-11.0133
馀	-11.0139
啤	-11.0153
瑚	-11.0157
拘	-11.0164
寇	-11.0181
薪	-11.0188
萌	-11.0195
厉	-11.0208
斜	-11.0228
荔	-11.0238
鞭	-11.024
纂	-11.0269
钉	-11.0283
簧	-11.0318
詹	-11.0322
凑	-11.033
蛛	-11.0331
玻	-11.0343
煌	-11.0348
熏	-11.0385
纵	-11.0413
≥	-11.0442
繁	-11.0446
葵	-11.0458
邯	-11.0474
沁	-11.0476
敷	-11.0482
耐	-11.0488
缀	-11.0493
橄	-11.051
梭	-11.0527
蕨	-11.0532
哭	-11.0535
涅	-11.0567
绞	-11.0567
璃	-11.0581
汀	-11.0581
诣	-11.0583
橘	-11.0623
奢	-11.0627
矢	-11.0628
诵	-11.0636
町	-11.0666
碳	-11.0669
炳	-11.0688
蔗	-11.0695
颌	-11.0696
兮	-11.0715
峨	-11.0725
–	-11.0734
卦	-11.0762
骗	-11.0762
逾	-11.0772
搅	-11.0784
灿	-11.0804
阀	-11.0808
圩	-11.0809
愤	-11.0811
垒	-11.0832
骄	-11.084
愁	-11.0854
窦	-11.0855
_	-11.0876
燥	-11.0884
瘟	-11.0906
焕	-11.0928
淑	-11.0929
佑	-11.0935
庚	-11.0942
糙	-11.0947
鸽	-11.0947
早	-11.0949
闷	-11.0953
韶	-11.0965
庶	-11.097
斌	-11.0996
预	-11.1015
а	-11.1028
抄	-11.1033
还	-11.1035
斥	-11.1035
榴	-11.1036
卑	-11.1045
宛	-11.1046
柿	-11.1059
寡	-11.108
濒	-11.1084
勐	-11.1091
痴	-11.1091
洼	-11.1116
亦	-11.1133
堵	-11.1139
裸	-11.1139
琅	-11.1153
柠	-11.1159
恼	-11.1162
瑜	-11.1165
魁	-11.1165
措	-11.1175
腰	-11.1196
匈	-11.1197
蔓	-11.1217
豹	-11.1221
茸	-11.1224
残	-11.1225
肋	-11.123
灶	-11.1234
棠	-11.1248
疡	-11.1257
桓	-11.1269
欺	-11.1293
瘀	-11.1295
芡	-11.13
圭	-11.1313
坞	-11.1326
梳	-11.1333
胸	-11.1335
趾	-11.1363
郸	-11.1364
梓	-11.1375
迦	-11.1394
兑	-11.14
赔	-11.1427
允	-11.1437
绸	-11.1447
终	-11.1454
倚	-11.1467
右	-11.1481
沛	-11.1487
腕	-11.1492
涩	-11.1497
溯	-11.1523
檬	-11.1529
亏	-11.1535
崎	-11.1543
曝	-11.1555
蘑	-11.1563
渤	-11.1573
饪	-11.1581
刃	-11.1591
凿	-11.1594
滇	-11.1603
莆	-11.1603
泗	-11.1616
两	-11.1618
娇	-11.1619
驿	-11.1624
泾	-11.1627
蚁	-11.1636
]	-11.1677
慰	-11.168
祈	-11.1691
矫	-11.1695
橡	-11.17
缔	-11.1717
脓	-11.1718
胰	-11.1754
槐	-11.1794
炙	-11.1797
侣	-11.1804
氛	-11.181
裙	-11.1836
践	-11.1842
捣	-11.1851
沾	-11.1873
棵	-11.1882
窟	-11.1882
о	-11.1884
嗣	-11.189
琉	-11.1893
蚌	-11.1894
捧	-11.191
窃	-11.1949
丢	-11.1962
愉	-11.1987
泸	-11.199
衢	-11.2011
笛	-11.2035
萎	-11.2039
廖	-11.2047
垣	-11.2048
戚	-11.2049
嗽	-11.2088
膳	-11.2091
畸	-11.2101
轿	-11.2108
涧	-11.2129
坠	-11.214
荧	-11.2147
嫌	-11.218
咬	-11.2185
莹	-11.2188
钞	-11.2188
椰	-11.219
狄	-11.2204
滕	-11.2206
皂	-11.2211
潜	-11.2224
阐	-11.2235
狠	-11.2248
鲤	-11.2248
颅	-11.225
誓	-11.2256
左	-11.2267
樟	-11.2268
и	-11.2271
い	-11.228
岐	-11.2288
蛮	-11.2295
嗜	-11.2299
廓	-11.2304
愚	-11.233
熬	-11.2375
舜	-11.2388
茫	-11.2388
胖	-11.2417
夸	-11.244
杖	-11.2481
坯	-11.2509
冥	-11.2529
裴	-11.253
苓	-11.2537
犀	-11.2545
枸	-11.2563
妈	-11.2576
芭	-11.2577
乃	-11.2578
岂	-11.258
瞻	-11.2586
茎	-11.2597
厄	-11.2614
坟	-11.2617
啦	-11.2627
芥	-11.2635
α	-11.2641
菠	-11.2653
栈	-11.2674
醛	-11.2674
钛	-11.2679
荟	-11.2696
^	-11.2701
谨	-11.2703
舱	-11.2731
俞	-11.2737
畴	-11.2744
¥	-11.2745
棍	-11.2754
诠	-11.2758
摊	-11.2769
蛙	-11.2784
蠕	-11.2785
汶	-11.2792
淹	-11.2807
娄	-11.2811
柑	-11.2822
酚	-11.2825
茵	-11.2845
乞	-11.2847
厥	-11.2851
荐	-11.2851
帜	-11.2873
琪	-11.2874
沐	-11.2884
牟	-11.2896
跋	-11.2913
眩	-11.2919
揉	-11.292
键	-11.2944
谣	-11.2971
倦	-11.2985
呕	-11.2988
铣	-11.3004
诸	-11.3005
轼	-11.3018
阮	-11.3026
婉	-11.3029
勿	-11.3031
俯	-11.3041
藕	-11.3048
钥	-11.305
魄	-11.3063
呆	-11.3086
裤	-11.3089
骏	-11.3107
挪	-11.3117
栅	-11.3119
嵩	-11.3125
蔚	-11.3137
哺	-11.3141
敛	-11.3148
缆	-11.3152
[	-11.3153
秧	-11.316
秆	-11.3196
钧	-11.3224
衷	-11.3227
毗	-11.323
醚	-11.3254
簇	-11.3255
你	-11.3269
孵	-11.3272
招	-11.3273
浊	-11.3273
谥	-11.3312
鸦	-11.3341
扮	-11.3349
─	-11.3349
痒	-11.335
壹	-11.3358
蝴	-11.3362
翘	-11.3371
靡	-11.3374
歧	-11.3411
褶	-11.3415
陂	-11.3415
咒	-11.3421
嘎	-11.3449
∶	-11.3452
莓	-11.3518
弊	-11.3522
矶	-11.3525
绑	-11.3525
璧	-11.355
妄	-11.3578
闯	-11.3584
赤	-11.3588
)	-11.3597
衫	-11.3598
供	-11.3607
曹	-11.3612
粟	-11.3615
镍	-11.3616
祯	-11.3647
耿	-11.3649
旷	-11.3652
崛	-11.3657
煸	-11.3669
废	-11.3684
驶	-11.3696
雇	-11.3696
俘	-11.3697
欠	-11.3721
崭	-11.3733
肆	-11.3737
蛾	-11.3751
又	-11.3776
戊	-11.3798
焚	-11.3801
岚	-11.3822
巍	-11.3822
抬	-11.3825
俭	-11.3839
,	-11.3857
烛	-11.3868
饥	-11.3868
挽	-11.3869
寅	-11.3874
辱	-11.388
帧	-11.3884
ㄐ	-11.3901
苷	-11.3919
腋	-11.3923
贬	-11.393
铬	-11.3931
蝉	-11.3954
戎	-11.3957
羌	-11.3957
纶	-11.3962
塌	-11.3967
阎	-11.3968
痹	-11.3976
龚	-11.3988
躯	-11.3996
焯	-11.4009
陡	-11.4009
稀	-11.4012
簿	-11.4017
皋	-11.4018
悔	-11.4025
m	-11.4031
辊	-11.4033
喙	-11.4039
诀	-11.408
敲	-11.4091
渍	-11.4106
哉	-11.4127
暮	-11.4138
檀	-11.4152
斧	-11.4155
彬	-11.4161
拦	-11.4188
揽	-11.4189
肽	-11.4194
浒	-11.4216
勉	-11.4217
荚	-11.4229
贩	-11.4229
瓯	-11.4235
冤	-11.4249
妥	-11.4255
僵	-11.428
盏	-11.4282
颐	-11.4293
阙	-11.4297
洱	-11.4298
驼	-11.43
楠	-11.4356
ㄣ	-11.436
撕	-11.4365
锰	-11.4372
炫	-11.4387
楔	-11.441
猜	-11.4418
脐	-11.442
岔	-11.4444
焖	-11.4452
е	-11.4457
匾	-11.4464
楹	-11.4467
推	-11.447
夹	-11.4478
β	-11.4489
鹃	-11.4516
耸	-11.4523
赌	-11.4559
赚	-11.4564
潢	-11.4566
槽	-11.4584
仗	-11.4584
ㄥ	-11.4591
躲	-11.4591
斐	-11.4603
榕	-11.4605
茯	-11.4607
毯	-11.4627
辐	-11.4631
绅	-11.465
札	-11.4655
犁	-11.4667
澈	-11.4693
昼	-11.4705
圃	-11.4707
ス	-11.4708
混	-11.4711
陌	-11.4732
羲	-11.4745
呵	-11.4772
栩	-11.4776
蔬	-11.4778
н	-11.4779
榨	-11.4779
赴	-11.4824
娱	-11.484
歼	-11.4841
峭	-11.4846
剁	-11.4848
腥	-11.4848
也	-11.4849
う	-11.486
ル	-11.4886
炬	-11.4886
徙	-11.489
袍	-11.4893
迭	-11.4893
潇	-11.4895
酪	-11.4925
冢	-11.493
宦	-11.4932
莘	-11.4932
哩	-11.4939
摔	-11.495
骆	-11.4964
磅	-11.4966
骚	-11.4984
垢	-11.4985
逮	-11.5001
◇	-11.5016
剔	-11.5017
%	-11.5022
珀	-11.5026
撇	-11.5046
磺	-11.5075
吸	-11.5075
壤	-11.5089
焙	-11.5094
藉	-11.51
慨	-11.5114
窥	-11.5127
绢	-11.5127
莽	-11.513
诈	-11.515
掠	-11.5159
淫	-11.5192
蕃	-11.5199
垩	-11.5201
叭	-11.5214
媚	-11.5219
し	-11.5225
锣	-11.5234
霖	-11.5247
坂	-11.5265
谏	-11.5294
芍	-11.5298
笃	-11.5357
峦	-11.5388
〗	-11.5401
惩	-11.5403
〖	-11.5412
碍	-11.5416
拟	-11.5417
砾	-11.5418
础	-11.5427
挚	-11.5433
筝	-11.5436
倍	-11.5443
闵	-11.5455
臀	-11.5477
鳃	-11.5483
粪	-11.549
兼	-11.55
璋	-11.5504
怜	-11.5509
か	-11.5526
哮	-11.5552
兢	-11.5567
羟	-11.5569
イ	-11.5579
沦	-11.5601
р	-11.5605
翻	-11.5623
啸	-11.5643
蛤	-11.5647
咀	-11.5649
讽	-11.5666
倪	-11.5695
瘫	-11.5721
岱	-11.5725
跳	-11.5729
禧	-11.5733
喂	-11.5739
琢	-11.5752
黛	-11.5758
钳	-11.5762
晖	-11.5785
娶	-11.5787
濮	-11.58
触	-11.5818
佼	-11.5843
拯	-11.5854
雏	-11.5881
蒸	-11.5884
哨	-11.5887
遐	-11.5889
郝	-11.5891
ㄒ	-11.5897
最	-11.59
碘	-11.5913
汲	-11.5944
躁	-11.5958
寝	-11.5961
妊	-11.5967
巅	-11.5969
恳	-11.5979
菏	-11.5987
韭	-11.5993
眺	-11.5995
灼	-11.5997
瞩	-11.6003
买	-11.6004
於	-11.6011
侈	-11.6046
酉	-11.6058
琐	-11.6068
霄	-11.6068
鲸	-11.6092
衙	-11.6096
漓	-11.61
垄	-11.6118
胱	-11.6122
悄	-11.613
禺	-11.6176
渲	-11.6196
靓	-11.6206
晏	-11.6222
昧	-11.6226
隅	-11.6236
或	-11.6245
撼	-11.625
驳	-11.6254
溜	-11.6258
只	-11.6263
苟	-11.6266
棺	-11.6305
摧	-11.6309
趁	-11.6329
杠	-11.6335
ㄌ	-11.6343
驴	-11.6347
娠	-11.6349
踢	-11.6357
牲	-11.637
绰	-11.6386
徵	-11.639
葡	-11.6413
睹	-11.6425
蒿	-11.6431
锚	-11.6441
聂	-11.6446
砍	-11.6456
沽	-11.6466
朽	-11.6476
诡	-11.6479
琶	-11.6483
摹	-11.6485
塾	-11.6487
麒	-11.6493
绚	-11.651
诛	-11.6543
眷	-11.6551
菩	-11.6557
痢	-11.6574
挫	-11.6589
曙	-11.6601
糟	-11.6603
滥	-11.6622
铝	-11.6641
骂	-11.6666
哦	-11.6674
羞	-11.6685
潼	-11.6715
泣	-11.6717
】	-11.6723
咫	-11.6729
伺	-11.6734
褒	-11.6744
荀	-11.6748
癫	-11.6753
兜	-11.6787
蚝	-11.6838
阪	-11.6859
蝠	-11.6866
跨	-11.6875
梢	-11.6902
ㄙ	-11.6909
咪	-11.6913
芸	-11.6913
肺	-11.6926
逻	-11.695
な	-11.6967
再	-11.6994
亢	-11.6998
钵	-11.7004
ㄠ	-11.7008
鲨	-11.7011
翡	-11.7019
【	-11.703
鹦	-11.703
巨	-11.7037
た	-11.7046
觅	-11.7046
穗	-11.7047
酌	-11.7063
翌	-11.7072
陋	-11.7083
瞄	-11.7092
盼	-11.7105
痘	-11.7111
铲	-11.7118
娟	-11.7129
霹	-11.7136
恪	-11.714
彪	-11.716
把	-11.7168
尤	-11.7185
@	-11.7191
Ω	-11.7217
喊	-11.722
忱	-11.7229
悍	-11.7231
藓	-11.7231
淤	-11.7249
苇	-11.7251
ん	-11.7266
с	-11.7275
祐	-11.7275
岑	-11.7278
蒴	-11.7278
噬	-11.7289
•	-11.7298
雳	-11.7298
琦	-11.7305
峙	-11.7309
匡	-11.7313
桦	-11.7322
晾	-11.7336
豌	-11.7338
竿	-11.7361
臻	-11.7383
厕	-11.7388
嗓	-11.739
傣	-11.739
恢	-11.7395
稚	-11.7406
в	-11.7422
凄	-11.7424
擢	-11.7424
郴	-11.7449
佣	-11.7472
恤	-11.7508
蚊	-11.7513
懒	-11.7518
忻	-11.7522
掀	-11.7529
宵	-11.7577
靶	-11.7593
馏	-11.7603
捏	-11.761
拙	-11.763
哑	-11.7635
囚	-11.7635
缚	-11.7637
烃	-11.7642
寞	-11.7649
奕	-11.7651
鳌	-11.7651
箔	-11.7658
骼	-11.7658
劈	-11.7668
愧	-11.767
壬	-11.7672
谍	-11.7703
狩	-11.7714
聋	-11.7724
姊	-11.7731
硼	-11.7735
厘	-11.7747
硒	-11.7763
僚	-11.7775
侗	-11.7777
辍	-11.7799
粳	-11.7803
耻	-11.7822
ト	-11.7825
痫	-11.7827
蜘	-11.7832
颉	-11.7839
唑	-11.7858
搓	-11.7858
贱	-11.7862
と	-11.7867
谕	-11.7908
к	-11.7912
癸	-11.7917
敕	-11.7939
跟	-11.796
娥	-11.7965
拐	-11.7965
リ	-11.7975
蘖	-11.7975
昨	-11.7979
铵	-11.7982
镂	-11.7982
狸	-11.8032
铎	-11.8056
熹	-11.8076
墟	-11.8107
借	-11.8108
娴	-11.8112
颍	-11.8112
昊	-11.8117
饿	-11.8132
耘	-11.8139
莒	-11.8144
癣	-11.8156
拂	-11.8161
鹭	-11.8166
虏	-11.8171
碾	-11.8173
鳄	-11.8178
ㄏ	-11.8195
卯	-11.8205
绮	-11.8207
僻	-11.821
・	-11.8222
虐	-11.8225
贿	-11.823
蜥	-11.8234
疼	-11.8239
ラ	-11.8242
插	-11.8243
侄	-11.8252
溴	-11.8269
蝇	-11.8289
颤	-11.8294
茹	-11.8311
蔷	-11.8316
豉	-11.8333
谛	-11.8361
孚	-11.8376
ア	-11.8381
闪	-11.8386
拷	-11.8396
猿	-11.8408
き	-11.8423
戟	-11.8426
樵	-11.8438
肘	-11.8458
弛	-11.8474
槟	-11.8476
既	-11.8477
娅	-11.8489
ㄤ	-11.8494
窖	-11.8494
窍	-11.8504
掺	-11.8514
抖	-11.8516
噶	-11.8522
喧	-11.8537
敖	-11.8549
俩	-11.857
汰	-11.8588
钨	-11.86
蓟	-11.8605
顷	-11.8606
蜗	-11.8616
饺	-11.8616
絮	-11.8675
嚼	-11.8688
惹	-11.869
琵	-11.8695
睦	-11.8706
呀	-11.8713
铀	-11.8713
楞	-11.8724
淇	-11.8726
耆	-11.8731
颊	-11.8752
鹊	-11.8755
傻	-11.8765
堕	-11.8778
ク	-11.8786
瀚	-11.8786
翟	-11.8786
悼	-11.8791
暇	-11.8799
痔	-11.882
详	-11.882
ま	-11.8838
脯	-11.8843
镌	-11.8854
ㄕ	-11.8859
□	-11.8864
秃	-11.8867
磊	-11.8877
缕	-11.8901
茗	-11.8904
莺	-11.8906
刨	-11.8925
柚	-11.893
豚	-11.8951
鸠	-11.8951
腑	-11.8988
粱	-11.8993
涪	-11.8999
л	-11.9012
毓	-11.9015
饵	-11.9015
匿	-11.9028
珑	-11.9028
驯	-11.9033
鹉	-11.9055
淬	-11.9065
笺	-11.9084
ㄉ	-11.9089
榻	-11.9106
咸	-11.9119
晃	-11.9124
缉	-11.9127
袜	-11.9141
滁	-11.9173
甬	-11.9186
缪	-11.92
阱	-11.92
讳	-11.9205
锭	-11.923
茧	-11.9238
筷	-11.9243
疣	-11.9246
芷	-11.9246
绛	-11.9263
戌	-11.9263
吓	-11.9265
懿	-11.9295
祺	-11.9301
篷	-11.9309
扼	-11.9325
掖	-11.9336
佰	-11.9369
鸾	-11.9375
踞	-11.9378
婷	-11.9383
停	-11.9385
嘛	-11.9416
橱	-11.9422
丫	-11.943
茜	-11.9444
畲	-11.9447
浚	-11.945
g	-11.9466
ㄟ	-11.9466
羡	-11.9478
墅	-11.9482
椿	-11.9489
皆	-11.9497
痈	-11.9508
汛	-11.9517
漕	-11.9531
柘	-11.9553
佚	-11.9559
沅	-11.9564
璨	-11.9567
薰	-11.957
贰	-11.9595
厝	-11.9607
笨	-11.9624
耍	-11.9635
乖	-11.9638
玺	-11.9643
ㄚ	-11.9652
矾	-11.9663
挠	-11.9683
芪	-11.9683
遂	-11.9685
擒	-11.9697
冕	-11.9714
り	-11.9717
涟	-11.9726
掷	-11.9732
帛	-11.974
妓	-11.9769
☆	-11.9797
壑	-11.9797
捆	-11.98
瞳	-11.9803
妾	-11.9806
盔	-11.9832
る	-11.9838
舅	-11.9838
嘱	-11.9847
邸	-11.9861
楂	-11.9864
憾	-11.9867
鸳	-11.9867
啶	-11.987
蝎	-11.9881
荞	-11.9902
辕	-11.991
$	-11.9913
襟	-11.9925
甚	-11.9926
牡	-11.9948
巳	-11.9948
毙	-11.9948
甄	-11.9948
釜	-11.9948
羁	-11.9957
擀	-11.9966
嫡	-11.9972
嚣	-11.9978
靴	-11.9983
挣	-12.0001
挛	-12.0004
〇	-12.0019
弈	-12.0022
蟠	-12.0024
氰	-12.0033
璀	-12.0036
羹	-12.0045
辄	-12.0045
镰	-12.0063
匣	-12.0095
龛	-12.0131
稷	-12.0152
殉	-12.0158
み	-12.017
鱿	-12.0182
瑙	-12.0185
亳	-12.0197
ㄑ	-12.02
祷	-12.0209
皓	-12.0236
妨	-12.0245
桨	-12.0245
渚	-12.0254
酋	-12.026
迩	-12.0263
芎	-12.0266
烽	-12.0269
毡	-12.0281
裳	-12.0287
т	-12.0293
涝	-12.0308
喷	-12.0313
冉	-12.0323
滔	-12.0323
闺	-12.0323
夯	-12.0335
煮	-12.0356
倭	-12.036
ㄓ	-12.0363
韬	-12.0366
陨	-12.0378
跻	-12.0387
ㄩ	-12.0396
旌	-12.0405
豁	-12.0439
箐	-12.0445
歪	-12.0454
哇	-12.0458
ッ	-12.0464
铂	-12.0464
寮	-12.0476
盂	-12.0479
逍	-12.0488
ㄛ	-12.0491
魅	-12.0497
磐	-12.0504
糜	-12.0529
兀	-12.0538
盎	-12.0541
咖	-12.0547
晦	-12.055
皿	-12.055
乍	-12.0556
遁	-12.0556
に	-12.0581
笙	-12.0591
恬	-12.06
窜	-12.0612
偃	-12.0612
瀛	-12.0622
踩	-12.0647
こ	-12.0656
臼	-12.0659
倩	-12.0666
鳝	-12.0669
歙	-12.0684
琥	-12.0691
疽	-12.0691
邕	-12.0697
蜒	-12.0703
颚	-12.0732
潞	-12.0735
穹	-12.0738
钼	-12.0738
烁	-12.0744
鄞	-12.0757
潺	-12.076
胥	-12.0776
憩	-12.0786
蟾	-12.0789
ㄍ	-12.0808
寰	-12.0811
ㄅ	-12.0821
俏	-12.0821
秤	-12.0821
蘸	-12.0843
竺	-12.0856
呈	-12.0869
く	-12.0885
鲈	-12.0885
胫	-12.091
谒	-12.0913
匍	-12.092
婺	-12.093
慌	-12.0933
蛟	-12.0949
兖	-12.0952
迥	-12.0975
さ	-12.0978
妍	-12.0981
蚂	-12.0997
侏	-12.101
嫂	-12.1014
■	-12.1033
稣	-12.1036
麝	-12.1053
巡	-12.1077
碌	-12.1085
虔	-12.1089
ㄊ	-12.1108
匐	-12.1112
紊	-12.1118
陛	-12.1118
炽	-12.1125
帷	-12.1128
吡	-12.1131
烙	-12.1145
痉	-12.1145
夔	-12.1148
裘	-12.1148
昵	-12.1154
蜿	-12.1158
疱	-12.1181
鸯	-12.1207
赎	-12.123
澧	-12.1254
濑	-12.1267
茴	-12.1287
殡	-12.1307
鄙	-12.1327
剌	-12.1337
ㄇ	-12.1368
瓮	-12.1371
逗	-12.1384
睾	-12.1398
褚	-12.1415
躬	-12.1418
宕	-12.1445
汞	-12.1445
苛	-12.1449
筠	-12.1459
瞰	-12.1466
锉	-12.1466
溧	-12.1469
煨	-12.1469
翩	-12.1469
滦	-12.1483
漾	-12.1493
弼	-12.1496
媳	-12.1513
嬉	-12.1544
沭	-12.1544
鸥	-12.1551
V	-12.1558
帼	-12.1575
诬	-12.1582
氽	-12.1623
耦	-12.1623
ら	-12.1627
ド	-12.1648
芩	-12.1661
鳖	-12.1665
ㄝ	-12.1672
捻	-12.1686
膛	-12.1686
戍	-12.1696
粘	-12.1705
扒	-12.171
溅	-12.172
恺	-12.1727
瞿	-12.1745
钤	-12.1745
辙	-12.1748
沱	-12.1759
榔	-12.1762
晟	-12.1783
廿	-12.1797
邃	-12.1808
每	-12.1823
缮	-12.1857
伶	-12.1861
悸	-12.1875
啼	-12.1882
璞	-12.1882
荠	-12.1911
诰	-12.1928
驭	-12.1932
溺	-12.1936
跆	-12.1939
嘲	-12.195
价	-12.196
孺	-12.196
诃	-12.1964
髻	-12.1975
は	-12.1982
扯	-12.1989
珐	-12.1989
枳	-12.2021
/	-12.2031
菁	-12.205
谟	-12.205
嵊	-12.2057
螟	-12.2057
羚	-12.2061
シ	-12.2075
煞	-12.2079
`	-12.2101
绽	-12.2119
拣	-12.2123
怠	-12.2126
膺	-12.2148
隽	-12.2159
隘	-12.2173
媛	-12.2177
缤	-12.2177
柬	-12.2184
戮	-12.2192
仄	-12.2199
虱	-12.2199
萤	-12.2206
茉	-12.2228
炊	-12.2232
惕	-12.2239
鲫	-12.225
棣	-12.2254
骇	-12.2265
あ	-12.2272
挟	-12.2298
挨	-12.2306
瘾	-12.2309
蝙	-12.2317
婿	-12.2324
拇	-12.2332
庇	-12.2343
γ	-12.2346
レ	-12.2354
屹	-12.2358
岷	-12.2361
稼	-12.2361
镖	-12.2361
蔻	-12.2369
赈	-12.2384
栾	-12.2395
驹	-12.2414
篱	-12.2417
羣	-12.2421
崂	-12.2447
て	-12.2485
蹲	-12.2523
奚	-12.2545
淞	-12.2557
叁	-12.2587
疤	-12.2587
凋	-12.2595
漱	-12.2614
沌	-12.2617
谬	-12.2617
浜	-12.2625
熄	-12.2633
聆	-12.2633
秽	-12.2652
扳	-12.2659
辜	-12.2659
ㄔ	-12.2663
狙	-12.2675
鄱	-12.2679
睢	-12.2682
涕	-12.269
涎	-12.2736
咱	-12.274
榭	-12.2752
跪	-12.2756
郧	-12.2771
疟	-12.2783
箕	-12.2814
雯	-12.2818
渺	-12.2826
追	-12.2837
榈	-12.2837
谅	-12.2849
匆	-12.2884
雉	-12.2888
拢	-12.2896
瑾	-12.2904
闫	-12.2904
譬	-12.2912
钗	-12.2923
タ	-12.2927
曳	-12.2947
刁	-12.2963
胤	-12.2975
お	-12.2983
凳	-12.2998
嗅	-12.3002
寥	-12.301
坳	-12.3018
呐	-12.3022
が	-12.303
谎	-12.303
闾	-12.303
赦	-12.3046
笠	-12.3054
悚	-12.307
ロ	-12.3074
瑛	-12.3074
肄	-12.3082
丕	-12.3086
炯	-12.3086
鹑	-12.3086
滓	-12.3098
祜	-12.3102
腱	-12.3106
曦	-12.311
俑	-12.313
鳗	-12.313
箫	-12.3134
冗	-12.3138
缭	-12.3142
斛	-12.3146
妒	-12.3158
湄	-12.3166
耒	-12.317
臧	-12.317
讷	-12.317
糠	-12.3182
マ	-12.3203
甩	-12.3211
庾	-12.3223
羧	-12.3255
钴	-12.3259
偏	-12.3279
缎	-12.3284
诲	-12.3308
翎	-12.3333
禀	-12.3337
辗	-12.3353
蜕	-12.3366
剃	-12.3386
媲	-12.3386
叟	-12.3411
汴	-12.3411
φ	-12.3432
砸	-12.3448
醴	-12.3448
筱	-12.3452
阑	-12.3457
弋	-12.3461
脖	-12.3477
裱	-12.349
隍	-12.349
曜	-12.3523
猩	-12.3527
睑	-12.3531
茱	-12.3536
铠	-12.354
浔	-12.3548
澎	-12.3565
σ	-12.3573
砺	-12.3582
ち	-12.3607
湍	-12.3611
悬	-12.3612
毋	-12.3637
膈	-12.3645
叮	-12.3658
ジ	-12.3687
霓	-12.3696
痿	-12.3721
侃	-12.3756
珂	-12.3768
呎	-12.3794
渎	-12.3794
フ	-12.3803
挝	-12.3811
苣	-12.382
彤	-12.3824
薏	-12.3828
栀	-12.3846
唾	-12.385
濂	-12.3854
颓	-12.3859
溥	-12.3885
猕	-12.3889
耽	-12.3889
咯	-12.3911
矗	-12.3915
恕	-12.3928
瑕	-12.3932
绶	-12.3937
按	-12.3939
贻	-12.395
缙	-12.398
曰	-12.3983
葆	-12.4007
匮	-12.4015
莅	-12.4024
诙	-12.405
癜	-12.4064
嶂	-12.4099
彗	-12.4112
跤	-12.4117
礴	-12.4121
覃	-12.4121
嫉	-12.4134
钊	-12.4143
も	-12.4148
粽	-12.4157
懋	-12.4161
孽	-12.4166
纫	-12.4215
且	-12.4215
佬	-12.4228
漯	-12.4228
螨	-12.4242
瘙	-12.4246
萄	-12.4255
绫	-12.4264
吵	-12.4269
邳	-12.4269
慷	-12.4273
洮	-12.4287
栉	-12.4291
澡	-12.4291
僳	-12.4305
攒	-12.4305
祚	-12.4323
朕	-12.4341
啮	-12.435
偕	-12.4354
槛	-12.4359
眶	-12.4368
某	-12.4374
搁	-12.4377
爹	-12.4377
郫	-12.4382
桢	-12.4423
睫	-12.4423
劾	-12.4432
姨	-12.4436
铰	-12.4436
萸	-12.4441
霆	-12.445
カ	-12.4455
淌	-12.4459
攸	-12.4464
毂	-12.4464
疝	-12.4464
诅	-12.4491
ا	-12.4501
跗	-12.4501
缨	-12.4505
ㄡ	-12.451
昙	-12.4533
垛	-12.4542
甙	-12.4556
荥	-12.4561
钰	-12.457
惰	-12.4575
擂	-12.4579
蛎	-12.4584
荼	-12.4603
螯	-12.4616
M	-12.4626
坷	-12.4626
萱	-12.4649
盅	-12.4659
瓢	-12.4668
й	-12.4682
褪	-12.4682
谚	-12.4691
ㄜ	-12.4715
喱	-12.4724
枉	-12.4724
铆	-12.4734
腮	-12.4743
泓	-12.4748
黍	-12.4748
畿	-12.4767
邛	-12.4771
ㄗ	-12.4781
鞠	-12.4781
鲷	-12.4781
骸	-12.4786
疸	-12.479
叩	-12.4819
捺	-12.4828
璜	-12.4833
殆	-12.4838
诫	-12.4881
濠	-12.4886
馒	-12.4886
貂	-12.489
憎	-12.4924
斡	-12.4934
<	-12.4937
歹	-12.4948
轶	-12.4958
痞	-12.4972
戳	-12.4977
夭	-12.4982
亩	-12.4986
舵	-12.4996
痪	-12.5001
つ	-12.5006
筵	-12.5011
骥	-12.5011
吼	-12.5016
籼	-12.5021
拭	-12.5025
岙	-12.503
莴	-12.5035
蟒	-12.504
逛	-12.5045
撮	-12.505
铨	-12.5055
吁	-12.5069
琛	-12.5069
凛	-12.5084
蚓	-12.5103
朐	-12.5143
簪	-12.5162
テ	-12.5167
瘠	-12.5172
煅	-12.5177
秸	-12.5182
躺	-12.5182
较	-12.5184
蚜	-12.5187
遏	-12.5192
瓤	-12.5197
扔	-12.5202
戛	-12.5207
闽	-12.5229
俨	-12.5231
&	-12.5241
氓	-12.5271
娓	-12.5291
佥	-12.5316
迂	-12.5316
藜	-12.5326
す	-12.5331
を	-12.5356
д	-12.5366
啄	-12.5386
俸	-12.5391
T	-12.5406
陲	-12.5406
捡	-12.5411
闰	-12.5411
蓼	-12.5431
笈	-12.5437
△	-12.5442
浣	-12.5442
宸	-12.5457
栎	-12.5472
锄	-12.5482
赭	-12.5497
у	-12.5508
狡	-12.5533
蠡	-12.5533
昕	-12.5548
癖	-12.5548
郢	-12.5548
迤	-12.5574
疃	-12.5579
ㄞ	-12.5584
嘻	-12.5589
骋	-12.5615
娩	-12.562
靳	-12.5631
"	-12.5657
怯	-12.5672
弩	-12.5687
赂	-12.5698
佤	-12.5713
饷	-12.575
脘	-12.5755
ィ	-12.5776
酣	-12.5786
梆	-12.5792
蕲	-12.5797
燮	-12.5813
篡	-12.5844
じ	-12.5855
阆	-12.5865
炜	-12.5886
翳	-12.5908
蛀	-12.5929
涿	-12.5945
嗪	-12.5987
螂	-12.6004
で	-12.602
葺	-12.602
婢	-12.6025
瘘	-12.6025
憨	-12.603
芮	-12.6036
蹈	-12.604
镭	-12.6046
岫	-12.6057
砼	-12.6073
讹	-12.6073
徊	-12.6084
蕙	-12.6084
恍	-12.609
邺	-12.6095
稹	-12.61
や	-12.6111
蝗	-12.6117
煜	-12.6122
м	-12.6155
腭	-12.616
葩	-12.616
喃	-12.6214
泠	-12.622
揣	-12.6231
骈	-12.6253
孰	-12.6264
恣	-12.6264
刍	-12.6275
绯	-12.628
粑	-12.6286
螃	-12.6302
苋	-12.6319
锆	-12.6324
僖	-12.633
壕	-12.633
恽	-12.6335
牍	-12.6341
ㄈ	-12.6347
淆	-12.6352
郯	-12.6363
恃	-12.638
钣	-12.638
旖	-12.6385
螭	-12.6385
俺	-12.6413
犷	-12.6419
遴	-12.6419
旎	-12.6436
麾	-12.6436
伎	-12.6441
骁	-12.6441
玮	-12.6463
袂	-12.6463
亘	-12.648
畈	-12.648
逅	-12.6492
薨	-12.6497
睁	-12.6525
璐	-12.6531
邂	-12.6531
れ	-12.6537
腓	-12.6537
谧	-12.6537
沮	-12.6571
箴	-12.6571
杷	-12.6582
惶	-12.6588
脍	-12.6599
惬	-12.6622
眸	-12.6622
寐	-12.6633
捍	-12.6639
罹	-12.665
飙	-12.6662
佘	-12.6679
屉	-12.6679
镗	-12.6696
淖	-12.6702
徘	-12.6707
箍	-12.6719
だ	-12.6736
胄	-12.6748
馥	-12.6748
コ	-12.6771
濡	-12.6782
荪	-12.6788
芾	-12.6794
※	-12.68
祇	-12.68
苹	-12.6811
∼	-12.6817
坨	-12.6817
匕	-12.6823
朦	-12.6823
玖	-12.6823
枭	-12.6858
苄	-12.6858
钜	-12.6858
砷	-12.6864
垭	-12.6881
瞒	-12.6887
掐	-12.6893
她	-12.6905
贲	-12.691
搪	-12.6928
琊	-12.6928
侮	-12.6934
勰	-12.6946
扉	-12.6946
它	-12.6963
炀	-12.6963
趟	-12.6969
蛹	-12.6975
蠢	-12.6975
镑	-12.6975
キ	-12.6987
荃	-12.6993
枇	-12.7011
郦	-12.7046
倘	-12.7052
δ	-12.7076
エ	-12.71
幔	-12.7106
猷	-12.7118
蜚	-12.713
蜴	-12.713
谯	-12.713
髋	-12.7148
儋	-12.7154
讥	-12.716
扛	-12.7178
舫	-12.7196
鬓	-12.7196
壅	-12.7202
汹	-12.7208
柞	-12.7214
オ	-12.722
嫔	-12.7226
卞	-12.7232
ㄆ	-12.7238
堇	-12.725
c	-12.7268
獒	-12.7274
腈	-12.7281
幡	-12.7281
λ	-12.7293
钒	-12.7293
痤	-12.7311
胧	-12.7317
骅	-12.7323
デ	-12.7342
昱	-12.7372
矜	-12.7372
赘	-12.7378
薹	-12.7384
枚	-12.7388
え	-12.7403
г	-12.7409
け	-12.7421
忏	-12.744
碣	-12.744
哗	-12.7465
璇	-12.7471
茬	-12.7471
蛊	-12.7471
噻	-12.7477
涓	-12.7496
藿	-12.7502
踵	-12.7521
踝	-12.7527
秒	-12.7532
槃	-12.7533
荤	-12.7545
蔺	-12.7545
逵	-12.7558
遒	-12.7558
龈	-12.7558
漩	-12.7564
桧	-12.7583
皎	-12.7602
バ	-12.7627
汐	-12.764
塬	-12.7646
崮	-12.7652
磋	-12.7652
扈	-12.7665
烩	-12.7665
咎	-12.7677
ウ	-12.7684
涸	-12.7684
佟	-12.7716
俾	-12.7728
丐	-12.7741
诘	-12.7741
驮	-12.7741
佗	-12.7766
皴	-12.7766
珞	-12.7773
枋	-12.7805
サ	-12.7811
葶	-12.7811
っ	-12.7824
榛	-12.7824
籁	-12.7824
黜	-12.785
谪	-12.7869
纣	-12.7876
杵	-12.7882
翊	-12.7882
钎	-12.7914
晤	-12.7927
萦	-12.7927
谙	-12.7927
粗	-12.7932
蹦	-12.7934
讶	-12.7973
铢	-12.7979
澹	-12.8005
亟	-12.8012
抉	-12.8019
贽	-12.8025
呜	-12.8032
悖	-12.8032
蜓	-12.8051
峒	-12.8058
熠	-12.8058
衮	-12.8058
ナ	-12.8064
、	-12.8066
掏	-12.8091
鳅	-12.8091
鳕	-12.8111
姥	-12.8124
荨	-12.8124
荸	-12.8124
阡	-12.8124
鬃	-12.8137
ل	-12.815
谤	-12.8157
疳	-12.8184
わ	-12.821
グ	-12.821
熨	-12.821
憧	-12.8217
稃	-12.823
黯	-12.8257
ミ	-12.8264
蜈	-12.8291
埭	-12.8297
‧	-12.8304
祉	-12.8304
蚣	-12.8304
谴	-12.8304
菖	-12.8311
诂	-12.8318
憬	-12.8338
歉	-12.8345
爻	-12.8345
я	-12.8358
腩	-12.8358
俎	-12.8365
锑	-12.8372
脲	-12.8385
蟆	-12.8385
ρ	-12.8406
哆	-12.8412
耙	-12.8412
郓	-12.8419
磕	-12.8426
褥	-12.8426
给	-12.8441
叱	-12.8447
燎	-12.846
晁	-12.8467
惭	-12.8474
吋	-12.8481
偈	-12.8508
ニ	-12.8522
苴	-12.8522
萘	-12.8529
よ	-12.8536
崧	-12.8536
殁	-12.8536
鎏	-12.8536
蜻	-12.855
ム	-12.8556
π	-12.8563
斓	-12.8563
颇	-12.8565
捶	-12.857
ㄎ	-12.8577
攘	-12.8584
侬	-12.8591
虬	-12.8591
霁	-12.8605
拈	-12.8612
馍	-12.8612
ひ	-12.8619
屁	-12.8619
忒	-12.864
娑	-12.8647
拧	-12.8647
翱	-12.8647
鸢	-12.8661
蔑	-12.8682
檄	-12.871
砥	-12.8724
蚤	-12.8724
‰	-12.8731
甾	-12.8731
夙	-12.8738
砧	-12.8738
枞	-12.8745
娲	-12.8766
胭	-12.8766
羔	-12.8773
垮	-12.8787
酐	-12.8787
绷	-12.8794
艮	-12.8794
惫	-12.8823
佃	-12.883
嗟	-12.8837
窘	-12.8844
ブ	-12.8851
箨	-12.8858
茭	-12.8858
廪	-12.8865
槎	-12.8865
瞎	-12.8865
绊	-12.8879
芫	-12.8879
锺	-12.8887
啉	-12.8915
痊	-12.8915
麸	-12.8922
ㄧ	-12.8929
怅	-12.893
ガ	-12.8944
湟	-12.8944
プ	-12.8958
磬	-12.8965
罔	-12.8965
俐	-12.8973
敝	-12.9009
匝	-12.9016
ャ	-12.9023
弁	-12.903
殴	-12.903
碉	-12.903
厮	-12.9052
泮	-12.9067
嘧	-12.9089
筐	-12.9089
骊	-12.9103
モ	-12.9118
筏	-12.9118
跖	-12.9125
乒	-12.9132
銮	-12.9132
谗	-12.914
汨	-12.9147
赡	-12.9154
珪	-12.9162
陟	-12.9162
晰	-12.9163
崃	-12.9176
袅	-12.9176
沔	-12.9184
鲑	-12.9184
疵	-12.9198
殇	-12.9206
罂	-12.9213
С	-12.9221
仟	-12.9221
肱	-12.9228
⊙	-12.9235
桡	-12.925
烨	-12.9258
巽	-12.9265
晔	-12.9272
赃	-12.928
藁	-12.9287
綦	-12.9324
ゆ	-12.9332
§	-12.9339
ㄘ	-12.9347
榫	-12.9347
慑	-12.9354
噩	-12.9362
汆	-12.9362
俟	-12.9369
阈	-12.9377
彷	-12.9399
嵇	-12.9414
痣	-12.9422
漪	-12.9467
ょ	-12.9505
ь	-12.9513
劭	-12.952
́	-12.9528
ろ	-12.9543
奄	-12.9551
呤	-12.9558
阖	-12.9566
ㄖ	-12.9581
邨	-12.9581
蹬	-12.9597
鲶	-12.9597
粲	-12.9604
メ	-12.962
嵘	-12.962
暧	-12.9627
ュ	-12.9643
桁	-12.9643
蓓	-12.9643
燧	-12.965
盱	-12.965
钺	-12.9658
镐	-12.9658
撷	-12.9666
渥	-12.9674
氩	-12.9689
蹊	-12.9689
悯	-12.9712
≈	-12.972
羸	-12.9736
蒡	-12.9736
戾	-12.9759
濯	-12.9767
辫	-12.9782
啥	-12.979
酝	-12.979
尬	-12.9806
懦	-12.9814
铮	-12.9814
槌	-12.9822
チ	-12.9829
淼	-12.9829
帚	-12.9837
婪	-12.9845
犊	-12.9861
苕	-12.9861
ε	-12.9877
坍	-12.9916
鹫	-12.9916
屎	-12.9924
蔼	-12.9956
牒	-12.9964
饯	-12.9964
绦	-12.9995
獭	-13.0027
镬	-13.0027
尴	-13.006
怖	-13.0068
囱	-13.0068
抽	-13.0075
搐	-13.0076
踊	-13.0084
猗	-13.0092
觐	-13.0108
觞	-13.0116
舶	-13.0131
俪	-13.0132
佞	-13.0148
樽	-13.0148
鹄	-13.0148
蛭	-13.0164
苡	-13.0181
尕	-13.0189
砀	-13.0189
鬲	-13.0189
窒	-13.0197
嘟	-13.0205
垅	-13.0205
淅	-13.0213
奂	-13.0221
疙	-13.023
裨	-13.023
髦	-13.023
骞	-13.0246
桀	-13.0262
峥	-13.0262
哄	-13.027
邬	-13.0312
咕	-13.0353
痧	-13.0353
嘿	-13.0361
琮	-13.0361
镯	-13.0386
螳	-13.0394
惮	-13.0411
祗	-13.0411
髯	-13.0411
昀	-13.0428
玑	-13.0428
镉	-13.0444
钡	-13.0453
徕	-13.0461
皈	-13.0461
鲉	-13.0478
猾	-13.0478
ダ	-13.0486
嘶	-13.0486
庠	-13.0494
拮	-13.0503
檗	-13.0503
俚	-13.052
峤	-13.0528
碛	-13.0528
骡	-13.0528
垠	-13.0536
髅	-13.0562
炔	-13.057
哌	-13.0587
坻	-13.0612
瘩	-13.0621
苎	-13.0621
赉	-13.0621
圻	-13.0629
牦	-13.0646
猝	-13.0646
鄢	-13.0646
妞	-13.0663
摒	-13.0681
桉	-13.0681
忿	-13.0689
邈	-13.0689
洵	-13.0698
濉	-13.0706
虢	-13.0706
粕	-13.0715
瓒	-13.0732
菟	-13.0732
蹇	-13.0741
隼	-13.0749
盯	-13.0766
缢	-13.0766
讴	-13.0766
但	-13.0778
б	-13.0801
吝	-13.0836
め	-13.0844
啡	-13.0844
脩	-13.0844
奘	-13.0862
逞	-13.0862
遽	-13.0862
К	-13.0888
湮	-13.0888
羯	-13.0888
椽	-13.0896
頫	-13.0896
А	-13.0905
傀	-13.0905
蜊	-13.0905
缜	-13.0914
轭	-13.0923
衅	-13.0931
铿	-13.0975
ビ	-13.1002
錾	-13.1011
粼	-13.1019
埕	-13.1028
荽	-13.1037
缥	-13.1046
斟	-13.1073
灞	-13.1073
跷	-13.1073
П	-13.1099
煦	-13.1108
簸	-13.1126
沓	-13.1153
蚯	-13.1189
焗	-13.1198
傩	-13.1225
胪	-13.1225
膘	-13.1234
茁	-13.1234
豇	-13.1234
潦	-13.1243
碚	-13.1243
舀	-13.1243
辇	-13.1243
扦	-13.1252
疖	-13.1261
蛰	-13.127
嫣	-13.1279
拽	-13.1279
飓	-13.1288
ズ	-13.1297
堑	-13.1306
蠹	-13.1306
骷	-13.1315
幌	-13.1325
М	-13.1334
掇	-13.1334
舷	-13.1334
湃	-13.1361
觚	-13.1361
暹	-13.137
畦	-13.137
颞	-13.1379
鞣	-13.1389
眙	-13.1398
驸	-13.1398
铛	-13.1407
桅	-13.1416
珈	-13.1416
甥	-13.1425
埂	-13.1444
搽	-13.1453
瞧	-13.1453
飨	-13.1453
>	-13.1476
嘌	-13.1481
瘿	-13.1499
颏	-13.1499
炕	-13.1508
茏	-13.1527
岖	-13.1564
嶙	-13.1574
稔	-13.1574
愍	-13.1602
溏	-13.1602
氦	-13.163
焘	-13.1639
吠	-13.1667
煽	-13.1667
爰	-13.1667
垌	-13.1677
舂	-13.1677
儡	-13.1686
楣	-13.1686
钿	-13.1696
哎	-13.1705
岘	-13.1705
陉	-13.1705
稍	-13.1724
楝	-13.1734
篾	-13.1734
霭	-13.1734
ェ	-13.1743
撩	-13.1743
笏	-13.1743
泷	-13.1762
巖	-13.1791
琰	-13.181
疔	-13.1819
揆	-13.1839
ο	-13.1848
锵	-13.1858
θ	-13.1867
臆	-13.1877
圪	-13.1896
せ	-13.1935
凫	-13.1935
X	-13.1954
阕	-13.1954
挞	-13.1964
矽	-13.1964
飒	-13.1964
诒	-13.1974
浠	-13.1984
冽	-13.1993
徇	-13.1993
疥	-13.2032
砭	-13.2032
钯	-13.2072
莪	-13.2081
洙	-13.2091
瘢	-13.2091
鸪	-13.2091
呋	-13.2101
袒	-13.2111
饨	-13.2111
喔	-13.2141
宥	-13.215
庑	-13.215
喹	-13.216
峋	-13.217
窠	-13.217
袤	-13.218
馄	-13.219
骰	-13.22
叨	-13.225
锢	-13.225
ㄋ	-13.228
珲	-13.228
瓠	-13.228
蜇	-13.228
倔	-13.23
孪	-13.23
缇	-13.23
妩	-13.232
淙	-13.232
薮	-13.232
鼬	-13.232
傈	-13.234
唢	-13.234
涣	-13.2371
矸	-13.2391
犍	-13.2401
雹	-13.2401
腴	-13.2411
麋	-13.2421
卅	-13.2452
榷	-13.2452
讫	-13.2452
涞	-13.2462
悴	-13.2482
琨	-13.2482
鹧	-13.2493
溟	-13.2503
靛	-13.2503
嫦	-13.2513
掳	-13.2513
鲛	-13.2513
荻	-13.2523
揖	-13.2534
丶	-13.2565
苻	-13.2565
蚩	-13.2565
镛	-13.2575
黟	-13.2585
ي	-13.2596
猥	-13.2596
枷	-13.2637
迳	-13.2637
茛	-13.2647
蓖	-13.2658
哟	-13.2679
昶	-13.2679
铉	-13.2679
骠	-13.2679
鬣	-13.2679
嗔	-13.2689
徨	-13.2721
Δ	-13.2731
醮	-13.2731
纨	-13.2742
鹘	-13.2742
簋	-13.2752
歆	-13.2763
蹼	-13.2763
م	-13.2773
拗	-13.2773
昉	-13.2784
醪	-13.2784
髹	-13.2794
啃	-13.2826
颛	-13.2836
驷	-13.2836
鹳	-13.2836
そ	-13.2847
仞	-13.2847
珩	-13.2847
肾	-13.2857
哼	-13.2879
苁	-13.29
噜	-13.2911
菀	-13.2911
掰	-13.2922
抨	-13.2943
迸	-13.2954
録	-13.2975
闇	-13.2975
п	-13.2986
稞	-13.2986
谑	-13.2986
ω	-13.3018
伫	-13.3018
炝	-13.304
骶	-13.304
烬	-13.3051
饬	-13.3062
τ	-13.3083
峄	-13.3083
冼	-13.3105
В	-13.3116
璟	-13.3116
痨	-13.3127
遨	-13.3127
C	-13.3148
ы	-13.3149
翦	-13.3149
罡	-13.316
咚	-13.3171
皙	-13.3171
闱	-13.3182
呱	-13.3182
滘	-13.3203
ハ	-13.3225
啰	-13.3225
ョ	-13.3237
瞭	-13.3237
衄	-13.3237
椁	-13.327
羿	-13.327
拴	-13.3281
鞅	-13.3281
鹗	-13.3281
ど	-13.3303
弑	-13.3325
霏	-13.3336
鼐	-13.3359
饕	-13.337
忤	-13.3415
迢	-13.3426
楫	-13.346
秭	-13.346
轲	-13.346
ر	-13.3471
鲢	-13.3471
汊	-13.3482
苜	-13.3482
饴	-13.3482
杳	-13.3494
箇	-13.3494
琏	-13.3505
Ф	-13.3516
柩	-13.3528
蟋	-13.3528
パ	-13.3562
铍	-13.3562
骐	-13.3562
稗	-13.3584
姗	-13.3584
蓿	-13.3607
馔	-13.3607
牺	-13.3619
圜	-13.3619
蚧	-13.3619
蝽	-13.363
膊	-13.3642
锗	-13.3676
幺	-13.3688
樾	-13.3699
很	-13.3722
幄	-13.3722
ず	-13.3734
泯	-13.3769
恻	-13.3781
鸮	-13.3781
咐	-13.3816
猬	-13.3827
ノ	-13.3839
鲀	-13.3851
惘	-13.3862
涮	-13.3862
孛	-13.3862
擘	-13.3874
堀	-13.3886
嬴	-13.3886
惚	-13.3933
沣	-13.3933
铋	-13.3933
墉	-13.3945
ネ	-13.3957
揪	-13.3957
缂	-13.3957
岬	-13.3969
蛔	-13.3969
釐	-13.3969
逶	-13.3981
η	-13.4004
臾	-13.4004
鸵	-13.4004
繇	-13.4016
訇	-13.404
鞑	-13.4052
羰	-13.4076
聿	-13.4076
甑	-13.4088
瞪	-13.4088
ば	-13.41
煎	-13.4111
吩	-13.4112
嘈	-13.4112
糅	-13.4112
殃	-13.4124
嘘	-13.4136
阉	-13.4136
饧	-13.4148
l	-13.416
咲	-13.416
吒	-13.4173
澍	-13.4173
楸	-13.4185
嵋	-13.4209
氙	-13.4209
疎	-13.4209
鬻	-13.4245
稜	-13.4258
惺	-13.427
铌	-13.4282
溆	-13.4294
傥	-13.4294
咤	-13.4319
ς	-13.4356
皑	-13.4356
槭	-13.4368
囿	-13.4393
馗	-13.4393
埚	-13.4405
淦	-13.4405
이	-13.4418
囧	-13.4443
潟	-13.4443
豕	-13.4443
雒	-13.4455
剽	-13.4468
肫	-13.4505
峯	-13.4518
ν	-13.453
佯	-13.453
姣	-13.453
轸	-13.453
	-13.453
胳	-13.4555
氡	-13.4568
掾	-13.4581
Б	-13.4593
厩	-13.4593
彊	-13.4593
®	-13.4631
幂	-13.4631
钹	-13.4631
绀	-13.4657
螈	-13.4657
Р	-13.4669
鳜	-13.4695
斫	-13.4707
茔	-13.4707
鲲	-13.472
灏	-13.4733
蜍	-13.4733
筮	-13.4746
箩	-13.4746
帙	-13.4759
蟑	-13.4759
ι	-13.4772
坩	-13.4772
猖	-13.4784
乓	-13.4823
囤	-13.4836
蓑	-13.4836
瘰	-13.4849
窿	-13.4862
ن	-13.4875
セ	-13.4888
逋	-13.4888
檩	-13.4901
婕	-13.4914
裟	-13.4914
旻	-13.4927
硐	-13.4927
龋	-13.4927
鸱	-13.494
啬	-13.4966
篁	-13.4966
嚏	-13.498
锶	-13.498
锲	-13.498
骧	-13.4993
喆	-13.5006
萜	-13.5006
谄	-13.5019
蟀	-13.5032
獐	-13.5072
锷	-13.5072
谲	-13.5085
蚬	-13.5112
趺	-13.5112
芗	-13.5125
趴	-13.5125
х	-13.5138
咙	-13.5138
菅	-13.5138
邡	-13.5138
鬟	-13.5138
埼	-13.5178
寳	-13.5178
汩	-13.5178
و	-13.5192
疚	-13.5192
з	-13.5219
ァ	-13.5232
牀	-13.5232
}	-13.524
盥	-13.5246
禛	-13.5246
臊	-13.5246
邾	-13.5246
醌	-13.5259
鲟	-13.5259
祟	-13.5273
阇	-13.5273
愫	-13.53
肼	-13.53
钕	-13.53
憔	-13.5313
砻	-13.5313
诋	-13.5313
阗	-13.5313
蜃	-13.5341
篦	-13.5354
钏	-13.5354
餮	-13.5354
ワ	-13.5368
顼	-13.5368
谌	-13.5395
袈	-13.5409
颢	-13.5409
咧	-13.5423
惆	-13.5423
杲	-13.5436
痂	-13.5436
箧	-13.5436
蚪	-13.5464
鄄	-13.5464
悌	-13.5491
楮	-13.5505
纥	-13.5505
偎	-13.5519
蝌	-13.5519
仡	-13.5533
偁	-13.5547
娣	-13.5561
岌	-13.5561
蛱	-13.5561
糍	-13.5575
袱	-13.5575
钽	-13.5575
娆	-13.5589
铳	-13.5603
搔	-13.5631
珙	-13.5631
闳	-13.5631
蛏	-13.5645
瑄	-13.5659
━	-13.5673
ゅ	-13.5673
掣	-13.5687
邝	-13.5687
碓	-13.5701
诔	-13.5701
戦	-13.5715
赓	-13.5715
镞	-13.5715
垸	-13.5729
珉	-13.5729
洄	-13.5743
熵	-13.5743
杓	-13.5772
崴	-13.5786
窈	-13.5786
槿	-13.58
罘	-13.58
蕈	-13.58
鼹	-13.58
A	-13.5814
谘	-13.5814
k	-13.5814
胛	-13.5814
厣	-13.5829
咆	-13.5829
圮	-13.5829
篝	-13.5843
琬	-13.5857
瘁	-13.5872
膑	-13.5872
莜	-13.5872
瘴	-13.5886
豺	-13.5886
徭	-13.5901
箸	-13.5901
〞	-13.5915
缈	-13.5915
ほ	-13.5929
疬	-13.5929
辋	-13.5929
麼	-13.5929
笆	-13.5944
蒌	-13.5944
崆	-13.5958
霰	-13.5958
懵	-13.5973
焱	-13.5973
o	-13.5973
辔	-13.5987
僭	-13.6002
缄	-13.6016
邗	-13.6016
°	-13.6024
跛	-13.6031
闿	-13.6031
鹟	-13.6031
鲵	-13.606
罄	-13.6075
÷	-13.6104
僮	-13.6104
ツ	-13.6134
柒	-13.6148
穰	-13.6148
n	-13.6163
Н	-13.6163
氵	-13.6163
膦	-13.6178
髂	-13.6178
И	-13.6222
珏	-13.6222
侥	-13.6237
忡	-13.6237
颔	-13.6237
癞	-13.6267
偻	-13.6282
诩	-13.6282
粿	-13.6297
茌	-13.6297
榉	-13.6312
抟	-13.6327
鬭	-13.6327
玳	-13.6342
般	-13.6352
摭	-13.6357
蛉	-13.6357
镊	-13.6357
ふ	-13.6372
▲	-13.6387
唆	-13.6387
嶷	-13.6387
徉	-13.6387
狎	-13.6387
獠	-13.6387
眇	-13.6387
眨	-13.6387
嵴	-13.6402
挈	-13.6402
鹬	-13.6402
牯	-13.6448
棂	-13.6463
鸫	-13.6463
篓	-13.6478
赊	-13.6478
吮	-13.6494
濞	-13.6494
暄	-13.6509
谔	-13.6509
辂	-13.6524
颧	-13.654
璠	-13.6555
膻	-13.657
蛳	-13.657
怆	-13.6586
恙	-13.6617
鲇	-13.6632
ね	-13.6648
渑	-13.6648
魇	-13.6663
ب	-13.6679
慵	-13.6679
椹	-13.6679
谆	-13.6694
秣	-13.6694
仝	-13.6694
剡	-13.6694
亵	-13.671
濬	-13.671
胯	-13.671
谀	-13.671
阊	-13.6726
靼	-13.6726
倜	-13.6741
滹	-13.6757
眦	-13.6757
葭	-13.6757
褂	-13.6757
О	-13.6773
纭	-13.6773
潴	-13.6788
恂	-13.6804
蓥	-13.6804
Т	-13.682
徜	-13.682
婀	-13.6836
鹞	-13.6851
橐	-13.6883
舛	-13.6883
诽	-13.6883
俳	-13.6899
垟	-13.6899
沢	-13.6899
墀	-13.6915
瑁	-13.6915
袄	-13.6915
ケ	-13.6931
霾	-13.6931
ゴ	-13.6947
浄	-13.6947
殓	-13.6995
绾	-13.6995
芊	-13.6995
吲	-13.7011
飚	-13.7011
恸	-13.7027
磴	-13.7059
箬	-13.7059
蒺	-13.7092
隗	-13.7108
奁	-13.7124
镕	-13.7124
ゃ	-13.7141
د	-13.7157
←	-13.7157
氐	-13.7157
燹	-13.7157
Д	-13.7173
孑	-13.7173
撬	-13.7173
郗	-13.7173
娼	-13.7206
佶	-13.7239
挹	-13.7239
栝	-13.7255
缫	-13.7255
啖	-13.7272
濛	-13.7288
蹙	-13.7305
哚	-13.7322
琇	-13.7338
翕	-13.7338
蛆	-13.7338
蹠	-13.7371
噎	-13.7405
砦	-13.7405
惇	-13.7422
刈	-13.7438
棹	-13.7438
腧	-13.7438
裆	-13.7438
旃	-13.7472
襞	-13.7472
咄	-13.7472
赅	-13.7523
谶	-13.754
塍	-13.7557
赀	-13.7557
惋	-13.7574
湫	-13.7574
珥	-13.7574
锹	-13.7608
婶	-13.7642
滂	-13.7642
漉	-13.7642
ぎ	-13.7659
捌	-13.7659
碁	-13.7676
笞	-13.7676
耄	-13.7676
Г	-13.7694
ф	-13.7694
ボ	-13.7694
觊	-13.7694
謇	-13.7694
ヴ	-13.7711
咔	-13.7711
馋	-13.7711
喋	-13.7728
谠	-13.7728
む	-13.7763
婵	-13.7763
窕	-13.7763
纡	-13.7763
S	-13.778
弭	-13.778
炷	-13.778
蹶	-13.778
徂	-13.7797
摺	-13.7797
蒽	-13.7797
鳔	-13.7832
ザ	-13.785
煊	-13.785
麂	-13.785
摈	-13.7867
诤	-13.7867
蚶	-13.7885
杈	-13.7902
倮	-13.792
渌	-13.792
硖	-13.792
谩	-13.7955
辘	-13.7955
朓	-13.7973
眯	-13.7973
爨	-13.7991
鹀	-13.7991
啪	-13.8026
牖	-13.8026
菽	-13.8026
ソ	-13.8044
嗳	-13.8044
橼	-13.8044
铡	-13.8062
狞	-13.8098
隰	-13.8098
↑	-13.8116
掬	-13.8116
搂	-13.8116
狈	-13.8116
乂	-13.8134
俶	-13.8152
槁	-13.8152
酢	-13.8152
晷	-13.817
蕤	-13.8188
蝮	-13.8188
呃	-13.8206
咋	-13.8206
攫	-13.8206
喵	-13.8224
愆	-13.8224
泱	-13.8242
萋	-13.8242
邙	-13.8242
黠	-13.8261
嵯	-13.8279
庖	-13.8315
砜	-13.8334
椴	-13.8334
欤	-13.8334
酗	-13.8334
曷	-13.8352
畹	-13.8352
缟	-13.8352
螽	-13.8352
俦	-13.8371
觑	-13.8389
κ	-13.8407
阚	-13.8407
ぐ	-13.8426
辎	-13.8426
栲	-13.8463
淝	-13.8463
纾	-13.8463
蹴	-13.8482
夼	-13.85
跏	-13.85
酞	-13.85
唔	-13.8519
ψ	-13.8538
ぶ	-13.8538
胍	-13.8538
鲳	-13.8538
郤	-13.8557
嬗	-13.8575
黝	-13.8575
√	-13.8594
彧	-13.8594
讪	-13.8613
宓	-13.8632
榧	-13.8632
蛸	-13.8632
殚	-13.8651
艽	-13.8651
眈	-13.867
郏	-13.867
琯	-13.8689
璎	-13.8689
篙	-13.8708
缶	-13.8708
衾	-13.8708
圹	-13.8727
睽	-13.8727
肮	-13.8727
剞	-13.8746
桷	-13.8746
莨	-13.8765
泔	-13.8765
磡	-13.8765
蚴	-13.8765
鲅	-13.8765
栱	-13.8804
髁	-13.8804
铄	-13.8823
铙	-13.8823
ц	-13.8842
妲	-13.8842
姒	-13.8842
橇	-13.8842
蘅	-13.8842
姝	-13.89
竦	-13.89
ヒ	-13.892
缯	-13.8939
钍	-13.8939
ご	-13.8979
瑗	-13.8979
拄	-13.8998
缰	-13.8998
裾	-13.8998
吱	-13.9018
瘕	-13.9018
馁	-13.9018
苌	-13.9037
ベ	-13.9057
跸	-13.9057
「	-13.9059
橹	-13.9077
蜱	-13.9097
顗	-13.9117
啾	-13.9136
嗨	-13.9136
殒	-13.9136
蹑	-13.9136
P	-13.9156
缛	-13.9156
豢	-13.9156
颡	-13.9156
浯	-13.9176
鲮	-13.9176
酊	-13.9196
箓	-13.9216
杼	-13.9236
虺	-13.9236
镓	-13.9236
黒	-13.9236
鼾	-13.9236
伉	-13.9257
尻	-13.9257
屐	-13.9257
胴	-13.9257
饽	-13.9257
ヤ	-13.9297
旄	-13.9297
椤	-13.9297
郾	-13.9297
卍	-13.9317
垓	-13.9317
璘	-13.9317
葳	-13.9317
硚	-13.9337
囯	-13.9358
垤	-13.9358
缬	-13.9358
ة	-13.9378
匏	-13.9378
徼	-13.9378
蒯	-13.9378
恚	-13.9419
竜	-13.944
翥	-13.944
蜷	-13.944
诜	-13.944
勖	-13.946
胗	-13.946
铗	-13.946
堍	-13.9481
佝	-13.9501
否	-13.9505
O	-13.9522
唧	-13.9522
嚷	-13.9522
鹜	-13.9563
艹	-13.9584
蠲	-13.9584
溱	-13.9605
笄	-13.9605
翚	-13.9605
胨	-13.9605
蚱	-13.9605
蜢	-13.9605
楯	-13.9626
籀	-13.9626
虽	-13.9638
缗	-13.9647
芨	-13.9647
玥	-13.9668
醍	-13.9668
骜	-13.9668
枧	-13.9689
瞽	-13.9689
縻	-13.9689
佺	-13.971
徧	-13.971
舔	-13.971
鹩	-13.971
扪	-13.9731
疠	-13.9731
県	-13.9731
菰	-13.9731
襦	-13.9731
嘹	-13.9773
镳	-13.9773
哒	-13.9794
坭	-13.9837
蓣	-13.9837
铑	-13.9837
漈	-13.9858
潋	-13.9858
莼	-13.9858
ㄦ	-13.988
啜	-13.988
巯	-13.988
抠	-13.9901
捅	-13.9901
鲎	-13.9901
ピ	-13.9923
呗	-13.9923
樗	-13.9944
婧	-13.9966
懊	-13.9966
。	-13.9975
噢	-13.9988
欹	-13.9988
铧	-13.9988
鄯	-13.9988
晗	-14.0009
貉	-14.0009
枨	-14.0031
琚	-14.0075
蓍	-14.0075
氲	-14.0097
蹂	-14.0097
滏	-14.0118
苈	-14.0118
藐	-14.014
س	-14.0162
缁	-14.0162
蓦	-14.0162
裏	-14.0162
铱	-14.0162
闼	-14.0162
愣	-14.0162
ギ	-14.0185
妫	-14.0185
埙	-14.0207
嵬	-14.0207
戢	-14.0207
怔	-14.0229
瞑	-14.0251
愕	-14.0273
憋	-14.0273
桠	-14.0273
韫	-14.0273
F	-14.0296
ォ	-14.0296
訾	-14.0296
吨	-14.0301
า	-14.0318
戗	-14.0318
曩	-14.0318
糸	-14.0318
铤	-14.0318
鳟	-14.0318
̇	-14.034
崽	-14.034
戡	-14.034
獗	-14.034
Л	-14.0363
嗡	-14.0363
笳	-14.0363
豸	-14.0363
鹂	-14.0363
遑	-14.0385
阂	-14.0385
怙	-14.0408
衽	-14.0431
掸	-14.0453
晞	-14.0453
祢	-14.0453
纔	-14.0453
茼	-14.0453
菔	-14.0453
郜	-14.0453
您	-14.0467
忝	-14.0476
瞥	-14.0476
邠	-14.0476
呷	-14.0499
螅	-14.0499
Đ	-14.0522
刎	-14.0522
堃	-14.0522
卟	-14.0545
垴	-14.0545
蹿	-14.0545
瑀	-14.0567
菘	-14.0567
螫	-14.0567
D	-14.059
墒	-14.059
铟	-14.059
呛	-14.0614
呻	-14.0614
ш	-14.0637
叽	-14.0637
泞	-14.0637
獾	-14.0637
盦	-14.0637
鳢	-14.0637
恁	-14.066
锟	-14.066
i	-14.0683
嗯	-14.0683
旸	-14.0683
蹭	-14.0683
∈	-14.0706
樨	-14.0706
蝈	-14.0706
赝	-14.073
铯	-14.073
锛	-14.073
ポ	-14.0753
孳	-14.0753
滗	-14.0753
鏊	-14.0753
昴	-14.0776
汜	-14.0776
唉	-14.08
櫆	-14.08
睨	-14.08
怛	-14.0823
砝	-14.0823
泺	-14.0847
邰	-14.0871
蛄	-14.0894
胝	-14.0918
菴	-14.0918
豳	-14.0918
浃	-14.0942
衲	-14.0942
げ	-14.0966
槲	-14.0966
沤	-14.0966
荜	-14.099
啧	-14.1014
寤	-14.1014
峁	-14.1014
蔸	-14.1014
詈	-14.1014
麴	-14.1014
噤	-14.1038
妤	-14.1038
绡	-14.1062
舸	-14.1062
蕻	-14.1062
鼩	-14.1062
搀	-14.1086
肟	-14.1086
ɡ	-14.111
孀	-14.111
骛	-14.111
び	-14.1134
觎	-14.1134
磻	-14.1159
ع	-14.1183
薤	-14.1183
妪	-14.1257
禳	-14.1257
雎	-14.1257
駅	-14.1257
瓘	-14.1281
鄣	-14.1281
桫	-14.1306
蝼	-14.1306
鏖	-14.1306
鹈	-14.1306
ร	-14.1331
帏	-14.1331
蹋	-14.1331
鹪	-14.1355
茆	-14.1355
鲩	-14.1355
洹	-14.138
笥	-14.138
醐	-14.138
鲂	-14.138
鸨	-14.138
腆	-14.1405
蔫	-14.1405
蜉	-14.1405
抡	-14.143
玠	-14.143
鳐	-14.143
枥	-14.1455
瘪	-14.1455
绂	-14.1455
钇	-14.1455
蹉	-14.1455
姫	-14.148
悫	-14.148
璩	-14.1506
驽	-14.1506
倏	-14.1531
诧	-14.1531
骖	-14.1531
鷟	-14.1531
ざ	-14.1556
燔	-14.1556
玷	-14.1556
躇	-14.1582
迨	-14.1582
衿	-14.1607
?	-14.1611
滟	-14.1633
砣	-14.1633
虻	-14.1633
鞫	-14.1633
霎	-14.1658
a	-14.1684
拏	-14.1684
犒	-14.1684
翮	-14.1684
莠	-14.1684
鲠	-14.1684
嚎	-14.1709
爿	-14.1709
鲭	-14.1709
へ	-14.1735
莳	-14.1735
镫	-14.1735
仃	-14.1761
碴	-14.1761
诳	-14.1761
×	-14.1773
珣	-14.1787
绉	-14.1787
覩	-14.1865
诟	-14.1865
徳	-14.1891
狰	-14.1891
缦	-14.1891
趸	-14.1891
駰	-14.1891
圉	-14.1918
氤	-14.1918
溲	-14.1918
黼	-14.1944
●	-14.1967
υ	-14.197
卣	-14.197
蝾	-14.197
躏	-14.197
拚	-14.1997
瓿	-14.1997
铈	-14.1997
踌	-14.2023
卮	-14.2023
浐	-14.2023
嬛	-14.205
阏	-14.205
蒗	-14.2077
挎	-14.2077
锴	-14.2077
ح	-14.2103
∞	-14.2103
埗	-14.2103
熘	-14.2103
瘗	-14.2103
鹛	-14.2103
B	-14.213
〜	-14.213
叼	-14.213
啭	-14.213
嫖	-14.213
赧	-14.213
呦	-14.2157
捂	-14.2157
狒	-14.2157
ユ	-14.2184
叻	-14.2184
柰	-14.2184
碲	-14.2184
谵	-14.2184
閤	-14.2184
麽	-14.2184
垡	-14.2211
揩	-14.2211
唠	-14.2238
嬷	-14.2238
沩	-14.2238
髌	-14.2238
鲱	-14.2238
噫	-14.2292
雩	-14.2292
唛	-14.232
媪	-14.232
拎	-14.232
隈	-14.2347
颦	-14.2347
唬	-14.2375
焓	-14.2375
N	-14.2402
べ	-14.2402
ゲ	-14.2402
罍	-14.2402
霈	-14.2402
鼋	-14.2402
¢	-14.243
侪	-14.243
镦	-14.2485
鰕	-14.2485
浍	-14.2513
魟	-14.2513
仫	-14.2541
지	-14.2541
垱	-14.2569
趵	-14.2569
凼	-14.2597
嗦	-14.2597
驺	-14.2597
昺	-14.2625
臬	-14.2625
靥	-14.2625
鳊	-14.2625
喳	-14.2654
玟	-14.2654
祎	-14.2654
荏	-14.2654
嗤	-14.2682
帑	-14.2682
拊	-14.2682
荑	-14.2682
蝰	-14.2682
鸰	-14.2682
窨	-14.271
绔	-14.271
苫	-14.271
〝	-14.2739
奭	-14.2739
'	-14.275
戸	-14.2767
筌	-14.2767
葑	-14.2767
鸬	-14.2767
도	-14.2767
洌	-14.2796
鋬	-14.2796
镝	-14.2796
郛	-14.2825
觥	-14.2854
대	-14.2854
扃	-14.2883
殄	-14.2883
嬅	-14.2911
暝	-14.2941
絜	-14.2941
缵	-14.2941
薷	-14.2941
蘇	-14.2941
骢	-14.2941
垵	-14.297
氘	-14.297
耨	-14.297
郄	-14.297
懑	-14.2999
秕	-14.2999
h	-14.3028
倞	-14.3028
缍	-14.3028
聒	-14.3028
菡	-14.3028
髀	-14.3028
赍	-14.3058
铊	-14.3058
骺	-14.3058
鮨	-14.3058
屌	-14.3087
洎	-14.3087
嗷	-14.3117
佻	-14.3117
寃	-14.3117
屦	-14.3117
悱	-14.3117
淛	-14.3117
砒	-14.3117
萆	-14.3117
아	-14.3117
ت	-14.3146
捎	-14.3146
誊	-14.3146
贶	-14.3146
遯	-14.3146
嗒	-14.3176
寔	-14.3176
诹	-14.3176
遘	-14.3176
镒	-14.3176
唏	-14.3206
讎	-14.3206
颙	-14.3206
鹚	-14.3206
洺	-14.3236
儁	-14.3236
喽	-14.3236
籴	-14.3236
逄	-14.3236
荦	-14.3296
淠	-14.3326
牝	-14.3326
穑	-14.3326
鳙	-14.3326
埤	-14.3357
怂	-14.3357
晌	-14.3357
痱	-14.3357
耜	-14.3357
髭	-14.3357
̊	-14.3387
噱	-14.3387
妣	-14.3387
涑	-14.3387
膂	-14.3387
鲽	-14.3387
黉	-14.3387
侑	-14.3418
槊	-14.3418
阃	-14.3418
黻	-14.3418
한	-14.3418
噌	-14.3448
沆	-14.3448
湜	-14.3448
碶	-14.3448
耋	-14.3448
陔	-14.3448
麈	-14.3448
孱	-14.3479
糗	-14.3479
钲	-14.3479
น	-14.351
−	-14.351
瀬	-14.351
鳉	-14.351
亻	-14.354
嘀	-14.354
犄	-14.354
逖	-14.354
骝	-14.354
滢	-14.3571
悭	-14.3571
榖	-14.3602
碇	-14.3602
罴	-14.3602
∕	-14.3634
廝	-14.3634
廨	-14.3634
竑	-14.3634
筲	-14.3634
袴	-14.3634
鲆	-14.3634
囗	-14.3665
埝	-14.3665
炅	-14.3665
燊	-14.3665
鹡	-14.3665
砬	-14.3696
砰	-14.3696
陬	-14.3696
雠	-14.3696
吆	-14.3728
堌	-14.3728
瞠	-14.3728
讵	-14.3728
躅	-14.3728
ˉ	-14.3759
柽	-14.3759
粧	-14.3759
埵	-14.3791
芈	-14.3791
钚	-14.3791
髡	-14.3791
捋	-14.3823
亓	-14.3854
甪	-14.3854
裒	-14.3854
鼯	-14.3854
*	-14.3866
埇	-14.3886
煇	-14.3886
蝥	-14.3886
轫	-14.3886
埒	-14.3918
蓇	-14.3918
樯	-14.3951
亶	-14.3983
葖	-14.3983
襁	-14.3983
跺	-14.3983
锏	-14.3983
L	-14.4015
倬	-14.4015
凪	-14.4015
炱	-14.4015
≠	-14.4048
玕	-14.4048
簟	-14.4048
蘧	-14.408
堞	-14.408
鬯	-14.408
桎	-14.4113
藨	-14.4113
고	-14.4113
廛	-14.4146
珅	-14.4146
笕	-14.4179
ư	-14.4179
愔	-14.4179
抃	-14.4179
焜	-14.4179
菪	-14.4179
ホ	-14.4212
癔	-14.4212
郇	-14.4212
∮	-14.4245
喟	-14.4245
喾	-14.4245
褓	-14.4245
貘	-14.4245
颀	-14.4245
▪	-14.4278
惦	-14.4278
蠖	-14.4278
偓	-14.4311
唁	-14.4311
і	-14.4345
岿	-14.4345
洧	-14.4345
烝	-14.4345
肓	-14.4345
賸	-14.4345
酆	-14.4345
u	-14.4345
劼	-14.4378
慝	-14.4378
艏	-14.4378
逦	-14.4378
鸻	-14.4378
나	-14.4378
어	-14.4378
Х	-14.4412
∑	-14.4412
炁	-14.4412
蚵	-14.4412
訄	-14.4412
ペ	-14.4446
旒	-14.4446
畋	-14.4446
珺	-14.448
赜	-14.448
G	-14.4514
劵	-14.4514
哙	-14.4514
嘏	-14.4514
崤	-14.4514
사	-14.4514
啻	-14.4548
蓊	-14.4548
袪	-14.4548
趼	-14.4548
김	-14.4548
氚	-14.4582
绌	-14.4582
跣	-14.4582
肪	-14.4616
岢	-14.4616
粜	-14.4616
苒	-14.4616
凇	-14.4651
怏	-14.4651
缣	-14.4651
诮	-14.4651
踹	-14.4651
銎	-14.4651
覈	-14.4685
跎	-14.4685
咩	-14.472
姹	-14.472
鍊	-14.472
가	-14.472
筚	-14.4755
恿	-14.4755
棻	-14.4755
聃	-14.4755
정	-14.4755
毘	-14.479
沏	-14.4825
磙	-14.4825
梿	-14.486
毽	-14.486
炆	-14.486
镧	-14.486
龊	-14.486
梏	-14.4896
毬	-14.4896
跚	-14.4896
鳏	-14.4896
睬	-14.4931
箅	-14.4931
聩	-14.4931
苾	-14.4931
鞮	-14.4931
鲡	-14.4931
畑	-14.4967
痼	-14.4967
粄	-14.4967
缑	-14.4967
吭	-14.5002
桴	-14.5002
湎	-14.5002
澶	-14.5002
竽	-14.5002
氾	-14.5002
ί	-14.5038
彘	-14.5038
捭	-14.5038
ệ	-14.5074
厍	-14.5074
铐	-14.5074
箜	-14.511
臃	-14.511
闩	-14.511
ぼ	-14.5147
刽	-14.5147
哽	-14.5147
怿	-14.5147
棨	-14.5147
泐	-14.5147
瓌	-14.5147
邴	-14.5147
e	-14.5147
埽	-14.5183
弇	-14.5183
弢	-14.5183
磔	-14.5183
讦	-14.5183
逯	-14.5183
倨	-14.5219
咿	-14.5219
帔	-14.5219
洸	-14.5219
狷	-14.5219
畊	-14.5219
褫	-14.5219
郃	-14.5219
다	-14.5219
叡	-14.5256
恵	-14.5256
椋	-14.5256
篌	-14.5256
腼	-14.5256
讧	-14.5256
鲔	-14.5256
浈	-14.5256
偌	-14.5293
鄜	-14.5293
彖	-14.533
瑭	-14.533
罅	-14.533
齎	-14.533
硇	-14.533
胼	-14.533
ö	-14.5367
喫	-14.5367
戬	-14.5367
桕	-14.5404
溷	-14.5404
狍	-14.5404
睇	-14.5404
腠	-14.5404
ف	-14.5441
芟	-14.5441
龌	-14.5441
哏	-14.5516
桄	-14.5516
蒾	-14.5516
醅	-14.5516
ł	-14.5554
々	-14.5554
楽	-14.5554
缃	-14.5554
铖	-14.5554
鹎	-14.5554
夤	-14.5592
盉	-14.5592
조	-14.5592
伝	-14.563
媾	-14.563
崞	-14.563
诨	-14.563
=	-14.5631
儆	-14.5668
嘤	-14.5668
帻	-14.5668
栌	-14.5668
涔	-14.5668
艿	-14.5668
荛	-14.5668
跄	-14.5668
鳚	-14.5668
鸩	-14.5668
鸶	-14.5668
剜	-14.5706
夥	-14.5706
嵛	-14.5706
嶝	-14.5706
蒐	-14.5706
蓁	-14.5706
骘	-14.5706
倌	-14.5745
杪	-14.5745
瑷	-14.5783
睥	-14.5783
리	-14.5783
R	-14.5822
揍	-14.5822
禊	-14.5822
づ	-14.5861
岜	-14.5861
疋	-14.5861
疴	-14.5861
墘	-14.59
黥	-14.59
ゼ	-14.5939
煖	-14.5939
耷	-14.5939
驩	-14.5939
啫	-14.5979
芘	-14.5979
鵟	-14.5979
桯	-14.6018
萁	-14.6018
袢	-14.6018
襃	-14.6018
赟	-14.6018
鸲	-14.6018
惴	-14.6058
泚	-14.6058
蹒	-14.6058
E	-14.6098
洩	-14.6098
瓴	-14.6098
糁	-14.6098
绗	-14.6098
菝	-14.6098
巉	-14.6138
慙	-14.6138
犭	-14.6138
犸	-14.6138
刳	-14.6178
愦	-14.6178
瞌	-14.6178
郅	-14.6178
酃	-14.6178
榘	-14.6218
罟	-14.6218
觇	-14.6218
ั	-14.6259
圄	-14.6259
圯	-14.6259
搦	-14.6259
烊	-14.6259
醺	-14.6259
喑	-14.6299
氹	-14.6299
罽	-14.6299
脿	-14.6299
愠	-14.634
翫	-14.634
葚	-14.634
鲻	-14.634
匜	-14.6381
氖	-14.6381
镏	-14.6381
〃	-14.6422
棰	-14.6422
玦	-14.6422
甓	-14.6422
皲	-14.6422
籥	-14.6422
Σ	-14.6464
♂	-14.6464
囡	-14.6464
戕	-14.6464
蚺	-14.6464
의	-14.6464
+	-14.6471
撅	-14.6505
蛐	-14.6505
蝣	-14.6505
醯	-14.6505
시	-14.6505
ه	-14.6547
牂	-14.6547
萩	-14.6547
褊	-14.6547
Е	-14.6589
垃	-14.6589
摅	-14.6589
暐	-14.6589
泫	-14.6589
甗	-14.6589
纍	-14.6589
馑	-14.6589
黩	-14.6589
하	-14.6589
堠	-14.6631
屺	-14.6631
笪	-14.6631
胙	-14.6631
铷	-14.6631
～	-14.6647
χ	-14.6673
≦	-14.6673
効	-14.6673
娉	-14.6673
実	-14.6673
蔹	-14.6673
̈	-14.6715
楩	-14.6715
秫	-14.6715
緜	-14.6715
绺	-14.6715
鳎	-14.6715
ش	-14.6758
舐	-14.6758
荩	-14.6758
ج	-14.6801
杌	-14.6801
気	-14.6801
漭	-14.6801
茈	-14.6801
埴	-14.6844
谮	-14.6844
邶	-14.6844
垆	-14.6887
孖	-14.6887
纛	-14.6887
辻	-14.6887
醢	-14.6887
镲	-14.6887
窅	-14.6887
朊	-14.693
哔	-14.693
盤	-14.693
讣	-14.693
遛	-14.693
성	-14.693
愎	-14.693
H	-14.6973
ə	-14.6973
ё	-14.6973
อ	-14.6973
佾	-14.6973
坼	-14.6973
鲃	-14.6973
♀	-14.7017
ヨ	-14.7017
哕	-14.7017
燿	-14.7017
癃	-14.7017
逡	-14.7017
邋	-14.7017
垕	-14.7061
毳	-14.7061
瞋	-14.7061
笮	-14.7061
箪	-14.7061
葜	-14.7061
觌	-14.7061
旂	-14.7105
珧	-14.7105
畀	-14.7105
畠	-14.7105
蕖	-14.7105
貔	-14.7105
黾	-14.7105
猇	-14.7149
鲣	-14.7149
ю	-14.7194
≧	-14.7194
劬	-14.7194
盍	-14.7194
簕	-14.7194
俣	-14.7238
喈	-14.7238
岽	-14.7238
薢	-14.7238
橛	-14.7283
ά	-14.7328
唳	-14.7328
泅	-14.7328
薜	-14.7328
髫	-14.7328
鹨	-14.7328
Α	-14.7373
ย	-14.7373
勅	-14.7373
怵	-14.7373
嗑	-14.7419
刖	-14.7419
彀	-14.7419
斝	-14.7419
桤	-14.7419
锜	-14.7419
인	-14.7419
주	-14.7419
t	-14.7419
З	-14.7465
叵	-14.7465
囹	-14.7465
怦	-14.7465
仍	-14.748
飧	-14.751
伋	-14.751
揄	-14.751
撂	-14.751
窣	-14.751
艸	-14.751
선	-14.751
Ο	-14.7557
ม	-14.7557
仵	-14.7557
扆	-14.7557
沚	-14.7557
浉	-14.7557
畛	-14.7557
蒟	-14.7557
踯	-14.7557
ı	-14.7603
ก	-14.7603
坌	-14.7603
泖	-14.7603
畚	-14.7603
茕	-14.7603
鴷	-14.7603
丨	-14.7649
柃	-14.7649
珽	-14.7649
眄	-14.7649
酩	-14.7649
牋	-14.7696
畤	-14.7696
蛴	-14.7696
蹻	-14.7696
饸	-14.7696
忐	-14.7743
屍	-14.7743
様	-14.7743
疒	-14.7743
瘵	-14.7743
诿	-14.7743
饩	-14.7743
는	-14.7743
铼	-14.779
鬘	-14.779
s	-14.779
เ	-14.7838
瘥	-14.7838
発	-14.7838
茇	-14.7838
饹	-14.7838
鲹	-14.7838
ζ	-14.7885
忑	-14.7885
扞	-14.7885
捱	-14.7885
烜	-14.7885
篠	-14.7885
舄	-14.7885
薙	-14.7885
蜩	-14.7885
逑	-14.7885
U	-14.7885
ä	-14.7933
ạ	-14.7933
冏	-14.7933
咛	-14.7933
寘	-14.7933
忄	-14.7933
憍	-14.7933
椪	-14.7933
璿	-14.7933
祔	-14.7933
蠃	-14.7933
谳	-14.7933
י	-14.7981
侩	-14.7981
幞	-14.7981
撵	-14.7981
関	-14.7981
š	-14.8029
乜	-14.8029
圾	-14.8029
攥	-14.8029
汧	-14.8029
筼	-14.8029
荇	-14.8029
蒹	-14.8029
鵙	-14.8029
ز	-14.8078
傒	-14.8078
厓	-14.8078
屣	-14.8078
幛	-14.8078
瑠	-14.8078
篑	-14.8078
蝓	-14.8078
轳	-14.8078
栃	-14.8127
ゾ	-14.8127
擞	-14.8127
瘸	-14.8127
遢	-14.8127
閟	-14.8127
僰	-14.8176
囟	-14.8176
坜	-14.8176
壻	-14.8176
復	-14.8176
晳	-14.8176
殳	-14.8176
绻	-14.8176
潸	-14.8176
蒨	-14.8225
靺	-14.8225
吖	-14.8275
扌	-14.8275
煳	-14.8275
瞀	-14.8275
铫	-14.8275
서	-14.8275
円	-14.8324
搴	-14.8324
炘	-14.8324
蛲	-14.8324
説	-14.8324
鲥	-14.8324
국	-14.8324
亹	-14.8374
悒	-14.8374
椟	-14.8374
瀍	-14.8374
矧	-14.8374
笊	-14.8374
缱	-14.8374
腘	-14.8374
阍	-14.8374
ό	-14.8425
噗	-14.8425
嬖	-14.8425
玢	-14.8425
礽	-14.8425
蒻	-14.8425
豊	-14.8425
일	-14.8425
兕	-14.8425
剣	-14.8475
団	-14.8475
猊	-14.8475
轵	-14.8475
遹	-14.8475
鞨	-14.8475
廻	-14.8526
査	-14.8526
禋	-14.8526
鲕	-14.8526
龢	-14.8526
ิ	-14.8577
勑	-14.8577
勗	-14.8577
崀	-14.8577
慊	-14.8577
舾	-14.8577
邽	-14.8577
镣	-14.8577
馓	-14.8577
鴈	-14.8577
;	-14.861
ố	-14.8628
∽	-14.8628
俛	-14.8628
悛	-14.8628
抿	-14.8628
珰	-14.8628
窳	-14.8628
脷	-14.8628
鳇	-14.8628
게	-14.8628
侔	-14.868
巻	-14.868
桜	-14.868
衞	-14.868
飏	-14.868
鹕	-14.868
佉	-14.8731
摁	-14.8731
柝	-14.8731
栒	-14.8731
翀	-14.8731
诎	-14.8731
기	-14.8731
俅	-14.8784
嗝	-14.8784
巿	-14.8784
祧	-14.8784
赳	-14.8784
酺	-14.8784
민	-14.8784
우	-14.8784
枰	-14.8836
溇	-14.8836
絷	-14.8836
蚨	-14.8836
谰	-14.8836
阝	-14.8836
湓	-14.8836
‘	-14.8884
懔	-14.8889
蛞	-14.8889
飕	-14.8889
鹇	-14.8889
ơ	-14.8941
咂	-14.8941
掂	-14.8941
梶	-14.8941
豨	-14.8941
鸷	-14.8941
라	-14.8941
対	-14.8995
恫	-14.8995
澥	-14.8995
獣	-14.8995
瞅	-14.8995
纮	-14.8995
醣	-14.8995
鉄	-14.8995
鉏	-14.8995
鹱	-14.8995
신	-14.8995
伢	-14.9048
堙	-14.9048
攟	-14.9048
踉	-14.9048
骀	-14.9048
藦	-14.9048
栳	-14.9102
滉	-14.9102
筜	-14.9102
艉	-14.9102
镠	-14.9102
郪	-14.9156
ć	-14.9156
埏	-14.9156
峇	-14.9156
斲	-14.9156
檎	-14.9156
炤	-14.9156
祓	-14.9156
褛	-14.9156
貊	-14.9156
辏	-14.9156
锝	-14.9156
馐	-14.9156
髎	-14.9156
r	-14.9156
ヘ	-14.921
哂	-14.921
喏	-14.921
嫘	-14.921
椠	-14.921
茀	-14.921
讌	-14.921
K	-14.9265
噙	-14.9265
栢	-14.9265
楦	-14.9265
氪	-14.9265
燠	-14.9265
觏	-14.9265
Π	-14.932
゚	-14.932
抻	-14.932
犰	-14.932
獬	-14.932
蠊	-14.932
酹	-14.932
隹	-14.932
黧	-14.932
ă	-14.9375
孥	-14.9375
柢	-14.9375
狳	-14.9375
皞	-14.9375
蜞	-14.9375
摞	-14.9431
迓	-14.9431
饔	-14.9431
鲌	-14.9431
영	-14.9431
嶋	-14.9431
ξ	-14.9487
ぬ	-14.9487
囷	-14.9487
塆	-14.9487
笹	-14.9487
讙	-14.9487
钐	-14.9487
원	-14.9487
Я	-14.9543
ぞ	-14.9543
倅	-14.9543
嗲	-14.9543
菑	-14.9543
魑	-14.9543
呓	-14.9599
壎	-14.9599
槠	-14.9599
溼	-14.9599
縠	-14.9599
踬	-14.9599
铪	-14.9599
颋	-14.9599
鲊	-14.9599
鲧	-14.9599
	-14.9599
媵	-14.9656
昝	-14.9656
歛	-14.9656
氅	-14.9656
浞	-14.9656
簌	-14.9656
翈	-14.9656
茚	-14.9656
蛩	-14.9656
妬	-14.9713
栊	-14.9713
痍	-14.9713
脣	-14.9713
酽	-14.9713
钅	-14.9713
麤	-14.9713
鼍	-14.9713
수	-14.9713
해	-14.9713
〓	-14.9771
戆	-14.9771
涠	-14.9771
蓐	-14.9771
褰	-14.9771
로	-14.9771
菉	-14.9828
Ш	-14.9828
嗉	-14.9828
捩	-14.9828
燋	-14.9828
狨	-14.9828
蕺	-14.9828
隳	-14.9828
은	-14.9828
”	-14.9879
搆	-14.9887
擿	-14.9887
瀹	-14.9887
磜	-14.9887
纁	-14.9887
薳	-14.9887
讬	-14.9887
鑪	-14.9887
阼	-14.9887
魉	-14.9887
溘	-14.9945
檠	-14.9945
魍	-14.9945
ط	-15.0004
ế	-15.0004
樘	-15.0004
穂	-15.0004
闘	-15.0004
旰	-15.0063
č	-15.0063
Κ	-15.0063
ộ	-15.0063
嫚	-15.0063
撝	-15.0063
栻	-15.0063
纰	-15.0063
貅	-15.0063
鮀	-15.0063
鮰	-15.0063
ו	-15.0123
ậ	-15.0123
∩	-15.0123
掼	-15.0123
摛	-15.0123
昃	-15.0123
漶	-15.0123
螬	-15.0123
鱇	-15.0123
ả	-15.0182
忉	-15.0182
甍	-15.0182
缋	-15.0182
脒	-15.0182
钆	-15.0182
颃	-15.0182
搢	-15.0243
棼	-15.0243
玎	-15.0243
簠	-15.0243
鹮	-15.0243
ว	-15.0303
悝	-15.0303
犴	-15.0303
芑	-15.0303
蔵	-15.0303
蜣	-15.0303
觜	-15.0303
钫	-15.0303
颺	-15.0303
보	-15.0303
潆	-15.0364
篪	-15.0364
貍	-15.0364
遶	-15.0364
挲	-15.0426
柊	-15.0426
湔	-15.0426
猁	-15.0426
衩	-15.0426
鎔	-15.0426
锔	-15.0426
에	-15.0426
∧	-15.0487
愬	-15.0487
晡	-15.0487
暠	-15.0487
洫	-15.0487
矍	-15.0487
鹁	-15.0487
ง	-15.0549
寖	-15.0549
枹	-15.0549
甃	-15.0549
皁	-15.0549
絵	-15.0549
郞	-15.0549
ô	-15.0612
冴	-15.0612
湉	-15.0612
眚	-15.0612
豔	-15.0612
隣	-15.0612
饫	-15.0612
鮟	-15.0612
蚰	-15.0675
ส	-15.0675
啁	-15.0675
忖	-15.0675
旆	-15.0675
濩	-15.0675
绐	-15.0675
b	-15.0738
↘	-15.0738
岞	-15.0738
旮	-15.0738
昇	-15.0738
笫	-15.0738
舁	-15.0738
芃	-15.0738
鲐	-15.0738
스	-15.0738
另	-15.0777
嚓	-15.0802
挢	-15.0802
揿	-15.0802
歩	-15.0802
洑	-15.0802
瑱	-15.0802
疍	-15.0802
諡	-15.0802
钌	-15.0802
餘	-15.0802
馘	-15.0802
庹	-15.0866
喁	-15.0866
墻	-15.0866
広	-15.0866
廕	-15.0866
敍	-15.0866
跂	-15.0866
鲋	-15.0866
忪	-15.093
沄	-15.093
犟	-15.093
猞	-15.093
禘	-15.093
纻	-15.093
谡	-15.093
鎓	-15.093
韪	-15.093
랑	-15.093
侂	-15.0995
埸	-15.0995
棊	-15.0995
瓞	-15.0995
砗	-15.0995
紘	-15.0995
菈	-15.0995
蕹	-15.0995
藭	-15.0995
遄	-15.0995
梣	-15.1061
殛	-15.1061
洊	-15.1061
筇	-15.1061
籙	-15.1061
蠓	-15.1061
辺	-15.1061
酤	-15.1061
鲚	-15.1061
ễ	-15.1127
槅	-15.1127
纩	-15.1127
蚋	-15.1127
垚	-15.1193
巘	-15.1193
硎	-15.1193
紵	-15.1193
舢	-15.1193
蹩	-15.1193
馃	-15.1193
너	-15.1193
동	-15.1193
伧	-15.1259
咻	-15.1259
唵	-15.1259
塱	-15.1259
悃	-15.1259
慥	-15.1259
痠	-15.1259
癯	-15.1259
翙	-15.1259
锇	-15.1259
魃	-15.1259
踽	-15.1259
乩	-15.1327
簃	-15.1327
绠	-15.1327
耧	-15.1327
躄	-15.1327
齑	-15.1327
瀼	-15.1394
▼	-15.1394
梃	-15.1394
滠	-15.1394
睺	-15.1394
竝	-15.1394
翃	-15.1394
赙	-15.1394
忾	-15.1462
榊	-15.1462
檫	-15.1462
殂	-15.1462
犇	-15.1462
疰	-15.1462
穉	-15.1462
絺	-15.1462
橦	-15.1531
歃	-15.1531
蹀	-15.1531
躔	-15.1531
霊	-15.1531
鹖	-15.1531
ş	-15.16
僇	-15.16
呪	-15.16
庋	-15.16
櫂	-15.16
渫	-15.16
瘖	-15.16
褡	-15.16
馕	-15.16
ç	-15.1669
ぽ	-15.1669
䓖	-15.1669
仮	-15.1669
僦	-15.1669
榇	-15.1669
盹	-15.1669
睚	-15.1669
脔	-15.1669
衎	-15.1669
踱	-15.1669
轺	-15.1669
안	-15.1669
锱	-15.1669
伛	-15.1739
吽	-15.1739
燄	-15.1739
皤	-15.1739
筭	-15.1739
脞	-15.1739
藠	-15.1739
鸊	-15.1739
麿	-15.1739
구	-15.1739
旯	-15.1809
燐	-15.1809
畎	-15.1809
眞	-15.1809
祲	-15.1809
諲	-15.1809
镈	-15.1809
陴	-15.1809
仉	-15.188
倕	-15.188
岵	-15.188
箝	-15.188
菓	-15.188
菹	-15.188
輶	-15.188
飡	-15.188
ɑ	-15.1952
έ	-15.1952
∣	-15.1952
俤	-15.1952
勣	-15.1952
堽	-15.1952
歳	-15.1952
澌	-15.1952
焞	-15.1952
裥	-15.1952
诶	-15.1952
踣	-15.1952
鲴	-15.1952
鳾	-15.1952
상	-15.1952
자	-15.1952
ด	-15.2024
ầ	-15.2024
偲	-15.2024
卽	-15.2024
咭	-15.2024
壸	-15.2024
変	-15.2024
晧	-15.2024
臌	-15.2024
钋	-15.2024
闍	-15.2024
्	-15.2096
ล	-15.2096
ุ	-15.2096
罾	-15.2096
躭	-15.2096
鹓	-15.2096
경	-15.2096
진	-15.2096
ك	-15.2169
璫	-15.2169
眊	-15.2169
蘼	-15.2169
譌	-15.2169
ห	-15.2243
媿	-15.2243
廑	-15.2243
樫	-15.2243
瘳	-15.2243
胬	-15.2243
懽	-15.2317
瘅	-15.2317
砟	-15.2317
绲	-15.2317
褙	-15.2317
褴	-15.2317
釿	-15.2317
铏	-15.2317
堉	-15.2391
绨	-15.2391
莶	-15.2391
酎	-15.2391
鯙	-15.2391
ゥ	-15.2467
墬	-15.2467
撃	-15.2467
蜮	-15.2467
鮈	-15.2467
鼉	-15.2467
龕	-15.2467
ˈ	-15.2542
〒	-15.2542
佢	-15.2542
俬	-15.2542
咦	-15.2542
娈	-15.2542
嵎	-15.2542
悻	-15.2542
柁	-15.2542
汭	-15.2542
湣	-15.2542
甯	-15.2542
経	-15.2542
舣	-15.2542
釒	-15.2542
錡	-15.2542
餽	-15.2542
鲞	-15.2542
현	-15.2542
خ	-15.2619
塅	-15.2619
暾	-15.2619
罨	-15.2619
袷	-15.2619
鞞	-15.2619
鷉	-15.2619
鷙	-15.2619
أ	-15.2696
劢	-15.2696
卺	-15.2696
榦	-15.2696
槻	-15.2696
烺	-15.2696
盩	-15.2696
祼	-15.2696
郿	-15.2696
왕	-15.2696
W	-15.2696
啕	-15.2773
d	-15.2773
่	-15.2773
丿	-15.2773
廆	-15.2773
曛	-15.2773
栿	-15.2773
艋	-15.2773
蜺	-15.2773
讐	-15.2773
贳	-15.2773
鄘	-15.2773
锨	-15.2773
鲼	-15.2773
鸹	-15.2773
⁄	-15.2851
伥	-15.2851
嘅	-15.2851
囵	-15.2851
埶	-15.2851
岈	-15.2851
嶮	-15.2851
欷	-15.2851
殍	-15.2851
狲	-15.2851
甿	-15.2851
礐	-15.2851
莛	-15.2851
跬	-15.2851
骃	-15.2851
骓	-15.2851
鸸	-15.2851
鼱	-15.2851
요	-15.2851
ה	-15.293
墁	-15.293
毎	-15.293
澪	-15.293
濆	-15.293
磾	-15.293
窊	-15.293
窭	-15.293
簏	-15.293
芴	-15.293
鼷	-15.293
강	-15.293
噼	-15.293
偾	-15.3009
剐	-15.3009
厔	-15.3009
喦	-15.3009
囍	-15.3009
宄	-15.3009
沴	-15.3009
蕰	-15.3009
鹾	-15.3009
龉	-15.3009
榎	-15.3009
総	-15.3009
朥	-15.3089
瑒	-15.3089
紬	-15.3089
羶	-15.3089
苘	-15.3089
蔟	-15.3089
踮	-15.3089
钬	-15.3089
镡	-15.3089
顒	-15.3089
髑	-15.3089
부	-15.3089
垞	-15.317
暘	-15.317
猱	-15.317
秾	-15.317
钪	-15.317
铒	-15.317
陁	-15.317
驤	-15.317
제	-15.317
廒	-15.317
亜	-15.3251
娌	-15.3251
溍	-15.3251
笤	-15.3251
続	-15.3251
虿	-15.3251
蝨	-15.3251
鳋	-15.3251
ี	-15.3333
卬	-15.3333
圬	-15.3333
嵝	-15.3333
楙	-15.3333
渟	-15.3333
爇	-15.3333
痃	-15.3333
蟥	-15.3333
讞	-15.3333
踔	-15.3333
锕	-15.3333
丏	-15.3416
劓	-15.3416
呶	-15.3416
崐	-15.3416
庥	-15.3416
玙	-15.3416
砑	-15.3416
箠	-15.3416
粢	-15.3416
纚	-15.3416
舘	-15.3416
莩	-15.3416
跹	-15.3416
鷲	-15.3416
鹋	-15.3416
鼙	-15.3416
산	-15.3416
増	-15.3499
嫠	-15.3499
晫	-15.3499
甏	-15.3499
祆	-15.3499
肜	-15.3499
蓠	-15.3499
襕	-15.3499
鎌	-15.3499
龃	-15.3499
마	-15.3499
Μ	-15.3583
寀	-15.3583
怳	-15.3583
晬	-15.3583
暌	-15.3583
枵	-15.3583
柟	-15.3583
洿	-15.3583
澉	-15.3583
焮	-15.3583
獴	-15.3583
繖	-15.3583
艄	-15.3583
苤	-15.3583
莸	-15.3583
蘩	-15.3583
訏	-15.3583
阯	-15.3583
ヌ	-15.3668
嗖	-15.3668
宀	-15.3668
尪	-15.3668
昪	-15.3668
琱	-15.3668
筩	-15.3668
襜	-15.3668
觯	-15.3668
미	-15.3668
ñ	-15.3753
א	-15.3753
จ	-15.3753
妁	-15.3753
怫	-15.3753
悪	-15.3753
揶	-15.3753
椐	-15.3753
樋	-15.3753
殪	-15.3753
狻	-15.3753
篥	-15.3753
粝	-15.3753
糌	-15.3753
臞	-15.3753
蟌	-15.3753
¤	-15.384
鹣	-15.384
์	-15.384
倓	-15.384
堺	-15.384
巵	-15.384
璆	-15.384
芰	-15.384
酲	-15.384
镨	-15.384
闉	-15.384
飈	-15.384
만	-15.384
박	-15.384
Ц	-15.3927
傕	-15.3927
咢	-15.3927
朏	-15.3927
滃	-15.3927
茺	-15.3927
荬	-15.3927
蜑	-15.3927
飇	-15.3927
Ø	-15.4014
ž	-15.4014
Ε	-15.4014
ى	-15.4014
∙	-15.4014
仨	-15.4014
妯	-15.4014
硗	-15.4014
綮	-15.4014
翛	-15.4014
臑	-15.4014
踈	-15.4014
輈	-15.4014
학	-15.4014
ช	-15.4103
剗	-15.4103
匦	-15.4103
嵒	-15.4103
璁	-15.4103
祊	-15.4103
茑	-15.4103
蟳	-15.4103
裼	-15.4103
跼	-15.4103
鱲	-15.4103
鶲	-15.4103
유	-15.4103
囫	-15.4192
พ	-15.4192
夬	-15.4192
峩	-15.4192
摽	-15.4192
歴	-15.4192
淯	-15.4192
灊	-15.4192
眭	-15.4192
籓	-15.4192
褔	-15.4192
铕	-15.4192
餗	-15.4192
嗌	-15.4282
臁	-15.4282
迕	-15.4282
锸	-15.4282
镔	-15.4282
阨	-15.4282
騃	-15.4282
연	-15.4282
滧	-15.4373
剀	-15.4373
昰	-15.4373
蕡	-15.4373
谖	-15.4373
醲	-15.4373
鎗	-15.4373
镢	-15.4373
髴	-15.4373
니	-15.4373
辚	-15.4465
É	-15.4465
Γ	-15.4465
ύ	-15.4465
ต	-15.4465
刼	-15.4465
嫱	-15.4465
嬾	-15.4465
廋	-15.4465
暱	-15.4465
曈	-15.4465
韡	-15.4465
鰲	-15.4465
鳀	-15.4465
∨	-15.4557
ヶ	-15.4557
夐	-15.4557
崟	-15.4557
晻	-15.4557
泝	-15.4557
畯	-15.4557
篚	-15.4557
縢	-15.4557
羇	-15.4557
舻	-15.4557
霤	-15.4557
鹆	-15.4557
ぜ	-15.4651
仂	-15.4651
傧	-15.4651
冇	-15.4651
哓	-15.4651
哧	-15.4651
擗	-15.4651
擣	-15.4651
枘	-15.4651
溽	-15.4651
祏	-15.4651
蒎	-15.4651
诌	-15.4651
踟	-15.4651
鋆	-15.4651
飱	-15.4651
餍	-15.4651
소	-15.4651
鲘	-15.4745
x	-15.4745
Э	-15.4745
捃	-15.4745
揲	-15.4745
斎	-15.4745
椀	-15.4745
湴	-15.4745
絶	-15.4745
腙	-15.4745
鏐	-15.4745
髙	-15.4745
전	-15.4745
么	-15.4784
â	-15.4841
ś	-15.4841
Ж	-15.4841
‖	-15.4841
ぷ	-15.4841
倻	-15.4841
嗥	-15.4841
嶲	-15.4841
彳	-15.4841
忭	-15.4841
毖	-15.4841
湲	-15.4841
漷	-15.4841
瓖	-15.4841
癀	-15.4841
綝	-15.4841
纟	-15.4841
薅	-15.4841
Q	-15.4937
伾	-15.4937
唷	-15.4937
嗄	-15.4937
絰	-15.4937
聱	-15.4937
萏	-15.4937
鈇	-15.4937
鱓	-15.4937
鼇	-15.4937
缌	-15.4937
ص	-15.5034
専	-15.5034
恹	-15.5034
悰	-15.5034
濊	-15.5034
焐	-15.5034
筴	-15.5034
糹	-15.5034
绁	-15.5034
荘	-15.5034
襻	-15.5034
轱	-15.5034
郐	-15.5034
釭	-15.5034
鞶	-15.5034
교	-15.5034
남	-15.5034
∫	-15.5132
勍	-15.5132
勔	-15.5132
旛	-15.5132
欒	-15.5132
歊	-15.5132
筯	-15.5132
褭	-15.5132
軿	-15.5132
辶	-15.5132
鞬	-15.5132
髣	-15.5132
!	-15.5195
Ю	-15.5231
้	-15.5231
坫	-15.5231
寛	-15.5231
崁	-15.5231
巂	-15.5231
怼	-15.5231
棐	-15.5231
檝	-15.5231
筦	-15.5231
舲	-15.5231
裢	-15.5231
觿	-15.5231
诓	-15.5231
骕	-15.5231
장	-15.5231
화	-15.5231
p	-15.5331
Β	-15.5331
ظ	-15.5331
劒	-15.5331
噍	-15.5331
売	-15.5331
岀	-15.5331
撄	-15.5331
洣	-15.5331
牤	-15.5331
玘	-15.5331
礅	-15.5331
虓	-15.5331
蝤	-15.5331
赕	-15.5331
跽	-15.5331
를	-15.5331
嗬	-15.5432
坰	-15.5432
堦	-15.5432
尅	-15.5432
撙	-15.5432
曌	-15.5432
浿	-15.5432
淜	-15.5432
皦	-15.5432
翬	-15.5432
镘	-15.5432
龠	-15.5432
澒	-15.5432
澣	-15.5432
铩	-15.5432
đ	-15.5534
嘭	-15.5534
塄	-15.5534
奓	-15.5534
嫫	-15.5534
惛	-15.5534
掊	-15.5534
斾	-15.5534
楤	-15.5534
浬	-15.5534
矬	-15.5534
锒	-15.5534
馊	-15.5534
鵷	-15.5534
천	-15.5534
阌	-15.5534
Θ	-15.5637
↙	-15.5637
刓	-15.5637
呴	-15.5637
啷	-15.5637
尢	-15.5637
弨	-15.5637
掴	-15.5637
枌	-15.5637
為	-15.5637
牻	-15.5637
甦	-15.5637
眵	-15.5637
箦	-15.5637
籺	-15.5637
蓂	-15.5637
谇	-15.5637
閈	-15.5637
鮓	-15.5637
최	-15.5637
Λ	-15.5741
ค	-15.5741
ị	-15.5741
儇	-15.5741
厖	-15.5741
埜	-15.5741
孓	-15.5741
烔	-15.5741
珌	-15.5741
皝	-15.5741
硷	-15.5741
礤	-15.5741
秬	-15.5741
筘	-15.5741
粦	-15.5741
纘	-15.5741
翣	-15.5741
蟊	-15.5741
蠔	-15.5741
郕	-15.5741
雫	-15.5741
魈	-15.5741
収	-15.5846
敎	-15.5846
澔	-15.5846
瘐	-15.5846
皐	-15.5846
礮	-15.5846
紥	-15.5846
蠧	-15.5846
谂	-15.5846
鄚	-15.5846
鄠	-15.5846
양	-15.5846
嘣	-15.5846
蔴	-15.5953
Ψ	-15.5953
ぃ	-15.5953
倧	-15.5953
哝	-15.5953
噉	-15.5953
惣	-15.5953
戽	-15.5953
杻	-15.5953
瀞	-15.5953
菸	-15.5953
蓺	-15.5953
麇	-15.5953
	-15.5953
橚	-15.606
湑	-15.606
╳	-15.606
嫄	-15.606
揸	-15.606
榼	-15.606
毌	-15.606
牓	-15.606
珝	-15.606
琤	-15.606
皃	-15.606
葙	-15.606
詧	-15.606
錂	-15.606
윤	-15.606
ض	-15.6169
บ	-15.6169
ぱ	-15.6169
咁	-15.6169
怍	-15.6169
憺	-15.6169
榱	-15.6169
瀣	-15.6169
瑊	-15.6169
穠	-15.6169
胠	-15.6169
脬	-15.6169
舺	-15.6169
螋	-15.6169
褧	-15.6169
訢	-15.6169
蹰	-15.6169
辵	-15.6169
込	-15.6169
邅	-15.6169
錞	-15.6169
騄	-15.6169
騑	-15.6169
오	-15.6169
희	-15.6169
頠	-15.6169
侉	-15.6279
刿	-15.6279
垧	-15.6279
埌	-15.6279
嫒	-15.6279
尜	-15.6279
廙	-15.6279
搌	-15.6279
撺	-15.6279
攽	-15.6279
栴	-15.6279
椇	-15.6279
煚	-15.6279
煣	-15.6279
琍	-15.6279
畧	-15.6279
瘼	-15.6279
繻	-15.6279
耇	-15.6279
胂	-15.6279
貙	-15.6279
鄩	-15.6279
國	-15.639
岣	-15.639
捽	-15.639
暍	-15.639
棫	-15.639
榃	-15.639
牾	-15.639
狁	-15.639
狴	-15.639
缧	-15.639
羼	-15.639
脇	-15.639
茝	-15.639
觋	-15.639
蹐	-15.639
阒	-15.639
隤	-15.639
鹍	-15.639
麄	-15.639
말	-15.639
呲	-15.6502
満	-15.6502
熲	-15.6502
镆	-15.6502
ב	-15.6502
崚	-15.6502
崦	-15.6502
幷	-15.6502
惔	-15.6502
樛	-15.6502
潏	-15.6502
痾	-15.6502
糵	-15.6502
繸	-15.6502
耈	-15.6502
薫	-15.6502
蜾	-15.6502
赇	-15.6502
醑	-15.6502
鷁	-15.6502
Χ	-15.6616
┼	-15.6616
嚚	-15.6616
媞	-15.6616
宬	-15.6616
岕	-15.6616
枲	-15.6616
瓛	-15.6616
礻	-15.6616
祅	-15.6616
穽	-15.6616
郷	-15.6616
鋐	-15.6616
镪	-15.6616
雝	-15.6616
鞯	-15.6616
骎	-15.6616
ј	-15.6731
ל	-15.6731
་	-15.6731
児	-15.6731
刂	-15.6731
呸	-15.6731
姱	-15.6731
屮	-15.6731
庳	-15.6731
槚	-15.6731
睒	-15.6731
転	-15.6731
钖	-15.6731
锓	-15.6731
	-15.6731
嘞	-15.6847
甡	-15.6847
蠋	-15.6847
酂	-15.6847
ि	-15.6847
呙	-15.6847
喰	-15.6847
嘢	-15.6847
垲	-15.6847
媟	-15.6847
廌	-15.6847
敫	-15.6847
涢	-15.6847
淏	-15.6847
痄	-15.6847
睠	-15.6847
碥	-15.6847
磉	-15.6847
蝟	-15.6847
锼	-15.6847
頔	-15.6847
재	-15.6847
祫	-15.6965
‚	-15.6965
塩	-15.6965
櫜	-15.6965
浥	-15.6965
熛	-15.6965
玡	-15.6965
琎	-15.6965
甭	-15.6965
禔	-15.6965
蟛	-15.6965
袵	-15.6965
讠	-15.6965
賫	-15.6965
釆	-15.6965
霅	-15.6965
髽	-15.6965
鬬	-15.6965
鮠	-15.6965
鱵	-15.6965
齧	-15.6965
Ι	-15.7084
勷	-15.7084
咝	-15.7084
嶒	-15.7084
憙	-15.7084
掞	-15.7084
斵	-15.7084
旐	-15.7084
猢	-15.7084
罥	-15.7084
荄	-15.7084
荭	-15.7084
衤	-15.7084
觭	-15.7084
踅	-15.7084
鞾	-15.7084
鬐	-15.7084
ğ	-15.7204
ờ	-15.7204
唰	-15.7204
堎	-15.7204
渖	-15.7204
犨	-15.7204
狯	-15.7204
盝	-15.7204
糺	-15.7204
緼	-15.7204
蒍	-15.7204
訚	-15.7204
轢	-15.7204
陜	-15.7204
鴞	-15.7204
鼢	-15.7204
무	-15.7204
↔	-15.7326
嬿	-15.7326
崾	-15.7326
惝	-15.7326
慴	-15.7326
欵	-15.7326
犽	-15.7326
稲	-15.7326
窬	-15.7326
脰	-15.7326
虒	-15.7326
蚍	-15.7326
跱	-15.7326
醂	-15.7326
饣	-15.7326
공	-15.7326
들	-15.7326
태	-15.7326
­	-15.745
儗	-15.745
巇	-15.745
怃	-15.745
搠	-15.745
撸	-15.745
晩	-15.745
煺	-15.745
珵	-15.745
矞	-15.745
礓	-15.745
礞	-15.745
絅	-15.745
荖	-15.745
蟮	-15.745
踭	-15.745
鵄	-15.745
麕	-15.745
문	-15.745
埑	-15.7575
崿	-15.7575
帨	-15.7575
忮	-15.7575
搨	-15.7575
暻	-15.7575
柙	-15.7575
浼	-15.7575
犂	-15.7575
璹	-15.7575
癍	-15.7575
禩	-15.7575
笱	-15.7575
绹	-15.7575
罃	-15.7575
蕗	-15.7575
蕞	-15.7575
鑊	-15.7575
隩	-15.7575
鸺	-15.7575
	-15.7575
渼	-15.7575
ã	-15.7701
ะ	-15.7701
►	-15.7701
卐	-15.7701
呾	-15.7701
啵	-15.7701
嚭	-15.7701
尫	-15.7701
峣	-15.7701
弾	-15.7701
揜	-15.7701
欬	-15.7701
殢	-15.7701
氊	-15.7701
洨	-15.7701
滝	-15.7701
灋	-15.7701
珦	-15.7701
璈	-15.7701
穨	-15.7701
螗	-15.7701
賔	-15.7701
颎	-15.7701
颻	-15.7701
鵩	-15.7701
려	-15.7701
세	-15.7701
玭	-15.7701
醵	-15.783
ћ	-15.783
唎	-15.783
垾	-15.783
宂	-15.783
掎	-15.783
旟	-15.783
氷	-15.783
洳	-15.783
炻	-15.783
盻	-15.783
碜	-15.783
罝	-15.783
肸	-15.783
萑	-15.783
蟓	-15.783
贠	-15.783
逈	-15.783
雰	-15.783
韘	-15.783
髠	-15.783
鲗	-15.783
鳓	-15.783
있	-15.783
	-15.783
Y	-15.7959
楛	-15.7959
猋	-15.7959
舳	-15.7959
阋	-15.7959
㖞	-15.7959
劻	-15.7959
塲	-15.7959
屃	-15.7959
幰	-15.7959
擐	-15.7959
梼	-15.7959
棓	-15.7959
氿	-15.7959
渋	-15.7959
滆	-15.7959
熳	-15.7959
瞢	-15.7959
糨	-15.7959
绋	-15.7959
飜	-15.7959
鲙	-15.7959
儵	-15.8091
劘	-15.8091
塝	-15.8091
壖	-15.8091
孼	-15.8091
庀	-15.8091
毐	-15.8091
熜	-15.8091
穸	-15.8091
臺	-15.8091
芶	-15.8091
谝	-15.8091
谞	-15.8091
趄	-15.8091
銙	-15.8091
铚	-15.8091
砠	-15.8224
仏	-15.8224
倢	-15.8224
奡	-15.8224
応	-15.8224
忸	-15.8224
憯	-15.8224
戥	-15.8224
杧	-15.8224
瘈	-15.8224
矻	-15.8224
磵	-15.8224
臿	-15.8224
虵	-15.8224
蟜	-15.8224
锍	-15.8224
驎	-15.8224
鲿	-15.8224
鳣	-15.8224
순	-15.8224
╱	-15.8359
垍	-15.8359
墕	-15.8359
踧	-15.8359
飑	-15.8359
Τ	-15.836
щ	-15.836
嚬	-15.836
圌	-15.836
恧	-15.836
惓	-15.836
戋	-15.836
敔	-15.836
曽	-15.836
朞	-15.836
澁	-15.836
煴	-15.836
狃	-15.836
稾	-15.836
糈	-15.836
聍	-15.836
荅	-15.836
蚡	-15.836
鎞	-15.836
饘	-15.836
驵	-15.836
Z	-15.8496
栟	-15.8496
ɪ	-15.8496
Ν	-15.8496
न	-15.8496
幙	-15.8496
愀	-15.8496
挼	-15.8496
槖	-15.8496
氍	-15.8496
澚	-15.8496
璵	-15.8496
硌	-15.8496
羑	-15.8496
翾	-15.8496
耵	-15.8496
虀	-15.8496
覊	-15.8496
詔	-15.8496
迍	-15.8496
鄗	-15.8496
鉨	-15.8496
髪	-15.8496
鶡	-15.8496
면	-15.8496
야	-15.8496
ә	-15.8635
ک	-15.8635
त	-15.8635
┳	-15.8635
斿	-15.8635
旼	-15.8635
沇	-15.8635
瑢	-15.8635
疢	-15.8635
缒	-15.8635
觔	-15.8635
逌	-15.8635
铓	-15.8635
锃	-15.8635
阬	-15.8635
鶒	-15.8635
호	-15.8635
J	-15.8776
ː	-15.8776
ồ	-15.8776
▽	-15.8776
佽	-15.8776
崒	-15.8776
嵓	-15.8776
斠	-15.8776
旳	-15.8776
猡	-15.8776
猨	-15.8776
袀	-15.8776
裀	-15.8776
諴	-15.8776
謦	-15.8776
赑	-15.8776
踦	-15.8776
鍱	-15.8776
頵	-15.8776
黹	-15.8776
종	-15.8776
囓	-15.8919
歔	-15.8919
轘	-15.8919
y	-15.8919
ą	-15.8919
┃	-15.8919
┅	-15.8919
ヲ	-15.8919
嗛	-15.8919
帀	-15.8919
帱	-15.8919
熇	-15.8919
燚	-15.8919
缊	-15.8919
觱	-15.8919
觳	-15.8919
賨	-15.8919
遡	-15.8919
酡	-15.8919
靦	-15.8919
鞴	-15.8919
饟	-15.8919
麪	-15.8919
龀	-15.8919
거	-15.8919
중	-15.8919
砵	-15.9064
ø	-15.9064
ไ	-15.9064
妘	-15.9064
姮	-15.9064
嫪	-15.9064
屙	-15.9064
帯	-15.9064
敉	-15.9064
杙	-15.9064
毵	-15.9064
涘	-15.9064
炟	-15.9064
瓟	-15.9064
疭	-15.9064
輙	-15.9064
锾	-15.9064
镅	-15.9064
髩	-15.9064
鬶	-15.9064
鲖	-15.9064
당	-15.9064
浡	-15.9064
ż	-15.9211
ธ	-15.9211
剸	-15.9211
姉	-15.9211
拶	-15.9211
斁	-15.9211
昬	-15.9211
犛	-15.9211
盨	-15.9211
禨	-15.9211
筊	-15.9211
缾	-15.9211
袆	-15.9211
鎛	-15.9211
鸂	-15.9211
생	-15.9211
ę	-15.936
≮	-15.936
偬	-15.936
匄	-15.936
愒	-15.936
汫	-15.936
洇	-15.936
獍	-15.936
矰	-15.936
禖	-15.936
莰	-15.936
葅	-15.936
蠙	-15.936
蠭	-15.936
蹏	-15.936
蹯	-15.936
蹷	-15.936
躐	-15.936
郚	-15.936
鄮	-15.936
鍚	-15.936
鍪	-15.936
镟	-15.936
閦	-15.936
闚	-15.936
鮡	-15.936
여	-15.936
े	-15.9512
刭	-15.9512
営	-15.9512
姘	-15.9512
峧	-15.9512
掮	-15.9512
泂	-15.9512
涖	-15.9512
淸	-15.9512
溁	-15.9512
璪	-15.9512
碡	-15.9512
綖	-15.9512
菼	-15.9512
袗	-15.9512
袠	-15.9512
跞	-15.9512
躞	-15.9512
轾	-15.9512
靑	-15.9512
骟	-15.9512
鷇	-15.9512
麐	-15.9512
광	-15.9512
없	-15.9512
涙	-15.9512
吧	-15.9596
ë	-15.9666
ώ	-15.9666
╠	-15.9666
僎	-15.9666
叚	-15.9666
咣	-15.9666
嗢	-15.9666
學	-15.9666
廼	-15.9666
悮	-15.9666
旴	-15.9666
會	-15.9666
梈	-15.9666
爝	-15.9666
璲	-15.9666
癎	-15.9666
紞	-15.9666
緌	-15.9666
繙	-15.9666
罏	-15.9666
踳	-15.9666
鄫	-15.9666
镱	-15.9666
駸	-15.9666
鬈	-15.9666
바	-15.9666
울	-15.9666
佷	-15.9666
槙	-15.9666
牕	-15.9666
’	-15.9759
æ	-15.9822
क	-15.9822
ề	-15.9822
刲	-15.9822
噏	-15.9822
媸	-15.9822
尒	-15.9822
尓	-15.9822
嶢	-15.9822
昞	-15.9822
暕	-15.9822
榅	-15.9822
歷	-15.9822
灝	-15.9822
窓	-15.9822
虡	-15.9822
諕	-15.9822
豭	-15.9822
輋	-15.9822
逴	-15.9822
酴	-15.9822
鱚	-15.9822
鷸	-15.9822
명	-15.9822
준	-15.9822
ת	-15.9981
‐	-15.9981
═	-15.9981
䜣	-15.9981
哞	-15.9981
姞	-15.9981
婼	-15.9981
時	-15.9981
朘	-15.9981
沍	-15.9981
瀁	-15.9981
猃	-15.9981
瑑	-15.9981
瞟	-15.9981
硪	-15.9981
碏	-15.9981
窰	-15.9981
罇	-15.9981
肭	-15.9981
舃	-15.9981
苳	-15.9981
遝	-15.9981
阄	-15.9981
麑	-15.9981
麹	-15.9981
비	-15.9981
트	-15.9981
楗	-15.9981
ъ	-16.0142
ד	-16.0142
ა	-16.0142
ი	-16.0142
┄	-16.0142
丌	-16.0142
匽	-16.0142
嚐	-16.0142
惸	-16.0142
攧	-16.0142
敻	-16.0142
暎	-16.0142
碹	-16.0142
笾	-16.0142
膴	-16.0142
葢	-16.0142
蕚	-16.0142
蘂	-16.0142
螣	-16.0142
読	-16.0142
鑱	-16.0142
頞	-16.0142
飐	-16.0142
饦	-16.0142
搋	-16.0142
粃	-16.0142
贇	-16.0142
ש	-16.0306
แ	-16.0306
█	-16.0306
ぴ	-16.0306
丼	-16.0306
倥	-16.0306
咗	-16.0306
啐	-16.0306
嚅	-16.0306
圊	-16.0306
孬	-16.0306
宍	-16.0306
尃	-16.0306
戯	-16.0306
淩	-16.0306
滍	-16.0306
熺	-16.0306
琫	-16.0306
眥	-16.0306
窾	-16.0306
絓	-16.0306
纆	-16.0306
舡	-16.0306
蚖	-16.0306
蜋	-16.0306
螘	-16.0306
诇	-16.0306
銛	-16.0306
镋	-16.0306
鞲	-16.0306
鷃	-16.0306
鸝	-16.0306
龆	-16.0306
래	-16.0306
철	-16.0306
圐	-16.0306
z	-16.0473
»	-16.0473
◢	-16.0473
丱	-16.0473
乗	-16.0473
啗	-16.0473
壠	-16.0473
姤	-16.0473
嫋	-16.0473
帟	-16.0473
抔	-16.0473
旉	-16.0473
棁	-16.0473
渀	-16.0473
產	-16.0473
瘛	-16.0473
砉	-16.0473
窆	-16.0473
羝	-16.0473
腚	-16.0473
蔕	-16.0473
蠵	-16.0473
褕	-16.0473
迮	-16.0473
鍠	-16.0473
镃	-16.0473
鮋	-16.0473
龇	-16.0473
씨	-16.0473
嘒	-16.0473
嵫	-16.0473
禇	-16.0473
粬	-16.0473
貤	-16.0473
銶	-16.0473
ָ	-16.0642
ぁ	-16.0642
䴙	-16.0642
伬	-16.0642
傉	-16.0642
勲	-16.0642
図	-16.0642
揾	-16.0642
搊	-16.0642
晊	-16.0642
橿	-16.0642
笸	-16.0642
籩	-16.0642
臛	-16.0642
葎	-16.0642
葸	-16.0642
鉟	-16.0642
闓	-16.0642
魋	-16.0642
鳑	-16.0642
鳽	-16.0642
鸑	-16.0642
속	-16.0642
송	-16.0642
£	-16.0814
ป	-16.0814
剅	-16.0814
咈	-16.0814
哐	-16.0814
嘽	-16.0814
圏	-16.0814
塭	-16.0814
媢	-16.0814
尨	-16.0814
崱	-16.0814
慓	-16.0814
憝	-16.0814
憸	-16.0814
懃	-16.0814
戣	-16.0814
業	-16.0814
氇	-16.0814
涴	-16.0814
珖	-16.0814
瑆	-16.0814
癥	-16.0814
盫	-16.0814
眜	-16.0814
窀	-16.0814
箒	-16.0814
缳	-16.0814
诖	-16.0814
赪	-16.0814
郳	-16.0814
鏁	-16.0814
锽	-16.0814
髟	-16.0814
鮍	-16.0814
鼗	-16.0814
난	-16.0814
날	-16.0814
위	-16.0814
ŋ	-16.099
⊕	-16.099
ぇ	-16.099
伃	-16.099
劂	-16.099
勦	-16.099
噘	-16.099
埆	-16.099
堨	-16.099
嶔	-16.099
戇	-16.099
抜	-16.099
捜	-16.099
晢	-16.099
柅	-16.099
沕	-16.099
瑨	-16.099
畇	-16.099
皛	-16.099
眛	-16.099
籛	-16.099
罣	-16.099
與	-16.099
蔌	-16.099
謏	-16.099
蹁	-16.099
鞚	-16.099
黮	-16.099
년	-16.099
≯	-16.1168
仳	-16.1168
唶	-16.1168
喒	-16.1168
嗾	-16.1168
埯	-16.1168
壊	-16.1168
媮	-16.1168
崄	-16.1168
従	-16.1168
憇	-16.1168
挏	-16.1168
搥	-16.1168
攵	-16.1168
栞	-16.1168
欸	-16.1168
漖	-16.1168
璮	-16.1168
矟	-16.1168
穀	-16.1168
箎	-16.1168
籞	-16.1168
繦	-16.1168
蒉	-16.1168
蔊	-16.1168
踡	-16.1168
靸	-16.1168
鱠	-16.1168
鼃	-16.1168
예	-16.1168
청	-16.1168
帰	-16.1168
晙	-16.1168
梾	-16.1168
槜	-16.1168
謩	-16.1168
ן	-16.135
य	-16.135
ỉ	-16.135
呒	-16.135
呖	-16.135
娀	-16.135
岨	-16.135
嶓	-16.135
戞	-16.135
挐	-16.135
敧	-16.135
昫	-16.135
枿	-16.135
漼	-16.135
灩	-16.135
焼	-16.135
發	-16.135
瞍	-16.135
砢	-16.135
碕	-16.135
窋	-16.135
籤	-16.135
糶	-16.135
絪	-16.135
綯	-16.135
缲	-16.135
藋	-16.135
藳	-16.135
蟪	-16.135
讁	-16.135
赩	-16.135
酾	-16.135
铽	-16.135
闒	-16.135
顇	-16.135
鲺	-16.135
鳂	-16.135
鼽	-16.135
두	-16.135
ß	-16.1535
ɛ	-16.1535
亀	-16.1535
伲	-16.1535
佴	-16.1535
囔	-16.1535
攞	-16.1535
棬	-16.1535
泆	-16.1535
浛	-16.1535
湋	-16.1535
牸	-16.1535
瘌	-16.1535
砩	-16.1535
稙	-16.1535
舨	-16.1535
苶	-16.1535
菫	-16.1535
蔘	-16.1535
藂	-16.1535
裛	-16.1535
襴	-16.1535
隠	-16.1535
鳡	-16.1535
노	-16.1535
음	-16.1535
창	-16.1535
	-16.1535
f	-16.1536
j	-16.1724
ĩ	-16.1724
ณ	-16.1724
丂	-16.1724
惙	-16.1724
捴	-16.1724
朶	-16.1724
柲	-16.1724
栄	-16.1724
榀	-16.1724
欻	-16.1724
沘	-16.1724
溎	-16.1724
滈	-16.1724
璚	-16.1724
璺	-16.1724
痏	-16.1724
瞤	-16.1724
稊	-16.1724
耰	-16.1724
臠	-16.1724
蚘	-16.1724
譞	-16.1724
蹚	-16.1724
輗	-16.1724
輴	-16.1724
鄀	-16.1724
鎚	-16.1724
镎	-16.1724
鼕	-16.1724
방	-16.1724
용	-16.1724
ө	-16.1916
ա	-16.1916
म	-16.1916
व	-16.1916
ắ	-16.1916
ổ	-16.1916
ự	-16.1916
┓	-16.1916
喣	-16.1916
圧	-16.1916
埫	-16.1916
娭	-16.1916
徬	-16.1916
揑	-16.1916
斅	-16.1916
桲	-16.1916
棃	-16.1916
棡	-16.1916
渰	-16.1916
玚	-16.1916
眴	-16.1916
荈	-16.1916
蒭	-16.1916
踆	-16.1916
锳	-16.1916
韁	-16.1916
鲦	-16.1916
麞	-16.1916
건	-16.1916
금	-16.1916
달	-16.1916
석	-16.1916
후	-16.1916
آ	-16.2113
ئ	-16.2113
ấ	-16.2113
伷	-16.2113
噔	-16.2113
峠	-16.2113
徯	-16.2113
悁	-16.2113
慆	-16.2113
扺	-16.2113
搡	-16.2113
柎	-16.2113
楢	-16.2113
氂	-16.2113
濈	-16.2113
狖	-16.2113
禤	-16.2113
穟	-16.2113
糬	-16.2113
腯	-16.2113
苊	-16.2113
蠼	-16.2113
鋈	-16.2113
阸	-16.2113
飣	-16.2113
骱	-16.2113
黐	-16.2113
네	-16.2113
승	-16.2113
홍	-16.2113
桱	-16.2313
ứ	-16.2313
∏	-16.2313
來	-16.2313
叆	-16.2313
咍	-16.2313
嗞	-16.2313
嘚	-16.2313
姁	-16.2313
寧	-16.2313
幪	-16.2313
恇	-16.2313
揔	-16.2313
枏	-16.2313
枻	-16.2313
栐	-16.2313
機	-16.2313
溞	-16.2313
漻	-16.2313
琭	-16.2313
琲	-16.2313
璏	-16.2313
箙	-16.2313
継	-16.2313
绖	-16.2313
缐	-16.2313
藟	-16.2313
觖	-16.2313
趍	-16.2313
踘	-16.2313
逭	-16.2313
釴	-16.2313
鋹	-16.2313
锪	-16.2313
靬	-16.2313
骭	-16.2313
鮎	-16.2313
鰌	-16.2313
鲬	-16.2313
鷫	-16.2313
齕	-16.2313
봐	-16.2313
형	-16.2313
«	-16.2517
Š	-16.2517
द	-16.2517
ぺ	-16.2517
匚	-16.2517
墼	-16.2517
媺	-16.2517
嫲	-16.2517
嵖	-16.2517
嵚	-16.2517
斮	-16.2517
槱	-16.2517
歠	-16.2517
沲	-16.2517
泬	-16.2517
淲	-16.2517
済	-16.2517
澨	-16.2517
灬	-16.2517
牣	-16.2517
玹	-16.2517
珫	-16.2517
痓	-16.2517
瘊	-16.2517
盬	-16.2517
盭	-16.2517
禫	-16.2517
缡	-16.2517
耎	-16.2517
茳	-16.2517
莙	-16.2517
蒇	-16.2517
蓴	-16.2517
蚳	-16.2517
讟	-16.2517
赬	-16.2517
趲	-16.2517
跕	-16.2517
轝	-16.2517
郈	-16.2517
鉷	-16.2517
闕	-16.2517
駞	-16.2517
骦	-16.2517
鬅	-16.2517
鶱	-16.2517
鷩	-16.2517
파	-16.2517
敭	-16.2517
ब	-16.2725
∵	-16.2725
⊥	-16.2725
厶	-16.2725
嗫	-16.2725
嗵	-16.2725
噭	-16.2725
塉	-16.2725
妗	-16.2725
峃	-16.2725
慠	-16.2725
攴	-16.2725
柷	-16.2725
槔	-16.2725
権	-16.2725
橑	-16.2725
氆	-16.2725
泇	-16.2725
渞	-16.2725
潲	-16.2725
爚	-16.2725
矴	-16.2725
硁	-16.2725
竻	-16.2725
簰	-16.2725
縗	-16.2725
胾	-16.2725
腽	-16.2725
虖	-16.2725
虮	-16.2725
袛	-16.2725
覇	-16.2725
趫	-16.2725
鐏	-16.2725
钷	-16.2725
锖	-16.2725
锿	-16.2725
镙	-16.2725
闤	-16.2725
韝	-16.2725
餵	-16.2725
騂	-16.2725
鲰	-16.2725
치	-16.2725
ɔ	-16.2938
ं	-16.2938
♥	-16.2938
♪	-16.2938
佀	-16.2938
侘	-16.2938
冚	-16.2938
嘁	-16.2938
嚥	-16.2938
囝	-16.2938
墠	-16.2938
婞	-16.2938
嫺	-16.2938
庁	-16.2938
愊	-16.2938
憹	-16.2938
掤	-16.2938
栘	-16.2938
椓	-16.2938
濇	-16.2938
琁	-16.2938
瑇	-16.2938
甎	-16.2938
砮	-16.2938
硠	-16.2938
筰	-16.2938
簦	-16.2938
綵	-16.2938
舯	-16.2938
袿	-16.2938
諟	-16.2938
趯	-16.2938
轓	-16.2938
迆	-16.2938
険	-16.2938
雑	-16.2938
驒	-16.2938
鯈	-16.2938
鵾	-16.2938
鹠	-16.2938
鹢	-16.2938
드	-16.2938
별	-16.2938
گ	-16.3155
स	-16.3155
ụ	-16.3155
≪	-16.3155
務	-16.3155
卲	-16.3155
嚩	-16.3155
墝	-16.3155
屧	-16.3155
捲	-16.3155
揎	-16.3155
旵	-16.3155
曀	-16.3155
檇	-16.3155
湳	-16.3155
焌	-16.3155
燀	-16.3155
燏	-16.3155
犏	-16.3155
疐	-16.3155
盌	-16.3155
筅	-16.3155
舎	-16.3155
褘	-16.3155
謌	-16.3155
讋	-16.3155
鋋	-16.3155
靉	-16.3155
饾	-16.3155
鳯	-16.3155
龑	-16.3155
데	-16.3155
황	-16.3155
噀	-16.3377
恓	-16.3377
甕	-16.3377
綍	-16.3377
ũ	-16.3377
்	-16.3377
ủ	-16.3377
≫	-16.3377
⋯	-16.3377
╬	-16.3377
亍	-16.3377
仚	-16.3377
儛	-16.3377
厎	-16.3377
喎	-16.3377
夨	-16.3377
屩	-16.3377
巟	-16.3377
怊	-16.3377
怩	-16.3377
悢	-16.3377
晄	-16.3377
晈	-16.3377
狌	-16.3377
玼	-16.3377
珓	-16.3377
禡	-16.3377
絙	-16.3377
羮	-16.3377
胔	-16.3377
觝	-16.3377
譓	-16.3377
輮	-16.3377
迻	-16.3377
鋩	-16.3377
頼	-16.3377
驊	-16.3377
髃	-16.3377
魨	-16.3377
鱬	-16.3377
鳆	-16.3377
르	-16.3377
심	-16.3377
회	-16.3377
إ	-16.3605
亊	-16.3605
倶	-16.3605
凖	-16.3605
唫	-16.3605
喤	-16.3605
坬	-16.3605
壼	-16.3605
憀	-16.3605
懞	-16.3605
掲	-16.3605
摐	-16.3605
暸	-16.3605
朅	-16.3605
杅	-16.3605
東	-16.3605
歘	-16.3605
毦	-16.3605
毹	-16.3605
沨	-16.3605
渕	-16.3605
澴	-16.3605
牴	-16.3605
瑮	-16.3605
硿	-16.3605
籐	-16.3605
糒	-16.3605
繄	-16.3605
罒	-16.3605
罳	-16.3605
腨	-16.3605
艚	-16.3605
蘗	-16.3605
託	-16.3605
赆	-16.3605
銍	-16.3605
鋗	-16.3605
锫	-16.3605
霪	-16.3605
頮	-16.3605
験	-16.3605
骙	-16.3605
髢	-16.3605
鶬	-16.3605
람	-16.3605
와	-16.3605
	-16.3605
Č	-16.3837
ח	-16.3837
پ	-16.3837
亸	-16.3837
刬	-16.3837
唼	-16.3837
坣	-16.3837
婊	-16.3837
岊	-16.3837
嵕	-16.3837
廞	-16.3837
恡	-16.3837
憕	-16.3837
搧	-16.3837
敺	-16.3837
旍	-16.3837
暦	-16.3837
枒	-16.3837
欝	-16.3837
泃	-16.3837
瀵	-16.3837
煃	-16.3837
璅	-16.3837
璡	-16.3837
璥	-16.3837
疁	-16.3837
矱	-16.3837
祃	-16.3837
禜	-16.3837
篯	-16.3837
绱	-16.3837
羂	-16.3837
芤	-16.3837
蓨	-16.3837
蔀	-16.3837
薬	-16.3837
豗	-16.3837
軃	-16.3837
鐍	-16.3837
鑨	-16.3837
钔	-16.3837
钭	-16.3837
闶	-16.3837
雊	-16.3837
韂	-16.3837
骹	-16.3837
鱣	-16.3837
鴗	-16.3837
麃	-16.3837
龅	-16.3837
더	-16.3837
린	-16.3837
ल	-16.4075
ử	-16.4075
↗	-16.4075
両	-16.4075
侻	-16.4075
凃	-16.4075
剉	-16.4075
噂	-16.4075
嚲	-16.4075
婳	-16.4075
尙	-16.4075
岠	-16.4075
揵	-16.4075
曶	-16.4075
槀	-16.4075
檿	-16.4075
櫏	-16.4075
汔	-16.4075
沺	-16.4075
洚	-16.4075
潄	-16.4075
犼	-16.4075
猺	-16.4075
瑳	-16.4075
眡	-16.4075
睎	-16.4075
瞵	-16.4075
礚	-16.4075
秏	-16.4075
芣	-16.4075
葇	-16.4075
蛑	-16.4075
観	-16.4075
謷	-16.4075
踶	-16.4075
轹	-16.4075
邲	-16.4075
醨	-16.4075
锞	-16.4075
隃	-16.4075
骍	-16.4075
魫	-16.4075
개	-16.4075
관	-16.4075
혜	-16.4075
ƒ	-16.4319
ּ	-16.4319
ぅ	-16.4319
偟	-16.4319
僕	-16.4319
僣	-16.4319
冫	-16.4319
動	-16.4319
唅	-16.4319
啯	-16.4319
啲	-16.4319
嗃	-16.4319
嚈	-16.4319
塽	-16.4319
夲	-16.4319
婣	-16.4319
廵	-16.4319
恠	-16.4319
搉	-16.4319
澼	-16.4319
烎	-16.4319
煕	-16.4319
狥	-16.4319
猓	-16.4319
甖	-16.4319
痟	-16.4319
睟	-16.4319
篼	-16.4319
絁	-16.4319
耔	-16.4319
芏	-16.4319
薁	-16.4319
藷	-16.4319
蝯	-16.4319
蟫	-16.4319
製	-16.4319
襆	-16.4319
襌	-16.4319
設	-16.4319
踺	-16.4319
輭	-16.4319
逷	-16.4319
酖	-16.4319
醁	-16.4319
閒	-16.4319
駃	-16.4319
骫	-16.4319
魣	-16.4319
鰤	-16.4319
鴂	-16.4319
鵞	-16.4319
백	-16.4319
병	-16.4319
월	-16.4319
緫	-16.4319
誃	-16.4319
鉥	-16.4319
鸜	-16.4319
壆	-16.4569
ग	-16.4569
ল	-16.4569
┋	-16.4569
偰	-16.4569
匼	-16.4569
単	-16.4569
厾	-16.4569
唿	-16.4569
喼	-16.4569
嚻	-16.4569
墯	-16.4569
孮	-16.4569
對	-16.4569
慇	-16.4569
旿	-16.4569
昳	-16.4569
檑	-16.4569
炰	-16.4569
猒	-16.4569
癿	-16.4569
睃	-16.4569
砆	-16.4569
箑	-16.4569
簉	-16.4569
簑	-16.4569
縯	-16.4569
羕	-16.4569
耩	-16.4569
聤	-16.4569
脢	-16.4569
腍	-16.4569
詖	-16.4569
質	-16.4569
錧	-16.4569
锎	-16.4569
頍	-16.4569
體	-16.4569
鮻	-16.4569
鷦	-16.4569
鹯	-16.4569
齢	-16.4569
齰	-16.4569
계	-16.4569
러	-16.4569
평	-16.4569
ð	-16.4826
ข	-16.4826
⇔	-16.4826
➤	-16.4826
䊨	-16.4826
冖	-16.4826
咥	-16.4826
哋	-16.4826
嚟	-16.4826
墡	-16.4826
廾	-16.4826
彡	-16.4826
忳	-16.4826
擕	-16.4826
書	-16.4826
検	-16.4826
瘝	-16.4826
禪	-16.4826
籧	-16.4826
綷	-16.4826
脽	-16.4826
苨	-16.4826
觽	-16.4826
譊	-16.4826
譲	-16.4826
跫	-16.4826
轤	-16.4826
遟	-16.4826
酓	-16.4826
銹	-16.4826
鏻	-16.4826
铦	-16.4826
餬	-16.4826
鬒	-16.4826
鵺	-16.4826
麏	-16.4826
齮	-16.4826
런	-16.4826
훈	-16.4826
ہ	-16.5089
ु	-16.5089
㙾	-16.5089
䂬	-16.5089
凊	-16.5089
妺	-16.5089
娵	-16.5089
嫮	-16.5089
忞	-16.5089
怱	-16.5089
愐	-16.5089
扱	-16.5089
攮	-16.5089
昜	-16.5089
曧	-16.5089
氀	-16.5089
渉	-16.5089
熤	-16.5089
燝	-16.5089
狝	-16.5089
皕	-16.5089
皷	-16.5089
礧	-16.5089
禕	-16.5089
禵	-16.5089
菥	-16.5089
蓢	-16.5089
跡	-16.5089
踖	-16.5089
酇	-16.5089
钶	-16.5089
陿	-16.5089
隮	-16.5089
鱈	-16.5089
鵶	-16.5089
麛	-16.5089
黈	-16.5089
黡	-16.5089
鼂	-16.5089
같	-16.5089
물	-16.5089
임	-16.5089
좋	-16.5089
처	-16.5089
	-16.5089
ỳ	-16.5359
†	-16.5359
呔	-16.5359
垯	-16.5359
岧	-16.5359
巑	-16.5359
徴	-16.5359
悕	-16.5359
戹	-16.5359
晸	-16.5359
沬	-16.5359
煠	-16.5359
爌	-16.5359
獮	-16.5359
玁	-16.5359
琹	-16.5359
稺	-16.5359
筻	-16.5359
篔	-16.5359
苺	-16.5359
蜎	-16.5359
螓	-16.5359
袓	-16.5359
褎	-16.5359
诐	-16.5359
豮	-16.5359
賵	-16.5359
軏	-16.5359
铥	-16.5359
锬	-16.5359
阤	-16.5359
霣	-16.5359
韠	-16.5359
馺	-16.5359
鳁	-16.5359
鷰	-16.5359
술	-16.5359
역	-16.5359
q	-16.5359
塨	-16.5637
嫏	-16.5637
嬢	-16.5637
宧	-16.5637
柹	-16.5637
椑	-16.5637
潾	-16.5637
牐	-16.5637
矼	-16.5637
鞡	-16.5637
鬖	-16.5637
ภ	-16.5637
რ	-16.5637
ṣ	-16.5637
┐	-16.5637
◣	-16.5637
佹	-16.5637
俍	-16.5637
呰	-16.5637
喺	-16.5637
嚞	-16.5637
奨	-16.5637
尩	-16.5637
岺	-16.5637
搰	-16.5637
朒	-16.5637
枼	-16.5637
汸	-16.5637
涫	-16.5637
淟	-16.5637
灧	-16.5637
爁	-16.5637
狺	-16.5637
琀	-16.5637
甁	-16.5637
磏	-16.5637
禑	-16.5637
竢	-16.5637
膋	-16.5637
臮	-16.5637
艨	-16.5637
菶	-16.5637
蓏	-16.5637
薆	-16.5637
薾	-16.5637
蘘	-16.5637
蛘	-16.5637
蛣	-16.5637
蝘	-16.5637
袾	-16.5637
裲	-16.5637
諐	-16.5637
跶	-16.5637
躧	-16.5637
軨	-16.5637
辠	-16.5637
進	-16.5637
釂	-16.5637
阛	-16.5637
鞿	-16.5637
顦	-16.5637
馇	-16.5637
鬪	-16.5637
鲏	-16.5637
감	-16.5637
직	-16.5637
ְ	-16.5922
ִ	-16.5922
פ	-16.5922
ე	-16.5922
ọ	-16.5922
侁	-16.5922
傜	-16.5922
僴	-16.5922
坱	-16.5922
埈	-16.5922
堮	-16.5922
塙	-16.5922
塼	-16.5922
奫	-16.5922
尠	-16.5922
弶	-16.5922
愞	-16.5922
憖	-16.5922
摂	-16.5922
攉	-16.5922
枓	-16.5922
柂	-16.5922
棪	-16.5922
楬	-16.5922
楳	-16.5922
榑	-16.5922
浟	-16.5922
漴	-16.5922
灂	-16.5922
玗	-16.5922
皪	-16.5922
砘	-16.5922
窞	-16.5922
縁	-16.5922
縄	-16.5922
翏	-16.5922
耏	-16.5922
胕	-16.5922
芐	-16.5922
蜼	-16.5922
螾	-16.5922
裎	-16.5922
诼	-16.5922
貛	-16.5922
輒	-16.5922
迵	-16.5922
長	-16.5922
韔	-16.5922
頟	-16.5922
颩	-16.5922
鹥	-16.5922
걸	-16.5922
충	-16.5922
환	-16.5922
	-16.5922
殣	-16.5923
Ś	-16.6217
Ş	-16.6217
ţ	-16.6217
ṇ	-16.6217
∝	-16.6217
並	-16.6217
乸	-16.6217
僜	-16.6217
僝	-16.6217
啍	-16.6217
噁	-16.6217
壝	-16.6217
壱	-16.6217
嶤	-16.6217
巎	-16.6217
拑	-16.6217
擡	-16.6217
擥	-16.6217
斶	-16.6217
昷	-16.6217
檵	-16.6217
欑	-16.6217
毚	-16.6217
泜	-16.6217
洭	-16.6217
滙	-16.6217
濶	-16.6217
灺	-16.6217
焴	-16.6217
狛	-16.6217
獘	-16.6217
畷	-16.6217
碔	-16.6217
虙	-16.6217
蜨	-16.6217
裰	-16.6217
觫	-16.6217
讚	-16.6217
賹	-16.6217
躒	-16.6217
镮	-16.6217
雘	-16.6217
魮	-16.6217
鯵	-16.6217
鰟	-16.6217
鴳	-16.6217
루	-16.6217
타	-16.6217
행	-16.6217
坶	-16.6217
抶	-16.6217
爟	-16.6217
辿	-16.6217
锘	-16.6217
w	-16.652
Й	-16.652
ם	-16.652
„	-16.652
佖	-16.652
侜	-16.652
倴	-16.652
僬	-16.652
內	-16.652
処	-16.652
刋	-16.652
刦	-16.652
呫	-16.652
呬	-16.652
哜	-16.652
姦	-16.652
嶪	-16.652
廥	-16.652
慅	-16.652
慬	-16.652
挻	-16.652
斉	-16.652
斸	-16.652
洈	-16.652
滮	-16.652
潩	-16.652
煿	-16.652
瑸	-16.652
皥	-16.652
碪	-16.652
紒	-16.652
纕	-16.652
罈	-16.652
脤	-16.652
臝	-16.652
菂	-16.652
薉	-16.652
虣	-16.652
蝀	-16.652
衺	-16.652
襚	-16.652
詶	-16.652
誾	-16.652
谿	-16.652
趿	-16.652
跧	-16.652
踠	-16.652
軽	-16.652
辀	-16.652
鄃	-16.652
酘	-16.652
鐻	-16.652
镥	-16.652
間	-16.652
雟	-16.652
顸	-16.652
颸	-16.652
饤	-16.652
馹	-16.652
鬹	-16.652
鳲	-16.652
鵖	-16.652
鸘	-16.652
龁	-16.652
레	-16.652
빈	-16.652
식	-16.652
할	-16.652
জ	-16.6832
ษ	-16.6832
ื	-16.6832
ད	-16.6832
乇	-16.6832
値	-16.6832
僩	-16.6832
儚	-16.6832
劚	-16.6832
噞	-16.6832
囲	-16.6832
屴	-16.6832
帬	-16.6832
扢	-16.6832
搒	-16.6832
摎	-16.6832
敩	-16.6832
昒	-16.6832
晼	-16.6832
枬	-16.6832
槑	-16.6832
檮	-16.6832
洟	-16.6832
洴	-16.6832
淈	-16.6832
焠	-16.6832
牜	-16.6832
獚	-16.6832
珤	-16.6832
祾	-16.6832
窎	-16.6832
篨	-16.6832
簴	-16.6832
籝	-16.6832
罛	-16.6832
耉	-16.6832
胲	-16.6832
腇	-16.6832
莋	-16.6832
萐	-16.6832
蒱	-16.6832
蓚	-16.6832
蕣	-16.6832
虼	-16.6832
裈	-16.6832
裋	-16.6832
褵	-16.6832
褾	-16.6832
詝	-16.6832
趱	-16.6832
鄨	-16.6832
鄽	-16.6832
酅	-16.6832
醰	-16.6832
電	-16.6832
靿	-16.6832
駆	-16.6832
騧	-16.6832
鬱	-16.6832
鮸	-16.6832
鴒	-16.6832
鴴	-16.6832
鵼	-16.6832
鶂	-16.6832
鶺	-16.6832
鷞	-16.6832
鹲	-16.6832
鼒	-16.6832
규	-16.6832
반	-16.6832
버	-16.6832
싶	-16.6832
크	-16.6832
터	-16.6832
효	-16.6832
	-16.6832
å	-16.7155
Ÿ	-16.7155
Щ	-16.7155
ї	-16.7155
◥	-16.7155
䴓	-16.7155
偊	-16.7155
働	-16.7155
卨	-16.7155
厰	-16.7155
咅	-16.7155
咡	-16.7155
嘷	-16.7155
壄	-16.7155
專	-16.7155
屲	-16.7155
屼	-16.7155
悆	-16.7155
悾	-16.7155
愽	-16.7155
摵	-16.7155
撖	-16.7155
數	-16.7155
杕	-16.7155
柤	-16.7155
梱	-16.7155
梴	-16.7155
椶	-16.7155
樠	-16.7155
浰	-16.7155
渢	-16.7155
玆	-16.7155
瑔	-16.7155
睆	-16.7155
矖	-16.7155
硋	-16.7155
禟	-16.7155
笻	-16.7155
簖	-16.7155
粞	-16.7155
緆	-16.7155
胷	-16.7155
蝱	-16.7155
蟇	-16.7155
讔	-16.7155
趔	-16.7155
軎	-16.7155
迴	-16.7155
郙	-16.7155
酧	-16.7155
闬	-16.7155
雚	-16.7155
鞉	-16.7155
鞓	-16.7155
韍	-16.7155
颥	-16.7155
颷	-16.7155
髈	-16.7155
鮊	-16.7155
鱂	-16.7155
齾	-16.7155
것	-16.7155
령	-16.7155
佧	-16.7155
冂	-16.7155
檟	-16.7155
Ö	-16.7488
Ζ	-16.7488
अ	-16.7488
ज	-16.7488
ญ	-16.7488
ང	-16.7488
ṭ	-16.7488
㙡	-16.7488
佪	-16.7488
倈	-16.7488
傞	-16.7488
僄	-16.7488
剟	-16.7488
咾	-16.7488
唪	-16.7488
埳	-16.7488
墐	-16.7488
姙	-16.7488
媜	-16.7488
孅	-16.7488
寯	-16.7488
島	-16.7488
崪	-16.7488
嶰	-16.7488
彯	-16.7488
暁	-16.7488
暲	-16.7488
杩	-16.7488
柈	-16.7488
柸	-16.7488
柾	-16.7488
桮	-16.7488
楶	-16.7488
榍	-16.7488
汋	-16.7488
浤	-16.7488
潚	-16.7488
烱	-16.7488
煑	-16.7488
猀	-16.7488
猄	-16.7488
瑈	-16.7488
硙	-16.7488
禚	-16.7488
秔	-16.7488
稂	-16.7488
窻	-16.7488
籯	-16.7488
絫	-16.7488
羃	-16.7488
羖	-16.7488
舩	-16.7488
舴	-16.7488
芼	-16.7488
薗	-16.7488
衕	-16.7488
褌	-16.7488
覚	-16.7488
覼	-16.7488
諝	-16.7488
諫	-16.7488
蹔	-16.7488
轜	-16.7488
鍑	-16.7488
镤	-16.7488
阽	-16.7488
韈	-16.7488
駈	-16.7488
駉	-16.7488
騋	-16.7488
鰧	-16.7488
鲾	-16.7488
鳠	-16.7488
鸃	-16.7488
黶	-16.7488
齁	-16.7488
齏	-16.7488
으	-16.7488
저	-16.7488
포	-16.7488
항	-16.7488
v	-16.7488
卭	-16.7833
騤	-16.7833
ř	-16.7833
Ρ	-16.7833
Ј	-16.7833
ह	-16.7833
ས	-16.7833
ợ	-16.7833
亷	-16.7833
剏	-16.7833
嚫	-16.7833
垜	-16.7833
墦	-16.7833
媖	-16.7833
嬲	-16.7833
岍	-16.7833
岏	-16.7833
廸	-16.7833
弐	-16.7833
悤	-16.7833
憃	-16.7833
搘	-16.7833
暅	-16.7833
暵	-16.7833
曚	-16.7833
枊	-16.7833
桖	-16.7833
檥	-16.7833
歯	-16.7833
準	-16.7833
滱	-16.7833
熿	-16.7833
爲	-16.7833
痎	-16.7833
皰	-16.7833
硭	-16.7833
綌	-16.7833
縡	-16.7833
纇	-16.7833
脁	-16.7833
腶	-16.7833
舠	-16.7833
艎	-16.7833
芧	-16.7833
蓰	-16.7833
蓱	-16.7833
蠛	-16.7833
衊	-16.7833
諆	-16.7833
貎	-16.7833
貒	-16.7833
蹅	-16.7833
過	-16.7833
鋂	-16.7833
陧	-16.7833
鞵	-16.7833
颭	-16.7833
馉	-16.7833
鶵	-16.7833
鷈	-16.7833
鼪	-16.7833
齒	-16.7833
널	-16.7833
록	-16.7833
못	-16.7833
숙	-16.7833
ő	-16.819
ո	-16.819
◤	-16.819
乛	-16.819
儳	-16.819
凴	-16.819
厪	-16.819
吚	-16.819
咮	-16.819
坉	-16.819
墈	-16.819
奤	-16.819
媕	-16.819
嵂	-16.819
嵸	-16.819
廔	-16.819
恝	-16.819
慭	-16.819
搿	-16.819
擫	-16.819
旝	-16.819
昚	-16.819
晅	-16.819
栭	-16.819
椆	-16.819
檞	-16.819
涊	-16.819
湝	-16.819
無	-16.819
獧	-16.819
玅	-16.819
瑴	-16.819
璝	-16.819
甔	-16.819
畟	-16.819
痌	-16.819
盠	-16.819
瞶	-16.819
瞷	-16.819
硏	-16.819
磈	-16.819
磑	-16.819
竚	-16.819
筤	-16.819
筸	-16.819
簨	-16.819
簹	-16.819
絣	-16.819
緵	-16.819
繫	-16.819
纎	-16.819
罱	-16.819
翐	-16.819
胊	-16.819
胻	-16.819
脎	-16.819
臜	-16.819
薶	-16.819
蝻	-16.819
蠒	-16.819
裯	-16.819
訑	-16.819
谼	-16.819
豋	-16.819
賮	-16.819
轪	-16.819
鉶	-16.819
閲	-16.819
闠	-16.819
雱	-16.819
鞔	-16.819
髮	-16.819
鷖	-16.819
黙	-16.819
齗	-16.819
겠	-16.819
때	-16.819
번	-16.819
복	-16.819
출	-16.819
	-16.819
扥	-16.819
¦	-16.856
ý	-16.856
ն	-16.856
র	-16.856
ে	-16.856
ོ	-16.856
☞	-16.856
䳭	-16.856
個	-16.856
傃	-16.856
僽	-16.856
儹	-16.856
匳	-16.856
咶	-16.856
啑	-16.856
圞	-16.856
圴	-16.856
埘	-16.856
塥	-16.856
姽	-16.856
婠	-16.856
寠	-16.856
峛	-16.856
巃	-16.856
巣	-16.856
廣	-16.856
弆	-16.856
惷	-16.856
掯	-16.856
旡	-16.856
棅	-16.856
槇	-16.856
殑	-16.856
涬	-16.856
湼	-16.856
瀜	-16.856
熸	-16.856
猯	-16.856
猰	-16.856
獏	-16.856
甀	-16.856
甞	-16.856
當	-16.856
皜	-16.856
眎	-16.856
砫	-16.856
磎	-16.856
礲	-16.856
祤	-16.856
禴	-16.856
種	-16.856
笭	-16.856
筳	-16.856
縿	-16.856
缻	-16.856
耤	-16.856
臯	-16.856
舭	-16.856
蕅	-16.856
蚑	-16.856
覰	-16.856
訬	-16.856
逹	-16.856
邆	-16.856
釃	-16.856
鉌	-16.856
鉧	-16.856
钁	-16.856
铻	-16.856
隟	-16.856
霨	-16.856
饁	-16.856
騕	-16.856
髆	-16.856
鬋	-16.856
鬏	-16.856
鱻	-16.856
鹴	-16.856
각	-16.856
끝	-16.856
림	-16.856
채	-16.856
티	-16.856
혁	-16.856
姶	-16.856
苅	-16.856
Ł	-16.8945
Ž	-16.8945
қ	-16.8945
䴕	-16.8945
亯	-16.8945
刵	-16.8945
卩	-16.8945
叾	-16.8945
咺	-16.8945
哱	-16.8945
嘑	-16.8945
嘬	-16.8945
垔	-16.8945
堈	-16.8945
堋	-16.8945
姌	-16.8945
姧	-16.8945
娡	-16.8945
婬	-16.8945
嵗	-16.8945
帡	-16.8945
幨	-16.8945
廠	-16.8945
彟	-16.8945
恉	-16.8945
捄	-16.8945
掭	-16.8945
旣	-16.8945
曵	-16.8945
曺	-16.8945
枑	-16.8945
枟	-16.8945
榰	-16.8945
櫑	-16.8945
歜	-16.8945
毉	-16.8945
洏	-16.8945
澐	-16.8945
焫	-16.8945
熥	-16.8945
牗	-16.8945
玃	-16.8945
璂	-16.8945
睍	-16.8945
砹	-16.8945
磹	-16.8945
礿	-16.8945
秪	-16.8945
穄	-16.8945
窌	-16.8945
糓	-16.8945
紾	-16.8945
綕	-16.8945
胐	-16.8945
脳	-16.8945
艟	-16.8945
茙	-16.8945
蔿	-16.8945
蝝	-16.8945
螠	-16.8945
襍	-16.8945
詗	-16.8945
詻	-16.8945
誴	-16.8945
賷	-16.8945
蹵	-16.8945
轒	-16.8945
辁	-16.8945
鄌	-16.8945
酦	-16.8945
醿	-16.8945
鎯	-16.8945
鏤	-16.8945
鑕	-16.8945
閧	-16.8945
鞆	-16.8945
韲	-16.8945
頀	-16.8945
馂	-16.8945
駬	-16.8945
驌	-16.8945
鬴	-16.8945
鱥	-16.8945
鷯	-16.8945
鹔	-16.8945
黕	-16.8945
黵	-16.8945
齘	-16.8945
龂	-16.8945
권	-16.8945
디	-16.8945
류	-16.8945
배	-16.8945
변	-16.8945
숨	-16.8945
않	-16.8945
완	-16.8945
외	-16.8945
입	-16.8945
질	-16.8945
冮	-16.8945
嘐	-16.8945
歈	-16.8945
~	-16.9215
藔	-16.9345
Á	-16.9345
Ü	-16.9345
İ	-16.9345
Ά	-16.9345
כ	-16.9345
ס	-16.9345
ذ	-16.9345
็	-16.9345
ḥ	-16.9345
ể	-16.9345
┊	-16.9345
┬	-16.9345
䴘	-16.9345
傪	-16.9345
傺	-16.9345
僡	-16.9345
冨	-16.9345
剚	-16.9345
咘	-16.9345
墚	-16.9345
壍	-16.9345
寽	-16.9345
嶭	-16.9345
巛	-16.9345
慜	-16.9345
慺	-16.9345
戠	-16.9345
摠	-16.9345
杬	-16.9345
杮	-16.9345
桼	-16.9345
梫	-16.9345
槓	-16.9345
櫩	-16.9345
毼	-16.9345
煐	-16.9345
煟	-16.9345
痁	-16.9345
瘄	-16.9345
皊	-16.9345
硜	-16.9345
竂	-16.9345
絻	-16.9345
綎	-16.9345
缞	-16.9345
肙	-16.9345
膰	-16.9345
臙	-16.9345
莿	-16.9345
菻	-16.9345
蝍	-16.9345
螿	-16.9345
蟟	-16.9345
衝	-16.9345
裝	-16.9345
襢	-16.9345
襮	-16.9345
訿	-16.9345
讃	-16.9345
跩	-16.9345
蹍	-16.9345
輠	-16.9345
酏	-16.9345
醻	-16.9345
鈊	-16.9345
鈡	-16.9345
錬	-16.9345
鍐	-16.9345
鎡	-16.9345
鑢	-16.9345
锠	-16.9345
開	-16.9345
霂	-16.9345
霙	-16.9345
靘	-16.9345
靧	-16.9345
靫	-16.9345
韮	-16.9345
駹	-16.9345
驲	-16.9345
鬾	-16.9345
鯷	-16.9345
鱒	-16.9345
鸎	-16.9345
란	-16.9345
워	-16.9345
했	-16.9345
향	-16.9345
	-16.9345
ė	-16.9762
ड	-16.9762
┣	-16.9762
♩	-16.9762
侲	-16.9762
俫	-16.9762
倳	-16.9762
價	-16.9762
僿	-16.9762
冓	-16.9762
劏	-16.9762
厷	-16.9762
唃	-16.9762
唲	-16.9762
嚯	-16.9762
坋	-16.9762
垇	-16.9762
夂	-16.9762
娒	-16.9762
婎	-16.9762
媠	-16.9762
峘	-16.9762
峿	-16.9762
帢	-16.9762
忔	-16.9762
惏	-16.9762
惵	-16.9762
槺	-16.9762
橅	-16.9762
櫽	-16.9762
欉	-16.9762
滻	-16.9762
澙	-16.9762
灜	-16.9762
熯	-16.9762
燖	-16.9762
爀	-16.9762
爓	-16.9762
猘	-16.9762
琖	-16.9762
瓻	-16.9762
畮	-16.9762
篢	-16.9762
紝	-16.9762
芔	-16.9762
荗	-16.9762
菎	-16.9762
蚼	-16.9762
蝑	-16.9762
蠪	-16.9762
衖	-16.9762
袚	-16.9762
袨	-16.9762
計	-16.9762
謁	-16.9762
譸	-16.9762
蹓	-16.9762
蹡	-16.9762
轇	-16.9762
鉎	-16.9762
钘	-16.9762
铘	-16.9762
锧	-16.9762
閴	-16.9762
闢	-16.9762
隲	-16.9762
靃	-16.9762
靮	-16.9762
鞗	-16.9762
飂	-16.9762
饎	-16.9762
騣	-16.9762
髬	-16.9762
髾	-16.9762
鬙	-16.9762
鱀	-16.9762
鳘	-16.9762
鵎	-16.9762
鶗	-16.9762
黇	-16.9762
黢	-16.9762
鼛	-16.9762
齓	-16.9762
던	-16.9762
되	-16.9762
실	-16.9762
헌	-16.9762
	-16.9762
	-16.9762
ʊ	-17.0196
ʒ	-17.0196
І	-17.0196
ק	-17.0196
ء	-17.0196
च	-17.0196
্	-17.0196
⊿	-17.0196
└	-17.0196
❤	-17.0196
ゐ	-17.0196
俜	-17.0196
俷	-17.0196
倗	-17.0196
倛	-17.0196
僔	-17.0196
僾	-17.0196
儸	-17.0196
凵	-17.0196
勩	-17.0196
叇	-17.0196
吔	-17.0196
哫	-17.0196
嗈	-17.0196
嗸	-17.0196
埪	-17.0196
埰	-17.0196
妚	-17.0196
娖	-17.0196
屻	-17.0196
嵲	-17.0196
嶅	-17.0196
巭	-17.0196
彆	-17.0196
悽	-17.0196
戤	-17.0196
抳	-17.0196
捨	-17.0196
擭	-17.0196
晜	-17.0196
枱	-17.0196
棯	-17.0196
椛	-17.0196
楪	-17.0196
樉	-17.0196
檦	-17.0196
殥	-17.0196
淢	-17.0196
渃	-17.0196
溠	-17.0196
滪	-17.0196
潬	-17.0196
澭	-17.0196
濙	-17.0196
烖	-17.0196
燡	-17.0196
燫	-17.0196
牷	-17.0196
玊	-17.0196
琻	-17.0196
瘭	-17.0196
皭	-17.0196
眀	-17.0196
眢	-17.0196
祴	-17.0196
窐	-17.0196
窸	-17.0196
糇	-17.0196
糼	-17.0196
緑	-17.0196
缷	-17.0196
羱	-17.0196
蒓	-17.0196
蒢	-17.0196
蔔	-17.0196
衟	-17.0196
裷	-17.0196
褉	-17.0196
襀	-17.0196
誖	-17.0196
謿	-17.0196
谹	-17.0196
谽	-17.0196
豤	-17.0196
鄅	-17.0196
醟	-17.0196
醽	-17.0196
鍧	-17.0196
鑛	-17.0196
钸	-17.0196
霿	-17.0196
飀	-17.0196
骒	-17.0196
鬑	-17.0196
魾	-17.0196
鱅	-17.0196
鱊	-17.0196
鸇	-17.0196
鸌	-17.0196
麚	-17.0196
麨	-17.0196
꾸	-17.0196
발	-17.0196
살	-17.0196
즈	-17.0196
토	-17.0196
	-17.0196
塀	-17.0196
ï	-17.0651
ķ	-17.0651
Ь	-17.0651
ט	-17.0651
ฟ	-17.0651
ํ	-17.0651
ს	-17.0651
ṅ	-17.0651
€	-17.0651
┡	-17.0651
亠	-17.0651
儜	-17.0651
吣	-17.0651
嚤	-17.0651
場	-17.0651
夋	-17.0651
妠	-17.0651
嫇	-17.0651
寑	-17.0651
導	-17.0651
戭	-17.0651
挒	-17.0651
採	-17.0651
搵	-17.0651
斨	-17.0651
榾	-17.0651
樂	-17.0651
毑	-17.0651
沋	-17.0651
洢	-17.0651
涍	-17.0651
瀌	-17.0651
烀	-17.0651
焄	-17.0651
犎	-17.0651
狋	-17.0651
狶	-17.0651
瓩	-17.0651
痡	-17.0651
皡	-17.0651
睩	-17.0651
瞆	-17.0651
碝	-17.0651
礌	-17.0651
禬	-17.0651
稌	-17.0651
穵	-17.0651
篴	-17.0651
籋	-17.0651
縆	-17.0651
翂	-17.0651
耥	-17.0651
耱	-17.0651
肈	-17.0651
臢	-17.0651
荙	-17.0651
荵	-17.0651
萣	-17.0651
萮	-17.0651
薿	-17.0651
蘆	-17.0651
虩	-17.0651
觺	-17.0651
語	-17.0651
诪	-17.0651
豻	-17.0651
貐	-17.0651
跅	-17.0651
踰	-17.0651
蹛	-17.0651
較	-17.0651
轔	-17.0651
辒	-17.0651
鄑	-17.0651
酳	-17.0651
鐇	-17.0651
鞌	-17.0651
餧	-17.0651
騨	-17.0651
髵	-17.0651
鮧	-17.0651
鯮	-17.0651
鰶	-17.0651
鵽	-17.0651
鹙	-17.0651
麀	-17.0651
黴	-17.0651
齅	-17.0651
늘	-17.0651
떠	-17.0651
작	-17.0651
ヅ	-17.0651
価	-17.0651
尞	-17.0651
徦	-17.0651
悊	-17.0651
欐	-17.0651
歕	-17.0651
沶	-17.0651
滛	-17.0651
熱	-17.0651
罭	-17.0651
蔃	-17.0651
咵	-17.1127
祋	-17.1127
筶	-17.1127
篸	-17.1127
聡	-17.1127
葊	-17.1127
觕	-17.1127
Å	-17.1127
ُ	-17.1127
ّ	-17.1127
ो	-17.1127
ữ	-17.1127
╮	-17.1127
╰	-17.1127
乣	-17.1127
仼	-17.1127
偭	-17.1127
傫	-17.1127
匊	-17.1127
呑	-17.1127
唝	-17.1127
唭	-17.1127
喓	-17.1127
坴	-17.1127
墫	-17.1127
嫭	-17.1127
嫰	-17.1127
嬝	-17.1127
將	-17.1127
屨	-17.1127
岒	-17.1127
崡	-17.1127
巠	-17.1127
彴	-17.1127
抆	-17.1127
捘	-17.1127
杄	-17.1127
棜	-17.1127
楅	-17.1127
槥	-17.1127
槫	-17.1127
檖	-17.1127
檽	-17.1127
殜	-17.1127
淓	-17.1127
溻	-17.1127
滵	-17.1127
澛	-17.1127
炧	-17.1127
犋	-17.1127
猼	-17.1127
璕	-17.1127
睱	-17.1127
矹	-17.1127
硊	-17.1127
碨	-17.1127
磞	-17.1127
礰	-17.1127
穅	-17.1127
笵	-17.1127
筥	-17.1127
絇	-17.1127
絿	-17.1127
繐	-17.1127
膍	-17.1127
苠	-17.1127
莚	-17.1127
萬	-17.1127
蓷	-17.1127
蕯	-17.1127
薖	-17.1127
蟉	-17.1127
蟧	-17.1127
蟺	-17.1127
註	-17.1127
谫	-17.1127
豓	-17.1127
資	-17.1127
賑	-17.1127
趑	-17.1127
躜	-17.1127
輷	-17.1127
醳	-17.1127
鍮	-17.1127
陞	-17.1127
霡	-17.1127
韨	-17.1127
顕	-17.1127
飊	-17.1127
飖	-17.1127
館	-17.1127
饌	-17.1127
饍	-17.1127
饙	-17.1127
騶	-17.1127
髲	-17.1127
鬷	-17.1127
鮃	-17.1127
鮗	-17.1127
鯱	-17.1127
鲒	-17.1127
鵕	-17.1127
黓	-17.1127
鼖	-17.1127
鼫	-17.1127
곳	-17.1127
력	-17.1127
적	-17.1127
져	-17.1127
춘	-17.1127
카	-17.1127
¬	-17.1627
î	-17.1627
ħ	-17.1627
į	-17.1627
Ξ	-17.1627
љ	-17.1627
ۇ	-17.1627
ە	-17.1627
ন	-17.1627
ব	-17.1627
ி	-17.1627
ན	-17.1627
თ	-17.1627
ნ	-17.1627
᩠	-17.1627
ớ	-17.1627
♡	-17.1627
㭎	-17.1627
侹	-17.1627
冄	-17.1627
冱	-17.1627
劖	-17.1627
呿	-17.1627
噣	-17.1627
圑	-17.1627
坮	-17.1627
壒	-17.1627
娸	-17.1627
媭	-17.1627
嬬	-17.1627
屇	-17.1627
峚	-17.1627
師	-17.1627
庲	-17.1627
廩	-17.1627
廱	-17.1627
彄	-17.1627
惄	-17.1627
愻	-17.1627
憭	-17.1627
抺	-17.1627
掟	-17.1627
柶	-17.1627
梠	-17.1627
椞	-17.1627
櫍	-17.1627
氕	-17.1627
氺	-17.1627
湩	-17.1627
漋	-17.1627
漎	-17.1627
煻	-17.1627
猲	-17.1627
獛	-17.1627
瑅	-17.1627
碻	-17.1627
礜	-17.1627
礠	-17.1627
礨	-17.1627
礵	-17.1627
祘	-17.1627
穣	-17.1627
窔	-17.1627
竇	-17.1627
籾	-17.1627
縰	-17.1627
罙	-17.1627
罠	-17.1627
腲	-17.1627
艣	-17.1627
菐	-17.1627
薴	-17.1627
蘵	-17.1627
處	-17.1627
蛃	-17.1627
蠁	-17.1627
袝	-17.1627
諓	-17.1627
諭	-17.1627
譾	-17.1627
貆	-17.1627
買	-17.1627
跰	-17.1627
輵	-17.1627
邿	-17.1627
醊	-17.1627
醾	-17.1627
釪	-17.1627
鈆	-17.1627
鈈	-17.1627
鋄	-17.1627
錍	-17.1627
鏦	-17.1627
鑅	-17.1627
門	-17.1627
隷	-17.1627
霝	-17.1627
頖	-17.1627
饳	-17.1627
駓	-17.1627
骉	-17.1627
魖	-17.1627
鮦	-17.1627
點	-17.1627
黭	-17.1627
넌	-17.1627
녀	-17.1627
맘	-17.1627
범	-17.1627
불	-17.1627
었	-17.1627
육	-17.1627
족	-17.1627
테	-17.1627
합	-17.1627
ʃ	-17.2154
ˆ	-17.2154
Қ	-17.2154
ի	-17.2154
ֵ	-17.2154
ז	-17.2154
भ	-17.2154
ლ	-17.2154
ო	-17.2154
▷	-17.2154
䶮	-17.2154
侓	-17.2154
僸	-17.2154
剕	-17.2154
劐	-17.2154
劗	-17.2154
匂	-17.2154
嚘	-17.2154
團	-17.2154
垹	-17.2154
垺	-17.2154
塈	-17.2154
奼	-17.2154
婓	-17.2154
寊	-17.2154
嶐	-17.2154
幦	-17.2154
庬	-17.2154
怗	-17.2154
慱	-17.2154
択	-17.2154
撋	-17.2154
撦	-17.2154
擧	-17.2154
昈	-17.2154
晣	-17.2154
曨	-17.2154
枦	-17.2154
棽	-17.2154
槩	-17.2154
樕	-17.2154
殗	-17.2154
氒	-17.2154
沖	-17.2154
泙	-17.2154
淔	-17.2154
渁	-17.2154
湅	-17.2154
漀	-17.2154
漥	-17.2154
烋	-17.2154
狫	-17.2154
獖	-17.2154
珸	-17.2154
琄	-17.2154
畖	-17.2154
痖	-17.2154
眘	-17.2154
砅	-17.2154
秺	-17.2154
窫	-17.2154
竁	-17.2154
箣	-17.2154
紃	-17.2154
絝	-17.2154
綪	-17.2154
纴	-17.2154
羭	-17.2154
艅	-17.2154
芄	-17.2154
苢	-17.2154
荍	-17.2154
莝	-17.2154
萚	-17.2154
葴	-17.2154
葹	-17.2154
蘋	-17.2154
蝲	-17.2154
蟅	-17.2154
蟷	-17.2154
術	-17.2154
衜	-17.2154
褆	-17.2154
論	-17.2154
谺	-17.2154
貣	-17.2154
贔	-17.2154
趷	-17.2154
蹢	-17.2154
轕	-17.2154
遬	-17.2154
邉	-17.2154
邘	-17.2154
鄡	-17.2154
鄹	-17.2154
鋙	-17.2154
錩	-17.2154
鐼	-17.2154
鑑	-17.2154
铹	-17.2154
镴	-17.2154
隂	-17.2154
靷	-17.2154
鞙	-17.2154
韎	-17.2154
頲	-17.2154
颿	-17.2154
餈	-17.2154
馌	-17.2154
騢	-17.2154
驔	-17.2154
鬺	-17.2154
鮆	-17.2154
鯓	-17.2154
鱏	-17.2154
鴃	-17.2154
鴠	-17.2154
鵔	-17.2154
鵻	-17.2154
鶄	-17.2154
黁	-17.2154
齍	-17.2154
齩	-17.2154
龍	-17.2154
럼	-17.2154
머	-17.2154
베	-17.2154
봉	-17.2154
얼	-17.2154
업	-17.2154
집	-17.2154
취	-17.2154
흥	-17.2154
	-17.2154
篛	-17.2709
	-17.2709
Æ	-17.2709
ʻ	-17.2709
̋	-17.2709
Ы	-17.2709
ү	-17.2709
ַ	-17.2709
َ	-17.2709
ি	-17.2709
க	-17.2709
པ	-17.2709
ལ	-17.2709
ṃ	-17.2709
Ἐ	-17.2709
⇒	-17.2709
∷	-17.2709
┉	-17.2709
▶	-17.2709
侎	-17.2709
倰	-17.2709
偆	-17.2709
偘	-17.2709
傔	-17.2709
傮	-17.2709
傱	-17.2709
傳	-17.2709
兟	-17.2709
冧	-17.2709
刜	-17.2709
吷	-17.2709
哢	-17.2709
哳	-17.2709
唻	-17.2709
啀	-17.2709
啇	-17.2709
嘠	-17.2709
嘡	-17.2709
噰	-17.2709
嚜	-17.2709
圠	-17.2709
垿	-17.2709
堧	-17.2709
塿	-17.2709
墺	-17.2709
媻	-17.2709
嫈	-17.2709
嬟	-17.2709
嶻	-17.2709
恆	-17.2709
應	-17.2709
扜	-17.2709
昄	-17.2709
昐	-17.2709
晛	-17.2709
杘	-17.2709
枠	-17.2709
楡	-17.2709
欂	-17.2709
欃	-17.2709
殹	-17.2709
氄	-17.2709
汳	-17.2709
洐	-17.2709
洤	-17.2709
涷	-17.2709
漦	-17.2709
烇	-17.2709
犠	-17.2709
猳	-17.2709
獦	-17.2709
玏	-17.2709
甽	-17.2709
痆	-17.2709
癓	-17.2709
皯	-17.2709
硾	-17.2709
穋	-17.2709
窵	-17.2709
筈	-17.2709
箢	-17.2709
簳	-17.2709
籣	-17.2709
粺	-17.2709
絃	-17.2709
組	-17.2709
絏	-17.2709
絖	-17.2709
經	-17.2709
绤	-17.2709
罉	-17.2709
罋	-17.2709
脃	-17.2709
葰	-17.2709
衵	-17.2709
裉	-17.2709
襛	-17.2709
訔	-17.2709
該	-17.2709
誂	-17.2709
謑	-17.2709
讱	-17.2709
赒	-17.2709
趂	-17.2709
趹	-17.2709
蹝	-17.2709
輬	-17.2709
釱	-17.2709
鏳	-17.2709
隥	-17.2709
餤	-17.2709
駴	-17.2709
騊	-17.2709
鶖	-17.2709
鸕	-17.2709
鸞	-17.2709
黳	-17.2709
鼌	-17.2709
겨	-17.2709
꿈	-17.2709
릉	-17.2709
매	-17.2709
먼	-17.2709
빠	-17.2709
습	-17.2709
언	-17.2709
축	-17.2709
키	-17.2709
표	-17.2709
헤	-17.2709
翯	-17.2709
撧	-17.3297
昻	-17.3297
栔	-17.3297
獝	-17.3297
痦	-17.3297
痳	-17.3297
緐	-17.3297
蔄	-17.3297
蕋	-17.3297
鄾	-17.3297
Ä	-17.3297
õ	-17.3297
ɐ	-17.3297
˧	-17.3297
ւ	-17.3297
ֹ	-17.3297
ா	-17.3297
ῖ	-17.3297
⌒	-17.3297
▇	-17.3297
▓	-17.3297
〆	-17.3297
ぉ	-17.3297
佌	-17.3297
係	-17.3297
俴	-17.3297
儞	-17.3297
冁	-17.3297
凟	-17.3297
勠	-17.3297
匵	-17.3297
參	-17.3297
唣	-17.3297
嚆	-17.3297
囃	-17.3297
坿	-17.3297
埢	-17.3297
奰	-17.3297
姩	-17.3297
嫳	-17.3297
尗	-17.3297
屾	-17.3297
峱	-17.3297
崯	-17.3297
嵽	-17.3297
愼	-17.3297
挍	-17.3297
摰	-17.3297
斄	-17.3297
曏	-17.3297
桹	-17.3297
梐	-17.3297
槤	-17.3297
樝	-17.3297
橔	-17.3297
橥	-17.3297
泑	-17.3297
浵	-17.3297
涳	-17.3297
渜	-17.3297
渹	-17.3297
湢	-17.3297
湻	-17.3297
滭	-17.3297
潕	-17.3297
瀓	-17.3297
煗	-17.3297
犕	-17.3297
瑫	-17.3297
璗	-17.3297
畐	-17.3297
畾	-17.3297
痗	-17.3297
痩	-17.3297
癧	-17.3297
眏	-17.3297
眕	-17.3297
眽	-17.3297
瞾	-17.3297
磢	-17.3297
祕	-17.3297
笴	-17.3297
筓	-17.3297
箘	-17.3297
篲	-17.3297
籹	-17.3297
絍	-17.3297
緤	-17.3297
緺	-17.3297
繋	-17.3297
繝	-17.3297
罦	-17.3297
羗	-17.3297
肧	-17.3297
肶	-17.3297
茷	-17.3297
菆	-17.3297
萯	-17.3297
葂	-17.3297
蓧	-17.3297
蚛	-17.3297
蚮	-17.3297
蝂	-17.3297
袘	-17.3297
褠	-17.3297
訩	-17.3297
訽	-17.3297
誗	-17.3297
贙	-17.3297
赸	-17.3297
踒	-17.3297
輣	-17.3297
輤	-17.3297
轥	-17.3297
醭	-17.3297
鉁	-17.3297
鍈	-17.3297
鐎	-17.3297
閭	-17.3297
隺	-17.3297
韐	-17.3297
颟	-17.3297
飤	-17.3297
飰	-17.3297
駜	-17.3297
駼	-17.3297
骾	-17.3297
鶹	-17.3297
鼏	-17.3297
鼦	-17.3297
렇	-17.3297
슬	-17.3297
악	-17.3297
올	-17.3297
참	-17.3297
체	-17.3297
총	-17.3297
힘	-17.3297
鄎	-17.3922
庼	-17.3922
揅	-17.3922
旤	-17.3922
澽	-17.3922
瘉	-17.3922
禼	-17.3922
穈	-17.3922
篹	-17.3922
翽	-17.3922
茍	-17.3922
	-17.3922
ź	-17.3922
ɾ	-17.3922
Ђ	-17.3922
Ъ	-17.3922
ե	-17.3922
յ	-17.3922
श	-17.3922
ष	-17.3922
ฐ	-17.3922
ུ	-17.3922
ῆ	-17.3922
∟	-17.3922
≻	-17.3922
┌	-17.3922
╯	-17.3922
◦	-17.3922
ヱ	-17.3922
䱻	-17.3922
億	-17.3922
儌	-17.3922
儥	-17.3922
儴	-17.3922
兎	-17.3922
剎	-17.3922
剳	-17.3922
剺	-17.3922
劁	-17.3922
吿	-17.3922
呣	-17.3922
嗏	-17.3922
嗻	-17.3922
堁	-17.3922
堼	-17.3922
墱	-17.3922
壈	-17.3922
夆	-17.3922
姺	-17.3922
嫽	-17.3922
峏	-17.3922
峜	-17.3922
嵙	-17.3922
嶕	-17.3922
幇	-17.3922
庯	-17.3922
廏	-17.3922
忺	-17.3922
戺	-17.3922
戻	-17.3922
扐	-17.3922
抏	-17.3922
摋	-17.3922
撆	-17.3922
撏	-17.3922
撘	-17.3922
擩	-17.3922
敳	-17.3922
昢	-17.3922
暉	-17.3922
柮	-17.3922
椸	-17.3922
楀	-17.3922
楱	-17.3922
橧	-17.3922
歂	-17.3922
歺	-17.3922
毨	-17.3922
氎	-17.3922
汍	-17.3922
泩	-17.3922
泲	-17.3922
潖	-17.3922
潪	-17.3922
瀺	-17.3922
牚	-17.3922
琡	-17.3922
瑺	-17.3922
瓅	-17.3922
畳	-17.3922
瘲	-17.3922
睊	-17.3922
砕	-17.3922
硍	-17.3922
稡	-17.3922
箄	-17.3922
範	-17.3922
篘	-17.3922
紩	-17.3922
緖	-17.3922
緥	-17.3922
縓	-17.3922
缏	-17.3922
羴	-17.3922
肊	-17.3922
肏	-17.3922
肷	-17.3922
臲	-17.3922
艴	-17.3922
苽	-17.3922
茞	-17.3922
茢	-17.3922
菭	-17.3922
華	-17.3922
虍	-17.3922
蝡	-17.3922
螉	-17.3922
蠏	-17.3922
蠨	-17.3922
褀	-17.3922
詥	-17.3922
讻	-17.3922
豙	-17.3922
跦	-17.3922
踸	-17.3922
蹜	-17.3922
輹	-17.3922
輼	-17.3922
這	-17.3922
鄟	-17.3922
鉩	-17.3922
鉽	-17.3922
鑃	-17.3922
铇	-17.3922
镄	-17.3922
陗	-17.3922
陻	-17.3922
陼	-17.3922
鞒	-17.3922
韺	-17.3922
類	-17.3922
飗	-17.3922
飢	-17.3922
騉	-17.3922
髤	-17.3922
魆	-17.3922
鯻	-17.3922
鯿	-17.3922
鰂	-17.3922
鰺	-17.3922
鱁	-17.3922
鱍	-17.3922
鲪	-17.3922
鳒	-17.3922
鳩	-17.3922
鴘	-17.3922
鴡	-17.3922
鸧	-17.3922
鼈	-17.3922
놓	-17.3922
누	-17.3922
새	-17.3922
익	-17.3922
잊	-17.3922
잠	-17.3922
죠	-17.3922
풍	-17.3922
	-17.3922
	-17.3922
Ğ	-17.4589
ɣ	-17.4589
ʌ	-17.4589
Є	-17.4589
ट	-17.4589
ম	-17.4589
ர	-17.4589
უ	-17.4589
‵	-17.4589
≌	-17.4589
♭	-17.4589
俌	-17.4589
俔	-17.4589
傎	-17.4589
僈	-17.4589
呏	-17.4589
哿	-17.4589
唦	-17.4589
啴	-17.4589
喭	-17.4589
塟	-17.4589
壏	-17.4589
夗	-17.4589
姕	-17.4589
姯	-17.4589
姵	-17.4589
婋	-17.4589
媄	-17.4589
嫜	-17.4589
嫶	-17.4589
岪	-17.4589
峗	-17.4589
崝	-17.4589
嶟	-17.4589
弜	-17.4589
彍	-17.4589
彠	-17.4589
怤	-17.4589
恛	-17.4589
悗	-17.4589
悙	-17.4589
悩	-17.4589
慽	-17.4589
懆	-17.4589
懐	-17.4589
挙	-17.4589
挦	-17.4589
掗	-17.4589
揃	-17.4589
摴	-17.4589
昑	-17.4589
晽	-17.4589
朿	-17.4589
栆	-17.4589
梽	-17.4589
極	-17.4589
榠	-17.4589
槢	-17.4589
樏	-17.4589
樴	-17.4589
檊	-17.4589
歾	-17.4589
毰	-17.4589
汃	-17.4589
洀	-17.4589
浭	-17.4589
淍	-17.4589
渓	-17.4589
潽	-17.4589
澫	-17.4589
灟	-17.4589
烄	-17.4589
焾	-17.4589
煁	-17.4589
燅	-17.4589
牏	-17.4589
牞	-17.4589
玍	-17.4589
玿	-17.4589
現	-17.4589
琞	-17.4589
瑎	-17.4589
瑽	-17.4589
甹	-17.4589
畺	-17.4589
瘆	-17.4589
盋	-17.4589
睅	-17.4589
矕	-17.4589
硉	-17.4589
磥	-17.4589
祩	-17.4589
禆	-17.4589
穏	-17.4589
窴	-17.4589
箖	-17.4589
節	-17.4589
籒	-17.4589
縶	-17.4589
繶	-17.4589
纑	-17.4589
罶	-17.4589
羾	-17.4589
翿	-17.4589
肬	-17.4589
胅	-17.4589
臈	-17.4589
舝	-17.4589
艑	-17.4589
艶	-17.4589
苲	-17.4589
菍	-17.4589
蒧	-17.4589
蘙	-17.4589
蘺	-17.4589
蛼	-17.4589
蝜	-17.4589
衋	-17.4589
褷	-17.4589
觴	-17.4589
觷	-17.4589
觼	-17.4589
詅	-17.4589
詪	-17.4589
賛	-17.4589
赗	-17.4589
趠	-17.4589
跙	-17.4589
躶	-17.4589
軥	-17.4589
轡	-17.4589
逤	-17.4589
醱	-17.4589
醼	-17.4589
鋕	-17.4589
錏	-17.4589
鐩	-17.4589
雺	-17.4589
鞸	-17.4589
韤	-17.4589
顋	-17.4589
餖	-17.4589
駄	-17.4589
騒	-17.4589
驖	-17.4589
驥	-17.4589
髼	-17.4589
鬔	-17.4589
鮣	-17.4589
鰃	-17.4589
鱤	-17.4589
鳈	-17.4589
鸤	-17.4589
黲	-17.4589
갈	-17.4589
곤	-17.4589
궁	-17.4589
급	-17.4589
긴	-17.4589
또	-17.4589
뛰	-17.4589
본	-17.4589
빛	-17.4589
설	-17.4589
앙	-17.4589
웃	-17.4589
짓	-17.4589
찰	-17.4589
판	-17.4589
퍼	-17.4589
	-17.4589
嚧	-17.4589
詃	-17.4589
迒	-17.4589
鄷	-17.4589
」	-17.4757
ŭ	-17.5303
ˌ	-17.5303
ұ	-17.5303
ׁ	-17.5303
צ	-17.5303
ھ	-17.5303
ன	-17.5303
வ	-17.5303
ా	-17.5303
ซ	-17.5303
འ	-17.5303
ẩ	-17.5303
∉	-17.5303
♯	-17.5303
㑩	-17.5303
佋	-17.5303
倂	-17.5303
們	-17.5303
優	-17.5303
冋	-17.5303
剋	-17.5303
勮	-17.5303
卝	-17.5303
厳	-17.5303
啅	-17.5303
喨	-17.5303
嗁	-17.5303
嗘	-17.5303
嚄	-17.5303
圀	-17.5303
圂	-17.5303
埿	-17.5303
塂	-17.5303
塚	-17.5303
姸	-17.5303
婑	-17.5303
嬭	-17.5303
孋	-17.5303
實	-17.5303
尛	-17.5303
峞	-17.5303
崈	-17.5303
崷	-17.5303
嵨	-17.5303
嶃	-17.5303
嶍	-17.5303
巌	-17.5303
巜	-17.5303
幝	-17.5303
幠	-17.5303
恊	-17.5303
扊	-17.5303
抝	-17.5303
拡	-17.5303
掁	-17.5303
掿	-17.5303
摃	-17.5303
撁	-17.5303
敚	-17.5303
旽	-17.5303
暒	-17.5303
暤	-17.5303
曁	-17.5303
朢	-17.5303
朮	-17.5303
枅	-17.5303
枍	-17.5303
桿	-17.5303
棷	-17.5303
椷	-17.5303
楎	-17.5303
楘	-17.5303
楥	-17.5303
楧	-17.5303
榣	-17.5303
槵	-17.5303
槷	-17.5303
檛	-17.5303
櫰	-17.5303
殰	-17.5303
毣	-17.5303
毸	-17.5303
汮	-17.5303
沵	-17.5303
淰	-17.5303
溵	-17.5303
漘	-17.5303
漙	-17.5303
漤	-17.5303
澓	-17.5303
澦	-17.5303
濚	-17.5303
炌	-17.5303
烗	-17.5303
焅	-17.5303
牼	-17.5303
猂	-17.5303
獳	-17.5303
玓	-17.5303
瑂	-17.5303
璱	-17.5303
痋	-17.5303
癐	-17.5303
矦	-17.5303
砯	-17.5303
磝	-17.5303
磠	-17.5303
磳	-17.5303
磿	-17.5303
祂	-17.5303
秌	-17.5303
稆	-17.5303
簒	-17.5303
糚	-17.5303
紑	-17.5303
絳	-17.5303
罼	-17.5303
耢	-17.5303
聴	-17.5303
腒	-17.5303
芺	-17.5303
莂	-17.5303
莕	-17.5303
菾	-17.5303
萂	-17.5303
蒀	-17.5303
蓲	-17.5303
蔇	-17.5303
薝	-17.5303
藊	-17.5303
虁	-17.5303
蚿	-17.5303
蛚	-17.5303
蛜	-17.5303
蜄	-17.5303
蝃	-17.5303
衪	-17.5303
襏	-17.5303
襗	-17.5303
覝	-17.5303
觙	-17.5303
謟	-17.5303
踁	-17.5303
躝	-17.5303
躣	-17.5303
躩	-17.5303
輀	-17.5303
輢	-17.5303
轊	-17.5303
轖	-17.5303
轞	-17.5303
迾	-17.5303
遰	-17.5303
鄐	-17.5303
鉖	-17.5303
鍉	-17.5303
鏩	-17.5303
鐄	-17.5303
鐘	-17.5303
鐥	-17.5303
鑀	-17.5303
钑	-17.5303
阓	-17.5303
陊	-17.5303
陾	-17.5303
霫	-17.5303
餶	-17.5303
饐	-17.5303
馽	-17.5303
駪	-17.5303
駵	-17.5303
鱘	-17.5303
鱺	-17.5303
鳸	-17.5303
鷚	-17.5303
鸀	-17.5303
鸓	-17.5303
鹻	-17.5303
黂	-17.5303
黱	-17.5303
鼟	-17.5303
齄	-17.5303
齆	-17.5303
齶	-17.5303
齻	-17.5303
龎	-17.5303
곡	-17.5303
극	-17.5303
든	-17.5303
룡	-17.5303
메	-17.5303
벌	-17.5303
욱	-17.5303
잡	-17.5303
찬	-17.5303
쳐	-17.5303
침	-17.5303
큼	-17.5303
필	-17.5303
	-17.5303
氶	-17.5303
甝	-17.5303
鉾	-17.5303
따	-17.5303
汈	-17.5303
併	-17.6072
ʁ	-17.6072
Џ	-17.6072
њ	-17.6072
џ	-17.6072
چ	-17.6072
ू	-17.6072
ै	-17.6072
ச	-17.6072
ம	-17.6072
ึ	-17.6072
ཁ	-17.6072
ཕ	-17.6072
ི	-17.6072
ბ	-17.6072
გ	-17.6072
მ	-17.6072
ᆞ	-17.6072
ằ	-17.6072
ừ	-17.6072
┫	-17.6072
ヂ	-17.6072
㑇	-17.6072
㰘	-17.6072
䛐	-17.6072
丆	-17.6072
丵	-17.6072
乚	-17.6072
伀	-17.6072
伈	-17.6072
伓	-17.6072
俙	-17.6072
倖	-17.6072
偢	-17.6072
偱	-17.6072
僢	-17.6072
儦	-17.6072
劔	-17.6072
卙	-17.6072
厈	-17.6072
厐	-17.6072
嗍	-17.6072
噝	-17.6072
嚾	-17.6072
埧	-17.6072
堣	-17.6072
奣	-17.6072
妌	-17.6072
婗	-17.6072
嫕	-17.6072
嬃	-17.6072
孻	-17.6072
寱	-17.6072
峍	-17.6072
巙	-17.6072
帉	-17.6072
帊	-17.6072
幐	-17.6072
庒	-17.6072
弔	-17.6072
忬	-17.6072
怘	-17.6072
怸	-17.6072
悺	-17.6072
惉	-17.6072
惎	-17.6072
懜	-17.6072
戉	-17.6072
戶	-17.6072
払	-17.6072
拕	-17.6072
拲	-17.6072
攩	-17.6072
昽	-17.6072
晥	-17.6072
朁	-17.6072
朂	-17.6072
杣	-17.6072
枙	-17.6072
梜	-17.6072
梡	-17.6072
椗	-17.6072
槪	-17.6072
槮	-17.6072
樿	-17.6072
檃	-17.6072
殀	-17.6072
毷	-17.6072
汯	-17.6072
泭	-17.6072
渳	-17.6072
漰	-17.6072
潎	-17.6072
澟	-17.6072
灉	-17.6072
煓	-17.6072
燳	-17.6072
爔	-17.6072
牘	-17.6072
犗	-17.6072
狓	-17.6072
狚	-17.6072
珎	-17.6072
珔	-17.6072
璬	-17.6072
甶	-17.6072
疈	-17.6072
瘣	-17.6072
瘨	-17.6072
眬	-17.6072
瞓	-17.6072
矑	-17.6072
磶	-17.6072
竫	-17.6072
箊	-17.6072
篣	-17.6072
篤	-17.6072
篽	-17.6072
絚	-17.6072
統	-17.6072
緅	-17.6072
緍	-17.6072
纒	-17.6072
罸	-17.6072
罻	-17.6072
罿	-17.6072
羓	-17.6072
耡	-17.6072
耪	-17.6072
耼	-17.6072
膣	-17.6072
膪	-17.6072
臡	-17.6072
臤	-17.6072
臵	-17.6072
興	-17.6072
茖	-17.6072
葠	-17.6072
蒃	-17.6072
蓘	-17.6072
蘷	-17.6072
虉	-17.6072
虨	-17.6072
蚃	-17.6072
蛬	-17.6072
蜯	-17.6072
蟏	-17.6072
蟖	-17.6072
衁	-17.6072
衂	-17.6072
裩	-17.6072
襈	-17.6072
見	-17.6072
訳	-17.6072
訸	-17.6072
詾	-17.6072
謞	-17.6072
謼	-17.6072
譟	-17.6072
讇	-17.6072
豀	-17.6072
貭	-17.6072
贉	-17.6072
趦	-17.6072
跜	-17.6072
跮	-17.6072
躚	-17.6072
軆	-17.6072
輘	-17.6072
迿	-17.6072
逨	-17.6072
運	-17.6072
達	-17.6072
鄳	-17.6072
醹	-17.6072
釚	-17.6072
鈏	-17.6072
鉆	-17.6072
銀	-17.6072
銷	-17.6072
鋢	-17.6072
錀	-17.6072
鎁	-17.6072
镚	-17.6072
闑	-17.6072
關	-17.6072
闟	-17.6072
隒	-17.6072
際	-17.6072
隨	-17.6072
霱	-17.6072
鞹	-17.6072
韣	-17.6072
飭	-17.6072
餜	-17.6072
餫	-17.6072
餻	-17.6072
駻	-17.6072
骔	-17.6072
鬚	-17.6072
魚	-17.6072
鯶	-17.6072
鰽	-17.6072
鴐	-17.6072
鶨	-17.6072
鹽	-17.6072
麅	-17.6072
麷	-17.6072
龏	-17.6072
갑	-17.6072
귀	-17.6072
돼	-17.6072
립	-17.6072
멀	-17.6072
목	-17.6072
밀	-17.6072
볼	-17.6072
좌	-17.6072
짜	-17.6072
초	-17.6072
히	-17.6072
	-17.6072
	-17.6072
酔	-17.6906
코	-17.6906
Ā	-17.6906
Ō	-17.6906
ɒ	-17.6906
Έ	-17.6906
ҳ	-17.6906
গ	-17.6906
ু	-17.6906
ฑ	-17.6906
ὁ	-17.6906
ὐ	-17.6906
ῦ	-17.6906
┤	-17.6906
☺	-17.6906
♠	-17.6906
♬	-17.6906
䌷	-17.6906
䗃	-17.6906
佁	-17.6906
侅	-17.6906
侢	-17.6906
俀	-17.6906
偫	-17.6906
備	-17.6906
僙	-17.6906
兩	-17.6906
冊	-17.6906
冘	-17.6906
則	-17.6906
匱	-17.6906
吰	-17.6906
呌	-17.6906
呭	-17.6906
唓	-17.6906
嗱	-17.6906
噳	-17.6906
噷	-17.6906
囘	-17.6906
垙	-17.6906
垰	-17.6906
埻	-17.6906
塠	-17.6906
墆	-17.6906
墭	-17.6906
壃	-17.6906
壌	-17.6906
奀	-17.6906
婥	-17.6906
媱	-17.6906
嫙	-17.6906
尌	-17.6906
尐	-17.6906
屬	-17.6906
崌	-17.6906
崺	-17.6906
嵁	-17.6906
嶞	-17.6906
嶫	-17.6906
帗	-17.6906
幧	-17.6906
廴	-17.6906
弖	-17.6906
忲	-17.6906
怭	-17.6906
怲	-17.6906
恌	-17.6906
悷	-17.6906
惢	-17.6906
惪	-17.6906
慁	-17.6906
懮	-17.6906
扠	-17.6906
挿	-17.6906
捒	-17.6906
揢	-17.6906
揳	-17.6906
撢	-17.6906
據	-17.6906
斚	-17.6906
旹	-17.6906
暊	-17.6906
曡	-17.6906
朳	-17.6906
梌	-17.6906
椙	-17.6906
楖	-17.6906
樒	-17.6906
橓	-17.6906
檍	-17.6906
檨	-17.6906
櫎	-17.6906
欓	-17.6906
欥	-17.6906
殈	-17.6906
殠	-17.6906
汏	-17.6906
泿	-17.6906
溫	-17.6906
滫	-17.6906
濳	-17.6906
瀫	-17.6906
灒	-17.6906
烰	-17.6906
焆	-17.6906
煔	-17.6906
爕	-17.6906
爣	-17.6906
爯	-17.6906
犵	-17.6906
狀	-17.6906
狧	-17.6906
猸	-17.6906
獨	-17.6906
玶	-17.6906
琈	-17.6906
琠	-17.6906
瑬	-17.6906
璙	-17.6906
瓪	-17.6906
疕	-17.6906
癕	-17.6906
皀	-17.6906
瞚	-17.6906
矲	-17.6906
砳	-17.6906
硃	-17.6906
碐	-17.6906
祹	-17.6906
秅	-17.6906
秖	-17.6906
稭	-17.6906
穬	-17.6906
穮	-17.6906
笘	-17.6906
篿	-17.6906
簔	-17.6906
簜	-17.6906
簭	-17.6906
糉	-17.6906
紀	-17.6906
線	-17.6906
緾	-17.6906
縚	-17.6906
總	-17.6906
缿	-17.6906
耠	-17.6906
耲	-17.6906
肐	-17.6906
肵	-17.6906
胘	-17.6906
胩	-17.6906
脗	-17.6906
腄	-17.6906
膠	-17.6906
膢	-17.6906
膵	-17.6906
舥	-17.6906
艼	-17.6906
荂	-17.6906
莃	-17.6906
葍	-17.6906
蒦	-17.6906
蒪	-17.6906
蓭	-17.6906
蔆	-17.6906
蕌	-17.6906
薀	-17.6906
薠	-17.6906
蛍	-17.6906
螲	-17.6906
蟁	-17.6906
衚	-17.6906
袼	-17.6906
褃	-17.6906
褢	-17.6906
襫	-17.6906
覤	-17.6906
覧	-17.6906
觡	-17.6906
觵	-17.6906
訞	-17.6906
証	-17.6906
詀	-17.6906
詟	-17.6906
調	-17.6906
謭	-17.6906
豷	-17.6906
赮	-17.6906
趻	-17.6906
跔	-17.6906
踇	-17.6906
踼	-17.6906
蹟	-17.6906
躨	-17.6906
軞	-17.6906
軰	-17.6906
輟	-17.6906
轀	-17.6906
轑	-17.6906
轣	-17.6906
辤	-17.6906
辥	-17.6906
選	-17.6906
邊	-17.6906
鈚	-17.6906
鎭	-17.6906
鐈	-17.6906
镩	-17.6906
镵	-17.6906
閎	-17.6906
閰	-17.6906
阘	-17.6906
隊	-17.6906
霔	-17.6906
鞀	-17.6906
鞁	-17.6906
鞳	-17.6906
韻	-17.6906
顧	-17.6906
風	-17.6906
餂	-17.6906
饠	-17.6906
騠	-17.6906
騩	-17.6906
驫	-17.6906
骪	-17.6906
骳	-17.6906
髥	-17.6906
鬀	-17.6906
鬊	-17.6906
鮁	-17.6906
鮌	-17.6906
鮯	-17.6906
鰳	-17.6906
鱧	-17.6906
鵁	-17.6906
鶃	-17.6906
鶠	-17.6906
鷀	-17.6906
鷨	-17.6906
齵	-17.6906
결	-17.6906
꼭	-17.6906
된	-17.6906
될	-17.6906
떻	-17.6906
름	-17.6906
막	-17.6906
몰	-17.6906
뷔	-17.6906
브	-17.6906
블	-17.6906
뿐	-17.6906
슈	-17.6906
싸	-17.6906
열	-17.6906
옥	-17.6906
잖	-17.6906
줘	-17.6906
투	-17.6906
픈	-17.6906
허	-17.6906
협	-17.6906
û	-17.7815
Ć	-17.7815
ĉ	-17.7815
ŏ	-17.7815
ų	-17.7815
ɨ	-17.7815
Ә	-17.7815
բ	-17.7815
ـ	-17.7815
ध	-17.7815
ক	-17.7815
ট	-17.7815
ฆ	-17.7815
ཡ	-17.7815
ྱ	-17.7815
ვ	-17.7815
ṛ	-17.7815
ở	-17.7815
┎	-17.7815
㷆	-17.7815
䏰	-17.7815
伹	-17.7815
俈	-17.7815
倠	-17.7815
僪	-17.7815
兊	-17.7815
冔	-17.7815
勌	-17.7815
匑	-17.7815
卼	-17.7815
厫	-17.7815
咉	-17.7815
單	-17.7815
囋	-17.7815
囏	-17.7815
壛	-17.7815
夊	-17.7815
奊	-17.7815
妟	-17.7815
姏	-17.7815
婹	-17.7815
媗	-17.7815
宭	-17.7815
宷	-17.7815
寋	-17.7815
屛	-17.7815
屝	-17.7815
屭	-17.7815
峳	-17.7815
嵾	-17.7815
嶌	-17.7815
巏	-17.7815
廍	-17.7815
廯	-17.7815
弮	-17.7815
彅	-17.7815
彜	-17.7815
徛	-17.7815
悧	-17.7815
惻	-17.7815
憗	-17.7815
戫	-17.7815
扅	-17.7815
抯	-17.7815
挀	-17.7815
挃	-17.7815
挵	-17.7815
捝	-17.7815
掝	-17.7815
掫	-17.7815
搕	-17.7815
搛	-17.7815
擸	-17.7815
敱	-17.7815
暀	-17.7815
曒	-17.7815
曕	-17.7815
朩	-17.7815
杺	-17.7815
枃	-17.7815
柣	-17.7815
桚	-17.7815
梀	-17.7815
棆	-17.7815
榥	-17.7815
槰	-17.7815
標	-17.7815
檡	-17.7815
櫌	-17.7815
欀	-17.7815
欋	-17.7815
欙	-17.7815
欿	-17.7815
歅	-17.7815
歗	-17.7815
毱	-17.7815
氉	-17.7815
氋	-17.7815
浕	-17.7815
浲	-17.7815
涚	-17.7815
淂	-17.7815
滀	-17.7815
滶	-17.7815
滽	-17.7815
漐	-17.7815
漨	-17.7815
潥	-17.7815
濜	-17.7815
灅	-17.7815
爞	-17.7815
牉	-17.7815
犦	-17.7815
犮	-17.7815
獁	-17.7815
玜	-17.7815
珮	-17.7815
珷	-17.7815
瑧	-17.7815
瑲	-17.7815
璊	-17.7815
甒	-17.7815
畡	-17.7815
痀	-17.7815
眹	-17.7815
矉	-17.7815
硵	-17.7815
磦	-17.7815
祦	-17.7815
秝	-17.7815
稑	-17.7815
稸	-17.7815
穇	-17.7815
竮	-17.7815
筢	-17.7815
箻	-17.7815
篖	-17.7815
簺	-17.7815
紽	-17.7815
綟	-17.7815
維	-17.7815
緎	-17.7815
羵	-17.7815
耖	-17.7815
胦	-17.7815
腜	-17.7815
膮	-17.7815
舉	-17.7815
舑	-17.7815
舗	-17.7815
芚	-17.7815
莾	-17.7815
菵	-17.7815
葘	-17.7815
蒄	-17.7815
蔂	-17.7815
薑	-17.7815
薸	-17.7815
蘟	-17.7815
蘡	-17.7815
蚹	-17.7815
蛅	-17.7815
蛗	-17.7815
螇	-17.7815
蟨	-17.7815
蠜	-17.7815
蠯	-17.7815
衱	-17.7815
裌	-17.7815
裡	-17.7815
裪	-17.7815
裿	-17.7815
褏	-17.7815
襺	-17.7815
覂	-17.7815
觹	-17.7815
詉	-17.7815
詰	-17.7815
誌	-17.7815
諂	-17.7815
豵	-17.7815
貜	-17.7815
財	-17.7815
趌	-17.7815
跲	-17.7815
跴	-17.7815
蹎	-17.7815
蹹	-17.7815
蹽	-17.7815
軝	-17.7815
軦	-17.7815
軼	-17.7815
迋	-17.7815
逿	-17.7815
邇	-17.7815
郉	-17.7815
鄤	-17.7815
醎	-17.7815
醧	-17.7815
鈃	-17.7815
鈤	-17.7815
鉅	-17.7815
鋭	-17.7815
錣	-17.7815
錶	-17.7815
鍫	-17.7815
鍭	-17.7815
鎻	-17.7815
铔	-17.7815
闝	-17.7815
隇	-17.7815
霦	-17.7815
韛	-17.7815
頭	-17.7815
頴	-17.7815
頽	-17.7815
額	-17.7815
颬	-17.7815
飮	-17.7815
飾	-17.7815
餱	-17.7815
餸	-17.7815
馡	-17.7815
髳	-17.7815
鬎	-17.7815
鬤	-17.7815
魠	-17.7815
鮬	-17.7815
鯞	-17.7815
鯠	-17.7815
鱯	-17.7815
鳦	-17.7815
鳻	-17.7815
鷕	-17.7815
麰	-17.7815
黚	-17.7815
黤	-17.7815
鼲	-17.7815
께	-17.7815
끼	-17.7815
밤	-17.7815
분	-17.7815
억	-17.7815
절	-17.7815
점	-17.7815
핑	-17.7815
￘	-17.7815
囦	-17.7815
斆	-17.7815
熁	-17.7815
眳	-17.7815
蔠	-17.7815
蛯	-17.7815
鄕	-17.7815
饆	-17.7815
鳷	-17.7815
鷮	-17.7815
©	-17.8815
Ç	-17.8815
Œ	-17.8815
ɕ	-17.8815
ʾ	-17.8815
Љ	-17.8815
ҧ	-17.8815
տ	-17.8815
ؤ	-17.8815
ْ	-17.8815
ٹ	-17.8815
ण	-17.8815
ভ	-17.8815
ப	-17.8815
ல	-17.8815
ு	-17.8815
ེ	-17.8815
ḍ	-17.8815
∆	-17.8815
♣	-17.8815
䓬	-17.8815
䳍	-17.8815
亁	-17.8815
侴	-17.8815
俋	-17.8815
傛	-17.8815
儱	-17.8815
兿	-17.8815
凓	-17.8815
剒	-17.8815
労	-17.8815
勥	-17.8815
卌	-17.8815
厤	-17.8815
厹	-17.8815
咠	-17.8815
咹	-17.8815
哖	-17.8815
唚	-17.8815
唹	-17.8815
啚	-17.8815
嗐	-17.8815
嗗	-17.8815
嗹	-17.8815
嘥	-17.8815
噆	-17.8815
噛	-17.8815
囎	-17.8815
囬	-17.8815
圍	-17.8815
坢	-17.8815
坲	-17.8815
垬	-17.8815
埊	-17.8815
埛	-17.8815
堶	-17.8815
墹	-17.8815
壐	-17.8815
壔	-17.8815
壦	-17.8815
夒	-17.8815
娙	-17.8815
媌	-17.8815
嬜	-17.8815
岹	-17.8815
崬	-17.8815
嶦	-17.8815
帩	-17.8815
帶	-17.8815
幏	-17.8815
幓	-17.8815
庌	-17.8815
廧	-17.8815
弎	-17.8815
弸	-17.8815
彃	-17.8815
悋	-17.8815
慉	-17.8815
憷	-17.8815
懅	-17.8815
懫	-17.8815
抮	-17.8815
拃	-17.8815
拠	-17.8815
挌	-17.8815
掆	-17.8815
揝	-17.8815
擁	-17.8815
攅	-17.8815
攋	-17.8815
攦	-17.8815
攺	-17.8815
斷	-17.8815
昖	-17.8815
昹	-17.8815
杇	-17.8815
柺	-17.8815
桟	-17.8815
桵	-17.8815
棌	-17.8815
棶	-17.8815
棸	-17.8815
椄	-17.8815
椌	-17.8815
椝	-17.8815
橞	-17.8815
橰	-17.8815
櫼	-17.8815
欎	-17.8815
欶	-17.8815
殟	-17.8815
毪	-17.8815
氃	-17.8815
汖	-17.8815
沝	-17.8815
泧	-17.8815
洬	-17.8815
涽	-17.8815
溾	-17.8815
潓	-17.8815
潗	-17.8815
潨	-17.8815
濓	-17.8815
瀄	-17.8815
瀇	-17.8815
瀔	-17.8815
灣	-17.8815
灴	-17.8815
炡	-17.8815
烻	-17.8815
焢	-17.8815
焭	-17.8815
煝	-17.8815
煵	-17.8815
熉	-17.8815
熌	-17.8815
犓	-17.8815
狆	-17.8815
狾	-17.8815
獞	-17.8815
獡	-17.8815
玒	-17.8815
瑝	-17.8815
瑹	-17.8815
環	-17.8815
瓈	-17.8815
甆	-17.8815
畕	-17.8815
痯	-17.8815
瘑	-17.8815
瘯	-17.8815
癗	-17.8815
皩	-17.8815
皶	-17.8815
眑	-17.8815
眣	-17.8815
瞏	-17.8815
瞡	-17.8815
矎	-17.8815
矝	-17.8815
稱	-17.8815
竛	-17.8815
笯	-17.8815
筕	-17.8815
箯	-17.8815
簁	-17.8815
簙	-17.8815
籇	-17.8815
籦	-17.8815
粔	-17.8815
紖	-17.8815
綺	-17.8815
繈	-17.8815
罫	-17.8815
羉	-17.8815
習	-17.8815
聲	-17.8815
肹	-17.8815
腃	-17.8815
膟	-17.8815
膬	-17.8815
莤	-17.8815
萹	-17.8815
葽	-17.8815
蕫	-17.8815
藪	-17.8815
虆	-17.8815
蚆	-17.8815
蚾	-17.8815
蛁	-17.8815
蝚	-17.8815
螱	-17.8815
蟎	-17.8815
衯	-17.8815
裶	-17.8815
褦	-17.8815
襳	-17.8815
覜	-17.8815
觗	-17.8815
記	-17.8815
訰	-17.8815
訹	-17.8815
詆	-17.8815
詩	-17.8815
謡	-17.8815
譁	-17.8815
證	-17.8815
譻	-17.8815
讀	-17.8815
豯	-17.8815
豲	-17.8815
貝	-17.8815
貽	-17.8815
賁	-17.8815
賣	-17.8815
踥	-17.8815
蹞	-17.8815
軑	-17.8815
軜	-17.8815
軫	-17.8815
軮	-17.8815
輨	-17.8815
逎	-17.8815
逜	-17.8815
邧	-17.8815
鄴	-17.8815
醄	-17.8815
釈	-17.8815
鈒	-17.8815
銕	-17.8815
錤	-17.8815
錽	-17.8815
鎋	-17.8815
鎝	-17.8815
鏚	-17.8815
鏺	-17.8815
锊	-17.8815
闔	-17.8815
阰	-17.8815
陳	-17.8815
雿	-17.8815
霢	-17.8815
鞧	-17.8815
颕	-17.8815
餙	-17.8815
馛	-17.8815
馣	-17.8815
馬	-17.8815
駂	-17.8815
駍	-17.8815
駑	-17.8815
騀	-17.8815
驂	-17.8815
髐	-17.8815
鬂	-17.8815
鬉	-17.8815
鬛	-17.8815
魦	-17.8815
鮹	-17.8815
鯆	-17.8815
鯥	-17.8815
鯭	-17.8815
鱄	-17.8815
鳱	-17.8815
鴸	-17.8815
鵊	-17.8815
鷽	-17.8815
麌	-17.8815
黪	-17.8815
鼑	-17.8815
龡	-17.8815
글	-17.8815
님	-17.8815
델	-17.8815
등	-17.8815
련	-17.8815
뭐	-17.8815
믿	-17.8815
법	-17.8815
암	-17.8815
엠	-17.8815
옹	-17.8815
젠	-17.8815
죽	-17.8815
콤	-17.8815
팔	-17.8815
플	-17.8815
	-17.8815
奍	-17.8815
憘	-17.8815
滎	-17.8815
蘉	-17.8815
詄	-17.8815
矅	-17.8815
	-17.9926
¡	-17.9926
Ó	-17.9926
ļ	-17.9926
ů	-17.9926
Ư	-17.9926
ɲ	-17.9926
̃	-17.9926
Ё	-17.9926
є	-17.9926
ў	-17.9926
ғ	-17.9926
Ү	-17.9926
Ҳ	-17.9926
Ա	-17.9926
մ	-17.9926
ञ	-17.9926
थ	-17.9926
স	-17.9926
ী	-17.9926
ட	-17.9926
ర	-17.9926
ు	-17.9926
ผ	-17.9926
ཀ	-17.9926
ხ	-17.9926
Ḥ	-17.9926
ỗ	-17.9926
‬	-17.9926
┒	-17.9926
├	-17.9926
┴	-17.9926
┻	-17.9926
╣	-17.9926
╭	-17.9926
☀	-17.9926
➢	-17.9926
⻊	-17.9926
ゞ	-17.9926
㦕	-17.9926
㳋	-17.9926
㵹	-17.9926
丄	-17.9926
丅	-17.9926
丳	-17.9926
丷	-17.9926
乶	-17.9926
亞	-17.9926
伒	-17.9926
伻	-17.9926
俆	-17.9926
俇	-17.9926
俢	-17.9926
倫	-17.9926
傆	-17.9926
儊	-17.9926
儧	-17.9926
儽	-17.9926
刉	-17.9926
剬	-17.9926
創	-17.9926
匉	-17.9926
匶	-17.9926
協	-17.9926
吥	-17.9926
呉	-17.9926
咊	-17.9926
哅	-17.9926
啙	-17.9926
喛	-17.9926
嗙	-17.9926
嚡	-17.9926
嚮	-17.9926
坁	-17.9926
垉	-17.9926
垝	-17.9926
埲	-17.9926
堿	-17.9926
塕	-17.9926
墋	-17.9926
壂	-17.9926
壓	-17.9926
夀	-17.9926
妸	-17.9926
姅	-17.9926
姼	-17.9926
娿	-17.9926
婤	-17.9926
婾	-17.9926
媊	-17.9926
嬻	-17.9926
宻	-17.9926
宼	-17.9926
屖	-17.9926
岉	-17.9926
峬	-17.9926
崘	-17.9926
崣	-17.9926
崫	-17.9926
嵷	-17.9926
嶛	-17.9926
嶬	-17.9926
嶴	-17.9926
巆	-17.9926
帞	-17.9926
帤	-17.9926
幈	-17.9926
廐	-17.9926
廮	-17.9926
弅	-17.9926
弞	-17.9926
強	-17.9926
彐	-17.9926
徲	-17.9926
忨	-17.9926
惼	-17.9926
愴	-17.9926
懬	-17.9926
懹	-17.9926
戅	-17.9926
扤	-17.9926
拫	-17.9926
挄	-17.9926
挱	-17.9926
捥	-17.9926
捼	-17.9926
掛	-17.9926
揞	-17.9926
揫	-17.9926
摓	-17.9926
撠	-17.9926
敂	-17.9926
敇	-17.9926
敶	-17.9926
斒	-17.9926
暋	-17.9926
暬	-17.9926
杴	-17.9926
枂	-17.9926
桊	-17.9926
楲	-17.9926
榝	-17.9926
樑	-17.9926
樔	-17.9926
樲	-17.9926
橖	-17.9926
橪	-17.9926
橺	-17.9926
櫱	-17.9926
欱	-17.9926
歭	-17.9926
歲	-17.9926
殕	-17.9926
殬	-17.9926
沷	-17.9926
洯	-17.9926
淗	-17.9926
渏	-17.9926
渨	-17.9926
渻	-17.9926
湆	-17.9926
湏	-17.9926
湗	-17.9926
湦	-17.9926
湭	-17.9926
溓	-17.9926
溦	-17.9926
滺	-17.9926
潠	-17.9926
濲	-17.9926
濵	-17.9926
瀀	-17.9926
瀆	-17.9926
瀖	-17.9926
灈	-17.9926
灔	-17.9926
炲	-17.9926
焻	-17.9926
煄	-17.9926
煬	-17.9926
熀	-17.9926
熂	-17.9926
熈	-17.9926
爾	-17.9926
牿	-17.9926
狘	-17.9926
玞	-17.9926
珹	-17.9926
璣	-17.9926
璽	-17.9926
産	-17.9926
甤	-17.9926
畽	-17.9926
瘏	-17.9926
癈	-17.9926
睗	-17.9926
碢	-17.9926
碫	-17.9926
碽	-17.9926
禂	-17.9926
稧	-17.9926
穜	-17.9926
穫	-17.9926
籖	-17.9926
粖	-17.9926
粻	-17.9926
糤	-17.9926
糱	-17.9926
紼	-17.9926
絥	-17.9926
絸	-17.9926
綧	-17.9926
緈	-17.9926
縸	-17.9926
繜	-17.9926
繮	-17.9926
缹	-17.9926
耾	-17.9926
聻	-17.9926
肎	-17.9926
胹	-17.9926
膄	-17.9926
膧	-17.9926
膹	-17.9926
臕	-17.9926
艓	-17.9926
苙	-17.9926
茋	-17.9926
萉	-17.9926
蒈	-17.9926
蒳	-17.9926
蕍	-17.9926
藝	-17.9926
蘛	-17.9926
虘	-17.9926
虤	-17.9926
蚥	-17.9926
蛥	-17.9926
蜅	-17.9926
蜰	-17.9926
螮	-17.9926
螰	-17.9926
蟕	-17.9926
裠	-17.9926
裻	-17.9926
襼	-17.9926
覗	-17.9926
觍	-17.9926
訕	-17.9926
訧	-17.9926
詨	-17.9926
諵	-17.9926
謂	-17.9926
謨	-17.9926
譒	-17.9926
譕	-17.9926
譽	-17.9926
豜	-17.9926
豶	-17.9926
豽	-17.9926
貈	-17.9926
赥	-17.9926
踫	-17.9926
躂	-17.9926
躆	-17.9926
軖	-17.9926
軧	-17.9926
輸	-17.9926
辌	-17.9926
迺	-17.9926
週	-17.9926
遌	-17.9926
遫	-17.9926
遺	-17.9926
邟	-17.9926
鄸	-17.9926
醝	-17.9926
醡	-17.9926
釬	-17.9926
鉝	-17.9926
鉤	-17.9926
銊	-17.9926
鋘	-17.9926
鋚	-17.9926
鍜	-17.9926
鑌	-17.9926
鑞	-17.9926
铴	-17.9926
雔	-17.9926
離	-17.9926
霶	-17.9926
靝	-17.9926
靭	-17.9926
鞈	-17.9926
鞕	-17.9926
韗	-17.9926
顴	-17.9926
飥	-17.9926
飿	-17.9926
馎	-17.9926
馼	-17.9926
騻	-17.9926
骻	-17.9926
骿	-17.9926
髶	-17.9926
鬄	-17.9926
鬮	-17.9926
鬵	-17.9926
魩	-17.9926
魽	-17.9926
鰷	-17.9926
鱎	-17.9926
鱨	-17.9926
鳺	-17.9926
鵹	-17.9926
鶋	-17.9926
鶤	-17.9926
鶶	-17.9926
鸏	-17.9926
黦	-17.9926
齱	-17.9926
齴	-17.9926
ꁰ	-17.9926
견	-17.9926
꽃	-17.9926
녕	-17.9926
논	-17.9926
느	-17.9926
듯	-17.9926
랜	-17.9926
색	-17.9926
엄	-17.9926
웅	-17.9926
쟁	-17.9926
째	-17.9926
탁	-17.9926
품	-17.9926
혼	-17.9926
	-17.9926
	-17.9926
	-17.9926
	-17.9926
	-17.9926
仸	-17.9926
戓	-17.9926
瑖	-17.9926
繤	-17.9926
聟	-17.9926
裓	-17.9926
訒	-17.9926
郘	-17.9926
醕	-17.9926
韹	-17.9926
騘	-17.9926
鷿	-17.9926
┈	-18.1176
薋	-18.1176
	-18.1176
È	-18.1176
Î	-18.1176
Ī	-18.1176
Ū	-18.1176
Ə	-18.1176
ɹ	-18.1176
،	-18.1176
आ	-18.1176
ख	-18.1176
প	-18.1176
়	-18.1176
ো	-18.1176
ை	-18.1176
๊	-18.1176
ྒ	-18.1176
ᐖ	-18.1176
ẵ	-18.1176
ỷ	-18.1176
ỹ	-18.1176
Ἄ	-18.1176
ἰ	-18.1176
Ἱ	-18.1176
∇	-18.1176
☑	-18.1176
ヰ	-18.1176
䬹	-18.1176
䯼	-18.1176
亅	-18.1176
亼	-18.1176
伱	-18.1176
佮	-18.1176
侊	-18.1176
侕	-18.1176
倸	-18.1176
偨	-18.1176
傽	-18.1176
儍	-18.1176
儭	-18.1176
儻	-18.1176
兲	-18.1176
冦	-18.1176
冿	-18.1176
凘	-18.1176
凷	-18.1176
刧	-18.1176
剙	-18.1176
剤	-18.1176
劋	-18.1176
劦	-18.1176
匃	-18.1176
匌	-18.1176
厀	-18.1176
呹	-18.1176
呺	-18.1176
哰	-18.1176
哷	-18.1176
問	-18.1176
喯	-18.1176
嗺	-18.1176
嘂	-18.1176
嘓	-18.1176
噚	-18.1176
嚵	-18.1176
圥	-18.1176
坒	-18.1176
坽	-18.1176
垻	-18.1176
堥	-18.1176
堲	-18.1176
塜	-18.1176
墄	-18.1176
墌	-18.1176
墧	-18.1176
壴	-18.1176
奬	-18.1176
妭	-18.1176
妱	-18.1176
娎	-18.1176
嫥	-18.1176
嬥	-18.1176
宮	-18.1176
尟	-18.1176
屄	-18.1176
屰	-18.1176
峉	-18.1176
峎	-18.1176
峑	-18.1176
崶	-18.1176
嶊	-18.1176
嶜	-18.1176
帣	-18.1176
庛	-18.1176
廃	-18.1176
廇	-18.1176
弉	-18.1176
弍	-18.1176
怣	-18.1176
恟	-18.1176
悇	-18.1176
惽	-18.1176
愃	-18.1176
愓	-18.1176
愗	-18.1176
愶	-18.1176
憓	-18.1176
懘	-18.1176
懭	-18.1176
懰	-18.1176
戰	-18.1176
抦	-18.1176
拝	-18.1176
挓	-18.1176
挜	-18.1176
捯	-18.1176
掜	-18.1176
掱	-18.1176
揥	-18.1176
攡	-18.1176
攰	-18.1176
旙	-18.1176
旞	-18.1176
昩	-18.1176
杶	-18.1176
枖	-18.1176
枡	-18.1176
栁	-18.1176
栂	-18.1176
栜	-18.1176
條	-18.1176
梪	-18.1176
椉	-18.1176
椥	-18.1176
楒	-18.1176
楺	-18.1176
楻	-18.1176
槏	-18.1176
樣	-18.1176
橕	-18.1176
橤	-18.1176
橭	-18.1176
檏	-18.1176
檰	-18.1176
欆	-18.1176
歍	-18.1176
毲	-18.1176
汱	-18.1176
泒	-18.1176
洝	-18.1176
洦	-18.1176
浘	-18.1176
涆	-18.1176
涏	-18.1176
涹	-18.1176
渧	-18.1176
湌	-18.1176
湨	-18.1176
溳	-18.1176
漇	-18.1176
漹	-18.1176
潀	-18.1176
潈	-18.1176
澂	-18.1176
澖	-18.1176
澘	-18.1176
澾	-18.1176
濅	-18.1176
濌	-18.1176
濎	-18.1176
烕	-18.1176
煋	-18.1176
熑	-18.1176
燻	-18.1176
爂	-18.1176
爊	-18.1176
爢	-18.1176
爥	-18.1176
牮	-18.1176
牳	-18.1176
狔	-18.1176
猟	-18.1176
玱	-18.1176
珃	-18.1176
琌	-18.1176
琕	-18.1176
璛	-18.1176
瓃	-18.1176
瓡	-18.1176
畱	-18.1176
畵	-18.1176
痝	-18.1176
瘂	-18.1176
瘜	-18.1176
癰	-18.1176
癶	-18.1176
皽	-18.1176
眤	-18.1176
碞	-18.1176
碯	-18.1176
磟	-18.1176
磩	-18.1176
礒	-18.1176
禎	-18.1176
禠	-18.1176
禢	-18.1176
稯	-18.1176
窱	-18.1176
竃	-18.1176
笢	-18.1176
筀	-18.1176
箵	-18.1176
箾	-18.1176
篋	-18.1176
簂	-18.1176
簮	-18.1176
籉	-18.1176
籏	-18.1176
籔	-18.1176
籢	-18.1176
粨	-18.1176
絘	-18.1176
給	-18.1176
絧	-18.1176
絯	-18.1176
綋	-18.1176
繀	-18.1176
繂	-18.1176
繊	-18.1176
繣	-18.1176
繼	-18.1176
耊	-18.1176
聯	-18.1176
肰	-18.1176
脄	-18.1176
脟	-18.1176
膇	-18.1176
膌	-18.1176
舕	-18.1176
芛	-18.1176
苀	-18.1176
苖	-18.1176
荎	-18.1176
莬	-18.1176
菿	-18.1176
蓶	-18.1176
蔍	-18.1176
蔯	-18.1176
蕝	-18.1176
薐	-18.1176
薡	-18.1176
薵	-18.1176
藑	-18.1176
蘠	-18.1176
蘤	-18.1176
蝹	-18.1176
螕	-18.1176
蠩	-18.1176
蠰	-18.1176
衒	-18.1176
衻	-18.1176
褍	-18.1176
襶	-18.1176
覀	-18.1176
覅	-18.1176
覌	-18.1176
覞	-18.1176
親	-18.1176
覻	-18.1176
觃	-18.1176
詑	-18.1176
譀	-18.1176
譙	-18.1176
讒	-18.1176
豐	-18.1176
豩	-18.1176
負	-18.1176
貺	-18.1176
賽	-18.1176
趓	-18.1176
趛	-18.1176
踃	-18.1176
躓	-18.1176
躕	-18.1176
軱	-18.1176
輁	-18.1176
輲	-18.1176
逕	-18.1176
逺	-18.1176
遅	-18.1176
郼	-18.1176
醸	-18.1176
鈌	-18.1176
鈜	-18.1176
鉢	-18.1176
銈	-18.1176
銭	-18.1176
銸	-18.1176
錄	-18.1176
鎜	-18.1176
鏠	-18.1176
鐧	-18.1176
鐭	-18.1176
鐯	-18.1176
鐾	-18.1176
鑚	-18.1176
鑴	-18.1176
锩	-18.1176
閔	-18.1176
閙	-18.1176
隑	-18.1176
隖	-18.1176
隝	-18.1176
隞	-18.1176
難	-18.1176
靻	-18.1176
鞝	-18.1176
鞟	-18.1176
韅	-18.1176
韏	-18.1176
項	-18.1176
順	-18.1176
頬	-18.1176
顄	-18.1176
颒	-18.1176
餕	-18.1176
餟	-18.1176
餦	-18.1176
餹	-18.1176
饛	-18.1176
饝	-18.1176
馵	-18.1176
駖	-18.1176
駥	-18.1176
騖	-18.1176
驛	-18.1176
骴	-18.1176
髧	-18.1176
髿	-18.1176
鬽	-18.1176
魙	-18.1176
魛	-18.1176
鯒	-18.1176
鰅	-18.1176
鰆	-18.1176
鱆	-18.1176
鵏	-18.1176
鵐	-18.1176
鶢	-18.1176
鷵	-18.1176
鸒	-18.1176
麆	-18.1176
麫	-18.1176
黣	-18.1176
鼀	-18.1176
鼘	-18.1176
鼜	-18.1176
齖	-18.1176
놀	-18.1176
농	-18.1176
땅	-18.1176
럽	-18.1176
른	-18.1176
릿	-18.1176
몸	-18.1176
받	-18.1176
섭	-18.1176
응	-18.1176
잘	-18.1176
츠	-18.1176
클	-18.1176
틱	-18.1176
험	-18.1176
	-18.1176
	-18.1176
	-18.1176
	-18.1176
	-18.1176
	-18.1176
ᠠ	-18.1176
侫	-18.1176
圖	-18.1176
婻	-18.1176
尀	-18.1176
暭	-18.1176
糥	-18.1176
續	-18.1176
芇	-18.1176
鄋	-18.1176
鏏	-18.1176
駟	-18.1176
鷑	-18.1176
Ú	-18.2605
鋡	-18.2605
⇌	-18.2605
凢	-18.2605
峼	-18.2605
鋳	-18.2605
Ĝ	-18.2605
ɬ	-18.2605
ʋ	-18.2605
̞	-18.2605
Ѓ	-18.2605
Њ	-18.2605
ң	-18.2605
ҷ	-18.2605
Ө	-18.2605
կ	-18.2605
ֶ	-18.2605
ِ	-18.2605
ڈ	-18.2605
ܝ	-18.2605
ި	-18.2605
ए	-18.2605
औ	-18.2605
য	-18.2605
த	-18.2605
మ	-18.2605
ฤ	-18.2605
།	-18.2605
ཙ	-18.2605
ཚ	-18.2605
ᐔ	-18.2605
ា	-18.2605
ỏ	-18.2605
Ἁ	-18.2605
Ἰ	-18.2605
›	-18.2605
⊂	-18.2605
┗	-18.2605
┘	-18.2605
╋	-18.2605
╲	-18.2605
▄	-18.2605
▉	-18.2605
▋	-18.2605
✿	-18.2605
ヵ	-18.2605
㐌	-18.2605
㳇	-18.2605
㷢	-18.2605
䘿	-18.2605
䰞	-18.2605
䲡	-18.2605
丗	-18.2605
乧	-18.2605
乭	-18.2605
佂	-18.2605
佈	-18.2605
佒	-18.2605
侐	-18.2605
俉	-18.2605
俹	-18.2605
倱	-18.2605
偞	-18.2605
偸	-18.2605
偺	-18.2605
傤	-18.2605
僃	-18.2605
儠	-18.2605
冐	-18.2605
冡	-18.2605
冸	-18.2605
凎	-18.2605
凞	-18.2605
剰	-18.2605
劀	-18.2605
厡	-18.2605
叄	-18.2605
呞	-18.2605
哯	-18.2605
喴	-18.2605
喿	-18.2605
嘆	-18.2605
嘊	-18.2605
噐	-18.2605
嚢	-18.2605
嚱	-18.2605
囮	-18.2605
圅	-18.2605
圓	-18.2605
圫	-18.2605
圲	-18.2605
坧	-18.2605
垈	-18.2605
埄	-18.2605
堖	-18.2605
堭	-18.2605
墎	-18.2605
壜	-18.2605
夌	-18.2605
夑	-18.2605
夝	-18.2605
妀	-18.2605
妦	-18.2605
妷	-18.2605
姎	-18.2605
姖	-18.2605
娬	-18.2605
娽	-18.2605
婇	-18.2605
嫊	-18.2605
嫷	-18.2605
嫿	-18.2605
嬪	-18.2605
嬺	-18.2605
嬽	-18.2605
孨	-18.2605
孴	-18.2605
宔	-18.2605
宯	-18.2605
寗	-18.2605
崕	-18.2605
嵼	-18.2605
巀	-18.2605
巗	-18.2605
幹	-18.2605
庢	-18.2605
庨	-18.2605
弰	-18.2605
弴	-18.2605
彋	-18.2605
彚	-18.2605
彫	-18.2605
徤	-18.2605
怐	-18.2605
悵	-18.2605
惐	-18.2605
愸	-18.2605
憒	-18.2605
憛	-18.2605
懁	-18.2605
懕	-18.2605
戁	-18.2605
扽	-18.2605
抎	-18.2605
抴	-18.2605
捊	-18.2605
捖	-18.2605
掹	-18.2605
搾	-18.2605
摡	-18.2605
擖	-18.2605
擪	-18.2605
攓	-18.2605
攠	-18.2605
攱	-18.2605
斖	-18.2605
斢	-18.2605
旜	-18.2605
旲	-18.2605
晹	-18.2605
暟	-18.2605
暶	-18.2605
曃	-18.2605
曭	-18.2605
朄	-18.2605
朾	-18.2605
杝	-18.2605
栰	-18.2605
桪	-18.2605
榹	-18.2605
樹	-18.2605
橏	-18.2605
橒	-18.2605
櫈	-18.2605
櫶	-18.2605
櫹	-18.2605
歡	-18.2605
歮	-18.2605
殤	-18.2605
泹	-18.2605
浢	-18.2605
淐	-18.2605
淴	-18.2605
測	-18.2605
湶	-18.2605
滳	-18.2605
滿	-18.2605
漑	-18.2605
漞	-18.2605
漿	-18.2605
濋	-18.2605
瀎	-18.2605
瀴	-18.2605
灇	-18.2605
炞	-18.2605
炣	-18.2605
炾	-18.2605
烓	-18.2605
焇	-18.2605
焲	-18.2605
煷	-18.2605
燆	-18.2605
燈	-18.2605
營	-18.2605
燤	-18.2605
爜	-18.2605
犿	-18.2605
狪	-18.2605
猹	-18.2605
獂	-18.2605
獢	-18.2605
獲	-18.2605
琩	-18.2605
瓀	-18.2605
疌	-18.2605
瘞	-18.2605
瘹	-18.2605
盷	-18.2605
盺	-18.2605
眅	-18.2605
眍	-18.2605
眧	-18.2605
睕	-18.2605
睭	-18.2605
瞙	-18.2605
矇	-18.2605
矘	-18.2605
矙	-18.2605
砄	-18.2605
硩	-18.2605
硳	-18.2605
碆	-18.2605
磄	-18.2605
礀	-18.2605
礕	-18.2605
礥	-18.2605
礩	-18.2605
禮	-18.2605
穊	-18.2605
穞	-18.2605
穾	-18.2605
竉	-18.2605
筎	-18.2605
箁	-18.2605
篂	-18.2605
篰	-18.2605
簩	-18.2605
籑	-18.2605
籚	-18.2605
粛	-18.2605
粣	-18.2605
級	-18.2605
紟	-18.2605
結	-18.2605
絽	-18.2605
練	-18.2605
緷	-18.2605
縂	-18.2605
縦	-18.2605
縩	-18.2605
繆	-18.2605
繒	-18.2605
織	-18.2605
羙	-18.2605
義	-18.2605
翜	-18.2605
耴	-18.2605
職	-18.2605
肂	-18.2605
胈	-18.2605
臓	-18.2605
艻	-18.2605
芓	-18.2605
芻	-18.2605
苝	-18.2605
葁	-18.2605
葈	-18.2605
蓵	-18.2605
蔎	-18.2605
蕑	-18.2605
薲	-18.2605
蘦	-18.2605
蘬	-18.2605
虌	-18.2605
虭	-18.2605
蚠	-18.2605
蜙	-18.2605
蜳	-18.2605
蝭	-18.2605
螙	-18.2605
螴	-18.2605
蟂	-18.2605
蟚	-18.2605
蟭	-18.2605
蟴	-18.2605
蠚	-18.2605
袙	-18.2605
袟	-18.2605
袹	-18.2605
裑	-18.2605
裮	-18.2605
裵	-18.2605
襂	-18.2605
襒	-18.2605
襬	-18.2605
襹	-18.2605
覔	-18.2605
觧	-18.2605
許	-18.2605
認	-18.2605
誐	-18.2605
誥	-18.2605
諔	-18.2605
諰	-18.2605
諸	-18.2605
謢	-18.2605
譆	-18.2605
譍	-18.2605
譎	-18.2605
譖	-18.2605
譮	-18.2605
賾	-18.2605
跁	-18.2605
跘	-18.2605
跢	-18.2605
蹮	-18.2605
躃	-18.2605
躟	-18.2605
車	-18.2605
軯	-18.2605
軷	-18.2605
轗	-18.2605
逓	-18.2605
遆	-18.2605
遱	-18.2605
遳	-18.2605
邥	-18.2605
郋	-18.2605
鄏	-18.2605
鄬	-18.2605
醷	-18.2605
鉠	-18.2605
銋	-18.2605
銓	-18.2605
鋊	-18.2605
錱	-18.2605
鍌	-18.2605
鍖	-18.2605
鍝	-18.2605
鍴	-18.2605
鍵	-18.2605
鎒	-18.2605
鏂	-18.2605
鏋	-18.2605
鏸	-18.2605
鐡	-18.2605
鑓	-18.2605
镸	-18.2605
閛	-18.2605
闈	-18.2605
闛	-18.2605
阹	-18.2605
雙	-18.2605
雮	-18.2605
霳	-18.2605
鞃	-18.2605
鞺	-18.2605
頂	-18.2605
頄	-18.2605
頣	-18.2605
顊	-18.2605
颣	-18.2605
颲	-18.2605
餉	-18.2605
馚	-18.2605
馞	-18.2605
駏	-18.2605
駫	-18.2605
駾	-18.2605
騝	-18.2605
驉	-18.2605
驘	-18.2605
骩	-18.2605
骲	-18.2605
髊	-18.2605
髕	-18.2605
髷	-18.2605
鬁	-18.2605
鬆	-18.2605
鬌	-18.2605
鬿	-18.2605
鯕	-18.2605
鯝	-18.2605
鯸	-18.2605
鰦	-18.2605
鰹	-18.2605
鱐	-18.2605
鱮	-18.2605
鲯	-18.2605
鳤	-18.2605
鴜	-18.2605
鴥	-18.2605
鴫	-18.2605
鴶	-18.2605
鶌	-18.2605
鶥	-18.2605
鷾	-18.2605
麁	-18.2605
麢	-18.2605
鼔	-18.2605
鼮	-18.2605
齃	-18.2605
齌	-18.2605
齚	-18.2605
齝	-18.2605
齯	-18.2605
겸	-18.2605
넘	-18.2605
담	-18.2605
답	-18.2605
둘	-18.2605
뜨	-18.2605
뜻	-18.2605
례	-18.2605
며	-18.2605
쉬	-18.2605
슴	-18.2605
써	-18.2605
존	-18.2605
찾	-18.2605
탤	-18.2605
팝	-18.2605
편	-18.2605
	-18.2605
	-18.2605
	-18.2605
麘	-18.2605
卥	-18.4271
墣	-18.4271
繍	-18.4271
貨	-18.4271
þ	-18.4271
Ą	-18.4271
ġ	-18.4271
ĥ	-18.4271
ĭ	-18.4271
ŝ	-18.4271
Ţ	-18.4271
Ŭ	-18.4271
ű	-18.4271
ț	-18.4271
ɜ	-18.4271
ʼ	-18.4271
˩	-18.4271
̍	-18.4271
̪	-18.4271
ϊ	-18.4271
Ѕ	-18.4271
Ў	-18.4271
ђ	-18.4271
Ҕ	-18.4271
ҕ	-18.4271
Ҟ	-18.4271
ҟ	-18.4271
Ҭ	-18.4271
ҭ	-18.4271
Ҵ	-18.4271
ҵ	-18.4271
Ӡ	-18.4271
ӡ	-18.4271
Հ	-18.4271
Վ	-18.4271
ۈ	-18.4271
ܢ	-18.4271
ृ	-18.4271
ত	-18.4271
ద	-18.4271
్	-18.4271
ฝ	-18.4271
ฮ	-18.4271
๋	-18.4271
ཆ	-18.4271
ཏ	-18.4271
ཞ	-18.4271
ཟ	-18.4271
ཨ	-18.4271
ྲ	-18.4271
დ	-18.4271
ზ	-18.4271
კ	-18.4271
ტ	-18.4271
ფ	-18.4271
შ	-18.4271
ម	-18.4271
ស	-18.4271
ṯ	-18.4271
ẫ	-18.4271
ẹ	-18.4271
ἑ	-18.4271
ἱ	-18.4271
ῶ	-18.4271
⁬	-18.4271
∅	-18.4271
≽	-18.4271
┇	-18.4271
╪	-18.4271
⺮	-18.4271
〤	-18.4271
ゝ	-18.4271
㚻	-18.4271
㝠	-18.4271
㮁	-18.4271
㷒	-18.4271
㸁	-18.4271
䄉	-18.4271
䈪	-18.4271
䑕	-18.4271
䢵	-18.4271
丮	-18.4271
乹	-18.4271
亇	-18.4271
亝	-18.4271
亾	-18.4271
伄	-18.4271
伅	-18.4271
伣	-18.4271
倣	-18.4271
偑	-18.4271
偩	-18.4271
偼	-18.4271
傋	-18.4271
僂	-18.4271
儃	-18.4271
儢	-18.4271
儶	-18.4271
冭	-18.4271
凂	-18.4271
剭	-18.4271
匔	-18.4271
匲	-18.4271
區	-18.4271
卹	-18.4271
厯	-18.4271
叕	-18.4271
吪	-18.4271
呟	-18.4271
呥	-18.4271
咇	-18.4271
哤	-18.4271
哻	-18.4271
唌	-18.4271
唡	-18.4271
唩	-18.4271
啌	-18.4271
啘	-18.4271
啟	-18.4271
啱	-18.4271
啹	-18.4271
喩	-18.4271
嗮	-18.4271
噅	-18.4271
噊	-18.4271
嚊	-18.4271
嚗	-18.4271
嚛	-18.4271
嚴	-18.4271
圁	-18.4271
園	-18.4271
圤	-18.4271
坃	-18.4271
坔	-18.4271
垐	-18.4271
埅	-18.4271
堅	-18.4271
堔	-18.4271
堩	-18.4271
墪	-18.4271
墷	-18.4271
壵	-18.4271
奅	-18.4271
奌	-18.4271
奛	-18.4271
奲	-18.4271
奵	-18.4271
妏	-18.4271
姪	-18.4271
姷	-18.4271
娫	-18.4271
婡	-18.4271
媥	-18.4271
媰	-18.4271
嫛	-18.4271
嬔	-18.4271
孒	-18.4271
宖	-18.4271
寜	-18.4271
岮	-18.4271
峐	-18.4271
峾	-18.4271
崑	-18.4271
崙	-18.4271
崠	-18.4271
嵅	-18.4271
嵰	-18.4271
嵱	-18.4271
嵳	-18.4271
嵵	-18.4271
嶉	-18.4271
嶠	-18.4271
嶶	-18.4271
幭	-18.4271
幾	-18.4271
廀	-18.4271
彑	-18.4271
彨	-18.4271
彲	-18.4271
徃	-18.4271
怢	-18.4271
怹	-18.4271
恘	-18.4271
悹	-18.4271
愛	-18.4271
愳	-18.4271
慹	-18.4271
慼	-18.4271
憼	-18.4271
憿	-18.4271
懧	-18.4271
懯	-18.4271
抅	-18.4271
挶	-18.4271
揕	-18.4271
摙	-18.4271
摦	-18.4271
撴	-18.4271
擊	-18.4271
昍	-18.4271
昡	-18.4271
晐	-18.4271
暆	-18.4271
暪	-18.4271
朡	-18.4271
朣	-18.4271
杍	-18.4271
杗	-18.4271
枴	-18.4271
栧	-18.4271
桭	-18.4271
桻	-18.4271
桾	-18.4271
棑	-18.4271
棙	-18.4271
棩	-18.4271
椂	-18.4271
椻	-18.4271
椼	-18.4271
楕	-18.4271
楟	-18.4271
榚	-18.4271
榯	-18.4271
構	-18.4271
樐	-18.4271
樚	-18.4271
檺	-18.4271
檾	-18.4271
櫐	-18.4271
欅	-18.4271
歞	-18.4271
毻	-18.4271
汦	-18.4271
沑	-18.4271
沜	-18.4271
泋	-18.4271
洉	-18.4271
浧	-18.4271
浫	-18.4271
浺	-18.4271
浽	-18.4271
涒	-18.4271
涭	-18.4271
涺	-18.4271
渮	-18.4271
渶	-18.4271
湁	-18.4271
湠	-18.4271
湡	-18.4271
湱	-18.4271
溰	-18.4271
漒	-18.4271
潃	-18.4271
潝	-18.4271
潡	-18.4271
潵	-18.4271
澯	-18.4271
瀤	-18.4271
瀸	-18.4271
炠	-18.4271
烌	-18.4271
焔	-18.4271
焬	-18.4271
熕	-18.4271
熣	-18.4271
熷	-18.4271
燱	-18.4271
爃	-18.4271
牃	-18.4271
犆	-18.4271
犘	-18.4271
犺	-18.4271
狉	-18.4271
獙	-18.4271
珁	-18.4271
珬	-18.4271
琘	-18.4271
琝	-18.4271
瑉	-18.4271
瑍	-18.4271
甴	-18.4271
畢	-18.4271
瘻	-18.4271
癘	-18.4271
盇	-18.4271
眔	-18.4271
睔	-18.4271
睖	-18.4271
瞫	-18.4271
瞯	-18.4271
矁	-18.4271
矃	-18.4271
矐	-18.4271
砲	-18.4271
硔	-18.4271
碄	-18.4271
碈	-18.4271
磓	-18.4271
礉	-18.4271
礔	-18.4271
祡	-18.4271
禗	-18.4271
禝	-18.4271
秙	-18.4271
稒	-18.4271
竼	-18.4271
笇	-18.4271
笓	-18.4271
笩	-18.4271
笲	-18.4271
箉	-18.4271
箤	-18.4271
築	-18.4271
篗	-18.4271
簵	-18.4271
粂	-18.4271
粯	-18.4271
糂	-18.4271
糢	-18.4271
約	-18.4271
紅	-18.4271
紆	-18.4271
紙	-18.4271
絛	-18.4271
絼	-18.4271
綅	-18.4271
綗	-18.4271
綠	-18.4271
綡	-18.4271
網	-18.4271
緁	-18.4271
緔	-18.4271
緛	-18.4271
緟	-18.4271
編	-18.4271
緪	-18.4271
縏	-18.4271
縛	-18.4271
縪	-18.4271
罬	-18.4271
羆	-18.4271
羬	-18.4271
翍	-18.4271
耞	-18.4271
聐	-18.4271
聝	-18.4271
肀	-18.4271
脥	-18.4271
膎	-18.4271
膓	-18.4271
膕	-18.4271
膶	-18.4271
臦	-18.4271
臰	-18.4271
臶	-18.4271
艛	-18.4271
艭	-18.4271
茒	-18.4271
茻	-18.4271
葄	-18.4271
葓	-18.4271
蒞	-18.4271
蒩	-18.4271
蓈	-18.4271
蓕	-18.4271
蓜	-18.4271
蓪	-18.4271
蔪	-18.4271
蔾	-18.4271
蕀	-18.4271
藾	-18.4271
蘁	-18.4271
虅	-18.4271
虰	-18.4271
蚗	-18.4271
蚫	-18.4271
蝒	-18.4271
蝔	-18.4271
螔	-18.4271
螚	-18.4271
蟼	-18.4271
蠉	-18.4271
蠎	-18.4271
蠸	-18.4271
衈	-18.4271
衠	-18.4271
袃	-18.4271
袐	-18.4271
袡	-18.4271
袺	-18.4271
裦	-18.4271
襥	-18.4271
襵	-18.4271
襾	-18.4271
視	-18.4271
觩	-18.4271
觾	-18.4271
訓	-18.4271
詌	-18.4271
詍	-18.4271
詎	-18.4271
詓	-18.4271
評	-18.4271
詵	-18.4271
誋	-18.4271
誎	-18.4271
說	-18.4271
課	-18.4271
謋	-18.4271
譐	-18.4271
讆	-18.4271
變	-18.4271
讘	-18.4271
賝	-18.4271
趚	-18.4271
趮	-18.4271
跇	-18.4271
踄	-18.4271
踾	-18.4271
蹱	-18.4271
躗	-18.4271
躡	-18.4271
躦	-18.4271
軘	-18.4271
軵	-18.4271
輏	-18.4271
輦	-18.4271
輯	-18.4271
迀	-18.4271
迖	-18.4271
連	-18.4271
逩	-18.4271
郲	-18.4271
鄦	-18.4271
酫	-18.4271
醥	-18.4271
醩	-18.4271
醬	-18.4271
釋	-18.4271
鈫	-18.4271
鉒	-18.4271
鉱	-18.4271
銄	-18.4271
銗	-18.4271
鋧	-18.4271
錥	-18.4271
鍼	-18.4271
鎕	-18.4271
鏃	-18.4271
鏄	-18.4271
鏓	-18.4271
鏰	-18.4271
鐬	-18.4271
鐱	-18.4271
鐵	-18.4271
鑐	-18.4271
鑽	-18.4271
铞	-18.4271
閕	-18.4271
閜	-18.4271
閵	-18.4271
闅	-18.4271
闗	-18.4271
阢	-18.4271
陑	-18.4271
陸	-18.4271
陽	-18.4271
隄	-18.4271
隻	-18.4271
隿	-18.4271
雋	-18.4271
雓	-18.4271
雲	-18.4271
靈	-18.4271
靣	-18.4271
靱	-18.4271
鞂	-18.4271
鞜	-18.4271
鞻	-18.4271
鞼	-18.4271
韾	-18.4271
頩	-18.4271
頿	-18.4271
顅	-18.4271
題	-18.4271
顩	-18.4271
颰	-18.4271
飔	-18.4271
餄	-18.4271
餎	-18.4271
餔	-18.4271
餭	-18.4271
餺	-18.4271
饀	-18.4271
饊	-18.4271
馤	-18.4271
駊	-18.4271
駡	-18.4271
駢	-18.4271
騟	-18.4271
驆	-18.4271
驪	-18.4271
骬	-18.4271
髺	-18.4271
鬡	-18.4271
鬢	-18.4271
鬦	-18.4271
魪	-18.4271
魼	-18.4271
鮿	-18.4271
鯦	-18.4271
鯬	-18.4271
鰛	-18.4271
鰯	-18.4271
鱭	-18.4271
鱾	-18.4271
鳶	-18.4271
鴖	-18.4271
鵠	-18.4271
鵧	-18.4271
鶊	-18.4271
鶏	-18.4271
鶫	-18.4271
鷧	-18.4271
鷷	-18.4271
鹝	-18.4271
麖	-18.4271
麺	-18.4271
黃	-18.4271
黗	-18.4271
鼅	-18.4271
齺	-18.4271
龔	-18.4271
龗	-18.4271
검	-18.4271
곁	-18.4271
곽	-18.4271
꺼	-18.4271
낼	-18.4271
뉴	-18.4271
돈	-18.4271
땐	-18.4271
떨	-18.4271
랬	-18.4271
량	-18.4271
럴	-18.4271
렬	-18.4271
릴	-18.4271
망	-18.4271
맹	-18.4271
뮤	-18.4271
밿	-18.4271
섬	-18.4271
션	-18.4271
숭	-18.4271
싫	-18.4271
싱	-18.4271
쓰	-18.4271
앞	-18.4271
웨	-18.4271
율	-18.4271
증	-18.4271
짝	-18.4271
쩌	-18.4271
첩	-18.4271
첫	-18.4271
컴	-18.4271
탕	-18.4271
휘	-18.4271
	-18.4271
	-18.4271
	-18.4271
	-18.4271
	-18.4271
	-18.4271
	-18.4271
	-18.4271
	-18.4271
	-18.4271
㦃	-18.4271
庫	-18.4271
曱	-18.4271
蓩	-18.4271
墰	-18.6271
槼	-18.6271
溡	-18.6271
燓	-18.6271
畬	-18.6271
脠	-18.6271
蓀	-18.6271
蔏	-18.6271
虷	-18.6271
跓	-18.6271
輄	-18.6271
飃	-18.6271
鰜	-18.6271
칼	-18.6271
ĕ	-18.6271
ŵ	-18.6271
ș	-18.6271
ɵ	-18.6271
ʀ	-18.6271
ʧ	-18.6271
˥	-18.6271
Ί	-18.6271
ѓ	-18.6271
Ґ	-18.6271
ӣ	-18.6271
դ	-18.6271
ץ	-18.6271
ڑ	-18.6271
ڪ	-18.6271
ګ	-18.6271
ۋ	-18.6271
ܐ	-18.6271
इ	-18.6271
़	-18.6271
খ	-18.6271
চ	-18.6271
দ	-18.6271
ய	-18.6271
ழ	-18.6271
త	-18.6271
య	-18.6271
ฉ	-18.6271
ฎ	-18.6271
ฬ	-18.6271
ཐ	-18.6271
ཤ	-18.6271
រ	-18.6271
ᨥ	-18.6271
ặ	-18.6271
Ἑ	-18.6271
Ἔ	-18.6271
Ὀ	-18.6271
‭	-18.6271
‮	-18.6271
∃	-18.6271
∗	-18.6271
⊆	-18.6271
⋁	-18.6271
┩	-18.6271
┱	-18.6271
㜲	-18.6271
㟖	-18.6271
㧟	-18.6271
㬎	-18.6271
㴓	-18.6271
㹟	-18.6271
䆽	-18.6271
䣥	-18.6271
䥖	-18.6271
䬪	-18.6271
䲗	-18.6271
䲠	-18.6271
乀	-18.6271
亖	-18.6271
仦	-18.6271
佫	-18.6271
侭	-18.6271
側	-18.6271
儅	-18.6271
儑	-18.6271
儓	-18.6271
兪	-18.6271
冃	-18.6271
凅	-18.6271
刅	-18.6271
刌	-18.6271
刴	-18.6271
剠	-18.6271
劇	-18.6271
劙	-18.6271
勄	-18.6271
勛	-18.6271
勢	-18.6271
匁	-18.6271
匷	-18.6271
厗	-18.6271
叀	-18.6271
叅	-18.6271
叴	-18.6271
吢	-18.6271
吺	-18.6271
哃	-18.6271
哴	-18.6271
哵	-18.6271
唞	-18.6271
啛	-18.6271
喢	-18.6271
嗕	-18.6271
嘕	-18.6271
噃	-18.6271
噄	-18.6271
噇	-18.6271
嚁	-18.6271
囇	-18.6271
囐	-18.6271
圝	-18.6271
坅	-18.6271
坥	-18.6271
垪	-18.6271
埍	-18.6271
埦	-18.6271
埮	-18.6271
執	-18.6271
堄	-18.6271
堘	-18.6271
堳	-18.6271
塁	-18.6271
塐	-18.6271
墍	-18.6271
墖	-18.6271
墶	-18.6271
夿	-18.6271
奧	-18.6271
娍	-18.6271
娔	-18.6271
娗	-18.6271
娳	-18.6271
婖	-18.6271
婘	-18.6271
媃	-18.6271
嫑	-18.6271
嫓	-18.6271
嫟	-18.6271
嫢	-18.6271
嬊	-18.6271
寎	-18.6271
寚	-18.6271
寶	-18.6271
尥	-18.6271
屓	-18.6271
屟	-18.6271
層	-18.6271
岥	-18.6271
峝	-18.6271
峮	-18.6271
嵮	-18.6271
嵹	-18.6271
嵿	-18.6271
巄	-18.6271
巤	-18.6271
巺	-18.6271
帋	-18.6271
帓	-18.6271
幎	-18.6271
幮	-18.6271
庩	-18.6271
弌	-18.6271
弻	-18.6271
彔	-18.6271
彞	-18.6271
彣	-18.6271
彶	-18.6271
徏	-18.6271
徠	-18.6271
徶	-18.6271
忓	-18.6271
忕	-18.6271
忯	-18.6271
恑	-18.6271
悐	-18.6271
悳	-18.6271
愭	-18.6271
愰	-18.6271
愷	-18.6271
慄	-18.6271
態	-18.6271
慒	-18.6271
慤	-18.6271
憴	-18.6271
憻	-18.6271
懝	-18.6271
懥	-18.6271
抇	-18.6271
抍	-18.6271
抰	-18.6271
挭	-18.6271
捇	-18.6271
捬	-18.6271
捵	-18.6271
掍	-18.6271
揟	-18.6271
搳	-18.6271
摫	-18.6271
撊	-18.6271
撎	-18.6271
撶	-18.6271
擔	-18.6271
敹	-18.6271
旓	-18.6271
昛	-18.6271
晪	-18.6271
暡	-18.6271
暢	-18.6271
曄	-18.6271
曮	-18.6271
朖	-18.6271
枺	-18.6271
柍	-18.6271
柕	-18.6271
栵	-18.6271
栺	-18.6271
桋	-18.6271
梂	-18.6271
梉	-18.6271
梬	-18.6271
棤	-18.6271
棿	-18.6271
椔	-18.6271
楏	-18.6271
槾	-18.6271
樀	-18.6271
樃	-18.6271
樜	-18.6271
檆	-18.6271
櫄	-18.6271
櫢	-18.6271
櫾	-18.6271
歐	-18.6271
歟	-18.6271
毞	-18.6271
氣	-18.6271
氼	-18.6271
汘	-18.6271
汵	-18.6271
決	-18.6271
沯	-18.6271
沰	-18.6271
泏	-18.6271
洰	-18.6271
涇	-18.6271
涐	-18.6271
減	-18.6271
溒	-18.6271
溔	-18.6271
溭	-18.6271
滰	-18.6271
漅	-18.6271
潫	-18.6271
澋	-18.6271
濿	-18.6271
瀨	-18.6271
瀽	-18.6271
灓	-18.6271
灡	-18.6271
灢	-18.6271
灨	-18.6271
烆	-18.6271
烚	-18.6271
焥	-18.6271
煀	-18.6271
煏	-18.6271
熖	-18.6271
熭	-18.6271
燌	-18.6271
爤	-18.6271
爫	-18.6271
犉	-18.6271
犫	-18.6271
狊	-18.6271
狑	-18.6271
狢	-18.6271
猔	-18.6271
猧	-18.6271
獊	-18.6271
獕	-18.6271
獜	-18.6271
獻	-18.6271
玂	-18.6271
玝	-18.6271
玪	-18.6271
珇	-18.6271
珒	-18.6271
珨	-18.6271
珱	-18.6271
琙	-18.6271
琣	-18.6271
琸	-18.6271
瑿	-18.6271
甂	-18.6271
畼	-18.6271
疪	-18.6271
疿	-18.6271
痑	-18.6271
瘇	-18.6271
瘮	-18.6271
癊	-18.6271
癒	-18.6271
皻	-18.6271
監	-18.6271
盧	-18.6271
盪	-18.6271
眒	-18.6271
睋	-18.6271
睘	-18.6271
睰	-18.6271
矂	-18.6271
硥	-18.6271
硱	-18.6271
碅	-18.6271
磍	-18.6271
磪	-18.6271
礝	-18.6271
礟	-18.6271
祳	-18.6271
禌	-18.6271
禓	-18.6271
秠	-18.6271
稢	-18.6271
稥	-18.6271
穤	-18.6271
穪	-18.6271
竸	-18.6271
笿	-18.6271
筆	-18.6271
箚	-18.6271
箛	-18.6271
箳	-18.6271
簫	-18.6271
簻	-18.6271
籸	-18.6271
粋	-18.6271
糀	-18.6271
糄	-18.6271
糰	-18.6271
紡	-18.6271
紱	-18.6271
絑	-18.6271
絭	-18.6271
綬	-18.6271
緃	-18.6271
緇	-18.6271
緉	-18.6271
縒	-18.6271
縣	-18.6271
縹	-18.6271
繘	-18.6271
繿	-18.6271
罯	-18.6271
耂	-18.6271
聦	-18.6271
聼	-18.6271
肕	-18.6271
脝	-18.6271
腁	-18.6271
腤	-18.6271
膉	-18.6271
膱	-18.6271
臄	-18.6271
臷	-18.6271
艷	-18.6271
芿	-18.6271
苂	-18.6271
苼	-18.6271
茓	-18.6271
茡	-18.6271
茪	-18.6271
荌	-18.6271
莁	-18.6271
莊	-18.6271
莑	-18.6271
莔	-18.6271
莦	-18.6271
菙	-18.6271
菣	-18.6271
萓	-18.6271
萟	-18.6271
萭	-18.6271
萲	-18.6271
萿	-18.6271
葼	-18.6271
蒛	-18.6271
蓫	-18.6271
蔱	-18.6271
蕱	-18.6271
蕳	-18.6271
藒	-18.6271
藴	-18.6271
蘐	-18.6271
蘝	-18.6271
蘣	-18.6271
蘪	-18.6271
蘹	-18.6271
蘽	-18.6271
蚷	-18.6271
蛖	-18.6271
蛦	-18.6271
蛷	-18.6271
蜏	-18.6271
蜐	-18.6271
蜦	-18.6271
蜫	-18.6271
蜵	-18.6271
蜹	-18.6271
蜽	-18.6271
蝛	-18.6271
蝪	-18.6271
螑	-18.6271
蟃	-18.6271
蠦	-18.6271
蠬	-18.6271
蠮	-18.6271
袣	-18.6271
袥	-18.6271
袮	-18.6271
裣	-18.6271
裧	-18.6271
褅	-18.6271
褗	-18.6271
褯	-18.6271
褱	-18.6271
褻	-18.6271
襋	-18.6271
襓	-18.6271
襘	-18.6271
襭	-18.6271
規	-18.6271
覥	-18.6271
覸	-18.6271
觻	-18.6271
訥	-18.6271
訫	-18.6271
詇	-18.6271
試	-18.6271
誔	-18.6271
誳	-18.6271
誷	-18.6271
誺	-18.6271
誽	-18.6271
諹	-18.6271
謔	-18.6271
謵	-18.6271
謹	-18.6271
謻	-18.6271
護	-18.6271
谸	-18.6271
谾	-18.6271
豅	-18.6271
豏	-18.6271
豖	-18.6271
豘	-18.6271
豝	-18.6271
豰	-18.6271
貁	-18.6271
貟	-18.6271
責	-18.6271
贏	-18.6271
趎	-18.6271
趖	-18.6271
趭	-18.6271
踎	-18.6271
踤	-18.6271
蹾	-18.6271
躈	-18.6271
躛	-18.6271
躢	-18.6271
躱	-18.6271
軄	-18.6271
軍	-18.6271
軓	-18.6271
軩	-18.6271
軺	-18.6271
輆	-18.6271
輖	-18.6271
轂	-18.6271
轉	-18.6271
轠	-18.6271
逪	-18.6271
逫	-18.6271
逰	-18.6271
邤	-18.6271
郍	-18.6271
鄪	-18.6271
酄	-18.6271
酙	-18.6271
酨	-18.6271
酼	-18.6271
醖	-18.6271
醘	-18.6271
醠	-18.6271
釗	-18.6271
釡	-18.6271
釯	-18.6271
釺	-18.6271
鈱	-18.6271
銒	-18.6271
鋀	-18.6271
鋠	-18.6271
錋	-18.6271
錯	-18.6271
鍄	-18.6271
鍋	-18.6271
鎲	-18.6271
鏘	-18.6271
鏾	-18.6271
鐀	-18.6271
鐅	-18.6271
鐖	-18.6271
鐣	-18.6271
鐴	-18.6271
鑠	-18.6271
镼	-18.6271
閺	-18.6271
闥	-18.6271
阺	-18.6271
陓	-18.6271
陖	-18.6271
陝	-18.6271
隬	-18.6271
韓	-18.6271
韕	-18.6271
韱	-18.6271
頯	-18.6271
顑	-18.6271
顜	-18.6271
顨	-18.6271
飋	-18.6271
飲	-18.6271
飶	-18.6271
餁	-18.6271
餢	-18.6271
餲	-18.6271
馦	-18.6271
駣	-18.6271
騌	-18.6271
騵	-18.6271
驍	-18.6271
驐	-18.6271
驗	-18.6271
驝	-18.6271
驦	-18.6271
髇	-18.6271
髞	-18.6271
鬠	-18.6271
鮜	-18.6271
鮤	-18.6271
鮭	-18.6271
鮷	-18.6271
鯣	-18.6271
鰋	-18.6271
鰏	-18.6271
鰮	-18.6271
鰴	-18.6271
鱃	-18.6271
鱙	-18.6271
鱝	-18.6271
鱢	-18.6271
鱴	-18.6271
鴎	-18.6271
鵣	-18.6271
鵴	-18.6271
鶞	-18.6271
鶯	-18.6271
鶻	-18.6271
鶿	-18.6271
鷄	-18.6271
鷴	-18.6271
麎	-18.6271
麵	-18.6271
黺	-18.6271
鼄	-18.6271
鼵	-18.6271
鼸	-18.6271
齇	-18.6271
龖	-18.6271
ꓰ	-18.6271
겁	-18.6271
격	-18.6271
굴	-18.6271
균	-18.6271
깊	-18.6271
깐	-18.6271
껏	-18.6271
녹	-18.6271
높	-18.6271
뎌	-18.6271
듀	-18.6271
랩	-18.6271
링	-18.6271
많	-18.6271
맥	-18.6271
멈	-18.6271
멋	-18.6271
몽	-18.6271
묘	-18.6271
뱅	-18.6271
벽	-18.6271
빅	-18.6271
빌	-18.6271
빙	-18.6271
쇼	-18.6271
슨	-18.6271
았	-18.6271
엘	-18.6271
왔	-18.6271
좀	-18.6271
쪽	-18.6271
책	-18.6271
춤	-18.6271
칠	-18.6271
커	-18.6271
케	-18.6271
탈	-18.6271
텐	-18.6271
팅	-18.6271
패	-18.6271
혹	-18.6271
흘	-18.6271
	-18.6271
	-18.6271
	-18.6271
	-18.6271
	-18.6271
	-18.6271
	-18.6271
	-18.6271
	-18.6271
﨑	-18.6271
赿	-18.6271
촌	-18.6271
》	-18.8227
黖	-18.8771
搣	-18.8771
驏	-18.8771
冣	-18.8771
廘	-18.8771
縳	-18.8771
蝦	-18.8771
辷	-18.8771
鏗	-18.8771
	-18.8771
Í	-18.8771
Ă	-18.8771
Ĉ	-18.8771
Ē	-18.8771
Ė	-18.8771
Ě	-18.8771
Ġ	-18.8771
Ħ	-18.8771
Į	-18.8771
Ľ	-18.8771
Ŝ	-18.8771
Ż	-18.8771
Ǧ	-18.8771
ʈ	-18.8771
ʐ	-18.8771
ʑ	-18.8771
ʔ	-18.8771
ʕ	-18.8771
ʤ	-18.8771
ʿ	-18.8771
ˀ	-18.8771
̀	-18.8771
̅	-18.8771
Ѯ	-18.8771
҉	-18.8771
Ҧ	-18.8771
Ҷ	-18.8771
Ն	-18.8771
թ	-18.8771
ս	-18.8771
ֲ	-18.8771
־	-18.8771
ړ	-18.8771
ܪ	-18.8771
ނ	-18.8771
ރ	-18.8771
ई	-18.8771
उ	-18.8771
घ	-18.8771
শ	-18.8771
ક	-18.8771
ந	-18.8771
జ	-18.8771
బ	-18.8771
హ	-18.8771
ి	-18.8771
ీ	-18.8771
ಕ	-18.8771
್	-18.8771
ປ	-18.8771
ཇ	-18.8771
ྟ	-18.8771
პ	-18.8771
ძ	-18.8771
ᅡ	-18.8771
ᅥ	-18.8771
ក	-18.8771
ី	-18.8771
្	-18.8771
᠋	-18.8771
ᠭ	-18.8771
ḫ	-18.8771
Ἡ	-18.8771
ἴ	-18.8771
Ὑ	-18.8771
ὺ	-18.8771
‟	-18.8771
↖	-18.8771
⋈	-18.8771
┝	-18.8771
┥	-18.8771
┦	-18.8771
┷	-18.8771
╨	-18.8771
▆	-18.8771
☎	-18.8771
⢌	-18.8771
ⲁ	-18.8771
⺌	-18.8771
〢	-18.8771
〣	-18.8771
〩	-18.8771
ゎ	-18.8771
ゑ	-18.8771
ヮ	-18.8771
㑹	-18.8771
㘧	-18.8771
㘰	-18.8771
㙉	-18.8771
㜸	-18.8771
㮖	-18.8771
㰦	-18.8771
㵂	-18.8771
㶷	-18.8771
䀗	-18.8771
䈢	-18.8771
䏝	-18.8771
䓕	-18.8771
䦆	-18.8771
䱵	-18.8771
䳢	-18.8771
亄	-18.8771
亣	-18.8771
仈	-18.8771
仩	-18.8771
伇	-18.8771
伭	-18.8771
佇	-18.8771
侸	-18.8771
侾	-18.8771
俕	-18.8771
倷	-18.8771
偄	-18.8771
偝	-18.8771
偯	-18.8771
傡	-18.8771
僓	-18.8771
僛	-18.8771
僟	-18.8771
僤	-18.8771
儀	-18.8771
兇	-18.8771
兒	-18.8771
冎	-18.8771
冩	-18.8771
冺	-18.8771
凐	-18.8771
凗	-18.8771
凥	-18.8771
凾	-18.8771
刄	-18.8771
刏	-18.8771
刕	-18.8771
別	-18.8771
劍	-18.8771
劑	-18.8771
劮	-18.8771
劶	-18.8771
勏	-18.8771
勚	-18.8771
勝	-18.8771
勧	-18.8771
匟	-18.8771
匯	-18.8771
卄	-18.8771
卪	-18.8771
厽	-18.8771
叒	-18.8771
吳	-18.8771
呝	-18.8771
呯	-18.8771
咜	-18.8771
咞	-18.8771
咴	-18.8771
哬	-18.8771
唀	-18.8771
唗	-18.8771
唥	-18.8771
啒	-18.8771
啝	-18.8771
啽	-18.8771
嗀	-18.8771
嗊	-18.8771
嘇	-18.8771
嘨	-18.8771
嘵	-18.8771
嘼	-18.8771
嚖	-18.8771
囒	-18.8771
圚	-18.8771
埣	-18.8771
埥	-18.8771
堗	-18.8771
塓	-18.8771
塡	-18.8771
塣	-18.8771
塯	-18.8771
塴	-18.8771
塷	-18.8771
墏	-18.8771
壙	-18.8771
壽	-18.8771
壿	-18.8771
夅	-18.8771
夣	-18.8771
奜	-18.8771
奝	-18.8771
妑	-18.8771
妶	-18.8771
姃	-18.8771
娤	-18.8771
婩	-18.8771
媐	-18.8771
媤	-18.8771
嫐	-18.8771
孆	-18.8771
孷	-18.8771
宎	-18.8771
宐	-18.8771
寉	-18.8771
寷	-18.8771
尋	-18.8771
尭	-18.8771
尰	-18.8771
尵	-18.8771
屘	-18.8771
岰	-18.8771
峊	-18.8771
峔	-18.8771
峕	-18.8771
峴	-18.8771
崥	-18.8771
崹	-18.8771
嵔	-18.8771
嵞	-18.8771
嵤	-18.8771
嵦	-18.8771
嶀	-18.8771
嶣	-18.8771
嶨	-18.8771
嶯	-18.8771
嶸	-18.8771
嶹	-18.8771
嶾	-18.8771
巓	-18.8771
庅	-18.8771
庤	-18.8771
庰	-18.8771
庻	-18.8771
廲	-18.8771
彛	-18.8771
彿	-18.8771
忂	-18.8771
忣	-18.8771
忴	-18.8771
怾	-18.8771
恎	-18.8771
惡	-18.8771
愂	-18.8771
愖	-18.8771
慞	-18.8771
慶	-18.8771
慸	-18.8771
慾	-18.8771
慿	-18.8771
憞	-18.8771
憟	-18.8771
憣	-18.8771
憰	-18.8771
懀	-18.8771
懤	-18.8771
懻	-18.8771
戱	-18.8771
捀	-18.8771
捔	-18.8771
掵	-18.8771
揈	-18.8771
揗	-18.8771
揚	-18.8771
摏	-18.8771
摝	-18.8771
摲	-18.8771
摼	-18.8771
撔	-18.8771
擳	-18.8771
擽	-18.8771
敀	-18.8771
敿	-18.8771
旪	-18.8771
昤	-18.8771
晀	-18.8771
暳	-18.8771
曋	-18.8771
曔	-18.8771
曖	-18.8771
曘	-18.8771
曣	-18.8771
杢	-18.8771
杽	-18.8771
柖	-18.8771
柧	-18.8771
柫	-18.8771
栛	-18.8771
栮	-18.8771
栯	-18.8771
桒	-18.8771
桝	-18.8771
梘	-18.8771
梛	-18.8771
梮	-18.8771
棥	-18.8771
椈	-18.8771
椘	-18.8771
椱	-18.8771
楇	-18.8771
楑	-18.8771
榙	-18.8771
榳	-18.8771
榺	-18.8771
槴	-18.8771
槶	-18.8771
樶	-18.8771
樼	-18.8771
橉	-18.8771
檙	-18.8771
櫡	-18.8771
櫲	-18.8771
櫴	-18.8771
欏	-18.8771
欘	-18.8771
欞	-18.8771
欪	-18.8771
歰	-18.8771
殫	-18.8771
殶	-18.8771
殸	-18.8771
殽	-18.8771
毇	-18.8771
氁	-18.8771
氻	-18.8771
汎	-18.8771
泴	-18.8771
泶	-18.8771
涾	-18.8771
淊	-18.8771
湀	-18.8771
湙	-18.8771
湪	-18.8771
溋	-18.8771
溕	-18.8771
溚	-18.8771
溛	-18.8771
溝	-18.8771
滒	-18.8771
漃	-18.8771
漍	-18.8771
漢	-18.8771
漧	-18.8771
潊	-18.8771
潐	-18.8771
潣	-18.8771
潧	-18.8771
潶	-18.8771
澅	-18.8771
澞	-18.8771
澺	-18.8771
濴	-18.8771
濸	-18.8771
瀢	-18.8771
瀯	-18.8771
瀳	-18.8771
灠	-18.8771
灱	-18.8771
灷	-18.8771
炵	-18.8771
烒	-18.8771
烶	-18.8771
焟	-18.8771
煆	-18.8771
煛	-18.8771
煥	-18.8771
煪	-18.8771
熅	-18.8771
熚	-18.8771
熪	-18.8771
熻	-18.8771
燇	-18.8771
爋	-18.8771
爗	-18.8771
牎	-18.8771
牑	-18.8771
牥	-18.8771
牶	-18.8771
犝	-18.8771
犳	-18.8771
狇	-18.8771
狟	-18.8771
猑	-18.8771
猦	-18.8771
猵	-18.8771
獎	-18.8771
獱	-18.8771
玐	-18.8771
玧	-18.8771
珻	-18.8771
琋	-18.8771
琟	-18.8771
瑃	-18.8771
瑵	-18.8771
璄	-18.8771
璒	-18.8771
瓓	-18.8771
瓵	-18.8771
瓾	-18.8771
甈	-18.8771
甋	-18.8771
甐	-18.8771
畄	-18.8771
畆	-18.8771
畣	-18.8771
畨	-18.8771
異	-18.8771
痲	-18.8771
瘚	-18.8771
皠	-18.8771
盄	-18.8771
盡	-18.8771
盵	-18.8771
盿	-18.8771
眂	-18.8771
眆	-18.8771
睮	-18.8771
睼	-18.8771
瞖	-18.8771
瞱	-18.8771
砏	-18.8771
砐	-18.8771
砛	-18.8771
砱	-18.8771
碩	-18.8771
磒	-18.8771
磘	-18.8771
礋	-18.8771
礑	-18.8771
礶	-18.8771
祄	-18.8771
祑	-18.8771
祙	-18.8771
祰	-18.8771
禈	-18.8771
秊	-18.8771
稏	-18.8771
稕	-18.8771
稰	-18.8771
穐	-18.8771
穩	-18.8771
窙	-18.8771
窡	-18.8771
笰	-18.8771
筍	-18.8771
箆	-18.8771
箹	-18.8771
篅	-18.8771
篈	-18.8771
篊	-18.8771
篍	-18.8771
篜	-18.8771
簎	-18.8771
簬	-18.8771
籈	-18.8771
籊	-18.8771
糎	-18.8771
糩	-18.8771
紂	-18.8771
紈	-18.8771
紸	-18.8771
紿	-18.8771
終	-18.8771
綃	-18.8771
綄	-18.8771
緀	-18.8771
緋	-18.8771
緡	-18.8771
緰	-18.8771
緲	-18.8771
縈	-18.8771
縋	-18.8771
繵	-18.8771
纉	-18.8771
纐	-18.8771
纗	-18.8771
纼	-18.8771
罺	-18.8771
羜	-18.8771
羢	-18.8771
胑	-18.8771
胮	-18.8771
脕	-18.8771
脧	-18.8771
腂	-18.8771
腝	-18.8771
腣	-18.8771
膞	-18.8771
膫	-18.8771
膲	-18.8771
臐	-18.8771
臒	-18.8771
臽	-18.8771
舖	-18.8771
舚	-18.8771
艧	-18.8771
芖	-18.8771
芠	-18.8771
苃	-18.8771
苰	-18.8771
茮	-18.8771
荁	-18.8771
荮	-18.8771
荳	-18.8771
荿	-18.8771
莇	-18.8771
菒	-18.8771
菤	-18.8771
萛	-18.8771
萰	-18.8771
萷	-18.8771
葉	-18.8771
葐	-18.8771
葟	-18.8771
葧	-18.8771
葪	-18.8771
蒁	-18.8771
蒒	-18.8771
蒶	-18.8771
蓒	-18.8771
蓸	-18.8771
蔉	-18.8771
蕏	-18.8771
蕧	-18.8771
藼	-18.8771
蘀	-18.8771
蘌	-18.8771
虇	-18.8771
虴	-18.8771
蚅	-18.8771
蚏	-18.8771
蚻	-18.8771
蛨	-18.8771
蛫	-18.8771
蛵	-18.8771
蜔	-18.8771
蜟	-18.8771
蜠	-18.8771
蜤	-18.8771
蜲	-18.8771
蝄	-18.8771
螆	-18.8771
螌	-18.8771
螖	-18.8771
蟞	-18.8771
蟩	-18.8771
蟸	-18.8771
蠄	-18.8771
衃	-18.8771
衘	-18.8771
袑	-18.8771
袸	-18.8771
裗	-18.8771
裭	-18.8771
褞	-18.8771
褽	-18.8771
襷	-18.8771
覉	-18.8771
覒	-18.8771
覮	-18.8771
覶	-18.8771
觀	-18.8771
觟	-18.8771
觲	-18.8771
訆	-18.8771
訊	-18.8771
訜	-18.8771
訮	-18.8771
詘	-18.8771
詞	-18.8771
詷	-18.8771
誙	-18.8771
誚	-18.8771
誻	-18.8771
諌	-18.8771
諯	-18.8771
謍	-18.8771
謜	-18.8771
謫	-18.8771
謯	-18.8771
譅	-18.8771
識	-18.8771
譝	-18.8771
譣	-18.8771
譯	-18.8771
議	-18.8771
譱	-18.8771
讓	-18.8771
讛	-18.8771
谉	-18.8771
貢	-18.8771
貱	-18.8771
貴	-18.8771
貹	-18.8771
賌	-18.8771
賗	-18.8771
賟	-18.8771
贊	-18.8771
跠	-18.8771
跿	-18.8771
踕	-18.8771
踨	-18.8771
蹕	-18.8771
蹪	-18.8771
躠	-18.8771
輑	-18.8771
轙	-18.8771
轚	-18.8771
辦	-18.8771
農	-18.8771
迌	-18.8771
迚	-18.8771
迠	-18.8771
逘	-18.8771
逥	-18.8771
逬	-18.8771
遷	-18.8771
遻	-18.8771
邌	-18.8771
邍	-18.8771
郹	-18.8771
郻	-18.8771
鄉	-18.8771
鄛	-18.8771
鄧	-18.8771
酕	-18.8771
醤	-18.8771
釄	-18.8771
鈅	-18.8771
鈋	-18.8771
鈩	-18.8771
鈯	-18.8771
鈼	-18.8771
鉓	-18.8771
鉮	-18.8771
鉼	-18.8771
銅	-18.8771
銔	-18.8771
銾	-18.8771
鋣	-18.8771
鋾	-18.8771
錑	-18.8771
錺	-18.8771
鍗	-18.8771
鍙	-18.8771
鎍	-18.8771
鏙	-18.8771
鏣	-18.8771
鐙	-18.8771
鐝	-18.8771
鐫	-18.8771
鐽	-18.8771
鑵	-18.8771
鑾	-18.8771
閞	-18.8771
闃	-18.8771
阭	-18.8771
雃	-18.8771
雥	-18.8771
雵	-18.8771
雽	-18.8771
霑	-18.8771
霠	-18.8771
霬	-18.8771
韥	-18.8771
韸	-18.8771
預	-18.8771
頓	-18.8771
領	-18.8771
頺	-18.8771
顐	-18.8771
顣	-18.8771
顳	-18.8771
颽	-18.8771
颾	-18.8771
飁	-18.8771
飍	-18.8771
飦	-18.8771
飫	-18.8771
養	-18.8771
餠	-18.8771
饉	-18.8771
饗	-18.8771
饡	-18.8771
饢	-18.8771
馢	-18.8771
馧	-18.8771
駮	-18.8771
騐	-18.8771
騺	-18.8771
驞	-18.8771
骽	-18.8771
髄	-18.8771
鬳	-18.8771
魀	-18.8771
鮒	-18.8771
鯘	-18.8771
鯩	-18.8771
鯹	-18.8771
鰡	-18.8771
鱋	-18.8771
鱽	-18.8771
鳛	-18.8771
鳧	-18.8771
鳰	-18.8771
鴀	-18.8771
鴓	-18.8771
鴺	-18.8771
鴽	-18.8771
鵅	-18.8771
鵋	-18.8771
鵌	-18.8771
鵗	-18.8771
鶅	-18.8771
鶆	-18.8771
鶟	-18.8771
鶣	-18.8771
鶩	-18.8771
鷔	-18.8771
鷜	-18.8771
鷳	-18.8771
鸁	-18.8771
鸈	-18.8771
鸐	-18.8771
鸖	-18.8771
鸼	-18.8771
麔	-18.8771
麯	-18.8771
黅	-18.8771
黸	-18.8771
鼁	-18.8771
鼆	-18.8771
鼝	-18.8771
鼞	-18.8771
鼶	-18.8771
龘	-18.8771
괜	-18.8771
꺾	-18.8771
꼬	-18.8771
놈	-18.8771
능	-18.8771
늬	-18.8771
닉	-18.8771
닿	-18.8771
됐	-18.8771
뒤	-18.8771
떤	-18.8771
렉	-18.8771
렌	-18.8771
륜	-18.8771
먹	-18.8771
뭘	-18.8771
밖	-18.8771
빵	-18.8771
뼉	-18.8771
삶	-18.8771
샤	-18.8771
숲	-18.8771
앤	-18.8771
엑	-18.8771
잃	-18.8771
잉	-18.8771
찍	-18.8771
찮	-18.8771
척	-18.8771
쳤	-18.8771
츄	-18.8771
큐	-18.8771
택	-18.8771
텔	-18.8771
틀	-18.8771
틴	-18.8771
풀	-18.8771
홀	-18.8771
홉	-18.8771
	-18.8771
	-18.8771
	-18.8771
	-18.8771
	-18.8771
	-18.8771
	-18.8771
	-18.8771
	-18.8771
	-18.8771
	-18.8771
	-18.8771
	-18.8771
	-18.8771
	-18.8771
	-18.8771
	-18.8771
	-18.8771
	-18.8771
	-18.8771
	-18.8771
	-18.8771
	-18.8771
	-18.8771
	-18.8771
	-18.8771
	-18.8771
	-18.8771
橝	-18.8771
盙	-18.8771
霋	-18.8771
埱	-19.2105
峺	-19.2105
嶚	-19.2105
荢	-19.2105
萇	-19.2105
蘥	-19.2105
談	-19.2105
Ñ	-19.2105
Ô	-19.2105
Þ	-19.2105
Ę	-19.2105
Ĩ	-19.2105
ĵ	-19.2105
Ķ	-19.2105
Ń	-19.2105
Ŋ	-19.2105
Ŧ	-19.2105
Ơ	-19.2105
ǧ	-19.2105
ɖ	-19.2105
ɟ	-19.2105
ɯ	-19.2105
ɱ	-19.2105
ɳ	-19.2105
ɻ	-19.2105
ʎ	-19.2105
ʛ	-19.2105
ʥ	-19.2105
˫	-19.2105
̧	-19.2105
͡	-19.2105
Ћ	-19.2105
Ќ	-19.2105
ѕ	-19.2105
ќ	-19.2105
ґ	-19.2105
Ғ	-19.2105
Ҩ	-19.2105
ҩ	-19.2105
һ	-19.2105
Ҽ	-19.2105
ҽ	-19.2105
Ҿ	-19.2105
ҿ	-19.2105
Մ	-19.2105
Ռ	-19.2105
Ց	-19.2105
ը	-19.2105
լ	-19.2105
խ	-19.2105
ղ	-19.2105
շ	-19.2105
վ	-19.2105
ց	-19.2105
ք	-19.2105
ֱ	-19.2105
ٌ	-19.2105
ٴ	-19.2105
ٽ	-19.2105
۱	-19.2105
ܘ	-19.2105
ަ	-19.2105
ާ	-19.2105
ް	-19.2105
ङ	-19.2105
ळ	-19.2105
ॉ	-19.2105
ौ	-19.2105
ং	-19.2105
ড	-19.2105
হ	-19.2105
அ	-19.2105
ங	-19.2105
ண	-19.2105
ள	-19.2105
ெ	-19.2105
ே	-19.2105
ం	-19.2105
న	-19.2105
వ	-19.2105
ై	-19.2105
ಗ	-19.2105
ನ	-19.2105
ฏ	-19.2105
ฒ	-19.2105
ງ	-19.2105
ཅ	-19.2105
ཉ	-19.2105
ཛ	-19.2105
ྐ	-19.2105
ྤ	-19.2105
ྫ	-19.2105
ქ	-19.2105
ᅩ	-19.2105
ᅮ	-19.2105
ᅳ	-19.2105
ᅵ	-19.2105
ᗝ	-19.2105
គ	-19.2105
ង	-19.2105
ប	-19.2105
ល	-19.2105
ំ	-19.2105
ᠢ	-19.2105
ᠣ	-19.2105
ᠤ	-19.2105
ᠬ	-19.2105
ᠯ	-19.2105
ᠰ	-19.2105
ᦺ	-19.2105
ṗ	-19.2105
ẻ	-19.2105
Ứ	-19.2105
ἀ	-19.2105
Ἅ	-19.2105
ὀ	-19.2105
ὰ	-19.2105
ὴ	-19.2105
ὸ	-19.2105
ᾶ	-19.2105
‡	-19.2105
₩	-19.2105
∘	-19.2105
⊃	-19.2105
⋎	-19.2105
⌠	-19.2105
⌡	-19.2105
┕	-19.2105
┨	-19.2105
╟	-19.2105
▂	-19.2105
▊	-19.2105
▔	-19.2105
▕	-19.2105
☼	-19.2105
♫	-19.2105
✦	-19.2105
❖	-19.2105
⡆	-19.2105
ⲟ	-19.2105
〥	-19.2105
〧	-19.2105
〨	-19.2105
ヾ	-19.2105
㑁	-19.2105
㕭	-19.2105
㘎	-19.2105
㙍	-19.2105
㛧	-19.2105
㠭	-19.2105
㠯	-19.2105
㤘	-19.2105
㦵	-19.2105
㩳	-19.2105
㬪	-19.2105
㴣	-19.2105
䆛	-19.2105
䏳	-19.2105
䑔	-19.2105
䕻	-19.2105
䘅	-19.2105
䞒	-19.2105
䰟	-19.2105
䲟	-19.2105
䲢	-19.2105
䴔	-19.2105
䴖	-19.2105
丣	-19.2105
乄	-19.2105
乊	-19.2105
乷	-19.2105
亂	-19.2105
亙	-19.2105
亰	-19.2105
亽	-19.2105
仢	-19.2105
仭	-19.2105
佡	-19.2105
佲	-19.2105
侒	-19.2105
侰	-19.2105
俽	-19.2105
倉	-19.2105
倎	-19.2105
偀	-19.2105
偋	-19.2105
偣	-19.2105
傂	-19.2105
傰	-19.2105
僁	-19.2105
僋	-19.2105
僐	-19.2105
儎	-19.2105
儐	-19.2105
儖	-19.2105
儘	-19.2105
儩	-19.2105
儰	-19.2105
儷	-19.2105
儾	-19.2105
兠	-19.2105
冾	-19.2105
凣	-19.2105
凬	-19.2105
凮	-19.2105
凲	-19.2105
刔	-19.2105
刡	-19.2105
刱	-19.2105
剛	-19.2105
劆	-19.2105
勎	-19.2105
勞	-19.2105
勭	-19.2105
勼	-19.2105
匒	-19.2105
匧	-19.2105
匫	-19.2105
匰	-19.2105
卻	-19.2105
厜	-19.2105
厞	-19.2105
叞	-19.2105
吅	-19.2105
呅	-19.2105
呇	-19.2105
呧	-19.2105
哸	-19.2105
唨	-19.2105
啈	-19.2105
啎	-19.2105
啩	-19.2105
啿	-19.2105
喖	-19.2105
喗	-19.2105
喡	-19.2105
嗇	-19.2105
嗋	-19.2105
嘄	-19.2105
嘾	-19.2105
噮	-19.2105
噺	-19.2105
嚂	-19.2105
嚔	-19.2105
嚪	-19.2105
囄	-19.2105
囕	-19.2105
囜	-19.2105
囩	-19.2105
圛	-19.2105
圵	-19.2105
坆	-19.2105
坈	-19.2105
坕	-19.2105
垎	-19.2105
垏	-19.2105
垗	-19.2105
垼	-19.2105
垽	-19.2105
埓	-19.2105
埖	-19.2105
埞	-19.2105
堢	-19.2105
堸	-19.2105
塛	-19.2105
塳	-19.2105
塸	-19.2105
墇	-19.2105
墢	-19.2105
墽	-19.2105
壀	-19.2105
壨	-19.2105
夛	-19.2105
夠	-19.2105
夻	-19.2105
奟	-19.2105
奩	-19.2105
奯	-19.2105
妐	-19.2105
妜	-19.2105
妡	-19.2105
妧	-19.2105
娋	-19.2105
娕	-19.2105
娚	-19.2105
娝	-19.2105
娰	-19.2105
婁	-19.2105
婸	-19.2105
媁	-19.2105
媣	-19.2105
嬁	-19.2105
嬐	-19.2105
嬓	-19.2105
嬮	-19.2105
孈	-19.2105
孲	-19.2105
寁	-19.2105
寕	-19.2105
寣	-19.2105
寪	-19.2105
寫	-19.2105
寬	-19.2105
岄	-19.2105
岎	-19.2105
岝	-19.2105
岟	-19.2105
岡	-19.2105
岯	-19.2105
峖	-19.2105
崨	-19.2105
嵃	-19.2105
嵏	-19.2105
嵑	-19.2105
嵠	-19.2105
嵣	-19.2105
嵥	-19.2105
嵧	-19.2105
嵺	-19.2105
嶆	-19.2105
帲	-19.2105
帾	-19.2105
幃	-19.2105
幍	-19.2105
幖	-19.2105
幣	-19.2105
幬	-19.2105
庱	-19.2105
廗	-19.2105
廰	-19.2105
廳	-19.2105
弝	-19.2105
弣	-19.2105
弪	-19.2105
弿	-19.2105
彉	-19.2105
徍	-19.2105
徣	-19.2105
徥	-19.2105
徸	-19.2105
徻	-19.2105
忇	-19.2105
怞	-19.2105
恀	-19.2105
恏	-19.2105
恔	-19.2105
恴	-19.2105
悂	-19.2105
悞	-19.2105
惥	-19.2105
愡	-19.2105
愩	-19.2105
慗	-19.2105
懱	-19.2105
戃	-19.2105
戝	-19.2105
扙	-19.2105
扵	-19.2105
扸	-19.2105
抌	-19.2105
抐	-19.2105
抪	-19.2105
拸	-19.2105
拻	-19.2105
捰	-19.2105
捹	-19.2105
捾	-19.2105
掅	-19.2105
掔	-19.2105
掕	-19.2105
揌	-19.2105
揘	-19.2105
揦	-19.2105
揰	-19.2105
揷	-19.2105
搫	-19.2105
搸	-19.2105
摉	-19.2105
摖	-19.2105
摤	-19.2105
摷	-19.2105
撗	-19.2105
撜	-19.2105
撽	-19.2105
擟	-19.2105
攂	-19.2105
攄	-19.2105
攈	-19.2105
攕	-19.2105
斣	-19.2105
斦	-19.2105
旊	-19.2105
旑	-19.2105
晭	-19.2105
晵	-19.2105
暞	-19.2105
暩	-19.2105
暼	-19.2105
暿	-19.2105
曂	-19.2105
曆	-19.2105
曻	-19.2105
朌	-19.2105
朙	-19.2105
杋	-19.2105
杸	-19.2105
枎	-19.2105
柌	-19.2105
柦	-19.2105
柵	-19.2105
栤	-19.2105
桺	-19.2105
梖	-19.2105
梸	-19.2105
棗	-19.2105
棝	-19.2105
椬	-19.2105
椯	-19.2105
椲	-19.2105
椳	-19.2105
楈	-19.2105
楉	-19.2105
楍	-19.2105
楜	-19.2105
榢	-19.2105
榶	-19.2105
榽	-19.2105
槕	-19.2105
槡	-19.2105
槬	-19.2105
樄	-19.2105
樢	-19.2105
橆	-19.2105
橋	-19.2105
檓	-19.2105
檜	-19.2105
檢	-19.2105
檼	-19.2105
櫵	-19.2105
欇	-19.2105
權	-19.2105
欗	-19.2105
欛	-19.2105
欨	-19.2105
欮	-19.2105
歁	-19.2105
歝	-19.2105
歨	-19.2105
殔	-19.2105
殘	-19.2105
殞	-19.2105
殩	-19.2105
殯	-19.2105
毄	-19.2105
毠	-19.2105
毧	-19.2105
汣	-19.2105
汥	-19.2105
汿	-19.2105
泘	-19.2105
洓	-19.2105
洷	-19.2105
浖	-19.2105
浹	-19.2105
淃	-19.2105
淕	-19.2105
淣	-19.2105
淨	-19.2105
渂	-19.2105
渇	-19.2105
湯	-19.2105
湽	-19.2105
滖	-19.2105
漝	-19.2105
漸	-19.2105
潒	-19.2105
澏	-19.2105
澑	-19.2105
澰	-19.2105
濄	-19.2105
濔	-19.2105
濭	-19.2105
瀂	-19.2105
瀏	-19.2105
瀡	-19.2105
瀪	-19.2105
瀱	-19.2105
灎	-19.2105
灮	-19.2105
炑	-19.2105
炗	-19.2105
炴	-19.2105
烏	-19.2105
烞	-19.2105
烸	-19.2105
烿	-19.2105
焪	-19.2105
焺	-19.2105
煉	-19.2105
煍	-19.2105
煹	-19.2105
熞	-19.2105
熡	-19.2105
熰	-19.2105
燨	-19.2105
燾	-19.2105
爈	-19.2105
爖	-19.2105
爡	-19.2105
爩	-19.2105
爭	-19.2105
牠	-19.2105
犤	-19.2105
犲	-19.2105
狣	-19.2105
狵	-19.2105
猅	-19.2105
猚	-19.2105
猭	-19.2105
獑	-19.2105
獓	-19.2105
獟	-19.2105
獽	-19.2105
玈	-19.2105
玔	-19.2105
玾	-19.2105
珆	-19.2105
珗	-19.2105
琂	-19.2105
琓	-19.2105
琔	-19.2105
瑻	-19.2105
璍	-19.2105
璔	-19.2105
璯	-19.2105
璸	-19.2105
瓆	-19.2105
瓗	-19.2105
瓫	-19.2105
畍	-19.2105
疄	-19.2105
疅	-19.2105
疘	-19.2105
疧	-19.2105
痷	-19.2105
痺	-19.2105
癄	-19.2105
癅	-19.2105
癏	-19.2105
癑	-19.2105
癝	-19.2105
癠	-19.2105
癹	-19.2105
皗	-19.2105
皘	-19.2105
皨	-19.2105
盃	-19.2105
盰	-19.2105
眗	-19.2105
眰	-19.2105
睄	-19.2105
睝	-19.2105
睞	-19.2105
睸	-19.2105
瞘	-19.2105
瞛	-19.2105
矒	-19.2105
矠	-19.2105
砊	-19.2105
砿	-19.2105
硡	-19.2105
硲	-19.2105
硶	-19.2105
碒	-19.2105
碖	-19.2105
碤	-19.2105
確	-19.2105
磗	-19.2105
磛	-19.2105
磧	-19.2105
礃	-19.2105
祪	-19.2105
禐	-19.2105
禯	-19.2105
禶	-19.2105
秎	-19.2105
秜	-19.2105
秞	-19.2105
秮	-19.2105
秳	-19.2105
秷	-19.2105
稁	-19.2105
稛	-19.2105
稟	-19.2105
積	-19.2105
窏	-19.2105
窼	-19.2105
窽	-19.2105
竓	-19.2105
竘	-19.2105
竩	-19.2105
竪	-19.2105
竳	-19.2105
竾	-19.2105
笂	-19.2105
笅	-19.2105
筞	-19.2105
筫	-19.2105
箌	-19.2105
篻	-19.2105
簊	-19.2105
簘	-19.2105
簛	-19.2105
簝	-19.2105
簡	-19.2105
簥	-19.2105
籅	-19.2105
籜	-19.2105
籪	-19.2105
籭	-19.2105
粌	-19.2105
粩	-19.2105
糴	-19.2105
糿	-19.2105
紏	-19.2105
紪	-19.2105
絕	-19.2105
絟	-19.2105
絲	-19.2105
綛	-19.2105
綜	-19.2105
綰	-19.2105
綼	-19.2105
緂	-19.2105
緦	-19.2105
緩	-19.2105
緸	-19.2105
緻	-19.2105
縎	-19.2105
縞	-19.2105
縱	-19.2105
縺	-19.2105
繑	-19.2105
繲	-19.2105
繴	-19.2105
纄	-19.2105
罆	-19.2105
罤	-19.2105
羀	-19.2105
羅	-19.2105
羈	-19.2105
羪	-19.2105
翢	-19.2105
翧	-19.2105
翺	-19.2105
聅	-19.2105
聗	-19.2105
胏	-19.2105
胣	-19.2105
脫	-19.2105
脭	-19.2105
腟	-19.2105
膚	-19.2105
膥	-19.2105
膾	-19.2105
臇	-19.2105
臋	-19.2105
臗	-19.2105
臟	-19.2105
臩	-19.2105
舋	-19.2105
艌	-19.2105
艍	-19.2105
艒	-19.2105
艖	-19.2105
艥	-19.2105
芕	-19.2105
芵	-19.2105
苭	-19.2105
苮	-19.2105
茠	-19.2105
荓	-19.2105
荴	-19.2105
莐	-19.2105
莟	-19.2105
莮	-19.2105
菋	-19.2105
菢	-19.2105
菧	-19.2105
菬	-19.2105
菷	-19.2105
菺	-19.2105
萅	-19.2105
萡	-19.2105
萢	-19.2105
萴	-19.2105
葨	-19.2105
蒅	-19.2105
蒠	-19.2105
蓅	-19.2105
蓗	-19.2105
蓤	-19.2105
蓮	-19.2105
蓻	-19.2105
蔛	-19.2105
蔥	-19.2105
蔰	-19.2105
蔲	-19.2105
蔳	-19.2105
蕥	-19.2105
蕩	-19.2105
蕮	-19.2105
蕶	-19.2105
蕼	-19.2105
薃	-19.2105
薍	-19.2105
薧	-19.2105
薻	-19.2105
薼	-19.2105
藇	-19.2105
藘	-19.2105
藮	-19.2105
藰	-19.2105
蘄	-19.2105
蘭	-19.2105
蘮	-19.2105
虋	-19.2105
蚉	-19.2105
蚲	-19.2105
蛒	-19.2105
蜛	-19.2105
蝏	-19.2105
蝐	-19.2105
蝳	-19.2105
螏	-19.2105
螛	-19.2105
蟘	-19.2105
蟙	-19.2105
蟱	-19.2105
蟲	-19.2105
蠘	-19.2105
蠝	-19.2105
蠻	-19.2105
衸	-19.2105
裇	-19.2105
裚	-19.2105
褼	-19.2105
襐	-19.2105
襧	-19.2105
襯	-19.2105
覬	-19.2105
覭	-19.2105
觓	-19.2105
觘	-19.2105
觠	-19.2105
觸	-19.2105
討	-19.2105
訐	-19.2105
訛	-19.2105
訷	-19.2105
詙	-19.2105
話	-19.2105
誄	-19.2105
誜	-19.2105
諈	-19.2105
諛	-19.2105
諠	-19.2105
諦	-19.2105
諽	-19.2105
謐	-19.2105
謕	-19.2105
謚	-19.2105
謰	-19.2105
謳	-19.2105
譑	-19.2105
譡	-19.2105
譩	-19.2105
譶	-19.2105
讍	-19.2105
讑	-19.2105
讝	-19.2105
豞	-19.2105
貑	-19.2105
貕	-19.2105
貲	-19.2105
賖	-19.2105
賚	-19.2105
賞	-19.2105
賡	-19.2105
贄	-19.2105
贈	-19.2105
贑	-19.2105
贕	-19.2105
赯	-19.2105
趜	-19.2105
趡	-19.2105
跀	-19.2105
跒	-19.2105
跥	-19.2105
蹃	-19.2105
蹥	-19.2105
躋	-19.2105
躘	-19.2105
躤	-19.2105
躽	-19.2105
軚	-19.2105
軟	-19.2105
軲	-19.2105
軻	-19.2105
軾	-19.2105
載	-19.2105
輐	-19.2105
轈	-19.2105
辝	-19.2105
辡	-19.2105
辧	-19.2105
迱	-19.2105
遀	-19.2105
遠	-19.2105
邔	-19.2105
邞	-19.2105
郰	-19.2105
郱	-19.2105
鄍	-19.2105
鄭	-19.2105
酈	-19.2105
醃	-19.2105
醓	-19.2105
醫	-19.2105
釵	-19.2105
釼	-19.2105
釽	-19.2105
鈖	-19.2105
鈠	-19.2105
鉣	-19.2105
銖	-19.2105
銡	-19.2105
鋍	-19.2105
鋪	-19.2105
鋻	-19.2105
錇	-19.2105
錎	-19.2105
錔	-19.2105
錖	-19.2105
錮	-19.2105
鍳	-19.2105
鍷	-19.2105
鍿	-19.2105
鎧	-19.2105
鏆	-19.2105
鏒	-19.2105
鏕	-19.2105
鐕	-19.2105
鐜	-19.2105
鐹	-19.2105
鑙	-19.2105
鑤	-19.2105
鑹	-19.2105
钂	-19.2105
閁	-19.2105
閫	-19.2105
閷	-19.2105
閽	-19.2105
闊	-19.2105
阥	-19.2105
陃	-19.2105
陣	-19.2105
陥	-19.2105
隉	-19.2105
隡	-19.2105
險	-19.2105
隯	-19.2105
隱	-19.2105
雧	-19.2105
雴	-19.2105
霃	-19.2105
霘	-19.2105
霛	-19.2105
霟	-19.2105
霻	-19.2105
霼	-19.2105
靄	-19.2105
靅	-19.2105
靐	-19.2105
靔	-19.2105
靤	-19.2105
靽	-19.2105
鞄	-19.2105
鞢	-19.2105
鞥	-19.2105
須	-19.2105
頉	-19.2105
頊	-19.2105
頡	-19.2105
頨	-19.2105
顈	-19.2105
顏	-19.2105
顓	-19.2105
飛	-19.2105
飳	-19.2105
飵	-19.2105
餝	-19.2105
餣	-19.2105
餩	-19.2105
餴	-19.2105
饂	-19.2105
饻	-19.2105
駧	-19.2105
騬	-19.2105
騱	-19.2105
騳	-19.2105
騹	-19.2105
髝	-19.2105
髰	-19.2105
魊	-19.2105
魧	-19.2105
魱	-19.2105
魵	-19.2105
魻	-19.2105
鮂	-19.2105
鮅	-19.2105
鮕	-19.2105
鮫	-19.2105
鮵	-19.2105
鯋	-19.2105
鯟	-19.2105
鯺	-19.2105
鰙	-19.2105
鰥	-19.2105
鰪	-19.2105
鰫	-19.2105
鱡	-19.2105
鱹	-19.2105
鲓	-19.2105
鳥	-19.2105
鳵	-19.2105
鳼	-19.2105
鴮	-19.2105
鵃	-19.2105
鵡	-19.2105
鵱	-19.2105
鵸	-19.2105
鶉	-19.2105
鶔	-19.2105
鶝	-19.2105
鶪	-19.2105
鶭	-19.2105
鶷	-19.2105
鶽	-19.2105
鷅	-19.2105
鷏	-19.2105
鷒	-19.2105
鷢	-19.2105
鸄	-19.2105
鸅	-19.2105
鸗	-19.2105
鸚	-19.2105
麙	-19.2105
麥	-19.2105
麧	-19.2105
黫	-19.2105
黰	-19.2105
黿	-19.2105
鼊	-19.2105
鼺	-19.2105
鼿	-19.2105
齉	-19.2105
齳	-19.2105
齼	-19.2105
龒	-19.2105
ꕘ	-19.2105
꜃	-19.2105
객	-19.2105
겼	-19.2105
굳	-19.2105
깨	-19.2105
끌	-19.2105
냐	-19.2105
냥	-19.2105
늪	-19.2105
득	-19.2105
딩	-19.2105
딱	-19.2105
땡	-19.2105
똥	-19.2105
랐	-19.2105
료	-19.2105
룹	-19.2105
륙	-19.2105
맞	-19.2105
뭣	-19.2105
밍	-19.2105
및	-19.2105
봄	-19.2105
붉	-19.2105
뻪	-19.2105
뽀	-19.2105
뽨	-19.2105
쁘	-19.2105
솔	-19.2105
쌀	-19.2105
압	-19.2105
옆	-19.2105
옛	-19.2105
옷	-19.2105
움	-19.2105
윙	-19.2105
융	-19.2105
읍	-19.2105
접	-19.2105
죤	-19.2105
쥬	-19.2105
짱	-19.2105
찢	-19.2105
콜	-19.2105
콩	-19.2105
쿨	-19.2105
탄	-19.2105
탑	-19.2105
턱	-19.2105
틸	-19.2105
팀	-19.2105
펑	-19.2105
페	-19.2105
폰	-19.2105
푸	-19.2105
푹	-19.2105
픽	-19.2105
확	-19.2105
힌	-19.2105
힐	-19.2105
	-19.2105
	-19.2105
	-19.2105
	-19.2105
	-19.2105
	-19.2105
	-19.2105
	-19.2105
	-19.2105
	-19.2105
	-19.2105
	-19.2105
	-19.2105
	-19.2105
	-19.2105
	-19.2105
	-19.2105
	-19.2105
	-19.2105
	-19.2105
	-19.2105
	-19.2105
	-19.2105
	-19.2105
﨤	-19.2105
拹	-19.2105
挧	-19.2105
酜	-19.2105
鰞	-19.2105
傗	-19.2105
樻	-19.2105
麊	-19.2105
竤	-19.7104
崊	-19.7105
溑	-19.7105
蓳	-19.7105
薩	-19.7105
㮾	-19.7105
兗	-19.7105
堛	-19.7105
幵	-19.7105
愜	-19.7105
樆	-19.7105
藄	-19.7105
鼡	-19.7105
¿	-19.7105
Ê	-19.7105
Ð	-19.7105
Ď	-19.7105
ď	-19.7105
Ĕ	-19.7105
Ģ	-19.7105
ģ	-19.7105
Ĥ	-19.7105
Ĭ	-19.7105
Ĵ	-19.7105
ĸ	-19.7105
Ļ	-19.7105
ľ	-19.7105
Ņ	-19.7105
Ŏ	-19.7105
ŕ	-19.7105
Ŗ	-19.7105
ŗ	-19.7105
Ř	-19.7105
ť	-19.7105
ŧ	-19.7105
Ũ	-19.7105
Ű	-19.7105
Ų	-19.7105
Ŷ	-19.7105
Ź	-19.7105
Ɔ	-19.7105
Ɛ	-19.7105
Ɣ	-19.7105
Ʃ	-19.7105
Ʒ	-19.7105
ǁ	-19.7105
ǂ	-19.7105
ǣ	-19.7105
Ǩ	-19.7105
ǩ	-19.7105
ǫ	-19.7105
ȉ	-19.7105
Ȋ	-19.7105
Ș	-19.7105
ȵ	-19.7105
ɗ	-19.7105
ɚ	-19.7105
ɝ	-19.7105
ɦ	-19.7105
ɫ	-19.7105
ɴ	-19.7105
ɸ	-19.7105
ʂ	-19.7105
ʡ	-19.7105
ʦ	-19.7105
ˎ	-19.7105
˦	-19.7105
̂	-19.7105
̣	-19.7105
̥	-19.7105
̯	-19.7105
̲	-19.7105
͘	-19.7105
Ή	-19.7105
Ό	-19.7105
Ώ	-19.7105
ΐ	-19.7105
Ϝ	-19.7105
Ѧ	-19.7105
ѯ	-19.7105
Ѳ	-19.7105
ѳ	-19.7105
ѵ	-19.7105
Җ	-19.7105
җ	-19.7105
Ұ	-19.7105
Ҹ	-19.7105
ҹ	-19.7105
ӯ	-19.7105
Ե	-19.7105
Թ	-19.7105
Ծ	-19.7105
Շ	-19.7105
Ս	-19.7105
Տ	-19.7105
Ք	-19.7105
զ	-19.7105
է	-19.7105
ձ	-19.7105
֗	-19.7105
ֻ	-19.7105
ך	-19.7105
ף	-19.7105
ً	-19.7105
ډ	-19.7105
ڊ	-19.7105
ڬ	-19.7105
ۆ	-19.7105
ے	-19.7105
۞	-19.7105
۬	-19.7105
ܒ	-19.7105
ܡ	-19.7105
ހ	-19.7105
ބ	-19.7105
އ	-19.7105
ު	-19.7105
ެ	-19.7105
ޭ	-19.7105
ँ	-19.7105
छ	-19.7105
ठ	-19.7105
আ	-19.7105
ই	-19.7105
ঙ	-19.7105
ণ	-19.7105
ষ	-19.7105
ਕ	-19.7105
ਜ	-19.7105
ੀ	-19.7105
ੁ	-19.7105
અ	-19.7105
મ	-19.7105
ા	-19.7105
ી	-19.7105
્	-19.7105
ଞ	-19.7105
ஜ	-19.7105
ஸ	-19.7105
అ	-19.7105
శ	-19.7105
ಡ	-19.7105
ಬ	-19.7105
ಯ	-19.7105
ರ	-19.7105
ಲ	-19.7105
ಳ	-19.7105
ಸ	-19.7105
ಹ	-19.7105
ന	-19.7105
യ	-19.7105
ත	-19.7105
ම	-19.7105
ර	-19.7105
ල	-19.7105
ි	-19.7105
ු	-19.7105
ฌ	-19.7105
ฯ	-19.7105
ຈ	-19.7105
ດ	-19.7105
ທ	-19.7105
ນ	-19.7105
ວ	-19.7105
ະ	-19.7105
າ	-19.7105
ྗ	-19.7105
ྡ	-19.7105
ྣ	-19.7105
စ	-19.7105
ဝ	-19.7105
ါ	-19.7105
ေ	-19.7105
်	-19.7105
ჩ	-19.7105
ᄅ	-19.7105
ᄇ	-19.7105
ᅢ	-19.7105
ᅦ	-19.7105
ᅯ	-19.7105
በ	-19.7105
Ꮄ	-19.7105
ᙕ	-19.7105
អ	-19.7105
ុ	-19.7105
ូ	-19.7105
ែ	-19.7105
់	-19.7105
ᠡ	-19.7105
ᠪ	-19.7105
ᠲ	-19.7105
ᠴ	-19.7105
ᠷ	-19.7105
ᡠ	-19.7105
ᦎ	-19.7105
ᦑ	-19.7105
ᨠ	-19.7105
ᨡ	-19.7105
ᨢ	-19.7105
ᨣ	-19.7105
ᨤ	-19.7105
ᨦ	-19.7105
ᨧ	-19.7105
ᨨ	-19.7105
ᨩ	-19.7105
ᨪ	-19.7105
ᨫ	-19.7105
ᨬ	-19.7105
ᨭ	-19.7105
ᨮ	-19.7105
ᨯ	-19.7105
ᨰ	-19.7105
ᨱ	-19.7105
ᨲ	-19.7105
ᨳ	-19.7105
ᩡ	-19.7105
ḗ	-19.7105
ṓ	-19.7105
ṡ	-19.7105
Ṵ	-19.7105
Ἥ	-19.7105
ὄ	-19.7105
Ὄ	-19.7105
Ὕ	-19.7105
Ὠ	-19.7105
ᾍ	-19.7105
⊔	-19.7105
⋅	-19.7105
┑	-19.7105
┟	-19.7105
┢	-19.7105
┧	-19.7105
┮	-19.7105
┲	-19.7105
┺	-19.7105
╉	-19.7105
╔	-19.7105
╗	-19.7105
╚	-19.7105
╛	-19.7105
╝	-19.7105
╞	-19.7105
╩	-19.7105
▌	-19.7105
♐	-19.7105
✟	-19.7105
❀	-19.7105
❶	-19.7105
❷	-19.7105
⟨	-19.7105
⟩	-19.7105
⣴	-19.7105
⦅	-19.7105
⦆	-19.7105
⧑	-19.7105
⫷	-19.7105
ⲃ	-19.7105
ⲙ	-19.7105
ⲡ	-19.7105
ⲩ	-19.7105
ⵈ	-19.7105
ⶇ	-19.7105
⺄	-19.7105
⺈	-19.7105
⺶	-19.7105
〮	-19.7105
〾	-19.7105
ヽ	-19.7105
㐳	-19.7105
㐹	-19.7105
㑊	-19.7105
㒳	-19.7105
㔽	-19.7105
㙟	-19.7105
㙺	-19.7105
㚇	-19.7105
㞡	-19.7105
㠋	-19.7105
㡀	-19.7105
㢝	-19.7105
㧂	-19.7105
㧃	-19.7105
㧏	-19.7105
㨆	-19.7105
㮫	-19.7105
㱮	-19.7105
㲚	-19.7105
㲻	-19.7105
㵐	-19.7105
㵧	-19.7105
㶳	-19.7105
㷠	-19.7105
㹫	-19.7105
㹺	-19.7105
㻋	-19.7105
㼁	-19.7105
[...]
