[UNK]	0
[PAD]	0
[CLS]	0
[SEP]	0
[MASK]	0
an	-0
ng	-1
2쎯	-2
0쎯	-3
6쎯	-4
5쎯	-5
❁1	-6
4쎯	-7
i❄	-8
3쎯	-9
1쎯	-10
7쎯	-11
9쎯	-12
sh	-13
ji	-14
❂1	-15
zh	-16
8쎯	-17
ang	-18
ong	-19
❃1	-20
❄1	-21
ao	-22
xi	-23
❄2	-24
ch	-25
eng	-26
i❄1	-27
en	-28
e❅	-29
ou	-30
❂2	-31
yu	-32
de❅	-33
uo	-34
❂6쎯	-35
ian	-36
i❁1	-37
❂3	-38
ing	-39
de❅2쎯	-40
❁2	-41
❁4쎯	-42
u❄	-43
i❃	-44
uan	-45
shi❄	-46
hu	-47
❄3쎯	-48
i❃1	-49
❃2쎯	-50
❁1쎯	-51
we	-52
en❂	-53
ai❄	-54
qi	-55
❂11쎯	-56
u❃	-57
❃11쎯	-58
❁9쎯	-59
❁16쎯	-60
❁10쎯	-61
❁3쎯	-62
you	-63
❁5쎯	-64
ang❃	-65
gong	-66
e❄2	-67
45쎯	-68
in	-69
un	-70
an❄2	-71
u❂	-72
an❄	-73
yi❁1	-74
ren❂	-75
wei❄1	-76
❂17쎯	-77
❁3	-78
zhong	-79
ue	-80
❄5쎯	-81
nian	-82
cheng	-83
❁17쎯	-84
u❄3	-85
guo	-86
❂29쎯	-87
nian❂6쎯	-88
li	-89
❁13쎯	-90
yuan	-91
zhong❁4쎯	-92
da	-93
xue	-94
i❄2	-95
yi❁10쎯	-96
❂5	-97
shu	-98
e❃	-99
❂16쎯	-100
❁11쎯	-101
xue❂6쎯	-102
❂35쎯	-103
❃14쎯	-104
e❄29쎯	-105
sheng	-106
qiu	-107
❄0쎯	-108
shi	-109
❃5쎯	-110
jiao	-111
❁7쎯	-112
❂20쎯	-113
❄12쎯	-114
ren❂1쎯	-115
❄2쎯	-116
❃9쎯	-117
jing	-118
❄13쎯	-119
chu	-120
i❄5	-121
❁4	-122
shi❄45쎯	-123
❁8쎯	-124
❁6쎯	-125
jian	-126
❁20쎯	-127
you❃11쎯	-128
wei❄14쎯	-129
jia	-130
guo❂11쎯	-131
i❂	-132
hua	-133
da❄0쎯	-134
xing	-135
ang❁4쎯	-136
zai❄	-137
ing❂	-138
❁15쎯	-139
u❄2	-140
❄18쎯	-141
❃0쎯	-142
❄4쎯	-143
e❂	-144
xiang	-145
❁2쎯	-146
shi❄3	-147
zuo	-148
yu❂35쎯	-149
fa	-150
jin	-151
61쎯	-152
zhi❄	-153
❂15쎯	-154
❂19쎯	-155
zai❄5쎯	-156
xin	-157
an❄20쎯	-158
❄7쎯	-159
sheng❁16쎯	-160
❄3	-161
yan	-162
han❄20쎯	-163
tong	-164
gu	-165
qiu❁9쎯	-166
❄1쎯	-167
❂13쎯	-168
gan	-169
be	-170
❂12쎯	-171
guan	-172
dong	-173
zhi	-174
iao	-175
ke	-176
❂10쎯	-177
dao	-178
zheng	-179
ben	-180
19	-181
❄11쎯	-182
❄14쎯	-183
yong	-184
❂14쎯	-185
i❄16쎯	-186
❄17쎯	-187
❂4	-188
shou	-189
dian	-190
❂5쎯	-191
ang❃6쎯	-192
er	-193
yi❃1	-194
an❄3	-195
❂37쎯	-196
i❃2	-197
chong	-198
zuo❄5쎯	-199
gong❁10쎯	-200
i❁13쎯	-201
❄16쎯	-202
❃12쎯	-203
xiao	-204
du	-205
i❄4	-206
00	-207
qu	-208
de❅0쎯	-209
gong❁17쎯	-210
qing	-211
ju	-212
❄15쎯	-213
jiang	-214
i❄27쎯	-215
ming❂	-216
43쎯	-217
❃1쎯	-218
li❃1	-219
❃3쎯	-220
ai❃	-221
wu	-222
cheng❂29쎯	-223
yong❄3쎯	-224
huo	-225
zhu	-226
yi❃10쎯	-227
yin	-228
deng	-229
hui❄27쎯	-230
u❃4쎯	-231
❄8쎯	-232
bao	-233
fen	-234
ge	-235
i❄59쎯	-236
shi❄32쎯	-237
nan	-238
zhan	-239
jia❁13쎯	-240
❄9쎯	-241
❄6쎯	-242
zhu❃4쎯	-243
deng❃2쎯	-244
jing❁2	-245
❂4쎯	-246
ji❁4	-247
ang❃1쎯	-248
shang❃1쎯	-249
li❃15쎯	-250
ying	-251
fa❁1쎯	-252
❃4쎯	-253
❂2쎯	-254
u❂0쎯	-255
zhe	-256
gao	-257
quan	-258
ai❂	-259
pin	-260
❃6쎯	-261
u❄36쎯	-262
ji❄1	-263
yao	-264
❄26쎯	-265
hou	-266
yue❄29쎯	-267
chu❁3쎯	-268
❄10쎯	-269
bu❂0쎯	-270
gan❄3쎯	-271
en❂5쎯	-272
wen❂5쎯	-273
e❅0쎯	-274
le❅0쎯	-275
u❄38쎯	-276
shi❄1	-277
bu❄38쎯	-278
chan	-279
❂9쎯	-280
la	-281
hang	-282
zhang❃6쎯	-283
shan	-284
❂22쎯	-285
qu❁15쎯	-286
na	-287
❂25쎯	-288
me	-289
i❃2쎯	-290
bing	-291
❄23쎯	-292
duo	-293
jie	-294
yi❄1	-295
chan❃12쎯	-296
70쎯	-297
mo	-298
❄24쎯	-299
gao❁20쎯	-300
i❁16쎯	-301
mian	-302
❁25쎯	-303
jiao❁20쎯	-304
fen❁4쎯	-305
ta	-306
cun	-307
zhi❁13쎯	-308
❁18쎯	-309
bian	-310
❃2	-311
fang❁4쎯	-312
ming❂7쎯	-313
shi❂20쎯	-314
le	-315
ke❁16쎯	-316
xian	-317
i❃19쎯	-318
yu❃14쎯	-319
zhen	-320
an❄22쎯	-321
xi❁1	-322
hang❂16쎯	-323
i❄3	-324
xia	-325
ping	-326
fu❂	-327
pin❃0쎯	-328
❁5	-329
zhou	-330
nan❂6쎯	-331
i❃0쎯	-332
i❁12쎯	-333
e❃4쎯	-334
❂50쎯	-335
qian	-336
jing❁27쎯	-337
zhuan	-338
hou❄7쎯	-339
liang	-340
❁14쎯	-341
wang	-342
hua❁1쎯	-343
ren❂4쎯	-344
zu	-345
jin❄	-346
mian❄2쎯	-347
quan❂6쎯	-348
i❁11쎯	-349
xian❄3	-350
an❄29쎯	-351
41쎯	-352
duo❁5쎯	-353
❁0쎯	-354
he	-355
yuan❂15쎯	-356
jian❄29쎯	-357
xie	-358
shan❁11쎯	-359
feng	-360
❂36쎯	-361
47쎯	-362
ti	-363
jun	-364
ian❁5쎯	-365
xi❁143쎯	-366
ben❄4쎯	-367
hao	-368
si❄1	-369
ji❄11	-370
❁33쎯	-371
wei❄15쎯	-372
ben❃5쎯	-373
suo	-374
i❃7쎯	-375
i❄46쎯	-376
dian❄23쎯	-377
shi❃	-378
shui❃0쎯	-379
xiao❃2쎯	-380
dai❄	-381
wu❄36쎯	-382
sheng❃9쎯	-383
ji❁48쎯	-384
ban	-385
❁22쎯	-386
lv	-387
xian❄37쎯	-388
fang	-389
zhao	-390
zi❃7쎯	-391
qi❂29쎯	-392
wan	-393
na❄11쎯	-394
❂8쎯	-395
dong❄13쎯	-396
shu❁8쎯	-397
85쎯	-398
200	-399
min	-400
si❁16쎯	-401
u❂7쎯	-402
xin❁10쎯	-403
she❄29쎯	-404
fa❃2쎯	-405
bei❃2쎯	-406
shen	-407
❁12쎯	-408
dong❁3쎯	-409
❁44쎯	-410
44쎯	-411
biao	-412
❂34쎯	-413
shu❂7쎯	-414
yang	-415
ding	-416
jiu	-417
tu	-418
ke❃4쎯	-419
zi❄16쎯	-420
san	-421
e❃0쎯	-422
ge❃0쎯	-423
❂32쎯	-424
ji❂37쎯	-425
chong❂11쎯	-426
ji❂	-427
u❄23쎯	-428
xing❄13쎯	-429
eng❂2쎯	-430
neng❂2쎯	-431
zong	-432
lian	-433
chuan	-434
yao❁17쎯	-435
u❄8쎯	-436
❄19쎯	-437
u❄2쎯	-438
xian❄	-439
i❃13쎯	-440
i❄2쎯	-441
ri❄2쎯	-442
❂3쎯	-443
i❄14쎯	-444
ru❄2쎯	-445
yan❂50쎯	-446
de❂	-447
jia❁7쎯	-448
30쎯	-449
yuan❄18쎯	-450
xian❄22쎯	-451
zhong❁4쎯guo❂11쎯	-452
ping❂17쎯	-453
wu❄12쎯	-454
min❂22쎯	-455
cun❁1쎯	-456
u❂9쎯	-457
xi❄46쎯	-458
28쎯	-459
shi❄18쎯	-460
❄30쎯	-461
u❄70쎯	-462
lin	-463
gong❁10쎯si❁16쎯	-464
83쎯	-465
jie❂	-466
chang	-467
cha	-468
❂52쎯	-469
60쎯	-470
yu❄	-471
zhuan❁1쎯	-472
❂23쎯	-473
zhi❄30쎯	-474
jian❁25쎯	-475
bo	-476
lai	-477
dan	-478
❂7쎯	-479
jin❄61쎯	-480
xia❄3쎯	-481
chi	-482
xin❁7쎯	-483
tong❁5쎯	-484
li❄59쎯	-485
suo❃11쎯	-486
ai❃1쎯	-487
hai❃1쎯	-488
wei❁12쎯	-489
ba	-490
san❁1쎯	-491
i❄45쎯	-492
dai❄9쎯	-493
ji❄59쎯	-494
li❄1	-495
zheng❄12쎯	-496
ku	-497
ya	-498
yun	-499
guan❃9쎯	-500
❃7쎯	-501
❂24쎯	-502
li❄5	-503
62쎯	-504
ji❄	-505
dui❄14쎯	-506
lai❂16쎯	-507
14쎯	-508
e❄22쎯	-509
li❃2	-510
mi❃19쎯	-511
shi❁11쎯	-512
su	-513
wen	-514
ma	-515
di❄45쎯	-516
ai❄0쎯	-517
li❃26쎯	-518
❄5	-519
67쎯	-520
ji❁3	-521
wu❃	-522
zhuang	-523
ai❂2쎯	-524
mei❃13쎯	-525
fe	-526
04쎯	-527
er❂16쎯	-528
❃13쎯	-529
dao❄3쎯	-530
liao	-531
u❄28쎯	-532
chuang	-533
u❃1쎯	-534
❁23쎯	-535
zu❃	-536
fu	-537
an❁13쎯	-538
❁24쎯	-539
tong❂13쎯	-540
se❄29쎯	-541
❂30쎯	-542
liang❂19쎯	-543
❃16쎯	-544
shi❂13쎯	-545
zui❄	-546
zui❄4쎯	-547
wai❄0쎯	-548
du❄8쎯	-549
jian❁	-550
69쎯	-551
te	-552
dou	-553
liu	-554
te❄5쎯	-555
❁28쎯	-556
chong❂17쎯	-557
kou	-558
zhi❄8	-559
cheng❂52쎯	-560
huan	-561
guo❄2쎯	-562
ding❄2쎯	-563
shu❄26쎯	-564
ji❂83쎯	-565
zhe❃2쎯	-566
❃3	-567
ling	-568
i❃3	-569
ji❂1	-570
gou	-571
li❄141쎯	-572
jiao❄18쎯	-573
64쎯	-574
tou	-575
jian❁85쎯	-576
❂44쎯	-577
kou❃1쎯	-578
ji❄116쎯	-579
tian❁5쎯	-580
ye❃	-581
10	-582
mu❄2	-583
si	-584
zao	-585
jiu❁16쎯	-586
cong	-587
zhou❁9쎯	-588
zhan❃11쎯	-589
jiang❁10쎯	-590
an❁3쎯	-591
zi	-592
❂39쎯	-593
❄27쎯	-594
duan	-595
er❄5쎯	-596
lu❄70쎯	-597
an❁15쎯	-598
zu❃7쎯	-599
xing❂11쎯	-600
20	-601
xing❂9쎯	-602
yan❂50쎯jiu❁16쎯	-603
jin❁33쎯	-604
cheng❁28쎯	-605
ji❁	-606
shi❂10쎯	-607
i❄33쎯	-608
i❄26쎯	-609
ang❃2쎯	-610
ang❃4쎯	-611
xi❁	-612
shu❃	-613
❃17쎯	-614
dao❄24쎯	-615
cheng❂17쎯	-616
ta❁3쎯	-617
gong❁17쎯zuo❄5쎯	-618
you❂29쎯	-619
zhi❄1	-620
yue	-621
zhe❄14쎯	-622
❁21쎯	-623
da❄0쎯xue❂6쎯	-624
❃8쎯	-625
ban❄	-626
❁45쎯	-627
zhi❄104쎯	-628
ji❁34쎯	-629
qian❂8쎯	-630
fan	-631
luo	-632
shi❄33쎯	-633
❂38쎯	-634
ang❃5쎯	-635
shao	-636
kong	-637
han	-638
zi❁45쎯	-639
yi❁13쎯	-640
i❄48쎯	-641
mu❄22쎯	-642
cong❂6쎯	-643
chu❄17쎯	-644
❄20쎯	-645
fu❄	-646
lun	-647
xuan	-648
rong	-649
❂18쎯	-650
she❄22쎯	-651
ye❃1쎯	-652
ang❁2쎯	-653
biao❃5쎯	-654
❁29쎯	-655
shu❃5쎯	-656
ming❂8쎯	-657
lei❄16쎯	-658
bing❁6쎯	-659
tang	-660
gong❄3쎯	-661
ji❂114쎯	-662
wang❃14쎯	-663
93쎯	-664
yu❃	-665
jian❄	-666
bei❄48쎯	-667
mu	-668
ceng	-669
chuan❂4쎯	-670
zhi❁3	-671
chang❃4쎯	-672
guan❁4쎯	-673
de❂7쎯	-674
xiang❁9쎯	-675
zong❃5쎯	-676
chao	-677
fu❄28쎯	-678
yuan❂12쎯	-679
shi❄7	-680
❂21쎯	-681
65쎯	-682
huang	-683
si❄17쎯	-684
i❃25쎯	-685
❁26쎯	-686
u❃3쎯	-687
nong	-688
chang❂15쎯	-689
fu❂43쎯	-690
wo	-691
tong❃9쎯	-692
pe	-693
huo❄27쎯	-694
yu❄93쎯	-695
li❄58쎯	-696
72쎯	-697
199	-698
ran	-699
42쎯	-700
❂27쎯	-701
dang❃2쎯	-702
shi❄15쎯	-703
shang❁4쎯	-704
can❁3쎯	-705
❃10쎯	-706
bao❃9쎯	-707
tai❄	-708
ji❁47쎯	-709
dian❃11쎯	-710
ga	-711
94쎯	-712
wu❂17쎯	-713
63쎯	-714
xun	-715
li❄	-716
ge❄3쎯	-717
yuan❂10쎯	-718
hong	-719
ju❄16쎯	-720
qi❄2	-721
shi❄28쎯	-722
zhen❄30쎯	-723
huo❄5	-724
zhi❄88쎯	-725
ke❄6쎯	-726
guan❃9쎯li❃15쎯	-727
ji❁64쎯	-728
❃5	-729
feng❁5	-730
wei	-731
❁30쎯	-732
u❄31쎯	-733
hua❁11쎯	-734
liu❂20쎯	-735
yi	-736
jiang❁5쎯	-737
❂28쎯	-738
jun❁2쎯	-739
dan❄3	-740
he❂37쎯	-741
chuang❄1쎯	-742
shuo	-743
xin❄8쎯	-744
❂53쎯	-745
ti❂17쎯	-746
gu❃	-747
ji❄59쎯shu❂7쎯	-748
jiao❁8쎯	-749
men	-750
nong❂5쎯	-751
bi❃2	-752
mo❄16쎯	-753
yi❁10쎯gan❄3쎯	-754
diao	-755
zhi❃19쎯	-756
i❃12쎯	-757
,shi❄45쎯	-758
❁40쎯	-759
qi❄20쎯	-760
12	-761
qing❁10쎯	-762
zhi❄61쎯	-763
lan	-764
hua❂14쎯	-765
cai❂	-766
feng❁58쎯	-767
ying❁17쎯	-768
xu	-769
men❂19쎯	-770
u❄30쎯	-771
long	-772
u❄5	-773
❃24쎯	-774
liang❃5쎯	-775
ju❂23쎯	-776
xian❁18쎯	-777
qi❃12쎯	-778
ban❄4쎯	-779
jian❄15쎯	-780
le❄3쎯	-781
ci	-782
gui	-783
shi❃6쎯	-784
i❃34쎯	-785
qi❃34쎯	-786
yu❃44쎯	-787
you❂25쎯	-788
yun❃16쎯	-789
dao❃5쎯	-790
ni	-791
26쎯	-792
qiu❂19쎯	-793
li❄62쎯	-794
xian❄47쎯	-795
si❄15쎯	-796
i❁15쎯	-797
dou❁12쎯	-798
guang❁2쎯	-799
huo❂3쎯	-800
liao❄8쎯	-801
hao❂6쎯	-802
jie❁13쎯	-803
lao	-804
jie❂67쎯	-805
198	-806
dan❄38쎯	-807
qi❃12쎯qiu❁9쎯	-808
lin❂19쎯	-809
qi❃25쎯	-810
e❁8쎯	-811
jiu❄23쎯	-812
bai❂2쎯	-813
mao	-814
zhuan❁1쎯qiu❁9쎯	-815
hao❃0쎯	-816
zhu❃4쎯yao❁17쎯	-817
lun❄1쎯	-818
90쎯	-819
75쎯	-820
han❄3	-821
hua❄18쎯	-822
ru❂9쎯	-823
shou❃4쎯	-824
wo❃3쎯	-825
xian❄61쎯	-826
ci❄16쎯	-827
song	-828
46쎯	-829
zhi❂32쎯	-830
jing❁3쎯	-831
❂쎯	-832
wei❄15쎯yu❂35쎯	-833
tao	-834
xiang❁1쎯	-835
bi❄	-836
dan❁9쎯	-837
yi❄190쎯	-838
pian❁5쎯	-839
ying❂	-840
you❁5쎯	-841
ren❂1쎯,	-842
nv	-843
yi❄10	-844
❁35쎯	-845
geng	-846
huo❄50쎯	-847
xiu	-848
ji❄117쎯	-849
che❁8쎯	-850
zheng❁22쎯	-851
jing❁24쎯	-852
sha	-853
yuan❂34쎯	-854
dang❁4쎯	-855
i❄15쎯	-856
❁19쎯	-857
nv❃0쎯	-858
ge❂29쎯	-859
zhan❄10쎯	-860
wu❃9쎯	-861
xue❂6쎯yuan❄18쎯	-862
chan❃12쎯pin❃0쎯	-863
❂41쎯	-864
jie❄29쎯	-865
yin❁11쎯	-866
ji❄72쎯	-867
biao❁14쎯	-868
bing❄12쎯	-869
hu❄26쎯	-870
❂31쎯	-871
jie❃	-872
si❁24쎯	-873
ying❂45쎯	-874
zao❄16쎯	-875
ji❄12	-876
ran❂12쎯	-877
cao	-878
fu❂43쎯wu❄12쎯	-879
❂56쎯	-880
gu❃14쎯	-881
ai	-882
zhuang❁10쎯	-883
gui❁35쎯	-884
ai❃2쎯	-885
fu❃14쎯	-886
guo❃3쎯	-887
shou❁1쎯	-888
zu❂9쎯	-889
ce	-890
11	-891
xiang❄24쎯	-892
kuo	-893
jue	-894
fa❁1쎯zhan❃11쎯	-895
yang❂35쎯	-896
ci❃2쎯	-897
tou❂4쎯	-898
bei❄26쎯	-899
gong❁11쎯	-900
er❃6쎯	-901
yin❁44쎯	-902
ze	-903
han❄33쎯	-904
en❂2쎯	-905
:“	-906
()	-907
fang❄0쎯	-908
chi❂20쎯	-909
qiu❂36쎯	-910
wan❂5쎯	-911
guo❂11쎯jia❁13쎯	-912
de❂9쎯	-913
qin	-914
❄35쎯	-915
shi❄31쎯	-916
da❂30쎯	-917
huang❂56쎯	-918
yi❄109쎯	-919
tu❂14쎯	-920
jie❃6쎯	-921
ying❃11쎯	-922
48쎯	-923
gong❁10쎯li❃26쎯	-924
zi❄	-925
jiao❁20쎯yu❄93쎯	-926
❄31쎯	-927
qing❂6쎯	-928
shen❁40쎯	-929
mian❄2쎯ji❁64쎯	-930
dui❄33쎯	-931
man	-932
bian❁13쎯	-933
u❄6쎯	-934
yu❄1	-935
shuo❁2쎯	-936
ying❁44쎯	-937
❁37쎯	-938
❃15쎯	-939
huan❂20쎯	-940
zi❄6쎯	-941
e❄26쎯	-942
wang❂5쎯	-943
e❄	-944
shi❄71쎯	-945
..	-946
❄25쎯	-947
diao❄17쎯	-948
i❁1쎯	-949
gou❃2쎯	-950
kao	-951
lian❂53쎯	-952
you❃11쎯xian❄61쎯	-953
xie❂14쎯	-954
zhang	-955
qing❁20쎯	-956
xiang❄6쎯	-957
zhi❁21쎯	-958
shi❃8쎯	-959
hu❂32쎯	-960
ban❃6쎯	-961
qiao	-962
suan	-963
gong❁9쎯	-964
tiao	-965
❄22쎯	-966
di	-967
❂63쎯	-968
bi❃20쎯	-969
❂46쎯	-970
rong❂21쎯	-971
ming	-972
yan❄	-973
ji❄121쎯	-974
she	-975
ma❃14쎯	-976
yi❄2	-977
bao❁4쎯	-978
bu❄23쎯	-979
.”	-980
long❂63쎯	-981
❃19쎯	-982
kang	-983
e❂4쎯	-984
shen❂2쎯	-985
zhi❂25쎯	-986
❄28쎯	-987
ju❁18쎯	-988
zhao❁6쎯	-989
you❂24쎯	-990
bian❄19쎯	-991
meng	-992
zhan❄17쎯	-993
e❄20쎯	-994
dai❄15쎯	-995
xiao❄14쎯	-996
kua	-997
jing❁27쎯ji❄72쎯	-998
hong❂44쎯	-999
gai❁13쎯	-1000
zhong❁4쎯xin❁7쎯	-1001
bai❃	-1002
shen❁18쎯	-1003
yan❃3	-1004
❂1쎯	-1005
chun	-1006
yan❃39쎯	-1007
you❄13쎯	-1008
pi	-1009
bi	-1010
yi❃15쎯	-1011
en❁0쎯	-1012
i❂1쎯	-1013
ceng❂6쎯	-1014
ya❄7쎯	-1015
nan❂14쎯	-1016
re	-1017
re❄1쎯	-1018
bie❂4쎯	-1019
shou❃6쎯	-1020
8nian❂6쎯	-1021
jiang❄9쎯	-1022
73쎯	-1023
❂54쎯	-1024
cha❁3쎯	-1025
shi❂39쎯	-1026
zhun	-1027
❂26쎯	-1028
ang❃8쎯	-1029
xiang❁26쎯	-1030
zhun❃0쎯	-1031
jiao❃5	-1032
zhi❁31쎯	-1033
,zai❄5쎯	-1034
she❄29쎯ji❄116쎯	-1035
--	-1036
xue❂6쎯jiao❄18쎯	-1037
gai❃2쎯	-1038
i❄19쎯	-1039
gan❁16쎯	-1040
su❄5	-1041
i❃11쎯	-1042
i❄50쎯	-1043
xi❄46쎯tong❃9쎯	-1044
wen❂5쎯hua❁1쎯	-1045
50	-1046
zhao❂쎯	-1047
yue❁1쎯	-1048
cai❂3쎯	-1049
jiang❃8쎯	-1050
shao❃2쎯	-1051
ling❃2쎯	-1052
❂61쎯	-1053
xuan❃8쎯	-1054
fan❄22쎯	-1055
❁52쎯	-1056
ren❂1쎯.	-1057
zheng❄12쎯fu❃14쎯	-1058
ta❁6쎯	-1059
❂69쎯	-1060
6nian❂6쎯	-1061
de❅2쎯yi❁10쎯	-1062
),	-1063
5nian❂6쎯	-1064
gua	-1065
peng	-1066
shou❄4쎯	-1067
mei	-1068
3nian❂6쎯	-1069
jing❄11쎯	-1070
jie❂69쎯	-1071
i❃9쎯	-1072
tu❃1쎯	-1073
9nian❂6쎯	-1074
lian❂69쎯	-1075
❄33쎯	-1076
ke❄14쎯	-1077
kong❁9쎯	-1078
4nian❂6쎯	-1079
shi❄45쎯yi❁10쎯	-1080
18	-1081
jin❄60쎯	-1082
yan❄75쎯	-1083
ji❂35쎯	-1084
jiu❃12쎯	-1085
po	-1086
lie❄20쎯	-1087
❃23쎯	-1088
zhuang❄5쎯	-1089
ai❄26쎯	-1090
jing❃13쎯	-1091
❂58쎯	-1092
mo❂12쎯	-1093
guan❁16쎯	-1094
cun❂1쎯	-1095
ju❄	-1096
kuo❄15쎯	-1097
geng❁6쎯	-1098
ren❂1쎯min❂22쎯	-1099
bo❂41쎯	-1100
ka	-1101
tan	-1102
wei❁12쎯yuan❂15쎯	-1103
ning	-1104
tiao❂9쎯	-1105
7nian❂6쎯	-1106
27쎯	-1107
shou❄9쎯	-1108
gang	-1109
ti❂36쎯	-1110
zhu❃4쎯ren❂4쎯	-1111
yao❄12쎯	-1112
fu❂94쎯	-1113
❂33쎯	-1114
bi❄73쎯	-1115
ping❂17쎯fang❁4쎯	-1116
wu❃28쎯	-1117
shi❃9쎯	-1118
lou	-1119
ai❄5쎯	-1120
zhi❄85쎯	-1121
wen❁6쎯	-1122
ming❄1쎯	-1123
cang	-1124
pei❄19쎯	-1125
jun❁6쎯	-1126
miao	-1127
kuan	-1128
lv❄15쎯	-1129
zhu❄31쎯	-1130
su❁10쎯	-1131
jin❁10쎯	-1132
kuang	-1133
juan	-1134
zhang❁4쎯	-1135
yun❂4쎯	-1136
bai❃9쎯	-1137
ling❂	-1138
gan❃6쎯	-1139
xi❁70쎯	-1140
fang❂2쎯	-1141
lao❃17쎯	-1142
ke❃4쎯yi❃10쎯	-1143
jiao❄35쎯	-1144
chi❁23쎯	-1145
bao❄10쎯	-1146
tian	-1147
u❄3쎯	-1148
yu❂37쎯	-1149
30	-1150
zhi❁39쎯	-1151
ka❃1쎯	-1152
bei❃2쎯jing❁3쎯	-1153
、《	-1154
guo❂11쎯ji❄121쎯	-1155
bi❄73쎯qiu❁9쎯	-1156
la❁7쎯	-1157
mi❃19쎯,	-1158
bi❄1	-1159
,19	-1160
yi❄11	-1161
yang❃6쎯	-1162
❁61쎯	-1163
2nian❂6쎯	-1164
shi❁13쎯	-1165
hua❂11쎯	-1166
zu❂11쎯	-1167
xiu❁11쎯	-1168
xie❂16쎯	-1169
zhi❄47쎯	-1170
ceng❂3쎯	-1171
qu❃1쎯	-1172
ting	-1173
shi❁33쎯	-1174
chen	-1175
74쎯	-1176
wan❂6쎯	-1177
jian❄62쎯	-1178
yi❂	-1179
su❄56쎯	-1180
15	-1181
zhu❂18쎯	-1182
su❄70쎯	-1183
pan	-1184
zhu❄2	-1185
ren	-1186
she❄22쎯hui❄27쎯	-1187
zhou❁5쎯	-1188
huo❃2쎯	-1189
mu❄15쎯	-1190
qu❄6쎯	-1191
,yi❃10쎯	-1192
ai❄4쎯	-1193
,bing❁6쎯	-1194
gu❄12쎯	-1195
gen❁0쎯	-1196
xi❄50쎯	-1197
xiao❁61쎯	-1198
❄21쎯	-1199
ke❁16쎯ji❄59쎯	-1200
i❂7쎯	-1201
1.	-1202
ju❁14쎯	-1203
❁39쎯	-1204
can❁3쎯jia❁7쎯	-1205
❃18쎯	-1206
qiu❂27쎯	-1207
wei❂38쎯	-1208
bian❄16쎯	-1209
fang❂4쎯	-1210
❁32쎯	-1211
tai❄3쎯	-1212
zhi❂20쎯	-1213
i❁3쎯	-1214
xing❁7쎯	-1215
dian❄13쎯	-1216
fu❄31쎯	-1217
zheng❃4쎯	-1218
ji❄94쎯	-1219
di❄45쎯yi❁10쎯	-1220
fu❂60쎯	-1221
xiong	-1222
i❄24쎯	-1223
kao❃10쎯	-1224
quan❂6쎯guo❂11쎯	-1225
u❄35쎯	-1226
cu	-1227
mei❃9쎯	-1228
xi❄33쎯	-1229
qi❂29쎯zhong❁4쎯	-1230
bian❁16쎯	-1231
jiao❃57쎯	-1232
shi❄60쎯	-1233
er❂7쎯	-1234
qu❁25쎯	-1235
zheng❄17쎯	-1236
ca	-1237
xian❃24쎯	-1238
2.	-1239
ping❂36쎯	-1240
ke❁16쎯xue❂6쎯	-1241
ju❄65쎯	-1242
jin❄61쎯hang❂16쎯	-1243
hu❄30쎯	-1244
yi❄119쎯	-1245
ting❂	-1246
rou	-1247
ning❂10쎯	-1248
fu❄36쎯	-1249
》、《	-1250
tou❂5쎯	-1251
gu❃5	-1252
i❂3쎯	-1253
jian❄29쎯zhu❂18쎯	-1254
jian❁25쎯fa❁1쎯	-1255
cheng❂29쎯li❄141쎯	-1256
0nian❂6쎯	-1257
sheng❁16쎯,	-1258
❂57쎯	-1259
da❂14쎯	-1260
16	-1261
shi❄15쎯jie❄29쎯	-1262
zhi❁13쎯yi❁10쎯	-1263
chuan❁2쎯	-1264
xi❂9쎯	-1265
hen	-1266
xiu❄8쎯	-1267
dan❄10쎯	-1268
qie	-1269
100	-1270
si❁22쎯	-1271
yu❄31쎯	-1272
fei❁15쎯	-1273
liu❄3쎯	-1274
hui❂1쎯	-1275
ba❁9쎯	-1276
lin❂7쎯	-1277
wei❁1	-1278
luo❁4쎯	-1279
zhuan❃4쎯	-1280
ti❂17쎯gong❁9쎯	-1281
zhen❁30쎯	-1282
1nian❂6쎯	-1283
40쎯	-1284
pian	-1285
yin❃14쎯	-1286
fan❃3쎯	-1287
ju❄16쎯you❃11쎯	-1288
kan	-1289
ju❄18쎯	-1290
mu❃2쎯	-1291
cai❃11쎯	-1292
wei❄18쎯	-1293
jiao❁20쎯xue❂6쎯	-1294
i❄37쎯	-1295
99쎯	-1296
yue❄	-1297
qie❁1쎯	-1298
ji❂57쎯	-1299
chu❁4쎯	-1300
han❃11쎯	-1301
wei❄16쎯	-1302
ce❄22쎯	-1303
e❃5쎯	-1304
yan❂61쎯	-1305
hei❁3쎯	-1306
pei❂3쎯	-1307
lan❂13쎯	-1308
》:“	-1309
pai❂	-1310
cao❃5쎯	-1311
ge❁16쎯	-1312
tie❃5쎯	-1313
ze❂11쎯	-1314
xie❃4쎯	-1315
du❂25쎯	-1316
e❃8쎯	-1317
i❄18쎯	-1318
pai❂4쎯	-1319
xiang❃6쎯	-1320
.19	-1321
shu❃5쎯yu❂35쎯	-1322
i❃6쎯	-1323
shang❃1쎯hai❃1쎯	-1324
liao❂24쎯	-1325
luo❄24쎯	-1326
yi❄190쎯shu❂7쎯	-1327
jiu❃3쎯	-1328
ge❂54쎯	-1329
xie❃8쎯	-1330
jian❄29쎯she❄29쎯	-1331
zu❃7쎯zhi❁39쎯	-1332
kong❄1쎯	-1333
hen❃2쎯	-1334
jie❄14쎯	-1335
lu❄35쎯	-1336
wen❄6쎯	-1337
zuo❄7쎯	-1338
jian❃5	-1339
ya❁7쎯	-1340
chu❁3쎯ban❃6쎯	-1341
sai❄4쎯	-1342
hun	-1343
shuang❁4쎯	-1344
jian❃52쎯	-1345
guan❃15쎯	-1346
i❄11쎯	-1347
xu❄	-1348
de❅0쎯qu❁15쎯	-1349
xiang❄20쎯	-1350
tai❄6쎯	-1351
xing❄8쎯	-1352
cai❄5쎯	-1353
qing❄3쎯	-1354
pi❂17쎯	-1355
tui❁1쎯	-1356
cai❂2쎯	-1357
zhi❁16쎯	-1358
yu❂1	-1359
du❂34쎯	-1360
ruan	-1361
mi❄24쎯	-1362
xin❄8쎯xi❁70쎯	-1363
tong❁5쎯guo❄2쎯	-1364
bu❄28쎯	-1365
zhi❄89쎯	-1366
zeng	-1367
xiang❄4쎯	-1368
yang❂17쎯	-1369
yi❄	-1370
xiang❄24쎯mu❄22쎯	-1371
shi❄78쎯	-1372
ren❄30쎯	-1373
feng❁8쎯	-1374
xie❁3쎯	-1375
xie❂14쎯hui❄27쎯	-1376
79쎯	-1377
cheng❂30쎯	-1378
ruan❃17쎯	-1379
,wei❄14쎯	-1380
jing❄	-1381
wei❂11쎯	-1382
❂43쎯	-1383
cong❂6쎯shi❄18쎯	-1384
sheng❁16쎯huo❂3쎯	-1385
51쎯	-1386
la❄23쎯	-1387
shi❃6쎯yong❄3쎯	-1388
zuo❄5쎯pin❃0쎯	-1389
lv❃14쎯	-1390
zheng❁7쎯	-1391
tuo	-1392
guan❁6쎯	-1393
zhu❄20쎯	-1394
shi❂35쎯	-1395
,you❃11쎯	-1396
wang❃14쎯luo❄24쎯	-1397
cheng❂29쎯wei❄14쎯	-1398
qun	-1399
cang❂5쎯	-1400
shu❁44쎯	-1401
mei❃13쎯guo❂11쎯	-1402
hui❄	-1403
chao❂6쎯	-1404
yin❄7쎯	-1405
qi❁9쎯	-1406
lu❄	-1407
ji❃13쎯	-1408
zhong❁4쎯de❅2쎯	-1409
ban❃5쎯	-1410
sui❂	-1411
shi❂20쎯jian❁85쎯	-1412
dun	-1413
ni❃6쎯	-1414
13	-1415
jiao❁20쎯shou❄9쎯	-1416
fen❃1쎯	-1417
pu❃3쎯	-1418
e❂44쎯	-1419
huan❂20쎯jing❄11쎯	-1420
she❄29쎯bei❄26쎯	-1421
zhan❁4쎯	-1422
”.	-1423
dao❃7쎯	-1424
jie❁30쎯	-1425
duan❄7쎯	-1426
duan❄4쎯	-1427
gang❃6쎯	-1428
he❂35쎯	-1429
xu❁37쎯	-1430
dan❁9쎯wei❄15쎯	-1431
lou❂19쎯	-1432
chao❁17쎯	-1433
bao❃13쎯	-1434
❂49쎯	-1435
quan❂12쎯	-1436
ye❄	-1437
pin❂15쎯	-1438
14	-1439
ze❂44쎯	-1440
qian❁13쎯	-1441
dian❃5쎯	-1442
kang❁6쎯	-1443
bin	-1444
yu❂127쎯	-1445
li❃11쎯	-1446
yong❁17쎯	-1447
qun❂6쎯	-1448
rou❄1쎯	-1449
yin❂10쎯	-1450
).	-1451
ba❃1쎯	-1452
suan❄3쎯	-1453
zhi❃2	-1454
0.	-1455
nian❄4쎯	-1456
ci❂29쎯	-1457
ban❁12쎯	-1458
gong❁11쎯neng❂2쎯	-1459
i❄52쎯	-1460
jian❁52쎯	-1461
zhi❂7쎯	-1462
i❄21쎯	-1463
yi❄214쎯	-1464
tang❂13쎯	-1465
chun❁6쎯	-1466
yue❄46쎯	-1467
17	-1468
ang❃3쎯	-1469
lv❄20쎯	-1470
pian❁7쎯	-1471
pan❂10쎯	-1472
an❄16쎯	-1473
deng❃2쎯.	-1474
mao❄3	-1475
zeng❁2쎯	-1476
shu❁8쎯ji❄117쎯	-1477
jian❃3	-1478
duan❁4쎯	-1479
jian❄17쎯	-1480
gua❁11쎯	-1481
ji❁22쎯	-1482
zai❄4쎯	-1483
u❄47쎯	-1484
hou❄7쎯,	-1485
xiao❁29쎯	-1486
shu❄47쎯	-1487
sui❂9쎯	-1488
wei❁17쎯	-1489
qi❂1	-1490
❂40쎯	-1491
ban❄5쎯	-1492
zhang❁13쎯	-1493
a❁6쎯	-1494
jian❃36쎯	-1495
li❄62쎯shi❃8쎯	-1496
e❃쎯	-1497
qiao❂12쎯	-1498
shou❄5쎯	-1499
yan❂49쎯	-1500
gong❁17쎯qiu❁9쎯	-1501
yi❃10쎯ji❂37쎯	-1502
ba❁16쎯	-1503
kuai❄18쎯	-1504
25	-1505
zou	-1506
bo❁11쎯	-1507
di❁9쎯	-1508
pi❁11쎯	-1509
zong❁10쎯	-1510
yong❄3쎯yu❂35쎯	-1511
jie❄19쎯	-1512
zhong❁4쎯,	-1513
gong❁10쎯li❃26쎯,	-1514
shu❄28쎯	-1515
xun❄25쎯	-1516
you❂25쎯xi❄33쎯	-1517
yu❄70쎯	-1518
ji❂114쎯qiu❂19쎯	-1519
hua❄26쎯	-1520
ta❁5쎯	-1521
shi❄32쎯chang❃4쎯	-1522
68쎯	-1523
yong❁17쎯you❃11쎯	-1524
yuan❃4쎯	-1525
i❄34쎯	-1526
zhou❁11쎯	-1527
fei❄37쎯	-1528
juan❃1쎯	-1529
zi❄16쎯ji❃13쎯	-1530
tian❂16쎯	-1531
mao❂11쎯	-1532
zhu❄19쎯	-1533
lv❄9쎯	-1534
zong❁24쎯	-1535
yin❂44쎯	-1536
bo❁10쎯	-1537
que	-1538
bang	-1539
yuan❂15쎯,	-1540
98쎯	-1541
fu❄64쎯	-1542
xue❂6쎯sheng❁16쎯	-1543
sha❁10쎯	-1544
zuo❄12쎯	-1545
bao❁4쎯gua❁11쎯	-1546
yuan❂17쎯	-1547
biao❁14쎯zhun❃0쎯	-1548
80	-1549
ai❃4쎯	-1550
❃21쎯	-1551
fu❃	-1552
ang❃7쎯	-1553
liang❂15쎯	-1554
man❃4쎯	-1555
jiao❁8쎯tong❁5쎯	-1556
song❄4쎯	-1557
duo❃23쎯	-1558
22쎯	-1559
ru	-1560
guo❂11쎯na❄11쎯	-1561
ke❄29쎯	-1562
jiao❁20쎯shi❁11쎯	-1563
jia❁7쎯ru❄2쎯	-1564
yan❃	-1565
shan❄15쎯	-1566
zi❄16쎯ran❂12쎯	-1567
ren❂1쎯kou❃1쎯	-1568
chu❂	-1569
sun	-1570
sheng❁16쎯yu❂35쎯	-1571
xu❃19쎯	-1572
87쎯	-1573
han❂17쎯	-1574
sheng❁3쎯	-1575
kang❄5쎯	-1576
qiang	-1577
rang	-1578
tong❂13쎯shi❂20쎯	-1579
tan❄	-1580
she❂	-1581
bu❄38쎯fen❁4쎯	-1582
pai❂2쎯	-1583
ji❁21쎯	-1584
qing❄4쎯	-1585
jue❂33쎯	-1586
zhong❁29쎯	-1587
tao❄1쎯	-1588
bi❃24쎯	-1589
ce❄26쎯	-1590
❁54쎯	-1591
jie❄13쎯	-1592
lang	-1593
i❃1쎯	-1594
40	-1595
,bu❂0쎯	-1596
gei❃1쎯	-1597
zhi❁21쎯chi❂20쎯	-1598
rang❄3쎯	-1599
zhou❁9쎯shi❄32쎯	-1600
kuan❁0쎯	-1601
cheng❂17쎯shi❄32쎯	-1602
07쎯	-1603
zhong❁4쎯gong❄3쎯	-1604
ri❄2쎯ben❃5쎯	-1605
zong❁24쎯ge❃0쎯	-1606
.zai❄5쎯	-1607
i❁19쎯	-1608
gu❃42쎯	-1609
shan❁11쎯dong❁3쎯	-1610
dou❃4쎯	-1611
chu❂42쎯	-1612
zu❃7쎯cheng❂29쎯	-1613
3.	-1614
huo❂3쎯dong❄13쎯	-1615
chou	-1616
na❃3쎯	-1617
lei❄16쎯xing❂9쎯	-1618
chong❂17쎯yao❁17쎯	-1619
xian❄37쎯dai❄9쎯	-1620
cai❂9쎯	-1621
17쎯	-1622
xie❄5	-1623
ni❂10쎯	-1624
de❅1쎯	-1625
cha❂17쎯	-1626
li❄51쎯	-1627
yi❁13쎯yuan❄18쎯	-1628
197	-1629
you❁5쎯xiu❄8쎯	-1630
zhe❄9쎯	-1631
yi❄165쎯	-1632
zuo❄5쎯wei❄14쎯	-1633
yin❃3	-1634
fu❄3	-1635
7yue❄29쎯	-1636
u❃9쎯	-1637
du❂17쎯	-1638
kan❁9쎯	-1639
qie❃쎯	-1640
nan❂6쎯sheng❃9쎯	-1641
zai❄8쎯	-1642
xu❄69쎯	-1643
95쎯	-1644
he❂22쎯	-1645
pu	-1646
nao	-1647
dai❄9쎯biao❃5쎯	-1648
wan❁9쎯	-1649
zhao❄18쎯	-1650
suan❁3쎯	-1651
xue❂6쎯xi❂9쎯	-1652
jiang❃19쎯	-1653
yi❁12쎯	-1654
ying❁17쎯yong❄3쎯	-1655
chu❃14쎯	-1656
you❃9쎯	-1657
da❄0쎯de❅2쎯	-1658
ce❄33쎯	-1659
,yi❁10쎯	-1660
tou❂5쎯zi❁45쎯	-1661
ji❁34쎯chu❃14쎯	-1662
zhong❁19쎯	-1663
dian❄23쎯zi❃7쎯	-1664
cai❃4쎯	-1665
ji❁36쎯	-1666
gui❄4	-1667
chen❂	-1668
chen❂41쎯	-1669
gu❃59쎯	-1670
zhong❁4쎯xue❂6쎯	-1671
nong❂5쎯qiu❁9쎯	-1672
wei❄26쎯	-1673
me❅	-1674
me❅1쎯	-1675
wei❁12쎯hui❄27쎯	-1676
peng❂7쎯	-1677
dan❁15쎯	-1678
fu❁13쎯	-1679
xiang❃5쎯	-1680
fang❁4쎯fa❃2쎯	-1681
mu❃	-1682
zhang❃6쎯,	-1683
shi❄99쎯	-1684
li❄50쎯	-1685
ge❄3쎯chong❂11쎯	-1686
gui❄41쎯	-1687
xu❄36쎯	-1688
gang❁32쎯	-1689
tun	-1690
hang❂16쎯qiu❁9쎯	-1691
ji❄3	-1692
ji❂39쎯	-1693
xi❄46쎯lie❄20쎯	-1694
mi	-1695
zhao❂쎯ming❂7쎯	-1696
chuang❂6쎯	-1697
ji❁48쎯gou❃2쎯	-1698
xian❁18쎯jin❄61쎯	-1699
zao❃2쎯	-1700
yu❄10	-1701
mou	-1702
duan❃0쎯	-1703
huo❄50쎯de❂7쎯	-1704
shi❄8	-1705
fu❄74쎯	-1706
jian❁14쎯	-1707
ting❁3쎯	-1708
mai❄	-1709
60	-1710
dian❄23쎯shi❄71쎯	-1711
she❄8쎯	-1712
i❄56쎯	-1713
ban❁15쎯	-1714
fei❁19쎯	-1715
81쎯	-1716
16쎯	-1717
sui❄16쎯	-1718
bo❂41쎯shi❄28쎯	-1719
jiu❃12쎯dian❄13쎯	-1720
bu❂0쎯tong❂13쎯	-1721
xi❃1쎯	-1722
yin❁44쎯le❄3쎯	-1723
ban❄4쎯gong❁10쎯	-1724
ju❃4쎯	-1725
xue❂6쎯hui❄27쎯	-1726
”,	-1727
cun❄2쎯	-1728
lve	-1729
qin❁4쎯	-1730
yan❂31쎯	-1731
ji❁1	-1732
na❄20쎯	-1733
❁57쎯	-1734
xia❂39쎯	-1735
qing❁16쎯	-1736
ling❂58쎯	-1737
tui❄	-1738
yi❂38쎯	-1739
ce❄11쎯	-1740
ke❄7쎯	-1741
9yue❄29쎯	-1742
,ye❃1쎯	-1743
u❄9쎯	-1744
ang❄2쎯	-1745
zhe❄9쎯jiang❁10쎯	-1746
yun❃16쎯dong❄13쎯	-1747
ye❄44쎯	-1748
shi❄22쎯	-1749
dai❄45쎯	-1750
,er❂16쎯	-1751
jiu❄23쎯shi❄45쎯	-1752
mu❄22쎯qian❂8쎯	-1753
lao❂11쎯	-1754
zheng❁15쎯	-1755
yu❂35쎯200	-1756
i❄51쎯	-1757
kan❁3쎯	-1758
jing❁27쎯ying❂45쎯	-1759
wei❄14쎯zhu❃4쎯	-1760
24	-1761
❁38쎯	-1762
an❄43쎯	-1763
li❃15쎯lun❄1쎯	-1764
kuan❃7쎯	-1765
lu❄83쎯	-1766
wa	-1767
kuang❄12쎯	-1768
lve❄11쎯	-1769
xian❁57쎯	-1770
si❁11쎯	-1771
nan❂20쎯	-1772
bing❁2쎯	-1773
000	-1774
gen❁0쎯ju❁18쎯	-1775
gao❁20쎯ji❂83쎯	-1776
song❁11쎯	-1777
shang❄2쎯	-1778
8yue❄29쎯	-1779
jian❁25쎯shi❃9쎯	-1780
yan❃42쎯	-1781
xian❄37쎯ren❂4쎯	-1782
wo❃3쎯𑈼	-1783
di❄45쎯er❄5쎯	-1784
❁51쎯	-1785
jie❂67쎯gou❃2쎯	-1786
ji❁116쎯	-1787
ling❂34쎯	-1788
zuo❃3쎯	-1789
fen❄2쎯	-1790
xi❁87쎯	-1791
fang❁4쎯mian❄2쎯	-1792
ce❄8쎯	-1793
fo	-1794
12yue❄29쎯	-1795
a❁0쎯	-1796
fo❂2쎯	-1797
cai❂3쎯liao❄8쎯	-1798
san❃7쎯	-1799
shuo❄15쎯	-1800
yang❁4쎯	-1801
lin❂43쎯	-1802
hou❄6쎯	-1803
pin❃0쎯pai❂4쎯	-1804
wen❂5쎯xue❂6쎯	-1805
196	-1806
rong❂50쎯	-1807
chong❁9쎯	-1808
❁31쎯	-1809
zha	-1810
❁27쎯	-1811
hang❂13쎯	-1812
ji❄36쎯	-1813
tang❂15쎯	-1814
yong❃21쎯	-1815
zi❁45쎯yuan❂34쎯	-1816
fu❄23쎯	-1817
na❄11쎯rong❂21쎯	-1818
qi❂29쎯ta❁3쎯	-1819
jue❂	-1820
an❄14쎯	-1821
wang❃7쎯	-1822
zhen❁52쎯	-1823
,dan❄10쎯	-1824
shi❁8쎯	-1825
yang❂19쎯	-1826
”de❅2쎯	-1827
ruo	-1828
❃46쎯	-1829
kun	-1830
si❃0쎯	-1831
ma❃8쎯	-1832
jiang❄25쎯	-1833
yi❂31쎯	-1834
hui	-1835
00쎯	-1836
mu❃6쎯	-1837
shu❄26쎯ju❁18쎯	-1838
an❁13쎯quan❂6쎯	-1839
ruan❃17쎯jian❄15쎯	-1840
❂48쎯	-1841
li❂32쎯	-1842
ji❂107쎯	-1843
.0	-1844
ji❁34쎯ben❃5쎯	-1845
❃27쎯	-1846
di❄26쎯	-1847
an❁15쎯dong❁3쎯	-1848
shou❁1쎯ru❄2쎯	-1849
xiong❂2쎯	-1850
shou❂쎯	-1851
yu❄126쎯	-1852
que❄26쎯	-1853
zhi❄56쎯	-1854
wen❂23쎯	-1855
e❄23쎯	-1856
ren❂1쎯yuan❂15쎯	-1857
kuai❄14쎯	-1858
10yue❄29쎯	-1859
di❂	-1860
zhang❃6쎯、	-1861
ren❂1쎯de❅2쎯	-1862
ku❄6쎯	-1863
zhi❂20쎯wu❄36쎯	-1864
hu❄14쎯	-1865
cheng❁10쎯	-1866
195	-1867
shun	-1868
cha❂27쎯	-1869
jin❄3	-1870
luan	-1871
wang❄4쎯	-1872
chan❃12쎯qiu❁9쎯	-1873
xuan❁9쎯	-1874
han❄33쎯zu❂9쎯	-1875
si❄17쎯chuan❁2쎯	-1876
jia❃14쎯	-1877
i❄17쎯	-1878
gao❄3쎯	-1879
lv❃14쎯you❂25쎯	-1880
u❂3쎯	-1881
ou❁8쎯	-1882
zhong❁4쎯yang❁4쎯	-1883
xiao❁61쎯shou❄5쎯	-1884
cha❂12쎯	-1885
liu❂28쎯	-1886
kong❄1쎯zhi❄30쎯	-1887
mo❄30쎯	-1888
you❄14쎯	-1889
zhi❂16쎯	-1890
she❄13쎯	-1891
zuo❄5쎯yong❄3쎯	-1892
yu❄105쎯	-1893
niao	-1894
xi❂12쎯	-1895
❁34쎯	-1896
tuo❁6쎯	-1897
ben❄4쎯de❅2쎯	-1898
shi❂20쎯,	-1899
xian❃46쎯	-1900
cheng❁28쎯wei❄14쎯	-1901
xie❄51쎯	-1902
bi❄100쎯	-1903
dan❄2	-1904
qi❂117쎯	-1905
15쎯	-1906
shen❃7쎯	-1907
❁쎯	-1908
heng	-1909
jin❁18쎯	-1910
yi❂20쎯	-1911
xia❄6쎯	-1912
ta❃1쎯	-1913
ao❄14쎯	-1914
u❄7쎯	-1915
bing❁5쎯	-1916
bao❃9쎯hu❄30쎯	-1917
37쎯	-1918
liu❂9쎯	-1919
gu❄7쎯	-1920
xi❃11쎯	-1921
cai❃11쎯yong❄3쎯	-1922
gai❄17쎯	-1923
,qi❂29쎯	-1924
jia❁5쎯	-1925
ben❃5쎯shu❁8쎯	-1926
——	-1927
92쎯	-1928
feng❁8쎯fu❄36쎯	-1929
lun❄1쎯wen❂5쎯	-1930
shi❄89쎯	-1931
che❃	-1932
ai❁5쎯	-1933
tang❂28쎯	-1934
che❃7쎯	-1935
----	-1936
ding❃11쎯	-1937
dou❄18쎯	-1938
tu❁14쎯	-1939
bu	-1940
yi❄67쎯	-1941
niu❂3쎯	-1942
chu❄17쎯li❃15쎯	-1943
ai❄3쎯	-1944
ying❄9쎯	-1945
fa❁1쎯biao❃5쎯	-1946
jiang❁10쎯su❁10쎯	-1947
zhong❁4쎯wen❂5쎯	-1948
fang❁4쎯shi❄33쎯	-1949
tang❁5쎯	-1950
,nan❂14쎯	-1951
guo❁26쎯	-1952
zou❃0쎯	-1953
zhang❃6쎯.	-1954
bei❁15쎯	-1955
shi❄51쎯	-1956
mei❃13쎯shu❂7쎯	-1957
pai❄3쎯	-1958
cuo	-1959
ji❄116쎯suan❄3쎯	-1960
shuo❄15쎯shi❄28쎯	-1961
wei❁13쎯	-1962
cao❁3쎯	-1963
neng❂2쎯li❄59쎯	-1964
i❄12쎯	-1965
huo❄56쎯	-1966
leng	-1967
shao❄10쎯	-1968
zuo❄9쎯	-1969
zhi❃22쎯	-1970
pao	-1971
shang❁2쎯	-1972
qi❄34쎯	-1973
piao	-1974
xiang❃3쎯	-1975
ya❃9쎯	-1976
,zhe❄14쎯	-1977
she❄22쎯qu❁15쎯	-1978
.《	-1979
nao❃16쎯	-1980
ge❂54쎯ming❄1쎯	-1981
jun❁15쎯	-1982
2010	-1983
3yue❄29쎯	-1984
ju❄65쎯chi❁23쎯	-1985
❂0쎯	-1986
meng❁3쎯	-1987
you❄21쎯	-1988
hao❃0쎯de❅2쎯	-1989
fu❄64쎯ze❂44쎯	-1990
mo❄16쎯yuan❂10쎯	-1991
yi❂79쎯	-1992
ba❂11쎯	-1993
gong❁17쎯zuo❄5쎯,	-1994
zhi❃13쎯	-1995
bi❄61쎯	-1996
chang❄2쎯	-1997
97쎯	-1998
6yue❄29쎯	-1999
suo❃18쎯	-2000
yi❂61쎯	-2001
xian❁18쎯hou❄7쎯	-2002
feng❁17쎯	-2003
zhi❃3	-2004
sa	-2005
gong❁15쎯	-2006
dian❄23쎯ying❃11쎯	-2007
ran❃11쎯	-2008
ai❃0쎯	-2009
wen❄6쎯ti❂36쎯	-2010
lu❃	-2011
jie❁13쎯kou❃1쎯	-2012
xiao❃2쎯xue❂6쎯	-2013
❃쎯	-2014
gan❁25쎯	-2015
leng❃쎯	-2016
shi❄15쎯ji❄94쎯	-2017
wen❂12쎯	-2018
duo❁5쎯nian❂6쎯	-2019
quan❂17쎯	-2020
qian❂40쎯	-2021
zhi❂32쎯qiu❁9쎯	-2022
huang❂34쎯	-2023
gui❁35쎯hua❂11쎯	-2024
jian❁17쎯	-2025
fu❄41쎯	-2026
ji❁48쎯xie❄51쎯	-2027
dan❄43쎯	-2028
zhuo	-2029
xi❁51쎯	-2030
sheng❁16쎯wu❄36쎯	-2031
▁200	-2032
xiao❃2쎯shuo❁2쎯	-2033
shang❃1쎯de❅2쎯	-2034
ke❄14쎯hu❄26쎯	-2035
song❄9쎯	-2036
yuan❂15쎯.	-2037
194	-2038
,you❂29쎯	-2039
zhi❄30쎯zuo❄5쎯	-2040
bei	-2041
cheng❂50쎯	-2042
1yue❄29쎯	-2043
hu❂46쎯	-2044
fen❁4쎯xi❁87쎯	-2045
ge❃0쎯zuo❄5쎯	-2046
hui❁12쎯	-2047
gou❄26쎯	-2048
ai❄8쎯	-2049
si❄21쎯	-2050
ju❄5	-2051
zheng❄13쎯	-2052
wu❃37쎯	-2053
5yue❄29쎯	-2054
li❃15쎯shi❄18쎯	-2055
me❅1쎯you❃11쎯	-2056
chuan❂4쎯tong❃9쎯	-2057
mao❄39쎯	-2058
shun❄11쎯	-2059
geng❁17쎯	-2060
hai❄8쎯	-2061
ting❂8쎯	-2062
zhan❁4쎯de❅0쎯	-2063
hao❂14쎯	-2064
zhi❄61쎯liao❂24쎯	-2065
zheng❄12쎯zhi❄61쎯	-2066
tai❄9쎯	-2067
po❄17쎯	-2068
sha❁4쎯	-2069
chi❂23쎯	-2070
....	-2071
ying❃11쎯xiang❃5쎯	-2072
ku❁11쎯	-2073
lu❃27쎯	-2074
❂42쎯	-2075
chang❁6쎯	-2076
miao❂5쎯	-2077
bu❃11쎯	-2078
jing❄17쎯	-2079
23	-2080
11yue❄29쎯	-2081
li❃17쎯	-2082
jiao❁29쎯	-2083
ta❁3쎯𑈼	-2084
pei❂3쎯xun❄25쎯	-2085
shang❃1쎯,	-2086
jiu❃1쎯	-2087
yan❂20쎯	-2088
xiu❁9쎯	-2089
ha❁0쎯	-2090
shang❁4쎯wu❄12쎯	-2091
wei❄52쎯	-2092
❄34쎯	-2093
zhi❁31쎯shi❂35쎯	-2094
zu❃5쎯	-2095
lu	-2096
que❄11쎯	-2097
er❃12쎯	-2098
4yue❄29쎯	-2099
193	-2100
se❄29쎯,	-2101
lei	-2102
xi❁97쎯	-2103
26	-2104
zhuan❁1쎯jia❁13쎯	-2105
chong❂14쎯	-2106
”、	-2107
lian❄22쎯	-2108
ju❄57쎯	-2109
hui❄60쎯	-2110
i❂5쎯	-2111
deng❁10쎯	-2112
tan❄5쎯	-2113
ke❁16쎯yan❂50쎯	-2114
qing❄14쎯	-2115
zhong❁4쎯hua❂14쎯	-2116
hou❄5쎯	-2117
zu❂11쎯qiu❂36쎯	-2118
qiu❁9쎯wu❄12쎯	-2119
gong❄3쎯chan❃12쎯	-2120
xian❄35쎯	-2121
huan❁7쎯	-2122
gong❁23쎯	-2123
shi❂13쎯yan❄75쎯	-2124
fen❁4쎯zhong❁29쎯	-2125
guo❄2쎯cheng❂52쎯	-2126
zi❃1	-2127
yuan❂44쎯	-2128
zhi❄30쎯zao❄16쎯	-2129
fen❁4쎯bu❄23쎯	-2130
ji❂75쎯	-2131
du❁8쎯	-2132
huan❄21쎯	-2133
❃28쎯	-2134
xue❂6쎯shu❂7쎯	-2135
jie❂67쎯ge❃0쎯	-2136
mu❃2쎯,	-2137
jian❄29쎯yu❂35쎯	-2138
dang	-2139
ye❃7쎯	-2140
kong❃1쎯	-2141
28	-2142
jia❁7쎯gong❁17쎯	-2143
ji❄95쎯	-2144
ji❄46쎯	-2145
han❂37쎯	-2146
xi❁143쎯sheng❃9쎯	-2147
gui❁12쎯	-2148
deng❃2쎯jiang❃8쎯	-2149
de❅2쎯ren❂1쎯	-2150
13쎯	-2151
zhi❁13쎯jian❁85쎯	-2152
si❄10쎯	-2153
°C	-2154
yin❁37쎯	-2155
gong❁17쎯yi❄190쎯	-2156
gu❄23쎯	-2157
yang❂16쎯	-2158
ji❂81쎯	-2159
zhi❃32쎯	-2160
zhi❁13쎯yi❁10쎯.	-2161
guang	-2162
mian❃10쎯	-2163
,200	-2164
mei❂12쎯	-2165
ti❂17쎯gao❁20쎯	-2166
dai❁1쎯	-2167
yin❃37쎯	-2168
da❄0쎯xing❂9쎯	-2169
57쎯	-2170
ping❂17쎯si❄15쎯	-2171
shi❁16쎯	-2172
xue❂6쎯wei❄15쎯	-2173
gu❃52쎯	-2174
ling❄0쎯	-2175
fu❂60쎯jian❄29쎯	-2176
lei❂30쎯	-2177
kuang❄1쎯	-2178
u❃0쎯	-2179
zi❄16쎯dong❄13쎯	-2180
ai❄7쎯	-2181
qiu❁16쎯	-2182
❁43쎯	-2183
xie❄	-2184
man❄13쎯	-2185
.5	-2186
jue❂92쎯	-2187
❃22쎯	-2188
ling❃2쎯yu❄31쎯	-2189
tong❄3쎯	-2190
,yin❁11쎯	-2191
shang❁4쎯qiu❁9쎯	-2192
xiang❁26쎯gang❃6쎯	-2193
xiang❁9쎯guan❁4쎯	-2194
cheng❂16쎯	-2195
shui❄11쎯	-2196
hua❁1쎯xue❂6쎯	-2197
//	-2198
shao❁8쎯	-2199
jiao❄6쎯	-2200
tong❂36쎯	-2201
feng❁19쎯	-2202
,xian❄37쎯	-2203
yi❁10쎯ban❁15쎯	-2204
shi❁11쎯fan❄22쎯	-2205
ming❂7쎯:	-2206
mai❄9쎯	-2207
hai	-2208
ding❁2쎯	-2209
mu❄10쎯	-2210
hu❂32쎯bei❃2쎯	-2211
80쎯	-2212
yi❁10쎯chong❂11쎯	-2213
chun❂18쎯	-2214
wei❄16쎯sheng❁16쎯	-2215
can	-2216
liang❂7쎯	-2217
jin❄32쎯	-2218
jian❄29쎯li❄141쎯	-2219
.200	-2220
shan❁11쎯qu❁15쎯	-2221
ling❃2쎯dao❃5쎯	-2222
tun❁2쎯	-2223
lai❂16쎯,	-2224
mei❂18쎯	-2225
chong❁10쎯	-2226
shi❄18쎯qiu❁9쎯	-2227
ze❂24쎯	-2228
.zhe❄14쎯	-2229
500	-2230
zhu❁17쎯	-2231
zuo❄5쎯zhe❃2쎯	-2232
min❂22쎯zu❂9쎯	-2233
jue❂1	-2234
luo❄17쎯	-2235
yan❂46쎯	-2236
shu❁8쎯fa❃2쎯	-2237
ma❅	-2238
bu❄38쎯,	-2239
an❁13쎯hui❁12쎯	-2240
ji❁54쎯	-2241
fa❁1쎯sheng❁16쎯	-2242
nian❂6쎯(	-2243
nuo	-2244
gong❁10쎯lu❄70쎯	-2245
jing❁27쎯yan❄75쎯	-2246
chong❂11쎯zhi❂20쎯	-2247
xie❂	-2248
chuang❄1쎯xin❁10쎯	-2249
ke❄6쎯,	-2250
ju❄14쎯	-2251
ming❂7쎯cheng❁28쎯	-2252
ren❂3쎯	-2253
jing❄48쎯	-2254
gu❄12쎯shi❄18쎯	-2255
”、“	-2256
li❄59쎯yu❂35쎯	-2257
xu❁37쎯yao❁17쎯	-2258
shou❃3쎯	-2259
wang❃14쎯zhan❄17쎯	-2260
zhi❃19쎯dao❃5쎯	-2261
teng	-2262
kao❄5쎯	-2263
ma❂8쎯	-2264
li❄58쎯yong❄3쎯	-2265
fan❄15쎯	-2266
guan❁4쎯xi❄46쎯	-2267
27	-2268
guang❁8쎯	-2269
2011	-2270
mi❃19쎯.	-2271
dan❄21쎯	-2272
te❄5쎯dian❃11쎯	-2273
ren❂1쎯wu❄36쎯	-2274
yan❂37쎯	-2275
bu❄38쎯men❂19쎯	-2276
dang❃2쎯wei❁12쎯	-2277
jiao❁21쎯	-2278
qi❄34쎯che❁8쎯	-2279
qi❂46쎯	-2280
wo❃3쎯guo❂11쎯	-2281
guan❁5쎯	-2282
jia❁8쎯	-2283
su❄30쎯	-2284
jian❄5	-2285
ya❂12쎯	-2286
de❅0쎯fang❁4쎯	-2287
ma❅1쎯	-2288
mo❂12쎯shi❄33쎯	-2289
he❂37쎯bei❃2쎯	-2290
yong❄3쎯hu❄26쎯	-2291
fu❄32쎯	-2292
jin❃24쎯	-2293
an❄13쎯	-2294
yi❁11쎯	-2295
66쎯	-2296
di❄45쎯san❁1쎯	-2297
》,	-2298
zui❄4쎯da❄0쎯	-2299
2010nian❂6쎯	-2300
yi❁13쎯xue❂6쎯	-2301
geng❁17쎯de❅0쎯	-2302
mai❄16쎯	-2303
,ke❃4쎯	-2304
jin❃16쎯	-2305
20쎯	-2306
shi❄45쎯you❂29쎯	-2307
)、	-2308
lan❂41쎯	-2309
zhu❂15쎯	-2310
77쎯	-2311
35쎯	-2312
guan❄33쎯	-2313
xia❄3쎯,	-2314
chu❁3쎯sheng❁16쎯	-2315
shi❄45쎯zhi❃19쎯	-2316
u❂1쎯	-2317
you❃11쎯guan❁4쎯	-2318
yu❃44쎯yan❂61쎯	-2319
bin❁5쎯	-2320
dan❁5쎯	-2321
si❄15쎯wan❁9쎯	-2322
yi❄215쎯	-2323
zhu❁29쎯	-2324
cun❁1쎯,	-2325
jiang❁4쎯	-2326
,cong❂6쎯	-2327
zi❃18쎯	-2328
xi❁65쎯	-2329
xing❂11쎯,	-2330
rao	-2331
er❄5쎯shi❂10쎯	-2332
shi❂20쎯ji❁47쎯	-2333
ji❄116쎯hua❂11쎯	-2334
su❂0쎯	-2335
li❄144쎯	-2336
sen❁0쎯	-2337
fei❂1쎯	-2338
can❁13쎯	-2339
chuang❄1쎯zuo❄5쎯	-2340
bao❁9쎯	-2341
chuan❁5쎯	-2342
gong❁17쎯zuo❄5쎯.	-2343
shi❂13쎯xian❄37쎯	-2344
ding❄2쎯de❅2쎯	-2345
2yue❄29쎯	-2346
chao❃7쎯	-2347
jian❃18쎯	-2348
lun❂28쎯	-2349
long❁쎯	-2350
,dui❄14쎯	-2351
ping❂36쎯wei❄14쎯	-2352
i❁14쎯	-2353
xing❄13쎯neng❂2쎯	-2354
mo❂16쎯	-2355
jia❄5쎯	-2356
ni❃11쎯	-2357
ren❂1쎯cai❂2쎯	-2358
cao❁3쎯zuo❄5쎯	-2359
liao❂37쎯	-2360
ruo❄8쎯	-2361
xian❁13쎯	-2362
chuan❂13쎯	-2363
fu❄48쎯	-2364
jing❃23쎯	-2365
che❃7쎯cun❄2쎯	-2366
can❁3쎯shu❄26쎯	-2367
zhu❄31쎯ce❄11쎯	-2368
lian❂53쎯ge❃0쎯	-2369
dan❁15쎯ren❂4쎯	-2370
yu❂	-2371
dong❄13쎯wu❄36쎯	-2372
jue❂104쎯	-2373
35	-2374
gan❄3쎯ren❂1쎯	-2375
shu❁8쎯hua❄18쎯	-2376
jie❄13쎯shao❄10쎯	-2377
jing❄44쎯	-2378
wu❁3쎯	-2379
mou❃2쎯	-2380
ming❂7쎯wei❄14쎯	-2381
zhi❁22쎯	-2382
dong❄24쎯	-2383
meng❄8쎯	-2384
▁(	-2385
lao❂11쎯dong❄13쎯	-2386
lan❃28쎯	-2387
chu❁3쎯xian❄37쎯	-2388
lin❂7쎯chuang❂6쎯	-2389
jing❁24쎯shen❂2쎯	-2390
zhu❃4쎯cha❁3쎯	-2391
suo❃11쎯you❃11쎯	-2392
jiu❄30쎯	-2393
ai❁0쎯	-2394
xue❂6쎯li❄62쎯	-2395
fan❄22쎯wei❂11쎯	-2396
qing❁20쎯nian❂6쎯	-2397
she❄29쎯shi❁13쎯	-2398
zun	-2399
de❅2쎯“	-2400
en❁1쎯	-2401
dui❁14쎯	-2402
zhu❃4쎯xi❂12쎯	-2403
ye❄26쎯	-2404
yao❁17쎯qiu❂27쎯	-2405
ling❂98쎯	-2406
wei❃25쎯	-2407
chu❁3쎯sheng❁16쎯,	-2408
liang❄2쎯	-2409
fan❂35쎯	-2410
yi❄68쎯	-2411
chu❃3쎯	-2412
shan❃12쎯	-2413
bei❄52쎯	-2414
wan❂6쎯cheng❂29쎯	-2415
mo❂26쎯	-2416
hun❂11쎯	-2417
zhao❁3쎯	-2418
rui❄12쎯	-2419
.gai❁13쎯	-2420
hai❃1쎯ba❂11쎯	-2421
bo❂37쎯	-2422
yi❁38쎯	-2423
yan❂44쎯	-2424
sun❁0쎯	-2425
po❁2쎯	-2426
jian❄17쎯kang❁6쎯	-2427
qing❃9쎯	-2428
tou❄4쎯	-2429
yi❃15쎯jing❁27쎯	-2430
dao❃2쎯	-2431
shi❂39쎯pin❃0쎯	-2432
22	-2433
cha❁8쎯	-2434
you❃11쎯yi❁10쎯	-2435
xiang❁11쎯	-2436
i❄22쎯	-2437
❂51쎯	-2438
yang❂10쎯	-2439
dang❃2쎯yuan❂15쎯	-2440
34쎯	-2441
lun❂5쎯	-2442
quan❂6쎯cun❁1쎯	-2443
wei❄14쎯yi❁10쎯	-2444
4.	-2445
tie	-2446
,ru❂9쎯	-2447
yu❃47쎯	-2448
xing❄9쎯	-2449
zhou❂3쎯	-2450
45	-2451
xi❁143쎯nan❂6쎯	-2452
lie	-2453
zi❄16쎯zhi❄61쎯	-2454
zheng❄18쎯	-2455
ming❂7쎯.	-2456
de❅2쎯shi❄45쎯	-2457
❄36쎯	-2458
,you❄13쎯	-2459
niao❃17쎯	-2460
fa❁1쎯xian❄37쎯	-2461
zhang❄19쎯	-2462
yan❁33쎯	-2463
yu❄5	-2464
tie❃5쎯lu❄70쎯	-2465
hui❄27쎯yi❄214쎯	-2466
gui❃3	-2467
❂72쎯	-2468
deng❁7쎯	-2469
,shi❃6쎯	-2470
hui❄27쎯yuan❂15쎯	-2471
ben❄4쎯yu❄93쎯	-2472
tao❂20쎯	-2473
te❄5쎯se❄29쎯	-2474
90	-2475
fa❃2쎯lv❄9쎯	-2476
u❃7쎯	-2477
cu❄9쎯	-2478
nong❂5쎯min❂22쎯	-2479
cheng❂61쎯	-2480
e❂39쎯	-2481
le❅0쎯yi❁10쎯	-2482
xun❂42쎯	-2483
wen❃10쎯	-2484
70	-2485
wa❃5쎯	-2486
,yu❃14쎯	-2487
he❂35쎯xin❁7쎯	-2488
gu❃28쎯	-2489
xue❃5쎯	-2490
hai❂6쎯	-2491
wan❂12쎯	-2492
yu❂34쎯	-2493
sa❄13쎯	-2494
ping❂17쎯jun❁6쎯	-2495
zhi❄88쎯jin❁10쎯	-2496
,nan❂14쎯,	-2497
bang❁5쎯	-2498
nan❂6쎯jing❁3쎯	-2499
wan❃17쎯	-2500
shi❁11쎯,	-2501
shi❁11쎯.	-2502
zhen❃27쎯	-2503
hui❁23쎯	-2504
ku❃1쎯	-2505
xian❄37쎯you❃11쎯	-2506
qi❃13쎯	-2507
ri❄2쎯,	-2508
gou❁12쎯	-2509
quan❂6쎯mian❄2쎯	-2510
di❂41쎯	-2511
mo❄22쎯	-2512
wen❂5쎯jian❄15쎯	-2513
ji❁34쎯de❅0쎯	-2514
lie❄34쎯	-2515
cun❁1쎯min❂22쎯	-2516
ta❁3쎯de❅2쎯	-2517
diao❁23쎯	-2518
you❂29쎯yu❂35쎯	-2519
fang❄0쎯ru❄2쎯	-2520
chuang❁13쎯	-2521
tui❄8쎯	-2522
hui❄79쎯	-2523
dong❁3쎯bei❃2쎯	-2524
ze❂19쎯	-2525
jing❁27쎯guo❄2쎯	-2526
ci❁2쎯	-2527
xu❁29쎯	-2528
liang❃5쎯gan❄3쎯	-2529
300	-2530
jia❃2쎯	-2531
run	-2532
jing❁14쎯	-2533
ben❄4쎯xi❄46쎯	-2534
meng❂34쎯	-2535
chong❂17쎯qing❄4쎯	-2536
zhen❄33쎯	-2537
tu❂14쎯shu❁8쎯	-2538
chi❁8쎯	-2539
zhong❁4쎯yi❁13쎯	-2540
zhe❄14쎯gan❄3쎯	-2541
si❁22쎯xiang❃6쎯	-2542
zhu❁7쎯	-2543
,hou❄7쎯	-2544
wei❄15쎯zhi❄85쎯	-2545
......	-2546
,zhu❃4쎯yao❁17쎯	-2547
cheng❂29쎯de❅2쎯	-2548
bing❁4쎯	-2549
zheng❁22쎯shi❄33쎯	-2550
jun❁4쎯	-2551
yan❂72쎯	-2552
shou❄8쎯	-2553
,196	-2554
fan❁14쎯	-2555
kuo❄7쎯	-2556
fu❃34쎯	-2557
zhu❁16쎯	-2558
she❂5쎯	-2559
xian❃24쎯shi❄60쎯	-2560
fang❁4쎯xiang❄6쎯	-2561
tong❂48쎯	-2562
);	-2563
de❅0쎯chu❄17쎯	-2564
pai❁0쎯	-2565
jiu❄2	-2566
xun❄26쎯	-2567
sai❁5쎯	-2568
pei❂3쎯yang❃6쎯	-2569
yi❁13쎯liao❂24쎯	-2570
ji❂52쎯	-2571
run❄4쎯	-2572
zhen❄13쎯	-2573
di❄27쎯	-2574
shui❃0쎯ping❂17쎯	-2575
rong❂33쎯	-2576
shi❂20쎯dai❄9쎯	-2577
cheng❂29쎯guo❃3쎯	-2578
xi❁143쎯bei❃2쎯	-2579
suo❃11쎯yi❃10쎯	-2580
jiao❁8쎯liu❂20쎯	-2581
shi❂13쎯shi❁13쎯	-2582
zhu❄	-2583
nin	-2584
nin❂5쎯	-2585
lai❂16쎯de❅2쎯	-2586
jie❄14쎯zhi❂7쎯	-2587
shen❁18쎯zhen❄13쎯	-2588
24쎯	-2589
du❂25쎯li❄141쎯	-2590
suo❁15쎯	-2591
yi❃10쎯shang❃1쎯	-2592
qian❁54쎯	-2593
zhan❄10쎯zheng❁7쎯	-2594
gai❃2쎯ge❂54쎯	-2595
,ta❁6쎯	-2596
》(	-2597
xi❄50쎯bao❁9쎯	-2598
xu❁39쎯	-2599
yue❁0쎯	-2600
dong❁3쎯nan❂6쎯	-2601
ju❄30쎯	-2602
zhu❃4쎯chi❂20쎯	-2603
fu❄39쎯	-2604
2012	-2605
zheng❄12쎯ce❄26쎯	-2606
21	-2607
ni❂15쎯	-2608
bu❂0쎯duan❄4쎯	-2609
jiu❄29쎯	-2610
feng❄2쎯	-2611
jian❄85쎯	-2612
dong❁5쎯	-2613
29	-2614
xing❄13쎯de❅2쎯	-2615
zhang❃2쎯	-2616
jing❃3쎯	-2617
,wei❄15쎯yu❂35쎯	-2618
zhu❄63쎯	-2619
,ji❂35쎯	-2620
gai❄11쎯	-2621
dao❁1쎯	-2622
lai❂25쎯	-2623
zhu❂24쎯	-2624
zhi❃20쎯	-2625
xian❂54쎯	-2626
2011nian❂6쎯	-2627
ceng❂6쎯ren❂4쎯	-2628
piao❄5쎯	-2629
fen❁4쎯bie❂4쎯	-2630
hong❂29쎯	-2631
,da❄0쎯	-2632
xu❂1쎯	-2633
she❂3쎯	-2634
de❂7쎯dao❄3쎯	-2635
❄29쎯	-2636
ling❂46쎯	-2637
jiao❃53쎯	-2638
zhuang❄0쎯	-2639
fen❁4쎯wei❄14쎯	-2640
e❄47쎯	-2641
qu❁15쎯yu❄31쎯	-2642
hui❄50쎯	-2643
chao❂8쎯	-2644
nai❄5쎯	-2645
tu❂38쎯	-2646
zhu❄26쎯	-2647
feng❁58쎯ge❂29쎯	-2648
dang❄12쎯	-2649
li❃15쎯nian❄4쎯	-2650
duo❁5쎯ci❄16쎯	-2651
bin❁12쎯	-2652
fei❁15쎯chang❂15쎯	-2653
zuo❃3쎯you❄14쎯	-2654
ji❂75쎯bing❄12쎯	-2655
gong❁10쎯wan❂5쎯	-2656
die	-2657
an❁15쎯xi❁143쎯	-2658
can❁3쎯yu❃14쎯	-2659
hui❁15쎯	-2660
shu❁26쎯	-2661
de❅2쎯gao❁20쎯	-2662
xiang❂11쎯	-2663
ying❁44쎯yu❃44쎯	-2664
da❂30쎯dao❄3쎯	-2665
pin❃0쎯chong❂11쎯	-2666
ge❁8쎯	-2667
wei❄14쎯le❅0쎯	-2668
》deng❃2쎯	-2669
,shi❄45쎯yi❁10쎯	-2670
jun❁3쎯	-2671
ke❂	-2672
ke❂0쎯	-2673
gong❁10쎯li❃26쎯.	-2674
jie❁32쎯	-2675
yang❃14쎯	-2676
gua❁16쎯	-2677
cha❁11쎯	-2678
ji❁74쎯	-2679
wei❂7쎯	-2680
tian❁5쎯jin❁18쎯	-2681
ju❄14쎯le❄3쎯	-2682
an❁15쎯fan❄15쎯	-2683
qing❂6쎯kuang❄1쎯	-2684
en❁2쎯	-2685
duo❁5쎯chong❂11쎯	-2686
bi❄46쎯	-2687
,zui❄4쎯	-2688
hang❂8쎯	-2689
ru❃0쎯	-2690
pa	-2691
36	-2692
zhang❃6쎯ji❁47쎯	-2693
xing❂11쎯shi❄33쎯	-2694
-0	-2695
zhi❂22쎯	-2696
yin❂44쎯hang❂16쎯	-2697
nuo❄16쎯	-2698
yan❂50쎯fa❁1쎯	-2699
xin❁17쎯	-2700
bian❄3	-2701
ying❁44쎯wen❂5쎯	-2702
ke❄29쎯cheng❂52쎯	-2703
gui❁35쎯mo❂12쎯	-2704
ting❁5쎯	-2705
wei❃1	-2706
shou❄3쎯	-2707
jian❄77쎯	-2708
▁199	-2709
gong❄9쎯	-2710
xue❂6쎯ke❁16쎯	-2711
gou❄10쎯	-2712
cuo❄18쎯	-2713
ying❁44쎯guo❂11쎯	-2714
duo❃23쎯zhi❄47쎯	-2715
▁《	-2716
han❂20쎯	-2717
jie❄15쎯	-2718
zuo❄5쎯jia❁13쎯	-2719
,198	-2720
,qi❂29쎯zhong❁4쎯	-2721
jian❁22쎯	-2722
》.	-2723
fen❁4쎯zi❃7쎯	-2724
cun❁1쎯dai❄45쎯	-2725
bei❁8쎯	-2726
jie❂42쎯	-2727
jie❂48쎯	-2728
you❂16쎯	-2729
zhi❁43쎯	-2730
yu❄113쎯	-2731
xin❁10쎯wen❂23쎯	-2732
xuan❃8쎯ze❂19쎯	-2733
hu❂32쎯nan❂6쎯	-2734
fu❁39쎯	-2735
i❄5쎯	-2736
te❄5쎯bie❂4쎯	-2737
an❁15쎯zhou❁9쎯	-2738
zang	-2739
❄43쎯	-2740
pi❁11쎯zhun❃0쎯	-2741
de❅2쎯da❄0쎯	-2742
▁2	-2743
bao❂9쎯	-2744
,199	-2745
xiao❄14쎯guo❃3쎯	-2746
tao❂5쎯	-2747
mu❄22쎯biao❁14쎯	-2748
chu❄36쎯	-2749
ge❄3쎯lei❄16쎯	-2750
,zhong❁4쎯guo❂11쎯	-2751
ying❄7쎯	-2752
lie❄	-2753
dan❄33쎯	-2754
5.	-2755
tui❄5쎯	-2756
lie❄45쎯	-2757
jian❄40쎯	-2758
pao❁5쎯	-2759
2000	-2760
jin❄61쎯ru❄2쎯	-2761
juan❁5쎯	-2762
i❄49쎯	-2763
dian❄23쎯yuan❂34쎯	-2764
jin❁33쎯shu❃5쎯	-2765
cheng❁28쎯hao❂6쎯	-2766
xin❁10쎯de❅2쎯	-2767
zi❁11쎯	-2768
chu❁3쎯de❅2쎯	-2769
li❄62쎯ren❂4쎯	-2770
mu❄9쎯	-2771
xin❁7쎯li❃15쎯	-2772
biao❃5쎯xian❄37쎯	-2773
wei❁10쎯	-2774
wu❃28쎯han❄33쎯	-2775
zhong❃7쎯	-2776
gao❁20쎯su❄70쎯	-2777
lei❄16쎯xing❂9쎯:	-2778
zhu❃14쎯	-2779
jie❃6쎯fang❄0쎯	-2780
pu❃3쎯tong❁5쎯	-2781
hun❁4쎯	-2782
sheng❁16쎯tai❄6쎯	-2783
fu❄2	-2784
pang	-2785
e❂11쎯	-2786
bing❄12쎯du❂17쎯	-2787
nong❂10쎯	-2788
tie❁5쎯	-2789
heng❂14쎯	-2790
tiao❂9쎯jian❄15쎯	-2791
fang❁4쎯bian❄16쎯	-2792
yang❂27쎯	-2793
yang❂35쎯shi❄32쎯	-2794
,ta❁3쎯	-2795
wu❄36쎯li❃15쎯	-2796
,fu❂94쎯	-2797
ling❂99쎯	-2798
chen❂23쎯	-2799
jie❃6쎯jue❂33쎯	-2800
84쎯	-2801
nong❂5쎯cun❁1쎯	-2802
hu❁17쎯	-2803
kun❁9쎯	-2804
mo❄5	-2805
,nan❂6쎯	-2806
jing❄30쎯	-2807
ji❄120쎯	-2808
ren❂1쎯𑈼	-2809
liang❂19쎯:	-2810
di❂17쎯	-2811
,197	-2812
.199	-2813
he❄23쎯	-2814
fa❁1쎯hang❂16쎯	-2815
lou❄9쎯	-2816
zhao❄31쎯	-2817
jian❄72쎯	-2818
ye❃1쎯shi❄45쎯	-2819
sui❁12쎯	-2820
de❅2쎯.	-2821
❂47쎯	-2822
sun❃4쎯	-2823
qin❂29쎯	-2824
zi❁11쎯xun❂42쎯	-2825
quan❂6쎯qiu❂36쎯	-2826
,yong❄3쎯	-2827
miao❄1쎯	-2828
qiao❃3쎯	-2829
le❄5쎯	-2830
ji❄61쎯	-2831
zhi❂16쎯hang❂16쎯	-2832
32	-2833
gang❃4쎯	-2834
bi❃20쎯jiao❄35쎯	-2835
xuan❁9쎯chuan❂4쎯	-2836
❃31쎯	-2837
tai	-2838
miao❂5쎯shu❄47쎯	-2839
jin❁33쎯rong❂50쎯	-2840
li❂32쎯mi❃19쎯	-2841
yin❃31쎯	-2842
gan❁31쎯	-2843
ge❂53쎯	-2844
qu❄11쎯	-2845
tan❂8쎯	-2846
zhi❁27쎯	-2847
gao❁20쎯deng❃2쎯	-2848
mei❂25쎯	-2849
mei❂12쎯ben❄4쎯	-2850
an❁15쎯da❄0쎯	-2851
,jiang❁5쎯	-2852
76쎯	-2853
xian❄37쎯zai❄5쎯	-2854
yuan❄10쎯	-2855
,bei❄48쎯	-2856
fu❃28쎯	-2857
he❂37쎯nan❂6쎯	-2858
zong❄12쎯	-2859
i❃33쎯	-2860
400	-2861
,zong❃5쎯	-2862
qu❁4	-2863
wu❄	-2864
shen❄11쎯	-2865
jia❁13쎯ting❂8쎯	-2866
ji❁34쎯jin❁33쎯	-2867
❃26쎯	-2868
48	-2869
jian❄20쎯	-2870
ting❂5쎯	-2871
dong❃8쎯	-2872
chi❃33쎯	-2873
xuan❂11쎯	-2874
shou❄4쎯dao❄3쎯	-2875
xiao❃2쎯shi❂20쎯	-2876
zhe❂16쎯	-2877
gong❄3쎯tong❂13쎯	-2878
tu❃1쎯de❅0쎯	-2879
hua❁1쎯de❅2쎯	-2880
zhen❁25쎯	-2881
gui❄22쎯	-2882
,xi❁143쎯	-2883
you❁5쎯zhi❄104쎯	-2884
ye	-2885
de❅0쎯li❃15쎯	-2886
yu❂46쎯	-2887
chen❁13쎯	-2888
sou	-2889
mo❄57쎯	-2890
sheng❁16쎯dao❃5쎯	-2891
yi❁10쎯qi❃34쎯	-2892
zuo❄9쎯la❄23쎯	-2893
zhe❃2쎯,	-2894
he❂52쎯	-2895
gang❁7쎯	-2896
bi❄100쎯shu❁8쎯	-2897
nian❂6쎯,	-2898
1gan❄3쎯	-2899
yu❂35쎯199	-2900
xiao❃2쎯zu❃7쎯	-2901
jiao❁20쎯cai❂3쎯	-2902
jie❁23쎯	-2903
mo❂9쎯	-2904
shi❂13쎯ji❄121쎯	-2905
.qi❂29쎯	-2906
zhi❂32쎯gong❁17쎯	-2907
fu❂62쎯	-2908
man❄11쎯	-2909
da❄0쎯li❄58쎯	-2910
zui❄4쎯da❄0쎯de❅2쎯	-2911
ai❁1쎯	-2912
tang❂16쎯	-2913
su❄58쎯	-2914
ji❂67쎯	-2915
ji❂37쎯qi❂29쎯	-2916
》shi❄45쎯	-2917
sheng❁16쎯de❅2쎯	-2918
meng❁3쎯gu❃14쎯	-2919
si❁33쎯	-2920
xian❁39쎯	-2921
chang❂20쎯	-2922
fang❃18쎯	-2923
jin❃31쎯	-2924
75	-2925
que❁0쎯	-2926
shi❂13쎯jian❄72쎯	-2927
jian❁25쎯zhan❃11쎯	-2928
jing❁27쎯li❃15쎯	-2929
bei❁12쎯	-2930
gan❁16쎯bu❄38쎯	-2931
❂59쎯	-2932
cu❄9쎯jin❄61쎯	-2933
kong❁9쎯jian❁85쎯	-2934
zhao❃3쎯	-2935
ying❂45쎯xiao❁61쎯	-2936
bi❄51쎯	-2937
zhu❁8쎯	-2938
cun❂1쎯zai❄5쎯	-2939
chu❁3쎯le❅0쎯	-2940
bing❁5쎯mu❄10쎯	-2941
hua❁1쎯gong❁17쎯	-2942
nu❃1쎯	-2943
shi❂10쎯er❄5쎯	-2944
❂55쎯	-2945
wu❁12쎯	-2946
wu❃11쎯	-2947
jian❁52쎯du❁8쎯	-2948
liang❂19쎯de❅2쎯	-2949
wu❁8쎯	-2950
cheng❂52쎯xu❄36쎯	-2951
xia❄3쎯de❅2쎯	-2952
xu❃19쎯duo❁5쎯	-2953
1-	-2954
shi❄31쎯、	-2955
ben❃5쎯ke❁16쎯	-2956
shi❄45쎯zai❄5쎯	-2957
fa❃2쎯guo❂11쎯	-2958
guan❁4쎯yu❂35쎯	-2959
yue❄2	-2960
,mei❃9쎯	-2961
.198	-2962
wei❄14쎯“	-2963
ci❂22쎯	-2964
ban❁9쎯	-2965
na❂4쎯	-2966
,bei❃2쎯	-2967
bu❂0쎯neng❂2쎯	-2968
yu❂35쎯yi❁10쎯	-2969
yue❄5	-2970
zuo❄5쎯wu❄36쎯	-2971
hu❃8쎯	-2972
chen❂26쎯	-2973
te❄5쎯shu❁26쎯	-2974
bian❄16쎯li❄58쎯	-2975
gu❃63쎯	-2976
gun	-2977
gu❃14쎯dai❄9쎯	-2978
yin❁11쎯wei❄14쎯	-2979
nai❃0쎯	-2980
zui❄4쎯gao❁20쎯	-2981
yu❃41쎯	-2982
de❂9쎯guo❂11쎯	-2983
cong❂5쎯	-2984
luan❃0쎯	-2985
xiao❁29쎯fei❄37쎯	-2986
jian❁17쎯chi❂20쎯	-2987
huan❄19쎯	-2988
chi❄49쎯	-2989
i❂8쎯	-2990
ren❂1쎯jun❁6쎯	-2991
lian❂58쎯	-2992
.ta❁6쎯	-2993
2-	-2994
qian❃5쎯	-2995
6.	-2996
du❄10쎯	-2997
ao❄25쎯	-2998
ing❂7쎯	-2999
38	-3000
hao❂25쎯	-3001
ze❂44쎯ren❂4쎯	-3002
jie❁30쎯dao❄24쎯	-3003
guai❄7쎯	-3004
she❄17쎯	-3005
sha❄6쎯	-3006
liang❂11쎯	-3007
zi❁45쎯liao❄8쎯	-3008
sha❁14쎯	-3009
▁:	-3010
mao❄39쎯yi❄119쎯	-3011
feng❄3쎯	-3012
ci❂20쎯	-3013
1000	-3014
wen❂5쎯ming❂8쎯	-3015
jiang❄22쎯	-3016
wen❁6쎯du❄8쎯	-3017
u❄33쎯	-3018
ying❂59쎯	-3019
xie❄84쎯	-3020
li❂	-3021
yi❁10쎯zhi❂25쎯	-3022
201	-3023
liao❂37쎯ning❂10쎯	-3024
qiang❂2쎯	-3025
ai❂1쎯	-3026
pan❄	-3027
mo❂14쎯	-3028
zhai❂1쎯	-3029
shi❂10쎯fen❁4쎯	-3030
yi❃9쎯	-3031
.gong❁10쎯si❁16쎯	-3032
you❃11쎯xiao❄14쎯	-3033
tao❃3쎯	-3034
da❂14쎯zao❄16쎯	-3035
yue❄56쎯	-3036
qian❂22쎯	-3037
liu❃3쎯	-3038
ji❁64쎯ji❂57쎯	-3039
wang❂0쎯	-3040
dian❄23쎯nao❃16쎯	-3041
pu❃7쎯	-3042
yu❂46쎯le❄3쎯	-3043
cu❁0쎯	-3044
er❂7쎯tong❂36쎯	-3045
jiao❁24쎯	-3046
2012nian❂6쎯	-3047
shi❄71쎯pin❂15쎯	-3048
ye❄65쎯	-3049
zhi❄30쎯du❄8쎯	-3050
rou❂6쎯	-3051
shang❃6쎯	-3052
cheng❂15쎯	-3053
zhen❄16쎯	-3054
▁1	-3055
xian❄22쎯wei❁12쎯	-3056
ming❂7쎯,	-3057
qiong	-3058
zhi❂25쎯jie❁13쎯	-3059
dou❃4쎯zheng❁7쎯	-3060
yuan❂12쎯liao❄8쎯	-3061
an❄28쎯	-3062
ji❁80쎯	-3063
su❄33쎯	-3064
lang❂28쎯	-3065
chuang❄1쎯ban❄4쎯	-3066
cheng❂29쎯dou❁12쎯	-3067
ren❂1쎯da❄0쎯	-3068
can❂17쎯	-3069
guan❄23쎯	-3070
78	-3071
feng❁58쎯jing❃13쎯	-3072
bian❁13쎯ji❂107쎯	-3073
,195	-3074
gou❁10쎯	-3075
she❄23쎯	-3076
ji❁48쎯guan❁4쎯	-3077
ci❂31쎯	-3078
ke❃4쎯neng❂2쎯	-3079
miao❂7쎯	-3080
yuan❂15쎯、	-3081
hui❄27쎯ji❄116쎯	-3082
ba❄11쎯	-3083
an❄15쎯	-3084
ren❄30쎯wei❄14쎯	-3085
min❃13쎯	-3086
ren❄30쎯zheng❄17쎯	-3087
ji❁47쎯jian❁85쎯	-3088
qu❁49쎯	-3089
i❄62쎯	-3090
mang	-3091
mu❄20쎯	-3092
,gu❄12쎯	-3093
neng❂2쎯gou❄10쎯	-3094
bao❄15쎯	-3095
fang❁4쎯an❄16쎯	-3096
pu❃13쎯	-3097
pan❄2쎯	-3098
jing❁30쎯	-3099
kui	-3100
shu❁8쎯·	-3101
zhi❁31쎯ming❂7쎯	-3102
lang❄4쎯	-3103
,wu❂17쎯	-3104
biao❃5쎯mian❄2쎯	-3105
--------	-3106
zi❁45쎯chan❃12쎯	-3107
du❂25쎯te❄5쎯	-3108
qu❃1쎯de❂7쎯	-3109
xun❂11쎯	-3110
bian❄38쎯	-3111
ning❂6쎯	-3112
7.	-3113
huo❄27쎯zhe❃2쎯	-3114
chang❂15쎯wu❄12쎯	-3115
▁3	-3116
bang❁5쎯zhu❄20쎯	-3117
de❅0쎯tu❂14쎯	-3118
suo❃23쎯	-3119
zi❃7쎯,	-3120
qin❂25쎯	-3121
zheng❁37쎯	-3122
zu❃11쎯	-3123
ji❂35쎯ke❃4쎯	-3124
.shi❄45쎯	-3125
de❅2쎯,	-3126
jiang❁16쎯	-3127
yu❃24쎯	-3128
tong❁5쎯chang❂15쎯	-3129
zun❁2쎯	-3130
duo❁5쎯gan❄3쎯	-3131
cui❄3	-3132
lai❂16쎯yuan❂34쎯	-3133
qin❂12쎯	-3134
cheng❂29쎯le❅0쎯	-3135
5-	-3136
di❂40쎯	-3137
fen❁4쎯lei❄16쎯	-3138
mai❃0쎯	-3139
wei❄62쎯	-3140
li❂32쎯mi❃19쎯,	-3141
pin❃0쎯zhi❄104쎯	-3142
mou❂17쎯	-3143
hang❂16쎯wei❄14쎯	-3144
fu❂51쎯	-3145
an❁15쎯gao❄3쎯	-3146
gong❄3쎯you❃11쎯	-3147
mai❄6쎯	-3148
mu❃3쎯	-3149
gu❃42쎯fen❄2쎯	-3150
xi❃11쎯cheng❁10쎯	-3151
qiang❁13쎯	-3152
gong❁17쎯ju❄16쎯	-3153
yu❄40쎯	-3154
he❂	-3155
i❄29쎯	-3156
dou❁12쎯shi❄45쎯	-3157
ou❁8쎯zhou❁11쎯	-3158
qu❁15쎯,	-3159
de❅2쎯sheng❁16쎯	-3160
shu❁44쎯ru❄2쎯	-3161
di❄45쎯si❄17쎯	-3162
fu❄57쎯	-3163
wei❄37쎯	-3164
man❄12쎯	-3165
bai❂2쎯se❄29쎯	-3166
wan❂6쎯shan❄15쎯	-3167
shan❄22쎯	-3168
dian❄18쎯	-3169
de❅2쎯xin❁10쎯	-3170
zhu❄5	-3171
ting❂4쎯	-3172
lv❄20쎯se❄29쎯	-3173
an❁13쎯zhuang❁10쎯	-3174
3-	-3175
su❄70쎯du❄8쎯	-3176
suo❃11쎯zai❄5쎯	-3177
bao❃10쎯	-3178
te❄5쎯zheng❁15쎯	-3179
yuan❂15쎯gong❁17쎯	-3180
(jin❁10쎯	-3181
xun❄28쎯	-3182
sheng❃9쎯ji❂83쎯	-3183
liang❂5쎯	-3184
mi❂38쎯	-3185
❃29쎯	-3186
reng	-3187
)shi❄45쎯	-3188
ying❂45쎯yang❃6쎯	-3189
shu❄26쎯xue❂6쎯	-3190
dian❄23쎯chi❂23쎯	-3191
zou❄2쎯	-3192
tan❃4쎯	-3193
kun❄1쎯	-3194
yun❂4쎯nan❂6쎯	-3195
pin❂12쎯	-3196
yun❃16쎯hang❂16쎯	-3197
tan❂29쎯	-3198
yin❃14쎯qi❃34쎯	-3199
xuan❂15쎯	-3200
49쎯	-3201
de❅0쎯chan❃12쎯	-3202
bo❂41쎯wu❄36쎯	-3203
jie❂67쎯guo❃3쎯	-3204
shi❂20쎯shang❄2쎯	-3205
zhan❄10쎯lve❄11쎯	-3206
nian❂6쎯de❅2쎯	-3207
xin❁17쎯pian❁5쎯	-3208
wu❄36쎯zhi❄104쎯	-3209
shu❁38쎯	-3210
pei❄19쎯tao❄1쎯	-3211
wan❂6쎯quan❂6쎯	-3212
zhe❄14쎯chong❂11쎯	-3213
.you❃11쎯	-3214
she❄29쎯you❃11쎯	-3215
fan❂14쎯	-3216
ai❄2쎯	-3217
xiu❁9쎯xian❂54쎯	-3218
you❄21쎯er❂7쎯	-3219
、gao❁20쎯	-3220
jie❄14쎯ge❂29쎯	-3221
hu❁13쎯	-3222
xiong❁12쎯	-3223
han❄20쎯guo❂11쎯	-3224
gua❄3쎯	-3225
.ta❁3쎯	-3226
xu❁37쎯qiu❂27쎯	-3227
liu❂31쎯	-3228
peng❂11쎯	-3229
gong❁10쎯yuan❂10쎯	-3230
xi❁161쎯	-3231
shen❄17쎯	-3232
,nian❂6쎯	-3233
fu❂36쎯	-3234
pin❄1쎯	-3235
jiao❁8쎯yi❄119쎯	-3236
,,	-3237
rang❃3쎯	-3238
dun❄22쎯	-3239
、da❄0쎯	-3240
bian❄19쎯hua❁1쎯	-3241
gang❁23쎯	-3242
luan❄0쎯	-3243
ban❄11쎯	-3244
dang❁4쎯dai❄9쎯	-3245
sui❄29쎯	-3246
lei❃25쎯	-3247
chu❃9쎯	-3248
shen❁23쎯	-3249
nu❃1쎯li❄59쎯	-3250
▁198	-3251
jian❃36쎯ce❄22쎯	-3252
yong❄3쎯.	-3253
ding❄15쎯	-3254
lian❂69쎯xu❄69쎯	-3255
,tong❂13쎯shi❂20쎯	-3256
la❄28쎯	-3257
shi❄32쎯wei❁12쎯	-3258
xi❃1쎯huan❁7쎯	-3259
wei❂7쎯yi❁10쎯	-3260
,quan❂6쎯	-3261
gui❄41쎯zhou❁9쎯	-3262
reng❂4쎯	-3263
、sheng❁16쎯	-3264
gui❁35쎯fan❄22쎯	-3265
hong❂21쎯	-3266
bu❄38쎯.	-3267
xin❁20쎯	-3268
tu❂28쎯	-3269
chuang❄1쎯zao❄16쎯	-3270
ren❂1쎯lei❄16쎯	-3271
ai❁4쎯	-3272
tui❁1쎯an❁15쎯	-3273
zhuan❁1쎯ji❂107쎯	-3274
xing❄12쎯	-3275
shu❁34쎯	-3276
chuan❂4쎯bo❁10쎯	-3277
600	-3278
bian❄43쎯	-3279
zeng❁2쎯jia❁7쎯	-3280
qiu❁8쎯	-3281
jin❄61쎯bu❄28쎯	-3282
mo❄	-3283
ta❄26쎯	-3284
❂45쎯	-3285
er❂16쎯cheng❂29쎯	-3286
wo❄12쎯	-3287
wu❁17쎯	-3288
zhe❄14쎯xie❁3쎯	-3289
jian❃52쎯dan❁9쎯	-3290
tian❂15쎯	-3291
ren❂4쎯wu❄12쎯	-3292
,gao❁20쎯	-3293
kuo❄15쎯ge❃0쎯	-3294
,dong❁3쎯	-3295
qi❂29쎯ta❁6쎯	-3296
rao❄2쎯	-3297
min❃24쎯	-3298
yi❁10쎯ci❄16쎯	-3299
dun❁2쎯	-3300
33	-3301
yun❃16쎯shu❁44쎯	-3302
fan❄28쎯	-3303
ban❄3쎯	-3304
yi❁10쎯xie❁3쎯	-3305
luo❂18쎯	-3306
you❂26쎯	-3307
mie	-3308
shi❁13쎯gong❁17쎯	-3309
de❅2쎯xiao❃2쎯	-3310
.zhu❃4쎯yao❁17쎯	-3311
lian❂69쎯jie❁13쎯	-3312
1,	-3313
wei❃14쎯	-3314
ang❃9쎯	-3315
chi❄45쎯	-3316
shu❁8쎯ji❄117쎯、	-3317
cheng❁28쎯“	-3318
ruo❄4쎯	-3319
zui❄11쎯	-3320
a❁1쎯	-3321
(19	-3322
chong❂5쎯	-3323
she❂3쎯ma❅1쎯	-3324
ji❂39쎯lin❂19쎯	-3325
shao❃2쎯nian❂6쎯	-3326
zan	-3327
she❄13쎯ying❃11쎯	-3328
na❄11쎯cun❂1쎯	-3329
chu❁3쎯kou❃1쎯	-3330
bu❄38쎯、	-3331
ran❂13쎯	-3332
❁36쎯	-3333
2006nian❂6쎯	-3334
kua❄4쎯	-3335
ran❂12쎯hou❄7쎯	-3336
dang❁4쎯shi❂20쎯	-3337
du❂34쎯zhe❃2쎯	-3338
zheng❄12쎯xie❂14쎯	-3339
che❄20쎯	-3340
ge❁16쎯qu❁25쎯	-3341
xiao❄22쎯	-3342
zhai	-3343
98	-3344
chai	-3345
biao❃5쎯shi❄60쎯	-3346
shi❂20쎯jian❁85쎯:	-3347
li❄59쎯de❅2쎯	-3348
zhong❁4쎯.	-3349
cang❁0쎯	-3350
shu❄26쎯zi❄6쎯	-3351
9.	-3352
yi❃10쎯lai❂16쎯	-3353
han❂37쎯guo❂11쎯	-3354
qu❁15쎯de❅2쎯	-3355
xiang❂6쎯	-3356
4-	-3357
shi❂20쎯hou❄5쎯	-3358
nang	-3359
shen❂2쎯jing❁27쎯	-3360
bai❄15쎯	-3361
fan❃3쎯ying❁17쎯	-3362
zhai❄4쎯	-3363
zhong❁10쎯	-3364
150	-3365
yi❁10쎯ji❂83쎯	-3366
shi❂13쎯yong❄3쎯	-3367
de❅2쎯《	-3368
chi❂13쎯	-3369
qiang❁24쎯	-3370
fu❄24쎯	-3371
ling❂1	-3372
mao❄37쎯	-3373
yi❂58쎯	-3374
nang❂2쎯	-3375
shu❁44쎯chu❁3쎯	-3376
▁2.	-3377
yong❃6쎯	-3378
zhu❃4쎯ren❂4쎯、	-3379
huai❄0쎯	-3380
de❅0쎯zhi❄104쎯	-3381
xi❁143쎯an❁13쎯	-3382
che❁8쎯zhan❄17쎯	-3383
zi❁45쎯jin❁33쎯	-3384
ba❁11쎯	-3385
,ceng❂6쎯	-3386
jing❄11쎯na❄11쎯	-3387
hou❄7쎯de❅2쎯	-3388
gan❁25쎯su❄58쎯	-3389
ji❁48쎯chang❃4쎯	-3390
kao❃10쎯shi❄78쎯	-3391
lu❂23쎯	-3392
hai❂6쎯zi❃7쎯	-3393
dao❄14쎯	-3394
bao❁4쎯zhuang❁10쎯	-3395
min❂22쎯jian❁85쎯	-3396
hen❃2쎯duo❁5쎯	-3397
xing❂7쎯	-3398
shu❄27쎯	-3399
yu❄52쎯	-3400
bai❃9쎯du❄8쎯	-3401
heng❂7쎯	-3402
wen❂5쎯wu❄36쎯	-3403
huan❄18쎯	-3404
zhe❂16쎯xue❂6쎯	-3405
huan❃7쎯	-3406
de❅0쎯.	-3407
》《	-3408
zhuan❄6쎯	-3409
65	-3410
,ju❄16쎯you❃11쎯	-3411
you❃11쎯《	-3412
san❁1쎯gan❄3쎯	-3413
1ri❄2쎯	-3414
yi❄103쎯	-3415
2007nian❂6쎯	-3416
can❁3쎯kao❃10쎯	-3417
jiao❁20쎯shou❄9쎯,	-3418
fou	-3419
huan❂20쎯bao❃9쎯	-3420
fu❄65쎯	-3421
,yi❃10쎯ji❂37쎯	-3422
,jia❁7쎯	-3423
kuai❄18쎯su❄70쎯	-3424
bao❁6쎯	-3425
shu❃12쎯	-3426
li❄59쎯liang❂19쎯	-3427
zuan	-3428
ling❂114쎯	-3429
i❄47쎯	-3430
ken	-3431
lang❃9쎯	-3432
.ci❃2쎯	-3433
shou❃4쎯ji❁48쎯	-3434
shi❄78쎯yan❄75쎯	-3435
23쎯	-3436
bao❃9쎯xian❃46쎯	-3437
hang❂13쎯kong❁9쎯	-3438
jun❄36쎯	-3439
gui❁35쎯ding❄2쎯	-3440
su❄	-3441
nian❂6쎯dai❄9쎯	-3442
ju❁14쎯min❂22쎯	-3443
huai❂8쎯	-3444
shou❁1쎯cang❂5쎯	-3445
bi❄157쎯	-3446
bi❃20쎯sai❄4쎯	-3447
i❃10쎯	-3448
jing❁11쎯	-3449
yi❄68쎯yuan❂10쎯	-3450
shi❂10쎯yi❁10쎯	-3451
you❁5쎯shi❄22쎯	-3452
you❁9쎯	-3453
zong❁10쎯zhi❃20쎯	-3454
an❁15쎯chang❃4쎯	-3455
qian❁39쎯	-3456
nai❃2쎯	-3457
fou❃0쎯	-3458
bu❂0쎯shi❄45쎯	-3459
li❂53쎯	-3460
ju❂23쎯zhang❃6쎯	-3461
de❅0쎯,	-3462
1/	-3463
zhe❄14쎯yi❁10쎯	-3464
jia❁13쎯,	-3465
cheng❂17쎯qu❁15쎯	-3466
mie❄10쎯	-3467
2008nian❂6쎯	-3468
、zhong❁4쎯guo❂11쎯	-3469
bang❁13쎯	-3470
an❁15쎯bo❁10쎯	-3471
niao❄2쎯	-3472
34	-3473
ke❁34쎯	-3474
de❅0쎯de❅2쎯	-3475
tian❁5쎯ran❂12쎯	-3476
jiang❁10쎯xi❁143쎯	-3477
xian❄37쎯wei❄14쎯	-3478
hou❂10쎯	-3479
dian❄19쎯	-3480
qiu❂19쎯dui❄33쎯	-3481
wen❃10쎯ding❄2쎯	-3482
guo❂11쎯min❂22쎯	-3483
chui❂5쎯	-3484
sang❁2쎯	-3485
bu❂0쎯ke❃4쎯	-3486
bo❁13쎯	-3487
gong❄9쎯xian❄35쎯	-3488
fu❂22쎯	-3489
pian❁2쎯	-3490
she❄29쎯li❄141쎯	-3491
zui❄4쎯jia❁5쎯	-3492
fei❄18쎯	-3493
hui❁40쎯	-3494
gen❁1쎯	-3495
li❂98쎯	-3496
▁zai❄5쎯	-3497
lai❂16쎯zi❄16쎯	-3498
niang	-3499
dan❄43쎯bai❂2쎯	-3500
2009nian❂6쎯	-3501
i❄9쎯	-3502
bi❄145쎯	-3503
yi❁10쎯yang❂17쎯	-3504
68	-3505
,gai❁13쎯	-3506
bao❄12쎯	-3507
xue❂6쎯shi❄28쎯	-3508
zha❂8쎯	-3509
ce❄33쎯huo❄50쎯	-3510
kuo❄15쎯yi❂31쎯	-3511
zhi❄56쎯neng❂2쎯	-3512
lian❄27쎯	-3513
ping❂7쎯	-3514
ke❄29쎯ti❂36쎯	-3515
zhuang❄5쎯tai❄6쎯	-3516
xiang❁7쎯	-3517
dai❄9쎯li❃15쎯	-3518
han❂15쎯	-3519
jiao❄18쎯wan❂5쎯	-3520
da❄0쎯,	-3521
cao❂8쎯	-3522
niu❃9쎯	-3523
quan❂6쎯bu❄38쎯	-3524
chang❂15쎯wei❁12쎯	-3525
bei❄21쎯	-3526
ai❄35쎯	-3527
xian❂50쎯	-3528
bo❅	-3529
deng❃2쎯,	-3530
bo❅0쎯	-3531
fang❁2쎯	-3532
dao❄24쎯lu❄70쎯	-3533
sao	-3534
gong❁17쎯shang❁4쎯	-3535
du❄8쎯:	-3536
zhan❄10쎯dou❃4쎯	-3537
zi❄16쎯you❂29쎯	-3538
zai❁4쎯	-3539
37	-3540
feng❁52쎯	-3541
ru❂9쎯guo❃3쎯	-3542
gong❁10쎯si❁16쎯,	-3543
pu❄3쎯	-3544
gun❃8쎯	-3545
lian❄17쎯	-3546
mei❂	-3547
da❂24쎯	-3548
dai❄20쎯	-3549
2.0	-3550
hao❂6쎯:	-3551
hui❄51쎯	-3552
shi❄60쎯fan❄22쎯	-3553
dui❄14쎯yu❂35쎯	-3554
sen❁0쎯lin❂19쎯	-3555
hei❁3쎯long❂63쎯	-3556
bai❄7쎯	-3557
peng❂11쎯you❃9쎯	-3558
shang❁4쎯pin❃0쎯	-3559
chao❁17쎯guo❄2쎯	-3560
nian❂9쎯	-3561
,shu❃5쎯yu❂35쎯	-3562
kuo❄15쎯ying❁17쎯	-3563
yan❁37쎯	-3564
ying❁44쎯cun❄2쎯	-3565
xian❂18쎯	-3566
e❄24쎯	-3567
you❃11쎯de❅2쎯	-3568
800	-3569
bu❄38쎯de❅2쎯	-3570
xun❂16쎯	-3571
ting❂9쎯	-3572
jin❁17쎯	-3573
91쎯	-3574
shua❁1쎯	-3575
,zai❄4쎯	-3576
dao❃5쎯yan❃39쎯	-3577
jue❂33쎯ding❄2쎯	-3578
jie❃6쎯shi❄89쎯	-3579
qun❂6쎯yin❂10쎯	-3580
dang❃2쎯yuan❂15쎯,	-3581
dong❁3쎯xi❁143쎯	-3582
yu❄70쎯mi❃19쎯	-3583
man❃4쎯zu❂11쎯	-3584
da❄0쎯lu❄83쎯	-3585
zhe❃2쎯de❅2쎯	-3586
da❄0쎯xiao❃2쎯	-3587
guo❂11쎯tu❃1쎯	-3588
)de❅2쎯	-3589
shan❁11쎯xi❁143쎯	-3590
tong❃9쎯yi❁10쎯	-3591
dian❄23쎯li❄59쎯	-3592
192	-3593
bai❃6쎯	-3594
yi❁10쎯ding❄2쎯	-3595
fang❃15쎯	-3596
liu❂20쎯hang❂16쎯	-3597
.195	-3598
ming❂8쎯xian❃24쎯	-3599
pin❂15쎯lv❄15쎯	-3600
zhu❃4쎯bian❁13쎯	-3601
ma❃6쎯	-3602
man❄13쎯hua❄18쎯	-3603
jie❂69쎯mu❄22쎯	-3604
jia❁13쎯.	-3605
pen❁1쎯	-3606
,nv❃0쎯	-3607
ding❃12쎯	-3608
64	-3609
95	-3610
,ye❃1쎯shi❄45쎯	-3611
bi❂5쎯	-3612
cai❂9쎯zheng❄12쎯	-3613
yi❄15	-3614
gong❁10쎯gong❄3쎯	-3615
8.	-3616
ban❄4쎯xue❂6쎯	-3617
jing❄19쎯	-3618
qu❁15쎯.	-3619
sui❂9쎯zhao❁6쎯	-3620
bao❃9쎯zhang❄19쎯	-3621
yin❂10쎯duo❁5쎯	-3622
yin❄7쎯du❄8쎯	-3623
gao❁20쎯de❅2쎯	-3624
900	-3625
wai❄0쎯ke❁16쎯	-3626
guo❁22쎯	-3627
shou❄9쎯yu❂34쎯	-3628
i❃3쎯	-3629
dao❄3쎯le❅0쎯	-3630
chuang❁11쎯	-3631
xin❁10쎯jiang❁16쎯	-3632
zhi❁16쎯you❃11쎯	-3633
zan❄17쎯	-3634
、zhong❁4쎯	-3635
ji❄48쎯	-3636
pang❂9쎯	-3637
shen❁5쎯	-3638
fan❄17쎯	-3639
2,	-3640
jian❁25쎯fang❄0쎯	-3641
du❄12쎯	-3642
zheng❃4쎯gan❄3쎯	-3643
,jiao❁8쎯tong❁5쎯	-3644
gan❁7쎯	-3645
,zi❄16쎯	-3646
na❄11쎯zhi❄85쎯	-3647
shan❁11쎯shi❄32쎯	-3648
yi❁13쎯shi❁11쎯	-3649
、shui❃0쎯	-3650
shu❃23쎯	-3651
san❁1쎯shi❂10쎯	-3652
gan❁19쎯	-3653
shan❄22쎯zhang❃6쎯	-3654
...	-3655
ji❄94쎯nian❄4쎯	-3656
fa❂19쎯	-3657
▁gong❁10쎯si❁16쎯	-3658
xian❄51쎯	-3659
you❂25쎯ji❁22쎯	-3660
xun❄25쎯lian❄22쎯	-3661
zhe❃2쎯.	-3662
tong❃9쎯ji❄116쎯	-3663
》juan❃1쎯	-3664
pi❂17쎯fu❁39쎯	-3665
kuo❄17쎯	-3666
hang❂8쎯zhou❁9쎯	-3667
wu❄44쎯	-3668
fei❄34쎯	-3669
huo❄	-3670
zai❁1쎯	-3671
,rang❄3쎯	-3672
jian❄56쎯	-3673
bao❃9쎯chi❂20쎯	-3674
qian❂8쎯shen❁40쎯	-3675
xie❂47쎯	-3676
yu❄28쎯	-3677
1.5	-3678
da❄0쎯hui❄27쎯	-3679
shan❃12쎯xi❁143쎯	-3680
suan❄4쎯	-3681
jing❁27쎯dian❃5쎯	-3682
fa❁1쎯bu❄23쎯	-3683
cun❂1쎯chu❃3쎯	-3684
gao❁20쎯zhong❁4쎯	-3685
mo❄16쎯yuan❂10쎯,	-3686
2005nian❂6쎯	-3687
huang❂56쎯se❄29쎯	-3688
kuo❄15쎯liang❂19쎯	-3689
xian❃24쎯ka❃1쎯	-3690
qing❁20쎯dao❃7쎯	-3691
ru❂9쎯he❂22쎯	-3692
yin❁11쎯ci❃2쎯	-3693
yi❃10쎯xia❄3쎯	-3694
jiang❃19쎯shu❄47쎯	-3695
shao❄5쎯	-3696
quan❄1쎯	-3697
qi❃12쎯qiu❁9쎯.	-3698
chang❄9쎯	-3699
bao❃9쎯jian❄17쎯	-3700
ji❄59쎯neng❂2쎯	-3701
yi❄159쎯	-3702
an❄25쎯	-3703
qi❃25쎯wen❁6쎯	-3704
mei❃13쎯li❄50쎯	-3705
ban❄4쎯shi❄18쎯	-3706
❃20쎯	-3707
an❄14쎯zhao❄18쎯	-3708
miao❄0쎯	-3709
zhu❃4쎯ren❂4쎯,	-3710
bian❁13쎯xie❃4쎯	-3711
ce❄33쎯yu❄105쎯	-3712
zu❃7쎯ge❃0쎯	-3713
sheng❁16쎯.	-3714
luo❁4쎯si❁24쎯	-3715
zha❁9쎯	-3716
da❁17쎯	-3717
gong❁10쎯an❁13쎯	-3718
tong❁5쎯xin❄8쎯	-3719
ju❃4쎯ban❄4쎯	-3720
bu❃9쎯	-3721
hui❄27쎯fu❄28쎯	-3722
gu❄23쎯wen❄6쎯	-3723
xiang❃3쎯shou❄4쎯	-3724
ou❃3쎯	-3725
pu❂20쎯	-3726
kao❃6쎯	-3727
li❄60쎯	-3728
yi❂61쎯dong❄13쎯	-3729
』『	-3730
gan❃6쎯ran❃11쎯	-3731
sui❄4	-3732
fu❂94쎯you❃11쎯	-3733
jun❁2쎯shi❄18쎯	-3734
,ju❄65쎯	-3735
cheng❂52쎯shi❁11쎯	-3736
shui❃0쎯liang❂19쎯	-3737
se❄29쎯cai❃4쎯	-3738
cao❂10쎯	-3739
bing❃9쎯	-3740
,ren❂4쎯	-3741
fu❂43쎯wu❄12쎯.	-3742
lian❄8쎯	-3743
diao❄17쎯cha❂17쎯	-3744
tu❂25쎯	-3745
bo❁13쎯li❂53쎯	-3746
luo❂15쎯	-3747
u❄21쎯	-3748
de❅2쎯cheng❂29쎯	-3749
gui❃37쎯	-3750
sheng❁13쎯	-3751
zhuo❂8쎯	-3752
xia❂13쎯	-3753
nuan	-3754
):	-3755
hu❄26쎯,	-3756
zhao❂쎯zuo❄5쎯	-3757
.193	-3758
cai❂7쎯	-3759
ce❄26쎯hua❂11쎯	-3760
fang❁9쎯	-3761
xiao❄12쎯	-3762
deng❃2쎯zhi❂32쎯	-3763
she❄29쎯zhi❄85쎯	-3764
xiong❁2쎯	-3765
gu❁25쎯	-3766
i❁6쎯	-3767
wei❃	-3768
ji❁48쎯、	-3769
yun❃16쎯ying❂45쎯	-3770
cheng❂52쎯du❄8쎯	-3771
beng	-3772
yu❄115쎯	-3773
wen❂5쎯zi❄6쎯	-3774
yan❂72쎯se❄29쎯	-3775
dang❃2쎯jiao❄18쎯	-3776
,194	-3777
pi❂11쎯	-3778
nuan❃2쎯	-3779
zang❄4쎯	-3780
zhi❁13쎯hou❄7쎯	-3781
you❄13쎯cheng❁28쎯	-3782
dong❃8쎯shi❄18쎯	-3783
zhe❄14쎯li❃26쎯	-3784
.194	-3785
han❂25쎯	-3786
bi❄61쎯xu❁39쎯	-3787
tai❁4쎯	-3788
120	-3789
wu❄36쎯liu❂20쎯	-3790
tong❂13쎯nian❂6쎯	-3791
2gan❄3쎯	-3792
de❅2쎯nv❃0쎯	-3793
yun❄27쎯	-3794
ping❂10쎯	-3795
yao❁15쎯	-3796
teng❂13쎯	-3797
zu❁0쎯	-3798
yue❄21쎯	-3799
,ke❃4쎯yi❃10쎯	-3800
.196	-3801
yu❄35쎯	-3802
,yuan❂12쎯	-3803
fa❃2쎯gui❁35쎯	-3804
gui❁35쎯ge❂29쎯	-3805
2004nian❂6쎯	-3806
fei❁12쎯	-3807
yi❄109쎯cha❁3쎯	-3808
yuan❂17쎯xing❂11쎯	-3809
xia❁10쎯	-3810
bu❄38쎯dui❄33쎯	-3811
qiao❂5쎯	-3812
da❄0쎯liang❂19쎯	-3813
nian❂6쎯lai❂16쎯	-3814
xie❂27쎯	-3815
yuan❄18쎯jiao❄18쎯	-3816
chou❂29쎯	-3817
yong❄3쎯de❅2쎯	-3818
.hou❄7쎯	-3819
hong❂44쎯se❄29쎯	-3820
wen❂5쎯yi❄190쎯	-3821
zhu❃4쎯guan❃9쎯	-3822
su❄56쎯zhi❄104쎯	-3823
tan❄9쎯	-3824
1)	-3825
he❄23쎯se❄29쎯	-3826
tu❁14쎯chu❁3쎯	-3827
jing❃13쎯guan❁16쎯	-3828
zhang❃6쎯de❅2쎯	-3829
lan❂25쎯	-3830
ge❂52쎯	-3831
xi❁124쎯	-3832
fu❄67쎯	-3833
xiang❁9쎯dui❄14쎯	-3834
wan❂3쎯	-3835
hao❄35쎯	-3836
6-	-3837
hao❂14쎯mi❃19쎯,	-3838
、shi❄32쎯	-3839
mei❄5쎯	-3840
》shi❁33쎯	-3841
ying❂58쎯	-3842
fang❃6쎯	-3843
,huo❄27쎯	-3844
kai❃2쎯	-3845
ce❄22쎯shi❄78쎯	-3846
zhuan❁1쎯men❂19쎯	-3847
gui❃35쎯	-3848
,geng❁6쎯	-3849
ti❄21쎯	-3850
nen	-3851
.197	-3852
ling❂95쎯	-3853
shao❁11쎯	-3854
cu❄10쎯	-3855
gong❁11쎯lv❄15쎯	-3856
le❅0쎯jie❃6쎯	-3857
xu❄68쎯	-3858
di❄45쎯wu❃9쎯	-3859
ju❁14쎯zhu❄19쎯	-3860
,xia❄3쎯	-3861
bao❃9쎯zheng❄17쎯	-3862
hei❁3쎯se❄29쎯	-3863
cheng❂30쎯dan❁15쎯	-3864
lv❄12쎯	-3865
xue❂6쎯、	-3866
sheng❁16쎯ming❄1쎯	-3867
lin❂20쎯	-3868
chou❁5쎯	-3869
ku❄18쎯	-3870
ai❂12쎯	-3871
jin❁24쎯	-3872
er❄5쎯ji❂83쎯	-3873
you❃11쎯ji❁48쎯	-3874
qi❂117쎯quan❂6쎯	-3875
biao❃5쎯yan❃39쎯	-3876
shang❃1쎯shi❄32쎯	-3877
nen❄4쎯	-3878
meng❄7쎯	-3879
qing❁1쎯	-3880
jie❃1쎯	-3881
ban❄13쎯	-3882
❁41쎯	-3883
zhu❄59쎯	-3884
sou❁9쎯	-3885
qie❁1쎯cheng❂29쎯	-3886
,《	-3887
zhen❄31쎯	-3888
de❅0쎯zhen❄33쎯	-3889
ge❁16쎯shou❃4쎯	-3890
yuan❂12쎯li❃15쎯	-3891
zi❃7쎯.	-3892
shuo❁2쎯ming❂8쎯	-3893
min❂22쎯guo❂11쎯	-3894
tao❂13쎯	-3895
suo❃11쎯shu❃5쎯	-3896
55	-3897
mo❄75쎯	-3898
0nian❂6쎯dai❄9쎯	-3899
e❄27쎯	-3900
zi❁45쎯ben❃5쎯	-3901
de❅0쎯zhi❃13쎯	-3902
pu❂20쎯tao❂13쎯	-3903
zhu❄19쎯zhai❂1쎯	-3904
cai❂9쎯wu❄12쎯	-3905
dong❄13쎯hua❄18쎯	-3906
dan❄38쎯you❂24쎯	-3907
i❄13쎯	-3908
qi❁15쎯	-3909
▁chan❃12쎯pin❃0쎯	-3910
xiang❂11쎯xi❄50쎯	-3911
,huo❄50쎯	-3912
mao❄32쎯	-3913
pen❂2쎯	-3914
sui❄42쎯	-3915
9-	-3916
jiang❁11쎯	-3917
fen❁4쎯bian❄38쎯	-3918
7-	-3919
mi❃19쎯de❅2쎯	-3920
,“	-3921
di❄45쎯shi❂10쎯	-3922
yan❂50쎯zhi❄30쎯	-3923
chong❁9쎯fen❁4쎯	-3924
,jiu❄23쎯	-3925
tui❃7쎯	-3926
de❅2쎯zhu❃4쎯	-3927
2)	-3928
guo❂11쎯wu❄12쎯	-3929
ji❄117쎯lu❄35쎯	-3930
qin❁5쎯	-3931
hu❄14쎯lian❂53쎯	-3932
gu❄7쎯ding❄2쎯	-3933
kong❃2쎯	-3934
de❅0쎯xia❄3쎯	-3935
ye❃1쎯.”	-3936
ben❃3쎯	-3937
▁4	-3938
zhong❄3쎯	-3939
xian❁39쎯wei❂38쎯	-3940
he❄27쎯	-3941
zui❄4쎯hou❄7쎯	-3942
yi❂20쎯qi❄20쎯	-3943
jing❃27쎯	-3944
i❄55쎯	-3945
di❄51쎯	-3946
chun❂23쎯	-3947
zhi❁13쎯yi❁10쎯,	-3948
ren❂4쎯he❂22쎯	-3949
dong❁3쎯fang❁4쎯	-3950
tong❁5쎯xun❄26쎯	-3951
su❄67쎯	-3952
guan❁5쎯jun❁2쎯	-3953
.ben❃5쎯	-3954
hua❁11쎯wan❂5쎯	-3955
mian❂13쎯	-3956
gai❄11쎯nian❄4쎯	-3957
san❁1쎯nian❂6쎯	-3958
ji❂114쎯cheng❂29쎯	-3959
pai❁0쎯she❄13쎯	-3960
ai❄26쎯qing❂6쎯	-3961
tai❄3쎯yang❂35쎯	-3962
you❁11쎯	-3963
yun❃16쎯yong❄3쎯	-3964
2003nian❂6쎯	-3965
ha❁0쎯er❃6쎯	-3966
2002nian❂6쎯	-3967
xiang❁9쎯dang❁4쎯	-3968
jie❂40쎯	-3969
zuan❁4쎯	-3970
ti❂17쎯chu❁3쎯	-3971
mei❂16쎯	-3972
dong❄22쎯	-3973
dang❁4쎯de❅0쎯	-3974
xian❄63쎯	-3975
zhi❁44쎯	-3976
wu❂17쎯xian❄47쎯	-3977
shui❃0쎯,	-3978
tan❁12쎯	-3979
hua❁1쎯、	-3980
xiao❃2쎯qu❁15쎯	-3981
dai❄35쎯	-3982
zui❄4쎯zao❃2쎯	-3983
ren❂1쎯、	-3984
bo❂	-3985
han❄33쎯zu❂9쎯,	-3986
lu❂10쎯	-3987
3gan❄3쎯	-3988
ri❄2쎯ji❁47쎯	-3989
tai❄3쎯ping❂17쎯	-3990
39	-3991
gao❁20쎯xin❁10쎯	-3992
08쎯	-3993
▁1.	-3994
ren❂1쎯shu❄26쎯	-3995
chui	-3996
ying❃11쎯shi❄71쎯	-3997
shen❁18쎯ru❄2쎯	-3998
shi❄18쎯jian❄15쎯	-3999
na❄11쎯de❅2쎯	-4000
,suo❃11쎯yi❃10쎯	-4001
zhi❄30쎯pin❃0쎯	-4002
,yu❂35쎯	-4003
bu❂0쎯fu❄23쎯	-4004
xun❂14쎯	-4005
fu❄74쎯jin❄60쎯	-4006
,duo❁5쎯	-4007
ying❄9쎯pan❂10쎯	-4008
mei❃13쎯de❅2쎯	-4009
44	-4010
66	-4011
xi❁113쎯	-4012
ce❄22쎯liang❂19쎯	-4013
chan❃12쎯、	-4014
▁chu❁3쎯	-4015
shan❁11쎯qu❁15쎯.	-4016
chu❄29쎯	-4017
miao❃6쎯	-4018
jian❃	-4019
,shang❃1쎯	-4020
zhan❃11쎯shi❄60쎯	-4021
xiao❃3쎯	-4022
dian❄23쎯hua❄26쎯	-4023
guan❃9쎯li❃15쎯、	-4024
,sheng❁16쎯	-4025
ming❂26쎯	-4026
zheng❃4쎯ben❄4쎯	-4027
fu❂43쎯zhuang❁10쎯	-4028
fu❂38쎯	-4029
hui❃	-4030
》de❅2쎯	-4031
yi❄104쎯	-4032
qiu❂19쎯ben❄4쎯	-4033
zao❁7쎯	-4034
❁46쎯	-4035
jin❄38쎯	-4036
ju❄16쎯ben❄4쎯	-4037
mu❃2쎯.	-4038
、、	-4039
,zhong❁4쎯	-4040
yang❃14쎯hua❁1쎯	-4041
da❄0쎯dao❄24쎯	-4042
jian❃36쎯cha❂17쎯	-4043
xue❂6쎯zhe❃2쎯	-4044
hui❄27쎯yuan❂15쎯,	-4045
lian❂53쎯xi❄46쎯	-4046
mian❃10쎯fei❄37쎯	-4047
wen❂5쎯zhang❁13쎯	-4048
po❄12쎯	-4049
,bao❁4쎯gua❁11쎯	-4050
,xing❂11쎯	-4051
tian❁7쎯	-4052
fu❂94쎯shi❄45쎯	-4053
ji❃22쎯	-4054
❄37쎯	-4055
2000nian❂6쎯	-4056
yu❂37쎯pian❁7쎯	-4057
zui❄4쎯xin❁10쎯	-4058
dui❄14쎯xiang❄20쎯	-4059
xi❁113쎯sheng❁13쎯	-4060
xuan❂9쎯	-4061
yuan❂12쎯ze❂11쎯	-4062
jia❁10쎯	-4063
jiao❁41쎯	-4064
kong❁9쎯qi❃25쎯	-4065
mu❄22쎯de❅2쎯	-4066
ge❂29쎯shi❄33쎯	-4067
xin❄8쎯hao❂6쎯	-4068
2013nian❂6쎯	-4069
zhu❃4쎯ren❂4쎯.	-4070
lian❂30쎯	-4071
71쎯	-4072
ren❂4쎯jiao❁20쎯	-4073
jian❁44쎯	-4074
mei❃13쎯rong❂21쎯	-4075
chuan❂4쎯》:“	-4076
duo❁5쎯de❅2쎯	-4077
yi❁10쎯bu❄28쎯	-4078
quan❂10쎯	-4079
▁yong❄3쎯	-4080
dan❄27쎯	-4081
❃30쎯	-4082
qi❂104쎯	-4083
shi❄45쎯yi❃10쎯	-4084
gai❃2쎯bian❄19쎯	-4085
gao❁20쎯jiao❄18쎯	-4086
shou❁1쎯lu❄35쎯	-4087
nan❂6쎯bei❃2쎯	-4088
ti❂17쎯sheng❁3쎯	-4089
▁ben❃5쎯	-4090
yao❄12쎯wu❄36쎯	-4091
yi❄183쎯	-4092
zhi❁21쎯bu❄38쎯	-4093
gu❁4쎯	-4094
you❂16쎯qi❂29쎯	-4095
ge❃0쎯li❃15쎯	-4096
shu❁40쎯	-4097
xing❂9쎯de❅2쎯	-4098
zhen❁52쎯dui❄14쎯	-4099
chong❂17쎯da❄0쎯	-4100
zhou❁5쎯bian❁16쎯	-4101
190	-4102
ya❁7쎯li❄59쎯	-4103
gong❁23쎯ji❁22쎯	-4104
chen❂15쎯	-4105
1998nian❂6쎯	-4106
an❁18쎯	-4107
ping❂25쎯	-4108
bo❁10쎯fang❄0쎯	-4109
xing❄13쎯、	-4110
cheng❂29쎯shou❂쎯	-4111
xi❁107쎯	-4112
wan❃26쎯	-4113
shi❄18쎯wu❄12쎯	-4114
da❁12쎯	-4115
jiang❁5쎯jun❁2쎯	-4116
yan❃39쎯yuan❂15쎯	-4117
li❃15쎯xiang❃6쎯	-4118
yang❃6쎯zhi❂22쎯	-4119
tan❂20쎯	-4120
gong❁10쎯si❁16쎯.	-4121
tiao❄6쎯	-4122
ye❃1쎯you❃11쎯	-4123
xiang❄4쎯su❄56쎯	-4124
hai❃1쎯yang❂19쎯	-4125
,jing❁27쎯	-4126
hu❄	-4127
duo❂3쎯	-4128
ye❃2쎯	-4129
,gong❁10쎯si❁16쎯	-4130
wo❄16쎯	-4131
ke❁16쎯、	-4132
ya❄7쎯zhou❁11쎯	-4133
.xian❄37쎯ren❂4쎯	-4134
la❄20쎯	-4135
fan❁11쎯	-4136
,zhang❃6쎯	-4137
.ceng❂6쎯	-4138
》zhong❁4쎯	-4139
tu❂14쎯pian❁5쎯	-4140
i❄20쎯	-4141
li❄15	-4142
shou❃4쎯shu❂7쎯	-4143
zhong❃7쎯liu❂31쎯	-4144
dong❄13쎯li❄59쎯	-4145
tian❁5쎯xia❄3쎯	-4146
1984nian❂6쎯	-4147
ji❄95쎯xu❄69쎯	-4148
lai❄19쎯	-4149
、xin❁10쎯	-4150
tiao❁4쎯	-4151
gou❄26쎯wu❄36쎯	-4152
yuan❂10쎯su❄56쎯	-4153
(18	-4154
zi❁45쎯ge❂29쎯	-4155
da❄0쎯zhuan❁1쎯	-4156
sui❁12쎯ran❂12쎯	-4157
yao❂55쎯	-4158
chu❄17쎯,	-4159
yan❃39쎯chang❄2쎯	-4160
su❁10쎯zhou❁9쎯	-4161
yu❂66쎯	-4162
bing❃15쎯	-4163
lv❃30쎯	-4164
ban❄4쎯li❃15쎯	-4165
wai❄0쎯,	-4166
jing❄30쎯zheng❁7쎯	-4167
bao❄10쎯gao❄3쎯	-4168
de❅0쎯qiu❂36쎯	-4169
wei❂38쎯hu❄30쎯	-4170
zhe❄14쎯yang❂17쎯	-4171
yue❄56쎯du❂34쎯	-4172
33쎯	-4173
yi❃2	-4174
po❁12쎯	-4175
dun❁9쎯	-4176
shen❁40쎯ben❄4쎯	-4177
zhi❃19쎯hui❁15쎯	-4178
1985nian❂6쎯	-4179
chong❂11쎯.	-4180
de❅0쎯wei❄15쎯	-4181
85	-4182
diao❄17쎯zheng❃4쎯	-4183
wan❂12쎯jia❁13쎯	-4184
yin❁44쎯pin❂15쎯	-4185
yu❄54쎯	-4186
shao❃2쎯xu❃19쎯	-4187
ren❂1쎯shi❄28쎯	-4188
na❄11쎯bu❄38쎯	-4189
,er❂16쎯qie❃쎯	-4190
xie❃8쎯guan❃9쎯	-4191
,tong❁5쎯guo❄2쎯	-4192
jie❁32쎯duan❄7쎯	-4193
yi❂79쎯zhi❃13쎯	-4194
cui❄30쎯	-4195
jing❄46쎯	-4196
dui❄33쎯wu❃11쎯	-4197
te❄5쎯xing❄13쎯	-4198
qi❄23쎯	-4199
ai❄1쎯	-4200
ji❄72쎯nan❂6쎯	-4201
chuang❄1쎯li❄141쎯	-4202
she❄29쎯ji❄116쎯、	-4203
4gan❄3쎯	-4204
fan❃3쎯ying❄7쎯	-4205
le❅0쎯.	-4206
you❃11쎯zhao❁6쎯	-4207
ai❄6쎯	-4208
zhua❁0쎯	-4209
zhang❃2쎯wo❄12쎯	-4210
lin❂51쎯	-4211
qi❂48쎯	-4212
zhen❃27쎯duan❄4쎯	-4213
0.0	-4214
xi❁65쎯wang❄4쎯	-4215
bian❃4쎯	-4216
yuan❂26쎯	-4217
deng❃2쎯nong❂5쎯	-4218
liang❄10쎯	-4219
jie❁13쎯shou❄4쎯	-4220
.“	-4221
yi❁13쎯yao❄12쎯	-4222
8-	-4223
yi❁10쎯nian❂6쎯	-4224
gong❁9쎯ying❁17쎯	-4225
mi❄45쎯	-4226
dian❄23쎯qi❄20쎯	-4227
li❃15쎯gong❁17쎯	-4228
dui❁14쎯qiu❂27쎯	-4229
zhi❄30쎯ding❄2쎯	-4230
ju❄45쎯	-4231
san❁1쎯jiao❃57쎯	-4232
%,	-4233
kang❄5쎯ri❄2쎯	-4234
2001nian❂6쎯	-4235
jiao❁20쎯yan❂50쎯	-4236
wai❄0쎯xing❂11쎯	-4237
nian❂6쎯qing❁16쎯	-4238
❄32쎯	-4239
yi❄109쎯si❁22쎯	-4240
ya❁23쎯	-4241
shan❃11쎯	-4242
qi❃34쎯lai❂16쎯	-4243
、xiao❃2쎯	-4244
jia❄9쎯	-4245
nian❂6쎯jian❁85쎯	-4246
chao❁6쎯	-4247
(),	-4248
cui❁16쎯	-4249
ke❄14쎯fang❂2쎯	-4250
2.5	-4251
fu❄57쎯gai❄17쎯	-4252
xian❂27쎯	-4253
deng❃2쎯ji❂83쎯	-4254
:1	-4255
,yin❁11쎯ci❃2쎯	-4256
ye❃1쎯.	-4257
yi❃10쎯lai❂16쎯,	-4258
qi❁22쎯	-4259
bu❄38쎯zhang❃6쎯	-4260
ti❁6쎯	-4261
hui❁13쎯	-4262
zhuan❁1쎯ke❁16쎯	-4263
zhai❁3쎯	-4264
.quan❂6쎯	-4265
hao❂14쎯mi❃19쎯	-4266
i❃17쎯	-4267
chuang❄1쎯qiu❁9쎯	-4268
jia❁13쎯、	-4269
you❄13쎯ming❂7쎯	-4270
1997nian❂6쎯	-4271
zheng❄12쎯cun❁1쎯,	-4272
》shi❁33쎯:“	-4273
tan❄8쎯	-4274
fei❄27쎯	-4275
zao❃3쎯	-4276
i❁9쎯	-4277
ju❃4쎯hang❂16쎯	-4278
lv❃7쎯	-4279
zhi❂25쎯jing❄17쎯	-4280
yan❃39쎯chu❁3쎯	-4281
mian❄2쎯de❅2쎯	-4282
《zhong❁4쎯guo❂11쎯	-4283
zhao❁4쎯	-4284
jia❁7쎯jiang❄9쎯	-4285
cheng❂29쎯ji❁74쎯	-4286
zao❄6쎯	-4287
chan❂33쎯	-4288
zhuan❁6쎯	-4289
xiu❄19쎯	-4290
zhan❃11쎯lan❃28쎯	-4291
ni❃6쎯de❅2쎯	-4292
▁2、	-4293
mian❂22쎯	-4294
pi❂11쎯lin❂43쎯	-4295
gao❃12쎯	-4296
hun❂21쎯	-4297
zui❃0쎯	-4298
hong❂	-4299
jun❁6쎯jun❁3쎯	-4300
ge❃0쎯bing❁6쎯	-4301
jiao❃57쎯se❄29쎯	-4302
da❄0쎯sai❄4쎯	-4303
xia❂45쎯	-4304
、bai❂2쎯	-4305
you❁5쎯yue❄46쎯	-4306
zi❃7쎯de❅2쎯	-4307
zhou❂3쎯cheng❂30쎯	-4308
cha❁5쎯	-4309
wan❁7쎯	-4310
38쎯	-4311
96쎯	-4312
lu❄91쎯	-4313
diao❄8쎯	-4314
na❄11쎯wai❄0쎯	-4315
chan❃	-4316
chuan❂4쎯shuo❁2쎯	-4317
nan❂14쎯,	-4318
pa❄0쎯	-4319
ma❁0쎯	-4320
shi❂13쎯li❄59쎯	-4321
shen❄11쎯zhi❄88쎯	-4322
zai❁1쎯pei❂3쎯	-4323
xun❄28쎯su❄70쎯	-4324
jin❁26쎯	-4325
▁.	-4326
zhang❃6쎯sha❁10쎯	-4327
wu❂11쎯	-4328
ping❂36쎯jie❄14쎯	-4329
46	-4330
lan❄	-4331
ji❁47쎯kan❁3쎯	-4332
yuan❄14쎯	-4333
bei❁15쎯jing❃13쎯	-4334
fan❃4쎯	-4335
1996nian❂6쎯	-4336
11쎯	-4337
gu❁11쎯	-4338
luo❂15쎯bo❅0쎯	-4339
zu❃7쎯jian❄29쎯	-4340
yue❄48쎯	-4341
zhan❄10쎯shi❄28쎯	-4342
hong❂44쎯jun❁2쎯	-4343
ying❁44쎯xiong❂2쎯	-4344
sheng❃9쎯wei❁12쎯	-4345
yuan❂53쎯	-4346
(,	-4347
fu❄41쎯qin❁4쎯	-4348
10-	-4349
hun❂11쎯ge❃0쎯	-4350
huan❁7쎯ying❂59쎯	-4351
chi❂20쎯xu❄69쎯	-4352
47	-4353
wang❄3쎯	-4354
she❄17쎯ji❂37쎯	-4355
pin❁3쎯	-4356
qu❁15쎯、	-4357
ni❂10쎯ya❄7쎯	-4358
cuo❄7쎯	-4359
gong❁10쎯si❁16쎯、	-4360
che❃7쎯cun❄2쎯:	-4361
bi❄98쎯	-4362
han❄43쎯	-4363
1987nian❂6쎯	-4364
wei❄18쎯jing❁24쎯	-4365
86	-4366
shan❁11쎯shui❃0쎯	-4367
cheng❂29쎯ben❃5쎯	-4368
can❁13쎯yin❃37쎯	-4369
zao❄16쎯xing❂9쎯	-4370
1995nian❂6쎯	-4371
shi❂10쎯wu❃9쎯	-4372
niang❂0쎯	-4373
(-	-4374
:《	-4375
dao❃20쎯	-4376
xing❄13쎯.	-4377
ben❁2쎯	-4378
ji❄83쎯	-4379
de❅2쎯zhong❁4쎯	-4380
cang❁14쎯	-4381
guan❄12쎯	-4382
guan❄33쎯che❄20쎯	-4383
min❂22쎯zhu❃4쎯	-4384
zun❁7쎯	-4385
yu❄42쎯	-4386
jiang❃8쎯.	-4387
fa❁1쎯zhan❃11쎯,	-4388
su❄30쎯liao❄8쎯	-4389
ci❂15쎯	-4390
25쎯	-4391
》deng❃2쎯.	-4392
wei❂38쎯xiu❁11쎯	-4393
▁3.	-4394
que❄26쎯ding❄2쎯	-4395
1988nian❂6쎯	-4396
jiao❃22쎯	-4397
,ze❂11쎯	-4398
1993nian❂6쎯	-4399
shu❁8쎯.	-4400
chuan❂4쎯shu❁44쎯	-4401
yao❂32쎯	-4402
1986nian❂6쎯	-4403
yao❂43쎯	-4404
xi❄33쎯ju❄18쎯	-4405
seng	-4406
1999nian❂6쎯	-4407
sha❄6쎯men❂19쎯	-4408
yi❁10쎯liu❂20쎯	-4409
shui❃0쎯li❄58쎯	-4410
1.0	-4411
ju❂23쎯fu❄28쎯	-4412
xing❄13쎯han❄20쎯	-4413
tian❂8쎯	-4414
ji❂114쎯zhong❁4쎯	-4415
seng❁1쎯	-4416
ben❄4쎯,	-4417
ban❄4쎯fa❃2쎯	-4418
fu❃16쎯	-4419
jian❁67쎯	-4420
xing❄13쎯zhi❄104쎯	-4421
yao❁19쎯	-4422
xie❂49쎯	-4423
250	-4424
he❄35쎯	-4425
fen❁17쎯	-4426
yang❂35쎯xian❄22쎯	-4427
gong❁10쎯jin❁17쎯	-4428
chang❃4쎯suo❃11쎯	-4429
yu❄126쎯fang❂4쎯	-4430
gong❁11쎯xiao❄14쎯	-4431
dou❁12쎯you❃11쎯	-4432
hong❂67쎯	-4433
shan❁13쎯	-4434
.wei❄14쎯	-4435
99	-4436
zeng❄6쎯	-4437
wan❂6쎯zheng❃4쎯	-4438
mao❁0쎯	-4439
jie❁15쎯	-4440
huang❁9쎯	-4441
jian❃36쎯yan❄75쎯	-4442
1992nian❂6쎯	-4443
lan❂36쎯	-4444
she❄13쎯xiang❄4쎯	-4445
i❄10쎯	-4446
teng❂14쎯	-4447
qing❃10쎯	-4448
chan❃12쎯de❅2쎯	-4449
,dang❁4쎯	-4450
zhuan❁1쎯li❄58쎯	-4451
cai❄6쎯	-4452
pi❁12쎯	-4453
sui❄33쎯	-4454
wang❃14쎯ka❃1쎯	-4455
ren❂1쎯ben❄4쎯	-4456
▁zhong❁4쎯wen❂5쎯	-4457
guan❁4쎯zhu❄31쎯	-4458
zhu❄31쎯yi❄109쎯	-4459
dao❄11쎯	-4460
zhu❂24쎯jian❄40쎯	-4461
die❂	-4462
wu❃15쎯	-4463
fu❂41쎯	-4464
,neng❂2쎯	-4465
▁zhu❃4쎯	-4466
qi❃25쎯hou❄5쎯	-4467
jing❁24쎯pin❃0쎯	-4468
.dan❄10쎯	-4469
ming❂7쎯zi❄6쎯	-4470
pei❄5쎯	-4471
huo❄61쎯	-4472
tou❂5쎯ru❄2쎯	-4473
xiang❁9쎯tong❂13쎯	-4474
,ci❃2쎯	-4475
zhong❁4쎯shan❁11쎯	-4476
kan❁3쎯wu❄36쎯	-4477
quan❂6쎯xian❄22쎯	-4478
.00	-4479
hu❄46쎯	-4480
xie❂14쎯diao❄17쎯	-4481
pao❃0쎯	-4482
shu❁40쎯cai❄5쎯	-4483
jiu❁19쎯	-4484
wan❂5쎯lin❂19쎯	-4485
yuan❂12쎯yin❁11쎯	-4486
jian❃48쎯	-4487
sao❃3쎯	-4488
feng❄7쎯	-4489
,zhi❁16쎯	-4490
die❂19쎯	-4491
ying❃24쎯	-4492
lin❂19쎯qiu❁9쎯	-4493
she❂11쎯	-4494
zhou❁5쎯wei❂11쎯	-4495
ken❃6쎯	-4496
du❂25쎯te❄5쎯de❅2쎯	-4497
pi❂22쎯	-4498
////	-4499
ling❃2쎯xian❁18쎯	-4500
hou❄6쎯de❅2쎯	-4501
、xi❁143쎯	-4502
fa❁1쎯hui❁15쎯	-4503
zi❁23쎯	-4504
xing❂11쎯tai❄6쎯	-4505
liu❂33쎯	-4506
jun❁2쎯qu❁15쎯	-4507
fan❁14쎯yi❄215쎯	-4508
ji❂114쎯ben❄4쎯	-4509
ming❂24쎯	-4510
%.	-4511
shi❃9쎯zhong❁19쎯	-4512
chong❁9쎯man❃4쎯	-4513
ai❄26쎯hao❃0쎯	-4514
duo❁5쎯shu❄26쎯	-4515
jing❁27쎯li❄62쎯	-4516
ta❁5쎯de❅2쎯	-4517
pian❁5쎯,	-4518
3,	-4519
quan❂6쎯shi❄32쎯	-4520
fu❄31쎯duo❃23쎯	-4521
bian❁13쎯zhi❄30쎯	-4522
xie❂24쎯	-4523
nv❃0쎯xing❄13쎯	-4524
dian❄23쎯ya❁7쎯	-4525
jing❁31쎯	-4526
deng❄8쎯	-4527
yuan❂12쎯ming❂7쎯	-4528
tao❂17쎯	-4529
wu❃37쎯dao❃20쎯	-4530
1989nian❂6쎯	-4531
shui❂1쎯	-4532
cheng❂61쎯xin❄8쎯	-4533
han❄38쎯	-4534
tong❃5쎯	-4535
zhen❁30쎯shi❂13쎯	-4536
zhi❂32쎯cheng❁28쎯	-4537
10000	-4538
zuo❄5쎯yong❄3쎯.	-4539
kuang❂3쎯	-4540
shi❄32쎯qu❁15쎯	-4541
jian❃52쎯jie❄13쎯	-4542
han❄34쎯	-4543
you❁5쎯mei❃13쎯	-4544
shu❄26쎯ma❃8쎯	-4545
jian❄58쎯	-4546
lao❁0쎯	-4547
fang❁4쎯zhen❁52쎯	-4548
ge❄3쎯de❅0쎯	-4549
,193	-4550
zhi❁31쎯dao❄24쎯	-4551
hui❃8쎯	-4552
han❄20쎯xie❂47쎯	-4553
zheng❁22쎯zai❄5쎯	-4554
fa❁1쎯dong❄13쎯	-4555
da❄0쎯jia❁13쎯	-4556
ya❂18쎯	-4557
gao❁20쎯du❄8쎯	-4558
,cong❂6쎯er❂16쎯	-4559
wei❄26쎯lai❂16쎯	-4560
.”《	-4561
jiang❄9쎯de❅2쎯	-4562
dang❃2쎯zu❃7쎯	-4563
chang❂14쎯	-4564
ning❂10쎯bo❁11쎯	-4565
yi❁13쎯ke❁16쎯	-4566
mao❄16쎯	-4567
,zui❄4쎯zhong❁19쎯	-4568
shi❄20쎯	-4569
wai❄0쎯guo❂11쎯	-4570
zi❄16쎯shen❁40쎯	-4571
ke❄6쎯、	-4572
kuo❄15쎯yong❄3쎯	-4573
shi❄31쎯na❄11쎯	-4574
yin❄7쎯shua❁1쎯	-4575
hao❄23쎯	-4576
xi❁51쎯shou❁1쎯	-4577
bei❁6쎯	-4578
,chang❂15쎯	-4579
、san❁1쎯	-4580
tao❂20쎯ci❂20쎯	-4581
dian❄19쎯fen❃1쎯	-4582
qi❁32쎯	-4583
xiang❁1쎯cun❁1쎯	-4584
lian❂53쎯meng❂34쎯	-4585
xian❃24쎯cun❂1쎯	-4586
:9	-4587
shi❄84쎯	-4588
di❄45쎯liu❄3쎯	-4589
tun❂3쎯	-4590
,qing❁10쎯	-4591
gou❃2쎯cheng❂29쎯	-4592
pei❄19쎯zhi❄85쎯	-4593
re❄1쎯dai❄15쎯	-4594
76	-4595
yan❄45쎯	-4596
43	-4597
zhai❄2쎯	-4598
xie❂48쎯	-4599
di❃10쎯	-4600
ban❁20쎯	-4601
xi❁143쎯bu❄38쎯	-4602
,yong❁17쎯you❃11쎯	-4603
you❃11쎯“	-4604
.xue❂6쎯jiao❄18쎯	-4605
qu❁40쎯	-4606
mian❄2쎯xiang❄6쎯	-4607
tuo❃6쎯	-4608
dong❄13쎯tai❄6쎯	-4609
ren❂1쎯wen❂5쎯	-4610
li❃26쎯de❅2쎯	-4611
duo❃21쎯	-4612
zheng❃4쎯ge❃0쎯	-4613
jian❃19쎯	-4614
",	-4615
er❂16쎯bu❂0쎯	-4616
lv❄20쎯hua❁1쎯	-4617
guan❁11쎯	-4618
zuo❃1쎯	-4619
zuo❄5쎯zhan❄10쎯	-4620
si❁24쎯te❄5쎯	-4621
hui❁13쎯fu❄31쎯	-4622
▁zhu❃4쎯yao❁17쎯	-4623
ru❄2쎯xuan❃8쎯	-4624
,chu❁3쎯	-4625
,xian❄37쎯ren❂4쎯	-4626
xi❃1쎯ai❄26쎯	-4627
hong❂25쎯	-4628
1994nian❂6쎯	-4629
ze❃쎯	-4630
wei❁12쎯yuan❂15쎯、	-4631
neng❂2쎯yuan❂34쎯	-4632
1982nian❂6쎯	-4633
ru❂7쎯	-4634
da❄0쎯lian❂69쎯	-4635
san❁1쎯guo❂11쎯	-4636
gan❃8쎯	-4637
wai❄0쎯guan❁16쎯	-4638
rui❄20쎯	-4639
,liang❃5쎯	-4640
shan❁11쎯xian❄22쎯	-4641
.cong❂6쎯	-4642
1990nian❂6쎯	-4643
dui❄14쎯wai❄0쎯	-4644
fu❄31쎯ge❃0쎯	-4645
ding❄2쎯wei❄15쎯	-4646
shi❂39쎯yong❄3쎯	-4647
xue❂6쎯de❅2쎯	-4648
,bing❁6쎯qie❃쎯	-4649
li❄58쎯ya❄7쎯	-4650
3000	-4651
dan❄	-4652
rong❂21쎯yi❄119쎯	-4653
fu❂93쎯	-4654
xue❂14쎯	-4655
shang❃1쎯.	-4656
diao❄17쎯jie❂69쎯	-4657
liang❂11쎯shi❂39쎯	-4658
chu❂42쎯le❅0쎯	-4659
zao❃2쎯ji❁47쎯	-4660
shou❃4쎯duan❄7쎯	-4661
mu❄24쎯	-4662
dao❃2쎯ru❄2쎯	-4663
----------------	-4664
xiao❁51쎯	-4665
zhang❃6쎯;	-4666
bo❂52쎯	-4667
jiang❄9쎯du❄8쎯	-4668
liao❄8쎯:	-4669
ming❂7쎯de❅2쎯	-4670
suo❃11쎯wei❄52쎯	-4671
yu❄67쎯	-4672
ji❂74쎯	-4673
ji❁116쎯dan❄43쎯	-4674
fang❂4쎯zhi❄61쎯	-4675
ni❄27쎯	-4676
yin❃14쎯jin❄61쎯	-4677
cun❁1쎯、	-4678
tui❁1쎯dong❄13쎯	-4679
zhou❁17쎯	-4680
ren❂1쎯gong❁17쎯	-4681
dan❄47쎯	-4682
die❂56쎯	-4683
bao❄11쎯	-4684
duo❁5쎯xiang❄24쎯	-4685
nv❃0쎯zi❃7쎯	-4686
zhu❃4쎯ti❂36쎯	-4687
han❂17쎯liang❂19쎯	-4688
xiang❁1쎯zhen❄30쎯	-4689
bi❃20쎯li❄51쎯	-4690
qiao❂6쎯	-4691
xue❂6쎯ming❂7쎯:	-4692
wang❄2쎯	-4693
dong❄13쎯zuo❄5쎯	-4694
tu❃0쎯	-4695
tan❄5쎯suo❃18쎯	-4696
tui❁1쎯chu❁3쎯	-4697
geng❁6쎯jia❁7쎯	-4698
na❄11쎯,	-4699
zheng❄17쎯quan❄1쎯	-4700
jia❁13쎯zu❂9쎯	-4701
jia❃17쎯	-4702
shao❃2쎯shu❄26쎯	-4703
she❂9쎯	-4704
hao❃0쎯ping❂36쎯	-4705
ri❄2쎯bao❄10쎯	-4706
shu❄26쎯liang❂19쎯	-4707
chong❂11쎯lei❄16쎯	-4708
mi❄33쎯	-4709
ban❃6쎯ben❃5쎯	-4710
jiang❄25쎯di❁9쎯	-4711
ju❂38쎯	-4712
ji❁34쎯bu❄38쎯	-4713
lun❄1쎯tan❂8쎯	-4714
wu❁17쎯ran❃11쎯	-4715
lao❃17쎯nian❂6쎯	-4716
qia	-4717
lou❄2쎯	-4718
shi❁33쎯ren❂1쎯	-4719
xiang❁9쎯hu❄14쎯	-4720
42	-4721
jian❃18쎯shao❃2쎯	-4722
ye❁8쎯	-4723
xing❄13쎯,	-4724
bin❁5쎯guan❃15쎯	-4725
chu❄17쎯yu❂35쎯	-4726
dai❄45쎯shu❃5쎯	-4727
nong❂5쎯hu❄26쎯	-4728
shi❂13쎯hang❂16쎯	-4729
yan❂20쎯ge❂29쎯	-4730
san❁1쎯da❄0쎯	-4731
fo❂2쎯jiao❁20쎯	-4732
qing❁3쎯	-4733
wen❂5쎯xian❄35쎯	-4734
zhuan❁1쎯yong❄3쎯	-4735
bian❁16쎯yuan❂44쎯	-4736
bi❃17쎯	-4737
6gan❄3쎯	-4738
xing❂11쎯rong❂21쎯	-4739
chuan❂4쎯mei❂12쎯	-4740
han❂17쎯you❃11쎯	-4741
cu❄30쎯	-4742
huo❃0쎯	-4743
ben❄4쎯yan❄75쎯	-4744
yun❄7쎯	-4745
yi❃15쎯you❃11쎯	-4746
yi❁10쎯tiao❂9쎯	-4747
sa❁2쎯	-4748
ren❂1쎯shi❄18쎯	-4749
bing❃29쎯	-4750
dao❃5쎯zhi❄89쎯	-4751
dao❄3쎯de❅2쎯	-4752
qing❁10쎯shui❃0쎯	-4753
xi❂22쎯	-4754
ying❁	-4755
fa❃2쎯xue❂6쎯	-4756
ge❃0쎯jin❁33쎯	-4757
dang❄12쎯an❄16쎯	-4758
yi❄225쎯	-4759
i❄58쎯	-4760
qi❄20쎯、	-4761
xia❂10쎯	-4762
.yi❃10쎯	-4763
biao❁14쎯zhi❄47쎯	-4764
chong❂17쎯xin❁10쎯	-4765
bao❁5쎯	-4766
xia❂21쎯	-4767
ge❄3쎯gan❄3쎯	-4768
ge❁6쎯	-4769
.(	-4770
hua❄18쎯jia❁13쎯	-4771
,shui❃0쎯	-4772
ge❃0쎯cheng❂29쎯	-4773
180	-4774
feng❂5쎯	-4775
hai❃1쎯nan❂6쎯	-4776
bing❃2쎯	-4777
shu❁38쎯kuo❄15쎯	-4778
lian❂69쎯suo❃23쎯	-4779
1983nian❂6쎯	-4780
jian❄62쎯de❅2쎯	-4781
▁chu❁3쎯chu❄17쎯	-4782
xing❃5쎯	-4783
da❂14쎯yin❄7쎯	-4784
▁5	-4785
dou❁12쎯shi❄32쎯	-4786
/.	-4787
xi❁71쎯	-4788
cheng❁28쎯hao❂6쎯.	-4789
mei❂43쎯	-4790
du❄8쎯jia❃2쎯	-4791
xia❂39쎯qu❁15쎯	-4792
,ju❄65쎯chi❁23쎯	-4793
ji❄117쎯zai❄8쎯	-4794
chu❄17쎯.	-4795
49	-4796
yi❄113쎯	-4797
wu❂17쎯fa❃2쎯	-4798
kuo❄7쎯zhan❃11쎯	-4799
3)	-4800
hu❂46쎯jiao❁21쎯	-4801
gai❃2쎯shan❄15쎯	-4802
xiang❂9쎯	-4803
guo❂11쎯wai❄0쎯	-4804
zang❄7쎯	-4805
chan❃45쎯	-4806
ding❄2쎯cha❁3쎯	-4807
lin❂19쎯de❅0쎯	-4808
feng❁43쎯	-4809
xin❁13쎯	-4810
160	-4811
keng	-4812
you❄32쎯	-4813
xiong❂1쎯	-4814
yan❂20쎯chong❂17쎯	-4815
cheng❁28쎯.	-4816
dian❃11쎯.	-4817
zao❄16쎯cheng❂29쎯	-4818
de❅2쎯quan❂6쎯	-4819
ren❂1쎯wei❄14쎯	-4820
3.0	-4821
u❄26쎯	-4822
he❂46쎯	-4823
huan❄19쎯zhe❃2쎯	-4824
,zhu❃4쎯	-4825
huang❂56쎯jin❁33쎯	-4826
di❄58쎯	-4827
ji❁48쎯de❅2쎯	-4828
shi❂32쎯	-4829
la❄28쎯jiao❁21쎯	-4830
zong❁16쎯	-4831
,hao❂6쎯	-4832
zhuang❄5쎯,	-4833
zhu❄20쎯li❃15쎯	-4834
cao❃5쎯ben❃5쎯	-4835
u❄32쎯	-4836
shen❁18쎯shou❄4쎯	-4837
po❄21쎯	-4838
gui❁28쎯	-4839
jiao❃57쎯du❄8쎯	-4840
zi❃7쎯、	-4841
wan❂5쎯qu❁15쎯	-4842
fen❁4쎯pei❄19쎯	-4843
ge❃0쎯tong❂13쎯	-4844
pan❄10쎯	-4845
wei❃48쎯	-4846
ban❁12쎯ya❂12쎯	-4847
lan❄6쎯	-4848
qi❄20쎯,	-4849
cai❂2쎯neng❂2쎯	-4850
yong❄3쎯pin❃0쎯	-4851
jia❁13쎯peng❂7쎯	-4852
weng	-4853
gan❄19쎯	-4854
ri❄2쎯chang❂15쎯	-4855
kong❁9쎯diao❄17쎯	-4856
dao❄24쎯,	-4857
tong❂13쎯zhi❄47쎯	-4858
jun❄13쎯	-4859
xi❁143쎯ya❄7쎯	-4860
dui❁9쎯	-4861
dian❃11쎯,	-4862
”deng❃2쎯	-4863
zhuang❁0쎯	-4864
huang❂34쎯di❄26쎯	-4865
ji❁34쎯yu❂35쎯	-4866
fu❄28쎯yuan❄18쎯	-4867
he❄26쎯	-4868
yue❄41쎯	-4869
shen❃7쎯ji❄116쎯	-4870
na❄15쎯	-4871
gang❁5쎯	-4872
fu❂62쎯ge❃0쎯	-4873
chuan❄0쎯	-4874
ge❂38쎯	-4875
,gong❄3쎯	-4876
,ben❃5쎯	-4877
qi❂46쎯xia❄3쎯	-4878
dian❄24쎯	-4879
wei❄14쎯zhu❃4쎯.	-4880
,yi❁10쎯ban❁15쎯	-4881
yan❂49쎯、	-4882
zi❁9쎯	-4883
chen❂23쎯yang❂35쎯	-4884
chai❂6쎯	-4885
xian❂44쎯	-4886
da❄0쎯dui❄33쎯	-4887
▁chu❁3쎯ban❃6쎯	-4888
ge❄3쎯xiang❄24쎯	-4889
duo❁5쎯jia❁13쎯	-4890
jin❄61쎯xiu❁11쎯	-4891
jiao❁20쎯shou❄9쎯.	-4892
fen❁19쎯	-4893
hong❂54쎯	-4894
50nian❂6쎯	-4895
fu❄74쎯shu❃5쎯	-4896
cun❁1쎯.	-4897
si❁16쎯ling❂34쎯	-4898
dian❄23쎯qi❃25쎯	-4899
dai❄38쎯	-4900
yi❁10쎯qie❁1쎯	-4901
fen❁4쎯hui❄27쎯	-4902
hu❂22쎯	-4903
fang❃18쎯wen❄6쎯	-4904
zhong❁4쎯xin❁7쎯、	-4905
fa❃2쎯yuan❄18쎯	-4906
lang❂12쎯	-4907
xiao❄14쎯yi❄165쎯	-4908
ta❁6쎯de❅2쎯	-4909
jue❂58쎯	-4910
da❄0쎯shi❁11쎯	-4911
58	-4912
shi❂20쎯de❅2쎯	-4913
fang❃15쎯zhi❁39쎯	-4914
jian❄77쎯ding❄2쎯	-4915
gong❁10쎯qing❃10쎯	-4916
bai❃4쎯	-4917
chao❂6쎯xian❁57쎯	-4918
diao❄17쎯wei❄18쎯	-4919
si❄17쎯gan❄3쎯	-4920
▁1、	-4921
lao❃17쎯shi❁11쎯	-4922
ling❄0쎯wai❄0쎯	-4923
mei❃13쎯shi❂39쎯	-4924
yi❃10쎯“	-4925
gan❁7쎯long❁쎯	-4926
zhi❂32쎯neng❂2쎯	-4927
wei❂51쎯	-4928
yi❁10쎯jia❁13쎯	-4929
shou❃6쎯ci❄16쎯	-4930
xun❂16쎯huan❂20쎯	-4931
jie❁13쎯chu❄36쎯	-4932
xie❃4쎯zuo❄5쎯	-4933
li❃26쎯,	-4934
ying❃11쎯pian❁5쎯	-4935
shu❁23쎯	-4936
you❁5쎯liang❂15쎯	-4937
wu❄36쎯de❅2쎯	-4938
ji❄59쎯qiao❃3쎯	-4939
shi❂10쎯ba❁9쎯	-4940
ren❄30쎯shi❂35쎯	-4941
fa❁1쎯ming❂8쎯	-4942
qiong❂28쎯	-4943
bi❃20쎯yu❄28쎯	-4944
fa❁1쎯dian❄23쎯	-4945
shui❄11쎯wu❄12쎯	-4946
jue❂76쎯	-4947
mei❃9쎯gan❄3쎯	-4948
dong❁3쎯guan❁11쎯	-4949
zeng❁2쎯jiang❄9쎯	-4950
ji❁48쎯,	-4951
bang❃2쎯	-4952
ri❄2쎯zai❄5쎯	-4953
xing❁7쎯ji❂83쎯	-4954
jie❁13쎯rang❃3쎯	-4955
,zi❄6쎯	-4956
ben❄4쎯xian❄37쎯	-4957
yong❃22쎯	-4958
zong❁10쎯jiao❁20쎯	-4959
ta❁6쎯𑈼	-4960
de❅0쎯qu❁15쎯de❅2쎯	-4961
fu❄28쎯zong❃5쎯	-4962
tong❂22쎯	-4963
yong❄3쎯lai❂16쎯	-4964
fu❄32쎯nv❃0쎯	-4965
biao❃5쎯da❂30쎯	-4966
dan❁9쎯wei❄15쎯.	-4967
qiu❂36쎯dui❄33쎯	-4968
31	-4969
ge❁11쎯	-4970
dong❄11쎯	-4971
beng❄6쎯	-4972
u❄1쎯	-4973
xu❄32쎯	-4974
di❁15쎯	-4975
shui❃0쎯ku❄6쎯	-4976
shi❁20쎯	-4977
zhun❃0쎯bei❄26쎯	-4978
yin❁11쎯su❄56쎯	-4979
deng❃2쎯de❅0쎯	-4980
jian❁52쎯cha❂12쎯	-4981
wo❄8쎯	-4982
gui❁35쎯ze❂11쎯	-4983
bu❂0쎯hui❄27쎯	-4984
wu❄36쎯qiu❁9쎯	-4985
)han❄20쎯	-4986
gou❃3쎯	-4987
li❂41쎯	-4988
xiao❄14쎯lv❄15쎯	-4989
xing❄15쎯	-4990
mi❄24쎯du❄8쎯	-4991
ju❄16쎯bei❄26쎯	-4992
qing❁10쎯dai❄9쎯	-4993
zhong❁4쎯xiao❃2쎯	-4994
jia❁7쎯na❂4쎯	-4995
:‘	-4996
jian❁14쎯ren❂4쎯	-4997
xie❂14쎯yi❄214쎯	-4998
96	-4999
peng❂8쎯	-5000
si❁24쎯·	-5001
mo❂12쎯ni❃11쎯	-5002
keng❁7쎯	-5003
liang❃5쎯,	-5004
si❄47쎯	-5005
ling❄0쎯yi❁10쎯	-5006
hui❄79쎯hua❄18쎯	-5007
yao❂20쎯	-5008
zhi❁40쎯	-5009
yang❃4쎯	-5010
():	-5011
xian❄37쎯shi❂13쎯	-5012
wei❁12쎯yuan❂15쎯,	-5013
()shi❄45쎯	-5014
lin❂32쎯	-5015
li❄51쎯ru❂9쎯	-5016
,ran❂12쎯hou❄7쎯	-5017
.mu❄22쎯qian❂8쎯	-5018
kan❁4쎯	-5019
jiao❁20쎯shou❄9쎯、	-5020
an❄5쎯	-5021
”wei❄14쎯	-5022
mei❃9쎯nian❂6쎯	-5023
ai❄33쎯	-5024
mai❄12쎯	-5025
zhi❁13쎯,	-5026
shang❃1쎯you❃11쎯	-5027
ju❃9쎯	-5028
lv❄11쎯	-5029
,xiao❃2쎯	-5030
zan❄5쎯	-5031
”zhi❁13쎯	-5032
bian❄16쎯jie❂42쎯	-5033
ban❄10쎯	-5034
shi❄31쎯fu❄28쎯	-5035
zui❄15쎯	-5036
dou❄18쎯fu❃28쎯	-5037
mi❃19쎯,nian❂6쎯	-5038
duo❁5쎯pian❁7쎯	-5039
wo❃3쎯de❅2쎯	-5040
bo❁8쎯	-5041
jin❄20쎯	-5042
zong❃5쎯bu❄38쎯	-5043
qu❁17쎯	-5044
i❄23쎯	-5045
nan❂6쎯bu❄38쎯	-5046
1991nian❂6쎯	-5047
ren❂1쎯zai❄5쎯	-5048
jia❁30쎯	-5049
gan❄3쎯xing❄13쎯	-5050
fang❄0쎯zai❄5쎯	-5051
zhi❄56쎯hui❄51쎯	-5052
zhi❂25쎯shu❃5쎯	-5053
cheng❂29쎯fen❁4쎯	-5054
jiang❁10쎯nan❂6쎯	-5055
,yi❄67쎯	-5056
hou❂11쎯	-5057
56	-5058
》yi❁10쎯	-5059
bang❄9쎯	-5060
kou❃1쎯,	-5061
shuang❃7쎯	-5062
▁gai❁13쎯	-5063
tui❁1쎯jin❄61쎯	-5064
wo❃3쎯𑈼de❅2쎯	-5065
▁3、	-5066
hai❃1쎯jun❁2쎯	-5067
jia❁13쎯ji❂114쎯	-5068
xie❂14쎯zhu❄20쎯	-5069
po❄17쎯huai❄0쎯	-5070
ping❂17쎯heng❂14쎯	-5071
gong❁17쎯zuo❄5쎯;	-5072
hu❂43쎯	-5073
dun❄11쎯	-5074
ren❂1쎯li❄59쎯	-5075
piao❁4쎯	-5076
bao❃9쎯cun❂1쎯	-5077
、nan❂6쎯	-5078
zhang❁4쎯)	-5079
zhe❄14쎯shi❄45쎯	-5080
ba❄25쎯	-5081
ceng❂6쎯jing❁27쎯	-5082
wu❄36쎯.	-5083
jie❂69쎯neng❂2쎯	-5084
(xue❂6쎯ming❂7쎯:	-5085
nai❄2쎯	-5086
qi❂111쎯	-5087
si❁16쎯fa❃2쎯	-5088
jiao❁8쎯jie❄29쎯	-5089
jing❄31쎯	-5090
zhong❁4쎯jian❁85쎯	-5091
,ba❃1쎯	-5092
ling❂34쎯ren❂1쎯	-5093
gu❃59쎯gan❁16쎯	-5094
sheng❁16쎯su❄56쎯	-5095
sun❃7쎯	-5096
pan❁4쎯	-5097
guan❃9쎯xia❂39쎯	-5098
mao❂18쎯	-5099
kou❄7쎯	-5100
bao❁4쎯han❂17쎯	-5101
feng❁58쎯xian❃46쎯	-5102
88	-5103
gong❁17쎯han❃11쎯	-5104
cang❁7쎯	-5105
yi❄226쎯	-5106
shi❂10쎯san❁1쎯	-5107
xin❁10쎯xing❂9쎯	-5108
zi❄16쎯zhu❃4쎯	-5109
wei❂	-5110
ji❁48쎯zhi❄30쎯	-5111
yuan❂34쎯yu❂35쎯	-5112
dang❄23쎯	-5113
ling❂36쎯	-5114
ge❃0쎯fei❂1쎯	-5115
jing❃13쎯qu❁15쎯	-5116
yi❁12쎯ju❁18쎯	-5117
gan❃6쎯jue❂104쎯	-5118
han❄20쎯“	-5119
ji❄117쎯·	-5120
ji❁48쎯qi❄20쎯	-5121
xiang❄12쎯	-5122
shu❄26쎯:	-5123
pei❄19쎯ge❃0쎯	-5124
zhu❃4쎯jiao❃57쎯	-5125
jian❄50쎯	-5126
ju❄18쎯《	-5127
xiang❄10쎯	-5128
jia❁13쎯ju❄16쎯	-5129
lv❃14쎯hang❂16쎯	-5130
ren❂1쎯sheng❁16쎯	-5131
ceng❂3쎯ci❄16쎯	-5132
zi❁13쎯	-5133
jiang❄22쎯you❂24쎯	-5134
ai❄22쎯	-5135
▁yong❄3쎯fa❃2쎯	-5136
dian❄23쎯lu❄70쎯	-5137
,mu❄22쎯qian❂8쎯	-5138
yun❃16쎯hui❄27쎯	-5139
luo❁4쎯ma❃14쎯	-5140
guan❁4쎯jian❄85쎯	-5141
shi❄45쎯fou❃0쎯	-5142
fa❂5쎯	-5143
wu❃28쎯qi❄20쎯	-5144
ben❃9쎯	-5145
lei❄16쎯bie❂4쎯	-5146
3.5	-5147
dai❄15쎯lai❂16쎯	-5148
guo❂11쎯dao❄24쎯	-5149
shi❂10쎯liu❄3쎯	-5150
xian❃24쎯zhao❂쎯	-5151
hun❄10쎯	-5152
,hua❁11쎯	-5153
shou❃6쎯jie❄19쎯	-5154
shou❄15쎯	-5155
zhen❁44쎯	-5156
di❄45쎯qi❁9쎯	-5157
lian❂53쎯sai❄4쎯	-5158
bi❄126쎯	-5159
si❄3	-5160
kuang❁9쎯	-5161
mu❃6쎯qin❁4쎯	-5162
wu❄48쎯	-5163
ying❂58쎯de❂7쎯	-5164
0.5	-5165
shi❄45쎯“	-5166
xiong❁2쎯di❄27쎯	-5167
zhu❄31쎯chong❂17쎯	-5168
gai❃2쎯zao❄16쎯	-5169
pi❁7쎯	-5170
yu❃44쎯、	-5171
,jin❄61쎯	-5172
189	-5173
zhao❄9쎯	-5174
ceng❂6쎯zai❄5쎯	-5175
220	-5176
5gan❄3쎯	-5177
fen❁4쎯guan❃9쎯	-5178
lian❃12쎯	-5179
er❃6쎯·	-5180
cui❄32쎯	-5181
de❅2쎯shui❃0쎯	-5182
ci❂35쎯	-5183
hao❃0쎯,	-5184
zhuan❁1쎯zhao❂쎯	-5185
mo❂12쎯xing❂9쎯	-5186
、huang❂56쎯	-5187
,ta❁5쎯	-5188
jian❄29쎯yi❄214쎯	-5189
jia❁13쎯de❅2쎯	-5190
jiu❄23쎯qiu❁9쎯	-5191
kuai❄18쎯le❄3쎯	-5192
han❄29쎯	-5193
san❃7쎯wen❂5쎯	-5194
gai❃2쎯wei❄14쎯	-5195
.er❂16쎯	-5196
zhong❁4쎯you❃11쎯	-5197
20shi❄15쎯ji❄94쎯	-5198
xiao❄23쎯	-5199
shu❁8쎯,	-5200
fei❁19쎯hang❂16쎯	-5201
bu❄38쎯fu❄28쎯	-5202
fan❂26쎯	-5203
wang❃14쎯shang❃1쎯	-5204
you❁11쎯jiu❃1쎯	-5205
li❃15쎯xue❂6쎯	-5206
°C,nian❂6쎯	-5207
yang❂17쎯de❅2쎯	-5208
cuo❄7쎯shi❁13쎯	-5209
ben❄4쎯.	-5210
shui❄9쎯	-5211
gong❁10쎯si❁16쎯(	-5212
zhen❁4쎯	-5213
shu❄18쎯	-5214
zhu❃4쎯ban❄4쎯	-5215
li❃15쎯jie❃6쎯	-5216
shen❁40쎯fen❄2쎯	-5217
qing❄3쎯yin❁44쎯	-5218
bi❃24쎯hua❄18쎯	-5219
zhong❁4쎯xi❁143쎯	-5220
dang❃2쎯yuan❂15쎯.	-5221
zhuo❁8쎯	-5222
lu❄5	-5223
liu❂21쎯	-5224
chu❁4쎯zhong❁4쎯	-5225
quan❂12쎯wei❁13쎯	-5226
xiu❄11쎯	-5227
jie❁13쎯kou❃1쎯:	-5228
shi❄32쎯ji❂83쎯	-5229
chong❂11쎯,	-5230
fa❁1쎯da❂30쎯	-5231
liu❂20쎯dong❄13쎯	-5232
jia❁7쎯na❂4쎯da❄0쎯	-5233
zhi❁13쎯qian❂8쎯	-5234
hang❂16쎯dong❄13쎯	-5235
pei	-5236
qi❃34쎯,	-5237
wa❁10쎯	-5238
zui❄4쎯zhong❁19쎯	-5239
sheng❁16쎯yu❄93쎯	-5240
qi❂	-5241
yao❄11쎯	-5242
qing❁10쎯hua❂14쎯	-5243
fu❂93쎯she❄8쎯	-5244
zui❄4쎯ju❄16쎯	-5245
yi❄217쎯	-5246
na❄11쎯ke❁16쎯	-5247
guo❂11쎯you❃11쎯	-5248
qi❃12쎯qiu❁9쎯,	-5249
han❄20쎯ping❂17쎯	-5250
xian❄47쎯lu❄70쎯	-5251
xi❄46쎯.	-5252
zhuan❄9쎯	-5253
yuan❂10쎯.	-5254
zhuan❄6쎯xie❃4쎯	-5255
chang❄1쎯	-5256
er❂16쎯de❂7쎯	-5257
yi❁10쎯dai❄15쎯	-5258
jin❄61쎯cheng❂52쎯	-5259
nao❄3쎯	-5260
li❄59쎯,	-5261
hao❂25쎯hua❂14쎯	-5262
zong❁31쎯	-5263
ji❁34쎯yin❁11쎯	-5264
an❁13쎯xian❄22쎯	-5265
xin❄8쎯yong❄3쎯	-5266
da❄0쎯li❄58쎯ya❄7쎯	-5267
ren❃1쎯	-5268
deng❁10쎯ji❄117쎯	-5269
240	-5270
chu❁3쎯,	-5271
jian❁25쎯ta❄26쎯	-5272
gao❁16쎯	-5273
sha❁17쎯	-5274
lei❄16쎯si❄10쎯	-5275
mo❂12쎯fan❄22쎯	-5276
xiang❁9쎯lian❂69쎯	-5277
zai❄5쎯xian❄47쎯	-5278
,zhong❁4쎯gong❄3쎯	-5279
hua❄18쎯mian❄2쎯	-5280
xie❂16쎯pian❁5쎯	-5281
ming❂8쎯dai❄9쎯	-5282
zhi❃19쎯biao❁14쎯	-5283
,dan❄10쎯shi❄45쎯	-5284
chuang❄1쎯yi❄109쎯	-5285
rong❂36쎯	-5286
fen❁4쎯chi❁23쎯	-5287
can❁13쎯ting❁3쎯	-5288
ya❂7쎯	-5289
shan❁11쎯、	-5290
ji❁21쎯hu❁13쎯	-5291
▁bing❁5쎯mu❄10쎯	-5292
jian❃36쎯cha❂12쎯	-5293
yi❁10쎯jiu❃3쎯	-5294
、sheng❃9쎯	-5295
quan❃3쎯	-5296
chun❁6쎯qiu❁16쎯	-5297
chi❁23쎯zi❃7쎯	-5298
97	-5299
jin❄61쎯kou❃1쎯	-5300
tu❃1쎯rang❃3쎯	-5301
shi❂10쎯nian❂6쎯	-5302
gou❃2쎯zao❄16쎯	-5303
shui❃0쎯dao❄14쎯	-5304
tu❂14쎯xiang❄4쎯	-5305
huang❂28쎯	-5306
chu❁4쎯ji❂83쎯	-5307
hu❁17쎯xi❁51쎯	-5308
xi❁99쎯	-5309
wei❃15쎯	-5310
rao❃1쎯	-5311
liao❄8쎯jiu❃12쎯	-5312
wu❄26쎯	-5313
yue❄25쎯	-5314
pei❄19쎯jian❄15쎯	-5315
wei❄14쎯zhun❃0쎯	-5316
fa❃2쎯,	-5317
fu❄41쎯mu❃6쎯	-5318
.you❂29쎯yu❂35쎯	-5319
,zhan❁4쎯de❅0쎯	-5320
39쎯	-5321
chang❂15쎯yong❄3쎯	-5322
gu❁9쎯	-5323
wei❂41쎯	-5324
zhang❄2쎯	-5325
110	-5326
zhi❃	-5327
ji❁21쎯gan❄3쎯	-5328
xing❄12쎯fu❂60쎯	-5329
le❄3쎯dui❄33쎯	-5330
zi❄16쎯wo❃3쎯	-5331
dong❄13쎯man❄13쎯	-5332
ke❃4쎯kao❄5쎯	-5333
guo❂11쎯de❅2쎯	-5334
zhu❄35쎯	-5335
gao❁20쎯,	-5336
xun❁3쎯	-5337
cai❂9쎯jing❁27쎯	-5338
bei❃2쎯bu❄38쎯	-5339
shu❁8쎯ji❄117쎯.	-5340
zao❃9쎯	-5341
xiang❁9쎯ying❁17쎯	-5342
zheng❄18쎯zhou❁9쎯	-5343
zuo❄5쎯qu❁25쎯	-5344
zhi❂32쎯wu❄12쎯	-5345
cai❂3쎯zhi❄104쎯	-5346
yang❂35쎯guang❁2쎯	-5347
mi❂15쎯	-5348
xi❁143쎯cang❂5쎯	-5349
jian❄29쎯zao❄16쎯	-5350
guan❄31쎯	-5351
wei❄14쎯zhu❃4쎯,	-5352
cun❁1쎯ren❂1쎯.	-5353
de❅2쎯shi❄18쎯	-5354
▁197	-5355
li❄108쎯	-5356
tou❄4쎯ming❂8쎯	-5357
qiang❃2쎯	-5358
shu❁12쎯	-5359
jin❄61쎯shi❄28쎯	-5360
cheng❂29쎯jiu❄23쎯	-5361
mei❂30쎯	-5362
di❂41쎯zheng❄12쎯	-5363
gong❁17쎯hui❄27쎯	-5364
zhi❃40쎯	-5365
chen❂38쎯	-5366
guo❄2쎯qu❄6쎯	-5367
zhi❁13쎯hou❄7쎯,	-5368
gong❄3쎯xiang❃3쎯	-5369
dong❃6쎯	-5370
qian❂40쎯,	-5371
700	-5372
lai❂16쎯shuo❁2쎯	-5373
xiu❄19쎯gang❁32쎯	-5374
gong❁10쎯yu❄35쎯	-5375
xian❄37쎯chang❃4쎯	-5376
si❃0쎯wang❂0쎯	-5377
xing❂9쎯hao❂6쎯	-5378
hui❄27쎯zhang❃6쎯	-5379
e❂45쎯	-5380
da❄0쎯sha❄6쎯	-5381
ying❁11쎯	-5382
man❄11쎯xing❄13쎯	-5383
yi❂28쎯	-5384
jie❄24쎯	-5385
guan❁4쎯jie❂69쎯	-5386
jian❁52쎯ce❄22쎯	-5387
,xian❄37쎯zai❄5쎯	-5388
meng❃3쎯	-5389
❃38쎯	-5390
ke❄6쎯.	-5391
li❄68쎯	-5392
yi❁10쎯dai❄9쎯	-5393
yi❁12쎯tuo❁6쎯	-5394
ming❂7쎯ren❂1쎯	-5395
qi❃2	-5396
qu❁15쎯wei❁12쎯	-5397
,xian❁18쎯hou❄7쎯	-5398
ju❂23쎯、	-5399
,nv❃0쎯,	-5400
hua❁11쎯xu❄36쎯	-5401
fu❄72쎯	-5402
qiao❁28쎯	-5403
xian❄47쎯,	-5404
gou❁9쎯	-5405
shou❃6쎯dou❁12쎯	-5406
ping❂17쎯mian❄2쎯	-5407
de❅0쎯tie❃5쎯	-5408
xue❂6쎯jia❁13쎯	-5409
jiao❁8쎯huan❄21쎯	-5410
jia❁7쎯po❁2쎯	-5411
kun❁9쎯ming❂8쎯	-5412
chan❃12쎯pin❃0쎯.	-5413
ci❂24쎯	-5414
ni❄24쎯	-5415
fang❁4쎯wei❄15쎯	-5416
shang❁4쎯biao❁14쎯	-5417
chun❂11쎯	-5418
zhen❄30쎯,	-5419
128	-5420
chao❂3쎯	-5421
,yi❃15쎯	-5422
jun❁2쎯dui❄33쎯	-5423
().	-5424
i❃20쎯	-5425
jian❁85쎯,	-5426
yi❄109쎯shi❂35쎯	-5427
jin❃29쎯	-5428
fa❁1쎯she❄8쎯	-5429
xi❁143쎯fang❁4쎯	-5430
shi❂10쎯si❄17쎯	-5431
chang❃4쎯shang❃1쎯	-5432
che❁8쎯liang❄10쎯	-5433
chong❂11쎯zi❃7쎯	-5434
gui❁35쎯lv❄9쎯	-5435
chu❄17쎯chu❄17쎯	-5436
ji❄59쎯shu❂7쎯、	-5437
yu❃44쎯:	-5438
gui❁46쎯	-5439
.2	-5440
yan❄25쎯	-5441
xiang❁19쎯	-5442
bu❂0쎯guo❄2쎯	-5443
hui❂1쎯:“	-5444
fu❂43쎯wu❄12쎯,	-5445
ying❂36쎯	-5446
zhi❄30쎯de❅2쎯	-5447
shu❁8쎯zhong❁4쎯	-5448
zai❃4쎯	-5449
shi❁11쎯、	-5450
("	-5451
a❁6쎯er❃6쎯	-5452
li❄141쎯ben❄4쎯	-5453
hua❂14쎯dong❁3쎯	-5454
ping❂7쎯jie❄15쎯	-5455
chang❂6쎯	-5456
gan❁16쎯zao❄6쎯	-5457
nu❄2쎯	-5458
fu❃34쎯zhu❄20쎯	-5459
rong❂50쎯ge❃0쎯	-5460
shi❁33쎯ge❁16쎯	-5461
guan❁16쎯cha❂12쎯	-5462
1500	-5463
5000	-5464
chuang❄1쎯shi❃9쎯	-5465
.tang❂13쎯	-5466
xuan❁39쎯	-5467
jiao❄18쎯zhang❃6쎯	-5468
fen❁4쎯,	-5469
.qing❁10쎯	-5470
yi❂54쎯	-5471
bian❁13쎯ma❃8쎯	-5472
pu❂22쎯	-5473
yun❃7쎯	-5474
jiu❄23쎯du❂34쎯	-5475
chui❁1쎯	-5476
kan❁9쎯dao❄3쎯	-5477
shang❃1쎯xia❄3쎯	-5478
li❄155쎯	-5479
ci❄23쎯	-5480
chen❂20쎯	-5481
.ben❃5쎯shu❁8쎯	-5482
yi❃24쎯	-5483
zhan❄16쎯	-5484
huo❄56쎯wu❄36쎯	-5485
-01	-5486
.xian❄37쎯	-5487
de❅0쎯dai❄15쎯	-5488
ping❂36쎯gu❁4쎯	-5489
bing❁6쎯qie❃쎯	-5490
chai❁2쎯	-5491
gao❁20쎯xiao❄14쎯	-5492
guang❁2쎯xu❄68쎯	-5493
ya❂10쎯	-5494
67	-5495
long❄5쎯	-5496
mian❃10쎯yi❄159쎯	-5497
zhan❃11쎯jian❁25쎯	-5498
e❄81쎯	-5499
peng❁13쎯	-5500
ta❁3쎯𑈼de❅2쎯	-5501
wei❂11쎯chao❁6쎯	-5502
gong❁10쎯she❄22쎯	-5503
dian❄23쎯zhan❄17쎯	-5504
bi❃24쎯ji❄117쎯	-5505
de❅0쎯mian❄2쎯	-5506
zheng❄12쎯fa❃2쎯	-5507
you❁10쎯	-5508
xi❁83쎯	-5509
,yin❁11쎯wei❄14쎯	-5510
du❄8쎯de❅2쎯	-5511
wu❃37쎯si❄15쎯	-5512
qi❄20쎯de❅2쎯	-5513
188	-5514
han❄33쎯yu❃44쎯	-5515
fa❂4쎯	-5516
.ru❂9쎯	-5517
geng❃8쎯	-5518
zi❁45쎯xun❄26쎯	-5519
a❁6쎯la❁7쎯	-5520
tui❁1쎯jian❄58쎯	-5521
fu❃34쎯dao❃5쎯	-5522
jing❄44쎯tou❂4쎯	-5523
jiang❁10쎯shi❄32쎯	-5524
》han❄20쎯	-5525
ping❂17쎯yuan❂12쎯	-5526
a❁3쎯	-5527
yu❄109쎯	-5528
yi❁10쎯wei❄15쎯	-5529
cheng❂29쎯.	-5530
qing❁20쎯hai❃1쎯	-5531
shen❂2쎯bi❄100쎯	-5532
801	-5533
lu❄92쎯	-5534
1200	-5535
qiu❂19쎯jie❂67쎯	-5536
you❃11쎯:	-5537
hou❄7쎯zai❄5쎯	-5538
shao❃2쎯nv❃0쎯	-5539
,shi❂20쎯	-5540
4.0	-5541
”shi❄45쎯	-5542
zhong❁4쎯xin❁7쎯,	-5543
zhuan❁1쎯zhu❄31쎯	-5544
shan❁11쎯,	-5545
.8	-5546
fu❃24쎯	-5547
li❄59쎯.	-5548
88쎯	-5549
pou	-5550
tian❁5쎯,	-5551
jie❂67쎯shu❄27쎯	-5552
dian❄23쎯liu❂20쎯	-5553
yao❁8쎯	-5554
yan❂46쎯、	-5555
li❃28쎯	-5556
xian❄22쎯ren❂1쎯,	-5557
zhui❁6쎯	-5558
chuan❂4쎯ji❁36쎯	-5559
liao❂29쎯	-5560
1981nian❂6쎯	-5561
zao❄2쎯	-5562
juan❁9쎯	-5563
1980nian❂6쎯	-5564
ying❁17쎯gai❁13쎯	-5565
quan❂6쎯sheng❃9쎯	-5566
da❄0쎯.	-5567
chong❃2쎯	-5568
bu❂0쎯zu❂11쎯	-5569
na❄11쎯you❃11쎯	-5570
mou❃2쎯xie❁3쎯	-5571
❁56쎯	-5572
shu❃14쎯	-5573
ji❂35쎯ke❃4쎯.	-5574
ke❁7쎯	-5575
shi❃20쎯	-5576
ang❂7쎯	-5577
lu❄70쎯,	-5578
yi❃10쎯wei❄14쎯	-5579
xing❄13쎯ge❂29쎯	-5580
1958nian❂6쎯	-5581
gu❃14쎯dian❃5쎯	-5582
qi❃13쎯dong❄13쎯	-5583
qing❁7쎯	-5584
qing❁16쎯song❁11쎯	-5585
zhu❃4쎯yan❃39쎯	-5586
peng❂26쎯	-5587
bo❂40쎯	-5588
can❁3쎯mou❂17쎯	-5589
54	-5590
shen❄9쎯	-5591
tian❁7쎯jia❁7쎯	-5592
dang❃2쎯de❅2쎯	-5593
(1	-5594
yu❄104쎯	-5595
ga❁1쎯	-5596
jiao❄35쎯wei❄14쎯	-5597
hu❄36쎯	-5598
kan❁5쎯	-5599
han❄33쎯shu❁8쎯·	-5600
ji❁48쎯dian❄23쎯	-5601
shuai❄1쎯	-5602
30nian❂6쎯	-5603
zhang❁6쎯	-5604
han❂15쎯shu❄26쎯	-5605
wei❁12쎯yuan❂15쎯.	-5606
fa❁1쎯yu❄93쎯	-5607
ying❁67쎯	-5608
le❅0쎯“	-5609
xia❄3쎯zai❄8쎯	-5610
57	-5611
,shu❃5쎯	-5612
pa❄1쎯	-5613
xiang❄24쎯,	-5614
cong❂5쎯shu❁8쎯	-5615
yi❁10쎯ben❄4쎯	-5616
xiao❃2쎯de❅2쎯	-5617
shu❃16쎯	-5618
shi❂13쎯qiu❁9쎯	-5619
dong❁3쎯jing❁3쎯	-5620
su❁10쎯lian❂53쎯	-5621
zhang❄15쎯	-5622
chao❁17쎯ji❂83쎯	-5623
qiong❂23쎯	-5624
wu❂17쎯xi❁161쎯	-5625
an❁13쎯shi❄32쎯	-5626
yun❄14쎯	-5627
fan❂35쎯hua❂14쎯	-5628
xia❄3쎯xia❂39쎯	-5629
ke❄14쎯yun❃16쎯	-5630
zhong❁4쎯yao❄12쎯	-5631
zhong❁4쎯bu❄38쎯	-5632
xiao❁29쎯hua❁1쎯	-5633
ning❂10쎯shi❄32쎯	-5634
shi❄45쎯:	-5635
jian❄17쎯shen❁40쎯	-5636
le❅0쎯,	-5637
guan❃9쎯li❃15쎯,	-5638
ma❃14쎯ke❄6쎯	-5639
▁zhong❁4쎯guo❂11쎯	-5640
di❄45쎯ba❁9쎯	-5641
zai❄5쎯zhi❂32쎯	-5642
pou❁1쎯	-5643
xuan❃8쎯wei❄14쎯	-5644
bing❄12쎯、	-5645
ji❄117쎯yi❄104쎯	-5646
mian❂16쎯	-5647
liang❃5쎯ce❄8쎯	-5648
weng❁6쎯	-5649
zai❄5쎯《	-5650
bao❄10쎯kan❁3쎯	-5651
duan❁4쎯kou❃1쎯	-5652
bi❄144쎯	-5653
kan❃7쎯	-5654
(.	-5655
bu❂0쎯de❂7쎯	-5656
che❄24쎯	-5657
130	-5658
yuan❂12쎯shi❃9쎯	-5659
1800	-5660
chuan❂4쎯》	-5661
wei❂21쎯	-5662
an❄16쎯li❄51쎯	-5663
si❁24쎯tan❃4쎯	-5664
gu❃42쎯piao❄5쎯	-5665
hui❄27쎯yuan❂15쎯.	-5666
sang	-5667
bei❄55쎯	-5668
shui❃0쎯、	-5669
qi❃25쎯xiang❄20쎯	-5670
sang❄0쎯	-5671
guan❁16쎯yin❂10쎯	-5672
dan❁9쎯yuan❂10쎯	-5673
liang❂15쎯hao❃0쎯	-5674
yan❂31쎯dan❄38쎯	-5675
shou❃6쎯pi❁11쎯	-5676
wan❂6쎯mei❃13쎯	-5677
zai❄5쎯ci❃2쎯	-5678
lv❄9쎯shi❁11쎯	-5679
yan❃45쎯	-5680
wai❄0쎯de❅2쎯	-5681
she❄22쎯qiu❂19쎯	-5682
chu❂15쎯	-5683
nie❄	-5684
ri❄2쎯ji❁47쎯:	-5685
qin❂28쎯	-5686
teng❂9쎯	-5687
nan❂6쎯chao❂6쎯	-5688
zhuan❃4쎯huan❄21쎯	-5689
ke❃4쎯da❂30쎯	-5690
802.	-5691
jue❂33쎯ce❄26쎯	-5692
qing❁20쎯chun❁6쎯	-5693
6.0	-5694
zhuan❃4쎯yi❂61쎯	-5695
er❃12쎯ji❁48쎯	-5696
da❄0쎯jie❁30쎯	-5697
bai❃9쎯xing❄9쎯	-5698
duan❃0쎯xin❄8쎯	-5699
gong❁17쎯nong❂5쎯	-5700
mian❄2쎯,	-5701
fen❁11쎯	-5702
、hua❁11쎯	-5703
xi❁51쎯yin❃14쎯	-5704
chu❁3쎯lai❂16쎯	-5705
dai❄15쎯ling❃2쎯	-5706
duo❁5쎯,	-5707
na❃3쎯xie❁3쎯	-5708
lu❄83쎯jun❁2쎯	-5709
qu❁49쎯dong❄13쎯	-5710
{(	-5711
bei❃2쎯fang❁4쎯	-5712
chi❂55쎯	-5713
jia❁7쎯re❄1쎯	-5714
kuai❄18쎯jie❂42쎯	-5715
sha❁18쎯	-5716
xi❄46쎯tong❃9쎯、	-5717
yong❄3쎯tu❂38쎯	-5718
",()	-5719
tui❄8쎯xiu❁9쎯	-5720
,you❂29쎯yu❂35쎯	-5721
bao❄10쎯dao❄24쎯	-5722
he❂37쎯liu❂20쎯	-5723
zui❄4쎯wei❄14쎯	-5724
.3	-5725
});	-5726
fan❃3쎯“	-5727
bu❄23쎯ju❂23쎯	-5728
er❂16쎯qie❃쎯	-5729
shi❄18쎯,	-5730
..("	-5731
shi❁33쎯ci❂29쎯	-5732
ming❂8쎯xing❁7쎯	-5733
ben❄4쎯ji❁64쎯	-5734
po❂3쎯	-5735
/////.	-5736
fu❄26쎯	-5737
ji❂37쎯shi❂20쎯	-5738
",(){(	-5739
sou❁9쎯suo❃18쎯	-5740
);});	-5741
10000801	-5742
..("/////.	-5743
se❄29쎯de❅2쎯	-5744
10000801);});	-5745
jiao❃22쎯ban❄11쎯	-5746
..("/////.",(){(	-5747
yu❃26쎯	-5748
yan❁17쎯	-5749
yao❄12쎯pin❃0쎯	-5750
gai❄22쎯	-5751
mian❄2쎯dui❄14쎯	-5752
jian❁25쎯she❄29쎯	-5753
xu❄73쎯	-5754
min❂22쎯zheng❄12쎯	-5755
mo❁쎯	-5756
ye❃2쎯jin❁33쎯	-5757
lan❃24쎯	-5758
zhong❁4쎯deng❃2쎯	-5759
zhun❃0쎯que❄26쎯	-5760
shi❂13쎯de❅2쎯	-5761
shao❄12쎯	-5762
❄41쎯	-5763
.dang❁4쎯	-5764
you❄28쎯	-5765
chui❂10쎯	-5766
ting❃12쎯	-5767
na❃3쎯ma❅1쎯	-5768
xi❂9쎯guan❄12쎯	-5769
hu❄14쎯dong❄13쎯	-5770
zheng❁22쎯que❄26쎯	-5771
xian❄22쎯ji❂83쎯	-5772
jiang❃16쎯	-5773
yin❃37쎯shi❂39쎯	-5774
kao❃10쎯ru❄2쎯	-5775
mang❂29쎯	-5776
yi❄109쎯jian❄62쎯	-5777
wen❁6쎯quan❂17쎯	-5778
wei❁10쎯xian❃46쎯	-5779
ke❁34쎯li❄144쎯	-5780
fang❂3쎯	-5781
mei❃13쎯zhou❁11쎯	-5782
fei❁15쎯zhou❁11쎯	-5783
nu❂1쎯	-5784
qing❄14쎯li❄58쎯	-5785
ji❄95쎯cheng❂30쎯	-5786
fang❂4쎯zhi❃22쎯	-5787
ku❁14쎯	-5788
shi❂39쎯wu❄36쎯	-5789
ta❄43쎯	-5790
zhu❃4쎯zhi❄61쎯	-5791
chan❃12쎯quan❂12쎯	-5792
qu❃1쎯de❂7쎯le❅0쎯	-5793
fei❁19쎯ji❁48쎯	-5794
you❁5쎯hua❁1쎯	-5795
huo❄50쎯jiang❃8쎯	-5796
yan❂50쎯jiu❁16쎯.	-5797
shu❁8쎯ji❄117쎯,	-5798
mu❄13쎯	-5799
piao❁11쎯	-5800
jian❄85쎯pan❂10쎯	-5801
mo❄37쎯	-5802
er❄5쎯nian❂6쎯	-5803
yu❃44쎯wen❂5쎯	-5804
mian❄2쎯fen❃1쎯	-5805
hai❁6쎯	-5806
zei❂3쎯	-5807
gong❁10쎯yi❄165쎯	-5808
zhui❄	-5809
,que❄11쎯	-5810
ji❁64쎯lei❃25쎯	-5811
wei❄16쎯xing❁7쎯	-5812
sui❂8쎯	-5813
chu❄29쎯mu❄20쎯	-5814
72	-5815
dai❄15쎯tou❂4쎯	-5816
dao❄24쎯de❂9쎯	-5817
yi❃10쎯hou❄7쎯	-5818
jian❁68쎯	-5819
jiao❁8쎯hui❄60쎯	-5820
94	-5821
fa❁1쎯zhan❃11쎯.	-5822
nian❂6쎯ling❂114쎯	-5823
zi❃7쎯·	-5824
bao❄10쎯》	-5825
tu❄1쎯	-5826
zhi❁16쎯shi❄45쎯	-5827
xin❁26쎯	-5828
nan❂6쎯fang❁4쎯	-5829
zhi❁43쎯fang❂3쎯	-5830
gu❄23쎯ke❄14쎯	-5831
shu❄26쎯shi❂10쎯	-5832
diao❄5쎯	-5833
bie❂4쎯shu❄18쎯	-5834
chong❂17쎯shi❄71쎯	-5835
zai❄5쎯yu❂35쎯	-5836
chan❃12쎯yu❂35쎯	-5837
mai❄16쎯ke❄6쎯	-5838
kun❁9쎯chong❂14쎯	-5839
ci❁2쎯ji❁54쎯	-5840
tang❂13쎯dai❄9쎯	-5841
dian❃5쎯xing❂9쎯	-5842
ju❃16쎯	-5843
---	-5844
mu❄22쎯lu❄35쎯	-5845
shi❄18쎯gu❄12쎯	-5846
qing❁10쎯xi❁83쎯	-5847
qian❁35쎯	-5848
chu❁3쎯tu❃1쎯	-5849
shou❄5쎯hou❄7쎯	-5850
wang❁6쎯	-5851
%%	-5852
&;	-5853
ce❄26쎯lve❄11쎯	-5854
ji❄59쎯shu❂7쎯,	-5855
hu❄30쎯li❃15쎯	-5856
ling❂95쎯qing❄3쎯	-5857
bu❂0쎯shao❃2쎯	-5858
man❃4쎯yi❄109쎯	-5859
▁-	-5860
mu❃7쎯	-5861
xin❁7쎯de❅2쎯	-5862
wo❁5쎯	-5863
8gan❄3쎯	-5864
gong❁10쎯jiao❁8쎯	-5865
tao❂9쎯	-5866
lang❂17쎯	-5867
.192	-5868
kang❁6쎯xi❁107쎯	-5869
zhang❄19쎯ai❄33쎯	-5870
si❄17쎯da❄0쎯	-5871
tong❁5쎯dao❄24쎯	-5872
shen❁23쎯qing❃9쎯	-5873
rong❂43쎯	-5874
lv❄15쎯:	-5875
niu❃9쎯yue❁1쎯	-5876
ran❂12쎯er❂16쎯	-5877
min❂22쎯ying❂45쎯	-5878
、dan❄38쎯	-5879
u❃8쎯	-5880
xiao❃2쎯,	-5881
fang❂2쎯wu❁8쎯	-5882
qun❂6쎯dao❃7쎯	-5883
ji❄117쎯zhe❃2쎯	-5884
de❅2쎯xin❁7쎯	-5885
ye❃1쎯ke❃4쎯	-5886
tong❁5쎯zhi❁31쎯	-5887
ji❁48쎯gou❃2쎯.	-5888
du❂34쎯shu❁8쎯	-5889
ji❁54쎯guang❁2쎯	-5890
deng❃2쎯de❅2쎯	-5891
mo❂26쎯fa❃2쎯	-5892
wang❃7쎯wang❃7쎯	-5893
gong❁10쎯bu❄23쎯	-5894
ning❂10쎯xian❄22쎯	-5895
san❃5쎯	-5896
gong❁10쎯jian❁25쎯	-5897
wu❃9쎯nian❂6쎯	-5898
han❃15쎯	-5899
ji❄94쎯wei❁12쎯	-5900
7.0	-5901
zhang❃6쎯yue❁1쎯	-5902
li❄141쎯fang❁4쎯	-5903
ge❂29쎯lan❂13쎯	-5904
shi❄89쎯cha❁3쎯	-5905
lu❄35쎯yin❁44쎯	-5906
pai❂2쎯lie❄20쎯	-5907
fa❁1쎯de❅2쎯	-5908
.zhong❁4쎯guo❂11쎯	-5909
qian❂8쎯de❅2쎯	-5910
.6	-5911
shao❂3쎯	-5912
ben❄4쎯zhi❄30쎯	-5913
xi❁56쎯	-5914
lu❄70쎯、	-5915
,bing❁6쎯zai❄5쎯	-5916
guan❄23쎯mu❄15쎯	-5917
wu❃28쎯zhuang❁10쎯	-5918
ci❂26쎯	-5919
si❁22쎯wei❂38쎯	-5920
shou❁1쎯ji❂114쎯	-5921
yi❂42쎯	-5922
gai❁13쎯cun❁1쎯	-5923
qing❂6쎯gan❃6쎯	-5924
fu❄28쎯chu❄17쎯	-5925
xi❁65쎯la❄20쎯	-5926
ri❄2쎯-	-5927
mo❂12쎯ju❄16쎯	-5928
jian❁52쎯kong❄1쎯	-5929
bing❄12쎯de❅2쎯	-5930
xian❄47쎯de❅2쎯	-5931
ri❄2쎯chu❁3쎯	-5932
e❅쎯	-5933
i❁4쎯	-5934
ne❅쎯	-5935
4)	-5936
sui❃6쎯	-5937
shan❁16쎯	-5938
xing❄8쎯qu❄11쎯	-5939
shui❃0쎯ni❂15쎯	-5940
zhang❃6쎯chun❁6쎯	-5941
”(	-5942
jian❄29쎯de❅2쎯	-5943
zhu❂24쎯bu❄28쎯	-5944
lv❃11쎯	-5945
cha❁11쎯cao❂10쎯	-5946
shuang	-5947
wei❂11쎯rao❄2쎯	-5948
5.0	-5949
xiang❁9쎯si❄10쎯	-5950
hou❄7쎯lai❂16쎯	-5951
8.0	-5952
hen❂2쎯	-5953
dong❁3쎯bu❄38쎯	-5954
xie❄55쎯	-5955
,qie❃쎯	-5956
zhu❄31쎯:“	-5957
xiu❁11쎯gai❃2쎯	-5958
xie❄80쎯	-5959
zhi❁13쎯.	-5960
shu❃5쎯de❅2쎯	-5961
▁“	-5962
sheng❂5쎯	-5963
luo❂21쎯	-5964
zuo❄5쎯“	-5965
ji❁34쎯ceng❂3쎯	-5966
pin❂15쎯dao❄24쎯	-5967
cai❃4쎯se❄29쎯	-5968
tan❂21쎯	-5969
lei❃2	-5970
zhou❄16쎯	-5971
shu❁8쎯ji❂81쎯	-5972
,san❁1쎯	-5973
xian❄22쎯ren❂1쎯.	-5974
shan❄25쎯	-5975
,xin❁10쎯	-5976
guang❁2쎯xue❂6쎯	-5977
liu❂21쎯lan❃28쎯	-5978
shi❂35쎯bie❂4쎯	-5979
shi❄19쎯	-5980
xiao❁8쎯	-5981
ao❁4쎯	-5982
dian❄23쎯dong❄13쎯	-5983
ca❁4쎯	-5984
lu❄53쎯	-5985
gao❁13쎯	-5986
zuo❄7쎯fa❃2쎯	-5987
li❄59쎯xue❂6쎯	-5988
de❅2쎯zong❃5쎯	-5989
she❄29쎯zai❄5쎯	-5990
qiu❂36쎯chang❃4쎯	-5991
yi❁12쎯fa❃2쎯	-5992
ping❂30쎯	-5993
de❅2쎯qian❂8쎯	-5994
da❄0쎯qiao❂12쎯	-5995
77	-5996
.4	-5997
0-	-5998
li❄50쎯de❅2쎯	-5999
:zhi❁21쎯chi❂20쎯	-6000
、wen❂5쎯hua❁1쎯	-6001
zhu❄63쎯de❅0쎯	-6002
gong❃12쎯	-6003
gan❁16쎯cheng❁10쎯	-6004
.song❄4쎯	-6005
bai❃9쎯nian❂6쎯	-6006
mei❄24쎯	-6007
an❁16쎯	-6008
,zhi❂25쎯	-6009
zheng❄17쎯shu❁8쎯	-6010
,han❄20쎯	-6011
shou❃6쎯xian❁18쎯	-6012
su❁13쎯	-6013
bi❄100쎯mi❄24쎯	-6014
zu❃7쎯cheng❂29쎯.	-6015
zhuo❂8쎯yue❄46쎯	-6016
cheng❁18쎯	-6017
shi❂10쎯qi❁9쎯	-6018
cui❁3쎯	-6019
cui❁6쎯	-6020
shui❃0쎯zhong❁4쎯	-6021
hui❄27쎯,	-6022
fu❄36쎯you❃11쎯	-6023
huang❂56쎯he❂37쎯	-6024
shi❂10쎯da❄0쎯	-6025
sheng❁16쎯ri❄2쎯	-6026
,xian❄37쎯you❃11쎯	-6027
ai❄26쎯de❅2쎯	-6028
xue❂6쎯wei❄15쎯.	-6029
dang❃2쎯,	-6030
you❂24쎯,	-6031
liu❂20쎯liang❂19쎯	-6032
shuang❁11쎯	-6033
tou❂4쎯,	-6034
mo❄16쎯dun❁2쎯	-6035
tuo❂31쎯	-6036
》zhong❁4쎯de❅2쎯	-6037
tai❄3쎯yuan❂12쎯	-6038
lan❂13쎯zhou❁9쎯	-6039
chou❂12쎯	-6040
sheng❁16쎯cun❂1쎯	-6041
,si❄17쎯	-6042
gong❁10쎯zhu❃4쎯	-6043
kuo❄7쎯da❄0쎯	-6044
li❄98쎯	-6045
geng❁6쎯duo❁5쎯	-6046
guo❄2쎯lv❄12쎯	-6047
tu❁4쎯	-6048
bo❂41쎯shi❄28쎯,	-6049
xie❄54쎯	-6050
zhan❄10쎯yi❄103쎯	-6051
()、	-6052
rong❂48쎯	-6053
nian❂6쎯du❄8쎯	-6054
zhi❄30쎯cheng❂29쎯	-6055
bi❄73쎯qiu❁9쎯,	-6056
chui❂5쎯zhi❂25쎯	-6057
shi❄31쎯,	-6058
chuang❁8쎯	-6059
e❄21쎯	-6060
jiao❄36쎯	-6061
jie❂63쎯	-6062
gao❁20쎯ceng❂3쎯	-6063
1hao❂6쎯	-6064
lie❄34쎯shi❄28쎯	-6065
ya❁7쎯suo❁15쎯	-6066
bu❄38쎯wei❄15쎯	-6067
zheng❄12쎯cun❁1쎯	-6068
52	-6069
xiang❄24쎯.	-6070
jian❁25쎯qiu❁9쎯	-6071
pei❄19쎯bei❄26쎯	-6072
rao❂9쎯	-6073
shi❂10쎯yu❂37쎯	-6074
,shi❄45쎯zhi❃19쎯	-6075
zhai❁2쎯	-6076
cheng❂45쎯	-6077
shi❃6쎯yong❄3쎯.	-6078
mei❂47쎯	-6079
tu❂14쎯an❄16쎯	-6080
fei❁3쎯	-6081
jian❁85쎯de❅2쎯	-6082
hang❂13쎯tian❁5쎯	-6083
dang❃2쎯.	-6084
fa❁1쎯qi❃34쎯	-6085
gou❁23쎯	-6086
ben❃5쎯,	-6087
tiao❂9쎯li❄51쎯	-6088
xiang❁9쎯lin❂43쎯	-6089
tao❁16쎯	-6090
jing❁24쎯xin❁7쎯	-6091
jia❁13쎯ju❁14쎯	-6092
ping❂36쎯lun❄1쎯	-6093
zhao❄18쎯pian❁5쎯	-6094
ban❁7쎯	-6095
zhang❁4쎯jia❁13쎯	-6096
quan❂6쎯shu❁8쎯	-6097
mai❂	-6098
ge❄3쎯ji❂83쎯	-6099
zheng❃4쎯li❃15쎯	-6100
i❄31쎯	-6101
de❅2쎯、	-6102
gong❁17쎯ren❂1쎯	-6103
han❂25쎯gai❄17쎯	-6104
;you❃11쎯	-6105
bing❁6쎯bu❂0쎯	-6106
62	-6107
gao❃5쎯	-6108
bao❃27쎯	-6109
wei❄14쎯:	-6110
di❄26쎯guo❂11쎯	-6111
hun❂11쎯ning❂6쎯	-6112
▁qi❂29쎯ta❁3쎯	-6113
can❂19쎯	-6114
.yi❁10쎯	-6115
yuan❁16쎯	-6116
▁zhi❁21쎯chi❂20쎯	-6117
hua❁1쎯zhuang❁0쎯	-6118
、er❄5쎯	-6119
yan❂50쎯jiu❁16쎯,	-6120
dai❄15쎯you❃11쎯	-6121
sheng❁3쎯ji❂83쎯	-6122
jian❄29쎯cai❂3쎯	-6123
ke❁16쎯ke❁16쎯	-6124
che❁8쎯cheng❂52쎯	-6125
jian❄62쎯yu❂35쎯	-6126
zou❃0쎯xiang❄6쎯	-6127
li❃15쎯nian❄4쎯,	-6128
cai❃11쎯qu❃1쎯	-6129
gai❃2쎯bian❁13쎯	-6130
zong❃5쎯tong❃9쎯	-6131
tu❁14쎯po❄17쎯	-6132
(5	-6133
,ren❂1쎯	-6134
.yin❁11쎯	-6135
jiao❄6쎯zuo❄7쎯	-6136
guo❂11쎯fang❂4쎯	-6137
xiao❃2쎯xing❂9쎯	-6138
chan❃45쎯shu❄47쎯	-6139
zhi❄61쎯li❃15쎯	-6140
hui❄27쎯de❅2쎯	-6141
qi❃25쎯ben❄4쎯	-6142
jing❁19쎯	-6143
gu❃14쎯lao❃17쎯	-6144
zhang❃6쎯du❄8쎯	-6145
xun❂11쎯zhao❃3쎯	-6146
nan❂14쎯zi❃7쎯	-6147
geng❁6쎯xin❁10쎯	-6148
pin❃0쎯.	-6149
de❅2쎯wai❄0쎯	-6150
guo❃3쎯shi❂13쎯	-6151
xue❂6쎯,	-6152
cong❁36쎯	-6153
kong❄1쎯gu❃42쎯	-6154
de❅2쎯duo❁5쎯	-6155
li❄58쎯yi❄165쎯	-6156
fu❂60쎯zhou❁9쎯	-6157
7gan❄3쎯	-6158
shang❁4쎯mao❄39쎯	-6159
❁42쎯	-6160
,zhi❃19쎯	-6161
hu❁23쎯	-6162
de❅2쎯zhi❄104쎯	-6163
zhan❃11쎯xian❄37쎯	-6164
jun❁6쎯wei❄14쎯	-6165
men❂19쎯hu❄26쎯	-6166
long❂63쎯yan❂31쎯	-6167
,bu❂0쎯duan❄4쎯	-6168
fei❁4쎯	-6169
tan❄5쎯tao❃3쎯	-6170
huang❂16쎯	-6171
shi❁9쎯	-6172
bi❄117쎯	-6173
、hong❂44쎯	-6174
▁suo❃11쎯shu❃5쎯	-6175
ji❄55쎯	-6176
qi❄22쎯	-6177
fa❃2쎯ren❂1쎯	-6178
.tong❂13쎯shi❂20쎯	-6179
ren❄30쎯ke❃4쎯	-6180
jiang❄9쎯lie❄34쎯	-6181
jiao❁20쎯lian❄22쎯	-6182
▁『	-6183
an❄19쎯	-6184
lin❂53쎯	-6185
huo❂3쎯xing❄13쎯	-6186
.7	-6187
xi❄46쎯,	-6188
he❂52쎯lan❂13쎯	-6189
.qi❂29쎯zhong❁4쎯	-6190
)wei❄14쎯	-6191
long❂40쎯	-6192
wa❂0쎯	-6193
lei❄10쎯	-6194
1978nian❂6쎯	-6195
shao❄10쎯xing❄8쎯	-6196
bu❄21쎯	-6197
ge❃0쎯wu❄36쎯	-6198
la❁7쎯ding❁2쎯	-6199
xia❄3쎯she❄29쎯	-6200
fen❁4쎯zhi❁22쎯	-6201
jie❄29쎯de❅2쎯	-6202
an❁13쎯pai❂2쎯	-6203
xiu❄13쎯	-6204
gao❁20쎯wen❁6쎯	-6205
1956nian❂6쎯	-6206
li❃15쎯shi❄18쎯,	-6207
ba❁16쎯li❂98쎯	-6208
kun❄1쎯nan❂20쎯	-6209
tu❂14쎯xing❂11쎯	-6210
hua❁1쎯,	-6211
▁fen❁4쎯zi❃7쎯	-6212
2003	-6213
gou❄26쎯mai❃0쎯	-6214
mao❄18쎯	-6215
le❅0쎯《	-6216
neng❂2쎯liang❂19쎯	-6217
fan❄17쎯zui❄11쎯	-6218
、xiang❁26쎯	-6219
de❂7쎯dao❄3쎯le❅0쎯	-6220
da❄0쎯xue❂6쎯、	-6221
guai❄7쎯shou❄3쎯	-6222
jian❁25쎯guan❁4쎯	-6223
jian❄29쎯you❃11쎯	-6224
meng❄8쎯xiang❃6쎯	-6225
dian❄7쎯	-6226
qu❄6쎯pi❂17쎯	-6227
)ren❂1쎯.	-6228
dan❄10쎯shi❄45쎯	-6229
xian❄47쎯、	-6230
an❄9쎯	-6231
jun❁6쎯you❃11쎯	-6232
cheng❁28쎯zhi❁13쎯	-6233
,can❁3쎯jia❁7쎯	-6234
da❂14쎯jian❁25쎯	-6235
chang❄2쎯pian❁5쎯	-6236
guo❃11쎯	-6237
jiu❄23쎯hui❄27쎯	-6238
yong❁33쎯	-6239
qi❃34쎯cha❁3쎯	-6240
wei❄18쎯dao❄24쎯	-6241
,wo❃3쎯	-6242
》shi❄45쎯yi❁10쎯	-6243
2).	-6244
si❄17쎯nian❂6쎯	-6245
fang❁4쎯shi❄33쎯:	-6246
na❃2쎯	-6247
,wai❄0쎯	-6248
hui❄31쎯	-6249
cha❂27쎯xie❂16쎯	-6250
chu❁3쎯chang❃4쎯	-6251
jin❄32쎯sheng❁3쎯	-6252
long❂63쎯tou❂4쎯	-6253
mi❄24쎯ma❃8쎯	-6254
zhi❂20쎯wu❄36쎯.	-6255
yi❁10쎯ming❂7쎯	-6256
zhi❃20쎯zai❄5쎯	-6257
▁4.	-6258
fu❂43쎯shi❄99쎯	-6259
ping❂30쎯guo❃3쎯	-6260
.ming❂8쎯	-6261
hua❂14쎯ren❂1쎯	-6262
pan❂4쎯	-6263
lv❃14쎯ke❄14쎯	-6264
gong❁17쎯wei❁12쎯	-6265
shan❁23쎯	-6266
xu❁29쎯ni❃11쎯	-6267
ji❂81쎯guan❄33쎯	-6268
huan❄12쎯	-6269
2014nian❂6쎯	-6270
da❄0쎯yin❂10쎯	-6271
pan❁3쎯	-6272
,wo❃3쎯𑈼	-6273
sheng❁16쎯、	-6274
cui❃3쎯	-6275
ren❄30쎯zhen❁30쎯	-6276
feng❂17쎯	-6277
qin❁16쎯	-6278
▁zui❄4쎯da❄0쎯	-6279
tong❁5쎯hua❄26쎯	-6280
san❃7쎯re❄1쎯	-6281
bo❂73쎯	-6282
lu❂14쎯	-6283
gang❁32쎯tie❃5쎯	-6284
zhang❁10쎯	-6285
pin❂12쎯kun❄1쎯	-6286
pu❃3쎯bian❄43쎯	-6287
shen❄5쎯	-6288
xiao❄14쎯ying❁17쎯	-6289
ga❁1쎯fei❁3쎯	-6290
qu❁15쎯bie❂4쎯	-6291
ci❂31쎯dian❃5쎯	-6292
hai❃1쎯wai❄0쎯	-6293
mai❂5쎯	-6294
zhang❄18쎯	-6295
hai❃1쎯an❄13쎯	-6296
qian❃14쎯	-6297
shi❄99쎯yan❃39쎯	-6298
han❃11쎯shang❁4쎯	-6299
xi❄	-6300
ning❂10쎯xia❄6쎯	-6301
tong❃9쎯zhi❄61쎯	-6302
zhen❃27쎯zhi❄61쎯	-6303
guo❂11쎯li❄141쎯	-6304
1979nian❂6쎯	-6305
you❂24쎯hua❄18쎯	-6306
ru❃2쎯	-6307
du❄8쎯,	-6308
fang❂2쎯、	-6309
ban❄11쎯jun❁3쎯	-6310
ceng❂3쎯,	-6311
dou❁12쎯hui❄27쎯	-6312
63	-6313
chu❁4쎯ji❁47쎯	-6314
yue❄46쎯lai❂16쎯	-6315
shi❄33쎯de❅2쎯	-6316
xie❃8쎯ye❄44쎯	-6317
jie❄13쎯zhi❄104쎯	-6318
fen❁4쎯lei❄16쎯:	-6319
zheng❃4쎯xing❂11쎯	-6320
nuo❄14쎯	-6321
deng❃2쎯deng❃2쎯	-6322
feng❁58쎯wei❄18쎯	-6323
zhong❁4쎯xin❁7쎯.	-6324
fu❂43쎯wu❄12쎯、	-6325
dai❄9쎯ma❃8쎯	-6326
4,	-6327
cheng❁15쎯	-6328
gan❃6쎯qing❂6쎯	-6329
du❄21쎯	-6330
ying❄9쎯jian❄15쎯	-6331
320	-6332
zi❁21쎯	-6333
qin❂32쎯	-6334
xiang❃3쎯you❃11쎯	-6335
ban❄10쎯yan❃39쎯	-6336
zi❁45쎯zhi❄104쎯	-6337
rui❄13쎯	-6338
yi❁10쎯zuo❄12쎯	-6339
,qian❂8쎯	-6340
zhao❃3쎯dao❄3쎯	-6341
ye❃1쎯ke❃4쎯yi❃10쎯	-6342
1949nian❂6쎯	-6343
shi❄45쎯gan❄3쎯	-6344
shen❁40쎯gao❁20쎯	-6345
ying❂45쎯qiu❁9쎯	-6346
ming❂7쎯wei❄14쎯“	-6347
she❄29쎯ji❄116쎯,	-6348
.da❄0쎯	-6349
yue❄46쎯nan❂6쎯	-6350
huo❄56쎯bi❄51쎯	-6351
bu❂0쎯xiang❂11쎯	-6352
zhuan❁1쎯ti❂36쎯	-6353
tie❁0쎯	-6354
yi❁13쎯shi❁11쎯,	-6355
”han❄20쎯“	-6356
shi❂10쎯jiu❃3쎯	-6357
wei❄22쎯	-6358
de❅0쎯zhi❃13쎯:	-6359
▁gong❁17쎯zuo❄5쎯	-6360
.you❂29쎯	-6361
te❄5쎯dian❃11쎯:	-6362
cai❃11쎯gou❄26쎯	-6363
pu❂19쎯	-6364
dun❁4쎯	-6365
.zi❄16쎯	-6366
mo❄35쎯	-6367
ji❃15쎯	-6368
zai❃	-6369
xi❁74쎯	-6370
you❂24쎯、	-6371
li❂32쎯mi❃19쎯.	-6372
rong❂33쎯yu❂35쎯	-6373
1、	-6374
xiong❁4쎯	-6375
shi❄71쎯jue❂104쎯	-6376
03쎯	-6377
gu❃14쎯cheng❂17쎯	-6378
yuan❃4쎯cheng❂52쎯	-6379
sui❂9쎯ji❁48쎯	-6380
shou❄9쎯quan❂12쎯	-6381
zhao❄30쎯	-6382
feng❄2쎯huang❂16쎯	-6383
zhi❄47쎯》	-6384
di❄45쎯jiu❃3쎯	-6385
chuan❂4쎯gan❃6쎯	-6386
e❄25쎯	-6387
dun❄9쎯	-6388
,jia❁7쎯ru❄2쎯	-6389
gai❃2쎯jin❄61쎯	-6390
ben❃5쎯shen❁40쎯	-6391
,fu❂94쎯you❃11쎯	-6392
ji❂57쎯wei❄14쎯	-6393
zi❄16쎯hang❂16쎯	-6394
tou❁0쎯	-6395
、jin❁33쎯	-6396
tong❁5쎯yong❄3쎯	-6397
deng❃2쎯jiang❃8쎯.	-6398
u❄39쎯	-6399
guo❄2쎯de❅2쎯	-6400
qiu❁9쎯ji❁74쎯	-6401
mo❂12쎯te❄5쎯	-6402
pi❁12쎯zhen❁52쎯	-6403
i❃30쎯	-6404
ti❂36쎯cai❂3쎯	-6405
sheng❃9쎯shi❄32쎯	-6406
an❁32쎯	-6407
gang❁32쎯qin❂25쎯	-6408
,nan❂14쎯,196	-6409
kou❃1쎯qiang❁24쎯	-6410
diao❄17쎯yan❂50쎯	-6411
zong❃5쎯shu❄26쎯	-6412
ru❂9쎯ci❃2쎯	-6413
gan❄3쎯ben❄4쎯	-6414
9.0	-6415
lin❂25쎯	-6416
chan❃12쎯zhi❂7쎯	-6417
dian❃11쎯de❅2쎯	-6418
kong❁9쎯jun❁2쎯	-6419
ting❂5쎯che❁8쎯	-6420
ye❂4쎯	-6421
jin❄60쎯nian❂6쎯	-6422
hun❂10쎯	-6423
duan❄20쎯	-6424
bu❄28쎯hang❂16쎯	-6425
jue❂92쎯dui❄14쎯	-6426
zeng❁2쎯zhang❃6쎯	-6427
di❁11쎯	-6428
ye❄44쎯jing❁14쎯	-6429
xue❂6쎯jiao❄18쎯.	-6430
qiao❂12쎯liang❂7쎯	-6431
xin❁10쎯qu❁15쎯	-6432
liu❂20쎯cheng❂52쎯	-6433
,na❄11쎯	-6434
yin❁14쎯	-6435
hui❄27쎯.	-6436
hui❄27쎯、	-6437
zhuang❄3쎯	-6438
dao❄3쎯da❂30쎯	-6439
fan❄28쎯dian❄13쎯	-6440
:1.	-6441
hen❄1쎯	-6442
guo❁26쎯zhong❁4쎯	-6443
tiao❁4쎯zhan❄10쎯	-6444
te❄5쎯se❄29쎯de❅2쎯	-6445
53	-6446
mao❂11쎯.	-6447
bian❄16쎯li❄58쎯.	-6448
xiao❃2쎯shuo❁2쎯《	-6449
,ye❃1쎯ke❃4쎯	-6450
you❁5쎯ya❃9쎯	-6451
jian❄29쎯guo❂11쎯	-6452
xun❄30쎯	-6453
,ti❂17쎯gao❁20쎯	-6454
guan❃9쎯dao❄24쎯	-6455
chu❄17쎯de❅2쎯	-6456
hu❂26쎯	-6457
wen❁6쎯zhou❁9쎯	-6458
jin❄60쎯dai❄9쎯	-6459
▁4、	-6460
chong❁20쎯	-6461
hou❄7쎯wei❄16쎯	-6462
yi❂38쎯chang❂15쎯	-6463
zhai❃2쎯	-6464
ge❄3쎯da❄0쎯	-6465
zheng❄17쎯ming❂8쎯	-6466
feng❁58쎯guang❁2쎯	-6467
han❄33쎯zu❂9쎯,196	-6468
xue❂6쎯li❄62쎯,	-6469
yin❃14쎯dao❃5쎯	-6470
140	-6471
,bian❄16쎯	-6472
gou❁12쎯tong❁5쎯	-6473
zhan❄10쎯guo❂11쎯	-6474
▁6	-6475
▁shang❃1쎯	-6476
()de❅2쎯	-6477
zai❄4쎯ci❄16쎯	-6478
chan❂40쎯	-6479
fa❃2쎯de❅2쎯	-6480
bao❃9쎯xiu❁11쎯	-6481
mi❄24쎯feng❁17쎯	-6482
,zhi❄89쎯	-6483
song❄11쎯	-6484
92	-6485
bi❄145쎯mian❃10쎯	-6486
shi❃8쎯·	-6487
wang❃14쎯ye❄65쎯	-6488
ban❄5쎯dao❃7쎯	-6489
yun❃16쎯zuo❄5쎯	-6490
yu❃44쎯yin❁44쎯	-6491
die❂47쎯	-6492
xian❄66쎯	-6493
tuo❁8쎯	-6494
chuang❂5쎯	-6495
jiang❄9쎯,	-6496
yao❂42쎯	-6497
zai❄5쎯jiao❄18쎯	-6498
jin❁10쎯tian❁5쎯	-6499
jia❄3쎯	-6500
liu❂20쎯chuan❂4쎯	-6501
.1	-6502
191	-6503
bian❄39쎯	-6504
zhong❁4쎯wai❄0쎯	-6505
yan❄67쎯	-6506
zha❂16쎯	-6507
chuan❁5쎯yue❄46쎯	-6508
you❃11쎯suo❃11쎯	-6509
huo❂3쎯dong❄13쎯.	-6510
cheng❂29쎯ren❂1쎯	-6511
cheng❂38쎯	-6512
dian❄23쎯si❄15쎯	-6513
zhi❂25쎯li❄141쎯	-6514
zhi❃19쎯ding❄2쎯	-6515
fa❃2쎯.	-6516
wu❂27쎯	-6517
yi❂79쎯chan❃12쎯	-6518
pi❁11쎯fa❁1쎯	-6519
ben❃5쎯pin❃0쎯	-6520
ka❁2쎯	-6521
yi❄144쎯	-6522
dian❄11쎯	-6523
ben❄4쎯chong❂17쎯	-6524
gao❁20쎯dang❄12쎯	-6525
xiong❂2쎯hou❄6쎯	-6526
bian❁13쎯wei❁12쎯	-6527
yong❃8쎯	-6528
bu❂0쎯liang❂15쎯	-6529
shu❁44쎯song❄9쎯	-6530
zai❃5쎯	-6531
xia❄3쎯.	-6532
chu❁3쎯zi❄16쎯	-6533
fang❁4쎯fa❃2쎯.	-6534
nan❂6쎯chang❁6쎯	-6535
:-	-6536
tong❂13쎯yi❁10쎯	-6537
chuan❂13쎯bo❂73쎯	-6538
:zhong❁4쎯guo❂11쎯	-6539
fa❃2쎯、	-6540
xue❁2쎯	-6541
de❅2쎯hao❃0쎯	-6542
mei❂25쎯tan❄8쎯	-6543
978	-6544
yuan❄18쎯zhang❃6쎯	-6545
sheng❄1쎯	-6546
diao❁23쎯ke❄7쎯	-6547
wei❄14쎯ren❂1쎯	-6548
gui❃35쎯dao❄24쎯	-6549
yi❂20쎯biao❃5쎯	-6550
shou❄8쎯ming❄1쎯	-6551
dui❄14쎯fang❁4쎯	-6552
si❁22쎯kao❃10쎯	-6553
feng❁8쎯fu❄36쎯,	-6554
jiang❃8쎯li❄60쎯	-6555
xi❄70쎯	-6556
tong❂13쎯bu❄28쎯	-6557
》duo❃23쎯zhi❄47쎯	-6558
yu❃24쎯zhou❄16쎯	-6559
yin❁44쎯:	-6560
wu❃9쎯gan❄3쎯	-6561
87	-6562
,chan❃12쎯pin❃0쎯	-6563
xin❁10쎯cheng❂17쎯	-6564
chi❂	-6565
ji❄35쎯	-6566
zhao❃5쎯	-6567
hua❂14쎯zhong❁4쎯	-6568
xiang❁9쎯wang❄4쎯	-6569
fu❄28쎯ke❁16쎯	-6570
bao❄29쎯	-6571
ye❄44쎯ben❄4쎯	-6572
shang❃1쎯le❅0쎯	-6573
18쎯	-6574
pan❄3쎯	-6575
lun❂5쎯dun❁9쎯	-6576
shi❂10쎯zi❄6쎯	-6577
wai❄0쎯yu❃44쎯	-6578
yue❁0쎯:‘	-6579
sui❄16쎯de❅2쎯	-6580
i❄35쎯	-6581
bu❄38쎯jian❄15쎯	-6582
4000	-6583
pang❂6쎯	-6584
yi❄113쎯zhi❄30쎯	-6585
shu❃8쎯	-6586
hou❄10쎯	-6587
xin❄8쎯yu❄105쎯	-6588
gao❁20쎯duan❁4쎯	-6589
chao❁17쎯shi❄32쎯	-6590
:5	-6591
yu❂61쎯	-6592
.yu❃14쎯	-6593
ba❁16쎯xi❁143쎯	-6594
li❄141쎯zu❂11쎯	-6595
yi❂79쎯chuan❂4쎯	-6596
tang❄2쎯	-6597
han❄33쎯zi❄6쎯	-6598
dao❃5쎯dan❄21쎯	-6599
zhi❂32쎯yu❂35쎯	-6600
bi❃20쎯ya❄7쎯	-6601
de❅2쎯xing❂11쎯	-6602
de❅2쎯jing❁24쎯	-6603
niang❄1쎯	-6604
▁zhi❄30쎯	-6605
zong❃5쎯jie❂67쎯	-6606
41	-6607
gang❁24쎯	-6608
bu❂0쎯yao❁17쎯	-6609
zhang❄5쎯	-6610
.”qing❁10쎯	-6611
yan❃39쎯zou❄2쎯	-6612
chi❂48쎯	-6613
shi❄15쎯.	-6614
1964nian❂6쎯	-6615
hou❂13쎯	-6616
ce❄22쎯ding❄2쎯	-6617
ben❃5쎯de❅0쎯	-6618
125	-6619
mu❃7쎯dan❁5쎯	-6620
,sui❂9쎯	-6621
ting❃4쎯	-6622
er❂7쎯zi❃7쎯	-6623
ri❄2쎯zhi❄30쎯	-6624
jie❁13쎯shou❁1쎯	-6625
zhou❁5쎯ji❁47쎯	-6626
ding❃11쎯duan❁4쎯	-6627
gui❁24쎯	-6628
he❄23쎯se❄29쎯,	-6629
1600	-6630
mo❂12쎯kuai❄14쎯	-6631
,fang❄0쎯ru❄2쎯	-6632
xian❄61쎯zhi❄30쎯	-6633
zhao❄18쎯ming❂8쎯	-6634
187	-6635
zhi❄89쎯de❅2쎯	-6636
:(	-6637
jian❁14쎯zhi❂32쎯	-6638
shui❃0쎯de❅2쎯	-6639
pao❁3쎯	-6640
gan❁16쎯shi❄18쎯	-6641
luo❄17쎯yang❂35쎯	-6642
bao❁5쎯zi❃7쎯	-6643
)、《	-6644
ma❃14쎯lai❂16쎯	-6645
zhi❂32쎯ze❂44쎯	-6646
dai❄38쎯kuan❃7쎯	-6647
sui❄16쎯.	-6648
kang❁6쎯fu❄31쎯	-6649
liang❃5쎯ci❄16쎯	-6650
lou❂19쎯、	-6651
chun❂13쎯	-6652
qian❁52쎯	-6653
liang❃5쎯da❄0쎯	-6654
gong❁17쎯xue❂6쎯	-6655
han❂15쎯shou❄9쎯	-6656
na❄28쎯	-6657
》huo❄50쎯	-6658
teng❂9쎯tong❄3쎯	-6659
le❅0쎯da❄0쎯	-6660
ge❃0쎯ge❂29쎯	-6661
(ru❂9쎯	-6662
xiang❁26쎯wei❄18쎯	-6663
69	-6664
,xue❂6쎯jiao❄18쎯	-6665
bi❃20쎯ru❂9쎯	-6666
liu❂28쎯xia❄3쎯	-6667
que❄26쎯bao❃9쎯	-6668
bu❂0쎯dao❄3쎯	-6669
qing❂7쎯	-6670
hou❄7쎯ji❁47쎯	-6671
duo❁5쎯yuan❂10쎯	-6672
bu❄19쎯	-6673
10gan❄3쎯	-6674
de❅2쎯chong❂17쎯	-6675
yi❁13쎯sheng❁16쎯	-6676
ke❃10쎯	-6677
ren❂1쎯(	-6678
da❄0쎯zhan❄10쎯	-6679
dian❄23쎯ji❁48쎯	-6680
zhong❁19쎯yu❂35쎯	-6681
、bei❃2쎯	-6682
ji❄63쎯	-6683
xun❂19쎯	-6684
zhu❃4쎯ren❂1쎯	-6685
dong❄13쎯mai❄9쎯	-6686
zi❃17쎯	-6687
ying❃11쎯xiang❄4쎯	-6688
si❄32쎯	-6689
zhao❂쎯you❃11쎯《	-6690
lei❄16쎯de❅2쎯	-6691
hua❂14쎯nan❂6쎯	-6692
、wu❂17쎯	-6693
ju❂23쎯zhang❃6쎯、	-6694
fen❁4쎯mi❄33쎯	-6695
jin❁18쎯tie❁5쎯	-6696
/2	-6697
bi❁12쎯	-6698
jie❁13쎯jin❄60쎯	-6699
yu❂96쎯	-6700
qu❁40쎯shi❄22쎯	-6701
yao❂47쎯	-6702
sao❃3쎯miao❂5쎯	-6703
zhong❁4쎯ji❂83쎯	-6704
,yi❁10쎯gan❄3쎯	-6705
bian❁13쎯hao❂6쎯:	-6706
𑈼de❅2쎯	-6707
ye❃1쎯bu❂0쎯	-6708
tai❄9쎯guo❂11쎯	-6709
peng❂24쎯	-6710
shu❃23쎯biao❁14쎯	-6711
xiang❁9쎯chuan❂4쎯	-6712
zuo❄5쎯qiu❁9쎯	-6713
jin❁15쎯	-6714
fen❁4쎯ju❂23쎯	-6715
yi❃10쎯qian❂8쎯	-6716
chi❁23쎯jian❁25쎯	-6717
guan❁16쎯shang❃6쎯	-6718
peng❂37쎯	-6719
zuo❄7쎯hao❃0쎯	-6720
nin❂5쎯de❅2쎯	-6721
ai❄26쎯guo❂11쎯	-6722
cheng❂52쎯、	-6723
zhou❁5쎯nian❂6쎯	-6724
zhong❁4쎯zhuan❁1쎯	-6725
yin❁30쎯	-6726
shang❃1쎯wang❃14쎯	-6727
yu❃38쎯	-6728
e❄65쎯	-6729
de❅2쎯you❃11쎯	-6730
(190	-6731
,jiu❄23쎯shi❄45쎯	-6732
he❂47쎯	-6733
,fen❁4쎯	-6734
yan❂37쎯shen❁5쎯	-6735
xiao❃2쎯er❂7쎯	-6736
bo❂41쎯lan❃28쎯	-6737
la❄23쎯shi❂13쎯	-6738
shi❁8쎯qu❄6쎯	-6739
shan❁11쎯mai❄9쎯	-6740
si❁16쎯ma❃14쎯	-6741
wu❃28쎯shu❂7쎯	-6742
shu❄26쎯kong❄1쎯	-6743
tan❄3쎯	-6744
de❅2쎯hai❃1쎯	-6745
shang❃1쎯ji❂83쎯	-6746
hang❂16쎯.	-6747
zhuang❄5쎯.	-6748
gan❃6쎯shou❄4쎯	-6749
liu❂28쎯xue❂6쎯	-6750
liu❂20쎯tong❁5쎯	-6751
yi❄137쎯	-6752
xue❂6쎯yuan❄18쎯,	-6753
shen❂2쎯hua❄26쎯	-6754
zhen❄16쎯dong❄13쎯	-6755
mo❄16쎯yuan❂10쎯.	-6756
1963nian❂6쎯	-6757
ren❂1쎯han❄20쎯	-6758
shu❁8쎯ji❄117쎯;	-6759
yuan❂12쎯zi❃7쎯	-6760
nv❃0쎯,	-6761
tao❃3쎯lun❄1쎯	-6762
zhong❁4쎯nan❂6쎯	-6763
guo❁26쎯na❄11쎯	-6764
chuo	-6765
ruo❄8쎯gan❁16쎯	-6766
gui❄22쎯lin❂19쎯	-6767
、jiang❁4쎯	-6768
se❄29쎯ze❂24쎯	-6769
▁zui❄4쎯	-6770
zhi❁21쎯dui❄33쎯	-6771
yang❃6쎯sheng❁16쎯	-6772
diao❁23쎯su❄30쎯	-6773
chan❃12쎯han❄20쎯	-6774
xiu❁11쎯fu❄31쎯	-6775
yi❂44쎯	-6776
niu❂3쎯rou❄1쎯	-6777
zi❁45쎯shen❁18쎯	-6778
❁47쎯	-6779
xin❁24쎯	-6780
yi❄203쎯	-6781
chu❁3쎯fa❁1쎯	-6782
de❅2쎯zui❄4쎯	-6783
guang❁2쎯gu❃28쎯	-6784
ji❂52쎯xing❄13쎯	-6785
wang❃14쎯you❃9쎯	-6786
、jing❁27쎯ji❄72쎯	-6787
》han❄20쎯《	-6788
di❄45쎯1	-6789
jing❁24쎯mi❄24쎯	-6790
zhi❄104쎯,	-6791
huo❃0쎯ban❄3쎯	-6792
zhi❂16쎯fa❃2쎯	-6793
zuo❄5쎯pin❃0쎯《	-6794
zhi❃19쎯shu❄26쎯	-6795
an❄16쎯jian❄15쎯	-6796
bu❄2	-6797
zhi❄64쎯	-6798
bei❄52쎯er❃6쎯	-6799
2008	-6800
ying❁24쎯	-6801
cong❂6쎯er❂16쎯	-6802
jing❃23쎯cha❂12쎯	-6803
""	-6804
mi❂37쎯	-6805
,wei❄14쎯le❅0쎯	-6806
xuan❂11쎯zhuan❃4쎯	-6807
ming❂7쎯yu❄105쎯	-6808
qiao❄20쎯	-6809
san❁1쎯ji❂83쎯	-6810
tong❁5쎯su❂0쎯	-6811
▁*	-6812
ming❂7쎯jia❁13쎯	-6813
zhu❄53쎯	-6814
ji❄117쎯》	-6815
1:	-6816
da❄0쎯qi❃25쎯	-6817
zhen❄30쎯.	-6818
de❅2쎯mei❃13쎯	-6819
guang❁2쎯qu❁49쎯	-6820
ge❂	-6821
ling❂62쎯	-6822
hu❂36쎯	-6823
tuo❃6쎯yuan❂17쎯	-6824
jiao❁8쎯cha❁5쎯	-6825
,shi❄45쎯you❂29쎯	-6826
xian❄22쎯.	-6827
xian❄22쎯ren❂1쎯	-6828
ping❂17쎯si❄15쎯.	-6829
wei❂11쎯chao❁6쎯”	-6830
you❂25쎯yong❃22쎯	-6831
1.2	-6832
zong❃5쎯xian❄47쎯	-6833
▁yi❁10쎯	-6834
xue❂6쎯bao❄10쎯	-6835
jian❁25쎯fa❁1쎯、	-6836
men❂19쎯,	-6837
guang❁2쎯ze❂24쎯	-6838
wei❂28쎯	-6839
mang❂15쎯	-6840
xie❃8쎯ya❁7쎯	-6841
er❂16쎯cheng❂29쎯.	-6842
an❁18쎯ji❁34쎯	-6843
hang❂16쎯de❅2쎯	-6844
ping❂17쎯mi❃19쎯	-6845
ji❁37쎯	-6846
hang❂16쎯,	-6847
dang❃3쎯	-6848
xin❁25쎯	-6849
xuan❃8쎯shou❃4쎯	-6850
zhang❃6쎯an❁13쎯	-6851
59	-6852
lai❂16쎯dao❄3쎯	-6853
bao❁2쎯	-6854
chou❃1쎯	-6855
bao❄14쎯	-6856
mei❃9쎯yi❁10쎯	-6857
dui❄14쎯bi❃20쎯	-6858
gao❁20쎯da❂30쎯	-6859
jiang❃19쎯shi❁11쎯	-6860
tian❁5쎯de❅0쎯	-6861
ju❄18쎯qing❂6쎯	-6862
huo❃2쎯shan❁11쎯	-6863
ju❄18쎯yuan❄18쎯	-6864
fen❁4쎯zhi❁21쎯	-6865
shai	-6866
da❄0쎯xue❂6쎯,	-6867
yan❃42쎯jing❁19쎯	-6868
kao❃10쎯gu❃14쎯	-6869
song❄4쎯dai❄9쎯	-6870
、bu❂0쎯	-6871
zuo❄5쎯pin❃0쎯.	-6872
chu❁3쎯shen❁40쎯	-6873
shai❁2쎯	-6874
,zheng❁22쎯	-6875
yuan❄9쎯	-6876
bai❂2쎯tang❂28쎯	-6877
.’	-6878
se❄23쎯	-6879
luo❂21쎯ji❂107쎯	-6880
73	-6881
.ke❃4쎯	-6882
te❄5쎯chong❂11쎯	-6883
yan❂50쎯jiu❁16쎯、	-6884
lao❁0쎯chu❁3쎯	-6885
ji❁21쎯nian❂6쎯	-6886
yi❁10쎯pi❁11쎯	-6887
kao❃10쎯cha❂12쎯	-6888
ge❄3쎯jie❄29쎯	-6889
zhao❂쎯you❃11쎯	-6890
bian❄19쎯xing❂11쎯	-6891
mao❂11쎯,	-6892
jiang❁5쎯qi❂29쎯	-6893
lian❄22쎯xi❂9쎯	-6894
de❅2쎯zhang❃6쎯	-6895
、fu❂43쎯wu❄12쎯	-6896
shang❁2쎯hai❄8쎯	-6897
yan❃39쎯yuan❂15쎯,	-6898
shou❃4쎯ce❄11쎯	-6899
shou❃6쎯xi❂12쎯	-6900
,shi❂13쎯xian❄37쎯	-6901
ye❄44쎯ya❁7쎯	-6902
▁ji❁34쎯ben❃5쎯	-6903
huo❄26쎯	-6904
yu❃44쎯;	-6905
long❃12쎯	-6906
ji❁66쎯	-6907
yue❁0쎯:“	-6908
xian❄22쎯,	-6909
4.5	-6910
bao❃9쎯liu❂28쎯	-6911
tai❁5쎯	-6912
nan❂14쎯nv❃0쎯	-6913
zhi❁13쎯xiang❁1쎯	-6914
,ta❁3쎯𑈼	-6915
jiao❁20쎯yu❄93쎯、	-6916
zuo❄7쎯chu❁3쎯	-6917
jia❄9쎯shi❃20쎯	-6918
shen❁18쎯ke❄7쎯	-6919
sui	-6920
gan❃19쎯	-6921
yin❃11쎯	-6922
,cheng❂29쎯	-6923
jiao❄35쎯da❄0쎯	-6924
huo❄56쎯yun❃16쎯	-6925
di❄45쎯2	-6926
kui❄15쎯	-6927
en❂7쎯	-6928
▁ci❃2쎯	-6929
,yi❁10쎯zhi❂25쎯	-6930
zha❁16쎯	-6931
hun❁7쎯	-6932
hao❂6쎯,	-6933
gu❄12쎯zhang❄19쎯	-6934
niu❃4쎯	-6935
qi❁22쎯xi❁70쎯	-6936
di❂41쎯jian❄15쎯	-6937
zhi❄47쎯yuan❄10쎯	-6938
xiao❁29쎯fang❂4쎯	-6939
sun❃4쎯shang❁2쎯	-6940
fa❂13쎯	-6941
jiao❁22쎯	-6942
shi❄45쎯dui❄14쎯	-6943
1ren❂1쎯,	-6944
▁san❁1쎯	-6945
gu❄12쎯shi❄18쎯.	-6946
fang❄0쎯she❄8쎯	-6947
ke❁16쎯yuan❄18쎯	-6948
can❁3쎯jian❄62쎯	-6949
bu❄24쎯	-6950
ji❄94쎯lu❄35쎯	-6951
shen❁18쎯du❄8쎯	-6952
,ni❃6쎯	-6953
gao❁20쎯ya❁7쎯	-6954
er❂16쎯yan❂61쎯	-6955
.”song❄4쎯	-6956
xin❁10쎯hua❂14쎯	-6957
xi❃11쎯cheng❁10쎯,	-6958
ben❄4쎯zhang❃6쎯	-6959
su❂0쎯cheng❁28쎯	-6960
shan❁11쎯zhen❄30쎯	-6961
.ju❁18쎯	-6962
jing❄30쎯sai❄4쎯	-6963
zhao❁3쎯shang❁4쎯	-6964
rong❂33쎯ye❄44쎯	-6965
guo❂11쎯wang❂5쎯	-6966
zhu❃4쎯ben❄4쎯	-6967
wen❂5쎯hua❁1쎯,	-6968
hong❂44쎯wai❄0쎯	-6969
yi❁10쎯dian❃11쎯	-6970
hao❂14쎯sheng❁3쎯	-6971
1965nian❂6쎯	-6972
chou❄2쎯	-6973
12-	-6974
ao❄25쎯men❂19쎯	-6975
liu❄3쎯nian❂6쎯	-6976
shang❁4쎯chang❃4쎯	-6977
jian❃52쎯jie❄13쎯:	-6978
.dui❄14쎯	-6979
gong❁19쎯	-6980
qu❃1쎯chu❁3쎯	-6981
quan❂12쎯li❄58쎯	-6982
jie❂27쎯	-6983
xu❃19쎯ke❃4쎯	-6984
ling❂58쎯huo❂3쎯	-6985
heng❁0쎯	-6986
fan❂35쎯zhi❂22쎯	-6987
pei❄19쎯you❃11쎯	-6988
186	-6989
yi❁10쎯suo❃11쎯	-6990
xue❂6쎯yuan❄18쎯.	-6991
kan❃4쎯	-6992
yu❂37쎯ren❂1쎯,	-6993
?”	-6994
zhi❄30쎯yao❄12쎯	-6995
20-	-6996
he❁5쎯	-6997
de❅2쎯re❄1쎯	-6998
,te❄5쎯bie❂4쎯	-6999
wei❁12쎯tuo❁6쎯	-7000
;hua❁11쎯	-7001
qi❂29쎯shi❂13쎯	-7002
bei❄26쎯yong❄3쎯	-7003
wu❂17쎯xian❄61쎯	-7004
jiao❁20쎯shi❁11쎯,	-7005
ji❄47쎯	-7006
qiu❁9쎯、	-7007
lu❄70쎯yu❃14쎯	-7008
kou❃1쎯jing❄17쎯	-7009
zhang❃6쎯yu❂35쎯	-7010
de❅2쎯tian❁5쎯	-7011
shan❁11쎯po❁2쎯	-7012
zhan❃16쎯	-7013
1962nian❂6쎯	-7014
hao❂6쎯ma❃8쎯	-7015
xin❁7쎯zang❄4쎯	-7016
1.8	-7017
cuo❄18쎯wu❄44쎯	-7018
guan❁6쎯fang❁4쎯	-7019
shan❁11쎯de❅0쎯	-7020
mei❃9쎯tian❁5쎯	-7021
hua❁11쎯sheng❁16쎯	-7022
bu❂0쎯zhi❁31쎯	-7023
lie❄20쎯wei❄14쎯	-7024
jing❃13쎯dian❃11쎯	-7025
jie❂48쎯chu❁3쎯	-7026
suo❃11쎯suo❃11쎯	-7027
guan❃15쎯、	-7028
9gan❄3쎯	-7029
de❂9쎯·	-7030
qian❂8쎯hou❄7쎯	-7031
shi❄71쎯jiao❃57쎯	-7032
,.	-7033
li❄62쎯dai❄9쎯	-7034
jie❁13쎯dai❁1쎯	-7035
bu❄38쎯shou❃6쎯	-7036
ji❁80쎯fu❁39쎯	-7037
lan❂41쎯se❄29쎯	-7038
sui❄46쎯	-7039
geng❁6쎯shi❄45쎯	-7040
jing❁24쎯xuan❃8쎯	-7041
dian❄23쎯lan❃24쎯	-7042
❄38쎯	-7043
pi❄14쎯	-7044
yu❄126쎯ce❄22쎯	-7045
wang❂5쎯chao❂6쎯	-7046
sheng❁16쎯ya❂10쎯	-7047
170	-7048
de❅0쎯duan❄7쎯	-7049
li❃15쎯shi❄18쎯、	-7050
bi❃24쎯ming❂7쎯	-7051
zhi❁16쎯neng❂2쎯	-7052
jin❃24쎯lin❂43쎯	-7053
fan❁14쎯chao❃7쎯	-7054
,dou❁12쎯	-7055
ju❄65쎯xian❄22쎯	-7056
qi❄4	-7057
mao❂15쎯	-7058
/100	-7059
,xiang❄6쎯	-7060
dian❄23쎯ci❂22쎯	-7061
hong❁12쎯	-7062
dian❄23쎯xin❄8쎯	-7063
jiao❁20쎯shi❄31쎯	-7064
wu❄36쎯pin❃0쎯	-7065
miao❂5쎯xie❃4쎯	-7066
xing❂11쎯huo❄27쎯	-7067
jiu❃3쎯nian❂6쎯	-7068
shi❁11쎯zi❁45쎯	-7069
fang❁4쎯yan❂61쎯	-7070
350	-7071
ni❃11쎯ren❂4쎯	-7072
jing❁24쎯ying❁44쎯	-7073
yan❃30쎯	-7074
,chong❂17쎯	-7075
▁wu❃9쎯	-7076
,ru❂9쎯guo❃3쎯	-7077
bao❁4쎯gua❁11쎯:	-7078
xiang❄20쎯.	-7079
la❁7쎯si❁24쎯	-7080
feng❁58쎯qing❂6쎯	-7081
,cu❄9쎯jin❄61쎯	-7082
gong❁9쎯dian❄23쎯	-7083
lu❂	-7084
,jian❁25쎯	-7085
lang❄4쎯man❄13쎯	-7086
50쎯	-7087
90%	-7088
ju❄74쎯	-7089
qing❁10쎯re❄1쎯	-7090
hua❁11쎯hui❄31쎯	-7091
qian❁13쎯nian❂6쎯	-7092
zhan❄17쎯.	-7093
,-	-7094
ba❄17쎯	-7095
jie❁18쎯	-7096
:10	-7097
ao❄9쎯	-7098
ming❄1쎯yun❃16쎯	-7099
zong❃5쎯zhi❁21쎯	-7100
xiao❃2쎯mai❄16쎯	-7101
zhi❄47쎯·	-7102
guan❁16쎯ce❄22쎯	-7103
▁er❄5쎯	-7104
zu❃5쎯ji❂81쎯	-7105
shi❁16쎯du❄8쎯	-7106
cao❃5쎯yuan❂12쎯	-7107
wu❂17쎯lun❄1쎯	-7108
(huo❄27쎯	-7109
da❄0쎯fu❁13쎯	-7110
xi❁81쎯	-7111
gang❃4쎯wei❄15쎯	-7112
zhuan❁1쎯ji❂107쎯《	-7113
ke❄6쎯si❁24쎯	-7114
xiu❁11쎯jian❄29쎯	-7115
hao❃0쎯.	-7116
15ri❄2쎯	-7117
dun❄20쎯	-7118
jiang❄3쎯	-7119
74	-7120
zhi❁44쎯ma❂8쎯	-7121
、wu❃9쎯	-7122
qian❁61쎯	-7123
de❅0쎯qu❁15쎯.	-7124
zhi❁21쎯fu❄24쎯	-7125
tan❂30쎯	-7126
ji❂114쎯《	-7127
ren❂1쎯zhi❁13쎯	-7128
rong❂21쎯ji❁64쎯	-7129
lan❂25쎯mu❄22쎯	-7130
xiao❄14쎯li❄59쎯	-7131
yan❁27쎯	-7132
yan❂44쎯hai❃1쎯	-7133
tong❂13쎯yang❂17쎯	-7134
ta❄26쎯zhan❃11쎯	-7135
bu❄38쎯fen❁4쎯.	-7136
fang❂2쎯jian❁85쎯	-7137
bo❂47쎯	-7138
diao❄23쎯	-7139
yan❁33쎯si❄15쎯	-7140
yan❄14쎯	-7141
256	-7142
gou❃2쎯jian❄29쎯	-7143
han❃11쎯jia❁13쎯	-7144
xing❄8쎯jian❄29쎯	-7145
yue❄29쎯,	-7146
qun❂6쎯ben❄4쎯	-7147
shu❁8쎯yuan❄18쎯	-7148
yan❂20쎯jin❃29쎯	-7149
rong❂21쎯na❄20쎯	-7150
:16	-7151
shi❄32쎯de❅2쎯	-7152
kou❃1쎯wei❄18쎯	-7153
han❄38쎯jie❁13쎯	-7154
po❁4쎯	-7155
kao❃10쎯bi❄126쎯	-7156
fu❄48쎯bu❄38쎯	-7157
shuang❁4쎯fang❁4쎯	-7158
、duo❁5쎯	-7159
peng❂12쎯	-7160
ju❄18쎯qiu❂19쎯	-7161
fu❄32쎯ke❁16쎯	-7162
tu❁14쎯ran❂12쎯	-7163
shu❄35쎯	-7164
yi❂58쎯nan❂20쎯	-7165
▁shi❄45쎯	-7166
cun❁1쎯peng❂7쎯	-7167
,xian❄37쎯wei❄14쎯	-7168
qiao❂5쎯mu❄15쎯	-7169
,you❂16쎯qi❂29쎯	-7170
han❃11쎯fang❂2쎯	-7171
zhong❁4쎯zui❄4쎯	-7172
yuan❂17쎯zhu❄26쎯	-7173
chuang❁11쎯kou❃1쎯	-7174
jie❂67쎯jing❁14쎯	-7175
ju❄39쎯	-7176
ke❃4쎯xuan❃8쎯	-7177
gong❁20쎯	-7178
yan❁34쎯	-7179
mu❄15쎯ma❃14쎯	-7180
yi❁10쎯zhi❁21쎯	-7181
yu❂127쎯lei❄16쎯	-7182
zhao❁3쎯pin❄1쎯	-7183
wen❂5쎯lian❂53쎯	-7184
hui❂1쎯dao❄3쎯	-7185
mei❃13쎯yuan❂10쎯	-7186
ji❂94쎯	-7187
cheng❂13쎯	-7188
zuo❄12쎯la❄23쎯	-7189
ming❂8쎯que❄26쎯	-7190
93	-7191
xian❄22쎯zhang❃6쎯	-7192
.ta❁5쎯	-7193
chang❄9쎯xiao❁61쎯	-7194
yi❃10쎯qi❂29쎯	-7195
),zi❄6쎯	-7196
、dong❁3쎯	-7197
de❅2쎯shou❃6쎯	-7198
tan❁18쎯	-7199
re❄1쎯shui❃0쎯	-7200
cai❃11쎯ji❂114쎯	-7201
shi❁11쎯cong❂6쎯	-7202
mei❃9쎯ri❄2쎯	-7203
20nian❂6쎯	-7204
de❅0쎯dian❃11쎯	-7205
cheng❂30쎯bao❁4쎯	-7206
kong❃2쎯bu❄24쎯	-7207
you❃11쎯ren❂1쎯	-7208
,cai❃11쎯yong❄3쎯	-7209
,gen❁0쎯ju❁18쎯	-7210
”“	-7211
ren❂1쎯;	-7212
gen❁0쎯ben❃5쎯	-7213
yu❄105쎯wei❄14쎯	-7214
quan❂6쎯xin❁10쎯	-7215
、ke❁16쎯yan❂50쎯	-7216
de❅2쎯qing❂6쎯	-7217
fei❄37쎯yong❄3쎯	-7218
ni❁쎯	-7219
pu❃3쎯ji❂37쎯	-7220
shang❄2쎯shu❁8쎯	-7221
jiao❄18쎯qu❁15쎯	-7222
mei❃13쎯guan❁16쎯	-7223
qia❄9쎯	-7224
wen❃3쎯	-7225
yao❁19쎯qing❃9쎯	-7226
,zhi❁21쎯chi❂20쎯	-7227
yang❂10쎯zhou❁9쎯	-7228
:4	-7229
hui❁40쎯huang❂28쎯	-7230
duo❁5쎯yang❂17쎯	-7231
yun❁2쎯	-7232
、xian❄22쎯	-7233
chan❃12쎯de❅0쎯	-7234
jin❃24쎯mi❄24쎯	-7235
:2	-7236
zhi❁16쎯yao❁17쎯	-7237
xue❂6쎯yuan❂15쎯	-7238
)(	-7239
tong❂13쎯xue❂6쎯	-7240
qing❁10쎯chao❂6쎯	-7241
si❁24쎯ke❁16쎯	-7242
de❅2쎯te❄5쎯	-7243
fa❃2쎯zhi❄30쎯	-7244
bian❁13쎯ju❄18쎯	-7245
xie❁5쎯	-7246
yan❄19쎯	-7247
yu❃44쎯,	-7248
you❃11쎯xie❁3쎯	-7249
12gan❄3쎯	-7250
yue❁1쎯han❄43쎯	-7251
qi❄20쎯.	-7252
xie❂37쎯	-7253
feng❁21쎯	-7254
ding❄2쎯wei❄14쎯	-7255
xue❂6쎯jiao❄18쎯,	-7256
❄39쎯	-7257
yong❄3쎯shui❃0쎯	-7258
shai❄1쎯	-7259
zhou❄22쎯	-7260
de❅2쎯hua❄26쎯	-7261
chong❁10쎯ji❁22쎯	-7262
ji❄116쎯liang❂19쎯	-7263
bao❁10쎯	-7264
zhi❁13쎯lu❄70쎯	-7265
lian❂69쎯zai❄8쎯	-7266
:3	-7267
ji❄36쎯、	-7268
hou❄7쎯qin❂12쎯	-7269
ke❃4쎯jian❄62쎯	-7270
li❄62쎯jing❁27쎯	-7271
shi❄15쎯,	-7272
xing❂11쎯.	-7273
chao❂6쎯yang❂35쎯	-7274
shi❄18쎯.	-7275
cha❁8쎯yi❂38쎯	-7276
qi❃25쎯,	-7277
fu❄74쎯jian❄15쎯	-7278
qi❃34쎯dian❃11쎯	-7279
、hai❃1쎯	-7280
xin❁7쎯,	-7281
xi❄33쎯qu❁25쎯	-7282
xiao❃2쎯huo❃2쎯	-7283
),shi❄45쎯	-7284
lan❂36쎯qiu❂36쎯	-7285
lao❂23쎯	-7286
ju❂23쎯bu❄38쎯	-7287
ge❄3쎯guo❂11쎯	-7288
ming❂7쎯qing❄14쎯	-7289
sun❃4쎯shi❁8쎯	-7290
neng❂2쎯li❄59쎯.	-7291
yong❃21쎯yuan❃4쎯	-7292
❁58쎯	-7293
jie❃6쎯shi❄89쎯:	-7294
yin❃14쎯qing❂7쎯	-7295
gang❃6쎯kou❃1쎯	-7296
ju❂23쎯zhang❃6쎯.	-7297
▁·	-7298
xi❄50쎯jun❁15쎯	-7299
ye❃7쎯sheng❁16쎯	-7300
xiang❁9쎯xin❄8쎯	-7301
zhuang❄0쎯zu❂9쎯	-7302
die❁4쎯	-7303
de❅2쎯na❄11쎯	-7304
yu❂35쎯shi❄45쎯	-7305
qing❁10쎯xin❁10쎯	-7306
ji❁48쎯xiang❁11쎯	-7307
ta❁3쎯zai❄5쎯	-7308
liang❃5쎯nian❂6쎯	-7309
lian❂53쎯bang❁13쎯	-7310
fan❁4쎯	-7311
xiang❁25쎯	-7312
jia❁7쎯shang❃1쎯	-7313
de❅2쎯bu❂0쎯	-7314
hua❁1쎯dan❄38쎯	-7315
ren❄38쎯	-7316
liu❂20쎯yu❄31쎯	-7317
guang❁2쎯pan❂10쎯	-7318
lu❃4쎯	-7319
mou❃2쎯chong❂11쎯	-7320
▁(2).	-7321
ya❁14쎯	-7322
song❄7쎯	-7323
89	-7324
ti❂30쎯	-7325
quan❂6쎯ben❄4쎯	-7326
zhu❄19쎯fang❂2쎯	-7327
tong❂44쎯	-7328
jiao❁20쎯tang❂15쎯	-7329
chan❃12쎯pin❃0쎯,	-7330
jiao❄35쎯gao❁20쎯	-7331
gan❁25쎯cao❃5쎯	-7332
dan❁9쎯wei❄15쎯,	-7333
qi❄20쎯jian❄15쎯	-7334
mei❂27쎯	-7335
zui❄4쎯chu❁4쎯	-7336
ling❂99쎯shou❄5쎯	-7337
,dao❄3쎯	-7338
guan❁16쎯nian❄4쎯	-7339
xuan❁9쎯bu❄23쎯	-7340
mo❄16쎯yu❂37쎯	-7341
hu❄26쎯shu❄26쎯	-7342
qiu❂19쎯wei❁12쎯	-7343
.xian❄37쎯wei❄14쎯	-7344
”;	-7345
,zui❄4쎯hou❄7쎯	-7346
zuo❄5쎯zhe❃2쎯:	-7347
lian❂58쎯hua❁11쎯	-7348
,zhi❄88쎯	-7349
yi❂42쎯zu❂9쎯	-7350
ou❁8쎯mei❃13쎯	-7351
yuan❂10쎯nian❂6쎯(	-7352
shi❂13쎯li❄51쎯	-7353
geng❁6쎯wei❄14쎯	-7354
de❅2쎯san❁1쎯	-7355
hua❂14쎯bei❃2쎯	-7356
leng❃쎯que❄11쎯	-7357
、shang❃1쎯hai❃1쎯	-7358
sha❁4쎯hai❄8쎯	-7359
xi❄50쎯ni❄24쎯	-7360
min❃24쎯dong❁3쎯	-7361
shen❂2쎯ji❁36쎯	-7362
%de❅2쎯	-7363
pian❁5쎯、	-7364
lan❃17쎯	-7365
dian❃11쎯ji❁22쎯	-7366
ji❁34쎯du❁8쎯	-7367
yi❁10쎯zhi❄89쎯	-7368
a❁6쎯la❁7쎯bo❂37쎯	-7369
di❂17쎯ren❂1쎯	-7370
yan❄3	-7371
bao❁7쎯	-7372
you❃11쎯shi❂20쎯	-7373
ping❂36쎯wei❄14쎯“	-7374
xiang❃5쎯ying❁17쎯	-7375
mao❂11쎯ze❂24쎯	-7376
zhu❃4쎯xi❂12쎯.	-7377
shou❃6쎯jia❁13쎯	-7378
wan❃24쎯	-7379
bie❂4쎯ming❂7쎯	-7380
kuan❁0쎯dai❄15쎯	-7381
xiang❁9쎯bi❃20쎯	-7382
jian❁52쎯guan❃9쎯	-7383
huang❂34쎯jia❁13쎯	-7384
,fen❁4쎯bie❂4쎯	-7385
shi❄60쎯li❄51쎯	-7386
fen❁4쎯jiao❄18쎯	-7387
,jing❁27쎯guo❄2쎯	-7388
qu❁29쎯	-7389
ban❁12쎯,	-7390
jing❁24쎯cai❃4쎯	-7391
chen❄10쎯	-7392
cha❁3쎯wu❄12쎯	-7393
tie❃5쎯dao❄24쎯	-7394
xiang❁1쎯,	-7395
fu❃28쎯shi❂32쎯	-7396
xiao❁29쎯xi❁70쎯	-7397
zhang❃6쎯jian❁14쎯	-7398
ke❁16쎯,	-7399
da❄0쎯yue❁1쎯	-7400
79	-7401
ji❂58쎯	-7402
wen❁6쎯xin❁26쎯	-7403
zhi❁21쎯cheng❁15쎯	-7404
shang❃1쎯mian❄2쎯	-7405
pian❁5쎯.	-7406
tai❄3쎯zi❃7쎯	-7407
ti❂17쎯qu❃1쎯	-7408
shi❁11쎯sheng❁16쎯	-7409
mou❃2쎯yi❁10쎯	-7410
,suo❃11쎯	-7411
1976nian❂6쎯	-7412
jian❁25쎯shui❃0쎯	-7413
28ri❄2쎯	-7414
hai❃1쎯shi❄32쎯	-7415
de❅0쎯shang❃1쎯	-7416
wu❄36쎯chong❂11쎯	-7417
shi❄45쎯jing❁27쎯	-7418
ze❃쎯ma❅1쎯	-7419
pu❂19쎯sa❄13쎯	-7420
jiang❄9쎯diao❄17쎯	-7421
fa❁1쎯song❄9쎯	-7422
zhu❄31쎯ru❄2쎯	-7423
bian❄16쎯li❄58쎯,	-7424
ju❄45쎯dao❄24쎯	-7425
shi❄89쎯fang❄0쎯	-7426
82	-7427
83	-7428
lu❃27쎯xun❄28쎯	-7429
mi❄24쎯qie❁1쎯	-7430
bu❂0쎯jiu❃1쎯	-7431
、she❄22쎯hui❄27쎯	-7432
wu❃9쎯shi❂10쎯	-7433
》、	-7434
feng❁58쎯shi❁16쎯	-7435
jia❁4쎯	-7436
duo❁5쎯ming❂7쎯	-7437
mian❃24쎯	-7438
shu❄28쎯zhi❁43쎯	-7439
ping❂31쎯	-7440
jin❄61쎯qu❃1쎯	-7441
diao❄17쎯ru❄2쎯	-7442
du❄8쎯.	-7443
185	-7444
yu❄87쎯	-7445
cai❂9쎯fu❄36쎯	-7446
dai❄9쎯xie❄84쎯	-7447
shi❄45쎯wei❄14쎯	-7448
xiang❁26쎯gu❁25쎯	-7449
▁wo❃3쎯	-7450
.gai❁13쎯cun❁1쎯	-7451
na❄20쎯mi❃19쎯	-7452
fa❁1쎯bing❄12쎯	-7453
zhu❄31쎯she❄8쎯	-7454
chuan❂4쎯di❄58쎯	-7455
qi❄20쎯cai❂3쎯	-7456
zhuan❄9쎯ke❄7쎯	-7457
she❄29쎯bei❄26쎯、	-7458
wu❄36쎯,	-7459
fang❂4쎯hu❄30쎯	-7460
you❃11쎯le❅0쎯	-7461
gong❃10쎯	-7462
chu❄36쎯mo❁쎯	-7463
si❄15쎯bei❃2쎯	-7464
duo❁5쎯wei❄14쎯	-7465
you❂25쎯ke❄14쎯	-7466
peng❄2쎯	-7467
yao❂22쎯	-7468
jiang❄9쎯hua❁1쎯	-7469
ji❁48쎯chuang❂6쎯	-7470
hui❂1쎯zu❂9쎯	-7471
shi❁8쎯bai❄15쎯	-7472
▁na❄11쎯cun❂1쎯	-7473
nong❂5쎯chang❃4쎯	-7474
sui❂6쎯	-7475
mao❄16쎯xian❃46쎯	-7476
▁0	-7477
qiu❁27쎯	-7478
shang❃1쎯zui❄4쎯	-7479
shao❄5쎯jian❁25쎯	-7480
gong❄9쎯xian❄35쎯.	-7481
xian❁57쎯ming❂8쎯	-7482
yi❁10쎯xia❄3쎯	-7483
zhu❃4쎯ban❃5쎯	-7484
▁chu❁3쎯sheng❁16쎯	-7485
(yuan❂12쎯	-7486
jing❁24쎯xi❄50쎯	-7487
gong❁11쎯de❅2쎯	-7488
luo❂18쎯xuan❂11쎯	-7489
miao❂5쎯shu❄47쎯:	-7490
liao❂24쎯xiao❄14쎯	-7491
zuo❄5쎯.	-7492
ming❄1쎯ming❂7쎯	-7493
、wang❂5쎯	-7494
shen❃7쎯ding❄2쎯	-7495
dang❁4쎯nian❂6쎯	-7496
jia❁7쎯meng❂34쎯	-7497
xi❄46쎯tong❃9쎯,	-7498
yong❁14쎯	-7499
nan❂6쎯xian❄22쎯	-7500
qian❂8쎯feng❁52쎯	-7501
guan❁16쎯guang❁2쎯	-7502
hui❄27쎯yuan❂15쎯、	-7503
0.00	-7504
qian❂46쎯	-7505
li❃26쎯mian❄2쎯	-7506
jie❃6쎯du❂17쎯	-7507
dian❄23쎯gong❁17쎯	-7508
shi❄32쎯min❂22쎯	-7509
bu❄38쎯ji❂83쎯	-7510
mo❄16쎯ren❂1쎯	-7511
lv❄20쎯se❄29쎯,	-7512
shi❂13쎯ben❄4쎯	-7513
bu❃11쎯chong❁9쎯	-7514
kui❂10쎯	-7515
▁qi❂29쎯ta❁6쎯	-7516
zhuan❃4쎯hua❁1쎯	-7517
wu❁9쎯	-7518
fu❂48쎯	-7519
bing❁6쎯zai❄5쎯	-7520
cha❂17쎯xun❂42쎯	-7521
bi❄124쎯	-7522
xian❄37쎯yi❃15쎯	-7523
2009	-7524
jiu❃8쎯	-7525
yong❄3쎯de❅0쎯	-7526
tu❂14쎯shu❁8쎯>	-7527
,192	-7528
chuan❃1쎯	-7529
1970nian❂6쎯	-7530
zheng❁22쎯de❅2쎯	-7531
zhi❁13쎯zhong❁4쎯	-7532
du❃11쎯	-7533
shan❄3	-7534
huo❄44쎯	-7535
zhi❂7쎯de❂7쎯	-7536
1952nian❂6쎯	-7537
tang❁5쎯chi❂13쎯	-7538
zhong❁4쎯yuan❂12쎯	-7539
!”	-7540
qi❃25쎯guan❃9쎯	-7541
yan❂49쎯qiu❁9쎯	-7542
nong❂10쎯yu❄115쎯	-7543
ma❁0쎯ma❁0쎯	-7544
ke❁16쎯pu❃3쎯	-7545
ren❂4쎯zhi❂32쎯	-7546
pai❂2쎯ming❂7쎯	-7547
dai❁1쎯ji❁48쎯	-7548
pei❂3쎯yu❄93쎯	-7549
ben❃5쎯zhao❁6쎯	-7550
qing❁10쎯xi❃11쎯	-7551
cheng❂52쎯xi❄46쎯	-7552
ming❂7쎯ci❂29쎯	-7553
nai❃0쎯zhi❄88쎯	-7554
rang❄3쎯ren❂1쎯	-7555
guan❄33쎯chuan❁5쎯	-7556
jiao❃	-7557
qi❄43쎯	-7558
hua❁11쎯、	-7559
shen❃7쎯pan❄2쎯	-7560
fen❁4쎯xiang❃3쎯	-7561
1968nian❂6쎯	-7562
yu❂118쎯	-7563
2007	-7564
shuan	-7565
tun❁1쎯	-7566
fang❂4쎯yu❄40쎯	-7567
5fen❁4쎯zhong❁29쎯	-7568
ji❄94쎯jian❃36쎯	-7569
yuan❂10쎯jian❄15쎯	-7570
mo❃2쎯	-7571
tu❂28쎯liao❄8쎯	-7572
.ceng❂6쎯ren❂4쎯	-7573
rui❄12쎯shi❄28쎯	-7574
shun❄11쎯li❄58쎯	-7575
wu❂18쎯	-7576
jiao❁26쎯	-7577
gei❃1쎯yu❂34쎯	-7578
wai❄0쎯jiao❁8쎯	-7579
lun❂4쎯	-7580
kuang❄12쎯wu❄36쎯	-7581
zhu❃4쎯ren❂4쎯;	-7582
84	-7583
nv❃0쎯hai❂6쎯	-7584
da❄0쎯lou❂19쎯	-7585
1969nian❂6쎯	-7586
dang❁4쎯qian❂8쎯	-7587
、gong❁17쎯	-7588
bai❂2쎯se❄29쎯,	-7589
shu❁23쎯niu❃9쎯	-7590
ling❂80쎯	-7591
1960nian❂6쎯	-7592
1975nian❂6쎯	-7593
yin❄7쎯fa❁1쎯	-7594
ze❂11쎯shi❄45쎯	-7595
zhu❁16쎯rou❄1쎯	-7596
chan❃12쎯xian❄47쎯	-7597
3、	-7598
she❄22쎯:	-7599
xing❂9쎯,	-7600
.9	-7601
5,	-7602
shui❃0쎯fen❁4쎯	-7603
ai❃12쎯	-7604
quan❄2쎯	-7605
chang❄1쎯dao❃5쎯	-7606
che❁8쎯jian❁85쎯	-7607
hu❄14쎯xiang❁9쎯	-7608
dong❄13쎯de❅2쎯	-7609
lun❄1쎯shu❄47쎯	-7610
bie❂4쎯ming❂7쎯:	-7611
yin❂12쎯	-7612
suo❃11쎯xu❁37쎯	-7613
er❂16쎯guo❄2쎯	-7614
ji❁48쎯hui❄27쎯	-7615
.wei❄15쎯yu❂35쎯	-7616
qi❃23쎯	-7617
qing❁10쎯·	-7618
zhuan❁1쎯qiu❁9쎯,	-7619
jing❁27쎯xiao❁61쎯	-7620
zhen❃14쎯	-7621
zhong❁4쎯、	-7622
nan❂20쎯yi❃10쎯	-7623
jia❁13쎯xiang❁1쎯	-7624
fu❂43쎯.	-7625
wan❂11쎯	-7626
112	-7627
pi❂16쎯	-7628
hun❁4쎯yin❁14쎯	-7629
,ti❂17쎯gong❁9쎯	-7630
lei❄16쎯bie❂4쎯:	-7631
tou❂5쎯ying❃11쎯	-7632
a❁2쎯	-7633
(ji❂35쎯	-7634
yan❂41쎯	-7635
gong❁11쎯neng❂2쎯:	-7636
hu❂38쎯	-7637
1959nian❂6쎯	-7638
ping❂36쎯shen❃7쎯	-7639
yuan❄18쎯shi❄28쎯	-7640
i❄30쎯	-7641
ba❁9쎯nian❂6쎯	-7642
wen❂23쎯ming❂7쎯	-7643
6000	-7644
,ru❄2쎯	-7645
qian❂8쎯wang❃7쎯	-7646
cheng❂52쎯de❅2쎯	-7647
jue❂96쎯	-7648
ma❃8쎯tou❂4쎯	-7649
jiao❁36쎯	-7650
min❂22쎯su❂0쎯	-7651
qi❃12쎯qiu❁9쎯、	-7652
qing❂6쎯bao❄10쎯	-7653
,you❄13쎯ming❂7쎯	-7654
ping❂17쎯xian❄22쎯	-7655
i❃16쎯	-7656
fa❁1쎯chu❁3쎯	-7657
zhi❃19쎯shi❄60쎯	-7658
xie❄37쎯	-7659
zuo❃3쎯you❄14쎯,	-7660
nan❂14쎯xing❄13쎯	-7661
li❄58쎯yu❂35쎯	-7662
nian❂15쎯	-7663
huo❂3쎯yue❄48쎯	-7664
ting❃9쎯	-7665
li❃17쎯pin❃0쎯	-7666
xue❂6쎯jiao❄18쎯、	-7667
rui❃3쎯	-7668
wen❄6쎯ti❂36쎯.	-7669
ye❄5	-7670
hao❂6쎯.	-7671
ju❄30쎯da❄0쎯	-7672
chen❁13쎯ji❁64쎯	-7673
1957nian❂6쎯	-7674
duo❃23쎯jiao❁8쎯	-7675
wei❁10쎯hai❄8쎯	-7676
zhe❁4쎯	-7677
miao❂7쎯zu❂9쎯	-7678
yi❁11쎯si❁24쎯	-7679
▁xian❃24쎯ka❃1쎯	-7680
wei❄15쎯,	-7681
、li❃11쎯	-7682
zhen❃12쎯	-7683
qing❁10쎯ji❂67쎯	-7684
yu❄36쎯	-7685
zhu❁22쎯	-7686
bai❂2쎯yun❂4쎯	-7687
pa❂3쎯	-7688
xi❁135쎯	-7689
zhi❃13쎯zai❄5쎯	-7690
ju❄30쎯da❄0쎯de❅2쎯	-7691
mei❂25쎯kuang❄12쎯	-7692
suo❃11쎯、	-7693
zhu❄59쎯zao❄16쎯	-7694
xin❁10쎯jian❄29쎯	-7695
zhuan❃4쎯bian❄19쎯	-7696
dan❄30쎯	-7697
ru❄2쎯dang❃2쎯	-7698
si❄47쎯liao❄8쎯	-7699
huo❂3쎯dong❄13쎯,	-7700
yong❄3쎯zuo❄5쎯	-7701
fei❃3쎯	-7702
huang❂56쎯se❄29쎯,	-7703
jie❂50쎯	-7704
zhou❄39쎯	-7705
guo❂11쎯hua❄18쎯	-7706
fan❄12쎯	-7707
、fu❄28쎯	-7708
2、	-7709
zhen❁30쎯kong❁9쎯	-7710
zheng❄12쎯wei❁12쎯	-7711
xiang❁2쎯	-7712
han❄20쎯sheng❁16쎯	-7713
run❄4쎯gu❃28쎯	-7714
zao❃2쎯nian❂6쎯	-7715
ta❁6쎯shi❄45쎯	-7716
hu❄26쎯,you❃11쎯	-7717
guan❁16쎯yin❁44쎯	-7718
ci❄16쎯.	-7719
2006	-7720
cha❂27쎯chi❂13쎯	-7721
qi❃25쎯xi❁70쎯	-7722
gong❁10쎯wu❄12쎯	-7723
zhu❁29쎯duo❁5쎯	-7724
liang❂19쎯wei❄14쎯	-7725
pei❁7쎯	-7726
wei❄27쎯	-7727
shou❃4쎯,	-7728
bian❄19쎯de❂7쎯	-7729
105	-7730
wei❁33쎯	-7731
xian❄22쎯、	-7732
mo❄16쎯li❄62쎯	-7733
bu❄38쎯han❄20쎯	-7734
yi❁10쎯duan❄7쎯	-7735
deng❁10쎯chang❃4쎯	-7736
cui❄37쎯	-7737
shui❃0쎯guo❃3쎯	-7738
,zhe❄14쎯xie❁3쎯	-7739
bian❁13쎯zhao❂쎯	-7740
qiu❂	-7741
shou❃4쎯fa❃2쎯	-7742
xiao❃2쎯zu❃7쎯,	-7743
▁xian❃24쎯cun❂1쎯	-7744
shan❁4쎯	-7745
xia❄3쎯shu❃5쎯	-7746
shang❃1쎯sheng❁3쎯	-7747
qi❁9쎯nian❂6쎯	-7748
“zhong❁4쎯guo❂11쎯	-7749
mian❄2쎯.	-7750
lie❄20쎯ru❄2쎯	-7751
ju❃	-7752
da❄0쎯jiang❃8쎯	-7753
、you❃11쎯	-7754
.2006nian❂6쎯	-7755
gan❄3쎯hang❂16쎯	-7756
wei❄15쎯.	-7757
ya❄29쎯	-7758
bai❃9쎯mo❄16쎯	-7759
dai❄9쎯ti❄21쎯	-7760
1～	-7761
fen❃1쎯、	-7762
wen❂5쎯:	-7763
xin❁10쎯ying❃24쎯	-7764
xi❁46쎯	-7765
,ji❄61쎯	-7766
1954nian❂6쎯	-7767
zhao❃4쎯	-7768
jiu❁19쎯cuo❄18쎯	-7769
miao❂5쎯hui❄79쎯	-7770
shang❃1쎯you❂25쎯	-7771
tang❂28쎯、	-7772
ceng❂3쎯de❅2쎯	-7773
qu❁15쎯na❄11쎯	-7774
xi❄46쎯shu❄26쎯	-7775
xin❁10쎯xing❄8쎯	-7776
qi❃34쎯ren❂4쎯	-7777
na❃3쎯gan❄3쎯	-7778
),fu❂60쎯jian❄29쎯	-7779
jiao❁20쎯shi❁11쎯.	-7780
xin❁10쎯sheng❁16쎯	-7781
zhi❃19쎯nan❂6쎯	-7782
,shan❁11쎯	-7783
fen❁4쎯qu❁15쎯	-7784
fu❄31쎯zhi❄30쎯	-7785
jian❄29쎯she❄29쎯、	-7786
11-	-7787
de❅2쎯lao❃17쎯	-7788
deng❃2쎯duo❁5쎯	-7789
jia❁13쎯wan❂5쎯	-7790
wang❃14쎯shi❄45쎯	-7791
wu❃9쎯jin❁33쎯	-7792
bao❄15쎯fa❁1쎯	-7793
cheng❂29쎯yi❁10쎯	-7794
se❄29쎯.	-7795
can❂17쎯ji❂75쎯	-7796
an❄24쎯	-7797
shi❂19쎯	-7798
yu❂67쎯	-7799
men❂19쎯、	-7800
1966nian❂6쎯	-7801
ji❂83쎯de❅2쎯	-7802
fan❄22쎯wei❂11쎯:	-7803
rui❄12쎯dian❃5쎯	-7804
wan❂19쎯	-7805
da❄0쎯yu❂35쎯	-7806
zong❃5쎯ju❂23쎯	-7807
deng❃2쎯gong❁11쎯	-7808
yi❄176쎯	-7809
hou❄7쎯ren❂4쎯	-7810
bei❄26쎯yong❄3쎯.	-7811
lv❃9쎯	-7812
qing❁20쎯qiu❂19쎯	-7813
shui❄11쎯shou❁1쎯	-7814
yun❃7쎯xu❃19쎯	-7815
i❃14쎯	-7816
yan❂50쎯tao❃3쎯	-7817
,ge❄3쎯	-7818
shu❁16쎯	-7819
nv❃0쎯er❂7쎯	-7820
meng❃1쎯	-7821
,zhe❄14쎯shi❄45쎯	-7822
jiao❁20쎯wei❁12쎯	-7823
yan❄43쎯	-7824
huan❂20쎯rao❄2쎯	-7825
gao❁20쎯yuan❂12쎯	-7826
,tong❁5쎯	-7827
chu❁3쎯xie❃8쎯	-7828
han❄20쎯xian❂27쎯	-7829
te❄5쎯·	-7830
“san❁1쎯	-7831
duo❁5쎯ren❂1쎯	-7832
jia❁7쎯yi❃10쎯	-7833
,qu❄6쎯	-7834
1950nian❂6쎯	-7835
niu	-7836
》,《	-7837
shun❄7쎯	-7838
ru❄2쎯wu❃11쎯	-7839
、ma❃14쎯	-7840
shao❁8쎯re❄1쎯	-7841
hua❂14쎯qiao❂6쎯	-7842
kun❁4쎯	-7843
kou❃1쎯gan❃6쎯	-7844
▁wai❄0쎯	-7845
lin❂7쎯yi❂54쎯	-7846
yan❄37쎯	-7847
fan❃4쎯hui❂1쎯	-7848
fen❁11쎯wei❂11쎯	-7849
yu❄95쎯	-7850
bu❂0쎯zai❄4쎯	-7851
,er❄5쎯	-7852
ge❃0쎯zi❁45쎯	-7853
mei❂27쎯gui❁24쎯	-7854
.yuan❂12쎯	-7855
de❅2쎯yuan❂12쎯	-7856
mei❃13쎯wei❄18쎯	-7857
zou❁8쎯	-7858
xiao❁42쎯	-7859
ji❂35쎯jiang❁5쎯	-7860
kuang❁9쎯jia❄5쎯	-7861
li❄59쎯qiu❂27쎯	-7862
wu❂17쎯shu❄26쎯	-7863
yue❁1쎯wei❄14쎯	-7864
gong❁23쎯du❂34쎯	-7865
*/	-7866
1/2	-7867
zhang❃6쎯pian❁7쎯	-7868
2500	-7869
wei❄14쎯zhi❃22쎯	-7870
gong❁11쎯neng❂2쎯.	-7871
bang❃6쎯	-7872
dan❁9쎯qu❁25쎯	-7873
fu❄32쎯chan❃12쎯	-7874
、dian❄23쎯zi❃7쎯	-7875
1953nian❂6쎯	-7876
wei❁10쎯ji❁48쎯	-7877
,jian❃52쎯	-7878
ji❁80쎯rou❄1쎯	-7879
zhong❁4쎯bei❄48쎯	-7880
liang❃5쎯an❄13쎯	-7881
san❁1쎯chong❂11쎯	-7882
1955nian❂6쎯	-7883
gao❁20쎯kao❃10쎯	-7884
guan❁4쎯xi❄46쎯.	-7885
xian❁18쎯duan❁4쎯	-7886
zhi❄79쎯	-7887
xiao❁29쎯shi❁8쎯	-7888
▁xue❂6쎯jiao❄18쎯	-7889
che❁8쎯、	-7890
kao❃10쎯he❂35쎯	-7891
li❄59쎯han❄20쎯	-7892
jia❁13쎯yong❄3쎯	-7893
yan❃39쎯yuan❂15쎯.	-7894
360	-7895
(yi❁10쎯	-7896
dui❄33쎯dui❄33쎯	-7897
ju❁17쎯	-7898
wei❄34쎯	-7899
se	-7900
tai❄6쎯du❄8쎯	-7901
nan❂6쎯hai❃1쎯	-7902
quan❂6쎯qu❁15쎯	-7903
hao❂6쎯xian❄47쎯	-7904
10nian❂6쎯	-7905
zhi❂25쎯dao❄3쎯	-7906
xie❄43쎯	-7907
de❅0쎯yu❄31쎯	-7908
gu❄7쎯ben❄4쎯	-7909
de❅0쎯shi❄22쎯	-7910
dong❁3쎯lin❂43쎯	-7911
▁5.	-7912
zuo❄5쎯chu❁3쎯	-7913
er❄5쎯nian❂6쎯(	-7914
reng❂4쎯ran❂12쎯	-7915
ren❂1쎯jian❁85쎯	-7916
zhuo❁7쎯	-7917
wen❂12쎯,	-7918
xue❂6쎯xi❄46쎯	-7919
qi❂29쎯jian❁85쎯	-7920
you❃11쎯liang❃5쎯	-7921
yin❁44쎯xiang❁11쎯	-7922
xi❄46쎯tong❃9쎯.	-7923
hu❄26쎯wai❄0쎯	-7924
te❄5쎯ding❄2쎯	-7925
huan❂20쎯jie❂69쎯	-7926
qi❄56쎯	-7927
、zui❄4쎯	-7928
、yu❄70쎯mi❃19쎯	-7929
18ri❄2쎯	-7930
fan❂35쎯ce❄33쎯	-7931
.yong❄3쎯yu❂35쎯	-7932
de❅2쎯zheng❁22쎯	-7933
yi❃10쎯shang❃1쎯,	-7934
、si❄17쎯	-7935
fu❄31쎯dan❄27쎯	-7936
)-	-7937
▁7	-7938
qing❂	-7939
20yu❂37쎯	-7940
zhi❁13쎯wai❄0쎯	-7941
fan❁11쎯jia❁30쎯	-7942
ran❂13쎯shao❁8쎯	-7943
shi❄32쎯zhang❃6쎯	-7944
jian❄29쎯she❄29쎯,	-7945
,ming❂7쎯	-7946
yuan❂15쎯;	-7947
guo❁26쎯lu❂23쎯	-7948
dian❃5쎯ya❃9쎯	-7949
ji❁21쎯shi❂10쎯	-7950
yi❁12쎯kao❄5쎯	-7951
chu❁3쎯yan❃39쎯	-7952
24xiao❃2쎯shi❂20쎯	-7953
ba❄21쎯	-7954
xi❃1쎯ju❄18쎯	-7955
qiu❁8쎯ling❂98쎯	-7956
ren❂1쎯qun❂6쎯	-7957
deng❃2쎯deng❃2쎯.	-7958
quan❂12쎯yi❄165쎯	-7959
,ming❂8쎯	-7960
zong❄12쎯guang❁8쎯	-7961
bian❁13쎯hao❂6쎯	-7962
tu❂38쎯jing❄17쎯	-7963
wei❂28쎯fang❁2쎯	-7964
tu❂20쎯	-7965
51	-7966
fa❁1쎯jiao❄36쎯	-7967
qie❁1쎯huan❄21쎯	-7968
rong❂21쎯qi❄20쎯	-7969
xue❂6쎯yuan❄18쎯、	-7970
chu❁3쎯.	-7971
xian❁47쎯	-7972
;zai❄5쎯	-7973
lan❂28쎯	-7974
,bu❂0쎯fu❄23쎯	-7975
mu❄15쎯cai❂3쎯	-7976
shi❄31쎯.	-7977
ge❃0쎯fa❃2쎯	-7978
guan❃9쎯li❃15쎯.	-7979
jiong	-7980
.2008nian❂6쎯	-7981
shan❁23쎯hu❂38쎯	-7982
lei❃29쎯	-7983
guan❁4쎯xin❁7쎯	-7984
shuo❁2쎯shi❄45쎯	-7985
ju❂27쎯	-7986
kong❁9쎯zhong❁4쎯	-7987
shui❃0쎯xian❄22쎯	-7988
jie❂67쎯hun❁4쎯	-7989
、zhang❁4쎯	-7990
bi❄61쎯yao❁17쎯	-7991
cheng❂30쎯ban❄4쎯	-7992
deng❃2쎯zhi❂32쎯.	-7993
jun❄18쎯	-7994
da❄0쎯chen❂26쎯	-7995
qian❁39쎯yue❁1쎯	-7996
shi❃6쎯de❂7쎯	-7997
xin❁13쎯shang❃6쎯	-7998
108	-7999
cui❄26쎯	-8000
1972nian❂6쎯	-8001
jian❁19쎯	-8002
er❃6쎯fu❁13쎯	-8003
pan❄2쎯duan❄4쎯	-8004
zhen❁25쎯gui❄41쎯	-8005
)you❃11쎯xian❄61쎯	-8006
ru❂9쎯xia❄3쎯	-8007
li❄58쎯run❄4쎯	-8008
wan❁7쎯qu❁25쎯	-8009
,yin❁11쎯er❂16쎯	-8010
chao❂8쎯liu❂20쎯	-8011
jing❁24쎯yan❂49쎯	-8012
▁ying❁44쎯wen❂5쎯	-8013
qing❂8쎯	-8014
yu❃14쎯gong❁17쎯	-8015
shang❄2쎯wei❄26쎯	-8016
ci❄16쎯,	-8017
gai❄14쎯	-8018
zhuang❄5쎯de❅2쎯	-8019
xiao❁29쎯chu❂42쎯	-8020
,xie❂16쎯	-8021
chang❃7쎯	-8022
han❃11쎯、	-8023
▁zhe❄14쎯	-8024
bai❃9쎯yu❂37쎯	-8025
.”tang❂13쎯	-8026
1945nian❂6쎯	-8027
ke❃4쎯gong❁9쎯	-8028
yi❃10쎯tai❄3쎯	-8029
zuo❄5쎯wu❄36쎯.	-8030
jing❁27쎯mao❄39쎯	-8031
i❃32쎯	-8032
de❅2쎯hou❄7쎯	-8033
dao❃7쎯yu❃26쎯	-8034
duo❁5쎯shao❃2쎯	-8035
chuan❂4쎯·	-8036
9yue❄29쎯zhi❄88쎯	-8037
qi❂61쎯	-8038
lin❂7쎯shi❂20쎯	-8039
,hou❄7쎯lai❂16쎯	-8040
suo❁15쎯xie❃4쎯	-8041
zi❁15쎯	-8042
xin❁7쎯ling❂58쎯	-8043
meng❂40쎯	-8044
le❄3쎯qiu❂19쎯	-8045
na❄11쎯she❄29쎯	-8046
xiao❃2쎯chi❁8쎯	-8047
dang❁4쎯jin❁10쎯	-8048
chu❃7쎯	-8049
fu❂77쎯	-8050
bao❃9쎯ding❄2쎯	-8051
wang❂5쎯guo❂11쎯	-8052
gai❁13쎯jiao❄18쎯	-8053
sheng❁16쎯li❃15쎯	-8054
zhen❁25쎯zhu❁17쎯	-8055
xuan❃8쎯yong❄3쎯	-8056
fan❁15쎯	-8057
3mo❄16쎯	-8058
lei❄16쎯、	-8059
qian❂8쎯,	-8060
yi❄109쎯wei❄14쎯	-8061
xiang❄24쎯mu❄22쎯.	-8062
hen❃2쎯da❄0쎯	-8063
pin❃0쎯de❅2쎯	-8064
qiu❁9쎯de❅2쎯	-8065
tian❁5쎯de❅2쎯	-8066
20ri❄2쎯	-8067
bang❄6쎯	-8068
zuo❄5쎯wei❄52쎯	-8069
bao❃13쎯bao❃13쎯	-8070
shi❄32쎯zheng❄12쎯	-8071
guan❃15쎯.	-8072
zong❃5쎯ben❄4쎯	-8073
、jiao❁20쎯xue❂6쎯	-8074
shuo❁2쎯,	-8075
xian❄47쎯.	-8076
she❄29쎯bei❄26쎯,	-8077
".	-8078
lv❄15쎯wei❄14쎯	-8079
tian❁5쎯shi❃6쎯	-8080
bing❄12쎯ren❂1쎯	-8081
suan❁3쎯yan❂49쎯	-8082
feng❁33쎯	-8083
dui❄14쎯zhao❄18쎯	-8084
qing❂6쎯de❅2쎯	-8085
kou❃1쎯shi❄32쎯	-8086
)shi❄45쎯yi❁10쎯	-8087
tong❃3쎯	-8088
wan❂5쎯、	-8089
zhe❃2쎯、	-8090
fen❁4쎯jie❃6쎯	-8091
hua❁11쎯ji❁47쎯	-8092
feng❄3쎯xian❄35쎯	-8093
dan❄38쎯、	-8094
zhao❄24쎯	-8095
zi❄16쎯you❄21쎯	-8096
ceng❂6쎯huo❄50쎯	-8097
,000	-8098
jun❄31쎯	-8099
jin❁33쎯gang❁7쎯	-8100
chou❂20쎯	-8101
da❄0쎯de❅0쎯	-8102
fu❁13쎯ren❂1쎯	-8103
、ji❄59쎯shu❂7쎯	-8104
zhong❁19쎯duan❁4쎯	-8105
hua❁1쎯.	-8106
yu❂35쎯ci❃2쎯	-8107
.2005nian❂6쎯	-8108
shuo❄7쎯	-8109
wu❃28쎯di❄26쎯	-8110
duo❁5쎯.	-8111
fan❃3쎯dui❄14쎯	-8112
zui❄4쎯jin❄60쎯	-8113
shi❄18쎯ji❄120쎯	-8114
ying❂45쎯zao❄16쎯	-8115
qian❄28쎯	-8116
ling❂58쎯hun❂21쎯	-8117
750	-8118
,ri❄2쎯	-8119
ting❁10쎯	-8120
zhi❄30쎯pian❁5쎯	-8121
(2	-8122
de❅2쎯xue❂6쎯xi❂9쎯	-8123
zhu❃4쎯xi❂12쎯、	-8124
de❂7쎯yi❃10쎯	-8125
de❅2쎯xin❄8쎯	-8126
bei❃2쎯song❄4쎯	-8127
wei❂38쎯chi❂20쎯	-8128
10ri❄2쎯	-8129
tang❂28쎯niao❄2쎯	-8130
1400	-8131
gui❁6쎯	-8132
yu❂88쎯	-8133
fen❃1쎯mo❄30쎯	-8134
cu❄10쎯nian❂6쎯	-8135
ming❂8쎯,	-8136
zai❁4쎯hai❄8쎯	-8137
hei❁3쎯bai❂2쎯	-8138
bao❁4쎯guo❃11쎯	-8139
▁wai❄0쎯xing❂11쎯	-8140
,ji❂114쎯	-8141
gui❄41쎯zu❂9쎯	-8142
shou❂쎯xi❁71쎯	-8143
chu❄17쎯fang❁4쎯	-8144
yin❃31쎯cang❂5쎯	-8145
hai❄5쎯	-8146
▁da❄0쎯	-8147
chuan❁2쎯xian❄22쎯	-8148
hu❂47쎯	-8149
jiang❃19쎯jie❃6쎯	-8150
mei❃13쎯,	-8151
zhao❄27쎯	-8152
he❂35쎯tao❂5쎯	-8153
zhe❃2쎯han❄20쎯	-8154
zi❁21쎯bo❂41쎯	-8155
yi❂61쎯min❂22쎯	-8156
ji❁48쎯shen❁40쎯	-8157
xi❁143쎯lan❂13쎯	-8158
hui❄27쎯zhan❃11쎯	-8159
dong❁3쎯lu❄70쎯	-8160
shan❄25쎯tou❂4쎯	-8161
hua❁11쎯,	-8162
dong❁5쎯ji❄46쎯	-8163
shi❂10쎯jia❁5쎯	-8164
(?	-8165
ju❄36쎯	-8166
nv❃0쎯ren❂1쎯	-8167
gao❄3쎯su❄67쎯	-8168
si❄17쎯zhou❁5쎯	-8169
fang❂4쎯huo❃2쎯	-8170
dao❄24쎯de❅2쎯	-8171
yi❃10쎯nan❂6쎯	-8172
shu❄20쎯	-8173
you❃11쎯jiao❄35쎯	-8174
pu❁3쎯	-8175
ji❂83쎯bie❂4쎯	-8176
rong❂50쎯zi❁45쎯	-8177
han❄33쎯zu❂9쎯,195	-8178
jian❄29쎯jiao❄18쎯	-8179
xu❄43쎯	-8180
chou❂28쎯	-8181
xing❂17쎯	-8182
shou❃6쎯fu❃14쎯	-8183
han❂34쎯	-8184
jie❄14쎯zhi❂7쎯.	-8185
ling❄0쎯you❃11쎯	-8186
zhan❁17쎯	-8187
ben❄4쎯na❄11쎯	-8188
da❁12쎯pei❄19쎯	-8189
mo❄22쎯xi❁143쎯	-8190
yuan❂17쎯zhui❁6쎯	-8191
;(	-8192
,er❂16쎯shi❄45쎯	-8193
,zhe❄14쎯gan❄3쎯	-8194
he❂70쎯	-8195
beng❁9쎯	-8196
、qing❁20쎯	-8197
cheng❂52쎯.	-8198
1938nian❂6쎯	-8199
cheng❂17쎯,	-8200
de❅2쎯hang❂16쎯	-8201
yao❁17쎯su❄56쎯	-8202
,yuan❂12쎯ming❂7쎯	-8203
jia❁7쎯gong❁17쎯、	-8204
tu❃1쎯dou❄18쎯	-8205
zuo❄7쎯dao❄3쎯	-8206
jie❄29쎯mian❄2쎯	-8207
liu❂28쎯jiao❄18쎯	-8208
▁ben❃5쎯shu❁8쎯	-8209
yi❃22쎯	-8210
gan❃10쎯	-8211
nie❄42쎯	-8212
、yu❂46쎯le❄3쎯	-8213
dao❄24쎯.	-8214
ke❁16쎯ji❂83쎯	-8215
hui❄27쎯zai❄5쎯	-8216
fen❂14쎯	-8217
li❃26쎯si❁24쎯	-8218
、wai❄0쎯	-8219
dou❄13쎯	-8220
meng❂29쎯	-8221
pei❂12쎯	-8222
yu❃44쎯.	-8223
30ri❄2쎯	-8224
hong❁21쎯	-8225
jin❄38쎯pao❁5쎯	-8226
yi❃10쎯hou❄7쎯,	-8227
480	-8228
bei❁5쎯	-8229
2mo❄16쎯	-8230
zong❃5쎯shi❄45쎯	-8231
yu❄126쎯suan❄3쎯	-8232
,shi❃9쎯	-8233
i❃15쎯	-8234
de❅2쎯liang❃5쎯	-8235
yi❁10쎯sheng❁16쎯	-8236
li❄153쎯	-8237
fang❁4쎯xing❂11쎯	-8238
▁(2)	-8239
ming❂8쎯·	-8240
shao❃2쎯liang❂19쎯	-8241
dian❁19쎯	-8242
ci❂29쎯hui❄60쎯	-8243
mian❄2쎯lin❂7쎯	-8244
,xian❄37쎯yi❃15쎯	-8245
li❄59쎯、	-8246
hu❄26쎯xing❂9쎯	-8247
lan❂41쎯ya❂12쎯	-8248
xia❄3쎯you❂25쎯	-8249
,bai❂2쎯	-8250
yi❁10쎯bu❄38쎯	-8251
,gei❃1쎯	-8252
luo❃15쎯	-8253
jiao❁20쎯dao❃5쎯	-8254
fang❁4쎯de❅2쎯	-8255
wu❄36쎯zi❁45쎯	-8256
fa❃2쎯lv❄9쎯、	-8257
xia❄6쎯ji❄46쎯	-8258
jing❃13쎯de❂9쎯	-8259
sheng❁16쎯le❅0쎯	-8260
,you❃11쎯shi❂20쎯	-8261
guan❄23쎯gai❄14쎯	-8262
yi❄68쎯yuan❂10쎯,	-8263
de❅0쎯、	-8264
zu❃7쎯zhang❃6쎯	-8265
xi❁143쎯yang❂19쎯	-8266
yuan❂10쎯,	-8267
guan❁16쎯dian❃11쎯	-8268
ben❃3쎯dou❃4쎯	-8269
wei❄52쎯zhi❁13쎯	-8270
,bi❄73쎯qiu❁9쎯	-8271
li❃15쎯shi❄18쎯.	-8272
25ri❄2쎯	-8273
jiao❃52쎯	-8274
、chen❂41쎯	-8275
ta❁3쎯shi❄45쎯	-8276
ju❄57쎯ji❂114쎯	-8277
nan❂6쎯song❄4쎯	-8278
,gai❃2쎯	-8279
jia❃14쎯ji❁34쎯	-8280
zhui❄8쎯	-8281
guang❁2쎯ming❂8쎯	-8282
hui❂1쎯guo❂11쎯	-8283
you❁5쎯dian❃11쎯	-8284
▁shi❄60쎯li❄51쎯	-8285
biao❃5쎯zhang❁6쎯	-8286
(1).	-8287
zhi❃37쎯	-8288
zhu❃4쎯jiao❁20쎯	-8289
huan❂17쎯	-8290
,ping❂17쎯	-8291
mu❃2쎯;you❃11쎯	-8292
su❄67쎯song❄7쎯	-8293
bian❁22쎯	-8294
nong❂10쎯du❄8쎯	-8295
chong❂17쎯de❅2쎯	-8296
qiu❁9쎯yu❂37쎯	-8297
zhu❃4쎯li❄59쎯	-8298
huan❃7쎯cun❂1쎯	-8299
gua❄0쎯	-8300
na❄11쎯.	-8301
she❄29쎯ding❄2쎯	-8302
feng❁58쎯shan❁13쎯	-8303
gan❃10쎯lan❃17쎯	-8304
hong❂44쎯qi❂46쎯	-8305
chang❃4쎯jing❃13쎯	-8306
dui❄14쎯cheng❁28쎯	-8307
jing❁24쎯du❄8쎯	-8308
ting❁3쎯、	-8309
gui❁35쎯zhang❁13쎯	-8310
pian❁7쎯,	-8311
que❁0쎯fa❂4쎯	-8312
xuan❃8쎯ju❃4쎯	-8313
.yin❁11쎯ci❃2쎯	-8314
(bao❁4쎯gua❁11쎯	-8315
ken❃1쎯	-8316
men❄9쎯	-8317
qin❄10쎯	-8318
gong❁10쎯yin❂10쎯	-8319
xing❄13쎯jiang❄9쎯	-8320
si❄47쎯yang❃6쎯	-8321
.zhe❄14쎯xie❁3쎯	-8322
yuan❂12쎯lai❂16쎯	-8323
50-	-8324
feng❁58쎯yun❂4쎯	-8325
ji❁48쎯.	-8326
zui❄4쎯di❁9쎯	-8327
hu❂47쎯hu❄46쎯	-8328
bao❃9쎯wei❄16쎯	-8329
jia❁13쎯yi❃10쎯	-8330
shan❁11쎯de❅2쎯	-8331
yi❁10쎯xiang❄24쎯	-8332
yu❁6쎯	-8333
26ri❄2쎯	-8334
zhe❄12쎯	-8335
da❄0쎯li❃15쎯	-8336
zhou❁9쎯de❅2쎯	-8337
jing❁27쎯yan❄75쎯,	-8338
m2	-8339
shi❄48쎯	-8340
zuo❄7쎯le❅0쎯	-8341
hai❃1쎯guan❁4쎯	-8342
lai❂16쎯.	-8343
dong❄13쎯,	-8344
mian❄2쎯ban❃5쎯	-8345
bian❄43쎯bu❄23쎯	-8346
e❂16쎯	-8347
chu❁4쎯,	-8348
1977nian❂6쎯	-8349
(/	-8350
hao❃0쎯ping❂36쎯.	-8351
jian❁14쎯rong❂21쎯	-8352
:,	-8353
1xiang❄24쎯	-8354
dao❃5쎯hang❂13쎯	-8355
zhong❁4쎯xing❂9쎯	-8356
wa❁13쎯	-8357
da❄0쎯xue❂6쎯de❅2쎯	-8358
;1	-8359
1974nian❂6쎯	-8360
fa❁1쎯jue❂58쎯	-8361
guo❂11쎯chan❃12쎯	-8362
dui❄14쎯shou❃4쎯	-8363
8ri❄2쎯	-8364
mei❃9쎯ci❄16쎯	-8365
sheng❁16쎯zhi❂22쎯	-8366
1961nian❂6쎯	-8367
qi❁15쎯zi❃7쎯	-8368
fang❁4쎯fa❃2쎯,	-8369
pin❂15쎯lv❄15쎯:	-8370
yuan❂10쎯nian❂6쎯	-8371
zhi❄68쎯	-8372
yao❂32쎯gun❃8쎯	-8373
》ren❂1쎯wu❄36쎯	-8374
yi❃32쎯	-8375
fan❃3쎯she❄8쎯	-8376
lang❂18쎯	-8377
li❃17쎯yi❂20쎯	-8378
xia❄3쎯jiang❄25쎯	-8379
ai❁7쎯	-8380
si❄17쎯ji❄46쎯	-8381
yu❄40쎯shi❃8쎯	-8382
cheng❂29쎯yu❃44쎯	-8383
.jiu❃12쎯dian❄13쎯	-8384
mei❃16쎯	-8385
zhang❃3쎯	-8386
xian❄22쎯de❅2쎯	-8387
nian❂6쎯chan❃12쎯	-8388
▁biao❁14쎯zhun❃0쎯	-8389
="	-8390
10ke❄6쎯	-8391
tai❄3쎯ji❂57쎯	-8392
gang❁27쎯	-8393
ge❁33쎯	-8394
zhi❄104쎯de❅2쎯	-8395
jun❄31쎯gong❁17쎯	-8396
wei❂13쎯	-8397
,tian❁5쎯	-8398
yi❁13쎯shi❁11쎯.	-8399
xin❁10쎯xian❁57쎯	-8400
le❄16쎯	-8401
xie❃4쎯zi❄6쎯	-8402
nan❂6쎯lu❄70쎯	-8403
yin❃14쎯ru❄2쎯	-8404
5)	-8405
bi❄5	-8406
10yu❂37쎯	-8407
bing❃10쎯	-8408
、guo❂11쎯jia❁13쎯	-8409
liang❂19쎯,	-8410
1973nian❂6쎯	-8411
di❄27쎯zi❃7쎯	-8412
di❁9쎯wen❁6쎯	-8413
hou❄6쎯du❄8쎯	-8414
hai❃1쎯xia❂13쎯	-8415
kui❂21쎯	-8416
re❄1쎯ai❄26쎯	-8417
xi❁143쎯ce❄8쎯	-8418
ji❁48쎯gou❃2쎯,	-8419
fu❂60쎯li❄58쎯	-8420
guang❁2쎯dian❄23쎯	-8421
ran❃11쎯se❄29쎯	-8422
.yi❁10쎯ban❁15쎯	-8423
bin❁13쎯	-8424
yu❃41쎯mao❂11쎯	-8425
chu❃7쎯meng❂29쎯	-8426
gua❁8쎯	-8427
na❄11쎯de❅0쎯	-8428
zhang❄2쎯fu❁13쎯	-8429
xiao❄14쎯guo❃3쎯.	-8430
、xiu❁9쎯xian❂54쎯	-8431
fan❂22쎯	-8432
wei❄16쎯shi❄71쎯	-8433
qia❄11쎯	-8434
tan❃4쎯ke❄6쎯	-8435
gan❁19쎯jun❁15쎯	-8436
wei❄26쎯zhi❁31쎯	-8437
shi❄32쎯、	-8438
1liang❃5쎯	-8439
wen❂5쎯,	-8440
.2004nian❂6쎯	-8441
li❄63쎯	-8442
tang❂13쎯shu❁8쎯·	-8443
can❃4쎯	-8444
fa❂19쎯men❂19쎯	-8445
ji❁47쎯de❅2쎯	-8446
ge❁16쎯wu❃37쎯	-8447
yi❁10쎯bai❃9쎯	-8448
jin❁33쎯shan❁11쎯	-8449
%-	-8450
bei❁15쎯mian❄2쎯	-8451
huo❄50쎯qu❃1쎯	-8452
shi❄45쎯ji❂114쎯	-8453
,fang❄0쎯	-8454
shen❄9쎯tou❄4쎯	-8455
xing❂7쎯shi❄18쎯	-8456
yin❃37쎯liao❄8쎯	-8457
dao❄24쎯guang❁2쎯	-8458
jia❁13쎯zhang❃6쎯	-8459
zhuan❁1쎯zhi❂32쎯	-8460
bian❁16쎯de❅2쎯	-8461
zuo❄9쎯biao❁14쎯	-8462
da❄0쎯li❄59쎯	-8463
shi❄32쎯xin❁10쎯	-8464
kuang❄12쎯qiu❁9쎯	-8465
mian❄2쎯ji❁64쎯0.	-8466
ben❃5쎯.	-8467
shu❁29쎯	-8468
shu❃5쎯xing❄13쎯	-8469
kou❄6쎯	-8470
er❄5쎯ci❄16쎯	-8471
yi❃9쎯xi❁99쎯	-8472
liu❂20쎯shui❃0쎯	-8473
chu❄17쎯、	-8474
shi❄45쎯cong❂6쎯	-8475
shao❂9쎯	-8476
bai❂2쎯cai❄5쎯	-8477
bo❁11쎯lan❂13쎯	-8478
xue❂6쎯ming❂7쎯	-8479
cheng❂17쎯guan❁4쎯	-8480
6,	-8481
tang❂18쎯	-8482
di❂21쎯	-8483
”,shi❄45쎯	-8484
wa❁10쎯jue❂58쎯	-8485
qian❁13쎯mi❃19쎯,	-8486
jiao❃51쎯	-8487
.2009nian❂6쎯	-8488
yi❁10쎯ceng❂3쎯	-8489
,1984nian❂6쎯	-8490
hui❁23쎯se❄29쎯	-8491
ku❁9쎯	-8492
che❄20쎯de❅1쎯	-8493
mi❄33쎯niao❄2쎯	-8494
zi❃7쎯gong❁15쎯	-8495
xiang❁26쎯you❂24쎯	-8496
、ri❄2쎯ben❃5쎯	-8497
lao❃17쎯ren❂1쎯	-8498
xie❂16쎯bing❃9쎯	-8499
▁:978	-8500
nan❂6쎯tong❁5쎯	-8501
zhi❂20쎯zhu❁8쎯	-8502
lou❂19쎯gao❁20쎯	-8503
mian❄2쎯ji❁64쎯4	-8504
chi❁19쎯	-8505
▁wei❄14쎯	-8506
fu❄28쎯hui❄27쎯	-8507
tong❄3쎯、	-8508
dui❄14쎯ying❁17쎯	-8509
shang❃1쎯shu❄47쎯	-8510
di❄45쎯3	-8511
you❁5쎯yi❂38쎯	-8512
mang❂25쎯	-8513
nuo❄14쎯mi❃19쎯	-8514
pei❄19쎯fang❁4쎯	-8515
▁5、	-8516
ji❁48쎯dong❄13쎯	-8517
dao❄24쎯jiao❁20쎯	-8518
jiang❁10쎯hu❂32쎯	-8519
ban❃5쎯kuai❄14쎯	-8520
bi❃24쎯shun❄11쎯	-8521
shi❂13쎯shi❂20쎯	-8522
hong❂44쎯lou❂19쎯	-8523
《zhong❁4쎯hua❂14쎯	-8524
tong❄3쎯,	-8525
.2007nian❂6쎯	-8526
jia❁7쎯su❄70쎯	-8527
suo❃11쎯zuo❄5쎯	-8528
wan❂12쎯ju❄16쎯	-8529
zong❃5쎯jian❁52쎯	-8530
yi❂20쎯shi❄33쎯	-8531
▁ying❄9쎯pan❂10쎯	-8532
zuan❃5쎯	-8533
pian❁7쎯.	-8534
e❂39쎯ding❄2쎯	-8535
qian❂8쎯lie❄20쎯	-8536
shi❄45쎯yong❄3쎯	-8537
yan❃39쎯bian❄19쎯	-8538
(jian❃52쎯	-8539
wang❂5쎯zi❃7쎯	-8540
jia❁8쎯xing❄8쎯	-8541
si❄17쎯shi❂10쎯	-8542
zuo❃3쎯you❄14쎯.	-8543
wo❁2쎯	-8544
guan❁4쎯bi❄157쎯	-8545
rong❂47쎯	-8546
,zuo❄5쎯wei❄14쎯	-8547
zhu❄31쎯:	-8548
ming❂8쎯chao❂6쎯	-8549
jin❁33쎯jiang❃8쎯	-8550
(yue❁1쎯	-8551
shou❁1쎯yi❄165쎯	-8552
、tian❁5쎯	-8553
tan❄5쎯ce❄22쎯	-8554
chao❁17쎯qing❄3쎯	-8555
▁,	-8556
sou❁13쎯	-8557
shi❄32쎯.	-8558
bei❃2쎯lu❄70쎯	-8559
ren❂1쎯qi❃25쎯	-8560
jing❁14쎯ben❄4쎯	-8561
pin❃0쎯pai❂4쎯.	-8562
shen❁18쎯de❅2쎯	-8563
wei❄14쎯qi❂29쎯	-8564
zai❄5쎯zhe❄14쎯	-8565
dao❃5쎯xiang❄6쎯	-8566
liu❂17쎯	-8567
100-	-8568
gu❄12쎯gong❁15쎯	-8569
jing❁24쎯hua❂14쎯	-8570
niu❃12쎯	-8571
bai❃9쎯huo❄56쎯	-8572
quan❂6쎯shen❁40쎯	-8573
zai❄5쎯yi❁10쎯	-8574
shan❁11쎯cun❁1쎯	-8575
she❄8쎯ji❁22쎯	-8576
hen❃2쎯kuai❄18쎯	-8577
san❁1쎯nian❂6쎯(	-8578
zhi❃19쎯ling❂34쎯	-8579
50ke❄6쎯	-8580
geng❁4쎯	-8581
liang❂19쎯.	-8582
min❂22쎯ban❄4쎯	-8583
diao❄17쎯liao❄8쎯	-8584
qing❂6쎯,	-8585
kong❃1쎯zi❃7쎯	-8586
lian❂29쎯	-8587
mo❄16쎯zi❄6쎯	-8588
hen❃2쎯shao❃2쎯	-8589
jin❃31쎯biao❁14쎯	-8590
jing❁27쎯yan❄75쎯.	-8591
zhen❄30쎯、	-8592
te❄5쎯pin❄1쎯	-8593
yu❄105쎯wei❄14쎯“	-8594
jing❁24쎯zhan❄16쎯	-8595
yi❃11쎯	-8596
shuan❁1쎯	-8597
da❄0쎯xue❂6쎯.	-8598
bao❃13쎯dan❄38쎯	-8599
cou	-8600
2000//	-8601
sou❄0쎯	-8602
chou❂44쎯	-8603
se❄15쎯	-8604
xiao❃2쎯shi❂20쎯,	-8605
cheng❂17쎯nan❂6쎯	-8606
gua❃7쎯	-8607
you❁9쎯mo❄75쎯	-8608
qi❄20쎯guan❁6쎯	-8609
sui❄16쎯shi❂20쎯	-8610
)deng❃2쎯	-8611
dou❁12쎯neng❂2쎯	-8612
▁mu❄22쎯qian❂8쎯	-8613
hong❂44쎯se❄29쎯,	-8614
jiao❁29쎯nang❂2쎯	-8615
i❃31쎯	-8616
kou❃1쎯fu❂43쎯	-8617
zhu❄19쎯su❄33쎯	-8618
dai❄15쎯zhao❁6쎯	-8619
shang❃1쎯bu❄38쎯	-8620
,2006nian❂6쎯	-8621
bao❄10쎯jing❃23쎯	-8622
si❄15쎯,	-8623
zhou❁9쎯,	-8624
1951nian❂6쎯	-8625
tou❂4쎯、	-8626
ke❃4쎯ai❄26쎯	-8627
cong❂6쎯qiu❁9쎯	-8628
sui❄46쎯dao❄24쎯	-8629
yi❁10쎯zhong❁4쎯	-8630
ji❂114쎯》	-8631
dao❃5쎯ben❄4쎯	-8632
nao❃11쎯	-8633
zuo❄5쎯le❅0쎯	-8634
ru❂9쎯jin❁10쎯	-8635
》yi❁10쎯shu❁8쎯	-8636
bie❂4쎯ren❂1쎯	-8637
cang❂5쎯shu❁8쎯	-8638
yuan❂12쎯liao❄8쎯:	-8639
qi❁28쎯	-8640
dan❁34쎯	-8641
zhi❄61쎯an❁13쎯	-8642
kang❄5쎯zhan❄10쎯	-8643
xun❁15쎯	-8644
er❃6쎯si❁24쎯	-8645
tu❃1쎯mu❄15쎯	-8646
cheng❁10쎯hua❁1쎯	-8647
wen❂12쎯.	-8648
fen❁4쎯san❃7쎯	-8649
he❂37쎯kou❃1쎯	-8650
tong❂13쎯ming❂7쎯	-8651
da❂14쎯ji❁22쎯	-8652
nan❂14쎯ren❂1쎯	-8653
ji❁116쎯jing❁24쎯	-8654
1900	-8655
he❂37쎯pan❄10쎯	-8656
bao❄10쎯zhi❃32쎯	-8657
jing❁27쎯ji❄94쎯	-8658
ii	-8659
8000	-8660
ji❄46쎯jie❂69쎯	-8661
,dui❄14쎯yu❂35쎯	-8662
huang❂34쎯hou❄7쎯	-8663
lei❄16쎯.	-8664
shi❄18쎯wu❄36쎯	-8665
chang❂15쎯gui❁35쎯	-8666
pian❄3쎯	-8667
si❄15쎯、	-8668
1948nian❂6쎯	-8669
,2004nian❂6쎯	-8670
bi❃20쎯li❄58쎯	-8671
de❅0쎯xing❂11쎯	-8672
mian❄2쎯ji❁64쎯5	-8673
jing❁24쎯shen❂2쎯,	-8674
dao❃12쎯	-8675
jiu❃3쎯long❂63쎯	-8676
shui❃0쎯.	-8677
yi❄190쎯ren❂1쎯	-8678
chang❃4쎯,	-8679
ke❄14쎯guan❁16쎯	-8680
jin❄61쎯gong❁23쎯	-8681
qi❄56쎯jin❁10쎯	-8682
you❄13쎯you❃11쎯	-8683
gu❃14쎯jin❁10쎯	-8684
mo❂18쎯	-8685
lin❄15쎯	-8686
pu❃7쎯dong❁3쎯	-8687
ke❄6쎯·	-8688
chui❂16쎯	-8689
xiang❁26쎯,	-8690
ru❄2쎯kou❃1쎯	-8691
ting❂5쎯zhi❃22쎯	-8692
si❁24쎯ka❃1쎯	-8693
zuo❄5쎯ci❂29쎯	-8694
de❅2쎯gong❁17쎯	-8695
zhi❁21쎯liu❂20쎯	-8696
zu❃7쎯cheng❂29쎯,	-8697
,yi❃10쎯“	-8698
▁gao❁20쎯	-8699
ding❃11쎯ji❂83쎯	-8700
hua❁11쎯niao❃17쎯	-8701
ju❂23쎯zhang❃6쎯,	-8702
kui❂35쎯	-8703
niu❂3쎯nai❃2쎯	-8704
feng❁17쎯bi❄157쎯	-8705
duan❃0쎯pian❁7쎯	-8706
mian❄2쎯ji❁64쎯3	-8707
zhi❁13쎯yi❄109쎯	-8708
ming❄1쎯ling❂34쎯	-8709
1mo❄16쎯	-8710
,jin❄60쎯	-8711
ding❁12쎯	-8712
yi❃10쎯bei❃2쎯	-8713
you❂29쎯ci❃2쎯	-8714
hen❃2쎯you❃11쎯	-8715
shou❄9쎯yu❂34쎯“	-8716
dan❄21쎯xing❄13쎯	-8717
,shen❄11쎯zhi❄88쎯	-8718
fen❄9쎯	-8719
qie❄25쎯	-8720
,sui❄42쎯	-8721
fu❄64쎯he❂52쎯	-8722
qian❁13쎯mi❃19쎯	-8723
bao❄15쎯zha❂8쎯	-8724
qi❂36쎯	-8725
lei❃14쎯	-8726
ge❄3쎯zi❄16쎯	-8727
52쎯	-8728
sai❁5쎯er❃6쎯	-8729
.quan❂6쎯shu❁8쎯	-8730
shao❁8쎯jian❁25쎯	-8731
3～	-8732
1934nian❂6쎯	-8733
ling❂79쎯	-8734
1liang❃5쎯,	-8735
zhao❁3쎯sheng❁16쎯	-8736
,de❅0쎯chu❄17쎯	-8737
kuo❄15쎯dang❁4쎯	-8738
ying❁17쎯ji❂52쎯	-8739
zhan❁12쎯	-8740
1100	-8741
shi❄18쎯shi❂13쎯	-8742
zhong❁4쎯suo❃11쎯	-8743
cheng❂29쎯xing❂9쎯	-8744
,qu❃1쎯	-8745
2～	-8746
1933nian❂6쎯	-8747
,2007nian❂6쎯	-8748
ying❄9쎯hua❁1쎯	-8749
zhen❄30쎯de❅2쎯	-8750
qi❂104쎯shi❄28쎯	-8751
mian❄2쎯shang❃1쎯	-8752
\\	-8753
mao❂15쎯dun❄11쎯	-8754
ding❄2쎯dian❃11쎯	-8755
zheng❄12쎯qu❁15쎯	-8756
la❁5쎯	-8757
fen❁4쎯lie❄45쎯	-8758
nong❂5쎯li❄62쎯	-8759
zi❁45쎯zhu❄20쎯	-8760
ji❂57쎯qi❂29쎯	-8761
xiong❁6쎯	-8762
dong❁3쎯hai❃1쎯	-8763
xiao❁	-8764
xi❁143쎯lu❄70쎯	-8765
==	-8766
shou❃4쎯gong❁17쎯	-8767
ji❂39쎯ta❁3쎯	-8768
xi❄50쎯jie❂69쎯	-8769
bian❄19쎯jiao❁24쎯	-8770
zhu❃4쎯ji❁48쎯	-8771
shu❄28쎯mu❄15쎯	-8772
nong❂17쎯	-8773
bian❁13쎯ru❄2쎯	-8774
lv❄15쎯xian❁18쎯	-8775
zhuan❃4쎯su❄70쎯	-8776
.bu❂0쎯	-8777
qi❃34쎯le❅0쎯	-8778
,2005nian❂6쎯	-8779
dong❁3쎯ce❄8쎯	-8780
shui❃0쎯chan❃12쎯	-8781
1947nian❂6쎯	-8782
、fang❂4쎯	-8783
1946nian❂6쎯	-8784
de❅2쎯xian❄37쎯	-8785
shu❄28쎯li❄141쎯	-8786
、xia❄3쎯	-8787
shi❄71쎯ye❃7쎯	-8788
ze❃쎯yang❂17쎯	-8789
gan❁16쎯rao❃1쎯	-8790
hong❂44쎯he❂37쎯	-8791
min❃13쎯gan❃6쎯	-8792
li❃31쎯	-8793
fan❃3쎯fu❄31쎯	-8794
xiang❄20쎯de❅2쎯	-8795
gang❁32쎯guan❃9쎯	-8796
184	-8797
wan❃14쎯	-8798
fa❁1쎯xing❄13쎯	-8799
1ping❂17쎯fang❁4쎯	-8800
、zhang❃6쎯	-8801
hai❃1쎯shang❃1쎯	-8802
80nian❂6쎯dai❄9쎯	-8803
yu❂35쎯《	-8804
geng❁6쎯hao❃0쎯	-8805
mi❂	-8806
ren❄41쎯	-8807
shi❃15쎯	-8808
ji❁34쎯de❅0쎯.	-8809
1.6	-8810
gong❄3쎯fen❁4쎯	-8811
—200	-8812
kui❄30쎯	-8813
gan❃6쎯dao❄3쎯	-8814
xiu❄8쎯li❄50쎯	-8815
zhu❃4쎯xi❂12쎯,	-8816
bao❃13쎯bei❄52쎯	-8817
(-)	-8818
36쎯	-8819
ben❃5쎯tu❃1쎯	-8820
wen❁6쎯nuan❃2쎯	-8821
hua❁11쎯jiao❁21쎯	-8822
yin❁44쎯xiao❄14쎯	-8823
▁shi❄71쎯pin❂15쎯	-8824
yu❂74쎯	-8825
ai❁5쎯ji❂37쎯	-8826
na❄11쎯han❂25쎯	-8827
7ri❄2쎯	-8828
27ri❄2쎯	-8829
▁2006nian❂6쎯	-8830
su❄30쎯zao❄16쎯	-8831
feng❁58쎯yu❃47쎯	-8832
wu❄16쎯	-8833
ming❂6쎯	-8834
.”ming❂8쎯	-8835
qi❃34쎯dao❄3쎯	-8836
rong❂33쎯jie❃6쎯	-8837
xin❁18쎯	-8838
de❂9쎯li❃26쎯	-8839
dian❄23쎯zu❃11쎯	-8840
hong❂21쎯guan❁16쎯	-8841
lie❄21쎯	-8842
deng❃2쎯ren❂1쎯	-8843
mo❄30쎯,	-8844
yi❄216쎯	-8845
bing❄12쎯,	-8846
xue❂6쎯han❄20쎯	-8847
lai❂16쎯dian❄23쎯	-8848
na❄11쎯rong❂21쎯.	-8849
sheng❃9쎯、shi❄32쎯	-8850
jiao❁11쎯	-8851
cheng❂29쎯,	-8852
duo❁5쎯bu❄38쎯	-8853
da❄0쎯men❂19쎯	-8854
shu❄26쎯bai❃9쎯	-8855
shao❄5쎯huan❄12쎯	-8856
pei❄12쎯	-8857
xie❄49쎯	-8858
()han❄20쎯	-8859
ni❂10쎯si❁24쎯	-8860
zu❁0쎯lin❄15쎯	-8861
zhi❄30쎯leng❃쎯	-8862
zhi❁13쎯chu❄17쎯	-8863
shang❁4쎯juan❁5쎯	-8864
sheng❁16쎯ri❄2쎯:	-8865
liang❂19쎯han❄20쎯	-8866
cha❄11쎯	-8867
gan❄3쎯,	-8868
da❄0쎯tong❂13쎯	-8869
su❄33쎯she❄23쎯	-8870
zhang❃6쎯da❂30쎯	-8871
an❁18쎯suan❁3쎯	-8872
yu❃44쎯、ding❄2쎯	-8873
1300	-8874
zi❃9쎯	-8875
jie❄34쎯	-8876
te❄5쎯yue❁1쎯	-8877
dan❁9쎯du❂25쎯	-8878
wu❄36쎯ben❄4쎯	-8879
peng❁13쎯ren❄41쎯	-8880
wu❂11쎯er❃6쎯	-8881
cun❁1쎯ren❂1쎯	-8882
ri❄2쎯wen❂5쎯	-8883
ti❂17쎯shi❄60쎯	-8884
shou❃4쎯dong❄13쎯	-8885
1937nian❂6쎯	-8886
han❂17쎯cha❁3쎯	-8887
suo❃11쎯,	-8888
gong❁11쎯lv❄15쎯:	-8889
si❄16쎯	-8890
bu❂0쎯yong❄3쎯	-8891
si❁22쎯lu❄70쎯	-8892
dou❁12쎯zai❄5쎯	-8893
shan❄15쎯yu❂35쎯	-8894
▁si❄17쎯	-8895
le❄3쎯wan❂5쎯	-8896
bao❄20쎯	-8897
da❄0쎯huo❃2쎯	-8898
▁yin❁44쎯pin❂15쎯	-8899
▁2008nian❂6쎯	-8900
shao❃2쎯jiang❁5쎯	-8901
,yao❁17쎯	-8902
huo❂3쎯po❁4쎯	-8903
can❁3쎯bian❁13쎯	-8904
,na❄11쎯rong❂21쎯	-8905
sheng❁16쎯zai❄5쎯	-8906
nie	-8907
yang❂24쎯	-8908
si❁16쎯zhi❂32쎯	-8909
ran❂13쎯liao❄8쎯	-8910
、zheng❄12쎯ce❄26쎯	-8911
qu❂37쎯	-8912
qing❂6쎯.	-8913
bu❄38쎯bu❄38쎯	-8914
shi❂13쎯xi❂9쎯	-8915
hui❄60쎯ji❂114쎯	-8916
zheng❁37쎯qi❄34쎯	-8917
de❅0쎯wei❁12쎯	-8918
rou❄1쎯zhi❄104쎯	-8919
shun❄11쎯xu❄36쎯	-8920
xiao❁29쎯hao❄35쎯	-8921
2.4	-8922
yu❄126쎯ji❄116쎯	-8923
gao❁20쎯shan❁11쎯	-8924
suo❃11쎯.	-8925
hua❂14쎯xia❄6쎯	-8926
ding❄2쎯zhi❄30쎯	-8927
chao❁17쎯yue❄46쎯	-8928
liu❂20쎯chang❄9쎯	-8929
-3	-8930
5ri❄2쎯	-8931
jing❁16쎯	-8932
qi❄20쎯xie❄51쎯	-8933
yi❁10쎯zhi❁16쎯	-8934
yan❃39쎯yi❄176쎯	-8935
du❂25쎯ju❄16쎯	-8936
qian❁13쎯mo❄16쎯	-8937
lian❂53쎯luo❄24쎯	-8938
jing❁24쎯ling❂58쎯	-8939
”,“	-8940
ao❁8쎯	-8941
jia❁36쎯	-8942
ping❂17쎯an❁13쎯	-8943
chang❃4쎯ge❃0쎯	-8944
wei❄14쎯nin❂5쎯	-8945
zhu❃4쎯liu❂20쎯	-8946
(1)	-8947
gou❁11쎯	-8948
tian❁5쎯wen❂5쎯	-8949
cou❄0쎯	-8950
fu❁22쎯	-8951
qun❂7쎯	-8952
huo❃2쎯tui❃7쎯	-8953
jian❄3	-8954
ban❄4쎯de❅2쎯	-8955
you❃9쎯yi❄217쎯	-8956
jia❁13쎯ren❂1쎯	-8957
cao❁4쎯	-8958
1971nian❂6쎯	-8959
xing❄13쎯bie❂4쎯	-8960
ye❃1쎯cheng❁28쎯	-8961
zhuang❄0쎯lie❄34쎯	-8962
__	-8963
fen❁4쎯.	-8964
bei❄26쎯de❅2쎯	-8965
han❂34쎯dan❁34쎯	-8966
,ji❁64쎯ji❂57쎯	-8967
cai❂9쎯chan❃12쎯	-8968
ming❂8쎯qing❁10쎯	-8969
xin❁17쎯pian❁5쎯:	-8970
mei❃13쎯nv❃0쎯	-8971
huai❂8쎯nan❂6쎯	-8972
shi❃8쎯shang❃1쎯	-8973
yin❃14쎯ling❃2쎯	-8974
du❂34쎯ka❃1쎯	-8975
,2008nian❂6쎯	-8976
2ren❂1쎯,	-8977
jin❁10쎯nian❂6쎯	-8978
xiang❁9쎯ji❁48쎯	-8979
16ri❄2쎯	-8980
,guo❃3쎯	-8981
da❄0쎯pi❁11쎯	-8982
bao❃9쎯wen❁6쎯	-8983
shen❃7쎯he❂35쎯	-8984
wa❁20쎯	-8985
cai❄5쎯xi❄46쎯	-8986
lv❃4쎯	-8987
”zi❄6쎯	-8988
liu❄3쎯shi❂10쎯	-8989
wang❃14쎯de❅2쎯	-8990
,tong❂13쎯	-8991
qie❁1쎯ge❁6쎯	-8992
86쎯	-8993
ren❄9쎯	-8994
man❂20쎯	-8995
da❄0쎯chi❂13쎯	-8996
hang❂16쎯xing❁7쎯	-8997
suo❁11쎯	-8998
ji❁47쎯huo❄56쎯	-8999
kao❃6쎯yan❁33쎯	-9000
jia❁8쎯jing❄46쎯	-9001
、lv❃14쎯you❂25쎯	-9002
,gu❃14쎯	-9003
ban❃6쎯)	-9004
fa❁1쎯re❄1쎯	-9005
hei❁3쎯an❄15쎯	-9006
yu❄113쎯dao❄3쎯	-9007
,shi❃6쎯yong❄3쎯	-9008
hui❄27쎯you❃11쎯	-9009
zhang❃6쎯zai❄5쎯	-9010
▁●	-9011
ou❃11쎯	-9012
21ri❄2쎯	-9013
gao❁20쎯qing❁10쎯	-9014
1024	-9015
zhuang❁3쎯	-9016
ao❄14쎯lin❂19쎯	-9017
bao❄14쎯bu❄23쎯	-9018
jie❁32쎯ji❂83쎯	-9019
ding❄2쎯ju❁14쎯	-9020
-2	-9021
.2002nian❂6쎯	-9022
pin❄1쎯wei❄14쎯	-9023
shen❃7쎯pi❁11쎯	-9024
450	-9025
12ri❄2쎯	-9026
30yu❂37쎯	-9027
1935nian❂6쎯	-9028
xu❂1쎯zhou❁9쎯	-9029
men❂19쎯shi❄32쎯	-9030
、wen❂5쎯	-9031
si❄10쎯hu❁13쎯	-9032
,zuo❄5쎯zhe❃2쎯	-9033
yi❄109쎯wai❄0쎯	-9034
jiao❁20쎯ke❁16쎯	-9035
la❁6쎯	-9036
feng❁58쎯,	-9037
ba❃1쎯wo❄12쎯	-9038
chuan❂4쎯ran❃11쎯	-9039
jue❂92쎯yuan❂44쎯	-9040
huan❄31쎯	-9041
bi❄73쎯qiu❁9쎯.	-9042
you❂25쎯xi❄33쎯.	-9043
qu❁15쎯han❄20쎯	-9044
nian❂6쎯jiang❄25쎯	-9045
jia❃19쎯	-9046
xi❁143쎯hu❂32쎯	-9047
lu❄70쎯xian❄47쎯	-9048
.xian❄37쎯you❃11쎯	-9049
.mei❃9쎯	-9050
3ri❄2쎯	-9051
shi❄83쎯	-9052
,jie❁23쎯	-9053
zheng❁22쎯shi❄45쎯	-9054
song❄8쎯	-9055
ri❄2쎯jun❁2쎯	-9056
shou❁1쎯gou❄26쎯	-9057
,na❃3쎯	-9058
song❄4쎯·	-9059
、shan❁11쎯	-9060
,bei❃2쎯jing❁3쎯	-9061
shui❃0쎯dian❄23쎯	-9062
yu❂53쎯	-9063
shi❄26쎯	-9064
su❄30쎯jiao❁29쎯	-9065
bin❁7쎯	-9066
.yong❄3쎯	-9067
▁chong❂17쎯	-9068
er❂7쎯ke❁16쎯	-9069
bu❄38쎯shou❃6쎯:	-9070
li❄62쎯cheng❂52쎯	-9071
ji❁32쎯	-9072
tian❁5쎯.	-9073
jing❄48쎯mai❄9쎯	-9074
dai❄15쎯dong❄13쎯	-9075
da❄0쎯、	-9076
lai❄10쎯	-9077
mu❄22쎯,	-9078
3ren❂1쎯,	-9079
—199	-9080
li❃26쎯.	-9081
zhen❃27쎯liao❂24쎯	-9082
gao❁20쎯、	-9083
chu❁3쎯ren❂4쎯	-9084
jun❁2쎯jiao❄18쎯	-9085
xun❁3쎯zhang❁13쎯	-9086
de❅0쎯ceng❂3쎯	-9087
sheng❁16쎯huo❂3쎯.	-9088
xue❂6쎯sheng❁16쎯,	-9089
you❄10쎯	-9090
la❁6쎯ji❁32쎯	-9091
ou❁8쎯yang❂35쎯	-9092
wu❃9쎯da❄0쎯	-9093
de❅0쎯li❄58쎯	-9094
xu❄32쎯shu❄47쎯	-9095
dian❁12쎯	-9096
,nai❃0쎯	-9097
pai❂2쎯shui❃0쎯	-9098
pai❄3쎯chu❁3쎯	-9099
cai❄5쎯yao❂47쎯	-9100
u❄34쎯	-9101
zhang❃6쎯:	-9102
xing❂11쎯de❅2쎯	-9103
bian❄16쎯yu❂35쎯	-9104
2.8	-9105
mei❄24쎯li❄59쎯	-9106
、guan❃9쎯li❃15쎯	-9107
pu❂17쎯	-9108
dai❄9쎯biao❃5쎯.	-9109
jian❁17쎯chi❂20쎯“	-9110
shu❁24쎯	-9111
deng❃2쎯;	-9112
,bu❂0쎯guo❄2쎯	-9113
zui❄4쎯duo❁5쎯	-9114
a❃0쎯	-9115
can❄10쎯	-9116
shou❁1쎯fei❄37쎯	-9117
yuan❂15쎯、fu❄28쎯	-9118
ren❂1쎯xing❄13쎯	-9119
ban❃5쎯、	-9120
shuo❁2쎯:“	-9121
zhong❁4쎯ji❁47쎯	-9122
pei❂5쎯	-9123
zhang❄9쎯	-9124
ji❂114쎯ge❃0쎯	-9125
%;	-9126
10ke❄6쎯,	-9127
、qing❁10쎯	-9128
huo❃2쎯jian❄50쎯	-9129
shi❂13쎯zhan❄10쎯	-9130
de❅0쎯:	-9131
zong❃5쎯li❃15쎯	-9132
dan❁9쎯wei❄15쎯:	-9133
you❂25쎯xi❄33쎯《	-9134
ke❃4쎯kou❃1쎯	-9135
zheng❄12쎯wu❄12쎯	-9136
,,,,	-9137
ku❁17쎯	-9138
ji❂57쎯ju❄16쎯	-9139
si❄17쎯jun❁2쎯	-9140
sha❁10쎯mo❄37쎯	-9141
.zhe❄14쎯gan❄3쎯	-9142
chao❂6쎯ting❂9쎯	-9143
xing❂9쎯hao❂6쎯:	-9144
dong❁3쎯han❄33쎯	-9145
she❁1쎯	-9146
yi❁12쎯ran❂12쎯	-9147
bing❁2쎯qiu❂19쎯	-9148
you❃11쎯xian❄47쎯	-9149
gong❁11쎯neng❂2쎯,	-9150
mu❄8쎯	-9151
100ke❄6쎯	-9152
ke❄29쎯tang❂15쎯	-9153
zhong❁4쎯chang❃4쎯	-9154
ye❁6쎯	-9155
29ri❄2쎯	-9156
zong❃5쎯cai❂7쎯	-9157
1×	-9158
liu❂23쎯	-9159
(zheng❁22쎯	-9160
quan❂12쎯de❅2쎯	-9161
chong❃2쎯wu❄36쎯	-9162
qing❂6쎯jie❂69쎯	-9163
shi❃8쎯ji❄117쎯·	-9164
xiao❃2쎯jie❃1쎯	-9165
qing❁20쎯lai❄10쎯	-9166
、guo❂11쎯ji❄121쎯	-9167
shi❄18쎯xiang❄24쎯	-9168
zuo❄5쎯《	-9169
bin❁5쎯ke❄14쎯	-9170
wei❂38쎯ai❁5쎯	-9171
jie❂40쎯zhi❃22쎯	-9172
(han❂17쎯	-9173
zhu❄31쎯yin❁44쎯:	-9174
sai❄4쎯ji❄46쎯	-9175
、qi❃12쎯qiu❁9쎯	-9176
xia❂39쎯1gan❄3쎯	-9177
shang❁4쎯hui❄27쎯	-9178
mei❄	-9179
:yi❁10쎯	-9180
ma❃14쎯la❁7쎯	-9181
ren❂1쎯yu❃14쎯	-9182
zhu❁17쎯bao❃13쎯	-9183
,huo❄50쎯de❂7쎯	-9184
fang❂2쎯chan❃12쎯	-9185
su❄45쎯	-9186
de❅2쎯guang❁2쎯	-9187
6ri❄2쎯	-9188
ji❁21쎯he❂22쎯	-9189
.2003nian❂6쎯	-9190
kuan❁0쎯du❄8쎯	-9191
,cheng❂16쎯	-9192
kao❄5쎯jin❄60쎯	-9193
xian❄47쎯xing❄13쎯	-9194
115	-9195
,jie❂67쎯ge❃0쎯	-9196
chang❃4쎯de❅0쎯	-9197
hui❂1쎯gui❁12쎯	-9198
xie❂14쎯zuo❄5쎯	-9199
la❁4쎯	-9200
ming❂7쎯“	-9201
le❄3쎯qi❄20쎯	-9202
chang❃4쎯、	-9203
tong❂13쎯lei❄16쎯	-9204
》shi❄45쎯you❂29쎯	-9205
yu❄105쎯.	-9206
qi❂117쎯quan❂6쎯,	-9207
cuan	-9208
di❂23쎯	-9209
cheng❁28쎯:	-9210
zai❄5쎯da❄0쎯	-9211
jun❁2쎯yi❁13쎯	-9212
,nan❂14쎯,195	-9213
yuan❃4쎯de❅2쎯	-9214
jue❂104쎯de❂7쎯	-9215
chi❄33쎯	-9216
an❁15쎯kuo❄17쎯	-9217
ji❁47쎯jian❁85쎯,	-9218
zhang❁9쎯	-9219
zhou❁9쎯qu❁15쎯	-9220
piao❁4쎯liang❄2쎯	-9221
shi❂13쎯,	-9222
《xin❁10쎯	-9223
,you❃11쎯de❅2쎯	-9224
shi❄32쎯nan❂6쎯	-9225
zhi❁13쎯zhong❁4쎯,	-9226
chao❁19쎯	-9227
zhi❄30쎯,	-9228
12nian❂6쎯	-9229
fan❄15쎯zhi❃19쎯	-9230
10/100	-9231
dan❁9쎯yi❁10쎯	-9232
jue❂38쎯	-9233
peng❃1쎯	-9234
chu❁4쎯bu❄28쎯	-9235
6)	-9236
▁ke❃4쎯	-9237
wan❃17쎯ji❁47쎯	-9238
xuan❃8쎯yu❄93쎯	-9239
hong❂25쎯yang❂10쎯	-9240
、chuang❁13쎯	-9241
rang❄3쎯ni❃6쎯	-9242
li❄141쎯ji❂35쎯	-9243
jian❁25쎯qi❃13쎯	-9244
yu❂108쎯	-9245
qi❃25쎯de❅2쎯	-9246
zhan❁4쎯you❃11쎯	-9247
qi❃21쎯	-9248
huai❂7쎯	-9249
xian❂24쎯	-9250
,me❅1쎯you❃11쎯	-9251
jie❂69쎯zou❄2쎯	-9252
mian❄2쎯ji❁64쎯2	-9253
107	-9254
man❂21쎯	-9255
yi❄239쎯	-9256
qu❁25쎯xian❄47쎯	-9257
1936nian❂6쎯	-9258
,2003nian❂6쎯	-9259
xi❂23쎯	-9260
liang❃5쎯ren❂1쎯	-9261
xue❂6쎯wei❄15쎯,	-9262
▁kuo❄15쎯yong❄3쎯	-9263
23ri❄2쎯	-9264
▁2007nian❂6쎯	-9265
de❅2쎯shan❁11쎯	-9266
lu❂21쎯	-9267
0qiu❂36쎯	-9268
fu❂62쎯hao❂6쎯	-9269
liu❂20쎯ben❄4쎯	-9270
xi❁97쎯xian❄22쎯	-9271
bu❄38쎯la❄23쎯	-9272
ming❂7쎯pai❂4쎯	-9273
ji❂35쎯cheng❂29쎯.	-9274
ling❂99쎯jian❄15쎯	-9275
teng❂7쎯	-9276
,bu❂0쎯neng❂2쎯	-9277
ji❄59쎯shu❂7쎯.	-9278
30mo❄16쎯	-9279
ji❁116쎯rou❄1쎯	-9280
quan❂6쎯zhang❃6쎯	-9281
qi❁19쎯	-9282
chao❁11쎯	-9283
cheng❂30쎯“	-9284
di❂24쎯	-9285
chang❂15쎯lv❄20쎯	-9286
178	-9287
rong❂50쎯ru❄2쎯	-9288
yin❁37쎯yang❂35쎯	-9289
/3	-9290
jiao❁44쎯	-9291
ci❂29쎯dian❃5쎯	-9292
jiu❄23쎯zai❄5쎯	-9293
hui❄27쎯shang❃1쎯	-9294
,huang❂56쎯	-9295
ke❁8쎯	-9296
bang❄19쎯	-9297
xiao❃2쎯yu❂35쎯	-9298
tian❁5쎯tang❂15쎯	-9299
fang❁4쎯xiang❄6쎯:	-9300
sui❄16쎯,	-9301
wu❃9쎯dai❄9쎯	-9302
fa❃2쎯lan❂13쎯	-9303
qie❁1쎯pian❁5쎯	-9304
si❄26쎯	-9305
hui❄34쎯	-9306
shou❃4쎯.	-9307
ju❂23쎯shi❄45쎯	-9308
yan❁30쎯	-9309
fu❄31쎯xing❄8쎯	-9310
gan❃6쎯ying❁17쎯	-9311
shou❁1쎯suo❁15쎯	-9312
quan❂17쎯zhou❁9쎯	-9313
mi❃19쎯;	-9314
yuan❂21쎯	-9315
nong❂5쎯yao❄12쎯	-9316
xiang❄20쎯,	-9317
she❄22쎯ke❁16쎯	-9318
shan❁11쎯xiang❁1쎯	-9319
xia❄3쎯bu❄38쎯	-9320
li❄108쎯gan❁16쎯	-9321
zhu❃4쎯ying❂45쎯	-9322
,ying❁44쎯wen❂5쎯	-9323
zhe❄14쎯zhang❁4쎯	-9324
qi❂34쎯	-9325
zhe❃2쎯wei❄14쎯	-9326
hang❂16쎯li❃11쎯	-9327
bei❁20쎯	-9328
hou❄6쎯,	-9329
wei❂38쎯ya❄7쎯	-9330
xiang❁9쎯ji❄95쎯	-9331
xi❁114쎯	-9332
da❄0쎯duo❁5쎯	-9333
ke❁16쎯de❅2쎯	-9334
chu❁3쎯yi❁10쎯	-9335
de❅0쎯qu❁15쎯,	-9336
jing❄30쎯ji❄59쎯	-9337
shan❁11쎯.	-9338
▁jian❁25쎯	-9339
hui❂1쎯yi❄104쎯	-9340
wen❄6쎯ti❂36쎯,	-9341
xiang❃3쎯nian❂6쎯	-9342
zhi❄30쎯zao❄16쎯、	-9343
zhu❃4쎯zhang❁4쎯	-9344
(xian❄37쎯	-9345
cai❄5쎯dan❁9쎯	-9346
lin❂20쎯ba❁16쎯	-9347
shi❁16쎯de❅0쎯	-9348
wu❂17쎯mao❂11쎯	-9349
han❄20쎯xin❁10쎯	-9350
;《	-9351
zao❂1쎯	-9352
bai❃9쎯ge❃0쎯	-9353
bu❂0쎯bian❄19쎯	-9354
jing❃13쎯se❄29쎯	-9355
zhong❁4쎯du❂17쎯	-9356
deng❃2쎯yu❂35쎯	-9357
ou❃3쎯xiang❄4쎯	-9358
jian❃52쎯ben❄4쎯	-9359
qin❁4쎯zi❄16쎯	-9360
ri❄2쎯yi❄165쎯	-9361
liao❂24쎯fa❃2쎯	-9362
,(	-9363
hai❃1쎯yu❄31쎯	-9364
ren❂1쎯can❁3쎯	-9365
ming❂7쎯cai❄5쎯	-9366
kui❁2쎯	-9367
chao❁14쎯	-9368
de❅2쎯gu❃14쎯	-9369
ye❃1쎯hui❄27쎯	-9370
yu❃14쎯qi❂29쎯	-9371
zu❃5쎯guo❂11쎯	-9372
biao❁14쎯ben❃5쎯	-9373
zhu❃4쎯dong❄13쎯	-9374
hen❃2쎯da❄0쎯de❅2쎯	-9375
ying❂43쎯	-9376
cheng❂17쎯、	-9377
tou❂4쎯bu❄38쎯	-9378
tao❂5쎯hua❁11쎯	-9379
qing❁10쎯chu❃9쎯	-9380
shi❂20쎯zhong❁29쎯	-9381
chu❁3쎯zu❁0쎯	-9382
mo❂9쎯tuo❁6쎯	-9383
you❃9쎯hao❃0쎯	-9384
▁2009nian❂6쎯	-9385
ding❄2쎯ji❁47쎯	-9386
fu❂94쎯yuan❂12쎯	-9387
▁xian❄37쎯ren❂4쎯	-9388
shen❁40쎯shang❃1쎯	-9389
zhui❄0쎯	-9390
de❅2쎯fei❁15쎯	-9391
lian❂53쎯xiang❃6쎯	-9392
chu❃3쎯cun❂1쎯	-9393
ken❃6쎯ding❄2쎯	-9394
cong❂6쎯xiao❃2쎯	-9395
xing❄9쎯shi❄51쎯	-9396
▁wang❃14쎯luo❄24쎯	-9397
"de❅2쎯	-9398
jun❁6쎯ke❃4쎯	-9399
,2009nian❂6쎯	-9400
zi❄16쎯xue❂6쎯	-9401
hua❄18쎯yuan❄18쎯	-9402
jian❄39쎯	-9403
lei❄16쎯,	-9404
chan❃12쎯.	-9405
,ye❃1쎯you❃11쎯	-9406
,2002nian❂6쎯	-9407
22ri❄2쎯	-9408
,xi❁143쎯yu❃14쎯	-9409
cheng❂17쎯de❅2쎯	-9410
1ren❂1쎯	-9411
jiang❄9쎯da❄0쎯	-9412
ming❂8쎯zhu❁17쎯	-9413
zhi❄88쎯shang❃1쎯	-9414
guo❄2쎯min❃13쎯	-9415
shi❃6쎯ming❄1쎯	-9416
kuo❄15쎯pei❄19쎯	-9417
qing❁20쎯tong❂48쎯	-9418
zhen❁30쎯de❅2쎯	-9419
7.5	-9420
zi❄6쎯mu❃6쎯	-9421
fu❄74쎯jia❁7쎯	-9422
mu❄15쎯er❃12쎯	-9423
lin❂43쎯jin❄60쎯	-9424
xi❄46쎯tong❃9쎯:	-9425
zhen❁30쎯jun❁15쎯	-9426
suo❃11쎯de❂7쎯	-9427
wu❂17쎯ren❂1쎯	-9428
bu❄28쎯zhou❄39쎯	-9429
ling❃2쎯xiu❄13쎯	-9430
wu❂27쎯hu❂32쎯	-9431
di❂41쎯piao❄5쎯	-9432
gong❁10쎯min❂22쎯	-9433
dang❃2쎯zheng❄12쎯	-9434
ci❁2쎯shi❃8쎯	-9435
qi❃34쎯cao❃5쎯	-9436
shan❁4쎯chu❂42쎯	-9437
xie❂24쎯dai❄15쎯	-9438
▁8	-9439
.ru❂9쎯guo❃3쎯	-9440
zhuan❁1쎯qiu❁9쎯.	-9441
cui❁3쎯hua❁1쎯	-9442
mian❄2쎯bao❁4쎯	-9443
wen❂12쎯shi❄99쎯	-9444
zheng❄13쎯wei❄14쎯	-9445
ju❂23쎯de❅2쎯	-9446
xin❁7쎯、	-9447
shi❁33쎯wen❂5쎯	-9448
zeng❁2쎯zhi❂7쎯	-9449
ling❂58쎯min❃13쎯	-9450
chang❂15쎯zhu❄19쎯	-9451
ri❄2쎯zhao❄18쎯	-9452
you❁5쎯hui❄50쎯	-9453
shi❄74쎯	-9454
ba❁9쎯jiao❃57쎯	-9455
wang❃14쎯you❂25쎯	-9456
zhen❄30쎯dong❁3쎯	-9457
jue❂33쎯sai❄4쎯	-9458
she❄29쎯bei❄26쎯.	-9459
tong❁5쎯feng❁58쎯	-9460
chang❂15쎯zhou❁9쎯	-9461
gun❄2쎯	-9462
shi❄79쎯	-9463
shun❄8쎯	-9464
11gan❄3쎯	-9465
yan❃39쎯yi❄190쎯	-9466
jiang❁10쎯qu❁15쎯	-9467
ju❃4쎯ban❄4쎯de❅2쎯	-9468
lv❃11쎯hang❂16쎯	-9469
chang❂14쎯shi❄78쎯	-9470
wan❄11쎯	-9471
su❁10쎯shi❄83쎯	-9472
yuan❂15쎯de❅2쎯	-9473
ju❄18쎯ben❃5쎯	-9474
ti❄21쎯dai❄9쎯	-9475
wei❄15쎯de❅2쎯	-9476
ge❁16쎯chang❄2쎯	-9477
cheng❂17쎯bei❃2쎯	-9478
104	-9479
duo❁5쎯cai❃4쎯	-9480
ji❂39쎯xiang❂6쎯	-9481
i❁18쎯	-9482
21shi❄15쎯ji❄94쎯	-9483
xing❄13쎯neng❂2쎯:	-9484
30-	-9485
,yu❂35쎯shi❄45쎯	-9486
2005	-9487
pi❂5쎯	-9488
bo❁20쎯	-9489
tiao❂9쎯,	-9490
de❅2쎯shang❃1쎯	-9491
duo❁5쎯ren❂1쎯,	-9492
gui❁35쎯hua❂11쎯、	-9493
30ke❄6쎯	-9494
jian❃52쎯ji❂67쎯	-9495
man❄11쎯man❄11쎯	-9496
qing❁10쎯dan❁9쎯	-9497
rong❂33쎯ji❄36쎯	-9498
xi❁143쎯han❄33쎯	-9499
kuai❄14쎯,	-9500
yu❂37쎯ren❂1쎯	-9501
▁2011nian❂6쎯	-9502
zhi❁13쎯zuo❄5쎯	-9503
zui❄4쎯you❃11쎯	-9504
bo❂54쎯	-9505
zhan❄17쎯、	-9506
ba❁9쎯shi❂10쎯	-9507
,bei❃2쎯yu❃14쎯	-9508
dang❃2쎯han❄20쎯	-9509
hu❂49쎯	-9510
zao❄8쎯	-9511
shu❁8쎯、	-9512
lie❄20쎯che❁8쎯	-9513
chan❃12쎯,	-9514
fu❄65쎯》:“	-9515
hu❂32쎯bo❂52쎯	-9516
si❁33쎯li❄141쎯	-9517
jia❁7쎯kuai❄18쎯	-9518
qi❃34쎯de❅2쎯	-9519
ne❅쎯?	-9520
qi❂63쎯	-9521
6mo❄16쎯	-9522
xin❁7쎯.	-9523
er❃6쎯de❂9쎯	-9524
ke❄6쎯la❁7쎯	-9525
.1949nian❂6쎯	-9526
ge❁16쎯ci❂29쎯	-9527
ju❂23쎯dang❃2쎯	-9528
dan❁9쎯wei❄15쎯、	-9529
bing❄12쎯bian❄19쎯	-9530
▁◎	-9531
10.	-9532
gao❁20쎯.	-9533
cang❂5쎯zu❂9쎯	-9534
na❄20쎯shui❄11쎯	-9535
09쎯	-9536
jiang❁10쎯、	-9537
da❄0쎯lu❄83쎯de❅2쎯	-9538
(3	-9539
′′	-9540
100%	-9541
24ri❄2쎯	-9542
ban❁20쎯fa❁1쎯	-9543
zun❁7쎯xun❂16쎯	-9544
suo❃11쎯zhi❄89쎯	-9545
,si❄17쎯chuan❁2쎯	-9546
jian❁25쎯gong❁17쎯	-9547
qi❃11쎯	-9548
《da❄0쎯	-9549
shi❃6쎯qi❂29쎯	-9550
wei❄14쎯ben❃5쎯	-9551
qing❂6쎯jing❃13쎯	-9552
bian❁3쎯	-9553
he❂37쎯、	-9554
mi❃19쎯、	-9555
er❂16쎯you❄13쎯	-9556
ku❄18쎯rui❄13쎯	-9557
si❁33쎯ren❂1쎯	-9558
bin❁12쎯hai❃1쎯	-9559
yan❂37쎯an❁13쎯	-9560
fang❂4쎯shui❃0쎯	-9561
yi❄67쎯cheng❁28쎯	-9562
ou❃5쎯	-9563
shu❁8쎯xie❃4쎯	-9564
cha❁3쎯ci❂29쎯	-9565
re❄1쎯qing❂6쎯	-9566
,li❄62쎯ren❂4쎯	-9567
jian❁25쎯feng❁17쎯	-9568
9ri❄2쎯	-9569
jiao❃46쎯	-9570
bian❄19쎯ya❁7쎯	-9571
yi❂31쎯chang❁6쎯	-9572
ruan❃18쎯	-9573
hu❂49쎯die❂56쎯	-9574
shi❂39쎯pu❃13쎯	-9575
yue❄56쎯lan❃28쎯	-9576
ye❄55쎯	-9577
jie❂69쎯ri❄2쎯	-9578
ke❃4쎯yong❄3쎯	-9579
qi❃34쎯shi❁13쎯	-9580
nian❂6쎯yue❄29쎯	-9581
chou❂34쎯	-9582
jin❁33쎯hua❂14쎯	-9583
shi❄32쎯,	-9584
shang❁4쎯.	-9585
bai❃6쎯lin❂19쎯	-9586
mi❃19쎯nian❂6쎯	-9587
yi❄67쎯zuo❄5쎯“	-9588
,zhe❄14쎯li❃26쎯	-9589
huang❂56쎯gua❁16쎯	-9590
zheng❄13쎯、	-9591
de❅2쎯feng❁58쎯	-9592
gou❁11쎯qi❃23쎯	-9593
de❅2쎯shuang❁4쎯	-9594
qiao❂12쎯zhen❄30쎯	-9595
yan❂37쎯zhang❃6쎯	-9596
ye❃1쎯,	-9597
gan❁20쎯	-9598
,chu❂42쎯	-9599
de❅2쎯ren❂1쎯,	-9600
chong❂17쎯fu❄31쎯	-9601
zao❄5쎯	-9602
▁ta❁3쎯	-9603
dian❄23쎯ti❁6쎯	-9604
dan❄33쎯shui❃0쎯	-9605
zong❁10쎯zhi❃20쎯,	-9606
wai❄0쎯chu❁3쎯	-9607
ben❄4쎯xing❂9쎯	-9608
ci❄16쎯,jin❄61쎯	-9609
jian❄17쎯pi❂22쎯	-9610
e❂27쎯	-9611
dui❄13쎯	-9612
shan❄32쎯	-9613
,nan❂6쎯yu❃14쎯	-9614
guo❂11쎯yu❃44쎯	-9615
hua❂11쎯fen❁4쎯	-9616
i❄32쎯	-9617
11ri❄2쎯	-9618
.dan❄10쎯shi❄45쎯	-9619
5ke❄6쎯	-9620
ji❄59쎯yi❄190쎯	-9621
nve	-9622
hai❁6쎯sou❄0쎯	-9623
biao❃5쎯ming❂8쎯	-9624
yan❄75쎯shou❁1쎯	-9625
liang❂19쎯、	-9626
shui❃0쎯mian❄2쎯	-9627
shuo❁2쎯hua❄26쎯	-9628
19ri❄2쎯	-9629
wan❃13쎯	-9630
yuan❄18쎯、	-9631
gu❃63쎯li❄60쎯	-9632
ke❁16쎯.	-9633
ji❁48쎯zu❃7쎯	-9634
jing❁24쎯zhi❄89쎯	-9635
ya❁22쎯	-9636
lou❂15쎯	-9637
ye❃1쎯jiao❄6쎯	-9638
ren❂1쎯wu❄36쎯.	-9639
yao❄12쎯yong❄3쎯	-9640
pie	-9641
u❄0쎯	-9642
kua❁4쎯	-9643
xia❄3쎯le❅0쎯	-9644
:ban❄4쎯li❃15쎯	-9645
yan❁17쎯hou❂11쎯	-9646
900/	-9647
mai❃0쎯mai❄6쎯	-9648
shang❁4쎯jia❁13쎯	-9649
pu❄0쎯	-9650
shi❂20쎯ke❄7쎯	-9651
luan❃0쎯xing❂11쎯,	-9652
bei❃2쎯hai❃1쎯	-9653
huo❂3쎯xie❃8쎯	-9654
shu❄26쎯zhi❂7쎯	-9655
suo❃11쎯fu❄28쎯	-9656
fang❁4쎯shi❄33쎯.	-9657
cun❁1쎯de❅2쎯	-9658
ren❂4쎯yi❄109쎯	-9659
bi❃24쎯hua❄18쎯:	-9660
shi❄71쎯wei❄14쎯	-9661
mian❂13쎯hua❁11쎯	-9662
chong❂17쎯xiu❁11쎯	-9663
2hao❂6쎯	-9664
mei❄5쎯mei❄5쎯	-9665
dan❁15쎯bao❃9쎯	-9666
sheng❃9쎯de❅2쎯	-9667
(15	-9668
yu❂52쎯	-9669
san❁1쎯xing❁7쎯	-9670
yi❂61쎯zhi❂20쎯	-9671
yi❄119쎯dong❃6쎯	-9672
zhi❂25쎯liu❂20쎯	-9673
yang❂10쎯qing❄3쎯	-9674
zai❄4쎯sheng❁16쎯	-9675
zhi❁13쎯de❅0쎯	-9676
zuo❄5쎯wen❂5쎯	-9677
ci❄16쎯nian❂6쎯	-9678
si❄15쎯shi❄33쎯	-9679
,zai❄5쎯jiao❄18쎯	-9680
dong❁3쎯yu❃14쎯	-9681
zhi❄79쎯xu❄36쎯	-9682
jing❁27쎯》	-9683
bu❄38쎯men❂19쎯.	-9684
bian❁16쎯jie❄29쎯	-9685
chou❂25쎯	-9686
guan❁6쎯.	-9687
shi❂39쎯.	-9688
、you❂24쎯	-9689
,ta❁6쎯shi❄45쎯	-9690
1.4	-9691
shu❂7쎯yu❃44쎯	-9692
shi❄31쎯wai❄0쎯	-9693
xiu❁11쎯ding❄15쎯	-9694
yi❃10쎯shang❃1쎯.	-9695
yu❂38쎯	-9696
yi❁10쎯chang❃4쎯	-9697
zhuan❁1쎯jia❁13쎯,	-9698
ji❁58쎯	-9699
▁ka❃1쎯	-9700
1940nian❂6쎯	-9701
gai❃2쎯zhi❄30쎯	-9702
mei❂18쎯hua❁11쎯	-9703
jin❁33쎯pai❂4쎯	-9704
qi❂57쎯	-9705
mang❂30쎯	-9706
rou❂6쎯mao❂11쎯	-9707
he❂37쎯xi❁143쎯	-9708
xiao❃2쎯ping❂17쎯	-9709
wei❄14쎯《	-9710
nan❂14쎯hai❂6쎯	-9711
jin❄61쎯zhan❃11쎯	-9712
,3	-9713
diu	-9714
,yue❁1쎯	-9715
1939nian❂6쎯	-9716
fei❁12쎯lv❄9쎯	-9717
qi❃34쎯lai❂16쎯,	-9718
shang❃1쎯shi❄45쎯	-9719
ga❂0쎯	-9720
pin❃0쎯,	-9721
huang❂38쎯	-9722
bing❄12쎯li❃15쎯	-9723
61	-9724
de❅2쎯hua❁11쎯	-9725
kuo❄5쎯	-9726
liao❄6쎯	-9727
chan❂42쎯	-9728
,zuo❄9쎯la❄23쎯	-9729
de❅2쎯chan❃12쎯	-9730
hai❃1쎯shui❃0쎯	-9731
)zai❄5쎯	-9732
bu❄23쎯zhi❄85쎯	-9733
diao❄17쎯liao❄8쎯:	-9734
ru❂21쎯	-9735
:zai❄5쎯	-9736
wen❂5쎯shi❃8쎯	-9737
:0.	-9738
lu❂45쎯	-9739
,shen❁18쎯	-9740
2000//2003	-9741
zhu❄20쎯yu❂35쎯	-9742
bu❃11쎯chang❂6쎯	-9743
(qu❄6쎯	-9744
zai❁0쎯	-9745
qiang❁22쎯	-9746
xiang❄6쎯shang❃1쎯	-9747
diu❁1쎯	-9748
lu❄70쎯.	-9749
,yu❂35쎯200	-9750
hun❁4쎯li❃17쎯	-9751
▁2010nian❂6쎯	-9752
ping❂36쎯xuan❃8쎯	-9753
han❄20쎯da❄0쎯	-9754
wen❂5쎯ben❃5쎯	-9755
10mo❄16쎯	-9756
.2001nian❂6쎯	-9757
dui❄14쎯qi❂29쎯	-9758
ke❁16쎯shi❄31쎯	-9759
yan❂50쎯fa❁1쎯、	-9760
zhen❁52쎯jiu❃8쎯	-9761
tong❂13쎯shi❂20쎯,	-9762
bi❃17쎯ci❃2쎯	-9763
yu❂66쎯qiu❁9쎯	-9764
shi❄45쎯zui❄4쎯	-9765
zhe❄14쎯shou❃6쎯	-9766
tong❂36쎯hua❄26쎯	-9767
14ri❄2쎯	-9768
na❃3쎯li❃26쎯	-9769
.wei❄14쎯le❅0쎯	-9770
shi❂20쎯kong❁9쎯	-9771
-1	-9772
31ri❄2쎯	-9773
de❅2쎯jian❁25쎯	-9774
ji❁54쎯lie❄34쎯	-9775
sui❂9쎯shi❂20쎯	-9776
sheng❃9쎯na❄11쎯	-9777
yuan❂10쎯dai❄9쎯	-9778
bu❃7쎯	-9779
pang❄1쎯	-9780
ban❁12쎯zi❃7쎯	-9781
dan❄38쎯qi❄20쎯	-9782
bing❄12쎯shi❄84쎯	-9783
liu❄3쎯gan❄3쎯	-9784
hui❂1쎯shou❁1쎯	-9785
qu❁15쎯wei❄15쎯	-9786
wen❂5쎯xuan❃8쎯	-9787
,shi❂20쎯ren❂4쎯	-9788
gong❁17쎯zi❁45쎯	-9789
zheng❄13쎯de❅2쎯	-9790
yuan❃4쎯xiao❁61쎯	-9791
3ping❂17쎯fang❁4쎯	-9792
fen❁4쎯zhong❁29쎯,	-9793
wai❄0쎯,fu❂94쎯	-9794
zhi❄88쎯shao❃2쎯	-9795
yao❃16쎯	-9796
▁jiu❃12쎯dian❄13쎯	-9797
men❄7쎯	-9798
bao❃9쎯an❁13쎯	-9799
gu❁9쎯niang❂0쎯	-9800
hua❁1쎯han❄20쎯	-9801
,zai❄5쎯zhi❂32쎯	-9802
(ji❂114쎯qiu❂19쎯	-9803
juan❃1쎯,	-9804
yuan❂10쎯/	-9805
la❄23쎯xie❂16쎯	-9806
shui❃0쎯shi❄32쎯	-9807
duan❄20쎯lian❄17쎯	-9808
ji❁54쎯su❄56쎯	-9809
chu❄17쎯ji❂83쎯	-9810
pu❂17쎯tian❂16쎯	-9811
i❄40쎯	-9812
qiao❄14쎯	-9813
de❅0쎯mao❄37쎯	-9814
ju❄14쎯quan❂6쎯	-9815
ya❄7쎯chong❂11쎯	-9816
mi❂44쎯	-9817
bao❂9쎯mo❂16쎯	-9818
de❅2쎯zhuang❁10쎯	-9819
you❄21쎯chong❂14쎯	-9820
hu❃4쎯	-9821
cu❄16쎯	-9822
fen❂7쎯	-9823
17ri❄2쎯	-9824
lian❃7쎯	-9825
900/1800	-9826
ji❄83쎯si❄32쎯	-9827
you❃11쎯qu❄11쎯	-9828
,zhu❄31쎯ce❄11쎯	-9829
xian❄47쎯tiao❂9쎯	-9830
deng❃2쎯yi❁10쎯	-9831
xia❂13쎯gu❃52쎯	-9832
jian❃36쎯suo❃18쎯	-9833
chuan❂4쎯dong❄13쎯	-9834
106	-9835
wei❄18쎯.	-9836
cong❂6쎯ci❃2쎯	-9837
yong❄3쎯yi❃10쎯	-9838
shuang❁4쎯he❂35쎯	-9839
peng❂7쎯cun❁1쎯	-9840
,jian❄29쎯li❄141쎯	-9841
i❃5쎯	-9842
cu❄10쎯yu❂35쎯	-9843
jin❁10쎯ri❄2쎯	-9844
ren❂4쎯fu❄28쎯	-9845
shi❁20쎯zi❃7쎯	-9846
zi❃18쎯se❄29쎯	-9847
wei❁12쎯fu❄28쎯	-9848
gao❁20쎯zhi❂32쎯	-9849
te❄5쎯dian❃11쎯.	-9850
cheng❂17쎯dong❁3쎯	-9851
1929nian❂6쎯	-9852
xian❃24쎯de❂7쎯	-9853
dang❁4쎯xuan❃8쎯	-9854
wu❄12쎯gong❁17쎯	-9855
▁shang❃1쎯shi❄32쎯	-9856
zhang❃6쎯wei❄14쎯	-9857
7)	-9858
15-	-9859
biao❃5쎯ge❂29쎯	-9860
jia❃14쎯ji❂83쎯	-9861
ji❂57쎯xian❄61쎯	-9862
qian❂8쎯jin❄61쎯	-9863
zhuan❁1쎯jia❁13쎯.	-9864
sun❃4쎯hai❄8쎯	-9865
cun❁1쎯zhen❄30쎯	-9866
jin❃16쎯guan❃9쎯	-9867
,mei❃13쎯guo❂11쎯	-9868
ba❁27쎯	-9869
ke❄6쎯lan❂13쎯	-9870
ren❂1쎯𑈼de❅2쎯	-9871
zhou❄14쎯	-9872
zhu❃4쎯gan❁16쎯	-9873
zi❄16쎯yuan❄10쎯	-9874
chu❁3쎯zi❁45쎯	-9875
ding❄2쎯le❅0쎯	-9876
nuo❂5쎯	-9877
.zong❃5쎯	-9878
lei❂30쎯da❂30쎯	-9879
jiao❄18쎯she❄23쎯	-9880
yi❃10쎯ci❃2쎯	-9881
ye❃1쎯bei❄48쎯	-9882
tong❂13쎯meng❂34쎯	-9883
an❄14쎯mo❂9쎯	-9884
de❂9쎯yu❄93쎯	-9885
shuo❁2쎯de❅2쎯	-9886
zhi❂16쎯dao❃5쎯	-9887
yi❁13쎯yuan❄18쎯、	-9888
ji❁61쎯	-9889
bing❁6쎯ru❄2쎯	-9890
yong❄3쎯yao❄12쎯	-9891
zhi❄104쎯bao❃9쎯	-9892
wei❄37쎯chang❂20쎯	-9893
:00	-9894
2ri❄2쎯	-9895
jun❁24쎯	-9896
ban❁15쎯de❅2쎯	-9897
1967nian❂6쎯	-9898
.2000nian❂6쎯	-9899
chi❃33쎯lun❂28쎯	-9900
▁ceng❂6쎯	-9901
zhan❁4쎯zong❃5쎯	-9902
liang❃5쎯mian❄2쎯	-9903
ben❄4쎯、	-9904
9)	-9905
su❄55쎯	-9906
dan❄38쎯,	-9907
mian❄2쎯qiu❂19쎯	-9908
xing❂11쎯shi❄22쎯	-9909
𑝧?	-9910
juan❃1쎯.	-9911
zhan❄17쎯,	-9912
you❂25쎯xi❄33쎯,	-9913
shi❄15쎯de❅2쎯	-9914
jie❂67쎯he❂35쎯	-9915
yun❃16쎯he❂37쎯	-9916
,ceng❂6쎯ren❂4쎯	-9917
cong❁36쎯ming❂8쎯	-9918
(193	-9919
de❅2쎯mu❄22쎯	-9920
wei❁17쎯bo❁11쎯	-9921
can❁3쎯shu❄26쎯:	-9922
mi❃19쎯,zong❃5쎯	-9923
yi❁13쎯yuan❄18쎯.	-9924
yi❂65쎯	-9925
guang❁2쎯ce❄33쎯	-9926
sha❁14쎯tang❂28쎯	-9927
guang❁2쎯xian❁39쎯	-9928
xian❁18쎯feng❁52쎯	-9929
9001	-9930
13ri❄2쎯	-9931
huo❄27쎯shi❄45쎯	-9932
tong❂13쎯ji❄72쎯	-9933
ying❁17쎯li❄59쎯	-9934
(4	-9935
8)	-9936
fu❂80쎯	-9937
guan❃9쎯、	-9938
ke❄14쎯zuo❄12쎯	-9939
xiang❁7쎯tan❂20쎯	-9940
ping❁0쎯	-9941
qu❃1쎯dai❄9쎯	-9942
gen❁1쎯zong❁31쎯	-9943
mi❂39쎯	-9944
wei❄40쎯	-9945
zui❄4쎯hao❃0쎯	-9946
lu❄70쎯you❂29쎯	-9947
you❃11쎯se❄29쎯	-9948
rou❂6쎯ruan❃17쎯	-9949
de❅2쎯ge❃0쎯zuo❄5쎯	-9950
ta❁3쎯ren❂1쎯	-9951
jian❁68쎯ku❃1쎯	-9952
mo❂26쎯shou❄3쎯	-9953
xie❂24쎯shou❃4쎯	-9954
:chu❁3쎯chang❃4쎯	-9955
shan❁11쎯lin❂19쎯	-9956
,jin❁33쎯	-9957
ai❄26쎯er❃6쎯	-9958
man❃4쎯zu❂9쎯	-9959
ce❄22쎯hui❄79쎯	-9960
shi❂13쎯wu❄12쎯	-9961
wu❄36쎯liao❄8쎯	-9962
da❄0쎯da❄0쎯	-9963
yi❃15쎯bei❄48쎯	-9964
juan❄9쎯	-9965
、na❄11쎯	-9966
yuan❂34쎯zi❄16쎯	-9967
jie❄15쎯jian❄77쎯	-9968
4ri❄2쎯	-9969
mi❄24쎯ji❂114쎯	-9970
yi❃10쎯xi❁143쎯	-9971
shi❂39쎯yong❄3쎯.	-9972
、si❄17쎯chuan❁2쎯	-9973
shen❁40쎯bian❁16쎯	-9974
pei❂8쎯	-9975
tang❂13쎯chao❂6쎯	-9976
yan❃42쎯jing❄44쎯	-9977
wen❄4쎯	-9978
,2001nian❂6쎯	-9979
bu❂0쎯cuo❄18쎯	-9980
chuang❄1쎯kan❁3쎯	-9981
2ping❂17쎯fang❁4쎯	-9982
jiu❄23쎯you❃11쎯	-9983
jiang❁5쎯hui❄27쎯	-9984
po❄23쎯	-9985
,bi❃20쎯	-9986
shao❂7쎯	-9987
juan❁24쎯	-9988
,hang❂16쎯	-9989
mou❂11쎯	-9990
wei❁13쎯er❃6쎯	-9991
duo❁5쎯ceng❂3쎯	-9992
sai❄4쎯shi❄18쎯	-9993
ci❂15쎯shan❄15쎯	-9994
gong❁15쎯ting❂9쎯	-9995
1942nian❂6쎯	-9996
lei❃25쎯ji❄116쎯	-9997
12yue❄29쎯ren❂4쎯	-9998
xiang❃6쎯yao❁17쎯	-9999
feng❁17쎯jian❄29쎯	-10000
:0	-10001
176	-10002
song❁7쎯	-10003
,zhen❁30쎯	-10004
yue❄29쎯kan❁3쎯	-10005
,yan❂50쎯jiu❁16쎯	-10006
quan❂6쎯zhen❄30쎯	-10007
wei❁13쎯lian❂30쎯	-10008
zhu❁17쎯jiang❁10쎯	-10009
135	-10010
cai❄5쎯、	-10011
ge❁8쎯ge❁8쎯	-10012
zuo❄7쎯de❅2쎯	-10013
si❁24쎯ji❁34쎯	-10014
zao❃2쎯zai❄5쎯	-10015
bei❃2쎯mei❃13쎯	-10016
qing❁20쎯hua❁11쎯	-10017
xiang❁1쎯.	-10018
fa❁1쎯dao❄3쎯	-10019
wei❁30쎯	-10020
te❄5쎯ji❂83쎯	-10021
xian❄22쎯(jin❁10쎯	-10022
wai❄0쎯bu❄38쎯	-10023
mian❃24쎯dian❄24쎯	-10024
wang❄1쎯	-10025
ren❂1쎯yuan❂15쎯,	-10026
“”	-10027
de❅2쎯qi❃25쎯	-10028
cheng❂17쎯xi❁143쎯	-10029
xue❂6쎯yu❃14쎯	-10030
zhen❄30쎯nan❂6쎯	-10031
,fu❄23쎯	-10032
1941nian❂6쎯	-10033
lin❂32쎯suan❁3쎯	-10034
80%	-10035
fu❃11쎯	-10036
》you❂29쎯	-10037
fu❂43쎯yi❄103쎯	-10038
qian❂8쎯yan❂44쎯	-10039
gong❁9쎯xiao❁61쎯	-10040
kan❁5쎯cheng❁28쎯	-10041
shen❁23쎯bao❄10쎯	-10042
ren❂4쎯ming❄1쎯	-10043
han❄20쎯gao❁20쎯	-10044
rou❂5쎯	-10045
zhou❁9쎯.	-10046
bu❄23쎯la❁7쎯	-10047
guo❃3쎯shu❄28쎯	-10048
jiu❃12쎯ba❁11쎯	-10049
shou❄3쎯yi❁13쎯	-10050
shi❄20쎯lang❂28쎯	-10051
▁she❄13쎯xiang❄4쎯	-10052
ba❂19쎯	-10053
cheng❂17쎯.	-10054
▁/	-10055
▁shi❄89쎯	-10056
di❁9쎯yu❂35쎯	-10057
xia❄3쎯mian❄2쎯	-10058
wu❄28쎯	-10059
pin❃0쎯、	-10060
shi❄33쎯:	-10061
,zhong❁19쎯	-10062
de❅2쎯dan❄38쎯	-10063
gai❁13쎯shu❁8쎯	-10064
shuo❁2쎯fa❃2쎯	-10065
mu❃2쎯chan❃12쎯	-10066
bian❃13쎯	-10067
,ta❁6쎯de❅2쎯	-10068
jie❁15쎯shi❄60쎯	-10069
yi❃10쎯dong❁3쎯	-10070
,zhe❄14쎯yang❂17쎯	-10071
7ping❂17쎯fang❁4쎯	-10072
shan❁11쎯ding❃11쎯	-10073
,xin❁7쎯	-10074
yang❃17쎯	-10075
ao❄14쎯yun❃16쎯	-10076
er❂16쎯bei❄48쎯	-10077
,guo❂11쎯jia❁13쎯	-10078
chu❁3쎯ban❃6쎯.	-10079
xiao❁29쎯du❂17쎯	-10080
li❁쎯	-10081
mu❄18쎯	-10082
ming❂7쎯lu❄35쎯	-10083
ren❂1쎯shi❄45쎯	-10084
ru❄2쎯men❂19쎯	-10085
shou❃3쎯hu❄30쎯	-10086
qian❂8쎯wei❄16쎯	-10087
xiang❁9쎯jie❁13쎯	-10088
jue❂109쎯	-10089
fen❁4쎯xi❁87쎯、	-10090
qiu❂19쎯gou❄26쎯	-10091
▁ying❁17쎯yong❄3쎯	-10092
fang❁4쎯,	-10093
te❄5쎯er❃6쎯	-10094
de❅2쎯bian❄19쎯	-10095
han❄33쎯dai❄9쎯	-10096
qu❁42쎯	-10097
qiu❁9쎯.	-10098
dao❄24쎯、	-10099
shi❄32쎯zhong❁4쎯	-10100
7yue❄29쎯zai❄5쎯	-10101
jing❁24쎯que❄26쎯	-10102
768	-10103
,chan❃12쎯	-10104
,mian❄2쎯ji❁64쎯	-10105
yi❁10쎯xian❄47쎯	-10106
quan❂40쎯	-10107
cang❁0쎯chu❃3쎯	-10108
▁cun❂1쎯chu❃3쎯	-10109
▁(1)	-10110
di❄45쎯4	-10111
mu❄14쎯	-10112
qiu❁9쎯jie❄29쎯	-10113
shi❂39쎯yan❂49쎯	-10114
6ping❂17쎯fang❁4쎯	-10115
,qi❃25쎯	-10116
zhi❄85쎯yu❂35쎯	-10117
,ji❂37쎯	-10118
、nai❄5쎯	-10119
a❁6쎯gen❁0쎯	-10120
hu❂46쎯tong❂13쎯	-10121
pei❄19쎯song❄9쎯	-10122
jia❁8쎯qing❄4쎯	-10123
cheng❂29쎯re❄1쎯	-10124
guo❄2쎯cheng❂52쎯.	-10125
deng❃2쎯de❅0쎯.	-10126
hao❃0쎯you❃9쎯	-10127
shao❃2쎯de❅2쎯	-10128
bu❂0쎯dan❄10쎯	-10129
shi❁11쎯da❄0쎯	-10130
ying❁11쎯er❂7쎯	-10131
jiu❄23쎯neng❂2쎯	-10132
ping❂17쎯si❄15쎯,	-10133
168	-10134
wei❄24쎯	-10135
(198	-10136
▁qi❂29쎯	-10137
、ping❂17쎯	-10138
pi❂5쎯jiu❃12쎯	-10139
	-10140
yin❁29쎯	-10141
zhuo❂28쎯	-10142
wei❁13쎯xie❂37쎯	-10143
jiao❁20쎯shi❁11쎯、	-10144
,ju❄65쎯xian❄22쎯	-10145
yong❄3쎯liang❂19쎯	-10146
bi❄93쎯	-10147
di❄47쎯	-10148
de❅2쎯ming❂7쎯	-10149
jie❃6쎯xi❁87쎯	-10150
kan❁4쎯tan❄5쎯	-10151
shi❄18쎯qing❂6쎯	-10152
yuan❂34쎯xian❄22쎯	-10153
pie❁1쎯	-10154
lan❂17쎯	-10155
gu❃42쎯dong❁3쎯	-10156
xu❄36쎯lie❄20쎯	-10157
ji❄59쎯fa❃2쎯	-10158
zhu❃4쎯dao❃5쎯	-10159
zu❃7쎯zhi❁39쎯.	-10160
que❄26쎯ren❄30쎯	-10161
jiao❄34쎯	-10162
shu❁8쎯》:“	-10163
ban❁12쎯ji❂83쎯	-10164
lian❂53쎯yi❄217쎯	-10165
zhi❂25쎯xian❄47쎯	-10166
jiang❃19쎯shou❄9쎯	-10167
jun❄41쎯	-10168
wei❁17쎯ji❁48쎯	-10169
chuang❃7쎯	-10170
fen❃1쎯si❁11쎯	-10171
jia❁7쎯zhou❁9쎯	-10172
neng❂2쎯li❄59쎯,	-10173
de❅1쎯,	-10174
si❄38쎯	-10175
jian❄62쎯.	-10176
de❅2쎯yang❂17쎯	-10177
ying❂45쎯li❄58쎯	-10178
▁qing❁10쎯	-10179
▁sheng❁16쎯	-10180
san❁1쎯ci❄16쎯	-10181
qing❂6쎯xu❄68쎯	-10182
shi❁16쎯du❄8쎯:	-10183
zhi❁13쎯ji❄121쎯	-10184
、shang❁4쎯wu❄12쎯	-10185
90nian❂6쎯dai❄9쎯	-10186
cheng❂29쎯nian❂6쎯	-10187
,2	-10188
duo❄9쎯	-10189
yao❂51쎯	-10190
zhi❁13쎯zi❃7쎯	-10191
kua❄4쎯yue❄46쎯	-10192
liu❂33쎯suan❁3쎯	-10193
bai❃9쎯ke❁16쎯	-10194
duan❁4쎯de❅2쎯	-10195
yin❃14쎯fa❁1쎯	-10196
yan❂37쎯xu❄69쎯	-10197
shi❄32쎯ren❂1쎯,	-10198
pu❃3쎯cha❂17쎯	-10199
ha	-10200
gong❁40쎯	-10201
yong❄3쎯,	-10202
de❅2쎯wu❂17쎯	-10203
deng❃2쎯dai❁1쎯	-10204
fang❄0쎯qi❄23쎯	-10205
xian❄37쎯cun❂1쎯	-10206
ge❁8쎯lun❂5쎯	-10207
shan❁11쎯lu❄70쎯	-10208
ren❂1쎯cheng❁28쎯	-10209
deng❃2쎯)	-10210
de❅2쎯ren❂1쎯.	-10211
yi❁10쎯ji❁47쎯	-10212
qiu❁16쎯ji❄46쎯	-10213
shi❄32쎯dong❁3쎯	-10214
zuo❄5쎯yong❄3쎯,	-10215
xie❁4쎯	-10216
.xin❁10쎯	-10217
pi❁9쎯	-10218
huo❃2쎯che❁8쎯	-10219
ru❃0쎯xian❄51쎯	-10220
jiang❁5쎯zai❄5쎯	-10221
yu❃14쎯“	-10222
.ta❁6쎯shi❄45쎯	-10223
xin❄8쎯fang❃18쎯	-10224
▁an❁13쎯quan❂6쎯	-10225
yuan❁6쎯	-10226
、an❁15쎯dong❁3쎯	-10227
de❅1쎯bu❄38쎯	-10228
le❄3쎯qu❄11쎯	-10229
shao❃2쎯er❂7쎯	-10230
zheng❃4쎯che❁8쎯	-10231
jing❄48쎯dian❄23쎯	-10232
du❃3쎯	-10233
zhan❃22쎯	-10234
zhan❄13쎯	-10235
dan❄38쎯hua❁1쎯	-10236
ben❁2쎯teng❂13쎯	-10237
ju❂23쎯.	-10238
fu❄31쎯yin❄7쎯	-10239
dong❁3쎯lin❂7쎯	-10240
he❂35쎯suan❄3쎯	-10241
shui❃0쎯jing❁14쎯	-10242
,shi❃6쎯de❂7쎯	-10243
dui❄14쎯hua❄26쎯	-10244
bi❄87쎯	-10245
da❄0쎯shi❃6쎯	-10246
,2000nian❂6쎯	-10247
min❂22쎯yong❄3쎯	-10248
pai❂2쎯hang❂16쎯	-10249
quan❂35쎯	-10250
1944nian❂6쎯	-10251
bo❂54쎯hai❃1쎯	-10252
zhan❄17쎯zai❄5쎯	-10253
6.5	-10254
chu❁3쎯xi❂12쎯	-10255
you❂24쎯tian❂16쎯	-10256
>>	-10257
xu❄36쎯》:“	-10258
de❅2쎯fa❁1쎯	-10259
qian❁13쎯li❃26쎯	-10260
.’”	-10261
li❃15쎯cai❂9쎯	-10262
yin❁11쎯qi❂29쎯	-10263
、jian❄29쎯zhu❂18쎯	-10264
ku❄15쎯	-10265
15ke❄6쎯	-10266
yi❁10쎯tao❄1쎯	-10267
gang❃6쎯ao❄25쎯	-10268
leng❃쎯shui❃0쎯	-10269
yan❁33쎯cao❃5쎯	-10270
kuo❄7쎯jian❄29쎯	-10271
shi❄15쎯jia❁13쎯	-10272
zong❃5쎯gong❁17쎯	-10273
ren❂1쎯yi❃10쎯	-10274
dan❁5쎯mai❄16쎯	-10275
fen❁4쎯zhong❁29쎯.	-10276
ping❂17쎯hang❂16쎯	-10277
、“	-10278
qi❂51쎯	-10279
jie❂69쎯,	-10280
▁cong❂6쎯	-10281
deng❃2쎯de❅0쎯,	-10282
jun❁2쎯guan❁6쎯	-10283
zhu❁8쎯gao❁20쎯	-10284
i❁0쎯	-10285
duan❃0쎯,	-10286
tu❂14쎯wen❂5쎯	-10287
fu❂60쎯ding❃12쎯	-10288
jin❁33쎯yin❂44쎯	-10289
ji❁34쎯chu❃14쎯.	-10290
si❄17쎯nian❂6쎯(	-10291
dai❁0쎯	-10292
ju❄74쎯chi❃33쎯	-10293
wen❁6쎯han❄20쎯	-10294
shi❂13쎯xun❄25쎯	-10295
shang❃1쎯ying❄7쎯	-10296
yin❁44쎯xiang❃5쎯	-10297
yin❄7쎯xiang❄20쎯	-10298
zhan❁13쎯	-10299
11nian❂6쎯	-10300
wu❁3쎯lu❃27쎯	-10301
shi❄45쎯bu❂0쎯	-10302
yi❁10쎯guan❄33쎯	-10303
133	-10304
qi❃25쎯、	-10305
yong❃21쎯le❄3쎯	-10306
▁wei❄15쎯yu❂35쎯	-10307
long❂63쎯men❂19쎯	-10308
huan❄18쎯xiang❃6쎯	-10309
shi❂20쎯ji❁47쎯,	-10310
you❂29쎯yuan❂12쎯	-10311
fen❁22쎯	-10312
jiang❁2쎯	-10313
▁che❃7쎯cun❄2쎯	-10314
jia❁13쎯dian❄23쎯	-10315
、hang❂16쎯	-10316
1930nian❂6쎯	-10317
pai❁0쎯mai❄6쎯	-10318
yu❂34쎯yi❃10쎯	-10319
、bei❃2쎯jing❁3쎯	-10320
pai❄3쎯de❅2쎯	-10321
zhi❁31쎯de❅2쎯	-10322
xin❄8쎯yang❃4쎯	-10323
zhu❃4쎯jiang❃19쎯	-10324
”bian❄19쎯	-10325
zhai❄2쎯quan❄1쎯	-10326
,wu❃9쎯	-10327
ying❂42쎯	-10328
dang❁4쎯gui❁12쎯	-10329
,tong❂13쎯nian❂6쎯	-10330
512	-10331
si❃0쎯.	-10332
lao❂11쎯wu❄12쎯	-10333
ming❂8쎯liang❄2쎯	-10334
5～	-10335
▁jin❄60쎯	-10336
deng❁10쎯lu❄83쎯	-10337
dou❃9쎯	-10338
qing❄3쎯le❄3쎯	-10339
zhi❁13쎯xing❁7쎯	-10340
xing❄9쎯ming❂7쎯:	-10341
mei❂39쎯	-10342
chong❂8쎯	-10343
le❅0쎯min❃24쎯	-10344
an❁13쎯zhi❄85쎯	-10345
,cun❁1쎯	-10346
qu❁15쎯)	-10347
chang❃4쎯.	-10348
jian❁22쎯,	-10349
sheng❃9쎯、	-10350
,1978nian❂6쎯	-10351
dou❁12쎯bu❂0쎯	-10352
mo❄16쎯nian❂6쎯	-10353
shi❄45쎯you❃11쎯	-10354
chong❁10쎯tu❁14쎯	-10355
qing❁20쎯shan❁11쎯	-10356
nan❂13쎯	-10357
、dian❄23쎯	-10358
shi❂10쎯ji❁21쎯	-10359
yi❁10쎯lu❄70쎯	-10360
ren❂1쎯suo❃11쎯	-10361
xia❄3쎯lai❂16쎯	-10362
jian❁25쎯cai❃11쎯	-10363
6ren❂1쎯,	-10364
tong❄3쎯ku❃1쎯	-10365
.zhe❄14쎯li❃26쎯	-10366
men❂19쎯zhen❃27쎯	-10367
xi❄46쎯fu❄28쎯	-10368
niao❃17쎯lei❄16쎯	-10369
cai❂3쎯liao❄8쎯:	-10370
"="	-10371
tan❂19쎯	-10372
fang❄0쎯da❄0쎯	-10373
she❄17쎯wai❄0쎯	-10374
wu❃9쎯”	-10375
lin❂19쎯、	-10376
cheng❂52쎯,	-10377
bai❃9쎯fen❁4쎯	-10378
qu❄11쎯wei❄18쎯	-10379
han❄20쎯shui❃0쎯	-10380
kuo❄7쎯zhang❁4쎯	-10381
shou❂쎯lian❄22쎯	-10382
,shen❁18쎯shou❄4쎯	-10383
bu❄34쎯	-10384
tan❁9쎯	-10385
dian❃11쎯:	-10386
zheng❄13쎯.	-10387
da❂14쎯po❄17쎯	-10388
you❄13쎯jiao❄6쎯	-10389
jin❃24쎯zhang❁4쎯	-10390
gu❄21쎯	-10391
qian❁13쎯ke❄6쎯	-10392
wei❁17쎯bo❂41쎯	-10393
jie❁13쎯kou❃1쎯,	-10394
zha❂7쎯	-10395
ke❄14쎯ren❂1쎯	-10396
▁2005nian❂6쎯	-10397
yi❁10쎯dui❄14쎯	-10398
175	-10399
qiu❁9쎯,	-10400
chan❃12쎯pin❃0쎯、	-10401
、mei❃13쎯guo❂11쎯	-10402
zhen❄30쎯xi❁143쎯	-10403
xiao❁61쎯shou❄5쎯、	-10404
ru❃4쎯	-10405
de❅2쎯ke❃4쎯	-10406
1932nian❂6쎯	-10407
ren❄30쎯ding❄2쎯	-10408
kao❃10쎯sheng❁16쎯	-10409
shi❂13쎯、	-10410
ji❁36쎯te❄5쎯	-10411
,1979nian❂6쎯	-10412
se❄29쎯su❄56쎯	-10413
0.8	-10414
gao❁9쎯	-10415
bing❄12쎯.	-10416
su❄70쎯lv❄15쎯	-10417
wu❄14쎯	-10418
,hui❄27쎯	-10419
.1998nian❂6쎯	-10420
wan❂5쎯yi❄190쎯	-10421
xing❄9쎯ming❂7쎯	-10422
chou❂29쎯jian❄29쎯	-10423
7,	-10424
yin❂19쎯	-10425
》zhi❁13쎯	-10426
bei❃2쎯da❄0쎯	-10427
ben❃5쎯cao❃5쎯	-10428
que❁0쎯xian❄63쎯	-10429
yan❂72쎯se❄29쎯:	-10430
,yi❄109쎯	-10431
shi❄28쎯,	-10432
▁zhong❁4쎯	-10433
sa❄13쎯ke❄6쎯	-10434
kuai❄18쎯de❅2쎯	-10435
183	-10436
bei❄52쎯ke❂0쎯	-10437
tai❄9쎯shan❁11쎯	-10438
shi❄45쎯jiang❁5쎯	-10439
yin❃14쎯chong❂11쎯	-10440
2004	-10441
wei❄14쎯da❄0쎯	-10442
ying❄9쎯du❄8쎯	-10443
hou❄7쎯you❄13쎯	-10444
yi❁10쎯pian❁5쎯	-10445
°C,	-10446
、yi❃10쎯	-10447
xing❁14쎯	-10448
nan❂14쎯,193	-10449
lian❄8쎯ai❄26쎯	-10450
yuan❂12쎯ben❃5쎯	-10451
zong❁16쎯se❄29쎯	-10452
xian❁18쎯tian❁5쎯	-10453
biao❁14쎯qian❁39쎯	-10454
"、	-10455
hei❁3쎯se❄29쎯,	-10456
chong❂17쎯zu❃7쎯	-10457
dan❁9쎯chun❂18쎯	-10458
mu❄15쎯zhi❄104쎯	-10459
ping❂17쎯tan❃4쎯	-10460
jing❄11쎯jie❄29쎯	-10461
duan❄7쎯,	-10462
di❄26쎯wang❂5쎯	-10463
3yue❄29쎯ren❂4쎯	-10464
ben❃5쎯zhi❄104쎯	-10465
qing❄3쎯ka❃1쎯	-10466
(199	-10467
bu❄28쎯qiang❁13쎯	-10468
dui❄33쎯zhang❃6쎯	-10469
、jiao❁20쎯yu❄93쎯	-10470
91	-10471
tuan	-10472
bao❄10쎯》、《	-10473
lu❄70쎯jun❁2쎯	-10474
gu❃14쎯ji❄120쎯	-10475
jie❂69쎯yue❁1쎯	-10476
neng❂2쎯zai❄5쎯	-10477
di❂41쎯dian❄23쎯	-10478
jian❃18쎯fei❂1쎯	-10479
dong❁3쎯jing❁27쎯	-10480
qi❃25쎯.	-10481
yi❁12쎯lai❄19쎯	-10482
chong❁9쎯zu❂11쎯	-10483
chen❂41쎯lie❄20쎯	-10484
》wei❄14쎯	-10485
pen❂2쎯de❅0쎯	-10486
ri❄2쎯yu❃44쎯	-10487
gao❁20쎯zhi❄104쎯	-10488
5.5	-10489
de❅2쎯di❄45쎯	-10490
qiu❁9쎯wu❄12쎯.	-10491
tong❁5쎯zhi❁31쎯》(	-10492
2.2	-10493
、liu❂9쎯	-10494
4ren❂1쎯,	-10495
,ying❁17쎯	-10496
,fu❄64쎯ze❂44쎯	-10497
an❄27쎯	-10498
bei❃2쎯ce❄8쎯	-10499
bi❃17쎯de❂7쎯	-10500
chu❁3쎯ru❄2쎯	-10501
han❄43쎯lin❂19쎯	-10502
ji❄48쎯sheng❁16쎯	-10503
guan❃15쎯cang❂5쎯	-10504
cheng❂30쎯jie❁13쎯	-10505
bu❂0쎯zai❄5쎯	-10506
ben❃5쎯ren❂1쎯	-10507
de❂7쎯tian❁5쎯	-10508
cu❁0쎯zhuang❄0쎯	-10509
cheng❂30쎯nuo❄16쎯	-10510
zhi❁13쎯.”	-10511
jian❄17쎯quan❂6쎯	-10512
sheng❃9쎯dao❄24쎯	-10513
tiao❂9쎯.	-10514
pi❁7쎯ke❄6쎯	-10515
yi❁10쎯ri❄2쎯	-10516
fu❂41쎯pin❂12쎯	-10517
guo❂11쎯ji❂81쎯	-10518
tuo❁6쎯yun❃16쎯	-10519
、xin❄8쎯xi❁70쎯	-10520
,shou❄4쎯dao❄3쎯	-10521
bian❁16쎯qu❁15쎯	-10522
hai❃1쎯ba❂11쎯1,	-10523
▁you❂25쎯xi❄33쎯	-10524
dong❁3쎯xian❄22쎯	-10525
▁xian❃24쎯shi❄60쎯	-10526
-4	-10527
fu❃20쎯	-10528
wan❃16쎯	-10529
kuang❄6쎯	-10530
tou❄4쎯guo❄2쎯	-10531
1943nian❂6쎯	-10532
fang❁4쎯fa❃2쎯:	-10533
shi❄32쎯ren❂1쎯.	-10534
bing❁4쎯xiang❁11쎯	-10535
ge❃0쎯yi❁10쎯	-10536
、zhe❄9쎯jiang❁10쎯	-10537
bu❄23쎯lu❃27쎯	-10538
hei❁3쎯ke❄14쎯	-10539
mei❃9쎯fu❂43쎯	-10540
tai❄3쎯kong❁9쎯	-10541
yi❂79쎯ji❄120쎯	-10542
yi❃9쎯chun❂23쎯	-10543
jiao❁8쎯wang❃7쎯	-10544
fang❃6쎯zhen❁30쎯	-10545
ou❁15쎯	-10546
118	-10547
1qian❂40쎯	-10548
,1998nian❂6쎯	-10549
)wei❄15쎯yu❂35쎯	-10550
ping❂17쎯gu❃28쎯	-10551
pai❂2쎯gu❃59쎯	-10552
qu❄6쎯shi❄15쎯	-10553
dang❁4쎯ran❂12쎯	-10554
you❁5쎯mei❃13쎯,	-10555
tian❂16쎯jing❄17쎯	-10556
,ta❁6쎯𑈼	-10557
bang❃5쎯	-10558
yan❂69쎯	-10559
er❄5쎯ren❂1쎯	-10560
deng❃2쎯wei❄14쎯	-10561
jing❁27쎯fei❄37쎯	-10562
fang❁4쎯shi❄33쎯,	-10563
xiang❁1쎯、	-10564
.ta❁6쎯de❅2쎯	-10565
yuan❂12쎯wei❄14쎯	-10566
——《	-10567
ren❂1쎯xin❁7쎯	-10568
wai❄0쎯mao❄39쎯	-10569
hua❁11쎯gang❃4쎯	-10570
、an❁13쎯quan❂6쎯	-10571
ji❄36쎯.	-10572
ji❁48쎯han❄20쎯	-10573
zhi❂16쎯qiu❁9쎯	-10574
wei❁16쎯	-10575
tuo❂39쎯	-10576
▁ming❂8쎯	-10577
ji❁54쎯fa❁1쎯	-10578
liu❂20쎯de❅2쎯	-10579
ji❁48쎯deng❃2쎯	-10580
yi❄109쎯cha❁3쎯.	-10581
shi❄78쎯dian❃11쎯	-10582
fang❁4쎯bian❄16쎯.	-10583
》)	-10584
bo❁10쎯chu❁3쎯	-10585
shan❁11쎯peng❂7쎯	-10586
sai❁13쎯	-10587
nan❂6쎯ce❄8쎯	-10588
jing❁3쎯ju❄18쎯	-10589
yan❃42쎯ke❁16쎯	-10590
qiu❂36쎯yuan❂15쎯	-10591
xuan❂11쎯lv❄9쎯	-10592
,yong❄3쎯yu❂35쎯	-10593
qian❁13쎯mi❃19쎯.	-10594
:;	-10595
zong❃5쎯e❂39쎯	-10596
shan❁11쎯da❄0쎯	-10597
,mei❃9쎯nian❂6쎯	-10598
hou❄7쎯bei❄48쎯	-10599
ming❂7쎯lie❄20쎯	-10600
gong❁23쎯guan❁4쎯	-10601
%%*/	-10602
gan❃13쎯	-10603
19nian❂6쎯	-10604
ji❁47쎯dai❁1쎯	-10605
.zuo❄5쎯wei❄14쎯	-10606
.zhe❄14쎯shi❄45쎯	-10607
kui❄15쎯yang❂24쎯	-10608
tian❁5쎯xian❄47쎯	-10609
2-3	-10610
,shou❄4쎯	-10611
zhen❁33쎯	-10612
ji❁48쎯che❁8쎯	-10613
min❂22쎯yin❂10쎯	-10614
gui❄41쎯yang❂35쎯	-10615
yao❄21쎯	-10616
er❃6쎯duo❁5쎯	-10617
guo❄2쎯du❄12쎯	-10618
qiu❁9쎯na❄11쎯	-10619
sa❁2쎯shang❃1쎯	-10620
zhu❃14쎯shou❂쎯	-10621
lun❄1쎯wen❂5쎯20	-10622
xue❂6쎯.	-10623
lin❂51쎯pian❁5쎯	-10624
,zhe❄9쎯jiang❁10쎯	-10625
ji❁111쎯	-10626
15nian❂6쎯	-10627
da❄0쎯zhan❃11쎯	-10628
,duo❁5쎯ci❄16쎯	-10629
3gong❁10쎯li❃26쎯,	-10630
luan❃0쎯zhuang❄5쎯	-10631
qi❂76쎯	-10632
,shi❄45쎯yi❃10쎯	-10633
han❄20쎯xiao❃2쎯	-10634
▁bei❃2쎯jing❁3쎯	-10635
50ke❄6쎯,	-10636
tu❃1쎯er❃12쎯	-10637
.gen❁0쎯ju❁18쎯	-10638
yu❂37쎯pian❁7쎯.	-10639
▁fang❁4쎯	-10640
xue❂6쎯li❄62쎯.	-10641
tong❃9쎯zhan❄10쎯	-10642
ge❃0쎯li❃15쎯de❅2쎯	-10643
2×	-10644
95%	-10645
zao❁7쎯dao❄3쎯	-10646
fu❄36쎯han❂17쎯	-10647
ning❂6쎯ju❄57쎯	-10648
270	-10649
qi❄20쎯:	-10650
yi❁10쎯ben❃5쎯	-10651
wei❄16쎯yu❄54쎯	-10652
ceng❂6쎯bei❄48쎯	-10653
du❃14쎯	-10654
.zhi❃19쎯	-10655
ci❃2쎯wai❄0쎯	-10656
fou❃0쎯ze❂11쎯	-10657
zai❄5쎯qi❂29쎯	-10658
fu❂77쎯rong❂48쎯	-10659
li❄134쎯	-10660
geng❃11쎯	-10661
de❂7쎯de❅2쎯	-10662
jing❁24쎯mei❃13쎯	-10663
▁zhang❃6쎯	-10664
you❁9쎯ya❃9쎯	-10665
,1987nian❂6쎯	-10666
tun❂5쎯	-10667
huan❄16쎯	-10668
qu❁25쎯she❂5쎯	-10669
fu❄28쎯jiao❄18쎯	-10670
4ping❂17쎯fang❁4쎯	-10671
zi❃7쎯(	-10672
.1984nian❂6쎯	-10673
cheng❂29쎯pin❃0쎯	-10674
han❄2	-10675
.han❄33쎯	-10676
kong❃2쎯long❂63쎯	-10677
wu❂17쎯qiong❂28쎯	-10678
feng❁33쎯kuang❂3쎯	-10679
ma❂8쎯zui❄15쎯	-10680
an❁13쎯qing❄4쎯	-10681
.tong❁5쎯guo❄2쎯	-10682
70nian❂6쎯dai❄9쎯	-10683
xiang❄6쎯qian❂8쎯	-10684
que❁4쎯	-10685
cheng❁28쎯hu❁17쎯	-10686
tai❄15쎯	-10687
wai❄0쎯ke❂0쎯	-10688
de❅2쎯zhen❁30쎯	-10689
mu❄15쎯qi❂117쎯	-10690
fu❂80쎯ling❂79쎯	-10691
hong❂29쎯wu❃28쎯	-10692
,1982nian❂6쎯	-10693
gao❁20쎯yu❂35쎯	-10694
sheng❁16쎯huo❄27쎯	-10695
,ri❄2쎯ben❃5쎯	-10696
zhong❁4쎯lu❄70쎯	-10697
dong❁3쎯feng❁58쎯	-10698
wu❃28쎯chang❁6쎯	-10699
sheng❁16쎯huo❂3쎯,	-10700
zhuan❃4쎯xiang❄6쎯	-10701
dui❄33쎯.	-10702
hua❁1쎯sheng❁16쎯	-10703
zheng❁22쎯cha❁3쎯	-10704
bi❄57쎯	-10705
cai❁7쎯	-10706
bei❄35쎯	-10707
ji❁54쎯li❄60쎯	-10708
wu❂17쎯ji❁48쎯	-10709
zhu❁29쎯hou❂10쎯	-10710
qian❁13쎯wa❃5쎯	-10711
▁chu❁3쎯chu❄17쎯:	-10712
、jiao❁8쎯tong❁5쎯	-10713
71	-10714
802.11	-10715
de❅1쎯yun❄14쎯	-10716
qi❄20쎯han❄20쎯	-10717
,zhi❄88쎯jin❁10쎯	-10718
❁48쎯	-10719
ta❁4쎯	-10720
pang❁2쎯	-10721
1931nian❂6쎯	-10722
jia❄5쎯gou❃2쎯	-10723
mei❃13쎯hao❃0쎯	-10724
nong❂5쎯ji❁48쎯	-10725
zhu❃4쎯pin❂15쎯	-10726
dui❄14쎯kang❄5쎯	-10727
zao❄16쎯zhi❃32쎯	-10728
shi❄45쎯da❄0쎯	-10729
hao❁1쎯	-10730
hui❃5쎯	-10731
de❅2쎯fa❃2쎯lv❄9쎯	-10732
guan❁6쎯yuan❂15쎯	-10733
hui❄84쎯	-10734
.bing❁6쎯	-10735
bu❄38쎯wai❄0쎯	-10736
qi❃34쎯fu❂22쎯	-10737
chi❁23쎯xiu❁9쎯	-10738
duan❃0쎯ji❁47쎯	-10739
jian❁52쎯yu❄67쎯	-10740
ji❂114쎯zhen❄30쎯	-10741
qian❂8쎯jing❃13쎯	-10742
zi❄9쎯	-10743
bin❁6쎯	-10744
、yan❂49쎯	-10745
,1970nian❂6쎯	-10746
.1995nian❂6쎯	-10747
le❅0쎯zhe❄14쎯	-10748
li❄62쎯shi❃8쎯.	-10749
mo❂12쎯shi❄33쎯,	-10750
tai❄3쎯zu❃5쎯	-10751
zao❄16쎯yi❄216쎯	-10752
jing❁27쎯li❃15쎯.	-10753
hen❃3쎯	-10754
........	-10755
,1985nian❂6쎯	-10756
zhi❁13쎯ri❄2쎯	-10757
ju❄39쎯jue❂92쎯	-10758
▁de❅0쎯zhi❃13쎯:	-10759
rong❂29쎯	-10760
cang❁0쎯ku❄6쎯	-10761
lu❄83쎯xu❄69쎯	-10762
mi❄24쎯bei❄48쎯	-10763
zhi❁13쎯xia❄3쎯	-10764
guan❁6쎯zhi❄88쎯	-10765
hua❁11쎯ban❄13쎯	-10766
xin❁10쎯xiang❁1쎯	-10767
▁2004nian❂6쎯	-10768
zhun❃0쎯ze❂11쎯	-10769
xi❃11쎯yi❁38쎯	-10770
fu❂51쎯diao❁23쎯	-10771
nong❂5쎯lin❂19쎯	-10772
3gong❁10쎯li❃26쎯	-10773
jing❁27쎯li❃15쎯、	-10774
quan❂6쎯xiang❁1쎯	-10775
qiao❁8쎯	-10776
.1997nian❂6쎯	-10777
fo❂2쎯shan❁11쎯	-10778
ren❂1쎯cai❂2쎯.	-10779
si❄17쎯deng❃2쎯	-10780
mo❄70쎯	-10781
jin❄61쎯hua❁1쎯	-10782
jia❁13쎯han❄20쎯	-10783
you❄13쎯shi❄45쎯	-10784
gang❁32쎯jin❁26쎯	-10785
jian❁25쎯tong❁5쎯	-10786
liang❃5쎯wei❁12쎯	-10787
zhi❄61쎯liao❂24쎯.	-10788
duo❃28쎯	-10789
yu❂127쎯、	-10790
bu❂0쎯yi❄119쎯	-10791
ce❄26쎯hua❂11쎯、	-10792
diao❄17쎯zhi❄30쎯	-10793
3/	-10794
gong❁10쎯ban❄4쎯	-10795
ping❁0쎯pang❁2쎯	-10796
,shang❃1쎯hai❃1쎯	-10797
liang❃5쎯tiao❂9쎯	-10798
▁dian❄23쎯chi❂23쎯	-10799
,xian❁18쎯	-10800
jiao❄35쎯di❁9쎯	-10801
po❁12쎯you❃11쎯	-10802
shi❃8쎯liao❄8쎯	-10803
ling❃2쎯yu❄31쎯.	-10804
yi❁10쎯kuai❄14쎯	-10805
.1992nian❂6쎯	-10806
qin❂12쎯ben❃3쎯	-10807
zhi❄56쎯li❄59쎯	-10808
zhi❂22쎯min❂22쎯	-10809
210	-10810
20000	-10811
song❃12쎯	-10812
ban❄5쎯qiu❂36쎯	-10813
te❄5쎯chan❃12쎯	-10814
wu❁17쎯shui❃0쎯	-10815
,shi❄45쎯zai❄5쎯	-10816
yong❃21쎯jiu❃1쎯	-10817
xie❂14쎯hui❄27쎯.	-10818
(zhong❁4쎯guo❂11쎯	-10819
lao❄10쎯	-10820
ka❃1쎯la❁7쎯	-10821
rong❂25쎯	-10822
le❅0쎯ta❁3쎯	-10823
da❂30쎯biao❁14쎯	-10824
zhong❁4쎯xue❂6쎯.	-10825
mu❄22쎯:	-10826
bu❄38쎯fen❁4쎯,	-10827
ji❄61쎯you❃11쎯	-10828
hua❁1쎯xian❄22쎯	-10829
、zhi❄104쎯	-10830
si❁24쎯de❅2쎯	-10831
san❁1쎯bao❁4쎯	-10832
lie❄45쎯pian❁5쎯	-10833
feng❁43쎯mi❄45쎯	-10834
yuan❂12쎯you❃11쎯	-10835
gan❃6쎯.	-10836
▁xian❄37쎯	-10837
lou❂19쎯pan❂10쎯	-10838
bian❄16쎯shi❄45쎯	-10839
jia❁13쎯chang❂15쎯	-10840
,xi❄46쎯	-10841
/miao❃6쎯	-10842
li❄58쎯de❅2쎯	-10843
ben❄4쎯hui❄27쎯	-10844
fen❂16쎯	-10845
wan❂5쎯.	-10846
nan❂14쎯,194	-10847
tou❂4쎯de❅2쎯	-10848
1yue❄29쎯ren❂4쎯	-10849
mian❄2쎯qian❂8쎯	-10850
can❁3쎯jian❄62쎯“	-10851
huang❂56쎯bu❄19쎯	-10852
wei❁17쎯ruan❃17쎯	-10853
(6	-10854
5ren❂1쎯,	-10855
mo❂9쎯ca❁4쎯	-10856
zu❃5쎯fu❄41쎯	-10857
hua❄18쎯de❅2쎯	-10858
san❁1쎯wei❂38쎯	-10859
xiao❃2쎯shuo❁2쎯.	-10860
jia❃14쎯zhuang❄5쎯	-10861
fu❂23쎯	-10862
si❁23쎯	-10863
zhi❄39쎯	-10864
bu❂0쎯ming❂8쎯	-10865
di❄27쎯di❄27쎯	-10866
xiu❁9쎯xi❁70쎯	-10867
bu❄28쎯bing❁2쎯	-10868
mei❃13쎯xue❂6쎯	-10869
fang❂2쎯,	-10870
wu❂17쎯se❄29쎯	-10871
zheng❃4쎯qi❂117쎯	-10872
cha❄16쎯	-10873
de❅2쎯ai❄26쎯	-10874
ji❃22쎯chui❂10쎯	-10875
dan❄47쎯sheng❁16쎯	-10876
na❃3쎯yang❂17쎯	-10877
mi❃19쎯,kuan❁0쎯	-10878
duo❂3쎯de❂7쎯	-10879
zhen❁4쎯tan❄5쎯	-10880
3ke❄6쎯	-10881
zhong❃0쎯	-10882
tai❄3쎯shou❃3쎯	-10883
mian❄2쎯ji❁64쎯12	-10884
chang❁6쎯xian❄22쎯	-10885
de❂9쎯shi❄32쎯	-10886
you❂25쎯lan❃28쎯	-10887
mian❄2쎯ji❁64쎯13	-10888
,jin❁10쎯	-10889
xuan❄18쎯	-10890
ren❄30쎯zhi❁31쎯	-10891
xian❄47쎯shang❃1쎯	-10892
、chong❂17쎯	-10893
zun❁7쎯cha❁3쎯	-10894
▁zhi❄30쎯zuo❄5쎯	-10895
、、、	-10896
kou❃1쎯.	-10897
qiao❄8쎯	-10898
,1976nian❂6쎯	-10899
fa❃2쎯ding❄2쎯	-10900
xin❁10쎯ren❂1쎯	-10901
you❄13쎯yi❁10쎯	-10902
zai❁1쎯pei❂3쎯.	-10903
chang❂15쎯nian❂6쎯	-10904
1/3	-10905
230	-10906
jiu❃14쎯	-10907
▁ju❁18쎯	-10908
bu❂0쎯shou❄4쎯	-10909
wei❂38쎯ji❁36쎯	-10910
wu❃28쎯xia❂10쎯	-10911
jie❂67쎯gou❃2쎯,	-10912
shi❂10쎯yue❄29쎯	-10913
sao❁14쎯	-10914
、shang❃1쎯	-10915
chong❂17쎯,	-10916
da❄0쎯gang❁23쎯	-10917
san❁1쎯yue❄29쎯	-10918
zhi❄85쎯qiu❁9쎯	-10919
gan❁25쎯zhe❄12쎯	-10920
jie❄15쎯zhu❄20쎯	-10921
▁bing❄12쎯du❂17쎯	-10922
(.)	-10923
lou❂19쎯,	-10924
、lao❃17쎯	-10925
ping❂17쎯,	-10926
te❄5쎯se❄29쎯,	-10927
bei❃2쎯bu❄38쎯,	-10928
fa❁1쎯zhan❃11쎯、	-10929
ju❄18쎯chang❃4쎯	-10930
qi❃34쎯yuan❂34쎯	-10931
xing❂11쎯mu❄22쎯	-10932
zhong❁4쎯hai❃1쎯	-10933
,xi❁143쎯lin❂43쎯	-10934
tong❂13쎯yi❄109쎯	-10935
、kang❄5쎯	-10936
zi❃7쎯nv❃0쎯	-10937
de❅2쎯xi❁143쎯	-10938
diao❄17쎯ren❂4쎯	-10939
mian❄2쎯mao❄37쎯	-10940
5ke❄6쎯,	-10941
13gan❄3쎯	-10942
yi❂38쎯de❅2쎯	-10943
,1988nian❂6쎯	-10944
mo❄16쎯li❃26쎯	-10945
bei❃2쎯wei❃48쎯	-10946
cun❁1쎯dang❃2쎯	-10947
dao❄24쎯ju❄16쎯	-10948
lai❂16쎯kan❁9쎯	-10949
xin❄8쎯lai❄19쎯	-10950
mian❄2쎯ji❁64쎯8	-10951
ping❂17쎯fan❂14쎯	-10952
wang❃14쎯、	-10953
kan❃7쎯ru❄2쎯	-10954
yao❂55쎯kong❄1쎯	-10955
han❄20쎯zhong❁4쎯	-10956
”cheng❁28쎯hao❂6쎯	-10957
de❅0쎯ming❂7쎯	-10958
fu❄28쎯ting❁3쎯	-10959
deng❃2쎯jiang❃8쎯;	-10960
)zi❄6쎯	-10961
xi❃28쎯	-10962
▁dui❄14쎯	-10963
bai❃9쎯jia❁13쎯	-10964
he❂37쎯dong❁3쎯	-10965
shi❂20쎯hou❄5쎯,	-10966
jiu❄23쎯xiang❄4쎯	-10967
(《	-10968
179	-10969
mang❃8쎯	-10970
wen❂5쎯shu❁8쎯	-10971
you❂26쎯tai❄3쎯	-10972
bian❄43쎯ji❂37쎯	-10973
yang❂27쎯rou❄1쎯	-10974
zhao❁3쎯shou❁1쎯	-10975
long❂63쎯quan❂17쎯	-10976
gu❃59쎯ke❁16쎯	-10977
fa❁1쎯guang❁2쎯	-10978
hou❄7쎯,zai❄5쎯	-10979
jiao❄35쎯duo❁5쎯	-10980
2gong❁10쎯li❃26쎯	-10981
nong❂5쎯mu❄20쎯	-10982
shen❃7쎯cha❂17쎯	-10983
▁(3)	-10984
❁59쎯	-10985
▁you❃11쎯	-10986
,1986nian❂6쎯	-10987
suo❃11쎯zhao❂쎯	-10988
tian❁5쎯qi❃25쎯	-10989
mian❄2쎯ji❁64쎯1.	-10990
xiang❁26쎯cai❄5쎯	-10991
yan❂50쎯jiu❁16쎯》	-10992
zheng❁7쎯yi❄214쎯	-10993
zheng❁15쎯shou❁1쎯	-10994
i❃23쎯	-10995
,wei❄26쎯	-10996
mian❃12쎯	-10997
ma❃14쎯er❃6쎯	-10998
ru❄2쎯qin❁5쎯	-10999
ji❂35쎯shi❃6쎯	-11000
yi❃15쎯zai❄5쎯	-11001
gang❁32쎯ban❃5쎯	-11002
ke❃4쎯zai❄5쎯	-11003
▁2003nian❂6쎯	-11004
xue❂6쎯wei❄15쎯;	-11005
mou❃2쎯gan❄3쎯	-11006
nai❃2쎯you❂24쎯	-11007
si❄17쎯fang❁4쎯	-11008
2gong❁10쎯li❃26쎯,	-11009
jie❃6쎯du❂34쎯	-11010
pian❁5쎯de❅2쎯	-11011
jiang❁10쎯bei❃2쎯	-11012
mei❄6쎯	-11013
▁qi❃12쎯qiu❁9쎯	-11014
guan❁6쎯,	-11015
lv❄15쎯ling❃2쎯	-11016
chuan❁5쎯guo❄2쎯	-11017
fang❁4쎯cheng❂52쎯	-11018
zhong❁25쎯	-11019
,1996nian❂6쎯	-11020
can❁3쎯guan❁16쎯	-11021
》xi❄46쎯lie❄20쎯	-11022
,you❃11쎯zhao❁6쎯	-11023
qu❄6쎯,	-11024
de❅2쎯shou❃4쎯	-11025
zong❃5쎯du❁8쎯	-11026
ji❂35쎯wei❄14쎯	-11027
zhan❄10쎯shu❂7쎯	-11028
zhuan❁1쎯wei❄14쎯	-11029
,chuang❄1쎯	-11030
,fu❂43쎯wu❄12쎯	-11031
wen❂5쎯ji❂114쎯	-11032
mu❄22쎯.	-11033
xiao❁30쎯	-11034
yi❁10쎯er❄5쎯	-11035
de❅2쎯shen❂2쎯	-11036
er❂16쎯yi❃15쎯	-11037
mo❂18쎯gu❁25쎯	-11038
yao❄12쎯qiu❁9쎯	-11039
2013	-11040
jian❄67쎯	-11041
xuan❄16쎯	-11042
,1997nian❂6쎯	-11043
yin❁11쎯zi❃7쎯	-11044
dan❄38쎯hui❁23쎯	-11045
diao❄17쎯li❃15쎯	-11046
he❂37쎯zhen❄30쎯	-11047
que❄26쎯li❄141쎯	-11048
xiao❄9쎯	-11049
xi❄46쎯、	-11050
xing❂9쎯.	-11051
zuo❄12쎯,	-11052
,1999nian❂6쎯	-11053
yi❁10쎯ci❂29쎯	-11054
yan❃39쎯cha❁3쎯	-11055
bei❃2쎯bian❁16쎯	-11056
dou❁12쎯yao❁17쎯	-11057
xun❂14쎯shi❄71쎯	-11058
(2)	-11059
dian❃15쎯	-11060
bu❃7쎯ru❃0쎯	-11061
,1992nian❂6쎯	-11062
bian❁16쎯jing❄11쎯	-11063
xing❂9쎯、	-11064
de❅2쎯zi❄16쎯	-11065
can❁3쎯kao❃10쎯.	-11066
ping❂17쎯mi❃19쎯,	-11067
shui❃0쎯tian❂16쎯	-11068
.1958nian❂6쎯	-11069
lv❄15쎯da❂30쎯	-11070
zuo❄5쎯pin❃0쎯,	-11071
jiu❁19쎯fen❁17쎯	-11072
pei❂3쎯xun❄25쎯、	-11073
jing❁24쎯tong❁5쎯	-11074
.you❄13쎯	-11075
ke❁16쎯wei❁12쎯	-11076
zheng❃3쎯	-11077
zhan❁4쎯ju❁18쎯	-11078
zhang❃6쎯tu❂38쎯	-11079
huo❄50쎯sheng❃9쎯	-11080
zhi❁13쎯jian❁85쎯,	-11081
.1985nian❂6쎯	-11082
fu❄65쎯yu❂34쎯	-11083
zong❃5쎯dui❄33쎯	-11084
zeng❁2쎯chan❃12쎯	-11085
xi❃6쎯	-11086
jian❃15쎯	-11087
shui❃0쎯hu❃4쎯	-11088
ji❂52쎯jiu❄29쎯	-11089
,quan❂6쎯cun❁1쎯	-11090
cheng❁28쎯de❅2쎯	-11091
qing❄3쎯yu❄105쎯	-11092
gong❁10쎯shi❄33쎯	-11093
jun❁2쎯qiu❂19쎯	-11094
yi❁10쎯dao❄24쎯	-11095
diao❄17쎯shi❄78쎯	-11096
feng❁58쎯shui❃0쎯	-11097
mian❄2쎯ji❁64쎯15	-11098
li❂48쎯	-11099
7ren❂1쎯,	-11100
zhe❃2쎯zai❄5쎯	-11101
zhu❁17쎯hai❃1쎯	-11102
xiang❁9쎯fan❃3쎯	-11103
yi❁12쎯shan❁11쎯	-11104
.wo❃3쎯𑈼	-11105
▁xin❁10쎯	-11106
zhi❂25쎯da❂30쎯	-11107
qiu❂27쎯zhi❂32쎯	-11108
yue❁1쎯han❄43쎯·	-11109
qiang❃2쎯jiu❄29쎯	-11110
zhi❁31쎯xian❄22쎯	-11111
fa❃2쎯:	-11112
fan❄24쎯	-11113
yang❂17쎯ben❃5쎯	-11114
yi❁10쎯tong❂13쎯	-11115
▁fa❁1쎯hang❂16쎯	-11116
――	-11117
jia❂19쎯	-11118
,1995nian❂6쎯	-11119
qi❁9쎯shi❂10쎯	-11120
wen❂5쎯hua❁1쎯、	-11121
zai❄5쎯jin❁10쎯	-11122
shi❁33쎯ji❂114쎯	-11123
mian❄2쎯ji❁64쎯10	-11124
05쎯	-11125
juan❄26쎯	-11126
ka❃1쎯tong❁5쎯	-11127
jiu❄30쎯zhi❃13쎯	-11128
zhan❁4쎯ling❃2쎯	-11129
.xian❄37쎯zai❄5쎯	-11130
fa❁1쎯,	-11131
an❁13쎯de❂9쎯	-11132
li❃26쎯ya❄7쎯	-11133
▁xiao❃2쎯	-11134
gai❄11쎯lun❄1쎯	-11135
shu❄28쎯pi❂17쎯	-11136
》di❄45쎯yi❁10쎯	-11137
fen❁4쎯gong❁17쎯	-11138
si❁33쎯ying❂45쎯	-11139
jiao❄6쎯“	-11140
.1993nian❂6쎯	-11141
bu❂0쎯tong❂13쎯,	-11142
leng❃쎯dong❄11쎯	-11143
tui❁1쎯hang❂16쎯	-11144
yi❂87쎯	-11145
cang❁12쎯	-11146
de❅2쎯jian❃52쎯	-11147
wu❂17쎯suo❃11쎯	-11148
jie❂40쎯zhi❄88쎯	-11149
zuan❁4쎯dan❄38쎯	-11150
shan❁11쎯jiao❃53쎯	-11151
nie❄68쎯	-11152
.1982nian❂6쎯	-11153
ji❁48쎯ben❄4쎯	-11154
gen❁0쎯ju❁18쎯《	-11155
qian❁54쎯zhi❄88쎯	-11156
zhi❁13쎯shang❃1쎯	-11157
(16	-11158
nian❂6쎯.	-11159
shan❁33쎯	-11160
huang❂35쎯	-11161
▁zhuang❁10쎯	-11162
cao❃5쎯yao❄12쎯	-11163
yan❂44쎯an❄13쎯	-11164
▁tang❂13쎯	-11165
,zhuang❁10쎯	-11166
e❄47쎯mo❂26쎯	-11167
zi❃7쎯di❄27쎯	-11168
bu❂0쎯xing❄12쎯	-11169
、qi❄34쎯che❁8쎯	-11170
,zong❃5쎯bu❄38쎯	-11171
,quan❂6쎯mian❄2쎯	-11172
fen❁4쎯cheng❂29쎯	-11173
zong❄12쎯dui❄33쎯	-11174
(bei❃2쎯jing❁3쎯	-11175
hong❂44쎯zao❃3쎯	-11176
shang❁4쎯dian❄13쎯	-11177
('	-11178
1280	-11179
tai❂13쎯	-11180
)ren❂1쎯,	-11181
,1983nian❂6쎯	-11182
lu❄70쎯yi❄119쎯	-11183
jian❄62쎯jie❃6쎯	-11184
wei❄14쎯zhi❁13쎯	-11185
xian❄37쎯jin❁33쎯	-11186
、wang❃14쎯luo❄24쎯	-11187
pi❁31쎯	-11188
jun❁2쎯,	-11189
、jing❁24쎯	-11190
dao❃5쎯shi❁11쎯	-11191
de❅0쎯fang❁4쎯.	-11192
nuo❂5쎯wei❁13쎯	-11193
mian❄2쎯ji❁64쎯7	-11194
,shi❄45쎯ji❂114쎯	-11195
xi❁133쎯	-11196
tai❄3쎯hu❂32쎯	-11197
de❅2쎯tong❂13쎯	-11198
shi❄15쎯bo❂41쎯	-11199
xiong❂2쎯rui❃3쎯	-11200
zhong❁4쎯jiang❁5쎯	-11201
15ke❄6쎯,	-11202
min❂22쎯shi❄18쎯	-11203
zheng❁22쎯mian❄2쎯	-11204
ji❄36쎯,	-11205
wu❃9쎯yue❄29쎯	-11206
,wu❂17쎯lun❄1쎯	-11207
nong❂5쎯tian❂16쎯	-11208
xiao❃2쎯kuai❄14쎯	-11209
260	-11210
ban❃2쎯	-11211
shi❄45쎯《	-11212
jun❁4쎯zi❃7쎯	-11213
shi❃9쎯yu❂35쎯	-11214
zheng❄11쎯	-11215
shi❄22쎯li❄59쎯	-11216
tong❁5쎯wang❃7쎯	-11217
jian❄40쎯jian❄40쎯	-11218
xian❄22쎯jing❄11쎯	-11219
2ren❂1쎯	-11220
zhang❃6쎯(	-11221
.1999nian❂6쎯	-11222
ding❃11쎯bu❄38쎯	-11223
du❄10쎯juan❁24쎯	-11224
bo❁21쎯	-11225
bei❃2쎯wei❄62쎯	-11226
san❁1쎯xia❂13쎯	-11227
yi❁10쎯kuan❃7쎯	-11228
zheng❁7쎯qu❃1쎯	-11229
15gan❄3쎯	-11230
de❅0쎯wei❄14쎯	-11231
;fu❄64쎯ze❂44쎯	-11232
ming❂7쎯shi❁11쎯	-11233
yi❁10쎯zhang❁4쎯	-11234
chang❃4쎯suo❃11쎯.	-11235
,fei❁15쎯	-11236
de❅2쎯ri❄2쎯	-11237
yin❂27쎯	-11238
ying❁66쎯	-11239
pin❁3쎯yin❁44쎯	-11240
fan❂26쎯nao❃11쎯	-11241
ni❃11쎯ding❄15쎯	-11242
wen❂5쎯dang❄12쎯	-11243
qing❁10쎯chao❁6쎯	-11244
4～	-11245
yi❁17쎯	-11246
li❄181쎯	-11247
lu❄70쎯kou❃1쎯	-11248
xia❁10쎯ren❂3쎯	-11249
duan❄4쎯lie❄45쎯	-11250
jiao❁20쎯wu❄12쎯	-11251
de❅2쎯nv❃0쎯er❂7쎯	-11252
cheng❂17쎯bao❃10쎯	-11253
jian❃18쎯qing❁16쎯	-11254
shan❁11쎯shang❃1쎯	-11255
ta❁5쎯𑈼	-11256
jue❂47쎯	-11257
tou❂4쎯.	-11258
yi❁12쎯ci❄16쎯	-11259
quan❂12쎯li❄59쎯	-11260
wu❂17쎯xiao❄14쎯	-11261
tong❂13쎯zhi❄61쎯	-11262
hu❄26쎯.	-11263
tong❂13쎯“	-11264
、shuang❁4쎯	-11265
dao❄3쎯de❅1쎯	-11266
》di❄45쎯er❄5쎯	-11267
bi❄46쎯hua❄18쎯	-11268
jin❃24쎯cou❄0쎯	-11269
bing❁6쎯fei❁15쎯	-11270
gai❃2쎯jian❄29쎯	-11271
si❄21쎯yuan❄18쎯	-11272
che❄24쎯xiao❁61쎯	-11273
zhi❁13쎯zhan❄10쎯	-11274
9,	-11275
gan❁33쎯	-11276
qian❄21쎯	-11277
xi❄46쎯de❅2쎯	-11278
nai❄5쎯mo❂14쎯	-11279
chang❃4쎯de❅2쎯	-11280
tao❂9쎯bao❃13쎯	-11281
ti❂17쎯qin❂25쎯	-11282
yi❄67쎯you❃11쎯	-11283
yu❃44쎯yan❂61쎯:	-11284
4005	-11285
lian❂31쎯	-11286
.1988nian❂6쎯	-11287
can❁3쎯sai❄4쎯	-11288
du❄10쎯fu❃24쎯	-11289
hua❁1쎯shi❄32쎯	-11290
gai❄11쎯shu❄47쎯	-11291
xi❁143쎯you❂25쎯	-11292
zhang❃6쎯、fu❄28쎯	-11293
wai❄0쎯xian❄47쎯	-11294
han❄20쎯shang❄2쎯	-11295
chong❁9쎯dian❄23쎯	-11296
,1993nian❂6쎯	-11297
du❂25쎯zi❁45쎯	-11298
you❃11쎯da❄0쎯	-11299
dui❄14쎯ce❄26쎯	-11300
zhi❁13쎯suo❃11쎯	-11301
luan❃0쎯xing❂11쎯	-11302
,ju❄16쎯	-11303
guang❁2쎯,	-11304
jiang❃8쎯,	-11305
guang❁8쎯xiang❄6쎯	-11306
ying❁17쎯yong❄3쎯.	-11307
280	-11308
dui❄33쎯de❅2쎯	-11309
lv❄11쎯hua❁1쎯	-11310
yi❁10쎯tian❁5쎯	-11311
jiao❄18쎯ji❂83쎯	-11312
gong❁10쎯li❄141쎯	-11313
xian❁57쎯mei❃13쎯	-11314
shui❃0쎯ping❂17쎯.	-11315
,1975nian❂6쎯	-11316
ge❄3쎯you❃11쎯	-11317
gui❄41쎯de❅2쎯	-11318
er❃9쎯	-11319
fu❁13쎯qi❁15쎯	-11320
shen❁40쎯de❅2쎯	-11321
xing❁7쎯ji❁47쎯	-11322
sui❄16쎯yue❄29쎯	-11323
:8	-11324
ju❂23쎯,	-11325
、si❄15쎯wan❁9쎯	-11326
1zhi❁16쎯	-11327
li❄144쎯zi❃7쎯	-11328
ren❂4쎯wu❄12쎯.	-11329
zhe❄14쎯bu❄38쎯	-11330
shen❃7쎯mei❃13쎯	-11331
xing❄13쎯yu❃14쎯	-11332
,bing❁6쎯you❃11쎯	-11333
zhao❁6쎯chong❂17쎯	-11334
shuai❁1쎯	-11335
2/	-11336
ke❄6쎯)	-11337
die❂65쎯	-11338
pao❂11쎯	-11339
.xie❂16쎯	-11340
luan❂12쎯	-11341
san❁1쎯ya❄7쎯	-11342
fa❃2쎯han❄20쎯	-11343
fu❂94쎯zai❄5쎯	-11344
jie❃1쎯mei❄5쎯	-11345
mo❄30쎯duan❁4쎯	-11346
qiao❃3쎯miao❄0쎯	-11347
》zai❄5쎯	-11348
14gan❄3쎯	-11349
pi❁31쎯li❄181쎯	-11350
shi❄78쎯tu❂14쎯	-11351
jiang❁5쎯ling❃2쎯	-11352
xian❃24쎯wei❁17쎯	-11353
"、"	-11354
de❅0쎯ban❃5쎯	-11355
yi❁10쎯ren❂1쎯	-11356
liang❄2쎯du❄8쎯	-11357
bian❄19쎯wei❄14쎯	-11358
ni❂7쎯	-11359
,an❄14쎯	-11360
bu❂0쎯jian❄62쎯	-11361
feng❁58쎯su❂0쎯	-11362
gang❃6쎯shi❄32쎯	-11363
nan❂6쎯yang❂35쎯	-11364
yi❄68쎯yuan❂10쎯.	-11365
.ta❁3쎯𑈼	-11366
,qing❃9쎯	-11367
ke❄7쎯lu❄35쎯	-11368
yi❂31쎯xing❄8쎯	-11369
zai❄5쎯zhong❁4쎯	-11370
,wang❂5쎯	-11371
bo❂41쎯ke❄14쎯	-11372
ren❂1쎯jia❁13쎯	-11373
ying❄9쎯bi❃24쎯	-11374
jian❁52쎯li❃15쎯	-11375
▁na❄11쎯	-11376
.1956nian❂6쎯	-11377
kong❁9쎯bai❂2쎯	-11378
ding❃11쎯jian❁22쎯	-11379
10%	-11380
feng❃3쎯	-11381
shu❃5쎯,	-11382
jia❁7쎯shui❃0쎯	-11383
shi❄31쎯han❄20쎯	-11384
,you❃11쎯xiao❄14쎯	-11385
shou❄15쎯rou❄1쎯	-11386
zong❃5쎯hui❄27쎯	-11387
yin❂44쎯xing❄15쎯	-11388
kai❃10쎯	-11389
luo❄28쎯	-11390
bu❂0쎯duo❁5쎯	-11391
2ci❄16쎯	-11392
che❁8쎯,	-11393
lan❂21쎯	-11394
zha❄14쎯	-11395
▁jin❁33쎯	-11396
shui❃0쎯yu❄31쎯	-11397
yao❄12쎯cai❂3쎯	-11398
zi❁45쎯yuan❂34쎯,	-11399
fei❃6쎯	-11400
,bie❂4쎯	-11401
、gu❃14쎯	-11402
zhou❄18쎯	-11403
xie❃4쎯de❅2쎯	-11404
dai❁1쎯yu❄113쎯	-11405
fu❄32쎯lian❂53쎯	-11406
wan❃17쎯nian❂6쎯	-11407
xue❂6쎯tang❂15쎯	-11408
fang❁4쎯mian❄2쎯,	-11409
xiang❄24쎯mu❄22쎯,	-11410
zi❄6쎯fu❂62쎯	-11411
yi❁38쎯fu❂43쎯	-11412
yu❂37쎯ren❂1쎯.	-11413
lin❂19쎯zhong❁4쎯	-11414
shang❁4쎯yong❄3쎯	-11415
dai❄50쎯	-11416
tai❄11쎯	-11417
er❂16쎯xing❂11쎯	-11418
jing❄48쎯tai❄6쎯	-11419
shan❁11쎯nan❂6쎯	-11420
(ying❁44쎯wen❂5쎯	-11421
7yue❄29쎯zhi❄88쎯	-11422
,de❂7쎯	-11423
qin❂32쎯cai❄5쎯	-11424
zhuan❁1쎯ren❂4쎯	-11425
qiang❃5쎯	-11426
,1990nian❂6쎯	-11427
cun❁1쎯na❄11쎯	-11428
,jia❁7쎯jiang❄9쎯	-11429
qian❁39쎯ding❄15쎯	-11430
ye❃1쎯neng❂2쎯	-11431
gan❁31쎯yan❂46쎯	-11432
jiao❁20쎯hui❄27쎯	-11433
(200	-11434
16gan❄3쎯	-11435
,shuang❁4쎯	-11436
,1972nian❂6쎯	-11437
hou❄7쎯zai❄4쎯	-11438
19shi❄15쎯ji❄94쎯	-11439
xian❂18쎯feng❁8쎯	-11440
shou❃6쎯chuang❄1쎯	-11441
ming❂7쎯si❁22쎯	-11442
bian❁13쎯shen❃7쎯	-11443
gai❃2쎯liang❂15쎯	-11444
shun❄7쎯jian❁85쎯	-11445
kui❁8쎯	-11446
,ruo❄8쎯	-11447
lun❂20쎯	-11448
she❂5쎯:“	-11449
mi❄24쎯de❅2쎯	-11450
da❄0쎯xing❄8쎯	-11451
zu❃11쎯kang❄5쎯	-11452
gong❁9쎯shui❃0쎯	-11453
jian❁25쎯ban❄4쎯	-11454
pi❁11쎯ping❂36쎯	-11455
gua❄3쎯pai❂4쎯	-11456
hao❄23쎯te❄5쎯	-11457
hua❁1쎯gong❁17쎯、	-11458
pin❃0쎯chong❂11쎯.	-11459
gui❃33쎯	-11460
e❄47쎯xing❄13쎯	-11461
ran❂13쎯qi❃25쎯	-11462
ji❂93쎯	-11463
sui❂9쎯yi❄109쎯	-11464
ke❁16쎯zhang❃6쎯	-11465
wei❁17쎯xing❂9쎯	-11466
,shan❁11쎯dong❁3쎯	-11467
ge❂29쎯er❃6쎯	-11468
wu❂17쎯ming❂7쎯	-11469
zui❄4쎯xiao❃2쎯	-11470
▁zi❄16쎯	-11471
liu❄3쎯yue❄29쎯	-11472
yi❄119쎯yu❂35쎯	-11473
zai❄5쎯xin❁10쎯	-11474
zhi❄30쎯bei❄26쎯	-11475
yu❄93쎯chong❂11쎯	-11476
hao❃1쎯	-11477
po❄16쎯	-11478
jun❁2쎯.	-11479
ti❂36쎯de❅2쎯	-11480
ban❄5쎯gan❄3쎯	-11481
jie❃1쎯jie❃1쎯	-11482
gu❄12쎯xiang❁1쎯	-11483
1ci❄16쎯	-11484
▁qian❂8쎯	-11485
guan❃15쎯,	-11486
tian❁5쎯zi❃7쎯	-11487
zhi❃22쎯tong❄3쎯	-11488
geng❁17쎯de❅0쎯0.	-11489
:"	-11490
che❄25쎯	-11491
yu❂114쎯	-11492
guan❁4쎯xi❄46쎯,	-11493
xu❁37쎯qiu❂27쎯.	-11494
er❄5쎯ji❁47쎯	-11495
、zhuan❁1쎯qiu❁9쎯	-11496
lu❄35쎯》	-11497
zao❁7쎯yu❄113쎯	-11498
ying❁17쎯dang❁4쎯	-11499
qu❃2쎯	-11500
、zi❄16쎯	-11501
meng❃10쎯	-11502
hai❃1쎯de❅1쎯	-11503
chu❁3쎯pin❃0쎯	-11504
huan❁7쎯le❄3쎯	-11505
shi❁16쎯run❄4쎯	-11506
、zu❃7쎯zhi❁39쎯	-11507
ling❂46쎯nan❂6쎯	-11508
50nian❂6쎯dai❄9쎯	-11509
quan❂6쎯jiao❄18쎯	-11510
tong❂13쎯hang❂16쎯	-11511
(tao❄1쎯	-11512
3ci❄16쎯	-11513
po❄17쎯sui❄29쎯	-11514
mian❄2쎯ji❁64쎯:	-11515
de❅2쎯di❄45쎯er❄5쎯	-11516
you❃26쎯	-11517
ju❄57쎯ge❃0쎯	-11518
hu❂32쎯qu❁15쎯	-11519
shi❂20쎯ren❂4쎯	-11520
qian❂8쎯lai❂16쎯	-11521
,sheng❁16쎯yu❂35쎯	-11522
->	-11523
:9//	-11524
bei❁8쎯”	-11525
gu❃59쎯she❂5쎯	-11526
xi❄50쎯zhi❄89쎯	-11527
gai❃2쎯cheng❁28쎯	-11528
xiao❃2쎯shuo❁2쎯,	-11529
zhan❄17쎯shi❄33쎯	-11530
2400	-11531
,gong❁17쎯	-11532
ba❁9쎯da❄0쎯	-11533
ku❄18쎯ai❄26쎯	-11534
▁2002nian❂6쎯	-11535
zhi❁13쎯lv❃14쎯	-11536
su❄56쎯you❃11쎯“	-11537
-5	-11538
720	-11539
.jiang❁5쎯	-11540
ji❄59쎯gong❁17쎯	-11541
sheng❁16쎯han❄20쎯	-11542
de❅2쎯jin❁33쎯	-11543
zhu❁16쎯you❂24쎯	-11544
,zhuan❁1쎯qiu❁9쎯	-11545
8ping❂17쎯fang❁4쎯	-11546
29쎯	-11547
dian❃11쎯、	-11548
huo❃2쎯yan❄37쎯	-11549
shi❄15쎯dai❄9쎯	-11550
shui❃0쎯shang❃1쎯	-11551
zhong❁4쎯huo❄50쎯	-11552
.)	-11553
ge❂40쎯	-11554
huo❂3쎯li❄59쎯	-11555
mian❄2쎯ji❁64쎯2.	-11556
pu❃1쎯	-11557
、tie❃5쎯	-11558
ye❃1쎯zai❄5쎯	-11559
fei❂1쎯wo❄16쎯	-11560
juan❁5쎯zu❂11쎯	-11561
yong❃6쎯gan❃8쎯	-11562
gao❁20쎯feng❁19쎯	-11563
chu❂43쎯	-11564
di❁9쎯ya❁7쎯	-11565
zi❄16쎯wei❄16쎯	-11566
’”	-11567
(,)	-11568
zu❃7쎯,	-11569
xing❄13쎯:	-11570
zhang❁12쎯	-11571
.1996nian❂6쎯	-11572
de❅0쎯wei❄15쎯.	-11573
xin❁10쎯cun❁1쎯	-11574
jun❁6쎯heng❂14쎯	-11575
bing❁4쎯tang❂28쎯	-11576
peng❂7쎯zhen❄30쎯	-11577
zhen❄16쎯xing❄8쎯	-11578
zu❃7쎯cheng❂29쎯:	-11579
cai❂3쎯liao❄8쎯、	-11580
ju❃5쎯	-11581
ban❄4쎯fa❃2쎯》	-11582
ti❂17쎯ming❂7쎯	-11583
chai❂6쎯you❂24쎯	-11584
qu❄6쎯.	-11585
zu❂9쎯de❅2쎯	-11586
ba❁9쎯yue❄29쎯	-11587
li❃15쎯lun❄1쎯、	-11588
dai❄13쎯	-11589
▁yi❃10쎯	-11590
wei❄18쎯,	-11591
,1974nian❂6쎯	-11592
tan❄5쎯xian❃46쎯	-11593
hua❂14쎯cheng❂50쎯	-11594
i❃21쎯	-11595
3hao❂6쎯	-11596
3ren❂1쎯	-11597
zao❄15쎯	-11598
hu❄30쎯fu❁39쎯	-11599
sha❁10쎯tan❁12쎯	-11600
sheng❃9쎯li❄141쎯	-11601
xuan❄15쎯	-11602
zhuo❂31쎯	-11603
1yue❄29쎯1ri❄2쎯	-11604
fen❁4쎯yuan❄18쎯	-11605
▁zui❄4쎯gao❁20쎯	-11606
shi❄32쎯chang❃4쎯.	-11607
yan❃39쎯jiang❃19쎯	-11608
、quan❂6쎯	-11609
shou❃4쎯de❅2쎯	-11610
,zu❃7쎯zhi❁39쎯	-11611
you❃11쎯san❁1쎯	-11612
,bing❁6쎯yi❃10쎯	-11613
ding❄2쎯jie❄14쎯	-11614
shao❁8쎯zhi❄88쎯	-11615
zhi❁21쎯yuan❂26쎯	-11616
de❅2쎯te❄5쎯se❄29쎯	-11617
wei❁17쎯liang❂19쎯	-11618
hui❁18쎯	-11619
sha❁4쎯si❃0쎯	-11620
.1934nian❂6쎯	-11621
guan❁16쎯kan❁9쎯	-11622
qing❁10쎯mo❄30쎯	-11623
,jiang❁10쎯su❁10쎯	-11624
kuang❄12쎯dan❄38쎯	-11625
2.1	-11626
mo❄16쎯mu❃2쎯	-11627
jue❂92쎯da❄0쎯	-11628
chu❁3쎯shou❄5쎯	-11629
lu❄70쎯mian❄2쎯	-11630
,li❄58쎯yong❄3쎯	-11631
fen❁17쎯fen❁17쎯	-11632
hui❄27쎯she❄22쎯	-11633
shi❄32쎯xi❁143쎯	-11634
yu❄126쎯bao❄10쎯	-11635
、can❁13쎯yin❃37쎯	-11636
fu❂87쎯	-11637
tuo❃1쎯	-11638
de❅2쎯de❅0쎯	-11639
ru❂9쎯yi❄109쎯	-11640
yu❃14쎯zhi❁13쎯	-11641
zhao❃4쎯ze❂24쎯	-11642
.yin❁11쎯wei❄14쎯	-11643
jian❃36쎯yi❄159쎯	-11644
quan❂35쎯shi❄89쎯	-11645
xian❁57쎯yan❄45쎯	-11646
9ping❂17쎯fang❁4쎯	-11647
shuo❄18쎯	-11648
,zhi❄104쎯	-11649
zu❃7쎯zu❃7쎯	-11650
bu❂0쎯xie❄49쎯	-11651
shu❄26쎯de❅2쎯	-11652
ya❂12쎯chi❃33쎯	-11653
,zhi❁16쎯yao❁17쎯	-11654
fa❁1쎯shou❄5쎯	-11655
wu❄12쎯ju❂23쎯	-11656
shang❁2쎯han❂20쎯	-11657
shui❄9쎯mian❂16쎯	-11658
ti❁7쎯	-11659
ci❄19쎯	-11660
,kuo❄15쎯	-11661
dan❄38쎯tou❂4쎯	-11662
zou❃0쎯jin❄61쎯	-11663
gan❃6쎯dong❄13쎯	-11664
gong❄3쎯ji❄116쎯	-11665
quan❂17쎯shui❃0쎯	-11666
shou❁1쎯huo❄50쎯	-11667
mei❃13쎯zhan❃11쎯	-11668
qi❃34쎯chong❂17쎯	-11669
luo❁4쎯han❄33쎯	-11670
.hou❄7쎯lai❂16쎯	-11671
da❁12쎯jian❄29쎯	-11672
chen❁13쎯dian❄19쎯	-11673
che❁8쎯de❅2쎯	-11674
guan❁4쎯fu❄39쎯	-11675
chang❂15쎯de❅2쎯	-11676
、-	-11677
,1958nian❂6쎯	-11678
pi❂17쎯ge❂54쎯	-11679
zhi❁16쎯xu❁37쎯	-11680
shi❄31쎯deng❃2쎯	-11681
▁6、	-11682
fa❃2쎯》	-11683
pu❂12쎯	-11684
chuo❄24쎯	-11685
shi❄45쎯wo❃3쎯	-11686
nan❂6쎯gua❁16쎯	-11687
shan❁11쎯gu❃52쎯	-11688
zhu❁28쎯	-11689
pi❂16쎯lao❂11쎯	-11690
yi❄109쎯zhi❄47쎯	-11691
,bing❁6쎯jiang❁5쎯	-11692
2800	-11693
cheng❁28쎯,	-11694
ci❂20쎯qi❄20쎯	-11695
dan❄38쎯ke❄7쎯	-11696
ao❄25쎯zhou❁11쎯	-11697
fang❁4쎯an❄16쎯.	-11698
177	-11699
lve❄9쎯	-11700
guo❂11쎯,	-11701
bu❂0쎯yi❂31쎯	-11702
yu❄93쎯ren❂1쎯	-11703
bei❄26쎯an❄16쎯	-11704
fang❂4쎯fu❃28쎯	-11705
mei❂12쎯jie❄13쎯	-11706
bian❄19쎯pin❂15쎯	-11707
diao❄17쎯kong❄1쎯	-11708
cheng❂30쎯ren❄30쎯	-11709
650	-11710
▁6.	-11711
u❃6쎯	-11712
zha❄9쎯	-11713
、long❂63쎯	-11714
duan❃0쎯de❅2쎯	-11715
shou❃6쎯fa❁1쎯	-11716
yi❁10쎯hao❂6쎯	-11717
you❂26쎯ru❂9쎯	-11718
ba❄11쎯qu❁15쎯.	-11719
xuan❃8쎯ba❂11쎯	-11720
he❂37쎯xian❄22쎯	-11721
wu❃28쎯jing❃23쎯	-11722
huan❂20쎯qiu❂36쎯	-11723
109	-11724
yi❁10쎯du❄8쎯	-11725
xue❂6쎯xi❂9쎯.	-11726
shan❁11쎯yao❄12쎯	-11727
xie❃8쎯,	-11728
li❄62쎯shi❂20쎯	-11729
jin❁24쎯zhi❃22쎯	-11730
nian❂6쎯sheng❁16쎯	-11731
tan❃8쎯	-11732
,nan❂6쎯lin❂43쎯	-11733
sheng❃9쎯hui❄27쎯	-11734
shi❂20쎯guang❁2쎯	-11735
zhang❃6쎯yuan❂17쎯	-11736
xun❂37쎯	-11737
xiao❁62쎯	-11738
zhan❃11쎯chu❁3쎯	-11739
、an❁15쎯xi❁143쎯	-11740
gen❁0쎯zhuang❄5쎯	-11741
de❅2쎯nu❃1쎯li❄59쎯	-11742
shan❄	-11743
.qian❂8쎯	-11744
,shen❁40쎯	-11745
xi❂9쎯su❂0쎯	-11746
chu❃3쎯bei❄26쎯	-11747
zhi❄89쎯fu❄36쎯	-11748
chao❃7쎯guo❁26쎯	-11749
nan❂6쎯jian❁25쎯	-11750
xuan❃8쎯ze❂19쎯.	-11751
8,	-11752
ti❁4쎯	-11753
shen❁31쎯	-11754
,jian❁14쎯	-11755
bu❄38쎯shu❃12쎯	-11756
liu❂28쎯zai❄5쎯	-11757
lu❄35쎯zhi❄30쎯	-11758
gong❁10쎯li❃26쎯(	-11759
zheng❁18쎯	-11760
ke❄6쎯li❄59쎯	-11761
du❂25쎯jia❁13쎯	-11762
wai❄0쎯lai❂16쎯	-11763
bao❁10쎯pian❁5쎯	-11764
biao❁14쎯zhun❃0쎯.	-11765
6～	-11766
1700	-11767
▁ou❁8쎯zhou❁11쎯	-11768
··	-11769
“da❄0쎯	-11770
▁duo❁5쎯	-11771
bang❄14쎯	-11772
yan❂31쎯、	-11773
zu❂11쎯gou❄10쎯	-11774
bing❄12쎯xue❂6쎯	-11775
gong❁11쎯fu❁13쎯	-11776
jian❁85쎯ge❂53쎯	-11777
ming❂7쎯cheng❂17쎯	-11778
lan❃14쎯	-11779
ying❂16쎯	-11780
zhou❁5쎯kan❁3쎯	-11781
chu❂15쎯fang❂2쎯	-11782
dun❁9쎯huang❂28쎯	-11783
ge❄3쎯de❅0쎯de❅2쎯	-11784
shi❄31쎯de❅2쎯	-11785
yi❁10쎯yi❁10쎯	-11786
,huo❄27쎯zhe❃2쎯	-11787
chang❂15쎯shou❂쎯	-11788
,xiang❃3쎯shou❄4쎯	-11789
zhang❄3쎯	-11790
zhuo❂34쎯	-11791
zhang❁13쎯.	-11792
.1987nian❂6쎯	-11793
nan❂20쎯du❄8쎯	-11794
wei❃14쎯da❄0쎯	-11795
zi❃7쎯fang❂2쎯	-11796
jue❂76쎯shi❄28쎯	-11797
cai❃11쎯fang❃18쎯	-11798
shang❃1쎯wei❄14쎯	-11799
ren❄11쎯	-11800
▁fu❄74쎯	-11801
xian❃38쎯	-11802
feng❁58쎯、	-11803
jun❁2쎯de❅2쎯	-11804
ge❃0쎯chang❄2쎯	-11805
tou❂4쎯tong❄3쎯	-11806
wu❂17쎯feng❄7쎯	-11807
fu❄28쎯xian❄22쎯	-11808
hua❁11쎯wen❂12쎯	-11809
mei❄9쎯	-11810
qi❄35쎯	-11811
tao❄1쎯fang❂2쎯	-11812
fen❁4쎯jian❁25쎯	-11813
ce❄21쎯	-11814
an❁15쎯cha❁3쎯	-11815
hui❄79쎯zhi❄30쎯	-11816
nong❂10쎯suo❁15쎯	-11817
zhen❄30쎯zhang❃6쎯	-11818
??	-11819
er❄5쎯)	-11820
xiao❁11쎯	-11821
jun❁4쎯zhu❃4쎯	-11822
ji❁36쎯ji❄120쎯	-11823
qing❁10쎯chu❂42쎯	-11824
wang❃14쎯qiu❂36쎯	-11825
di❄45쎯5	-11826
gong❁11쎯.	-11827
chu❁3쎯chu❄17쎯	-11828
ge❁16쎯qu❁25쎯,	-11829
gong❁9쎯gei❃1쎯	-11830
zao❄2쎯qing❄3쎯	-11831
6yue❄29쎯ren❂4쎯	-11832
chi❂20쎯you❃11쎯	-11833
dong❁5쎯gua❁16쎯	-11834
hui❄27쎯han❄20쎯	-11835
yu❂37쎯pian❁7쎯,	-11836
jiang❃19쎯zuo❄12쎯	-11837
,1963nian❂6쎯	-11838
jian❁25쎯kuo❄17쎯	-11839
ma❃14쎯an❁32쎯	-11840
tui❄8쎯yi❄103쎯	-11841
wu❃9쎯nian❂6쎯(	-11842
zhuan❃4쎯ru❄2쎯	-11843
zhu❄19쎯zai❄5쎯	-11844
-16	-11845
ge❄9쎯	-11846
,hai❃1쎯	-11847
、hu❂46쎯	-11848
zhuan❄16쎯	-11849
[...]
