[UNK]	0
[PAD]	0
[CLS]	0
[SEP]	0
[MASK]	0
,쎯	-3.97023
de쎯	-3.97748
、쎯	-4.23168
。쎯	-4.33489
shi쎯	-4.53536
▁쎯	-4.77251
he쎯	-4.78935
ji쎯	-5.03218
yu쎯	-5.04204
wei쎯	-5.09674
you쎯	-5.24996
zai쎯	-5.37714
。	-5.3799
yi쎯	-5.38128
zhong쎯	-5.50973
zhi쎯	-5.60751
qi쎯	-5.72693
ren쎯	-5.74927
deng쎯	-5.77932
xian쎯	-5.84971
yuan쎯	-5.91239
xing쎯	-5.95853
di쎯	-5.98196
li쎯	-6.00607
jiang쎯	-6.00765
huo쎯	-6.01771
xiang쎯	-6.03547
da쎯	-6.04561
bei쎯	-6.04813
sheng쎯	-6.05017
ke쎯	-6.05156
dao쎯	-6.05261
shang쎯	-6.069
fu쎯	-6.12022
xi쎯	-6.12371
er쎯	-6.12842
jin쎯	-6.13829
wu쎯	-6.14125
bu쎯	-6.14252
qu쎯	-6.15889
(쎯	-6.16911
zi쎯	-6.17786
:쎯	-6.18605
jian쎯	-6.18777
jia쎯	-6.18943
ye쎯	-6.21696
cheng쎯	-6.22934
shu쎯	-6.2434
chu쎯	-6.24549
ju쎯	-6.25334
jing쎯	-6.27288
hua쎯	-6.27951
si쎯	-6.28326
;쎯	-6.2887
xin쎯	-6.2926
《쎯	-6.29697
zhe쎯	-6.30279
zhong쎯guo쎯	-6.30685
le쎯	-6.30943
xiao쎯	-6.34018
jie쎯	-6.34928
zhang쎯	-6.3519
bing쎯	-6.36166
zhu쎯	-6.36809
hui쎯	-6.37078
yan쎯	-6.391
dui쎯	-6.4045
lu쎯	-6.40536
ge쎯	-6.41009
jiao쎯	-6.41539
wang쎯	-6.43763
“쎯	-6.44558
gong쎯	-6.47697
ban쎯	-6.52571
hou쎯	-6.52723
guo쎯	-6.5462
yin쎯	-6.54791
qian쎯	-6.55462
zhen쎯	-6.56823
jiu쎯	-6.56895
gu쎯	-6.57896
shou쎯	-6.59469
xia쎯	-6.59866
yong쎯	-6.59894
fang쎯	-6.6154
ba쎯	-6.61697
)쎯	-6.61727
bao쎯	-6.62368
gong쎯si쎯	-6.6263
zheng쎯	-6.62656
bi쎯	-6.63026
feng쎯	-6.6417
gao쎯	-6.6419
mu쎯	-6.64203
mei쎯	-6.64218
dong쎯	-6.64389
wen쎯	-6.65061
shen쎯	-6.66094
ying쎯	-6.67732
guan쎯	-6.68471
qing쎯	-6.68826
liang쎯	-6.68885
chang쎯	-6.68939
tong쎯	-6.69064
gong쎯zuo쎯	-6.69151
shan쎯	-6.69387
zuo쎯	-6.69533
liu쎯	-6.6996
zhan쎯	-6.69983
ming쎯	-6.70911
hu쎯	-6.71962
ta쎯	-6.72016
ci쎯	-6.72542
jun쎯	-6.72855
yue쎯	-6.74523
nan쎯	-6.74547
suo쎯	-6.74703
an쎯	-6.75741
dian쎯	-6.7578
”쎯	-6.76512
fa쎯	-6.76639
tian쎯	-6.7687
yao쎯	-6.77244
yang쎯	-6.7795
du쎯	-6.78002
quan쎯	-6.78143
zhou쎯	-6.79581
lian쎯	-6.79967
wan쎯	-6.80887
xue쎯	-6.81234
hai쎯	-6.81438
san쎯	-6.83137
ru쎯	-6.83315
▁	-6.84018
fei쎯	-6.84803
fen쎯	-6.8573
hao쎯	-6.86995
dan쎯	-6.87427
shui쎯	-6.87546
ling쎯	-6.8775
tai쎯	-6.88638
ya쎯	-6.89313
dai쎯	-6.89861
mo쎯	-6.89954
tu쎯	-6.90175
쎯	-6.90537
tang쎯	-6.91313
bian쎯	-6.91788
bai쎯	-6.93606
cong쎯	-6.94676
duo쎯	-6.94854
cun쎯	-6.95638
guan쎯li쎯	-6.97105
zhuan쎯ye쎯	-6.98436
chan쎯pin쎯	-6.99961
,쎯shi쎯	-7.00155
xie쎯	-7.00209
sheng쎯chan쎯	-7.00262
zu쎯	-7.01081
gan쎯	-7.0128
hong쎯	-7.01996
ti쎯	-7.02743
lv쎯	-7.02834
dou쎯	-7.03137
cai쎯	-7.03325
fan쎯	-7.03561
chi쎯	-7.04053
lin쎯	-7.04611
yan쎯jiu쎯	-7.05548
lai쎯	-7.05616
han쎯	-7.057
ma쎯	-7.0585
ping쎯	-7.05895
lei쎯	-7.06695
su쎯	-7.07619
nei쎯	-7.08978
bo쎯	-7.09036
,	-7.09247
chuan쎯	-7.09315
mi쎯	-7.09697
ni쎯	-7.10091
zhong쎯xin쎯	-7.11201
ji쎯shu쎯	-7.11941
·쎯	-7.12871
yun쎯	-7.12986
)	-7.1317
da쎯xue쎯	-7.13448
qi쎯ye쎯	-7.1402
gong쎯cheng쎯	-7.1425
gai쎯	-7.14914
tou쎯	-7.15135
she쎯	-7.15888
gui쎯	-7.16076
:	-7.17215
xu쎯	-7.17231
》쎯	-7.1727
long쎯	-7.17564
men쎯	-7.17714
ding쎯	-7.18039
guang쎯	-7.18325
luo쎯	-7.18389
chao쎯	-7.19713
chen쎯	-7.20682
zong쎯	-7.21893
zhuang쎯	-7.22447
mian쎯	-7.22928
,쎯zai쎯	-7.23106
jiao쎯yu쎯	-7.23728
sui쎯	-7.23821
gang쎯	-7.23848
huang쎯	-7.2391
ben쎯	-7.24215
qiu쎯	-7.2495
dang쎯	-7.25579
zhao쎯	-7.27619
tan쎯	-7.27641
ting쎯	-7.27654
xi쎯tong쎯	-7.28234
xue쎯yuan쎯	-7.28718
cha쎯	-7.31514
xuan쎯	-7.32132
;	-7.32187
pai쎯	-7.32195
sha쎯	-7.32468
pi쎯	-7.33316
pian쎯	-7.33467
xue쎯xiao쎯	-7.33845
yi쎯ji쎯	-7.33902
guo쎯jia쎯	-7.34122
pu쎯	-7.34783
,쎯yi쎯	-7.35477
jin쎯xing쎯	-7.36021
wen쎯hua쎯	-7.36595
kai쎯	-7.36699
guo쎯ji쎯	-7.3681
mao쎯	-7.36821
duan쎯	-7.36835
lan쎯	-7.36947
song쎯	-7.37325
shi쎯yong쎯	-7.38005
ceng쎯	-7.38577
ai쎯	-7.38883
qin쎯	-7.39117
she쎯ji쎯	-7.39123
fu쎯wu쎯	-7.39399
,쎯you쎯	-7.39966
fa쎯zhan쎯	-7.40675
huan쎯	-7.42247
yi쎯ge쎯	-7.43538
zui쎯	-7.437
》、《쎯	-7.44315
qiang쎯	-7.44798
na쎯	-7.45942
kong쎯	-7.463
nian쎯	-7.46317
zhuan쎯	-7.46492
jing쎯ji쎯	-7.4682
qiao쎯	-7.47158
wo쎯	-7.47359
lun쎯	-7.47378
neng쎯	-7.47806
shao쎯	-7.47826
lao쎯	-7.48293
quan쎯guo쎯	-7.51044
wei쎯yu쎯	-7.51136
jian쎯she쎯	-7.51965
bei쎯jing쎯	-7.53396
chun쎯	-7.53406
2	-7.53525
kou쎯	-7.53928
cheng쎯wei쎯	-7.54085
tao쎯	-7.5409
e쎯	-7.5584
chong쎯	-7.56113
xiu쎯	-7.56237
.쎯	-7.56724
),쎯	-7.58116
ri쎯	-7.58488
3	-7.58824
ju쎯you쎯	-7.60128
meng쎯	-7.60216
shi쎯jian쎯	-7.60813
zao쎯	-7.61505
yi쎯zhi쎯	-7.61624
cao쎯	-7.61941
(	-7.6215
zu쎯zhi쎯	-7.62534
wai쎯	-7.6276
-쎯	-7.62803
diao쎯	-7.63207
che쎯	-7.63424
jian쎯zhu쎯	-7.63918
jiao쎯xue쎯	-7.64067
xiang쎯mu쎯	-7.65228
wei쎯yuan쎯hui쎯	-7.65699
shi쎯chang쎯	-7.6611
,쎯bing쎯	-7.66904
pan쎯	-7.67086
ze쎯	-7.67589
ku쎯	-7.67608
shi쎯jie쎯	-7.68002
la쎯	-7.6832
tiao쎯	-7.68862
shuang쎯	-7.69083
xun쎯	-7.69348
rong쎯	-7.69725
re쎯	-7.70786
zhi쎯liang쎯	-7.71087
shang쎯hai쎯	-7.71392
"쎯	-7.71685
。”쎯	-7.72234
mai쎯	-7.72449
huan쎯jing쎯	-7.72551
wang쎯luo쎯	-7.72841
man쎯	-7.73006
ti쎯gong쎯	-7.73416
/쎯	-7.74481
,쎯wei쎯	-7.74532
gou쎯	-7.74637
cheng쎯shi쎯	-7.75222
po쎯	-7.75691
zhu쎯yao쎯	-7.75765
juan쎯	-7.76398
-	-7.76444
di쎯qu쎯	-7.76727
1쎯	-7.76735
se쎯	-7.77028
tuo쎯	-7.77497
2쎯	-7.775
kan쎯	-7.7796
geng쎯	-7.78067
pin쎯	-7.78479
yi쎯shu쎯	-7.78842
4	-7.7979
shi쎯ji쎯	-7.79893
jue쎯	-7.80413
tong쎯guo쎯	-7.81085
5	-7.8204
yong쎯you쎯	-7.82682
nv쎯	-7.82902
te쎯	-7.83719
miao쎯	-7.84214
chuang쎯	-7.84571
mei쎯guo쎯	-7.84968
ka쎯	-7.85459
she쎯bei쎯	-7.8606
3쎯	-7.8627
tie쎯	-7.86582
kang쎯	-7.86687
liao쎯	-7.86851
min쎯	-7.87257
lou쎯	-7.87293
jing쎯ying쎯	-7.87675
、	-7.88001
cong쎯shi쎯	-7.88031
xue쎯xi쎯	-7.88097
ce쎯	-7.89056
1	-7.89268
yi쎯yuan쎯	-7.89372
”。쎯	-7.89443
ke쎯yi쎯	-7.89609
shuo쎯	-7.89637
sheng쎯huo쎯	-7.9011
biao쎯	-7.90256
lie쎯	-7.90575
chan쎯	-7.91494
gong쎯neng쎯	-7.91667
”,쎯	-7.91936
6	-7.92077
zheng쎯fu쎯	-7.92447
()쎯	-7.93209
she쎯hui쎯	-7.94849
gen쎯	-7.94923
biao쎯zhun쎯	-7.95021
can쎯	-7.95662
rou쎯	-7.95674
nong쎯	-7.95895
xiong쎯	-7.96229
dun쎯	-7.96949
ke쎯ji쎯	-7.97299
qie쎯	-7.9797
cang쎯	-7.98312
suan쎯	-7.98359
zhong쎯xue쎯	-7.98369
zhi쎯dao쎯	-7.98756
li쎯shi쎯	-7.98775
shi쎯yan쎯	-7.99116
kong쎯zhi쎯	-7.99321
xue쎯sheng쎯	-7.99553
ge쎯zhong쎯	-7.997
ao쎯	-7.99833
lang쎯	-8.00137
xin쎯xi쎯	-8.00292
pei쎯	-8.01363
jiao쎯shi쎯	-8.01363
zhong쎯de쎯	-8.01511
dian쎯zi쎯	-8.01517
huo쎯dong쎯	-8.01544
7	-8.01757
can쎯jia쎯	-8.02263
8	-8.02361
pin쎯pai쎯	-8.0259
ying쎯yong쎯	-8.03136
yin쎯yue쎯	-8.03442
kuan쎯	-8.03523
》:“쎯	-8.03852
bang쎯	-8.04882
10	-8.05523
heng쎯	-8.06105
zuo쎯wei쎯	-8.06728
zhi쎯shi쎯	-8.06755
dan쎯wei쎯	-8.07593
。쎯zai쎯	-8.07709
pao쎯	-8.0778
,쎯ta쎯	-8.0795
4쎯	-8.0798
tou쎯zi쎯	-8.08381
ruan쎯jian쎯	-8.08604
bi쎯ye쎯yu쎯	-8.08781
ji쎯tuan쎯	-8.09066
kai쎯fa쎯	-8.0986
que쎯	-8.09995
kai쎯shi쎯	-8.10003
tui쎯	-8.1042
xian쎯jin쎯	-8.10703
ren쎯yuan쎯	-8.10936
ren쎯min쎯	-8.11217
di쎯yi쎯	-8.11407
niu쎯	-8.11623
kuai쎯	-8.11638
zha쎯	-8.11853
you쎯xiu쎯	-8.11866
gong쎯ye쎯	-8.1201
jiu쎯shi쎯	-8.12425
zhai쎯	-8.12741
zhi쎯chi쎯	-8.1284
yi쎯qi쎯	-8.12896
cai쎯yong쎯	-8.12947
guang쎯dong쎯	-8.13244
tuan쎯	-8.13362
you쎯xi쎯	-8.13909
sai쎯	-8.13928
ri쎯ben쎯	-8.13946
xian쎯gong쎯si쎯	-8.14689
5쎯	-8.14698
hang쎯ye쎯	-8.15657
she쎯qu쎯	-8.15843
wa쎯	-8.16033
hei쎯	-8.16168
xian쎯dai쎯	-8.16275
shi쎯pin쎯	-8.16308
》	-8.16511
bao쎯kuo쎯	-8.16659
an쎯quan쎯	-8.1667
ning쎯	-8.16957
zhi쎯yi쎯	-8.17229
a쎯	-8.17404
zhong쎯dian쎯	-8.18009
xi쎯lie쎯	-8.19803
zhong쎯yang쎯	-8.19961
zou쎯	-8.19992
shi쎯you쎯	-8.20023
guo쎯nei쎯	-8.20684
jie쎯gou쎯	-8.2118
yi쎯shi쎯	-8.2137
kao쎯	-8.21866
hen쎯	-8.22115
shi쎯yi쎯	-8.22303
nai쎯	-8.22648
kuang쎯	-8.2275
huai쎯	-8.22887
cai쎯liao쎯	-8.22984
.	-8.23358
/	-8.24015
ren쎯,쎯	-8.24092
9	-8.24116
shang쎯wu쎯	-8.24217
zi쎯ran쎯	-8.24417
xie쎯hui쎯	-8.24646
zuo쎯pin쎯	-8.24664
hou쎯,쎯	-8.24838
zhi쎯wu쎯	-8.24855
zhi쎯liao쎯	-8.24864
xiao쎯shou쎯	-8.2489
sun쎯	-8.25129
jiu쎯dian쎯	-8.2524
nong쎯ye쎯	-8.25268
zhu쎯ming쎯	-8.25668
zi쎯ji쎯	-8.25867
hun쎯	-8.25923
peng쎯	-8.25946
xiao쎯xue쎯	-8.26013
jiao쎯tong쎯	-8.26039
bao쎯hu쎯	-8.26659
ye쎯wu쎯	-8.26705
shi쎯zhi쎯	-8.27218
chou쎯	-8.27594
”쎯de쎯	-8.27928
gui쎯hua쎯	-8.27982
,쎯qi쎯	-8.28407
shi쎯shi쎯	-8.28554
lv쎯you쎯	-8.28624
da쎯dao쎯	-8.28685
shi쎯,쎯	-8.28775
jia쎯gong쎯	-8.28791
gua쎯	-8.28805
ou쎯xian쎯gong쎯si쎯	-8.28871
bu쎯fen쎯	-8.29621
ke쎯xue쎯	-8.29856
ren쎯wu쎯	-8.30019
nei쎯rong쎯	-8.30226
ran쎯	-8.3027
,쎯dan쎯	-8.30271
yi쎯zhong쎯	-8.30931
zhuan쎯jia쎯	-8.30933
xian쎯ren쎯	-8.31587
gong쎯chan쎯dang쎯	-8.32692
qi쎯zhong쎯	-8.33227
——쎯	-8.33289
zhong쎯,쎯	-8.334
fang쎯fa쎯	-8.33422
qun쎯	-8.33427
!쎯	-8.33815
gao쎯ji쎯	-8.34278
”、“쎯	-8.34393
yi쎯jing쎯	-8.34403
zheng쎯shi쎯	-8.34604
zi쎯yuan쎯	-8.35403
ren쎯cai쎯	-8.35507
chuang쎯xin쎯	-8.35966
)。쎯	-8.36222
jiao쎯shou쎯	-8.3667
ren쎯。쎯	-8.3703
bu쎯tong쎯	-8.37484
6쎯	-8.38303
()	-8.3831
zheng쎯zhi쎯	-8.38321
ruo쎯	-8.38534
fen쎯xi쎯	-8.38708
da쎯xing쎯	-8.3884
li쎯lun쎯	-8.38877
gong쎯yi쎯	-8.38899
pei쎯xun쎯	-8.39064
huo쎯de쎯	-8.39073
cheng쎯li쎯	-8.39206
gei쎯	-8.39454
shi쎯wu쎯	-8.39581
ying쎯xiang쎯	-8.39947
12	-8.40095
he쎯zuo쎯	-8.40319
wei쎯sheng쎯	-8.40411
zhi쎯zuo쎯	-8.40571
zhuo쎯	-8.41261
deng쎯。쎯	-8.41261
shan쎯dong쎯	-8.41705
chu쎯ban쎯she쎯	-8.41736
jia쎯ru쎯	-8.41807
xue쎯hui쎯	-8.41859
。쎯ta쎯	-8.41884
chu쎯li쎯	-8.42533
cui쎯	-8.42756
qi쎯ta쎯	-8.43082
～	-8.43217
jian쎯li쎯	-8.43283
rang쎯	-8.43617
10쎯	-8.43632
dian쎯ying쎯	-8.43719
rui쎯	-8.43775
,쎯yu쎯	-8.43816
yi쎯ban쎯	-8.43974
fang쎯shi쎯	-8.44114
xian쎯wei쎯	-8.4452
yi쎯xue쎯	-8.44696
xing쎯shi쎯	-8.44817
ti쎯gao쎯	-8.45222
zhong쎯yao쎯	-8.45361
jing쎯yan쎯	-8.45422
neng쎯li쎯	-8.45524
cu쎯	-8.4561
chuan쎯tong쎯	-8.45884
wo쎯men쎯	-8.45965
jian쎯kang쎯	-8.45993
lei쎯xing쎯	-8.46087
qi쎯che쎯	-8.46119
8쎯	-8.46132
ou쎯	-8.46189
yong쎯hu쎯	-8.46192
wen쎯xue쎯	-8.46627
xian쎯shi쎯	-8.46768
zong쎯he쎯	-8.4684
ji쎯qi쎯	-8.46954
shi쎯qi쎯	-8.47114
li쎯yong쎯	-8.47447
ji쎯shi쎯	-8.47505
mei쎯you쎯	-8.47778
,쎯er쎯	-8.47845
wan쎯cheng쎯	-8.48283
wang쎯zhan쎯	-8.48525
ban쎯gong쎯shi쎯	-8.48844
ji쎯suan쎯ji쎯	-8.49039
fu쎯ze쎯	-8.49059
yun쎯dong쎯	-8.49142
kui쎯	-8.49971
shang쎯ye쎯	-8.50009
ta쎯men쎯	-8.50233
sheng쎯yu쎯	-8.50238
zhi쎯neng쎯	-8.5047
cheng쎯li쎯yu쎯	-8.51175
di쎯er쎯	-8.51392
niao쎯	-8.51629
》,쎯	-8.51805
zhe쎯jiang쎯	-8.51962
leng쎯	-8.52131
ji쎯hua쎯	-8.52156
sheng쎯wu쎯	-8.52238
dai쎯biao쎯	-8.52721
wen쎯ti쎯	-8.53233
you쎯guan쎯	-8.53342
sheng쎯ji쎯	-8.53568
tong쎯shi쎯	-8.53629
zhi쎯ye쎯	-8.53734
xiang쎯gang쎯	-8.54001
dan쎯ren쎯	-8.54099
die쎯	-8.54101
qing쎯nian쎯	-8.54355
chu쎯ban쎯	-8.54494
jiao쎯liu쎯	-8.54693
chan쎯ye쎯	-8.55073
bin쎯	-8.55227
ji쎯gou쎯	-8.55236
yong쎯yu쎯	-8.55276
20	-8.55335
lin쎯chuang쎯	-8.55659
shi쎯ye쎯	-8.55752
ping쎯tai쎯	-8.56158
shi쎯xian쎯	-8.56235
hua쎯xue쎯	-8.56255
ji쎯xie쎯	-8.56273
fang쎯zhi쎯	-8.56366
11	-8.56438
ren쎯shi쎯	-8.56515
min쎯zu쎯	-8.56833
xing쎯zheng쎯	-8.57121
cheng쎯du쎯	-8.57175
hang쎯	-8.572
gong쎯yuan쎯	-8.57374
ji쎯chu쎯	-8.5743
mo쎯shi쎯	-8.57843
zhi쎯xing쎯	-8.58308
。《쎯	-8.58473
shan쎯dong쎯sheng쎯	-8.58537
shu쎯ju쎯	-8.58586
chuang쎯zuo쎯	-8.58661
nao쎯	-8.59199
zeng쎯	-8.59247
xu쎯yao쎯	-8.59435
15	-8.59544
wen쎯jian쎯	-8.59665
quan쎯mian쎯	-8.60026
jie쎯he쎯	-8.6005
shan쎯xi쎯	-8.60151
zi쎯dong쎯	-8.60208
7쎯	-8.6052
pei쎯yang쎯	-8.60552
ge쎯lei쎯	-8.6068
zhu쎯ren쎯	-8.6107
jie쎯kou쎯	-8.61187
de쎯yi쎯zhong쎯	-8.61198
zhong쎯zhi쎯	-8.61244
luan쎯	-8.61319
zhi쎯zao쎯	-8.61619
xing쎯cheng쎯	-8.61728
yao쎯qiu쎯	-8.61814
xing쎯neng쎯	-8.61878
)、쎯	-8.62121
jian쎯ce쎯	-8.62489
:“쎯	-8.62546
shu쎯yu쎯	-8.62576
gu쎯shi쎯	-8.62903
xiang쎯guan쎯	-8.63219
zhi쎯jian쎯	-8.63228
,쎯ji쎯	-8.63322
yan쎯jiu쎯suo쎯	-8.63507
ling쎯yu쎯	-8.63752
sa쎯	-8.63974
ge쎯ren쎯	-8.64452
fan쎯ying쎯	-8.64685
tai쎯wan쎯	-8.64967
zhi쎯cheng쎯	-8.64995
yi쎯ci쎯	-8.65218
10쎯yue쎯	-8.65326
zhe쎯ge쎯	-8.65336
gong쎯cheng쎯shi쎯	-8.65474
mou쎯	-8.65668
fa쎯sheng쎯	-8.66313
shou쎯ji쎯	-8.66338
bu쎯duan쎯	-8.66359
shun쎯	-8.66411
jin쎯ru쎯	-8.66479
fei쎯chang쎯	-8.66796
18	-8.6686
wen쎯ming쎯	-8.66932
gen쎯ju쎯	-8.67057
—	-8.67145
shi쎯yi쎯ge쎯	-8.67178
di쎯zhi쎯	-8.67182
zhui쎯	-8.67299
wei쎯yuan쎯	-8.67408
ji쎯di쎯	-8.67414
fang쎯xiang쎯	-8.67749
fa쎯xian쎯	-8.68243
。”	-8.6825
ta쎯de쎯	-8.68415
bie쎯	-8.68588
zi쎯ji쎯de쎯	-8.68724
gao쎯xiao쎯	-8.68855
xian쎯you쎯	-8.69087
shuo쎯shi쎯	-8.69089
you쎯yi쎯	-8.6912
zhi쎯yi쎯。쎯	-8.69128
jia쎯zhi쎯	-8.69178
gong쎯lu쎯	-8.69242
cheng쎯gong쎯	-8.69342
shi쎯ren쎯	-8.6951
yu쎯yan쎯	-8.70036
,쎯qi쎯zhong쎯	-8.70045
ji쎯ben쎯	-8.70074
yi쎯xie쎯	-8.70206
ke쎯cheng쎯	-8.70278
shi쎯shang쎯	-8.70327
qi쎯jian쎯	-8.70438
dong쎯wu쎯	-8.70465
piao쎯	-8.70594
guang쎯zhou쎯	-8.7073
xi쎯bao쎯	-8.70755
you쎯xian쎯	-8.71146
yin쎯hang쎯	-8.71483
cheng쎯guo쎯	-8.71562
shi쎯yi쎯zhong쎯	-8.71634
zuo쎯yong쎯	-8.71793
tong쎯yi쎯	-8.72014
cao쎯zuo쎯	-8.72363
30	-8.72407
12쎯yue쎯	-8.72459
ying쎯yu쎯	-8.7261
yan쎯jiu쎯sheng쎯	-8.7284
mian쎯ji쎯	-8.72852
zhu쎯yi쎯	-8.7305
sheng쎯tai쎯	-8.7336
zhong쎯hua쎯	-8.73767
ke쎯hu쎯	-8.73777
lian쎯jie쎯	-8.74251
dian쎯shi쎯	-8.74526
jing쎯shen쎯	-8.74744
jing쎯guo쎯	-8.74764
te쎯se쎯	-8.74764
yi쎯wei쎯	-8.74782
si쎯xiang쎯	-8.74788
chuan쎯bo쎯	-8.74855
si쎯chuan쎯	-8.74878
ju쎯li쎯	-8.74891
shou쎯ru쎯	-8.7521
wo쎯guo쎯	-8.7542
lve쎯	-8.75523
zhan쎯di쎯mian쎯ji쎯	-8.75644
li쎯,쎯	-8.76194
16	-8.76385
bi쎯jiao쎯	-8.76396
du쎯li쎯	-8.76495
zhong쎯yi쎯	-8.76682
shan쎯xi쎯sheng쎯	-8.76737
jia쎯ting쎯	-8.77152
zuo쎯zhe쎯	-8.77297
ying쎯guo쎯	-8.77346
qu쎯yu쎯	-8.77505
de쎯guo쎯	-8.77541
xin쎯wen쎯	-8.77596
ying쎯xiao쎯	-8.77653
shui쎯ping쎯	-8.77656
hui쎯yi쎯	-8.77704
jin쎯shu쎯	-8.77711
kong쎯jian쎯	-8.78635
ji쎯guan쎯	-8.78646
liang쎯ge쎯	-8.78704
hui쎯yuan쎯	-8.78721
19	-8.78827
9쎯	-8.78851
,쎯ru쎯	-8.78885
,쎯wei쎯yu쎯	-8.79004
jian쎯cheng쎯	-8.79287
guang쎯xi쎯	-8.79345
,쎯dui쎯	-8.79788
bei쎯ping쎯wei쎯	-8.79846
lian쎯he쎯	-8.8019
tui쎯guang쎯	-8.80255
you쎯shi쎯	-8.80393
cun쎯wei쎯hui쎯	-8.80529
”	-8.80537
jiang쎯su쎯sheng쎯	-8.80561
kai쎯zhan쎯	-8.80747
zi쎯xun쎯	-8.80885
xiao쎯shuo쎯	-8.80949
chui쎯	-8.80988
bu쎯neng쎯	-8.8102
shang쎯de쎯	-8.81079
ben쎯shu쎯	-8.81086
xuan쎯ze쎯	-8.81113
zi쎯liao쎯	-8.81142
xuan쎯chuan쎯	-8.81203
cuo쎯	-8.81259
gong쎯zuo쎯,쎯	-8.81799
di쎯fang쎯	-8.81969
xian쎯hou쎯	-8.81993
de쎯yi쎯ge쎯	-8.82
cheng쎯yuan쎯	-8.82149
she쎯shi쎯	-8.82234
jian쎯cha쎯	-8.82536
zhuang쎯shi쎯	-8.82581
▁《쎯	-8.8271
can쎯yu쎯	-8.82838
fan쎯wei쎯	-8.82841
lun쎯wen쎯	-8.82882
》쎯deng쎯	-8.82901
shi쎯dai쎯	-8.82919
za쎯	-8.83099
gong쎯tong쎯	-8.83391
zhe쎯jiang쎯sheng쎯	-8.83509
zhong쎯gong쎯	-8.83547
yuan쎯gong쎯	-8.83599
jiao쎯cai쎯	-8.83698
20쎯	-8.84074
you쎯yu쎯	-8.8417
dian쎯nao쎯	-8.84181
yi쎯shang쎯	-8.84197
an쎯zhuang쎯	-8.84346
yi쎯dong쎯	-8.85197
zi쎯you쎯	-8.85244
ruan쎯	-8.85258
yan쎯jiu쎯yuan쎯	-8.85291
xian쎯sheng쎯	-8.85461
tie쎯lu쎯	-8.85622
xue쎯shu쎯	-8.85784
min쎯zheng쎯fu쎯	-8.85797
,쎯jiang쎯	-8.85918
zhu쎯chi쎯	-8.85991
gong쎯dang쎯yuan쎯	-8.86017
pa쎯	-8.86025
nan쎯jing쎯	-8.86091
bo쎯shi쎯	-8.86391
qu쎯de쎯	-8.86405
cheng쎯xu쎯	-8.86547
fa쎯biao쎯	-8.86713
mu쎯qian쎯	-8.86786
wu쎯li쎯	-8.86898
en쎯	-8.86977
▁쎯gong쎯si쎯	-8.87059
di쎯san쎯	-8.87082
tong쎯zhi쎯	-8.87106
shi쎯li쎯	-8.87133
teng쎯	-8.8714
de쎯“쎯	-8.87296
shi쎯fan쎯da쎯xue쎯	-8.87568
......쎯	-8.87604
fang쎯mian쎯	-8.87634
zhe쎯yi쎯	-8.87688
qi쎯shi쎯	-8.87751
25	-8.87803
tiao쎯jian쎯	-8.87827
ti쎯yu쎯	-8.8801
you쎯zhi쎯	-8.88144
nuo쎯	-8.88148
si쎯chuan쎯sheng쎯	-8.88197
ji쎯cheng쎯	-8.88235
17	-8.88394
zhe쎯xie쎯	-8.88406
zhi쎯jie쎯	-8.88688
~	-8.88711
fen쎯wei쎯	-8.88721
fu쎯he쎯	-8.89063
tun쎯	-8.8907
nong쎯cun쎯	-8.89171
mei쎯shu쎯	-8.89422
11쎯yue쎯	-8.8966
40	-8.898
+	-8.89855
12쎯	-8.89997
jin쎯rong쎯	-8.90045
,쎯zhong쎯guo쎯	-8.90174
jing쎯dian쎯	-8.90194
zhi쎯shu쎯	-8.90205
zhe쎯zhong쎯	-8.90317
ke쎯yan쎯	-8.90417
shu쎯fa쎯	-8.90586
!	-8.90618
13	-8.90683
pen쎯	-8.90703
guang쎯da쎯	-8.90729
zhan쎯shi쎯	-8.90804
suo쎯you쎯	-8.90899
guang쎯gao쎯	-8.90924
er쎯tong쎯	-8.91322
wei쎯zhi쎯	-8.91662
he쎯nan쎯sheng쎯	-8.91786
xiao쎯guo쎯	-8.91786
60	-8.91819
ren쎯zheng쎯	-8.9212
hu쎯nan쎯	-8.92184
fu쎯jian쎯	-8.92192
zui쎯da쎯de쎯	-8.9222
,쎯bei쎯	-8.92279
he쎯nan쎯	-8.92296
,쎯cong쎯	-8.92527
chu쎯xian쎯	-8.92593
guan쎯xi쎯	-8.92634
50	-8.92914
fa쎯xing쎯	-8.93028
?쎯	-8.93326
huan쎯bao쎯	-8.93391
wei쎯zhu쎯	-8.93454
dou쎯shi쎯	-8.93511
14	-8.93859
dang쎯yuan쎯	-8.93969
bing쎯du쎯	-8.94305
ji쎯yu쎯	-8.94319
chu쎯sheng쎯yu쎯	-8.94517
ren쎯kou쎯	-8.94526
jie쎯shao쎯	-8.94563
zhan쎯lve쎯	-8.94658
dang쎯dai쎯	-8.94732
neng쎯gou쎯	-8.94743
quan쎯qiu쎯	-8.94819
wan쎯quan쎯	-8.94888
쎯ping쎯fang쎯gong쎯	-8.95162
yan쎯fa쎯	-8.95222
shi쎯zhong쎯	-8.95492
guan쎯yu쎯	-8.95586
ha쎯	-8.95723
,쎯huo쎯	-8.95733
jiang쎯su쎯	-8.95888
chan쎯sheng쎯	-8.96198
ling쎯dao쎯	-8.96391
wei쎯yi쎯	-8.96574
guang쎯fan쎯	-8.96642
dong쎯bei쎯	-8.96646
pu쎯tong쎯	-8.96723
。쎯gai쎯	-8.96728
sang쎯	-8.97308
biao쎯mian쎯	-8.97423
ye쎯shi쎯	-8.97485
yun쎯shu쎯	-8.97664
yun쎯xing쎯	-8.97668
zheng쎯ce쎯	-8.97766
jie쎯shou쎯	-8.97846
fu쎯jian쎯sheng쎯	-8.97861
zu쎯cheng쎯	-8.98105
zhi쎯ming쎯	-8.9812
,쎯ke쎯	-8.98126
shi쎯gong쎯	-8.98166
zhi쎯li쎯yu쎯	-8.98462
guo쎯nei쎯wai쎯	-8.98487
pin쎯zhong쎯	-8.9853
gao쎯su쎯	-8.98601
gu쎯dai쎯	-8.98606
de쎯dao쎯	-8.98657
xue쎯ke쎯	-8.98681
yun쎯nan쎯	-8.98771
×	-8.98937
mang쎯	-8.98982
kun쎯	-8.9901
zhi쎯ding쎯	-8.99027
?	-8.99209
yi쎯xia쎯	-8.99305
shang쎯hai쎯shi쎯	-8.99383
》쎯shi쎯	-8.999
pang쎯	-8.99911
yuan쎯,쎯	-8.99986
xi쎯nan쎯	-9.0011
lian쎯xu쎯	-9.00149
duo쎯zhong쎯	-9.00177
guo쎯cheng쎯	-9.00238
guo쎯jia쎯ji쎯	-9.00251
xing쎯wei쎯	-9.00288
fu쎯zhu쎯ren쎯	-9.00396
ping쎯fang쎯mi쎯,쎯	-9.0048
jing쎯li쎯	-9.00497
chong쎯qing쎯	-9.0082
liang쎯hao쎯de쎯	-9.00879
zhi쎯li쎯	-9.0117
an쎯hui쎯	-9.01322
gan쎯bu쎯	-9.01323
lian쎯xi쎯	-9.01419
jiao쎯yi쎯	-9.01441
dian쎯ji쎯	-9.01452
shen쎯jing쎯	-9.01458
shou쎯dao쎯	-9.01523
zhi쎯yi쎯,쎯	-9.01593
gong쎯zuo쎯zhe쎯	-9.01718
xiao쎯qu쎯	-9.01755
tian쎯jin쎯	-9.01775
feng쎯xian쎯	-9.0183
xing쎯de쎯	-9.01844
zun쎯	-9.0195
zhi쎯gong쎯	-9.02041
li쎯nian쎯	-9.02184
shu쎯xue쎯	-9.02243
bian쎯ji쎯	-9.02257
ge쎯ming쎯	-9.0262
guo쎯cheng쎯zhong쎯	-9.02644
ming쎯cheng쎯	-9.02775
xing쎯xiang쎯	-9.03245
bei쎯jing쎯shi쎯	-9.03249
zhi쎯hui쎯	-9.03298
yuan쎯shi쎯	-9.03375
tuan쎯dui쎯	-9.03661
zuo쎯you쎯	-9.03678
lei쎯xing쎯:쎯	-9.03795
24	-9.0394
fang쎯bian쎯	-9.03994
de쎯zhong쎯yao쎯	-9.04183
zan쎯	-9.04198
zui쎯da쎯	-9.04242
zhi쎯du쎯	-9.04301
gao쎯deng쎯	-9.04419
,쎯ye쎯	-9.04438
bo쎯li쎯	-9.04633
xiao쎯yuan쎯	-9.04708
fa쎯guo쎯	-9.04834
cun쎯li쎯shu쎯yu쎯	-9.04849
》。쎯	-9.04897
quan쎯bu쎯	-9.04946
he쎯xin쎯	-9.04989
,쎯zhu쎯yao쎯	-9.05212
bao쎯zhuang쎯	-9.0527
22	-9.05297
jie쎯shi쎯	-9.05341
yun쎯nan쎯sheng쎯	-9.05413
sen쎯	-9.05595
fa쎯lv쎯	-9.05595
de쎯fa쎯zhan쎯	-9.05887
nong쎯min쎯	-9.0593
xu쎯duo쎯	-9.06023
zang쎯	-9.06125
chu쎯sheng쎯	-9.06172
dian쎯li쎯	-9.06187
tong쎯xin쎯	-9.06292
hu쎯bei쎯sheng쎯	-9.06316
zhu쎯ti쎯	-9.06412
wu쎯zhi쎯	-9.06452
lv쎯se쎯	-9.06481
”。	-9.06782
fen쎯bu쎯	-9.06911
an쎯hui쎯sheng쎯	-9.06944
chao쎯guo쎯	-9.06951
bu쎯shi쎯	-9.0711
huo쎯zhe쎯	-9.0731
,“쎯	-9.07316
zi쎯jin쎯	-9.07335
30쎯	-9.07348
sheng쎯,쎯	-9.07406
jia쎯ju쎯	-9.07436
zhi쎯you쎯	-9.07538
=	-9.07679
shi쎯yan쎯shi쎯	-9.07752
duo쎯nian쎯	-9.078
chuang쎯jian쎯	-9.07858
yi쎯lai쎯	-9.08005
wen쎯du쎯	-9.08087
shi쎯fan쎯	-9.08487
she쎯zhi쎯	-9.08703
jian쎯zhi쎯	-9.08808
dian쎯yuan쎯	-9.08962
shang쎯pin쎯	-9.08982
qing쎯kuang쎯	-9.09014
xin쎯xing쎯	-9.09228
,쎯yong쎯	-9.09244
cu쎯jin쎯	-9.09353
ti쎯xi쎯	-9.09369
min쎯jian쎯	-9.09386
za쎯zhi쎯	-9.09447
feng쎯ge쎯	-9.09534
kuai쎯su쎯	-9.09669
qun쎯zhong쎯	-9.09704
ying쎯yang쎯	-9.09785
zhan쎯zheng쎯	-9.09845
gong쎯ji쎯	-9.10016
ou쎯zhou쎯	-9.10166
hu쎯nan쎯sheng쎯	-9.10167
gong쎯zuo쎯。쎯	-9.10375
run쎯	-9.1048
pin쎯zhi쎯	-9.10604
,쎯gai쎯	-9.10862
xun쎯lian쎯	-9.10876
yi쎯liao쎯	-9.10879
zhi쎯jin쎯	-9.10903
jia쎯ge쎯	-9.11043
tong쎯ji쎯	-9.11066
gong쎯li쎯	-9.11177
gong쎯gong쎯	-9.11215
han쎯guo쎯	-9.11257
,쎯ju쎯	-9.11344
biao쎯xian쎯	-9.11495
hua쎯gong쎯	-9.11513
*	-9.11515
wei쎯yi쎯ti쎯de쎯	-9.11537
gong쎯ju쎯	-9.11578
you쎯xiao쎯	-9.11704
shu쎯hua쎯	-9.11921
chu쎯le쎯	-9.12039
32	-9.12072
shu쎯shi쎯	-9.1225
ren쎯de쎯	-9.12282
she쎯you쎯	-9.12303
chang쎯qi쎯	-9.12393
gai쎯bian쎯	-9.12545
wu쎯xian쎯	-9.12688
fu쎯shi쎯	-9.12815
yi쎯nian쎯	-9.12933
pei쎯tao쎯	-9.12942
mu쎯biao쎯	-9.12972
dai쎯li쎯	-9.13007
,《쎯	-9.13016
hu쎯bei쎯	-9.13027
bai쎯se쎯	-9.13136
jie쎯dao쎯	-9.13239
rao쎯	-9.13497
jun쎯shi쎯	-9.13733
bao쎯zhang쎯	-9.13741
》《쎯	-9.13884
zhong쎯wen쎯	-9.13991
80	-9.14039
guang쎯chang쎯	-9.14065
xin쎯li쎯	-9.14087
jue쎯ding쎯	-9.14163
miao쎯shu쎯	-9.14259
shi쎯ge쎯	-9.14338
00쎯ping쎯fang쎯mi쎯	-9.14358
》(쎯	-9.14473
diao쎯cha쎯	-9.14483
zhu쎯ce쎯	-9.14567
hai쎯shi쎯	-9.15039
di쎯si쎯	-9.15131
,쎯bu쎯	-9.15134
jie쎯chu쎯	-9.1521
ji쎯ji쎯	-9.15228
yi쎯sheng쎯	-9.15254
ren쎯wei쎯	-9.15344
shu쎯zi쎯	-9.15523
50쎯	-9.15527
te쎯bie쎯	-9.15537
deng쎯ji쎯	-9.15612
zuo쎯jia쎯	-9.15629
jian쎯du쎯	-9.15658
fen쎯bie쎯	-9.15669
da쎯xiao쎯	-9.15713
,쎯hou쎯	-9.15859
bao쎯xian쎯	-9.15901
yi쎯ju쎯	-9.15913
bi쎯ye쎯	-9.15948
shen쎯zhen쎯	-9.15987
23	-9.16091
hang쎯zhou쎯	-9.16238
bang쎯zhu쎯	-9.16302
hang쎯kong쎯	-9.16506
ke쎯ti쎯	-9.16573
zeng쎯jia쎯	-9.16602
shi쎯wei쎯	-9.16679
yan쎯zhi쎯	-9.16701
。쎯xian쎯ren쎯	-9.16731
jiang쎯xi쎯	-9.1677
。쎯gong쎯si쎯	-9.16821
wu쎯shi쎯	-9.16829
bu쎯men쎯	-9.16909
tu쎯di쎯	-9.1718
hei쎯long쎯jiang쎯	-9.17418
lao쎯dong쎯	-9.17669
xi쎯bei쎯	-9.17732
zui쎯gao쎯	-9.17873
jing쎯guan쎯	-9.18023
,쎯cheng쎯wei쎯	-9.18318
yin쎯wei쎯	-9.18399
you쎯ji쎯	-9.18476
ji쎯zhong쎯	-9.18522
fang쎯ru쎯	-9.18589
beng쎯	-9.18721
ju쎯min쎯	-9.18724
bi쎯xu쎯	-9.18882
da쎯zao쎯	-9.18884
gui쎯ding쎯	-9.19008
35	-9.19051
er쎯shi쎯	-9.19059
shi쎯xing쎯	-9.1921
gun쎯	-9.19232
。쎯qi쎯	-9.19324
wu쎯han쎯	-9.19375
"	-9.19397
er쎯deng쎯jiang쎯	-9.19448
dian쎯hua쎯	-9.19526
ji쎯neng쎯	-9.19532
biao쎯shi쎯	-9.19638
xian쎯zhi쎯	-9.19739
yi쎯xue쎯yuan쎯	-9.19772
ya쎯li쎯	-9.19812
lai쎯zi쎯	-9.19988
quan쎯shi쎯	-9.20105
he쎯bei쎯sheng쎯	-9.20105
,쎯yi쎯ji쎯	-9.20241
er쎯ji쎯	-9.20248
zhu쎯li쎯	-9.20266
she쎯ying쎯	-9.20292
su쎯du쎯	-9.20297
ce쎯liang쎯	-9.20345
15쎯	-9.20539
you쎯hua쎯	-9.20569
zhi쎯hou쎯	-9.2057
wai쎯ke쎯	-9.20628
zhuang쎯zhi쎯	-9.20654
xiao쎯shi쎯	-9.2074
ji쎯jin쎯	-9.20747
gai쎯ge쎯	-9.2082
wu쎯liu쎯	-9.20903
bu쎯tong쎯de쎯	-9.21139
,쎯suo쎯yi쎯	-9.21164
di쎯chu쎯	-9.21431
cheng쎯dan쎯	-9.21432
,쎯tong쎯shi쎯	-9.21455
jiang쎯shi쎯	-9.21464
xing쎯,쎯	-9.21477
wen쎯yi쎯	-9.21516
shuai쎯	-9.21556
liao쎯jie쎯	-9.21565
zi쎯shen쎯	-9.21786
70	-9.21882
he쎯bei쎯	-9.21966
,쎯ju쎯you쎯	-9.22042
li쎯de쎯	-9.22077
ren쎯men쎯	-9.22129
ji쎯zhi쎯	-9.22554
ji쎯bing쎯	-9.22612
wei쎯le쎯	-9.22654
,쎯zi쎯	-9.22703
hua쎯yuan쎯	-9.22714
rong쎯yu쎯	-9.22731
jie쎯jue쎯	-9.22848
°	-9.23065
san쎯ge쎯	-9.23122
da쎯shi쎯	-9.23176
kao쎯shi쎯	-9.23226
chuang쎯zao쎯	-9.23265
zu쎯he쎯	-9.23273
,쎯yin쎯	-9.23286
26	-9.23344
man쎯zu쎯	-9.23427
dian쎯qi쎯	-9.23438
,쎯jing쎯	-9.23514
shang쎯,쎯	-9.23524
ce쎯shi쎯	-9.23534
jian쎯chi쎯	-9.23552
gui쎯fan쎯	-9.23829
28	-9.23848
▁2.쎯	-9.2399
dong쎯fang쎯	-9.24089
bi쎯sai쎯	-9.24124
zi쎯zhu쎯	-9.2418
zhong쎯da쎯	-9.24193
yuan쎯li쎯	-9.24213
shi쎯zai쎯	-9.24218
ping쎯wei쎯	-9.24284
nei쎯meng쎯gu쎯	-9.24315
ren쎯lei쎯	-9.24327
gui쎯mo쎯	-9.24368
nei쎯bu쎯	-9.24374
qiong쎯	-9.24396
ru쎯he쎯	-9.24468
gao쎯zhong쎯	-9.24658
chu쎯kou쎯	-9.24732
,쎯ye쎯shi쎯	-9.24895
mei쎯ti쎯	-9.24898
yuan쎯liao쎯	-9.24918
du쎯zhe쎯	-9.24972
ying쎯shi쎯	-9.25008
xi쎯an쎯	-9.25042
,쎯gu쎯	-9.25154
guai쎯	-9.25187
ti쎯sheng쎯	-9.25288
rong쎯huo쎯	-9.25303
bu쎯dui쎯	-9.25418
yuan쎯xiao쎯	-9.25581
shi쎯fen쎯	-9.25667
zhou쎯shi쎯	-9.25693
gong쎯you쎯	-9.25753
fu쎯zhuang쎯	-9.2582
ban쎯gong쎯	-9.25891
nu쎯	-9.25929
sheng쎯ming쎯	-9.25953
bao쎯jian쎯	-9.26007
feng쎯fu쎯	-9.26007
jian쎯jie쎯	-9.26056
%쎯	-9.26553
de쎯zhu쎯yao쎯	-9.26636
100쎯	-9.26638
jian쎯ding쎯	-9.26642
bei쎯bu쎯	-9.26969
xian쎯jin쎯de쎯	-9.27163
chi쎯cun쎯	-9.27183
yun쎯yong쎯	-9.27339
nu쎯li쎯	-9.27355
san쎯deng쎯jiang쎯	-9.27471
yi쎯da쎯li쎯	-9.27478
yi쎯dai쎯	-9.27619
jie쎯zhi쎯	-9.27669
ke쎯ji쎯jin쎯bu쎯	-9.27697
xin쎯de쎯	-9.27727
zhuan쎯ji쎯	-9.27818
ji쎯suan쎯	-9.2783
2008쎯nian쎯	-9.28015
mao쎯yi쎯	-9.28061
xin쎯jiang쎯	-9.28131
shou쎯cang쎯	-9.28147
zhong쎯shi쎯	-9.28279
kua쎯	-9.28288
8쎯yue쎯	-9.28462
yu쎯le쎯	-9.2848
shan쎯qu쎯	-9.2849
sheng쎯zhang쎯	-9.28533
te쎯zheng쎯	-9.28536
bian쎯zhi쎯	-9.2858
xiao쎯fei쎯zhe쎯	-9.28631
xian쎯zai쎯	-9.28637
bo쎯wu쎯guan쎯	-9.28897
fang쎯di쎯chan쎯	-9.28953
yi쎯chang쎯	-9.28971
xiu쎯xian쎯	-9.29106
xiang쎯xi쎯	-9.29131
te쎯dian쎯	-9.29142
bian쎯hua쎯	-9.29499
yan쎯yuan쎯	-9.29652
bao쎯chi쎯	-9.29675
ji쎯wei쎯	-9.29708
feng쎯fu쎯de쎯	-9.29894
16쎯	-9.29932
zhu쎯ming쎯de쎯	-9.29992
21	-9.30009
di쎯xia쎯	-9.30044
kai쎯fa쎯qu쎯	-9.30148
yi쎯deng쎯jiang쎯	-9.30159
yan쎯chu쎯	-9.30188
xi쎯bu쎯	-9.30281
zhuang쎯bei쎯	-9.30429
dian쎯shi쎯tai쎯	-9.30518
xie쎯zuo쎯	-9.30711
yin쎯qi쎯	-9.30925
ren쎯he쎯	-9.30995
ge쎯qu쎯	-9.31076
quan쎯xian쎯	-9.31079
“	-9.31094
li쎯zi쎯	-9.31115
yi쎯ming쎯	-9.31241
bu쎯yi쎯	-9.31243
yi쎯jian쎯	-9.31295
da쎯liang쎯	-9.3133
ji쎯chang쎯	-9.3142
xian쎯cheng쎯	-9.31614
zhong쎯duo쎯	-9.31621
zheng쎯ge쎯	-9.31652
ding쎯wei쎯	-9.31682
zu쎯qiu쎯ju쎯le쎯bu쎯	-9.31695
kuai쎯ji쎯	-9.31779
hu쎯lian쎯wang쎯	-9.31806
>쎯	-9.3182
dian쎯ya쎯	-9.31835
36	-9.31884
ji쎯nian쎯	-9.31955
zhe쎯xue쎯	-9.32026
쎯ren쎯,쎯qi쎯zhong쎯	-9.32076
de쎯xin쎯	-9.32229
2006쎯nian쎯	-9.32234
nin쎯	-9.32246
45	-9.32547
2010쎯nian쎯	-9.32571
′	-9.3261
tiao쎯zheng쎯	-9.3274
jian쎯yi쎯	-9.32806
yun쎯ying쎯	-9.33155
shi쎯jian쎯yu쎯	-9.33332
▁쎯zai쎯	-9.3334
wei쎯hu쎯	-9.3337
40쎯	-9.33436
jian쎯,쎯	-9.33528
zi쎯zhi쎯qu쎯	-9.33577
yi쎯bu쎯	-9.33701
jian쎯yu쎯	-9.33756
zheng쎯quan쎯	-9.33813
hai쎯yang쎯	-9.3388
ji쎯ke쎯	-9.33889
yi쎯yang쎯	-9.33921
27	-9.34049
tiao쎯jie쎯	-9.34246
shang쎯shi쎯	-9.34304
gu쎯wen쎯	-9.34339
bao쎯zheng쎯	-9.34408
ji쎯lu쎯	-9.34475
ya쎯zhou쎯	-9.34489
zheng쎯ti쎯	-9.34497
hai쎯you쎯	-9.34539
an쎯zhao쎯	-9.34567
jia쎯qiang쎯	-9.34582
cheng쎯hao쎯	-9.3467
zhuan쎯ke쎯	-9.34679
chai쎯	-9.34705
jiang쎯xi쎯sheng쎯	-9.34795
mian쎯fei쎯	-9.34852
gao쎯xin쎯ji쎯shu쎯	-9.34958
you쎯er쎯yuan쎯	-9.35032
zhi쎯yu쎯	-9.3514
zhuang쎯tai쎯	-9.35231
pi쎯fu쎯	-9.35239
·	-9.3542
ping쎯jun쎯	-9.35456
can쎯shu쎯	-9.35458
deng쎯fang쎯mian쎯	-9.35519
xian쎯dai쎯hua쎯	-9.35526
,쎯nan쎯	-9.3554
wen쎯ding쎯	-9.35626
ce쎯hua쎯	-9.35807
zai쎯ci쎯	-9.35841
shi쎯zhong쎯guo쎯	-9.35855
tong쎯chang쎯	-9.35884
zhu쎯jian쎯	-9.35952
yi쎯yi쎯	-9.36209
yi쎯zuo쎯	-9.36291
,쎯jin쎯	-9.36377
yi쎯yao쎯	-9.36409
de쎯ren쎯	-9.36492
nv쎯xing쎯	-9.36515
ke쎯neng쎯	-9.36557
dao쎯yan쎯	-9.36616
se쎯cai쎯	-9.36867
jin쎯xing쎯le쎯	-9.36875
dong쎯hua쎯	-9.36914
sheng쎯li쎯	-9.37174
ti쎯chu쎯	-9.37195
chu쎯sheng쎯,쎯	-9.37433
geng쎯jia쎯	-9.37436
xin쎯hao쎯	-9.37846
11쎯	-9.37978
ㄧ	-9.37985
1쎯ge쎯	-9.38025
bu쎯ke쎯	-9.38035
wei쎯lai쎯	-9.38101
ping쎯jia쎯	-9.38142
de쎯yan쎯jiu쎯	-9.38203
shu쎯ji쎯	-9.38284
2쎯ge쎯	-9.38306
--	-9.3832
zhi쎯pin쎯	-9.38379
dong쎯nan쎯	-9.38397
cheng쎯fen쎯	-9.38398
zhi쎯fu쎯	-9.38592
shou쎯shu쎯	-9.38643
fen쎯zi쎯	-9.38679
bu쎯jin쎯	-9.38713
nie쎯	-9.388
yi쎯jia쎯	-9.38902
hei쎯se쎯	-9.38921
,쎯xian쎯ren쎯	-9.38988
dui쎯yu쎯	-9.39124
reng쎯	-9.39213
pai쎯she쎯	-9.39254
,쎯xian쎯	-9.39325
shen쎯zhen쎯shi쎯	-9.39336
。쎯you쎯	-9.39479
cheng쎯qu쎯	-9.39496
zheng쎯he쎯	-9.39681
hen쎯duo쎯	-9.39692
jian쎯dan쎯	-9.39707
ji쎯xing쎯	-9.39746
fang쎯an쎯	-9.39762
zheng쎯chang쎯	-9.39786
pei쎯zhi쎯	-9.398
gu쎯fen쎯you쎯xian쎯	-9.39835
wu쎯dao쎯	-9.39882
yin쎯xiang쎯	-9.39909
zhong쎯liu쎯	-9.39932
zong쎯he쎯xing쎯	-9.40012
zhi쎯,쎯	-9.40127
you쎯zhe쎯	-9.40236
fa쎯biao쎯lun쎯wen쎯	-9.40274
cheng쎯xian쎯	-9.40276
jie쎯mu쎯	-9.40323
、쎯zhong쎯guo쎯	-9.40326
zhuan쎯yong쎯	-9.40332
2009쎯nian쎯	-9.40338
)。	-9.40432
te쎯shu쎯	-9.40517
wan쎯shan쎯	-9.40518
xi쎯huan쎯	-9.40553
xiang쎯shou쎯	-9.40575
+쎯	-9.40626
shui쎯li쎯	-9.40911
xi쎯ju쎯	-9.40934
de쎯zhuan쎯ye쎯	-9.40951
cun쎯min쎯xiao쎯zu쎯	-9.40989
shen쎯ru쎯	-9.4105
xiang쎯dui쎯	-9.41132
san쎯nian쎯	-9.41184
e쎯luo쎯si쎯	-9.41201
(),쎯	-9.41258
qing쎯xi쎯	-9.4126
gan쎯ran쎯	-9.41273
zhun쎯	-9.41343
yi쎯xiang쎯	-9.41375
chu쎯yu쎯	-9.4139
,쎯yin쎯ci쎯	-9.41433
zhu쎯zuo쎯	-9.41442
。쎯zhu쎯yao쎯	-9.41515
gou쎯wu쎯	-9.41551
huan쎯zhe쎯	-9.41577
2005쎯nian쎯	-9.41753
kuo쎯	-9.41787
zhi쎯jian쎯de쎯	-9.41808
cun쎯min쎯	-9.4204
shi쎯ying쎯	-9.42054
100	-9.42082
tian쎯xia쎯	-9.4209
▁쎯chan쎯pin쎯	-9.42131
yi쎯wu쎯	-9.42199
cheng쎯ji쎯	-9.42209
--쎯	-9.42342
zhe쎯,쎯	-9.42361
,쎯shu쎯	-9.42395
wan쎯jia쎯	-9.4245
fa쎯bu쎯	-9.42567
tu쎯chu쎯	-9.42745
tu쎯shu쎯	-9.42763
chuang쎯ye쎯	-9.42807
dang쎯di쎯	-9.43169
ming쎯,쎯	-9.43189
shi쎯jia쎯	-9.43222
chong쎯qing쎯shi쎯	-9.43283
ji쎯yi쎯	-9.43337
tian쎯ran쎯	-9.43384
wen쎯wu쎯	-9.43412
ye쎯you쎯	-9.43442
yue쎯du쎯	-9.43495
yuan쎯、쎯	-9.43688
min쎯gong쎯he쎯guo쎯	-9.43738
60쎯	-9.43786
jian쎯yan쎯	-9.43803
,쎯bao쎯kuo쎯	-9.44015
—쎯	-9.4402
jiao쎯yu쎯bu쎯	-9.4403
yu쎯mi쎯	-9.44046
ti쎯gong쎯le쎯	-9.44052
yin쎯du쎯	-9.44167
dou쎯zheng쎯	-9.4417
jiao쎯wei쎯	-9.44176
hong쎯se쎯	-9.44181
ge쎯shi쎯	-9.44324
shang쎯you쎯	-9.44399
rong쎯liang쎯	-9.44533
xiang쎯dang쎯	-9.44652
dong쎯li쎯	-9.44732
zuo쎯luo쎯yu쎯	-9.44742
shi쎯he쎯	-9.44836
hui쎯fu쎯	-9.44845
shu쎯ru쎯	-9.44923
48	-9.4497
zhang쎯,쎯	-9.45063
yao쎯wu쎯	-9.45095
zi쎯dong쎯hua쎯	-9.45211
liu쎯xing쎯	-9.4522
cun쎯zai쎯	-9.45272
ping쎯fang쎯mi쎯	-9.45308
chong쎯fen쎯	-9.45388
you쎯liang쎯	-9.45447
pi쎯zhun쎯	-9.45533
jin쎯shi쎯	-9.45596
zhu쎯bian쎯	-9.45615
xia쎯,쎯	-9.45678
tui쎯chu쎯	-9.45755
2007쎯nian쎯	-9.45817
,쎯er쎯qie쎯	-9.45926
zui쎯jia쎯	-9.46019
you쎯cheng쎯	-9.4602
shao쎯nian쎯	-9.46063
gui쎯ge쎯	-9.46071
zhuan쎯li쎯	-9.46146
3쎯ge쎯	-9.46162
biao쎯yan쎯	-9.46207
mie쎯	-9.46253
bu쎯zhi쎯	-9.46257
qing쎯dao쎯	-9.46316
san쎯shi쎯	-9.46326
zai쎯xian쎯	-9.46327
ke쎯shi쎯	-9.46548
,쎯zhi쎯	-9.46618
,쎯wu쎯	-9.46704
jie쎯duan쎯	-9.46793
ju쎯zhu쎯	-9.46793
guo쎯wu쎯yuan쎯	-9.46803
zao쎯xing쎯	-9.46831
tong쎯xun쎯	-9.46848
,쎯ke쎯yi쎯	-9.46896
。“쎯	-9.46922
mei쎯li쎯	-9.47056
dong쎯xi쎯	-9.47092
yin쎯shua쎯	-9.47142
,쎯tong쎯guo쎯	-9.47146
guan쎯zhu쎯	-9.47331
xian쎯xiang쎯	-9.47496
jing쎯pin쎯	-9.4762
she쎯li쎯	-9.47651
jing쎯nei쎯	-9.4775
wu쎯qi쎯	-9.47797
dang쎯wei쎯shu쎯ji쎯	-9.478
zhi쎯yao쎯	-9.47852
shu쎯chu쎯	-9.48013
qi쎯dong쎯	-9.48032
zhu쎯xi쎯	-9.48063
su쎯zhou쎯	-9.48081
yan쎯chang쎯	-9.48139
:1	-9.48174
,쎯yong쎯you쎯	-9.48189
29	-9.48193
chuang쎯jian쎯yu쎯	-9.48207
zhu쎯ren쎯yi쎯shi쎯	-9.48314
,쎯nan쎯,쎯	-9.48366
4쎯ge쎯	-9.48448
zhuan쎯men쎯	-9.48479
shi쎯yi쎯jia쎯	-9.48487
tu쎯shu쎯guan쎯	-9.48565
jing쎯ji쎯xue쎯	-9.48583
'	-9.48715
zai쎯zhong쎯guo쎯	-9.48763
yin쎯jin쎯	-9.48772
>	-9.48813
dao쎯lu쎯	-9.48918
he쎯cheng쎯	-9.4893
li쎯yi쎯	-9.48932
)쎯shi쎯	-9.48979
yi쎯ding쎯	-9.48993
lao쎯shi쎯	-9.49063
zhong쎯yao쎯de쎯	-9.49105
cun쎯wei쎯yu쎯	-9.49107
33	-9.49128
yuan쎯。쎯	-9.49183
shi쎯ye쎯dan쎯wei쎯	-9.49271
xue쎯zhe쎯	-9.4933
ke쎯xue쎯yuan쎯	-9.49364
75	-9.49396
you쎯ming쎯	-9.49497
ban쎯xue쎯	-9.49515
xi쎯wang쎯	-9.49547
,쎯sui쎯	-9.49661
su쎯liao쎯	-9.49702
jiu쎯ye쎯	-9.4974
hua쎯jia쎯	-9.49748
chu쎯,쎯	-9.49788
38	-9.49812
dao쎯le쎯	-9.49815
xu쎯qiu쎯	-9.49853
dong쎯tai쎯	-9.49882
,쎯jiu쎯	-9.49896
shi쎯da쎯	-9.4992
di쎯li쎯	-9.49992
cheng쎯zhang쎯	-9.50022
▁2、쎯	-9.50029
gao쎯su쎯gong쎯lu쎯	-9.50059
liao쎯ning쎯sheng쎯	-9.5012
fen쎯lei쎯	-9.50243
ju쎯xing쎯	-9.50282
hua쎯shi쎯	-9.50339
bao쎯gao쎯	-9.50361
——	-9.50365
gu쎯ding쎯	-9.50402
shi쎯yu쎯	-9.50403
ji쎯xu쎯	-9.5042
huang쎯di쎯	-9.50507
guang쎯bo쎯	-9.50517
,쎯xi쎯	-9.50534
wei쎯xian쎯	-9.50572
xun쎯su쎯	-9.50604
di쎯wei쎯	-9.50696
xi쎯shou쎯	-9.50776
shou쎯yu쎯	-9.5078
zhen쎯duan쎯	-9.50799
deng쎯di쎯	-9.50815
zhi쎯di쎯	-9.50877
zhi쎯jing쎯	-9.50893
3-	-9.50947
xing쎯tai쎯	-9.50972
ming쎯。쎯	-9.50977
yi쎯ren쎯	-9.50979
wei쎯xiu쎯	-9.51005
mu쎯di쎯	-9.51077
kong쎯qi쎯	-9.51099
nv쎯zi쎯	-9.51248
,쎯ta쎯men쎯	-9.51291
cheng쎯ben쎯	-9.51296
ren쎯zhi쎯	-9.51315
yan쎯shi쎯	-9.51325
ken쎯	-9.51405
wen쎯zi쎯	-9.51468
zu쎯jian쎯	-9.51485
dian쎯chi쎯	-9.5149
bian쎯cheng쎯	-9.5157
yi쎯qie쎯	-9.51608
ru쎯guo쎯	-9.51686
he쎯xie쎯	-9.51839
xiang쎯hu쎯	-9.51965
90	-9.52009
shen쎯ti쎯	-9.52011
duo쎯ci쎯	-9.52038
9쎯yue쎯	-9.52047
zhuan쎯ye쎯de쎯	-9.52059
ke쎯ji쎯you쎯xian쎯	-9.52066
zheng쎯shu쎯	-9.52067
cheng쎯xin쎯	-9.52107
shi쎯yong쎯yu쎯	-9.52179
fu쎯zhu쎯	-9.52219
34	-9.52278
shi쎯zheng쎯fu쎯	-9.52283
37	-9.52385
da쎯lu쎯	-9.5253
zhu쎯ban쎯	-9.52549
ge쎯ge쎯	-9.52621
chuan쎯shuo쎯	-9.52699
,쎯ze쎯	-9.52704
wen쎯zhang쎯	-9.52796
2004쎯nian쎯	-9.52959
nan쎯bu쎯	-9.52971
xiao쎯fei쎯	-9.53039
feng쎯jing쎯	-9.53216
zhui쎯qiu쎯	-9.53265
ben쎯ke쎯	-9.533
zhong쎯liang쎯	-9.53322
sen쎯lin쎯	-9.53385
shuo쎯shi쎯xue쎯	-9.53453
ke쎯xue쎯ji쎯shu쎯	-9.53502
jing쎯zhi쎯	-9.53574
shi쎯liang쎯	-9.53587
bu쎯wei쎯	-9.53623
da쎯jia쎯	-9.53735
deng쎯。	-9.53768
》쎯zhong쎯	-9.53902
cheng쎯ren쎯	-9.54147
gao쎯du쎯	-9.54174
ling쎯xian쎯	-9.54228
cai쎯zheng쎯	-9.54259
gong쎯li쎯,쎯	-9.54295
jin쎯kou쎯	-9.5433
dou쎯you쎯	-9.546
qi쎯,쎯	-9.54619
ti쎯yan쎯	-9.54695
wei쎯zhu쎯,쎯	-9.54732
bo쎯shi쎯xue쎯wei쎯	-9.54966
ji쎯ti쎯	-9.54988
cheng쎯shu쎯	-9.55028
zheng쎯zai쎯	-9.55039
fan쎯yi쎯	-9.5504
shi쎯zi쎯	-9.55073
shu쎯zhi쎯	-9.55075
hai쎯zi쎯	-9.55253
wei쎯qi쎯	-9.55366
tou쎯ru쎯	-9.55402
xing쎯zhuang쎯	-9.55494
shi쎯er쎯	-9.55546
ge쎯shou쎯	-9.55624
shu쎯liang쎯	-9.55704
duo쎯ge쎯	-9.55706
qi쎯yi쎯	-9.55759
dang쎯shi쎯	-9.55833
yu쎯yi쎯ti쎯de쎯	-9.56001
「쎯	-9.56026
ming쎯cheng쎯:쎯	-9.56072
zhuang쎯xiu쎯	-9.56074
yan쎯se쎯	-9.5619
xing쎯zhi쎯	-9.5622
de쎯ji쎯chu쎯shang쎯	-9.56231
shu쎯cai쎯	-9.56238
zhuan쎯zhu쎯	-9.56277
xing쎯zheng쎯cun쎯	-9.56281
tao쎯ci쎯	-9.56293
fo쎯	-9.56316
6쎯yue쎯	-9.56516
tuan쎯ti쎯	-9.56522
fu쎯zhi쎯	-9.5663
jin쎯cheng쎯	-9.56672
jin쎯yi쎯bu쎯	-9.56708
hao쎯de쎯	-9.56723
nen쎯	-9.56735
ju쎯ban쎯	-9.56765
lun쎯tan쎯	-9.5683
yi쎯lai쎯,쎯	-9.56831
ji쎯shu쎯ren쎯yuan쎯	-9.56876
25쎯	-9.56916
quan쎯sheng쎯	-9.57015
jing쎯hua쎯	-9.57048
yi쎯qian쎯	-9.57155
yin쎯su쎯	-9.5716
zi쎯zhi쎯	-9.57246
she쎯hui쎯ke쎯xue쎯	-9.57383
zhang쎯wo쎯	-9.5745
2000쎯nian쎯	-9.5745
sou쎯	-9.57464
xie쎯tiao쎯	-9.57512
ˋ	-9.57708
,쎯gong쎯	-9.57711
yuan쎯su쎯	-9.57745
tan쎯suo쎯	-9.57787
-2	-9.57855
zhou쎯cheng쎯	-9.57903
5-	-9.57969
0	-9.58117
cheng쎯xiang쎯	-9.58137
5쎯yue쎯	-9.58196
0.	-9.58235
li쎯shu쎯	-9.58275
hun쎯he쎯	-9.58325
fu쎯jiao쎯shou쎯	-9.5834
13쎯	-9.5835
fu쎯gai쎯	-9.584
gong쎯ying쎯	-9.58445
xiao쎯zhang쎯	-9.58474
shen쎯yang쎯	-9.58474
yang쎯zhi쎯	-9.58546
2003쎯nian쎯	-9.58548
liao쎯ning쎯	-9.58654
lian쎯meng쎯	-9.58733
han쎯zu쎯	-9.58807
chuang쎯ban쎯	-9.58858
ren쎯ti쎯	-9.58963
14쎯	-9.59194
zui쎯xin쎯	-9.59213
18쎯	-9.59294
zhu쎯guan쎯	-9.5931
(쎯jin쎯	-9.59341
han쎯liang쎯	-9.59363
liang쎯zhong쎯	-9.59364
ge쎯xiang쎯	-9.59365
yin쎯shi쎯	-9.59481
bian쎯xie쎯	-9.59628
gou쎯cheng쎯	-9.59762
nei쎯zhi쎯	-9.59877
▁1.쎯	-9.59924
mei쎯rong쎯	-9.59966
jian쎯li쎯le쎯	-9.59988
chang쎯jiang쎯	-9.60164
,쎯rang쎯	-9.60176
ke쎯fang쎯	-9.60194
zhi쎯chu쎯	-9.60195
fu쎯you쎯	-9.60253
she쎯hui쎯zhu쎯yi쎯	-9.60273
mei쎯ge쎯	-9.60297
ke쎯li쎯	-9.60386
zhou쎯wei쎯	-9.60456
chang쎯wu쎯li쎯shi쎯	-9.60459
▁3.쎯	-9.60478
shou쎯jie쎯	-9.60562
geng쎯di쎯mian쎯ji쎯	-9.60613
gui쎯zhou쎯	-9.60615
ren쎯sheng쎯	-9.60649
you쎯xian쎯ze쎯ren쎯	-9.60694
2쎯yue쎯	-9.60754
jie쎯guo쎯	-9.608
yi쎯“쎯	-9.60806
mian쎯xiang쎯	-9.60816
xing쎯hao쎯	-9.6083
2002쎯nian쎯	-9.60906
hui쎯hui쎯yuan쎯	-9.60937
4-	-9.60986
wu쎯fa쎯	-9.61048
zhong쎯shan쎯	-9.61095
man쎯hua쎯	-9.612
yuan쎯ming쎯	-9.61221
li쎯jie쎯	-9.61301
tui쎯jin쎯	-9.61336
》쎯shi쎯:“쎯	-9.61429
▁:쎯	-9.61501
dui쎯wu쎯	-9.6154
suo쎯zai쎯di쎯	-9.61571
wen쎯xian쎯	-9.61578
shi쎯qu쎯	-9.61645
shou쎯ci쎯	-9.6171
ㄨ	-9.61725
xiang쎯jiao쎯	-9.61738
liang쎯shi쎯	-9.61747
you쎯xian쎯gong쎯s	-9.61781
chang쎯wu쎯	-9.61858
dui쎯xiang쎯	-9.6188
80쎯	-9.61908
gai쎯shan쎯	-9.62037
fu쎯she쎯	-9.62041
di쎯zhen쎯	-9.62061
zhou쎯bian쎯	-9.62186
yi쎯ke쎯da쎯xue쎯	-9.62202
sao쎯	-9.62231
。쎯xue쎯xiao쎯	-9.62233
quan쎯cun쎯	-9.62278
ming쎯xian쎯	-9.62281
,쎯bing쎯qie쎯	-9.62303
55	-9.62304
li쎯liang쎯	-9.62349
zuo쎯luo쎯zai쎯	-9.62472
yuan쎯lin쎯	-9.62555
zong쎯jiao쎯	-9.62623
dan쎯bai쎯	-9.62731
ren쎯wen쎯	-9.62768
fang쎯zhen쎯	-9.6278
xiang쎯you쎯	-9.62811
wei쎯“쎯	-9.62834
bu쎯xiang쎯	-9.62869
da쎯sai쎯	-9.62895
ban쎯fa쎯	-9.62966
bu쎯ju쎯	-9.63009
jie쎯neng쎯	-9.63013
gong쎯chang쎯	-9.63113
mo쎯ni쎯	-9.63272
fa쎯yu쎯	-9.63293
qi쎯hou쎯	-9.63297
wei쎯yuan쎯,쎯	-9.6332
zhong쎯bu쎯	-9.63519
,쎯qie쎯	-9.63536
《	-9.63542
yin쎯ci쎯	-9.63722
qu쎯shi쎯	-9.63741
200	-9.63781
peng쎯you쎯	-9.63863
wu쎯shu쎯	-9.6394
zhan쎯lan쎯	-9.63964
。쎯you쎯yu쎯	-9.64004
chong쎯xin쎯	-9.6409
,쎯cong쎯er쎯	-9.6422
98	-9.64256
bao쎯dao쎯	-9.64266
shen쎯zhi쎯	-9.64302
jing쎯zheng쎯	-9.64321
xie쎯yi쎯	-9.64335
ji쎯dian쎯	-9.64396
,쎯ran쎯hou쎯	-9.64416
huan쎯ying쎯	-9.64521
zhu쎯zhai쎯	-9.64527
huang쎯jin쎯	-9.64538
ke쎯hu쎯ti쎯gong쎯	-9.64557
3쎯nian쎯	-9.64628
zhu쎯ji쎯	-9.6472
hou쎯de쎯	-9.64795
qi쎯lai쎯	-9.649
3쎯yue쎯	-9.65002
cheng쎯jiu쎯	-9.65007
▁2쎯	-9.65042
bu쎯xiu쎯gang쎯	-9.65116
tian쎯jin쎯shi쎯	-9.65118
zhe쎯li쎯	-9.6522
pei쎯he쎯	-9.65255
xin쎯pian쎯	-9.65272
du쎯te쎯de쎯	-9.65321
min쎯zhu쎯	-9.65338
su쎯zhi쎯	-9.65359
1997쎯nian쎯	-9.65365
yu쎯shi쎯	-9.65433
ying쎯wen쎯	-9.65459
fang쎯mian쎯de쎯	-9.65537
si쎯wei쎯	-9.65583
de쎯xiao쎯	-9.65602
zuo쎯chu쎯	-9.65609
neng쎯yuan쎯	-9.65619
mo쎯xing쎯	-9.65636
ju쎯le쎯bu쎯	-9.65734
ni쎯de쎯	-9.65745
shen쎯qing쎯	-9.65848
▁3、쎯	-9.65958
jie쎯jue쎯fang쎯an쎯	-9.6597
‘쎯	-9.65987
ke쎯、쎯	-9.65989
fu쎯jin쎯	-9.66003
zuan쎯	-9.6602
biao쎯zhi쎯	-9.6611
yi쎯hou쎯	-9.66116
,쎯mei쎯	-9.66164
fen쎯li쎯	-9.66165
gong쎯shang쎯	-9.66208
chuan쎯shu쎯	-9.66309
ying쎯xiong쎯	-9.66333
nian쎯jian쎯	-9.66424
bin쎯guan쎯	-9.66468
90쎯	-9.66518
gong쎯si쎯shi쎯	-9.66529
da쎯xue쎯sheng쎯	-9.66539
du쎯shi쎯	-9.66552
1996쎯nian쎯	-9.66565
qing쎯dai쎯	-9.66609
65	-9.66699
can쎯yin쎯	-9.66759
di쎯yu쎯	-9.6678
jiang쎯jun쎯	-9.66784
,쎯gong쎯si쎯	-9.66964
,쎯wo쎯men쎯	-9.67104
he쎯li쎯	-9.67219
zeng쎯zhang쎯	-9.67295
you쎯qi쎯	-9.67314
gao쎯ya쎯	-9.67358
yi쎯fu쎯	-9.67393
fo쎯jiao쎯	-9.6744
zhun쎯bei쎯	-9.67631
hua쎯、쎯	-9.67645
hu쎯li쎯	-9.67736
24쎯	-9.67795
cun쎯chu쎯	-9.67971
yan쎯jing쎯	-9.67978
zhi쎯wei쎯	-9.68017
zhe쎯shi쎯	-9.6809
can쎯kao쎯	-9.68111
31	-9.68175
she쎯ji쎯、쎯	-9.68213
hui쎯hua쎯	-9.68254
zhi쎯shang쎯	-9.68288
chan쎯pin쎯de쎯	-9.68323
4쎯yue쎯	-9.6833
guan쎯zhong쎯	-9.6835
min쎯guo쎯	-9.68383
cai쎯wu쎯	-9.68436
zhi쎯xiang쎯	-9.68464
1998쎯nian쎯	-9.68518
xi쎯jing쎯	-9.6877
fa쎯hui쎯	-9.68796
jing쎯chang쎯	-9.68845
yu쎯ren쎯	-9.68863
《쎯zhong쎯guo쎯	-9.68904
dong쎯shi쎯zhang쎯	-9.69007
shu쎯ma쎯	-9.69027
si쎯wang쎯	-9.6919
yan쎯、쎯	-9.69255
shou쎯fa쎯	-9.69306
zhen쎯dong쎯	-9.69354
ping쎯heng쎯	-9.6936
32쎯	-9.69394
gong쎯ren쎯	-9.69455
guan쎯li쎯、쎯	-9.69471
huo쎯che쎯zhan쎯	-9.6952
han쎯shu쎯	-9.69552
guan쎯jun쎯	-9.69631
jian쎯ren쎯	-9.69722
64	-9.69731
ren쎯gong쎯	-9.69733
shang쎯shu쎯	-9.69779
nang쎯	-9.69788
shou쎯duan쎯	-9.69884
&	-9.69893
yan쎯zhong쎯	-9.69903
lv쎯hua쎯	-9.69907
nan쎯bei쎯	-9.69939
chang쎯pian쎯	-9.70052
zi쎯chan쎯	-9.70095
suo쎯shu쎯	-9.70118
li쎯zhi쎯	-9.70158
guang쎯zhou쎯shi쎯	-9.70192
gong쎯xian쎯	-9.70204
xian쎯chang쎯	-9.70323
tai쎯yang쎯	-9.70332
fu쎯nv쎯	-9.70347
wai쎯xing쎯	-9.70501
zhong쎯jian쎯	-9.70504
er쎯bu쎯	-9.70526
1990쎯nian쎯	-9.7057
da쎯li쎯	-9.70692
,쎯hao쎯	-9.70706
tui쎯dong쎯	-9.70736
chang쎯suo쎯	-9.70789
wan쎯shan쎯de쎯	-9.70807
1-	-9.7085
ying쎯pian쎯	-9.70867
ˊ	-9.70875
pin쎯lv쎯	-9.7088
xiang쎯ying쎯	-9.70926
jin쎯jiang쎯	-9.70937
ai쎯qing쎯	-9.70955
1995쎯nian쎯	-9.70957
zhong쎯zi쎯	-9.71002
kuo쎯zhan쎯	-9.71047
shui쎯ku쎯	-9.71068
xun쎯huan쎯	-9.71088
42	-9.71106
te쎯xing쎯	-9.71117
ju쎯ti쎯	-9.71129
’쎯	-9.71197
kai쎯fang쎯	-9.71203
zhen쎯dui쎯	-9.71236
chuang쎯yi쎯	-9.71268
xi쎯qu쎯	-9.71284
zai쎯pei쎯	-9.71317
bao쎯cun쎯	-9.71449
da쎯sha쎯	-9.71497
gan쎯su쎯	-9.71504
,쎯ceng쎯	-9.71564
,쎯dan쎯shi쎯	-9.71587
nei쎯cun쎯	-9.71596
zhong쎯hua쎯ren쎯	-9.71666
fa쎯zhan쎯de쎯	-9.71812
yuan쎯zi쎯	-9.71957
nuan쎯	-9.72033
gai쎯zao쎯	-9.72066
”쎯deng쎯	-9.72074
shao쎯xu쎯	-9.72155
weng쎯	-9.72184
zui쎯hou쎯	-9.72212
yu쎯zhong쎯	-9.72261
duo쎯xiang쎯	-9.72372
lv쎯xing쎯	-9.72383
yi쎯tiao쎯	-9.72446
yu쎯fang쎯	-9.72493
jin쎯xiu쎯	-9.72494
1999쎯nian쎯	-9.72514
zao쎯qi쎯	-9.72541
lian쎯suo쎯	-9.72558
mu쎯,쎯	-9.72637
huang쎯se쎯	-9.72731
zhan쎯dou쎯	-9.72737
de쎯sheng쎯huo쎯	-9.72738
zui쎯zao쎯	-9.7276
ta쎯men쎯de쎯	-9.72805
2001쎯nian쎯	-9.72851
gu쎯ke쎯	-9.72875
43	-9.72924
zhi쎯biao쎯	-9.72928
cheng쎯zhen쎯	-9.72944
chuan쎯》:“쎯	-9.72978
▁1、쎯	-9.72991
li쎯xue쎯	-9.73059
gong쎯zuo쎯。	-9.73079
shi쎯nian쎯	-9.73111
xue쎯shi쎯xue쎯wei쎯	-9.7318
qiang쎯du쎯	-9.73189
shen쎯ji쎯	-9.73253
,쎯xia쎯	-9.73289
de쎯shi쎯hou쎯	-9.73301
ming쎯ren쎯	-9.7337
200쎯	-9.7338
du쎯shu쎯	-9.73453
zong쎯jing쎯li쎯	-9.7347
que쎯ding쎯	-9.73567
keng쎯	-9.7357
,쎯ren쎯	-9.73597
kai쎯tuo쎯	-9.73606
yong쎯pin쎯	-9.73759
tuan쎯jie쎯	-9.73812
guo쎯min쎯dang쎯	-9.73814
tu쎯xiang쎯	-9.7383
xue쎯li쎯	-9.73849
zhi쎯yuan쎯	-9.73906
jian쎯shi쎯	-9.73927
ban쎯ben쎯	-9.73976
po쎯huai쎯	-9.73992
wei쎯ji쎯	-9.74053
guo쎯wai쎯	-9.74113
zi쎯wo쎯	-9.74136
si쎯ge쎯	-9.74243
2-	-9.74405
ge쎯xing쎯	-9.74542
seng쎯	-9.74558
bu쎯hui쎯	-9.74604
,쎯ba쎯	-9.74614
zuo쎯zhan쎯	-9.74632
39	-9.74699
chang쎯shang쎯	-9.74772
chu쎯zi쎯	-9.74855
shen쎯me쎯	-9.74908
ceng쎯jing쎯	-9.74943
,쎯xiang쎯	-9.74983
jian쎯shao쎯	-9.75019
。쎯ceng쎯ren쎯	-9.75032
yang쎯shi쎯	-9.75039
44	-9.75166
zong쎯zhi쎯	-9.75242
jian쎯de쎯	-9.75262
chi쎯xu쎯	-9.75301
fen쎯zhi쎯	-9.75317
gong쎯kai쎯	-9.7539
-3	-9.755
ji쎯qiao쎯	-9.75635
jia쎯na쎯da쎯	-9.75654
ren쎯min쎯zheng쎯	-9.75845
kuai쎯le쎯	-9.75847
1992쎯nian쎯	-9.75853
46	-9.75856
ping쎯gu쎯	-9.75863
qing쎯jie쎯	-9.75873
lei쎯si쎯	-9.75955
dong쎯jing쎯	-9.75987
yang쎯guang쎯	-9.75987
da쎯lian쎯	-9.76039
,3	-9.76083
xi쎯tong쎯de쎯	-9.76107
xian쎯zhu쎯	-9.76262
jian쎯you쎯	-9.76298
5쎯ge쎯	-9.76305
zhi쎯xian쎯	-9.76361
1984쎯nian쎯	-9.7643
hai쎯nan쎯	-9.76466
zao쎯cheng쎯	-9.76509
yang쎯xian쎯	-9.76517
%,쎯	-9.76538
500쎯	-9.76556
,쎯mu쎯qian쎯	-9.76611
yi쎯liu쎯	-9.76658
-1	-9.76671
zui쎯zhong쎯	-9.76698
66	-9.76805
jue쎯se쎯	-9.76819
di쎯qiu쎯	-9.7692
hui쎯hui쎯yuan쎯,쎯	-9.77027
an쎯jian쎯	-9.77033
fu쎯qin쎯	-9.77122
jun쎯qu쎯	-9.77126
mei쎯nian쎯	-9.77141
85	-9.77174
chang쎯shi쎯	-9.77179
ga쎯	-9.77196
di쎯mian쎯	-9.77199
,쎯zhu쎯	-9.77236
52	-9.77444
wen쎯shi쎯	-9.77457
shang쎯biao쎯	-9.77471
dang쎯wei쎯	-9.77506
yi쎯bei쎯	-9.7751
yu쎯qi쎯	-9.77574
gu쎯piao쎯	-9.77625
ta쎯shi쎯	-9.77633
mi쎯shu쎯	-9.77662
bo쎯fang쎯	-9.77679
li쎯ren쎯	-9.77688
fan쎯zhi쎯	-9.77722
zhong쎯duan쎯	-9.77726
zhen쎯shi쎯	-9.77738
dong쎯bu쎯	-9.77785
qu쎯,쎯	-9.77798
de쎯chan쎯pin쎯	-9.77855
ying쎯pan쎯	-9.77896
gu쎯cheng쎯	-9.77912
fu쎯yu쎯	-9.77938
yuan쎯yin쎯	-9.78088
da쎯bu쎯fen쎯	-9.78177
ceng쎯ren쎯	-9.78486
1.쎯	-9.78496
zhua쎯	-9.78504
yi쎯xian쎯	-9.78555
xiao쎯xing쎯	-9.78571
ru쎯xuan쎯	-9.78571
2011쎯nian쎯	-9.78617
cheng쎯“쎯	-9.78672
ren쎯li쎯zi쎯yuan쎯	-9.78733
ke쎯da쎯	-9.78785
1쎯yue쎯	-9.78792
----------------	-9.78798
shi쎯gu쎯	-9.78799
,쎯neng쎯	-9.78826
li쎯xiang쎯	-9.78848
guo쎯shi쎯	-9.7886
chuan쎯mei쎯	-9.78898
6쎯ge쎯	-9.78935
liang쎯ce쎯	-9.79097
san쎯da쎯	-9.79108
ying쎯yong쎯yu쎯	-9.79137
shuo쎯ming쎯	-9.79146
ji쎯lin쎯sheng쎯	-9.79181
47	-9.79239
tui쎯jian쎯	-9.79257
suo쎯yi쎯	-9.79341
1988쎯nian쎯	-9.7939
xia쎯qu쎯	-9.79426
yan쎯jiu쎯hui쎯	-9.79429
guo쎯tu쎯mian쎯ji쎯	-9.79462
sui쎯zhe쎯	-9.79482
cai쎯neng쎯	-9.79523
xi쎯fang쎯	-9.79525
jing쎯qu쎯	-9.79552
di쎯wu쎯	-9.79582
jie쎯shao쎯le쎯	-9.79613
▁1	-9.79759
quan쎯li쎯	-9.79856
yin쎯dao쎯	-9.79899
jian쎯kong쎯	-9.79931
bing쎯cheng쎯	-9.7997
zhong쎯you쎯	-9.80007
1985쎯nian쎯	-9.80103
1쎯nian쎯	-9.80113
chao쎯xian쎯	-9.80198
xing쎯dong쎯	-9.8023
yang쎯hua쎯	-9.8024
hua쎯mian쎯	-9.80243
qing쎯shao쎯nian쎯	-9.80243
chong쎯man쎯	-9.8026
shi쎯jing쎯	-9.80315
。쎯ci쎯	-9.80315
yuan쎯yu쎯bai쎯du쎯	-9.80317
zhi쎯qian쎯	-9.8037
bing쎯qie쎯	-9.8038
1993쎯nian쎯	-9.80388
di쎯tu쎯,쎯zui쎯z	-9.80395
쎯bai쎯du쎯di쎯tu쎯s	-9.80396
hu쎯ju쎯wei쎯zhun쎯。	-9.80398
hong쎯jie쎯guo쎯yi	-9.80401
.("/////	-9.8046
.",(){(	-9.8046
1989쎯nian쎯	-9.80478
chu쎯zhong쎯	-9.80533
xing쎯fu쎯	-9.80547
,쎯xian쎯hou쎯	-9.80569
45쎯	-9.80569
yan쎯ge쎯	-9.8059
yi쎯yu쎯	-9.80614
wei쎯xing쎯	-9.80628
xi쎯guan쎯	-9.80666
pian쎯,쎯	-9.80695
zeng쎯qiang쎯	-9.80722
ping쎯mian쎯	-9.80742
zheng쎯zhou쎯	-9.80744
zhe쎯yang쎯	-9.80805
。쎯cong쎯	-9.8084
...	-9.80871
fei쎯ji쎯	-9.8088
li쎯shu쎯yu쎯	-9.80909
yi쎯ke쎯	-9.80944
jin쎯bu쎯	-9.80995
zhu쎯zhong쎯	-9.80997
wei쎯jing쎯	-9.81091
58	-9.81105
qie쎯cheng쎯	-9.81108
gong쎯zuo쎯de쎯	-9.81141
bian쎯wei쎯	-9.81146
ji쎯liang쎯	-9.81244
zu쎯qiu쎯	-9.81245
0쎯	-9.81261
xie쎯zhu쎯	-9.81271
tu쎯pian쎯	-9.81296
▁1쎯	-9.81308
ju쎯bei쎯	-9.81311
si쎯nian쎯	-9.8135
gan쎯su쎯sheng쎯	-9.81357
chang쎯jia쎯	-9.81417
1991쎯nian쎯	-9.8146
sheng쎯zhi쎯	-9.81485
jie쎯fang쎯	-9.81552
dong쎯zuo쎯	-9.81567
53	-9.81613
ren쎯。	-9.81656
hua쎯dong쎯	-9.81688
shai쎯	-9.8176
、쎯wu쎯	-9.81786
ge쎯di쎯	-9.8182
,쎯hai쎯	-9.81834
zhong쎯guo쎯ren쎯mi	-9.81834
wu쎯yi쎯	-9.81852
)쎯de쎯	-9.81877
yi쎯you쎯	-9.81988
he쎯tong쎯	-9.82005
bu쎯zu쎯	-9.82013
1986쎯nian쎯	-9.82026
hu쎯dong쎯	-9.82138
ha쎯er쎯bin쎯	-9.82172
you쎯yi쎯ge쎯	-9.82176
ao쎯da쎯li쎯ya쎯	-9.82201
zhi쎯ji쎯	-9.82205
gui쎯lv쎯	-9.82244
jun쎯dui쎯	-9.82246
gai쎯nian쎯	-9.82318
jun쎯wei쎯	-9.82351
shi쎯ti쎯	-9.82379
guan쎯cha쎯	-9.82426
gui쎯zhou쎯sheng쎯	-9.82447
fu쎯wu쎯。쎯	-9.8253
shi쎯nei쎯	-9.8256
xiang쎯zhen쎯	-9.82623
shou쎯du쎯	-9.82667
,2	-9.82678
xing쎯、쎯	-9.82715
lao쎯nian쎯	-9.82743
zu쎯cheng쎯de쎯	-9.82765
dai쎯kuan쎯	-9.82892
bao쎯han쎯	-9.82924
bian쎯xing쎯	-9.82946
kong쎯tiao쎯	-9.82963
dou쎯fu쎯	-9.83031
ji쎯tuan쎯gong쎯si쎯	-9.83146
wei쎯shi쎯	-9.83315
1994쎯nian쎯	-9.83317
kuo쎯da쎯	-9.83457
you쎯ren쎯	-9.83459
dao쎯de쎯	-9.83526
ju쎯fu쎯ju쎯zhang쎯	-9.83527
xin쎯yu쎯	-9.83621
er쎯cheng쎯	-9.83633
che쎯liang쎯	-9.83669
zhong쎯xing쎯	-9.83725
qing쎯song쎯	-9.83728
xiao쎯lv쎯	-9.83729
yi쎯shu쎯jia쎯	-9.83736
ju쎯ji쎯	-9.83753
20쎯shi쎯ji쎯	-9.83797
wei쎯yuan쎯、쎯	-9.83827
xiong쎯di쎯	-9.8385
wu쎯nian쎯	-9.83904
chu쎯shi쎯	-9.83948
mi쎯du쎯	-9.84051
wu쎯ran쎯	-9.84056
qi쎯xiang쎯	-9.84068
shou쎯hou쎯fu쎯wu쎯	-9.84084
》쎯deng쎯。쎯	-9.84097
gong쎯she쎯	-9.8412
dang쎯an쎯	-9.84177
shou쎯yi쎯	-9.84188
de쎯《쎯	-9.84251
chang쎯yong쎯	-9.84266
jia쎯re쎯	-9.84272
gan쎯zao쎯	-9.84347
ji쎯guang쎯	-9.84439
qi쎯zhi쎯	-9.84451
qi쎯ti쎯	-9.84507
shou쎯xian쎯	-9.84529
fu쎯za쎯	-9.84535
jiang쎯di쎯	-9.84552
da쎯dui쎯	-9.84555
lv쎯shi쎯	-9.84557
8.	-9.84574
niang쎯	-9.84617
9.	-9.84691
wu쎯tai쎯	-9.8475
cuo쎯shi쎯	-9.84789
dao쎯ru쎯	-9.84823
wang쎯you쎯	-9.84892
si쎯ji쎯	-9.84931
hai쎯jun쎯	-9.84975
xian쎯lu쎯	-9.84989
ge쎯da쎯	-9.85007
,쎯shu쎯yu쎯	-9.85118
chuang쎯li쎯	-9.85134
()쎯shi쎯	-9.8524
chang쎯sha쎯	-9.85325
qu쎯dong쎯	-9.85338
2000쎯	-9.8534
jiang쎯nan쎯	-9.85346
kang쎯ri쎯	-9.8544
geng쎯ming쎯wei쎯	-9.85463
xian쎯xing쎯	-9.85479
,쎯ci쎯	-9.8549
》쎯de쎯	-9.85506
zi쎯ben쎯	-9.85543
zheng쎯qi쎯	-9.85605
shu쎯zhong쎯	-9.85611
qia쎯	-9.85658
600쎯	-9.85759
zhong쎯xin쎯、쎯	-9.8584
hao쎯hua쎯	-9.85871
fang쎯wu쎯	-9.85889
wu쎯zhong쎯	-9.86037
qing쎯kuang쎯xia쎯	-9.86054
sheng쎯dao쎯shi쎯	-9.86086
70쎯	-9.86097
wu쎯jin쎯	-9.86103
bei쎯jing쎯da쎯xue쎯	-9.8611
。쎯mu쎯qian쎯	-9.86164
shu쎯,쎯	-9.8621
ren쎯jiao쎯	-9.86219
ri쎯chang쎯	-9.86233
zu쎯qiu쎯yun쎯dong쎯	-9.8625
gong쎯yu쎯	-9.86331
gong쎯xiang쎯	-9.86375
▁쎯zhong쎯wen쎯	-9.86409
zhan쎯di쎯	-9.86424
1987쎯nian쎯	-9.86591
lin쎯ye쎯	-9.86655
si쎯da쎯	-9.86662
jue쎯ce쎯	-9.86686
68	-9.86772
si쎯shi쎯	-9.86851
da쎯jie쎯	-9.86877
wei쎯hai쎯	-9.86888
di쎯,쎯	-9.86945
shan쎯shui쎯	-9.86966
fu쎯ze쎯ren쎯	-9.87043
shua쎯	-9.87056
pi쎯lin쎯	-9.87072
shi쎯fou쎯	-9.87101
500	-9.87146
gou쎯jian쎯	-9.87152
shi쎯yi쎯kuan쎯	-9.8719
ren쎯zhong쎯gong쎯	-9.87191
da쎯zhong쎯	-9.87193
mei쎯li쎯de쎯	-9.87274
’	-9.87285
▁3쎯	-9.873
jia쎯zu쎯	-9.87338
tu쎯rang쎯	-9.87352
chu쎯qi쎯	-9.87384
wang쎯shang쎯	-9.87421
yuan쎯qu쎯	-9.87434
xi쎯ban쎯ya쎯	-9.87563
fang쎯zai쎯	-9.87572
yi쎯tao쎯	-9.87616
qiang쎯da쎯de쎯	-9.87644
sui쎯ran쎯	-9.87696
▁“쎯	-9.87722
xi쎯zang쎯	-9.87746
fen쎯gong쎯si쎯	-9.87825
ji쎯nan쎯	-9.87827
ji쎯zhe쎯	-9.87839
can쎯jia쎯ge쎯ming쎯	-9.87998
dui쎯wai쎯	-9.88064
fu쎯mu쎯	-9.88083
▁쎯zhu쎯yao쎯	-9.88189
6.	-9.88195
bei쎯fang쎯	-9.88213
gou쎯zao쎯	-9.88233
shi쎯jie쎯shang쎯	-9.88238
xiao쎯hua쎯	-9.88258
sheng쎯shi쎯	-9.88287
wu쎯ji쎯	-9.88379
yi쎯pian쎯	-9.88557
fu쎯zhou쎯	-9.88576
zhuang쎯,쎯	-9.88712
,쎯fu쎯	-9.88716
fen쎯bian쎯lv쎯	-9.88747
zheng쎯ming쎯	-9.88766
1/	-9.88799
shou쎯lu쎯	-9.88928
xiang쎯,쎯	-9.88975
shang쎯xia쎯	-9.89001
mu쎯ju쎯	-9.89062
de쎯li쎯shi쎯	-9.89137
han쎯yu쎯	-9.89151
19쎯	-9.89169
,쎯geng쎯	-9.89204
bian쎯yuan쎯	-9.89205
hou쎯lai쎯	-9.89253
ze쎯ren쎯	-9.89271
ling쎯ren쎯	-9.89277
ti쎯xing쎯	-9.89311
7쎯yue쎯	-9.89368
ju쎯shi쎯	-9.89395
gao쎯ji쎯jiao쎯shi쎯	-9.89411
nan쎯fang쎯	-9.89452
xing쎯cheng쎯le쎯	-9.89469
gao쎯duan쎯	-9.89542
dan쎯yuan쎯	-9.89548
fa쎯zhi쎯	-9.89568
he쎯fei쎯	-9.89607
zhu쎯ren쎯、쎯	-9.89608
zi쎯xing쎯	-9.8961
jing쎯ji쎯fa쎯zhan쎯	-9.89647
tu쎯po쎯	-9.8973
zi쎯,쎯	-9.89744
yi쎯liu쎯de쎯	-9.89754
zuo쎯chu쎯le쎯	-9.89859
dian쎯lu쎯	-9.89911
bu쎯ji쎯	-9.8992
da쎯hui쎯	-9.89937
dai쎯lai쎯	-9.89953
......	-9.89968
,쎯jiao쎯	-9.89981
san쎯wen쎯	-9.90019
pin쎯dao쎯	-9.90156
ji쎯fu쎯	-9.90179
qi쎯xi쎯	-9.90216
cao쎯zuo쎯xi쎯tong쎯	-9.90313
bi쎯li쎯	-9.90359
ming쎯dai쎯	-9.90362
shou쎯pi쎯	-9.90384
xiang쎯su쎯	-9.90386
feng쎯wei쎯	-9.90386
ju쎯ju쎯zhang쎯	-9.9041
ji쎯dan쎯	-9.90419
400쎯	-9.90446
guan쎯zhi쎯	-9.90466
ji쎯zai쎯	-9.90531
li쎯cheng쎯	-9.90533
fa쎯she쎯	-9.90605
quan쎯fang쎯wei쎯	-9.90618
”쎯shi쎯	-9.90624
、《쎯	-9.90641
xia쎯zai쎯	-9.90688
lai쎯yuan쎯	-9.90691
zui쎯ju쎯	-9.90747
,쎯you쎯yu쎯	-9.90766
ben쎯shu쎯ju쎯lai쎯	-9.90769
gu쎯zhang쎯	-9.90813
56	-9.90867
qing쎯chun쎯	-9.91045
zuo쎯jia쎯xie쎯hui쎯	-9.91078
jian쎯pan쎯	-9.9119
xiang쎯ji쎯	-9.91216
ming쎯:쎯	-9.91256
qi쎯xia쎯	-9.91337
,쎯que쎯	-9.91338
yong쎯lai쎯	-9.91343
de쎯shi쎯jian쎯	-9.91423
yuan쎯cheng쎯	-9.91462
shi쎯jian쎯:	-9.91543
,쎯zhe쎯	-9.91545
geng쎯xin쎯	-9.91584
zhi쎯hou쎯,쎯	-9.91609
lu쎯jun쎯	-9.91649
1958쎯nian쎯	-9.91654
22쎯	-9.9172
zhi쎯zhi쎯	-9.91722
er쎯qie쎯	-9.91743
fa쎯xue쎯	-9.91748
zhuan쎯huan쎯	-9.91755
fu쎯dao쎯	-9.91779
,쎯yan쎯	-9.91786
xian쎯zheng쎯fu쎯	-9.91791
di쎯shi쎯	-9.91807
xue쎯wei쎯	-9.9183
0.0	-9.91877
sheng쎯chan쎯xian쎯	-9.91898
ye쎯。”쎯	-9.91939
chu쎯de쎯	-9.91946
17쎯	-9.92025
▁(쎯	-9.92087
zhu쎯zhi쎯	-9.92112
guo쎯li쎯	-9.92129
jing쎯mi쎯	-9.9218
ping쎯mu쎯	-9.92232
pei쎯jian쎯	-9.92246
shi쎯ba쎯	-9.92259
biao쎯da쎯	-9.92262
yi쎯zu쎯	-9.92272
duo쎯mei쎯ti쎯	-9.92295
,쎯bi쎯	-9.9232
shi쎯yi쎯ming쎯	-9.92335
。쎯qi쎯zhong쎯	-9.92371
duan쎯kou쎯	-9.92406
de쎯ji쎯ben쎯	-9.92408
pin쎯wei쎯	-9.92412
ping쎯yuan쎯	-9.92412
chuan쎯qi쎯	-9.92489
li쎯nian쎯,쎯	-9.92511
liu쎯liang쎯	-9.92541
liu쎯cheng쎯	-9.92565
yi쎯xing쎯	-9.92637
kai쎯guan쎯	-9.92673
xian쎯cun쎯	-9.92684
”쎯wei쎯	-9.92686
:2	-9.92834
wei쎯zhu쎯。쎯	-9.93007
nong쎯ye쎯ren쎯kou쎯	-9.93011
-4	-9.93056
fang쎯wen쎯	-9.93086
xin쎯li쎯xue쎯	-9.93119
shan쎯xian쎯	-9.9312
hai쎯wai쎯	-9.93188
jian쎯shen쎯	-9.93189
zhi쎯zai쎯	-9.93198
1000쎯	-9.93217
shan쎯shi쎯	-9.9322
300쎯	-9.93233
ji쎯ge쎯	-9.93256
jie쎯jing쎯	-9.9328
si쎯fa쎯	-9.93282
88	-9.93323
);쎯	-9.93375
chao쎯shi쎯	-9.934
ping쎯jun쎯qi쎯wen쎯	-9.93426
huang쎯he쎯	-9.93454
shang쎯ji쎯	-9.93491
8쎯ge쎯	-9.93514
qi쎯kan쎯	-9.93529
ce쎯lve쎯	-9.93562
wu쎯zi쎯	-9.93648
cha쎯ye쎯	-9.93692
kao쎯ru쎯	-9.93693
,쎯xian쎯you쎯	-9.93726
dai쎯biao쎯da쎯hui쎯	-9.93736
gong쎯li쎯。쎯	-9.93741
zheng쎯fa쎯	-9.93766
ban쎯li쎯	-9.93883
jian쎯cai쎯	-9.93959
ren쎯shen쎯	-9.93994
zhuan쎯ti쎯	-9.94021
쎯ying쎯cun쎯	-9.94027
guan쎯jian쎯	-9.94077
tong쎯dao쎯	-9.94092
xue쎯hui쎯li쎯shi쎯	-9.94158
liu쎯shi쎯	-9.94252
zi쎯ge쎯	-9.94253
shen쎯hua쎯	-9.94299
nan쎯hai쎯	-9.94309
quan쎯cheng쎯	-9.94322
35쎯	-9.94324
zhuan쎯xiang쎯	-9.9439
shan쎯chang쎯	-9.944
zhao쎯pian쎯	-9.94418
yi쎯xi쎯	-9.9445
jiang쎯li쎯	-9.94517
mou쎯xie쎯	-9.94523
nian쎯ling쎯	-9.94544
99	-9.94555
guan쎯li쎯ju쎯	-9.94564
1.5	-9.94602
bian쎯li쎯	-9.94621
yan쎯,쎯	-9.94639
zhi쎯fa쎯	-9.94693
yan쎯yi쎯	-9.94725
xin쎯jia쎯po쎯	-9.94744
nei쎯ke쎯	-9.94782
er쎯nian쎯	-9.94788
fu쎯li쎯	-9.94883
96	-9.94886
yuan쎯xing쎯	-9.94934
gu쎯ji쎯	-9.9505
yi쎯tuo쎯	-9.95081
zhuang쎯kuang쎯	-9.95089
li쎯gong쎯da쎯xue쎯	-9.95102
ming쎯wei쎯	-9.95115
qi쎯ye쎯。쎯	-9.95153
ke쎯jian쎯	-9.95172
ban쎯shi쎯chu쎯	-9.95176
mian쎯dui쎯	-9.95194
suo쎯wei쎯	-9.95233
che쎯zhan쎯	-9.95338
ji쎯yin쎯	-9.95343
xing쎯qu쎯	-9.95354
ge쎯ju쎯	-9.9536
54	-9.95369
nian쎯qing쎯	-9.95377
di쎯yi쎯ci쎯	-9.9539
cheng쎯li쎯de쎯	-9.95424
bing쎯bu쎯	-9.95478
rong쎯he쎯	-9.95532
zheng쎯xie쎯	-9.95534
cai쎯qu쎯	-9.956
wo쎯men쎯de쎯	-9.95653
si쎯te쎯	-9.9566
,쎯zhang쎯	-9.95692
ci쎯ji쎯	-9.95729
800쎯	-9.95732
7.	-9.95781
cheng쎯hao쎯。쎯	-9.95788
shui쎯dao쎯	-9.95799
jiao쎯shou쎯,쎯	-9.95909
xiao쎯ying쎯	-9.95921
tong쎯yong쎯	-9.95945
bie쎯shu쎯	-9.95949
jiang쎯you쎯	-9.9596
86	-9.96008
<쎯	-9.96035
fen쎯bu쎯yu쎯	-9.96064
ji쎯lin쎯	-9.96074
mi쎯feng쎯	-9.96161
ang쎯	-9.96166
,쎯jia쎯ru쎯	-9.96204
5.	-9.9623
、쎯xiao쎯	-9.96241
jun쎯yun쎯	-9.96268
dao쎯zhi쎯	-9.96282
huan쎯jie쎯	-9.96309
,쎯li쎯ren쎯	-9.96323
yue쎯dui쎯	-9.96326
xing쎯ji쎯	-9.96364
jing쎯yan쎯,쎯	-9.96395
ji쎯xiang쎯	-9.96395
ye쎯jin쎯	-9.96399
shi쎯yong쎯de쎯	-9.96413
zheng쎯zhuang쎯	-9.96422
na쎯xie쎯	-9.96458
you쎯dian쎯	-9.96474
zhi쎯zhu쎯	-9.96499
zuo쎯hao쎯	-9.96634
..	-9.96742
xiao쎯fang쎯	-9.96787
zhu쎯yan쎯	-9.96823
shu쎯song쎯	-9.96911
49	-9.96912
gong쎯bu쎯	-9.96923
liu쎯dong쎯	-9.96986
lian쎯he쎯hui쎯	-9.96991
57	-9.97019
sui쎯shi쎯	-9.97082
,쎯jie쎯	-9.97083
xia쎯men쎯	-9.97104
ping쎯jie쎯	-9.97108
zhang쎯ai쎯	-9.97112
,쎯yi쎯ban쎯	-9.97133
zhi쎯xu쎯	-9.97212
chu쎯li쎯qi쎯	-9.97214
);	-9.97262
chuan쎯tong쎯de쎯	-9.97264
duo쎯gong쎯neng쎯	-9.97278
xing쎯he쎯	-9.9728
xing쎯rong쎯	-9.97312
duo쎯jia쎯	-9.97351
,쎯cheng쎯	-9.97368
73	-9.97394
xue쎯shu쎯lun쎯wen쎯	-9.97413
72	-9.97426
。쎯dan쎯	-9.97494
cai쎯se쎯	-9.97505
dian쎯shi쎯ju쎯	-9.97515
、쎯xin쎯	-9.97546
zhang쎯da쎯	-9.9757
ying쎯li쎯	-9.97624
xi쎯zhi쎯	-9.97677
rong쎯yi쎯	-9.9772
ji쎯fa쎯	-9.97731
gu쎯li쎯	-9.97747
ye쎯ti쎯	-9.97749
xin쎯xi쎯hua쎯	-9.97985
zai쎯bei쎯jing쎯	-9.98011
shu쎯li쎯	-9.98049
liang쎯hao쎯	-9.98055
qing쎯chu쎯	-9.98081
gong쎯shi쎯	-9.98111
xiao쎯er쎯	-9.98114
jiao쎯ban쎯	-9.98121
tian쎯di쎯	-9.98125
wan쎯mei쎯	-9.98126
biao쎯zhun쎯hua쎯	-9.98183
:《쎯	-9.98188
,쎯qing쎯	-9.98262
zuo쎯le쎯	-9.98291
shi쎯di쎯	-9.98312
ba쎯li쎯	-9.98312
hou쎯qi쎯	-9.98324
jing쎯xin쎯	-9.98328
an쎯li쎯	-9.98388
ning쎯bo쎯	-9.98392
le쎯yi쎯ge쎯	-9.98406
ling쎯yu쎯de쎯	-9.98422
gao쎯da쎯	-9.98437
zhu쎯jiang쎯	-9.98439
jiao쎯zhi쎯gong쎯	-9.98488
zhu쎯ren쎯,쎯	-9.98508
xiang쎯zheng쎯fu쎯	-9.98531
300	-9.98587
qu쎯de쎯le쎯	-9.98598
yi쎯dao쎯	-9.98691
mian쎯yi쎯	-9.98701
bian쎯jie쎯	-9.98751
jin쎯zhi쎯	-9.98755
kai쎯she쎯	-9.98784
shi쎯zheng쎯	-9.98875
zhong쎯yi쎯yao쎯	-9.98894
you쎯li쎯	-9.98942
an쎯xian쎯	-9.98944
suo쎯zai쎯	-9.98944
shui쎯ni쎯	-9.99005
zhao쎯ming쎯	-9.99059
di쎯liu쎯	-9.99136
』	-9.99153
<	-9.99158
yao쎯pin쎯	-9.99173
you쎯《쎯	-9.99181
ji쎯rou쎯	-9.99218
」쎯	-9.99239
cheng쎯wei쎯“쎯	-9.99332
tong쎯nian쎯	-9.9935
xue쎯、쎯	-9.99362
ti쎯xi쎯ren쎯zheng쎯	-9.99371
da쎯zhuan쎯	-9.99401
zhi쎯liu쎯	-9.99438
bu쎯、쎯	-9.99464
gai쎯wei쎯	-9.99489
guang쎯dian쎯	-9.99497
,쎯jian쎯	-9.99546
,쎯zhong쎯gong쎯	-9.9964
mei쎯shu쎯jia쎯xie쎯	-9.99825
zui쎯wei쎯	-9.99832
zhu쎯bu쎯	-9.99897
de쎯di쎯fang쎯	-9.99947
▁2	-9.9997
jiu쎯hui쎯	-9.99971
jin쎯dai쎯	-10.001
he쎯ping쎯	-10.0013
shi쎯cong쎯	-10.0023
mei쎯zhou쎯	-10.0025
shi쎯xiang쎯	-10.0027
xiao쎯xue쎯sheng쎯	-10.0028
ru쎯ci쎯	-10.0033
sheng쎯chan쎯de쎯	-10.0036
fa쎯ming쎯	-10.0038
ji쎯ceng쎯	-10.0039
xian쎯ji쎯	-10.0046
fen쎯guan쎯	-10.0047
wang쎯shi쎯	-10.0048
qun쎯ti쎯	-10.005
)、《쎯	-10.0052
zong쎯mian쎯ji쎯	-10.0052
yi쎯jia쎯zhuan쎯ye쎯	-10.0054
yi쎯fa쎯	-10.0054
zheng쎯yi쎯	-10.0062
sheng쎯cheng쎯	-10.0064
dan쎯bai쎯zhi쎯	-10.0075
gao쎯wen쎯	-10.0076
gou쎯mai쎯	-10.0078
gong쎯lv쎯	-10.0079
sheng쎯cun쎯	-10.0083
gong쎯si쎯de쎯	-10.0088
,쎯fang쎯ru쎯	-10.0091
xi쎯lie쎯chan쎯pin쎯	-10.0091
shi쎯liu쎯	-10.0094
zheng쎯li쎯	-10.0095
gang쎯tie쎯	-10.0107
he쎯bing쎯	-10.0107
sheng쎯dong쎯	-10.011
》(	-10.011
bu쎯jian쎯	-10.011
chang쎯du쎯	-10.0111
ai쎯hao쎯zhe쎯	-10.0112
%	-10.0114
xian쎯de쎯	-10.0114
gong쎯dian쎯	-10.0119
28쎯	-10.0123
di쎯yi쎯ge쎯	-10.0124
chan쎯liang쎯	-10.0126
zhi쎯zhong쎯	-10.0127
qi쎯cai쎯	-10.0129
di쎯tu쎯	-10.0131
,쎯dang쎯	-10.0132
zou쎯xiang쎯	-10.0142
,쎯yin쎯wei쎯	-10.015
xi쎯shu쎯	-10.0152
jiao쎯zuo쎯	-10.0153
,쎯bing쎯zai쎯	-10.0154
dian쎯fen쎯	-10.0155
shu쎯ju쎯ku쎯	-10.0162
you쎯er쎯	-10.0162
bo쎯lan쎯	-10.0163
lu쎯yin쎯	-10.0164
deng쎯duo쎯zhong쎯	-10.0167
she쎯ji쎯shi쎯	-10.0169
ji쎯li쎯	-10.017
di쎯qu쎯de쎯	-10.0173
li쎯yu쎯	-10.0177
can쎯jia쎯le쎯	-10.018
nong쎯ye쎯da쎯xue쎯	-10.018
geng쎯duo쎯	-10.0181
ti쎯ji쎯	-10.0184
mu쎯qin쎯	-10.0186
zong쎯tong쎯	-10.0187
fei쎯yong쎯	-10.0188
5쎯nian쎯	-10.0193
600	-10.0194
guan쎯dao쎯	-10.0195
yi쎯zhang쎯	-10.0198
》쎯huo쎯	-10.0207
zhen쎯zheng쎯	-10.0211
li쎯ti쎯	-10.0216
diao쎯su쎯	-10.0219
yuan쎯ze쎯	-10.0221
▁4、쎯	-10.0222
21쎯	-10.0225
de쎯jing쎯ying쎯	-10.0232
qing쎯shui쎯	-10.0234
2.0	-10.0234
yi쎯duan쎯	-10.0235
kao쎯cha쎯	-10.0237
ming쎯shi쎯	-10.024
,쎯shou쎯	-10.0242
62	-10.0245
yu쎯wen쎯	-10.0252
da쎯yin쎯	-10.0259
yi쎯da쎯	-10.026
chao쎯ji쎯	-10.0261
quan쎯wei쎯	-10.0266
an쎯pai쎯	-10.0268
chang쎯dao쎯	-10.0268
can쎯ting쎯	-10.0273
ding쎯yi쎯	-10.0275
chu쎯ji쎯	-10.0277
jian쎯zao쎯	-10.0283
han쎯you쎯	-10.0287
cai쎯gou쎯	-10.0288
zhong쎯deng쎯	-10.029
cheng쎯bao쎯	-10.0291
0.5	-10.0294
yun쎯zuo쎯	-10.0303
ni쎯ya쎯	-10.0304
shi쎯“쎯	-10.0306
xue쎯ye쎯	-10.0308
chong쎯ji쎯	-10.031
ying쎯xiang쎯li쎯	-10.0311
zei쎯	-10.0318
,쎯jia쎯	-10.032
quan쎯xin쎯	-10.0324
1982쎯nian쎯	-10.0327
dian쎯xin쎯	-10.0327
shen쎯shou쎯	-10.0332
78	-10.0334
he쎯jin쎯	-10.0335
76	-10.0349
wen쎯wu쎯bao쎯hu쎯	-10.0379
wei쎯dang쎯xiao쎯	-10.038
zhu쎯ru쎯	-10.0389
zhong쎯wai쎯	-10.039
xing쎯。쎯	-10.0391
fen쎯hui쎯	-10.0391
shu쎯fa쎯jia쎯xie쎯	-10.0398
:3	-10.0399
jing쎯xi쎯	-10.0401
1983쎯nian쎯	-10.0409
,쎯wo쎯	-10.041
fu쎯wu쎯qi쎯	-10.0413
yong쎯tu쎯	-10.0421
jun쎯you쎯	-10.0422
―	-10.0422
you쎯“쎯	-10.0424
xing쎯zheng쎯cun쎯,	-10.0425
～쎯	-10.0426
bai쎯nian쎯	-10.0429
shi쎯bie쎯	-10.0437
yi쎯li쎯	-10.0439
jiao쎯du쎯	-10.0441
ren쎯min쎯yi쎯yuan쎯	-10.0441
jun쎯gong쎯	-10.0441
kan쎯dao쎯	-10.0441
zhong쎯wen쎯ming쎯	-10.0445
qian쎯long쎯	-10.0445
)쎯he쎯	-10.0445
wan쎯zheng쎯	-10.0445
jia쎯yi쎯	-10.0445
ming쎯xing쎯	-10.0446
shou쎯quan쎯	-10.0456
fei쎯zhou쎯	-10.0457
de쎯fu쎯wu쎯	-10.0458
liang쎯nian쎯	-10.0463
li쎯shi쎯shang쎯	-10.0463
wei쎯zhu쎯de쎯	-10.0486
dian쎯liu쎯	-10.0487
chang쎯fang쎯	-10.0493
ke쎯ji쎯da쎯xue쎯	-10.0494
jie쎯mian쎯	-10.0494
wu쎯wei쎯	-10.0495
jian쎯du쎯guan쎯li쎯	-10.0495
shi쎯jue쎯	-10.0497
huo쎯jiang쎯	-10.05
qing쎯hua쎯	-10.0502
ben쎯di쎯	-10.0505
you쎯jiao쎯	-10.0512
wai쎯guan쎯	-10.0517
shi쎯wen쎯	-10.0519
gong쎯si쎯wei쎯yu쎯	-10.052
97	-10.0525
。쎯ben쎯shu쎯	-10.053
ji쎯you쎯	-10.0531
huo쎯de쎯le쎯	-10.0532
shi쎯yi쎯suo쎯	-10.0532
ji쎯ben쎯can쎯shu쎯	-10.0533
she쎯tuan쎯	-10.0539
chui쎯zhi쎯	-10.0548
zhu쎯yao쎯you쎯	-10.0549
xin쎯jian쎯	-10.0552
yu쎯zhou쎯	-10.0553
li쎯ji쎯	-10.0556
1쎯hao쎯	-10.0559
ren쎯shu쎯	-10.0563
yi쎯cheng쎯wei쎯	-10.0567
zong쎯gong쎯si쎯	-10.0567
yin쎯pin쎯	-10.0578
gai쎯jin쎯	-10.0578
jiao쎯tong쎯bian쎯	-10.0582
cong쎯shu쎯	-10.0585
gong쎯zhu쎯	-10.0588
23쎯	-10.0593
ming쎯ming쎯	-10.0594
er쎯zi쎯	-10.0595
qian쎯hou쎯	-10.0599
41	-10.0608
hu쎯xi쎯	-10.0617
xian쎯jin쎯ge쎯ren쎯	-10.0619
tu쎯an쎯	-10.0624
nong쎯zuo쎯wu쎯。쎯	-10.0632
,4	-10.0634
qi쎯fu쎯	-10.0636
fu쎯yi쎯	-10.0638
da쎯di쎯	-10.0639
fen쎯pei쎯	-10.0642
ye쎯。쎯	-10.0642
shi쎯ke쎯	-10.0646
liang쎯da쎯	-10.0653
。쎯ben쎯	-10.0653
zhu쎯you쎯	-10.0658
gai쎯shu쎯	-10.0661
da쎯qiao쎯	-10.0665
gou쎯tong쎯	-10.0672
51	-10.0674
2012쎯nian쎯	-10.0674
,쎯zong쎯	-10.0675
qi쎯jian쎯,쎯	-10.0676
de쎯da쎯xing쎯	-10.0677
zhan쎯xian쎯	-10.068
guan쎯jie쎯	-10.0684
yi쎯cheng쎯	-10.0684
chu쎯lai쎯	-10.0697
jiao쎯da쎯	-10.0698
,쎯jing쎯guo쎯	-10.0703
lao쎯dong쎯li쎯	-10.0704
gong쎯ye쎯da쎯xue쎯	-10.0714
cai쎯zhi쎯	-10.072
qu쎯chu쎯	-10.072
fa쎯dong쎯ji쎯	-10.0722
mo쎯fa쎯	-10.0722
you쎯xie쎯	-10.0723
zuo쎯ye쎯	-10.0729
gan쎯shi쎯	-10.073
cheng쎯du쎯shi쎯	-10.0731
dang쎯nian쎯	-10.0733
jin쎯nian쎯	-10.0735
,쎯li쎯	-10.0743
che쎯jian쎯	-10.0748
,쎯di쎯chu쎯	-10.0756
xun쎯zhao쎯	-10.076
meng쎯gu쎯	-10.0766
zhan쎯kai쎯	-10.0768
chun쎯qiu쎯	-10.0772
zhang쎯、쎯	-10.0781
1979쎯nian쎯	-10.0786
gao쎯dang쎯	-10.0793
mei쎯shi쎯	-10.0797
nian쎯du쎯	-10.0798
bu쎯zai쎯	-10.0798
dong쎯man쎯	-10.081
luo쎯ma쎯	-10.0811
duo쎯nian쎯lai쎯	-10.0814
qi쎯zi쎯	-10.082
ran쎯hou쎯	-10.082
he쎯qi쎯ta쎯	-10.082
ying쎯gai쎯	-10.0821
,쎯ceng쎯ren쎯	-10.0824
zhuan쎯zhi쎯	-10.0826
shang쎯wang쎯	-10.0833
fu쎯shu쎯	-10.0834
.9	-10.0837
shi쎯san쎯	-10.0838
jin쎯nian쎯lai쎯	-10.0839
gao쎯ke쎯ji쎯	-10.0846
da쎯kai쎯	-10.0851
、쎯fu쎯	-10.0854
xiao쎯yi쎯	-10.0857
fu쎯hui쎯zhang쎯	-10.0861
feng쎯jing쎯qu쎯	-10.0862
jiao쎯yan쎯shi쎯	-10.0867
()、쎯	-10.0872
he쎯she쎯hui쎯	-10.0873
ti쎯xian쎯	-10.0878
guang쎯bo쎯dian쎯	-10.088
yi쎯si쎯	-10.0882
gui쎯ze쎯	-10.0883
duo쎯wei쎯	-10.0884
ge쎯ti쎯	-10.0886
63	-10.0887
di쎯tie쎯	-10.0888
tong쎯hua쎯	-10.089
wei쎯bo쎯	-10.0895
ke쎯xue쎯yan쎯jiu쎯	-10.0907
▁4.쎯	-10.0909
kun쎯chong쎯	-10.0909
ge쎯jiao쎯xue쎯ban쎯	-10.0909
zhi쎯jiao쎯	-10.0925
yi쎯chuan쎯	-10.0926
chu쎯tu쎯	-10.0926
dang쎯zu쎯shu쎯ji쎯	-10.0931
bu쎯yao쎯	-10.0939
”쎯he쎯“쎯	-10.0944
。”《쎯	-10.0944
gong쎯xiao쎯	-10.0946
ban쎯yun쎯	-10.0948
mu쎯zhi쎯	-10.0952
xiang쎯mu쎯di쎯	-10.0953
xi쎯,쎯	-10.0954
cun쎯、쎯	-10.0955
guo쎯fang쎯	-10.0959
67	-10.0966
xia쎯you쎯	-10.0968
82	-10.097
de쎯ying쎯xiang쎯	-10.0972
zhong쎯ji쎯	-10.0978
zhong쎯lei쎯	-10.0987
qu쎯dao쎯	-10.0991
shen쎯du쎯	-10.0992
shu쎯·쎯	-10.0993
de쎯sheng쎯chan쎯	-10.0994
nian쎯dai쎯	-10.0997
tu쎯xing쎯	-10.0999
hang쎯ye쎯de쎯	-10.1001
hua쎯de쎯	-10.1007
duo쎯nian쎯de쎯	-10.1008
zhong쎯wen쎯xi쎯	-10.1009
95	-10.1016
cun쎯,쎯	-10.1018
zhuan쎯xie쎯	-10.1022
,쎯nan쎯,쎯han쎯zu쎯,	-10.1023
chuang쎯ban쎯yu쎯	-10.1024
li쎯ya쎯	-10.1027
huo쎯li쎯	-10.103
shui쎯mian쎯	-10.1031
1980쎯nian쎯	-10.1033
800	-10.1035
ci쎯shu쎯	-10.1037
shi쎯ta쎯	-10.1041
nong쎯zuo쎯wu쎯	-10.1045
de쎯gu쎯shi쎯	-10.1053
hua쎯zhong쎯	-10.1054
chang쎯jian쎯	-10.1058
ji쎯ju쎯	-10.1059
wu쎯han쎯shi쎯	-10.1063
zhan쎯yi쎯	-10.1064
cheng쎯li쎯yi쎯lai쎯	-10.1065
zhao쎯dao쎯	-10.1071
hai쎯ba쎯	-10.1077
hua쎯,쎯	-10.108
xi쎯jie쎯	-10.1081
nan쎯zi쎯	-10.1081
jia쎯,쎯	-10.1087
shou쎯jia쎯	-10.1091
li쎯mian쎯	-10.1092
bi쎯yu쎯	-10.1093
jian쎯xiao쎯	-10.1094
ceng쎯zai쎯	-10.1095
fan쎯dian쎯	-10.1096
ling쎯yi쎯	-10.1097
chuang쎯shi쎯ren쎯	-10.1098
zhen쎯zheng쎯fu쎯	-10.1103
yi쎯shou쎯	-10.1105
ce쎯ding쎯	-10.1107
tiao쎯zhan쎯	-10.1112
liu쎯xue쎯	-10.1113
0.1	-10.1113
zong쎯shu쎯	-10.1116
》、《쎯zhong쎯guo쎯	-10.1118
jiao쎯jie쎯	-10.1119
du쎯te쎯	-10.1119
fu쎯ren쎯	-10.1121
guan쎯、쎯	-10.1123
tiao쎯li쎯	-10.1124
,1	-10.1129
pu쎯bian쎯	-10.113
zhun쎯que쎯	-10.1132
yi쎯nan쎯	-10.1132
guang쎯xue쎯	-10.1138
sui쎯ji쎯	-10.114
di쎯ren쎯	-10.1141
lan쎯se쎯	-10.1145
fei쎯xing쎯	-10.1149
ye쎯ya쎯	-10.1151
ding쎯zhi쎯	-10.1151
xiang쎯si쎯	-10.1151
shi쎯hua쎯	-10.1155
。쎯hou쎯	-10.1157
bian쎯de쎯	-10.1158
luo쎯ji쎯	-10.1158
yi쎯dian쎯	-10.1165
tong쎯bu쎯	-10.1166
he쎯lan쎯	-10.1166
ji쎯qi쎯ta쎯	-10.1166
26쎯	-10.117
fan쎯zui쎯	-10.1171
gang쎯qin쎯	-10.1172
qi쎯ye쎯guan쎯li쎯	-10.1175
gu쎯dian쎯	-10.118
tuo쎯zhan쎯	-10.118
n쎯jie쎯fang쎯jun쎯	-10.1181
0-	-10.1189
ji쎯zong쎯shou쎯ru쎯	-10.1191
,쎯nan쎯,	-10.1196
nei쎯wai쎯	-10.1198
79	-10.12
bai쎯yu쎯	-10.1202
59	-10.1208
qian쎯li쎯	-10.1208
wu쎯zhuang쎯	-10.1212
de쎯zuo쎯yong쎯	-10.1215
7쎯yue쎯can쎯jia쎯	-10.1216
mi쎯shu쎯zhang쎯	-10.1217
150쎯	-10.1219
shu쎯mu쎯	-10.1223
,쎯chu쎯	-10.1223
cun쎯ren쎯	-10.1236
huo쎯dong쎯,쎯	-10.1237
mo쎯kuai쎯	-10.1242
cheng쎯yu쎯	-10.1244
zai쎯《쎯	-10.1244
hui쎯:“쎯	-10.1246
gui쎯dao쎯	-10.1248
jia쎯ji쎯	-10.1255
guo쎯qu쎯	-10.1256
kong쎯jun쎯	-10.1261
ke쎯gong쎯	-10.1262
1978쎯nian쎯	-10.1264
mi쎯ma쎯	-10.1269
he쎯xian쎯	-10.127
bai쎯tang쎯	-10.127
6-	-10.1272
,쎯jiao쎯tong쎯	-10.1273
jing쎯sai쎯	-10.1276
liang쎯ci쎯	-10.1277
ben쎯pin쎯	-10.128
、쎯yan쎯	-10.1282
yao쎯qing쎯	-10.1285
de쎯fang쎯shi쎯	-10.1294
mian쎯ji쎯2	-10.1301
da쎯qi쎯	-10.1301
,쎯da쎯	-10.1302
huo쎯wu쎯	-10.1302
xia쎯she쎯	-10.1302
wan쎯li쎯	-10.1305
zhi쎯bu쎯	-10.1305
jiu쎯zhi쎯	-10.1306
wei쎯tuo쎯	-10.1308
jie쎯shu쎯	-10.1311
jing쎯du쎯	-10.1319
zai쎯zhe쎯li쎯	-10.1321
shi쎯ci쎯	-10.1323
geng쎯duo쎯de쎯	-10.1325
▁7	-10.1328
pu쎯ji쎯	-10.1332
huo쎯xing쎯	-10.1332
yu쎯yin쎯	-10.1334
gong쎯an쎯	-10.1337
tu쎯jing쎯	-10.1337
xiang쎯shi쎯	-10.1338
gai쎯xiao쎯	-10.1338
1956쎯nian쎯	-10.1339
bei쎯cheng쎯wei쎯	-10.134
re쎯dai쎯	-10.1345
。쎯ceng쎯	-10.1345
yuan쎯jian쎯	-10.1345
fu쎯yuan쎯zhang쎯	-10.1348
yun쎯dong쎯yuan쎯	-10.1351
du쎯jia쎯	-10.1355
(191	-10.1364
de쎯dao쎯le쎯	-10.1366
qiang쎯hua쎯	-10.1368
fan쎯xue쎯yuan쎯	-10.1374
ceng쎯ci쎯	-10.1385
zai쎯quan쎯guo쎯	-10.1387
di쎯qi쎯	-10.1397
gong쎯hui쎯	-10.1401
qi쎯guan쎯	-10.1409
di쎯er쎯jie쎯	-10.1418
jie쎯dai쎯	-10.1422
jie쎯,쎯	-10.1425
shang쎯cheng쎯	-10.143
de쎯gong쎯zuo쎯	-10.1431
zhu쎯yao쎯shi쎯	-10.1435
chang쎯、쎯	-10.1445
fa쎯yuan쎯	-10.1447
7쎯ge쎯	-10.145
zi쎯li쎯	-10.1451
jie쎯jin쎯	-10.1453
..쎯	-10.1457
su쎯lian쎯	-10.1459
▁쎯ben쎯	-10.1459
tang쎯dai쎯	-10.1463
zhuan쎯yi쎯	-10.1465
±	-10.147
(190	-10.1473
fen쎯xiao쎯	-10.1474
neng쎯liang쎯	-10.148
tou쎯ming쎯	-10.1483
sheng쎯jiang쎯	-10.1485
ji쎯jian쎯	-10.1487
yan쎯jin쎯	-10.1488
dai쎯you쎯	-10.1488
,쎯ti쎯gao쎯	-10.1493
dan쎯shi쎯	-10.1494
tai쎯guo쎯	-10.1497
tian쎯jia쎯	-10.15
°C,쎯nian쎯jiang쎯	-10.1501
▁쎯gai쎯	-10.1504
。쎯li쎯ren쎯	-10.1511
。쎯wei쎯yu쎯	-10.152
wo쎯de쎯	-10.1521
guo쎯de쎯	-10.1521
,쎯xue쎯xiao쎯	-10.1523
wen쎯quan쎯	-10.1525
,쎯chang쎯	-10.1526
yan쎯shen쎯	-10.1531
120쎯	-10.1531
▁쎯zhi쎯chi쎯	-10.1538
de쎯fang쎯fa쎯	-10.1541
de쎯ying쎯yong쎯	-10.1544
,쎯duo쎯	-10.1545
shui쎯zhong쎯	-10.155
qing쎯hua쎯da쎯xue쎯	-10.155
,쎯xing쎯cheng쎯	-10.1552
fu쎯wu쎯,쎯	-10.1553
ji쎯bu쎯	-10.1555
』『쎯	-10.1557
guang쎯xian쎯	-10.1563
nong쎯min쎯ren쎯ju	-10.1567
zuo쎯yong쎯。쎯	-10.1567
yi쎯ti쎯	-10.1568
zai쎯mei쎯guo쎯	-10.1569
2.5	-10.1574
yang쎯sheng쎯	-10.1576
ban쎯dao쎯	-10.1576
bing쎯ren쎯	-10.158
400	-10.159
zu쎯cheng쎯,쎯	-10.1593
wen쎯zhou쎯	-10.1596
chang쎯wei쎯	-10.1597
77	-10.1598
chuan쎯gan쎯qi쎯	-10.1599
fang쎯yan쎯	-10.16
you쎯zhi쎯di쎯	-10.1601
dan쎯wei쎯。쎯	-10.1604
chong쎯zu쎯	-10.1607
jiu쎯ke쎯yi쎯	-10.1608
he쎯ge쎯	-10.1612
fen쎯zhong쎯	-10.1613
chu쎯lai쎯de쎯	-10.1614
zhong쎯yu쎯	-10.1617
jin쎯ji쎯	-10.1624
yu쎯ce쎯	-10.1625
-5	-10.1626
zai쎯guo쎯nei쎯	-10.1627
ping쎯guo쎯	-10.1629
ye쎯pian쎯	-10.163
kun쎯nan쎯	-10.1634
jin쎯qu쎯	-10.1636
,쎯bian쎯	-10.1639
ren쎯zhen쎯	-10.1639
1.0	-10.1645
wei쎯sheng쎯su쎯	-10.1645
chu쎯guo쎯	-10.1651
,쎯cu쎯jin쎯	-10.1652
qi쎯、쎯	-10.1652
),	-10.1653
jing쎯xuan쎯	-10.1656
shao쎯nv쎯	-10.1656
guo쎯min쎯	-10.1663
zuo쎯wu쎯	-10.1665
69	-10.1666
jing쎯tou쎯	-10.1667
liu쎯nian쎯	-10.1669
xiu쎯fu쎯	-10.1671
qu쎯wei쎯	-10.1676
xian쎯yi쎯	-10.1679
ti쎯zhi쎯	-10.168
huo쎯bi쎯	-10.1684
pai쎯lie쎯	-10.1684
wei쎯zhu쎯yao쎯	-10.1684
jin쎯hua쎯	-10.1688
geng쎯di쎯	-10.1691
jiang쎯shu쎯le쎯	-10.1692
▁쎯zhong쎯guo쎯	-10.1693
la쎯jiao쎯	-10.1697
di쎯ya쎯	-10.1699
yi쎯chu쎯	-10.1701
pei쎯bei쎯	-10.1702
jiao쎯huan쎯	-10.1703
li쎯。쎯	-10.1705
zhi쎯fang쎯	-10.1716
di쎯chan쎯	-10.1725
xue쎯jia쎯	-10.1726
,쎯dong쎯	-10.173
09	-10.1734
mu쎯。쎯	-10.1737
cheng쎯le쎯	-10.1738
guan쎯shang쎯	-10.1738
yuan쎯chuang쎯	-10.1741
de쎯jiao쎯xue쎯	-10.1746
pu쎯tao쎯	-10.1751
bu쎯shao쎯	-10.1756
-01	-10.1763
gan쎯jue쎯	-10.1764
ma쎯li쎯	-10.1764
jiao쎯hui쎯	-10.1771
guan쎯,쎯	-10.1774
fu쎯mi쎯shu쎯zhang쎯	-10.1777
01	-10.1781
ˇ	-10.1783
tan쎯tao쎯	-10.1783
hua쎯hui쎯	-10.1787
shou쎯zhi쎯	-10.1795
wei쎯chang쎯wei쎯、쎯	-10.1798
bu쎯ru쎯	-10.1798
you쎯hao쎯	-10.1801
、쎯gao쎯	-10.1801
zong쎯jie쎯	-10.1801
dao쎯shi쎯	-10.1803
xian쎯zhuang쎯	-10.1812
xi쎯tong쎯、쎯	-10.1813
you쎯le쎯	-10.1814
xin쎯hua쎯	-10.1815
guo쎯lv쎯	-10.1819
qing쎯xin쎯	-10.1819
0°C쎯	-10.1822
fa쎯gui쎯	-10.1824
xi쎯ni쎯	-10.183
shi쎯jia쎯zhuang쎯	-10.1831
de쎯da쎯	-10.1835
chu쎯chu쎯zhang쎯	-10.1842
guan쎯xia쎯	-10.1846
ye쎯ji쎯	-10.1848
han쎯jie쎯	-10.1848
hun쎯ning쎯tu쎯	-10.185
xue쎯shi쎯	-10.1853
jia쎯xiang쎯	-10.1854
yan쎯ye쎯	-10.1855
ze쎯shi쎯	-10.1856
ling쎯wai쎯	-10.1859
da쎯jiang쎯	-10.186
zhi쎯yi쎯。	-10.186
gong쎯zi쎯	-10.1863
zhou쎯qi쎯	-10.1865
ji쎯tuan쎯y	-10.1869
》쎯he쎯《쎯	-10.187
jie쎯du쎯	-10.1871
yu쎯ci쎯	-10.1871
fang쎯jian쎯	-10.1879
ti쎯cai쎯	-10.1881
diao쎯ke쎯	-10.1882
。쎯er쎯	-10.1884
mo쎯te쎯	-10.1885
、쎯bai쎯	-10.1889
shi쎯jiao쎯	-10.1891
wo쎯shi쎯	-10.1893
da쎯cheng쎯	-10.1894
jiao쎯zhi쎯	-10.1895
yu쎯zhi쎯	-10.1897
zhong쎯guo쎯da쎯lu쎯	-10.1899
1981쎯nian쎯	-10.1902
guan쎯li쎯ti쎯xi쎯	-10.1908
bu쎯dao쎯	-10.1912
yi쎯ran쎯	-10.1914
08	-10.1914
bao쎯zhi쎯	-10.1915
wai쎯guo쎯	-10.1917
yi쎯suo쎯	-10.1927
yin쎯qi쎯de쎯	-10.1937
tai쎯ping쎯	-10.1939
xin쎯xian쎯	-10.194
bai쎯xing쎯	-10.194
zong쎯shi쎯	-10.1948
▁(	-10.1948
8-	-10.1949
ling쎯huo쎯	-10.195
sao쎯miao쎯	-10.195
deng쎯deng쎯	-10.1951
ban쎯,쎯	-10.1956
xi쎯yin쎯	-10.1961
geng쎯shi쎯	-10.1961
ma쎯tou쎯	-10.1963
bi쎯hua쎯	-10.1964
hua쎯sheng쎯	-10.1987
jin쎯tian쎯	-10.199
▁쎯ta쎯	-10.199
zhen쎯zhi쎯	-10.1991
feng쎯qing쎯	-10.1994
mei쎯tian쎯	-10.1998
de쎯she쎯ji쎯	-10.1999
shou쎯ru쎯zhu쎯yao쎯	-10.2001
lan쎯mu쎯	-10.2003
4.	-10.2003
\	-10.2004
ping쎯lun쎯	-10.2009
ping쎯fang쎯	-10.2009
da쎯yue쎯	-10.201
,쎯ni쎯	-10.2011
xiao쎯xi쎯	-10.2012
xiang쎯xin쎯	-10.2014
li쎯jing쎯	-10.2015
shen쎯fen쎯	-10.2018
shou쎯xi쎯	-10.2018
chong쎯jian쎯	-10.2019
27쎯	-10.202
qi쎯ye쎯de쎯	-10.202
fu쎯ke쎯	-10.2026
yi쎯ding쎯de쎯	-10.2027
yi쎯wai쎯	-10.203
,쎯nv쎯,쎯	-10.2034
36쎯	-10.2035
1.	-10.2037
liu쎯tong쎯	-10.2042
yi쎯wen쎯	-10.2043
feng쎯fu쎯,쎯	-10.2043
xiao쎯mai쎯	-10.2044
fan쎯wei쎯nei쎯	-10.2049
shou쎯fu쎯	-10.2054
xing쎯qi쎯	-10.2055
lao쎯ren쎯	-10.2056
1949쎯nian쎯	-10.2056
10000801);});쎯	-10.2059
fa쎯men쎯	-10.2059
,쎯zhe쎯shi쎯	-10.2059
jing쎯zheng쎯li쎯	-10.2062
bu쎯xing쎯	-10.2063
dong쎯shi쎯	-10.2064
3.	-10.2064
,쎯nai쎯	-10.2065
dui쎯fang쎯	-10.2066
tao쎯lun쎯	-10.2066
sou쎯suo쎯	-10.2068
xu쎯ni쎯	-10.2068
nan쎯xing쎯	-10.207
3000쎯	-10.2077
kuai쎯jie쎯	-10.2078
le쎯yi쎯	-10.2079
yi쎯ren쎯wei쎯ben쎯	-10.2081
qu쎯。쎯	-10.2082
,5	-10.2085
xue쎯guan쎯	-10.2089
lei쎯ji쎯	-10.2093
bi쎯ye쎯hou쎯	-10.2096
zhi쎯bei쎯	-10.2104
man쎯xing쎯	-10.2106
,쎯shi쎯zhi쎯	-10.2107
zhong쎯nan쎯	-10.2108
7-	-10.2111
zhuan쎯zhu쎯yu쎯	-10.2112
zhi쎯ze쎯	-10.2113
ke쎯wei쎯	-10.2116
cheng쎯xing쎯	-10.2118
you쎯ke쎯	-10.2125
ruo쎯gan쎯	-10.2129
zhong쎯shu쎯	-10.213
you쎯xiu쎯jiao쎯	-10.213
xia쎯shu쎯	-10.2131
gong쎯qing쎯	-10.2133
duo쎯shu쎯	-10.2134
kang쎯fu쎯	-10.2136
jin쎯chu쎯kou쎯	-10.2137
jiang쎯shu쎯	-10.2137
de쎯ge쎯zhong쎯	-10.2139
yuan쎯you쎯	-10.2139
fa쎯dian쎯	-10.2143
you쎯jian쎯	-10.2144
cai쎯jing쎯	-10.2148
yan쎯an쎯	-10.215
、쎯xi쎯	-10.215
ren쎯ke쎯	-10.2151
kun쎯ming쎯	-10.2154
hao쎯,쎯	-10.2154
tong쎯yang쎯	-10.2155
jia쎯shi쎯	-10.2158
0.2	-10.2159
jia쎯zhang쎯	-10.2159
jiang쎯qi쎯	-10.2163
bu쎯de쎯	-10.2164
dian쎯lan쎯	-10.2165
wei쎯zhong쎯guo쎯	-10.2169
ming쎯que쎯	-10.2169
de쎯xing쎯shi쎯	-10.2171
bao쎯wei쎯	-10.218
yu쎯lei쎯	-10.2186
xin쎯cheng쎯	-10.2189
xian쎯feng쎯	-10.2194
yue쎯nan쎯	-10.2199
yu쎯yi쎯	-10.2201
gong쎯guan쎯	-10.221
ji쎯hua쎯sheng쎯yu쎯	-10.2213
,쎯te쎯bie쎯shi쎯	-10.2214
chang쎯chang쎯	-10.2215
,쎯shen쎯	-10.2219
fen쎯xiang쎯	-10.2219
gu쎯ding쎯zi쎯chan쎯	-10.2222
1963쎯nian쎯	-10.2228
dang쎯qian쎯	-10.2231
zhu쎯shu쎯	-10.2233
qiu쎯dui쎯	-10.2234
hou쎯ren쎯	-10.2235
che쎯cheng쎯	-10.2237
(2	-10.2244
tong쎯cheng쎯	-10.225
xi쎯ai쎯	-10.2255
ji쎯hu쎯	-10.2257
a쎯er쎯	-10.2258
wu쎯xi쎯	-10.226
fu쎯wu쎯zhong쎯xin쎯	-10.2262
hen쎯da쎯	-10.2264
ji쎯shen쎯	-10.2268
cha쎯yi쎯	-10.227
jing쎯ji쎯guan쎯li쎯	-10.2271
mei쎯tan쎯	-10.2272
(18	-10.2272
di쎯yi쎯jie쎯	-10.2274
ta쎯zai쎯	-10.228
1964쎯nian쎯	-10.2282
xian쎯shi쎯ping쎯	-10.2284
fang쎯hu쎯	-10.2286
fu쎯zhu쎯ren쎯、쎯	-10.229
xing쎯ge쎯	-10.2293
mian쎯fen쎯	-10.2297
cheng쎯ban쎯	-10.2297
bei쎯mian쎯	-10.2307
si쎯ma쎯	-10.2309
tai쎯ping쎯yang쎯	-10.231
duan쎯,쎯	-10.2311
yi쎯jie쎯	-10.2312
liao쎯jiu쎯	-10.2314
pei쎯yu쎯	-10.2317
1000	-10.232
jia쎯shang쎯	-10.2322
sheng쎯wu쎯xue쎯	-10.2323
quan쎯guo쎯ge쎯di쎯	-10.2325
64쎯	-10.2325
wu쎯xing쎯	-10.2327
yuan쎯xian쎯	-10.2333
re쎯qing쎯	-10.2333
hui쎯dao쎯	-10.2335
wu쎯pin쎯	-10.2336
guo쎯wang쎯	-10.2342
wei쎯fu쎯shu쎯ji쎯	-10.2345
yuan쎯yi쎯	-10.2347
xuan쎯zhuan쎯	-10.2348
shi쎯fang쎯	-10.235
zhong쎯zhuan쎯	-10.2353
。쎯ta쎯men쎯	-10.2361
dong쎯guan쎯	-10.2363
guo쎯zhong쎯	-10.2366
94	-10.2381
wu쎯ye쎯	-10.2382
shi쎯ming쎯	-10.2386
shui쎯guo쎯	-10.2386
jie쎯fang쎯jun쎯	-10.2387
zu쎯zi쎯zhi쎯xian쎯	-10.239
sun쎯shi쎯	-10.2395
qian쎯jin쎯	-10.2398
sheng쎯dao쎯	-10.2402
mei쎯hua쎯	-10.2406
xiu쎯gai쎯	-10.2407
luo쎯shi쎯	-10.2413
mei쎯yi쎯ge쎯	-10.2413
guang쎯hua쎯	-10.2414
87	-10.2414
wang쎯wang쎯	-10.2416
ge쎯li쎯	-10.2416
dao쎯da쎯	-10.2418
luo쎯yang쎯	-10.2421
5쎯fen쎯zhong쎯	-10.2423
li쎯zu쎯	-10.2426
ren쎯yi쎯	-10.2429
gong쎯yi쎯mei쎯shu쎯	-10.2432
dian쎯,쎯	-10.2437
zhu쎯su쎯	-10.2439
:쎯zhi쎯chi쎯	-10.2439
。쎯xian쎯wei쎯	-10.2439
gai쎯cun쎯	-10.2442
xin쎯ying쎯	-10.2443
ding쎯ji쎯	-10.2446
2000	-10.245
qian쎯zhi쎯	-10.2453
ou쎯mei쎯	-10.2455
san쎯xing쎯	-10.2456
zhi쎯xia쎯	-10.2457
di쎯san쎯jie쎯	-10.2461
gan쎯shou쎯	-10.2461
guo쎯du쎯	-10.2462
yang쎯zhou쎯	-10.2463
quan쎯shu쎯	-10.2464
shang쎯mao쎯	-10.2464
10쎯fen쎯zhong쎯	-10.2464
ran쎯liao쎯	-10.2466
×2	-10.2471
ying쎯jian쎯	-10.2476
hou쎯zai쎯	-10.2477
xiu쎯jian쎯	-10.2478
qing쎯gan쎯	-10.2482
qing쎯chao쎯	-10.2486
mi쎯qie쎯	-10.2487
gong쎯xue쎯yuan쎯	-10.2487
bian쎯ju쎯	-10.2501
li쎯、쎯	-10.2503
bu쎯zhang쎯	-10.2509
33쎯	-10.2511
you쎯xiu쎯de쎯	-10.2513
shang쎯bu쎯	-10.2513
quan쎯ti쎯	-10.2514
gong쎯jian쎯	-10.2515
er쎯·쎯	-10.2519
xiang쎯tong쎯	-10.2519
ming쎯jia쎯	-10.2523
48쎯	-10.2526
xing쎯jian쎯	-10.253
zai쎯zhi쎯	-10.2532
tu쎯liao쎯	-10.2535
jian쎯guan쎯	-10.2536
he쎯se쎯	-10.2538
》쎯zhong쎯de쎯	-10.2541
_	-10.2543
xia쎯de쎯	-10.2543
yi쎯pi쎯	-10.2545
qing쎯bao쎯	-10.2547
-6	-10.2549
,쎯bu쎯duan쎯	-10.2549
chuan쎯di쎯	-10.2549
feng쎯huang쎯	-10.2551
jian쎯guo쎯	-10.2551
」	-10.2553
、쎯da쎯	-10.2554
shi쎯jiu쎯	-10.2558
shi쎯zu쎯	-10.2558
xiao쎯zu쎯	-10.2562
”“쎯	-10.2563
xi쎯shi쎯	-10.2563
da쎯jiu쎯dian쎯	-10.2564
。쎯xian쎯you쎯	-10.2564
huo쎯shan쎯	-10.2571
qian쎯wang쎯	-10.2572
zhe쎯bu쎯	-10.2575
ming쎯zhu쎯	-10.258
|	-10.2581
yuan쎯yuan쎯zhang쎯	-10.2585
fa쎯shi쎯	-10.2586
0～	-10.2588
ke쎯zuo쎯	-10.2592
qi쎯wei쎯	-10.2593
zuo쎯dao쎯	-10.2595
zai쎯yi쎯qi쎯	-10.2597
yi쎯biao쎯	-10.2598
8쎯yue쎯can쎯jia쎯	-10.261
shen쎯mi쎯	-10.2612
shu쎯biao쎯	-10.2614
,쎯gao쎯	-10.2618
ping쎯shen쎯	-10.262
si쎯·쎯	-10.2623
,쎯nian쎯	-10.2624
wei쎯fu쎯shu쎯ji쎯、쎯	-10.2624
ping쎯xian쎯	-10.2627
nv쎯ren쎯	-10.2627
61	-10.2627
zhu쎯yao쎯yan쎯jiu쎯	-10.2627
,쎯jiu쎯shi쎯	-10.2631
de쎯zong쎯he쎯xing쎯	-10.2638
dang쎯zhi쎯bu쎯	-10.2643
kan쎯wu쎯	-10.2648
lun쎯dun쎯	-10.2649
meng쎯xiang쎯	-10.2651
fa쎯chu쎯	-10.2652
gong쎯ying쎯shang쎯	-10.2658
yi쎯hui쎯	-10.2658
liu쎯chuan쎯	-10.266
74	-10.2663
qian쎯shen쎯shi쎯	-10.2671
qu쎯xian쎯	-10.2671
mian쎯ji쎯yue쎯	-10.2672
ju쎯bu쎯	-10.268
fu쎯,쎯	-10.2681
xie쎯hui쎯li쎯shi쎯	-10.2684
,쎯shi쎯xian쎯	-10.2684
°C	-10.2685
shui쎯liang쎯	-10.2685
jue쎯dui쎯	-10.2686
ban쎯kuai쎯	-10.2693
zhong쎯xiao쎯xue쎯	-10.2694
chang쎯he쎯	-10.2697
84	-10.2703
05	-10.2705
ji쎯·쎯	-10.2711
2쎯nian쎯	-10.2712
shui쎯jing쎯	-10.2713
sheng쎯huo쎯de쎯	-10.2719
hu쎯xiang쎯	-10.2719
shi쎯zhong쎯xin쎯	-10.2719
bo쎯shi쎯hou쎯	-10.2719
qi쎯ren쎯	-10.2723
shao쎯shu쎯min쎯zu쎯	-10.2725
ban쎯zhu쎯ren쎯	-10.2732
chuan쎯yue쎯	-10.2734
jiao쎯cha쎯	-10.2737
shang쎯fa쎯biao쎯	-10.2743
zhi쎯nan쎯	-10.2744
1쎯xiang쎯	-10.2748
hui쎯hui쎯yuan쎯、쎯	-10.2748
ka쎯fei쎯	-10.2754
ji쎯shu쎯、쎯	-10.2755
you쎯ci쎯	-10.2755
93	-10.2757
jing쎯jie쎯	-10.276
nan쎯nv쎯	-10.2763
06	-10.2763
chan쎯yu쎯	-10.2769
yi쎯fen쎯	-10.2775
zhong쎯xi쎯yi쎯jie쎯	-10.2776
mi쎯mi쎯	-10.2777
ying쎯ye쎯	-10.2778
▁쎯chu쎯ban쎯	-10.2778
,쎯tong쎯nian쎯	-10.2779
,쎯qian쎯	-10.2783
zu쎯cheng쎯。쎯	-10.28
quan쎯ri쎯zhi쎯	-10.2802
fu쎯bu쎯	-10.2803
de쎯wen쎯ti쎯	-10.2804
ji쎯sheng쎯	-10.2805
ping쎯mu쎯chi쎯cun쎯	-10.2807
tai쎯zi쎯	-10.2815
yin쎯xing쎯	-10.2818
2013쎯nian쎯	-10.282
yuan쎯zhang쎯	-10.2825
mai쎯ke쎯feng쎯	-10.2825
▁쎯xue쎯xiao쎯	-10.2831
jing쎯cha쎯	-10.2836
yan쎯zheng쎯	-10.2839
ban쎯de쎯	-10.2839
,쎯ta쎯de쎯	-10.2841
lian쎯hua쎯	-10.2843
da쎯zhan쎯	-10.2852
deng쎯ling쎯yu쎯	-10.2853
di쎯ceng쎯	-10.2855
ao쎯yun쎯hui쎯	-10.2857
xiang쎯wei쎯	-10.2859
zhao쎯pin쎯	-10.2862
5000쎯	-10.2863
bao쎯kan쎯	-10.2865
,쎯nan쎯,쎯han쎯zu쎯	-10.2867
she쎯bei쎯,쎯	-10.2867
bie쎯ren쎯	-10.2869
jing쎯shi쎯	-10.2874
5%	-10.2875
“”쎯	-10.2876
(쎯ru쎯	-10.2877
00	-10.2878
di쎯ba쎯	-10.2878
you쎯yong쎯	-10.2881
zong쎯ren쎯kou쎯	-10.2882
li쎯shui쎯	-10.2884
ke쎯ji쎯cheng쎯guo쎯	-10.2885
de쎯li쎯xiang쎯	-10.2886
bi쎯ji쎯ben쎯	-10.2886
wei쎯rao쎯	-10.2889
di쎯li쎯wei쎯zhi쎯	-10.2889
guan쎯ce쎯	-10.2891
sheng쎯yin쎯	-10.2893
mao쎯ze쎯dong쎯	-10.2902
,쎯shi쎯zhong쎯guo쎯	-10.2902
teng쎯tong쎯	-10.2908
cong쎯shi쎯di쎯yi쎯	-10.291
zhu쎯cheng쎯	-10.2915
ren쎯da쎯dai쎯biao쎯	-10.2916
gong쎯zuo쎯shi쎯	-10.2918
da쎯yu쎯	-10.2919
jian쎯cha쎯yuan쎯	-10.2921
bao쎯zi쎯	-10.2922
ge쎯ji쎯	-10.2928
bao쎯jing쎯	-10.2929
#	-10.2929
kai쎯fa쎯de쎯	-10.2931
,쎯shi쎯yi쎯jia쎯	-10.2936
zhi쎯shi쎯,쎯	-10.2944
bian쎯bu쎯	-10.2945
wo쎯gong쎯si쎯	-10.2945
dai쎯ling쎯	-10.2949
ti쎯shi쎯	-10.2956
。쎯ta쎯shi쎯	-10.2956
ying쎯hua쎯	-10.2959
ju쎯tuan쎯	-10.2959
xian쎯jing쎯	-10.2961
suo쎯xie쎯	-10.2961
huang쎯jia쎯	-10.2961
83	-10.2965
guan쎯fang쎯	-10.2966
de쎯hua쎯	-10.2969
89	-10.297
jia쎯meng쎯	-10.2973
▁쎯dian쎯yuan쎯	-10.2975
cong쎯er쎯	-10.2976
hu쎯xing쎯	-10.2982
fa쎯,쎯	-10.2984
san쎯wei쎯	-10.2987
shun쎯li쎯	-10.2989
zai쎯yu쎯	-10.2992
ao쎯men쎯	-10.2995
29쎯	-10.2997
chan쎯ye쎯ren쎯shu쎯	-10.2998
si쎯lu쎯	-10.2998
,쎯hai쎯you쎯	-10.3001
bao쎯》쎯	-10.3002
ti쎯zhong쎯	-10.3002
xiao쎯yu쎯	-10.3003
,쎯xiao쎯	-10.3004
nan쎯han쎯zu쎯	-10.3008
wei쎯xiao쎯	-10.301
ju쎯、쎯	-10.301
,쎯zhi쎯chi쎯	-10.3012
wan쎯cheng쎯le쎯	-10.3013
shuang쎯fang쎯	-10.3013
“쎯san쎯	-10.3014
10-	-10.3017
ting쎯、쎯	-10.3017
qiu쎯shi쎯	-10.3025
pai쎯chu쎯	-10.3026
ke쎯ke쎯zhang쎯	-10.3027
xiang쎯yu쎯	-10.3029
kou쎯qiang쎯	-10.3038
fen쎯bu쎯zai쎯	-10.3038
xiang쎯guan쎯de쎯	-10.3043
fu쎯wu쎯de쎯	-10.3046
ning쎯xia쎯	-10.3049
ye쎯bu쎯	-10.305
jiang쎯xiang쎯	-10.3053
shang쎯jia쎯	-10.3057
kuang쎯wu쎯	-10.3059
wan쎯yuan쎯	-10.306
jiao쎯lian쎯	-10.3061
ji쎯hui쎯	-10.3061
gao쎯ceng쎯	-10.3065
ke쎯xue쎯ji쎯jin쎯	-10.3066
xiang쎯lian쎯	-10.3072
cheng쎯de쎯	-10.3073
dou쎯hui쎯	-10.3073
gang쎯kou쎯	-10.3074
lao쎯dong쎯mo쎯fan쎯	-10.3077
zong쎯dui쎯	-10.3077
qi쎯quan쎯	-10.3078
wan쎯zheng쎯de쎯	-10.308
nong쎯du쎯	-10.3082
er쎯qi쎯	-10.3082
cha쎯xun쎯	-10.3083
jiang쎯xian쎯	-10.3084
nong쎯hu쎯	-10.3084
ba쎯xi쎯	-10.3085
jiao쎯yan쎯	-10.3094
》。	-10.3096
feng쎯shan쎯	-10.3098
bu쎯yu쎯	-10.3098
ting쎯zhi쎯	-10.3099
yue쎯:“쎯	-10.31
di쎯guo쎯	-10.3101
te쎯zhong쎯	-10.3106
xuan쎯bu쎯	-10.3107
xi쎯la쎯	-10.3109
zhi쎯jia쎯	-10.3112
yi쎯tong쎯	-10.3114
leng쎯que쎯	-10.3115
bing쎯li쎯	-10.3115
lan쎯zhou쎯	-10.3116
hang쎯tian쎯	-10.312
liao쎯xiao쎯	-10.312
nai쎯zhi쎯	-10.3121
nin쎯de쎯	-10.3121
li쎯dai쎯	-10.3124
lai쎯dao쎯	-10.3124
fang쎯shui쎯	-10.3125
xue쎯zhuan쎯ye쎯	-10.3127
zhi쎯guan쎯	-10.313
xiang쎯qi쎯	-10.313
dui쎯zhang쎯	-10.3131
yuan쎯zhu쎯	-10.3131
zhuan쎯ye쎯bi쎯ye쎯	-10.3132
si쎯liao쎯	-10.3134
fang쎯yu쎯	-10.3134
fa쎯dong쎯	-10.3135
san쎯jiao쎯	-10.3138
shui쎯wu쎯	-10.314
):	-10.314
hui쎯huang쎯	-10.3142
ding쎯dian쎯	-10.315
suo쎯zhi쎯	-10.316
qiang쎯diao쎯	-10.3161
。쎯zhe쎯zhong쎯	-10.3161
guan쎯yuan쎯	-10.3165
...쎯	-10.3165
1962쎯nian쎯	-10.3165
san쎯zhong쎯	-10.3178
cao쎯yuan쎯	-10.318
ren쎯min쎯bi쎯	-10.3182
nan쎯yi쎯	-10.3182
qun쎯dao쎯	-10.3182
쎯ren쎯qi쎯zhong쎯	-10.3183
ren쎯min쎯fa쎯yuan쎯	-10.3187
xuan쎯chuan쎯bu쎯	-10.3187
02	-10.3188
1970쎯nian쎯	-10.3188
jin쎯gang쎯	-10.3189
1965쎯nian쎯	-10.3192
shi쎯min쎯	-10.3193
dan쎯sheng쎯	-10.3193
qing쎯xiang쎯	-10.3195
→	-10.3196
dian쎯xing쎯de쎯	-10.3196
tu쎯ran쎯	-10.3198
qi쎯ye쎯,쎯	-10.3202
dian쎯dong쎯	-10.3203
ke쎯pu쎯	-10.3203
zhu쎯fang쎯	-10.3204
wan쎯qu쎯	-10.3208
ー	-10.3212
ji쎯shu쎯li쎯liang쎯	-10.3217
lu쎯xian쎯	-10.3218
deng쎯zhi쎯	-10.3219
si쎯zhou쎯	-10.3219
hui쎯ji쎯	-10.3224
na쎯mi쎯	-10.3225
fa쎯qi쎯	-10.3228
zhu쎯yao쎯yong쎯yu쎯	-10.3229
hao쎯you쎯	-10.3234
gao쎯kao쎯	-10.3235
san쎯guo쎯	-10.3239
dong쎯nan쎯ya쎯	-10.3242
zhan쎯,쎯	-10.3243
yuan쎯lai쎯	-10.3244
nei쎯han쎯	-10.3244
ping쎯fang쎯mi쎯。쎯	-10.3251
hui쎯se쎯	-10.3251
gong쎯zhong쎯	-10.3252
쎯gong쎯jin쎯	-10.3254
shang쎯chang쎯	-10.3257
bo쎯luo쎯	-10.3258
ke쎯yan쎯xiang쎯mu쎯	-10.3258
。쎯ta쎯de쎯	-10.3259
shui쎯shou쎯	-10.3262
mian쎯ji쎯1	-10.3262
dong쎯guan쎯shi쎯	-10.3264
1.2	-10.3268
er쎯ke쎯	-10.3268
ju쎯qing쎯	-10.3269
sheng쎯di쎯	-10.3274
(200	-10.3274
shi쎯xi쎯	-10.3275
xin쎯ji쎯shu쎯	-10.328
li쎯pin쎯	-10.3281
03	-10.3282
dian쎯xing쎯	-10.3283
ai쎯de쎯	-10.3283
ju쎯《쎯	-10.329
,쎯ru쎯guo쎯	-10.3295
tang쎯、쎯	-10.3295
zhong쎯sheng쎯	-10.3296
,쎯zui쎯hou쎯	-10.3297
de쎯guan쎯xi쎯	-10.3299
07	-10.33
xiang쎯cun쎯	-10.3307
fang쎯xing쎯	-10.331
yin쎯yong쎯	-10.3312
(쎯yuan쎯	-10.3313
ji쎯jing쎯	-10.3314
ye쎯yu쎯	-10.3317
,쎯er쎯shi쎯	-10.3318
shu쎯xie쎯	-10.3318
zui쎯hao쎯de쎯	-10.3319
yan쎯zou쎯	-10.3323
ye쎯ke쎯yi쎯	-10.3327
you쎯xiao쎯de쎯	-10.3335
te쎯bie쎯shi쎯	-10.3336
:4	-10.3338
xian쎯ka쎯	-10.3339
guan쎯nian쎯	-10.334
te쎯shu쎯jin쎯tie쎯	-10.3342
qiao쎯liang쎯	-10.3342
mei쎯kuang쎯	-10.3344
ti쎯nei쎯	-10.3348
fu쎯ju쎯zhang쎯	-10.3352
shan쎯di쎯	-10.3352
gong쎯fen쎯	-10.3358
zhu쎯dong쎯	-10.336
bu쎯shou쎯	-10.3361
jiao쎯shou쎯、쎯	-10.3364
jin쎯ri쎯	-10.3371
xin쎯qu쎯	-10.3372
xi쎯jun쎯	-10.3374
,쎯gen쎯ju쎯	-10.3375
fan쎯fu쎯	-10.3377
fen쎯jie쎯	-10.338
”(쎯	-10.3382
,쎯gong쎯you쎯	-10.3383
xuan쎯yong쎯	-10.3385
zong쎯jian쎯zhu쎯	-10.3393
feng쎯guang쎯	-10.3394
jiu쎯du쎯yu쎯	-10.3395
ji쎯jie쎯	-10.3396
chu쎯fa쎯	-10.3398
,쎯xian쎯wei쎯	-10.3404
bao쎯shi쎯	-10.3406
bei쎯song쎯	-10.3409
ling쎯xian쎯de쎯	-10.3409
zhong쎯yuan쎯	-10.3411
gong쎯he쎯guo쎯	-10.3411
gong쎯si쎯。쎯	-10.3412
ㄢ	-10.3414
ying쎯ji쎯	-10.3414
bei쎯an쎯	-10.3415
man쎯yi쎯	-10.3417
wu쎯ge쎯	-10.3418
kou쎯jing쎯	-10.3428
jin쎯gong쎯	-10.3428
song쎯dai쎯	-10.343
150	-10.343
cai쎯fu쎯	-10.3431
bei쎯wei쎯	-10.3435
shi쎯:쎯	-10.3442
que쎯shi쎯	-10.3451
ban쎯、쎯	-10.3453
hua쎯ren쎯	-10.3453
zhi쎯qi쎯	-10.3453
tui쎯xiu쎯	-10.3457
ben쎯shen쎯	-10.3467
○	-10.3475
yu쎯qi쎯ta쎯	-10.3476
ju쎯yuan쎯	-10.3478
li쎯ke쎯	-10.3481
wang쎯chao쎯	-10.3486
li쎯kai쎯	-10.3487
,쎯yi쎯zhi쎯	-10.3491
sun쎯shang쎯	-10.3492
yi쎯xi쎯lie쎯	-10.3493
chuang쎯kou쎯	-10.3502
▁·쎯	-10.3503
▁4쎯	-10.3503
92	-10.3504
zhu쎯zao쎯	-10.3504
dai쎯biao쎯zuo쎯	-10.3508
guang쎯ze쎯	-10.353
ji쎯》쎯	-10.3531
jia쎯zhuang쎯	-10.3532
er쎯ci쎯	-10.3533
wei쎯er쎯	-10.3533
chang쎯cheng쎯	-10.3538
10쎯ge쎯	-10.3538
qu쎯nei쎯	-10.3541
,쎯cai쎯yong쎯	-10.3541
luo쎯xuan쎯	-10.3546
ping쎯tai쎯,쎯	-10.3546
ming쎯yi쎯	-10.355
shi쎯sheng쎯	-10.3554
、쎯sheng쎯	-10.3555
tian쎯shi쎯	-10.3558
、쎯dian쎯zi쎯	-10.356
zhi쎯zi쎯	-10.3564
que쎯bao쎯	-10.3564
shu쎯kong쎯	-10.3565
,1984쎯nian쎯	-10.3565
fu쎯xiao쎯zhang쎯	-10.357
biao쎯zhang쎯	-10.357
hai쎯nan쎯sheng쎯	-10.3572
zhe쎯yang쎯de쎯	-10.3573
yao쎯shi쎯	-10.3574
▁3	-10.3575
wei쎯yi쎯de쎯	-10.3578
zong쎯bu쎯	-10.3578
ke쎯fu쎯	-10.358
ji쎯si쎯	-10.3582
38쎯	-10.3584
xin쎯yong쎯	-10.3589
xing쎯cheng쎯de쎯	-10.3592
xue쎯ming쎯	-10.3595
zhi쎯ye쎯ji쎯shu쎯	-10.3596
si쎯zhi쎯	-10.3596
ning쎯xian쎯	-10.3598
ben쎯ke쎯xue쎯li쎯	-10.3599
bu쎯bu쎯zhang쎯	-10.3603
zong쎯tou쎯zi쎯	-10.3603
zui쎯you쎯	-10.3604
tai쎯yuan쎯	-10.3604
duan쎯xin쎯	-10.3608
chan쎯sheng쎯de쎯	-10.3609
zhu쎯liu쎯	-10.3613
chang쎯xiao쎯	-10.3614
san쎯ji쎯	-10.3614
jiao쎯shou쎯。쎯	-10.3617
zhi쎯leng쎯	-10.3622
,쎯ta쎯shi쎯	-10.3622
ke쎯kao쎯	-10.3623
zen쎯me쎯	-10.3623
liang쎯xiang쎯	-10.3623
dian쎯ci쎯	-10.3625
na쎯me쎯	-10.3628
shui쎯fen쎯	-10.3629
xuan쎯shou쎯	-10.363
kou쎯wei쎯	-10.3632
suo쎯you쎯de쎯	-10.3632
pei쎯you쎯	-10.3633
yin쎯zi쎯	-10.3634
de쎯nei쎯rong쎯	-10.3635
1976쎯nian쎯	-10.3639
chu쎯fang쎯	-10.3641
bao쎯an쎯	-10.3643
wen쎯lian쎯	-10.3644
quan쎯xin쎯de쎯	-10.3648
mu쎯lu쎯	-10.3648
qi쎯ji쎯	-10.3649
120	-10.3654
cheng쎯li쎯le쎯	-10.3655
he쎯zuo쎯guan쎯xi쎯	-10.3655
,,	-10.3655
han쎯gai쎯	-10.3656
yi쎯kao쎯	-10.3657
duo쎯pian쎯	-10.3657
,18	-10.3657
kao쎯he쎯	-10.3661
she쎯ji쎯,쎯	-10.3662
fang쎯fu쎯	-10.3663
bu쎯chong쎯	-10.3664
gan쎯dao쎯	-10.3664
sheng쎯zheng쎯fu쎯	-10.3664
gang쎯wei쎯	-10.3667
hua쎯ban쎯	-10.3677
,쎯quan쎯	-10.3678
xin쎯yang쎯	-10.368
chang쎯an쎯	-10.3682
zhao쎯sheng쎯	-10.3682
pu쎯sa쎯	-10.3682
qi쎯yu쎯	-10.3685
bi쎯mian쎯	-10.3685
you쎯hui쎯	-10.3686
≤	-10.3687
zhuan쎯ye쎯ji쎯shu쎯	-10.3687
yan쎯bian쎯	-10.3688
yi쎯kuai쎯	-10.369
fu쎯zhu쎯xi쎯	-10.3691
zheng쎯ji쎯	-10.3699
geng쎯wei쎯	-10.3701
you쎯guan쎯bu쎯men쎯	-10.3702
hua쎯bei쎯	-10.3703
。쎯ru쎯	-10.3708
zuo쎯qu쎯	-10.3708
tai쎯shan쎯	-10.371
lian쎯bang쎯	-10.3711
shu쎯xing쎯	-10.3712
hun쎯yin쎯	-10.3712
,6	-10.3714
wang쎯guo쎯	-10.3721
hang쎯zhou쎯shi쎯	-10.3722
xiang쎯wang쎯	-10.3726
xing쎯ye쎯	-10.3727
chu쎯shen쎯	-10.3728
ti쎯chu쎯le쎯	-10.374
xiao쎯shuo쎯《쎯	-10.3742
。쎯zi쎯	-10.3743
(쎯xue쎯ming쎯:)쎯	-10.3744
bian쎯yi쎯	-10.3745
pi쎯fa쎯	-10.3748
fen쎯san쎯	-10.3749
yi쎯ben쎯	-10.3757
li쎯shi쎯you쎯jiu쎯	-10.3758
sheng쎯dao쎯shi쎯,쎯	-10.3759
tong쎯xue쎯	-10.3764
xin쎯ren쎯	-10.3768
bu쎯bian쎯	-10.3775
fa쎯、쎯	-10.3777
yi쎯yuan쎯,쎯	-10.378
》쎯za쎯zhi쎯	-10.3785
jiu쎯zai쎯	-10.3786
ying쎯zao쎯	-10.3787
zhi쎯dui쎯	-10.3792
zui쎯hao쎯	-10.3794
zhong쎯gong쎯dang쎯	-10.3794
nong쎯chan쎯pin쎯	-10.3795
si쎯kao쎯	-10.3806
zu쎯cheng쎯bu쎯fen쎯	-10.3806
wu쎯ti쎯	-10.3809
you쎯yuan쎯	-10.381
di쎯dian쎯	-10.3812
jie쎯jian쎯	-10.3818
():	-10.382
shi쎯yong쎯。쎯	-10.3825
hou쎯du쎯	-10.3828
shao쎯shu쎯	-10.3828
zhong쎯du쎯	-10.3829
sheng쎯huo쎯zhong쎯	-10.383
gu쎯ti쎯	-10.3836
yi쎯min쎯	-10.384
zhong쎯xin쎯,쎯	-10.3842
tai쎯yang쎯neng쎯	-10.3845
mou쎯yi쎯	-10.3848
si쎯ren쎯	-10.3849
bei쎯lu쎯	-10.3851
he쎯liu쎯	-10.3855
wan쎯nian쎯	-10.3856
qing쎯dao쎯shi쎯	-10.386
jia쎯yuan쎯	-10.3862
she쎯bei쎯、쎯	-10.3864
(1	-10.3866
guo쎯you쎯	-10.3866
ye쎯,쎯	-10.3869
zhu쎯shi쎯	-10.387
gong쎯yuan쎯qian쎯	-10.3871
kao쎯yan쎯	-10.3879
ju쎯wei쎯hui쎯	-10.388
yong쎯yuan쎯	-10.3884
xin쎯nong쎯cun쎯	-10.3886
zhen쎯kong쎯	-10.3886
niu쎯rou쎯	-10.3889
wei쎯yuan쎯。쎯	-10.3896
dong쎯mai쎯	-10.3898
bao쎯liu쎯	-10.3898
,쎯xian쎯zai쎯	-10.3898
xin쎯chan쎯pin쎯	-10.3901
qian쎯nian쎯	-10.3908
▁쎯zhu쎯	-10.3911
xiang쎯qian쎯	-10.3913
ke쎯xue쎯jia쎯	-10.3914
1960쎯nian쎯	-10.3914
da쎯xue쎯wen쎯hua쎯	-10.3918
fang쎯、쎯	-10.3919
zhi쎯lu쎯	-10.392
yuan쎯yu쎯	-10.3926
,쎯shen쎯zhi쎯	-10.393
gao쎯qing쎯	-10.3931
yun쎯xu쎯	-10.3933
di쎯dai쎯	-10.3934
niu쎯yue쎯	-10.3934
hai쎯an쎯	-10.3944
5쎯ke쎯	-10.3948
。쎯zhong쎯guo쎯	-10.3948
yue쎯:‘쎯	-10.395
re쎯ai쎯	-10.3952
you쎯suo쎯	-10.396
chang쎯chun쎯	-10.396
sheng쎯。쎯	-10.3963
gan쎯qing쎯	-10.3969
ai쎯guo쎯	-10.3971
fu쎯yin쎯	-10.3971
nan쎯chang쎯	-10.3977
lu쎯,쎯	-10.3977
gong쎯zuo쎯zhong쎯	-10.3978
jia쎯su쎯	-10.3979
shan쎯mai쎯	-10.3985
lu쎯yu쎯	-10.3993
zhong쎯guo쎯hua쎯	-10.4004
chu쎯xue쎯	-10.4005
fu쎯xian쎯zhang쎯	-10.4005
1975쎯nian쎯	-10.4005
。”쎯qing쎯	-10.4007
、쎯huang쎯	-10.4008
neng쎯li쎯,쎯	-10.4014
。쎯wo쎯men쎯	-10.4014
zhen쎯xi쎯	-10.402
0×	-10.402
9쎯ge쎯	-10.4022
ke쎯hu쎯de쎯	-10.4024
zui쎯chu쎯	-10.4027
shui쎯chu쎯li쎯	-10.4035
yan쎯xi쎯	-10.4042
zuo쎯you쎯,쎯	-10.4045
la쎯si쎯	-10.4045
ji쎯su쎯	-10.4048
xiong쎯hou쎯de쎯	-10.4051
di쎯wen쎯	-10.4054
xiang쎯xiang쎯	-10.4056
wen쎯ti쎯,쎯	-10.4056
yi쎯fang쎯	-10.4056
kang쎯xi쎯	-10.4057
zhi쎯bao쎯	-10.4059
ke쎯si쎯	-10.406
guo쎯shu쎯	-10.4061
,쎯shen쎯shou쎯	-10.4061
guo쎯hua쎯	-10.4062
wu쎯ren쎯	-10.4063
you쎯mo쎯	-10.4064
da쎯zhuan쎯xue쎯li쎯	-10.4067
nan쎯jing쎯shi쎯	-10.4067
jia쎯li쎯	-10.4069
rang쎯ren쎯	-10.4075
ge쎯zi쎯	-10.4077
-8	-10.4081
cun쎯zhuang쎯	-10.4082
xi쎯sheng쎯	-10.4082
hu쎯tong쎯	-10.4084
xi쎯lu쎯	-10.4084
ci쎯,쎯	-10.4084
guan쎯che쎯	-10.4085
xing쎯xing쎯	-10.4089
ri쎯qi쎯	-10.4091
suo쎯suo쎯zhang쎯	-10.4095
hou쎯wei쎯	-10.4097
da쎯lou쎯	-10.41
()。쎯	-10.4101
gong쎯si쎯,쎯	-10.4104
1950쎯nian쎯	-10.4106
guan쎯guang쎯	-10.4107
ne쎯	-10.4108
ping쎯shi쎯	-10.411
guan쎯yin쎯	-10.411
yi쎯shu쎯xue쎯yuan쎯	-10.4112
chang쎯wei쎯hui쎯	-10.4118
xi쎯xian쎯	-10.4119
mao쎯dun쎯	-10.4119
zai쎯shang쎯hai쎯	-10.4122
jiu쎯cuo쎯	-10.4128
hua쎯qiao쎯	-10.4135
ba쎯wo쎯	-10.4137
ling쎯shou쎯	-10.4137
shou쎯ming쎯	-10.4138
jiao쎯yu쎯ting쎯	-10.4138
shuai쎯xian쎯	-10.4139
shu쎯yu쎯shan쎯qu쎯	-10.414
bao쎯kuo쎯:쎯	-10.4141
,쎯chan쎯pin쎯	-10.4142
:5	-10.4142
mei쎯ci쎯	-10.4144
hu쎯shi쎯	-10.4145
yi쎯tian쎯	-10.4147
guan쎯xin쎯	-10.4163
ying쎯de쎯	-10.4163
de쎯qi쎯ye쎯	-10.4164
dao쎯dan쎯	-10.4167
hai쎯nei쎯wai쎯	-10.4167
ji쎯zhong쎯xue쎯	-10.4168
)쎯ren쎯。쎯	-10.4169
jian쎯chi쎯“쎯	-10.4173
yuan쎯wei쎯	-10.4177
2쎯hao쎯	-10.4181
1968쎯nian쎯	-10.4186
zhu쎯guan쎯bu쎯men쎯	-10.4188
ke쎯yan쎯gong쎯zuo쎯	-10.4191
1952쎯nian쎯	-10.4194
quan쎯qu쎯	-10.4199
jia쎯、쎯	-10.4199
,쎯han쎯zu쎯,쎯	-10.4201
1957쎯nian쎯	-10.4202
bu쎯guo쎯	-10.4202
hong쎯jun쎯	-10.4202
“쎯zhong쎯guo쎯	-10.4202
fan쎯rong쎯	-10.4205
,쎯zheng쎯	-10.4206
ri쎯jun쎯	-10.4208
yong쎯hu쎯ti쎯gong쎯	-10.4209
xi쎯yu쎯	-10.4211
dang쎯de쎯	-10.4216
,쎯fang쎯	-10.4216
nong쎯chang쎯	-10.4218
gu쎯gan쎯jiao쎯shi쎯	-10.4219
ming쎯zi쎯	-10.4219
si쎯tan쎯	-10.4219
na쎯ge쎯	-10.422
she쎯ding쎯	-10.4221
chang쎯jian쎯de쎯	-10.4221
chu쎯bu쎯	-10.4223
shi쎯dian쎯	-10.4228
nan쎯lu쎯	-10.4235
duo쎯shao쎯	-10.4235
xia쎯jiang쎯	-10.4236
kao쎯lv쎯	-10.4237
zhe쎯wei쎯	-10.4239
,쎯quan쎯cun쎯	-10.4245
▁*쎯	-10.4246
yu쎯xi쎯	-10.4247
chuan쎯cheng쎯	-10.4247
er쎯si쎯	-10.4252
▁5、쎯	-10.4253
zuo쎯yong쎯,쎯	-10.4256
▁:	-10.4256
ren쎯,쎯zhong쎯	-10.4258
zai쎯sheng쎯	-10.4261
yue쎯qi쎯	-10.4263
you쎯yue쎯	-10.4267
ji쎯lei쎯	-10.4268
lian쎯sai쎯	-10.427
chu쎯ren쎯	-10.427
de쎯ji쎯shu쎯	-10.4272
ban쎯gong쎯ting쎯	-10.4274
di쎯zi쎯	-10.4277
shi쎯yi쎯jia쎯ji쎯	-10.4278
tong쎯hang쎯	-10.4279
he쎯fa쎯zhan쎯	-10.4281
▁쎯chu쎯chu쎯	-10.4281
〕쎯	-10.4282
wu쎯chang쎯	-10.4285
wu쎯gong쎯	-10.4286
50쎯ke쎯	-10.4286
de쎯yi쎯si쎯	-10.4286
yin쎯fa쎯	-10.429
gong쎯du쎯	-10.4297
te쎯ding쎯	-10.4298
,쎯shi쎯yi쎯zhong쎯	-10.4299
qi쎯le쎯	-10.43
de쎯he쎯xin쎯	-10.43
▁쎯nei쎯cun쎯	-10.43
、쎯shui쎯	-10.431
nei쎯de쎯	-10.4312
jing쎯cai쎯	-10.4317
mei쎯yi쎯	-10.432
31쎯	-10.4321
1쎯ren쎯	-10.4322
dong쎯lu쎯	-10.4322
1955쎯nian쎯	-10.4322
(쎯huo쎯	-10.4327
xiang쎯gu쎯	-10.4329
xue쎯sheng쎯de쎯	-10.4333
guang쎯pan쎯	-10.4335
er쎯you쎯	-10.4337
hua쎯fen쎯	-10.4337
fu쎯hao쎯	-10.4339
75쎯	-10.4344
xiao쎯jie쎯	-10.4345
jing쎯ji쎯xiao쎯yi쎯	-10.4348
guan쎯li쎯he쎯	-10.4349
shen쎯chu쎯	-10.4349
ren쎯qun쎯	-10.435
shen쎯ding쎯	-10.4351
lu쎯、쎯	-10.4351
qian쎯yan쎯	-10.4352
:1쎯	-10.4353
128	-10.4356
diao쎯ru쎯	-10.4357
zhuang쎯da쎯	-10.4359
ming쎯pai쎯	-10.436
qi쎯dian쎯	-10.4361
guo쎯lu쎯	-10.4363
you쎯xiu쎯lun쎯wen쎯	-10.4363
gu쎯gan쎯	-10.4363
tan쎯xing쎯	-10.4367
shen쎯gao쎯	-10.4367
ya쎯suo쎯	-10.4369
dai쎯ma쎯	-10.4371
de쎯yao쎯qiu쎯	-10.4372
bian쎯shi쎯	-10.4374
쎯zhang쎯)쎯	-10.4374
bing쎯cheng쎯“쎯	-10.4375
liang쎯wei쎯	-10.4377
tui쎯chu쎯de쎯	-10.4377
fang쎯she쎯	-10.4384
lan쎯qiu쎯	-10.4395
zhang쎯。쎯	-10.4395
shi쎯liao쎯	-10.4397
fan쎯hui쎯	-10.44
qing쎯jing쎯	-10.44
li쎯run쎯	-10.4401
qi쎯dao쎯	-10.4403
tuo쎯yuan쎯xing쎯	-10.4404
hu쎯wai쎯	-10.4404
sheng쎯wei쎯	-10.4406
fan쎯xue쎯xiao쎯	-10.4407
wen쎯hua쎯yi쎯shu쎯	-10.4409
-7	-10.4414
di쎯shang쎯	-10.4416
(3	-10.4418
zheng쎯xing쎯	-10.4419
li쎯he쎯	-10.442
ji쎯shu쎯,쎯	-10.4421
di쎯er쎯ci쎯	-10.4423
.3	-10.4427
kuang쎯shan쎯	-10.4429
deng쎯hang쎯ye쎯	-10.443
qu쎯bie쎯	-10.4432
shen쎯pi쎯	-10.4434
shen쎯de쎯	-10.4437
zi쎯mu쎯	-10.4438
fa쎯lv쎯fa쎯gui쎯	-10.4439
,쎯zong쎯ren쎯kou쎯	-10.4439
da쎯tong쎯	-10.4446
rong쎯ji쎯	-10.4449
mo쎯fan쎯	-10.4449
zhong쎯qi쎯	-10.4454
mian쎯ji쎯3	-10.4455
,쎯zhe쎯zhong쎯	-10.4456
huang쎯shan쎯	-10.4458
chang쎯di쎯	-10.4461
zen쎯yang쎯	-10.4462
wen쎯,쎯	-10.4462
qu쎯zheng쎯fu쎯	-10.4464
34쎯	-10.4468
10쎯ke쎯	-10.4468
bei쎯yong쎯	-10.4468
jiang쎯jie쎯	-10.4468
bai쎯yun쎯	-10.4472
shan쎯po쎯	-10.4473
ke쎯guan쎯	-10.4473
。쎯xian쎯hou쎯	-10.4476
xia쎯xia쎯	-10.4477
chang쎯,쎯	-10.4478
ting쎯che쎯chang쎯	-10.4479
zu쎯ji쎯	-10.4482
cun쎯wei쎯hui쎯,쎯s	-10.4484
ye쎯ke쎯	-10.4487
di쎯1쎯	-10.4488
lang쎯man쎯	-10.4502
wai쎯,쎯	-10.4504
wang쎯ye쎯	-10.4505
yi쎯wan쎯	-10.4506
qin쎯zi쎯	-10.4506
mu쎯ma쎯	-10.4506
fu쎯wu쎯yu쎯	-10.4508
”、쎯	-10.4509
xia쎯mian쎯	-10.451
qiang쎯da쎯	-10.4512
yan쎯jiang쎯	-10.4517
gao쎯shan쎯	-10.4521
bai쎯du쎯	-10.4522
lu쎯zhi쎯	-10.4523
liao쎯fa쎯	-10.4525
su쎯zhi쎯jiao쎯yu쎯	-10.453
de쎯xue쎯sheng쎯	-10.4533
zhong쎯xiao쎯	-10.4536
cha쎯cao쎯	-10.4539
04	-10.4542
sheng쎯dao쎯shi쎯。쎯	-10.4544
tian쎯qi쎯	-10.4545
81	-10.4546
shou쎯ce쎯	-10.4553
yi쎯bai쎯	-10.4558
bi쎯ye쎯sheng쎯	-10.456
yin쎯zhi쎯	-10.4563
zheng쎯zhi쎯bu쎯	-10.4564
zhu쎯:“쎯	-10.4569
tong쎯xing쎯	-10.4569
bei쎯lin쎯	-10.457
de쎯tong쎯shi쎯,쎯	-10.4571
1959쎯nian쎯	-10.4571
nei쎯di쎯	-10.4573
、、쎯	-10.4573
ba쎯nian쎯	-10.4578
le쎯。쎯	-10.4581
jing쎯xiang쎯	-10.4586
ji쎯shu쎯he쎯	-10.4587
fa쎯jue쎯	-10.4587
bu쎯shu쎯	-10.4587
bian쎯zhu쎯	-10.459
,쎯shi쎯yi쎯suo쎯	-10.4592
yuan쎯nian쎯	-10.4595
shu쎯yuan쎯	-10.4596
bao쎯bao쎯	-10.4597
1969쎯nian쎯	-10.4597
gong쎯xian쎯。쎯	-10.46
hou쎯bei쎯	-10.4601
shu쎯niu쎯	-10.4602
×1	-10.4602
er쎯cheng쎯。쎯	-10.4605
-9	-10.4612
de쎯jing쎯shen쎯	-10.4614
shi쎯qing쎯	-10.4616
zhi쎯cheng쎯de쎯	-10.4616
bie쎯ming쎯	-10.4618
sui쎯dao쎯	-10.4619
gan쎯jing쎯	-10.4619
yan쎯hai쎯	-10.4621
,쎯bing쎯yu쎯	-10.4622
yi쎯ri쎯	-10.4623
xiang쎯ying쎯de쎯	-10.4623
kong쎯bu쎯	-10.4624
yan쎯jiu쎯shi쎯	-10.4625
xian쎯xia쎯	-10.4632
jing쎯ti쎯	-10.4634
rui쎯shi쎯	-10.4634
er쎯cheng쎯de쎯	-10.4641
yi쎯bian쎯	-10.4642
xin쎯lai쎯	-10.4645
、쎯sheng쎯chan쎯、쎯	-10.4645
yuan쎯nei쎯	-10.4647
chuan쎯dong쎯	-10.4649
mao쎯xian쎯	-10.4652
quan쎯zhen쎯	-10.4654
ying쎯de쎯le쎯	-10.4656
shu쎯fa쎯jia쎯	-10.4656
5～	-10.4657
zi쎯wei쎯	-10.466
he쎯guan쎯li쎯	-10.4661
ma쎯lai쎯xi쎯ya쎯	-10.4665
zui쎯di쎯	-10.4666
bu쎯jiu쎯	-10.4669
65쎯	-10.4669
jian쎯zhu쎯wu쎯	-10.4671
gong쎯si쎯zhu쎯yao쎯	-10.4671
ma쎯ma쎯	-10.4673
huo쎯yue쎯	-10.4675
de쎯yan쎯fa쎯	-10.4676
hua쎯zhuang쎯pin쎯	-10.4677
zui쎯zao쎯de쎯	-10.4677
zui쎯duo쎯	-10.4678
dian쎯、쎯	-10.4678
dang쎯xuan쎯wei쎯	-10.4679
ge쎯yi쎯	-10.4679
tiao쎯jian쎯xia쎯	-10.4679
kong쎯gu쎯	-10.4682
jiao쎯tang쎯	-10.4683
lai쎯shuo쎯	-10.4684
quan쎯cun쎯jing쎯	-10.4685
ban쎯gong쎯shi쎯、쎯	-10.469
gao쎯zhi쎯liang쎯	-10.4691
shu쎯hua쎯jia쎯	-10.4695
nei쎯,쎯	-10.4696
dang쎯jin쎯	-10.4698
yi쎯lei쎯	-10.4698
hua쎯nan쎯	-10.47
dian쎯zhan쎯	-10.47
zhu쎯zhang쎯	-10.4703
mou쎯zhong쎯	-10.4704
nei쎯you쎯	-10.4705
(쎯jian쎯cheng쎯	-10.4706
yan쎯shou쎯	-10.4713
、“쎯	-10.4714
su쎯cheng쎯	-10.4718
wei쎯guang쎯da쎯	-10.4718
da쎯duo쎯shu쎯	-10.4719
1972쎯nian쎯	-10.4719
ji쎯shu쎯yan쎯jiu쎯	-10.472
,19	-10.4721
jian쎯jie쎯:쎯	-10.4722
ming쎯yu쎯	-10.4723
zong쎯he쎯zheng쎯	-10.4726
xian쎯jin쎯ji쎯ti쎯	-10.4727
shi쎯hui쎯	-10.4729
fu쎯jia쎯	-10.4729
》,《쎯	-10.4731
,쎯ying쎯	-10.4732
0.3	-10.4734
da쎯liang쎯de쎯	-10.4735
hui쎯zhang쎯	-10.4738
の	-10.4739
wu쎯di쎯	-10.4745
chu쎯yan쎯	-10.475
bian쎯hao쎯	-10.4752
liu쎯yu쎯	-10.4755
qu쎯pi쎯	-10.476
1954쎯nian쎯	-10.4761
feng쎯yu쎯	-10.4763
rong쎯liang쎯:	-10.4767
yao쎯yong쎯	-10.4771
、1	-10.4772
mi쎯,쎯	-10.4775
μ	-10.4778
▁쎯shi쎯yong쎯	-10.4779
huan쎯jing쎯you쎯	-10.478
dai쎯fu쎯	-10.4782
she쎯xiang쎯tou쎯	-10.4782
yi쎯wang쎯	-10.4783
2.	-10.4784
shang쎯hui쎯	-10.4786
bu쎯luo쎯	-10.479
chao쎯liu쎯	-10.4791
yue쎯lai쎯yue쎯	-10.4793
,쎯zuo쎯	-10.4795
ji쎯bie쎯	-10.4799
ji쎯xian쎯	-10.48
zao쎯yi쎯	-10.4801
jia쎯dian쎯	-10.4804
1966쎯nian쎯	-10.4804
。쎯zhe쎯	-10.4807
。쎯tang쎯	-10.4809
fei쎯shui쎯	-10.4809
gong쎯cheng쎯xi쎯	-10.4812
shui쎯zhi쎯	-10.4815
bing쎯zai쎯	-10.4817
sheng쎯ren쎯	-10.4818
qi쎯wu쎯	-10.4821
zhi쎯ma쎯	-10.4826
71	-10.4827
zhuo쎯yue쎯	-10.4829
,쎯wei쎯le쎯	-10.4831
,쎯jian쎯cheng쎯	-10.4832
dai쎯zhe쎯	-10.4834
guo쎯ji쎯hua쎯	-10.4835
hu쎯po쎯	-10.4842
shu쎯xi쎯	-10.485
shi쎯chang쎯de쎯	-10.4859
、쎯yang쎯	-10.486
luo쎯si쎯	-10.4864
bu쎯gan쎯	-10.4865
xian쎯ming쎯	-10.4867
xin쎯shang쎯	-10.4874
hu쎯jiao쎯fen쎯	-10.4879
cuo쎯wu쎯	-10.4879
tie쎯lu쎯ju쎯	-10.4879
yu쎯lin쎯	-10.488
,쎯nan쎯lin쎯	-10.4881
yi쎯xiao쎯	-10.4882
,쎯hou쎯lai쎯	-10.4882
tian쎯jing쎯	-10.4884
zhu쎯dao쎯	-10.4885
shi쎯mei쎯guo쎯	-10.4887
gong쎯ye쎯yuan쎯qu쎯	-10.4888
de쎯shi쎯hou쎯,쎯	-10.4888
tang쎯niao쎯bing쎯	-10.4888
zhi쎯qing쎯	-10.4888
ran쎯shao쎯	-10.4889
zhen쎯cheng쎯	-10.489
tan쎯ke쎯	-10.4891
gong쎯qing쎯tuan쎯	-10.4892
。쎯dang쎯	-10.4893
,쎯yuan쎯ming쎯	-10.49
si쎯li쎯	-10.4903
。쎯tong쎯shi쎯	-10.4906
de쎯yi쎯bu쎯	-10.4908
hui쎯shou쎯	-10.491
yu쎯zhong쎯guo쎯	-10.4911
ju쎯zhang쎯	-10.4913
shi쎯wo쎯men쎯	-10.4914
nan쎯ren쎯	-10.492
bei쎯qi쎯	-10.4929
ju쎯da쎯de쎯	-10.493
cai쎯chan쎯	-10.4931
min쎯ying쎯qi쎯ye쎯	-10.4935
da쎯ban쎯	-10.4938
she쎯ji쎯de쎯	-10.4944
zhan쎯guo쎯	-10.4949
she쎯xian쎯	-10.4953
mu쎯cai쎯	-10.4954
▁8	-10.4955
ji쎯chu쎯she쎯shi쎯	-10.4962
dang쎯yuan쎯,쎯	-10.4962
ke쎯tang쎯	-10.4966
you쎯:쎯	-10.4967
reng쎯ran쎯	-10.4967
shou쎯shi쎯	-10.4969
shao쎯xing쎯	-10.497
fan쎯“쎯wei쎯jiao쎯”	-10.4979
da쎯dian쎯	-10.498
lian쎯luo쎯	-10.4981
,쎯yi쎯ge쎯	-10.4983
wei쎯zu쎯zhi쎯bu쎯	-10.4983
xiu쎯li쎯	-10.4986
duo쎯yuan쎯hua쎯	-10.4993
wu쎯da쎯	-10.4994
rui쎯dian쎯	-10.4995
▁쎯wo쎯	-10.4999
de쎯te쎯dian쎯	-10.4999
ben쎯gong쎯si쎯	-10.5001
ke쎯xue쎯yu쎯	-10.5002
%。쎯	-10.5003
bu쎯liang쎯	-10.5003
ye쎯jie쎯	-10.5004
,쎯zuo쎯wei쎯	-10.5006
ji쎯jin쎯hui쎯	-10.5007
chang쎯jing쎯	-10.5008
qi쎯nian쎯	-10.5014
1.5쎯	-10.5015
wai쎯bu쎯	-10.5016
yi쎯du쎯	-10.502
1쎯ren쎯,쎯	-10.5029
dai쎯dong쎯	-10.503
cun쎯zai쎯de쎯	-10.5032
shang쎯le쎯	-10.5033
yi쎯shang쎯de쎯	-10.5033
jiao쎯xue쎯lou쎯	-10.5033
,쎯dong쎯lin쎯	-10.5035
bu쎯dan쎯	-10.5036
che쎯di쎯	-10.5037
guo쎯jia쎯zi쎯ran쎯	-10.5038
da쎯men쎯	-10.5039
▁쎯wu쎯	-10.504
jie쎯ru쎯	-10.5043
nei쎯she쎯	-10.5043
wai쎯yu쎯	-10.5044
ban쎯fa쎯de쎯	-10.5044
,쎯jian쎯zhu쎯mian쎯	-10.5045
ju쎯ban쎯de쎯	-10.5048
dian쎯ying쎯《쎯	-10.505
zhu쎯jiao쎯	-10.5052
kuan쎯dai쎯	-10.5053
kong쎯zhong쎯	-10.5054
。쎯yin쎯	-10.5058
nv쎯hai쎯	-10.5058
de쎯bian쎯hua쎯	-10.506
rong쎯ye쎯	-10.506
zuo쎯zhe쎯:쎯	-10.5061
er쎯cheng쎯,쎯	-10.5062
zhao쎯kai쎯	-10.5068
xiang쎯、쎯	-10.507
shang쎯wei쎯	-10.5073
fen쎯ju쎯	-10.5077
ge쎯fang쎯mian쎯	-10.5077
sheng쎯hua쎯	-10.5078
cheng쎯gong쎯de쎯	-10.5079
zhi쎯tong쎯	-10.5081
'쎯	-10.5081
jiu쎯nian쎯	-10.5082
,쎯fan쎯	-10.5084
zhi쎯chang쎯	-10.5084
cang쎯shu쎯	-10.5085
de쎯yi쎯shu쎯	-10.5085
,쎯cheng쎯li쎯yu쎯	-10.5086
bao쎯wen쎯	-10.5089
ju쎯da쎯	-10.509
wai쎯mao쎯	-10.5091
xi쎯jing쎯,쎯	-10.5091
quan쎯zhou쎯	-10.5091
hui쎯zhan쎯	-10.5095
zhi쎯shen쎯	-10.5105
,쎯you쎯shi쎯	-10.5108
chuang쎯zuo쎯de쎯	-10.5111
kou쎯fu쎯	-10.5112
ン	-10.5118
re쎯dian쎯	-10.5122
zu쎯,쎯	-10.5124
ma쎯ke쎯si쎯zhu쎯yi쎯	-10.5124
li쎯shi쎯wen쎯hua쎯	-10.5124
fan쎯dui쎯	-10.5127
huo쎯dong쎯。쎯	-10.5129
,쎯bai쎯	-10.513
xing쎯zheng쎯qu쎯	-10.5131
shou쎯gong쎯	-10.5133
jiang쎯hu쎯	-10.5135
biao쎯ming쎯	-10.5136
&;	-10.5137
;《쎯	-10.5139
yi쎯kuan쎯	-10.5143
1953쎯nian쎯	-10.5144
4쎯ren쎯	-10.5145
ci쎯dian쎯	-10.5148
he쎯zi쎯	-10.5152
qu쎯、쎯	-10.5152
quan쎯shi쎯jie쎯	-10.5153
bao쎯pian쎯	-10.5153
guai쎯shou쎯	-10.5153
、쎯jing쎯	-10.5154
xiao쎯li쎯	-10.5155
guan쎯mu쎯	-10.5158
pan쎯duan쎯	-10.5162
〕	-10.5164
,쎯fu쎯ze쎯	-10.5168
zhu쎯jue쎯	-10.517
zhe쎯。쎯	-10.5171
rou쎯zhi쎯	-10.5172
》쎯yi쎯shu쎯	-10.5173
,쎯yin쎯er쎯	-10.5175
qian쎯qi쎯	-10.5178
wan쎯ju쎯	-10.518
mei쎯wei쎯	-10.5181
dong쎯ji쎯	-10.5182
xiang쎯chuan쎯	-10.5185
fang쎯chan쎯	-10.5189
zhuang쎯yuan쎯	-10.519
mei쎯de쎯	-10.5192
。(쎯	-10.5193
he쎯zuo쎯huo쎯ban쎯	-10.5194
,쎯xi쎯lin쎯	-10.5201
xiao쎯zhi쎯	-10.5202
bian쎯zhong쎯	-10.5203
xiao쎯chu쎯	-10.5206
qing쎯li쎯	-10.5208
,2006쎯nian쎯	-10.5211
jie쎯ti쎯	-10.5213
chu쎯chu쎯	-10.5216
zong쎯ju쎯	-10.5216
sheng쎯huo쎯zai쎯	-10.5216
jiu쎯ba쎯	-10.522
zhuan쎯ye쎯hua쎯	-10.522
yuan쎯yuan쎯	-10.5221
quan쎯shen쎯	-10.5223
bian쎯qu쎯	-10.5227
wei쎯li쎯	-10.5228
di쎯si쎯jie쎯	-10.5228
ji	-10.5229
men쎯hu쎯	-10.523
jia쎯ren쎯	-10.5234
(1).쎯	-10.5235
zuo쎯pin쎯《쎯	-10.5235
tai쎯du쎯	-10.5238
he쎯fu쎯wu쎯	-10.524
,쎯yao쎯	-10.5241
%쎯de쎯	-10.5244
,쎯shi쎯yi쎯ge쎯	-10.5245
xian쎯yu쎯	-10.5246
wa쎯jue쎯	-10.5246
ming쎯chao쎯	-10.5253
"="	-10.5253
jiao쎯gao쎯	-10.5253
xi쎯ya쎯	-10.5254
guang쎯fan쎯de쎯	-10.5255
fang쎯shi쎯:쎯	-10.5257
hong쎯yang쎯	-10.5257
diao쎯yan쎯	-10.5259
kai쎯ye쎯	-10.5259
zu쎯guo쎯	-10.526
,쎯zhan쎯di쎯	-10.526
you쎯zhong쎯guo쎯	-10.5262
yu쎯suan쎯	-10.5263
bu쎯li쎯	-10.5263
shi쎯hou쎯	-10.5265
pei쎯fang쎯	-10.5269
la쎯ji쎯	-10.5276
bei쎯ce쎯	-10.5278
,1985쎯nian쎯	-10.5279
you쎯xi쎯zhong쎯	-10.5283
bao쎯xiu쎯	-10.5284
chu쎯xi쎯	-10.5286
shan쎯、쎯	-10.5287
zhu쎯rou쎯	-10.529
da쎯xue쎯xue쎯li쎯	-10.529
chang쎯gui쎯	-10.529
。쎯quan쎯cun쎯	-10.5291
gong쎯zuo쎯;쎯	-10.5297
qi쎯ye쎯jia쎯	-10.5297
guo쎯ji쎯ji쎯chang쎯	-10.5298
gong쎯jiao쎯	-10.5299
42쎯	-10.53
de쎯yi쎯suo쎯	-10.5301
、쎯liu쎯	-10.5302
ren쎯wu쎯,쎯	-10.5303
,쎯zhi쎯li쎯yu쎯	-10.5303
guan쎯gai쎯	-10.5305
dong쎯nan쎯bu쎯	-10.5305
▁(2).쎯	-10.5308
ci쎯wai쎯	-10.5309
n쎯chun쎯shou쎯ru쎯	-10.5312
de쎯zuo쎯pin쎯	-10.5316
tian쎯xian쎯	-10.5317
xiang쎯lin쎯	-10.5317
gao쎯pin쎯zhi쎯	-10.5319
shan쎯yao쎯	-10.5319
qing쎯hai쎯	-10.532
bei쎯ke쎯	-10.5324
shi쎯bai쎯	-10.5324
za쎯jiao쎯	-10.5327
ca쎯	-10.5327
zhi쎯yin쎯	-10.533
xi쎯lin쎯	-10.533
1977쎯nian쎯	-10.5333
jie쎯ji쎯	-10.5349
shi쎯cai쎯	-10.5349
196	-10.5353
zi쎯gong쎯si쎯	-10.5358
yi쎯er쎯	-10.536
shen쎯shang쎯	-10.536
mei쎯xue쎯	-10.5361
gu쎯dong쎯	-10.5366
mian쎯shang쎯	-10.5366
bu쎯yong쎯	-10.5369
zhong쎯guo쎯gong쎯	-10.5369
hui쎯zhi쎯	-10.537
(쎯bao쎯kuo쎯	-10.537
zhen쎯ren쎯	-10.5371
you쎯mei쎯	-10.5371
shen쎯qi쎯	-10.5374
tong쎯feng쎯	-10.5376
dai쎯ti쎯	-10.5383
su쎯song쎯	-10.5386
you쎯ya쎯	-10.5386
。쎯ru쎯guo쎯	-10.5389
wei쎯sheng쎯wu쎯	-10.5393
guan쎯bi쎯	-10.5394
mei쎯guan쎯	-10.5394
de쎯mu쎯biao쎯	-10.5398
gan쎯cao쎯	-10.5398
。2006쎯nian쎯	-10.5399
ji쎯xiang쎯guan쎯	-10.54
que쎯fa쎯	-10.54
de쎯xu쎯qiu쎯	-10.5405
miao쎯hui쎯	-10.5405
yi쎯guan쎯	-10.5409
tong쎯ming쎯	-10.5409
you쎯geng쎯di쎯	-10.5411
da쎯pei쎯	-10.5411
hong쎯qi쎯	-10.5411
ping쎯an쎯	-10.5413
2쎯ren쎯	-10.5413
nan쎯song쎯	-10.5415
he쎯tao쎯	-10.5415
guo쎯yu쎯	-10.5418
you쎯xiu쎯jiang쎯	-10.5418
jiao쎯you쎯	-10.5422
ti쎯zhang쎯	-10.5422
(1)쎯	-10.5423
jin쎯mi쎯	-10.5423
ci쎯shi쎯	-10.5424
,2004쎯nian쎯	-10.5425
zhi쎯shou쎯	-10.5426
guan쎯li쎯,쎯	-10.543
ge쎯xing쎯hua쎯	-10.5431
min쎯gan쎯	-10.5431
huo쎯qu쎯	-10.5431
wen쎯ding쎯xing쎯	-10.5433
zhao쎯yang쎯	-10.5436
ren쎯xing쎯	-10.5438
kao쎯gu쎯	-10.544
si쎯、쎯	-10.544
wei쎯sheng쎯bu쎯	-10.544
ji쎯zhu쎯	-10.5455
12쎯ge쎯	-10.5457
gong쎯li쎯,쎯ju쎯li쎯	-10.5457
yong쎯shui쎯	-10.5457
shou쎯dong쎯	-10.546
yi쎯dui쎯	-10.5463
zong쎯li쎯	-10.5463
wu쎯liao쎯	-10.5466
han쎯zi쎯	-10.5467
er쎯yi쎯	-10.5467
fu쎯li쎯shi쎯zhang쎯	-10.5468
gao쎯yuan쎯	-10.5471
cheng쎯zhi쎯wei쎯	-10.5473
chen쎯ji쎯	-10.5475
zhi쎯de쎯shi쎯	-10.5475
zong쎯jian쎯	-10.5477
wei쎯ji쎯chu쎯	-10.5478
lei쎯xing쎯:	-10.548
huo쎯jian쎯	-10.5481
gong쎯jin쎯	-10.5488
。쎯wei쎯le쎯	-10.5489
ke쎯fen쎯wei쎯	-10.5491
quan쎯zhang쎯	-10.5491
shou쎯fei쎯	-10.5494
shou쎯yu쎯“쎯	-10.5494
jiao쎯nang쎯	-10.5497
shi쎯yi쎯wei쎯	-10.5497
。쎯ci쎯wai쎯,쎯	-10.5498
▁쎯zui쎯da쎯	-10.55
shi쎯dai쎯de쎯	-10.55
nan쎯an쎯	-10.55
shi쎯chan쎯quan쎯	-10.5503
mei쎯ri쎯	-10.5503
tou쎯,쎯	-10.5504
xi쎯bei쎯bu쎯	-10.5507
zeng쎯chan쎯	-10.5509
。쎯song쎯	-10.5511
ri쎯yi쎯	-10.5511
shang쎯sheng쎯	-10.5511
ping쎯xuan쎯	-10.5511
nv쎯er쎯	-10.5512
nian쎯ji쎯	-10.5513
da쎯fu쎯	-10.5514
shi쎯zhen쎯	-10.5514
hu쎯yu쎯shan쎯qu쎯。쎯	-10.5515
10쎯nian쎯	-10.5517
wai쎯jie쎯	-10.5518
di쎯2쎯	-10.5518
100쎯ke쎯	-10.5518
ye쎯sheng쎯	-10.5519
1,	-10.5522
nan쎯yang쎯	-10.553
gao쎯,쎯	-10.553
li쎯fa쎯	-10.5531
kong쎯zi쎯	-10.5532
ri쎯bao쎯	-10.5534
zhen쎯zhu쎯	-10.5538
yin쎯liao쎯	-10.554
dan쎯yi쎯	-10.5542
xian쎯hou쎯zai쎯	-10.5546
ren쎯qi쎯	-10.5547
fu쎯zi쎯	-10.555
xiao쎯chi쎯	-10.5552
(4	-10.5554
zong쎯xian쎯	-10.5555
da쎯chen쎯	-10.5558
ren쎯。쎯zhong쎯	-10.5559
1974쎯nian쎯	-10.5559
ning쎯bo쎯shi쎯	-10.556
yin쎯ling쎯	-10.556
dao쎯jiao쎯	-10.5564
gui쎯fan쎯hua쎯	-10.5569
le쎯“쎯	-10.5571
jiu쎯yi쎯	-10.5572
yao쎯su쎯	-10.5575
(5	-10.5576
20쎯nian쎯	-10.5577
shi쎯yi쎯bu쎯	-10.5579
hen쎯kuai쎯	-10.558
xuan쎯ju쎯	-10.558
fan쎯hua쎯	-10.5581
▁5.쎯	-10.5581
fen쎯mo쎯	-10.5583
,쎯nv쎯,	-10.5583
★쎯	-10.5585
jie쎯ke쎯	-10.5586
kuang쎯jia쎯	-10.5587
cheng쎯zuo쎯	-10.5587
qing쎯·쎯	-10.5588
wang쎯zi쎯	-10.5589
i쎯cheng쎯li쎯yu쎯	-10.5589
yi쎯ti쎯hua쎯	-10.559
hua쎯he쎯wu쎯	-10.5592
te쎯yue쎯	-10.5593
。쎯ju쎯	-10.5596
xi쎯nan쎯bu쎯	-10.5598
zhi쎯da쎯	-10.5599
jiu쎯xiang쎯	-10.56
xiang쎯shang쎯	-10.5603
tong쎯ren쎯	-10.5605
,2005쎯nian쎯	-10.5605
▁쎯ping쎯mu쎯	-10.5605
huo쎯dong쎯de쎯	-10.5606
jing쎯mai쎯	-10.5608
zhuan쎯shu쎯	-10.5616
fa쎯zhan쎯,쎯	-10.5619
ben쎯shu쎯shi쎯	-10.5622
fang쎯fa쎯,쎯	-10.5625
shi쎯xian쎯le쎯	-10.5629
2쎯gong쎯li쎯	-10.5629
()쎯de쎯	-10.563
●	-10.5632
zhu쎯ying쎯	-10.5633
hai쎯shang쎯	-10.5633
ke쎯kou쎯	-10.5634
dou쎯neng쎯	-10.5639
,-	-10.5639
shi쎯qi쎯de쎯	-10.5641
jian쎯dao쎯	-10.5642
shan쎯zhen쎯	-10.5643
1973쎯nian쎯	-10.5645
gong쎯si쎯、쎯	-10.5649
huo쎯sheng쎯	-10.565
(6	-10.5655
ke쎯yun쎯	-10.566
liu쎯ti쎯	-10.5661
tou쎯zi쎯zhe쎯	-10.5663
yong쎯hu쎯de쎯	-10.5663
ong쎯	-10.5663
huan쎯rao쎯	-10.5664
shan쎯yu쎯	-10.5666
wai쎯jiao쎯	-10.5667
(쎯xian쎯	-10.5668
rong쎯ru쎯	-10.5669
ban쎯shi쎯	-10.567
yong쎯zuo쎯	-10.5675
zhu쎯yao쎯cong쎯	-10.5676
1～	-10.5681
(192	-10.5682
zhu쎯,쎯	-10.5682
she쎯hui쎯ge쎯jie쎯	-10.5688
jin쎯zhan쎯	-10.5688
ming쎯ming쎯wei쎯	-10.569
,쎯zhe쎯xie쎯	-10.5691
,쎯mei쎯guo쎯	-10.5692
yin쎯ru쎯	-10.5693
,쎯shui쎯	-10.5693
li쎯ru쎯	-10.5695
gai쎯ge쎯kai쎯fang쎯	-10.5697
▁●쎯	-10.5699
li쎯qi쎯	-10.5699
,쎯tong쎯	-10.5699
dai쎯xie쎯	-10.5701
hong쎯wai쎯	-10.5706
fu쎯qi쎯	-10.571
min쎯ban쎯	-10.5713
guang쎯ming쎯	-10.5716
ji쎯chu쎯shang쎯	-10.5717
long쎯yan쎯	-10.5717
hou쎯yi쎯	-10.5718
xue쎯tang쎯	-10.5718
xu쎯zhou쎯	-10.5719
xia쎯bu쎯	-10.5719
min쎯su쎯	-10.5719
5%쎯	-10.5723
quan쎯zi쎯dong쎯	-10.5724
gui쎯zu쎯	-10.5724
he쎯suan쎯	-10.5726
zhen쎯wei쎯yu쎯	-10.5727
gao쎯di쎯	-10.573
1945쎯nian쎯	-10.5731
yi쎯zhu쎯	-10.5731
,쎯tong쎯chang쎯	-10.5733
,쎯you쎯cheng쎯	-10.5739
shang쎯mian쎯	-10.574
shao쎯liang쎯	-10.5742
shan쎯cun쎯	-10.5743
qian쎯mi쎯	-10.5743
cheng쎯pin쎯	-10.5743
bu쎯fa쎯	-10.5744
ai쎯hao쎯	-10.5746
ji쎯nan쎯shi쎯	-10.5747
II	-10.5747
mu쎯dan쎯	-10.5752
bo쎯chu쎯	-10.5755
xi쎯yi쎯	-10.5755
ming쎯ling쎯	-10.5755
qing쎯xu쎯	-10.5756
》、쎯	-10.5756
shui쎯,쎯	-10.5757
shi쎯ji쎯shang쎯	-10.5766
ding쎯xiang쎯	-10.5767
chuo쎯	-10.5767
jian쎯chi쎯yi쎯	-10.5768
ge쎯guo쎯	-10.5769
jing쎯ye쎯	-10.5776
kuai쎯,쎯	-10.5777
쎯mu쎯,쎯qi쎯zhong쎯	-10.5778
xiao쎯,쎯	-10.5781
jian쎯suo쎯	-10.5781
(-	-10.5783
lin쎯shi쎯	-10.5783
xia쎯ji쎯	-10.5789
jun쎯yi쎯	-10.5791
de쎯ji쎯chu쎯	-10.5792
zhu쎯chi쎯ren쎯	-10.5792
xiang쎯dang쎯yu쎯	-10.5794
qing쎯yuan쎯	-10.5795
yao쎯dian쎯	-10.5798
di쎯duan쎯	-10.5798
da쎯duo쎯	-10.5799
qian쎯shen쎯wei쎯	-10.5802
jiu쎯jing쎯	-10.5803
dao쎯hang쎯	-10.5804
she쎯hui쎯fa쎯zhan쎯	-10.5805
she쎯shi쎯qi쎯quan쎯	-10.581
gui쎯lin쎯	-10.581
(쎯han쎯	-10.581
chao쎯yue쎯	-10.5816
1.8	-10.5819
yi쎯chun쎯	-10.5822
shui쎯dian쎯	-10.5822
shui쎯chan쎯	-10.5823
;쎯fu쎯ze쎯	-10.5823
jie쎯yue쎯	-10.5824
2～	-10.5827
ji쎯da쎯	-10.5827
nian쎯chan쎯	-10.5828
gang쎯、쎯	-10.5829
xue쎯ke쎯dai쎯tou쎯	-10.583
《》쎯	-10.5831
li쎯dian쎯chi쎯	-10.5835
dan쎯wei쎯,쎯	-10.5835
fa쎯jiao쎯	-10.5836
)、	-10.584
sheng쎯bu쎯ji쎯	-10.5841
。쎯jiu쎯dian쎯	-10.5843
ge쎯er쎯	-10.5844
ru쎯xue쎯	-10.5846
shan쎯lu쎯	-10.5846
zong쎯heng쎯	-10.5847
li쎯xing쎯	-10.5847
gong쎯zheng쎯	-10.5848
mo쎯,쎯	-10.5848
ping쎯tai쎯。쎯	-10.5848
qian쎯yue쎯	-10.5848
wen쎯hua쎯de쎯	-10.5848
ru쎯jin쎯	-10.5852
。쎯jin쎯nian쎯lai쎯	-10.5852
jia쎯xie쎯hui쎯	-10.5854
kuang쎯ye쎯	-10.5857
dong쎯lin쎯	-10.5857
,쎯shi쎯yi쎯	-10.5857
wu쎯xu쎯	-10.5857
chong쎯fu쎯	-10.5858
ben쎯tu쎯	-10.5858
guan쎯zhuang쎯	-10.5866
3쎯gong쎯li쎯	-10.5867
tiao쎯liao쎯	-10.5868
mian쎯lin쎯	-10.5872
ding쎯qi쎯	-10.5874
jian쎯rong쎯	-10.5875
xin쎯zang쎯	-10.588
jie쎯tou쎯	-10.5882
jiao쎯shi쎯、쎯	-10.5884
ru쎯wu쎯	-10.5886
hui쎯hui쎯zhang쎯	-10.5886
hua쎯wen쎯	-10.5887
zi쎯ran쎯ke쎯xue쎯	-10.5889
ji쎯fen쎯	-10.589
ji쎯shu쎯fu쎯wu쎯	-10.5893
wen쎯shu쎯	-10.5894
zu쎯zhi쎯shi쎯shi쎯	-10.5903
xin쎯xi쎯ji쎯shu쎯	-10.5904
wei쎯chang쎯wei쎯	-10.5906
yi쎯ceng쎯	-10.5906
liang쎯,쎯	-10.5912
qian쎯yi쎯	-10.5912
0°C	-10.5914
fa쎯song쎯	-10.5916
zhuan쎯hua쎯	-10.5917
jia쎯da쎯	-10.5921
tou쎯bu쎯	-10.5922
mei쎯hao쎯	-10.5922
dan쎯bao쎯	-10.5927
1961쎯nian쎯	-10.5928
la쎯ding쎯	-10.5929
zun쎯xun쎯	-10.593
can쎯mou쎯	-10.5931
3.5	-10.5932
shi쎯wei쎯le쎯	-10.5933
shi쎯du쎯	-10.5935
yi쎯yuan쎯。쎯	-10.5936
zheng쎯bian쎯ma쎯	-10.5938
。쎯xian쎯zai쎯	-10.5939
she쎯bei쎯de쎯	-10.595
guo쎯jia쎯yi쎯ji쎯	-10.5951
hai쎯yu쎯	-10.5955
qiu쎯yuan쎯	-10.5961
ji쎯chuang쎯	-10.5962
zhong쎯qing쎯nian쎯	-10.5962
jue쎯de쎯	-10.5964
tu쎯zhong쎯	-10.5968
、쎯qing쎯	-10.5969
“쎯wu쎯	-10.597
zhong쎯jie쎯	-10.5977
mi쎯de쎯	-10.5977
rong쎯jie쎯	-10.5978
sheng쎯ri쎯	-10.5981
。18	-10.5983
hua쎯xian쎯	-10.5983
wu쎯jing쎯	-10.5987
55쎯	-10.5989
dan쎯qu쎯	-10.599
chu쎯yi쎯	-10.599
xin쎯ling쎯	-10.5994
jing쎯ji쎯ji쎯shu쎯	-10.5995
а	-10.5997
zheng쎯wu쎯	-10.5997
//	-10.5997
zhi쎯jian쎯,쎯	-10.6002
hua쎯yu쎯	-10.6002
、쎯ri쎯ben쎯	-10.6002
luo쎯bo쎯	-10.6002
jie쎯jie쎯	-10.601
ping쎯ding쎯	-10.6014
guan쎯li쎯xi쎯tong쎯	-10.6014
,쎯you쎯ming쎯	-10.6014
zhong쎯liang쎯:	-10.6015
ceng쎯wei쎯	-10.6016
ji쎯jiang쎯	-10.6017
3쎯hao쎯	-10.6018
bu쎯chang쎯	-10.6021
”쎯zhi쎯	-10.6022
lai쎯de쎯	-10.6024
xiao쎯qi쎯ye쎯	-10.6026
3쎯ren쎯	-10.6028
xi쎯hu쎯	-10.6028
da쎯xue쎯bi쎯ye쎯	-10.6028
4쎯nian쎯	-10.6029
,쎯shi쎯yong쎯	-10.603
xue쎯yan쎯jiu쎯	-10.603
qi쎯ta쎯xing쎯neng쎯	-10.6032
,쎯fen쎯bie쎯	-10.6037
m	-10.6037
쎯guo쎯dao쎯	-10.6039
、3	-10.6045
shuo쎯,쎯	-10.6046
gong쎯wu쎯yuan쎯	-10.6047
si쎯yang쎯	-10.6047
ba쎯shi쎯	-10.6048
jiao쎯hao쎯	-10.6049
ke쎯yong쎯	-10.6049
lei쎯bie쎯	-10.605
zhu쎯ren쎯gong쎯	-10.6054
xiao쎯hao쎯	-10.6055
cai쎯ji쎯	-10.6056
100쎯duo쎯	-10.6057
bo쎯lan쎯hui쎯	-10.6057
zu쎯lin쎯	-10.6058
cai쎯yong쎯le쎯	-10.6059
。쎯zhe쎯xie쎯	-10.6065
37쎯	-10.6065
tu쎯mu쎯	-10.6069
qiang쎯,쎯	-10.6069
shen쎯he쎯	-10.607
zhi쎯ding쎯de쎯	-10.6072
ke쎯ren쎯	-10.6074
195	-10.6075
,쎯shou쎯dao쎯	-10.6075
guang쎯yuan쎯	-10.6078
fang쎯shi쎯,쎯	-10.6079
、쎯nan쎯	-10.6079
ci쎯hui쎯	-10.608
ji쎯jia쎯	-10.6084
yuan쎯zhi쎯	-10.6086
yan쎯hua쎯	-10.6089
xi쎯an쎯shi쎯	-10.6092
ren쎯jian쎯	-10.6094
shu쎯hua쎯yuan쎯	-10.6095
shu쎯hua쎯yi쎯shu쎯	-10.6096
na쎯li쎯	-10.6096
dang쎯zu쎯cheng쎯	-10.6099
jing쎯ling쎯	-10.61
huang쎯hou쎯	-10.61
bao쎯zha쎯	-10.61
,2007쎯nian쎯	-10.61
hui쎯yi쎯shi쎯	-10.6103
xin쎯yi쎯	-10.6103
you쎯liang쎯de쎯	-10.6104
lan쎯ya쎯	-10.6104
jin쎯si쎯	-10.6106
jin쎯sheng쎯wei쎯	-10.6107
shi쎯guo쎯nei쎯	-10.6111
jia쎯gou쎯	-10.6112
duo쎯nian쎯sheng쎯	-10.6114
fen쎯bian쎯lv쎯:	-10.6114
fu쎯lu쎯	-10.6117
xu쎯ke쎯zheng쎯	-10.6121
(쎯ji쎯	-10.6123
mian쎯hua쎯	-10.6123
dang쎯wei쎯fu쎯shu쎯	-10.6128
qiu쎯zhi쎯	-10.6131
xie쎯shou쎯	-10.6131
ping쎯bi쎯	-10.6131
hou쎯qin쎯	-10.6131
jin쎯shan쎯	-10.6132
run쎯hua쎯	-10.6133
fu쎯wu쎯。	-10.6133
gan쎯rao쎯	-10.6135
chan쎯zhi쎯	-10.6142
cheng쎯wei쎯le쎯	-10.6143
ye쎯jing쎯	-10.6149
xin쎯shi쎯ji쎯	-10.6149
fan쎯chao쎯	-10.615
ban쎯yan쎯	-10.6151
。쎯zhe쎯shi쎯	-10.6152
jiao쎯yuan쎯	-10.6154
bai쎯wan쎯	-10.6154
shi쎯wo쎯guo쎯	-10.6157
zheng쎯que쎯	-10.6157
ru쎯zhu쎯	-10.6159
wei쎯da쎯	-10.616
zhuan쎯wei쎯	-10.6162
wen쎯ti쎯de쎯	-10.6162
wu쎯xian쎯dian쎯	-10.6164
yi쎯ge쎯ren쎯	-10.6165
wu쎯bu쎯	-10.6166
huan쎯xiang쎯	-10.6167
ben쎯ji쎯	-10.6172
shen쎯pan쎯	-10.6173
wei쎯chi쎯	-10.6174
bao쎯fa쎯	-10.6178
jin쎯sheng쎯	-10.6182
쎯shu쎯yu쎯shan쎯qu쎯	-10.6182
ci쎯shan쎯	-10.6183
mei쎯shu쎯xue쎯	-10.6183
yu쎯ye쎯	-10.6185
fan쎯she쎯	-10.6187
ba쎯da쎯	-10.6187
zai쎯guo쎯nei쎯wai쎯	-10.6189
hai쎯guan쎯	-10.619
wei쎯dao쎯	-10.6194
.7	-10.62
,쎯ling쎯	-10.6202
bu쎯liao쎯	-10.6202
jie쎯hun쎯	-10.6203
shui쎯xian쎯	-10.6205
,쎯yong쎯yu쎯	-10.6206
3.0	-10.6212
,2003쎯nian쎯	-10.6212
jia쎯kuai쎯	-10.6214
wan쎯zi쎯	-10.6219
,쎯zhe쎯jiang쎯	-10.6221
tong쎯bian쎯li쎯,쎯	-10.6223
jing쎯wei쎯	-10.6228
sheng쎯hui쎯	-10.6228
6쎯ren쎯	-10.6229
shou쎯ge쎯	-10.6232
dang쎯zhong쎯	-10.6232
ben쎯zhe쎯	-10.6233
zi쎯ran쎯cun쎯	-10.6234
da쎯ji쎯	-10.6234
du쎯dao쎯	-10.6234
yin쎯qing쎯	-10.6234
pu쎯tao쎯jiu쎯	-10.6236
tuo쎯luo쎯	-10.6239
,쎯nu쎯li쎯	-10.624
kai쎯shui쎯	-10.6244
lian쎯zai쎯	-10.6245
jiao쎯da쎯de쎯	-10.6245
pian쎯xiao쎯shuo쎯	-10.6245
8쎯hao쎯	-10.6247
dong쎯bei쎯bu쎯	-10.6247
2쎯ren쎯,쎯	-10.6247
39쎯	-10.6252
ren쎯wu쎯。쎯	-10.6254
ji쎯xiao쎯	-10.6256
lian쎯he쎯guo쎯	-10.626
can쎯guan쎯	-10.626
kou쎯,쎯	-10.6262
li쎯xian쎯	-10.6262
gao쎯xue쎯ya쎯	-10.6262
zeng쎯zhi쎯	-10.6264
▁쎯jiu쎯dian쎯	-10.6266
hou쎯you쎯	-10.6266
chang쎯qi쎯cong쎯	-10.6267
you쎯qi쎯shi쎯	-10.6268
tou쎯ying쎯	-10.6271
fang쎯cheng쎯	-10.6271
guo쎯chan쎯	-10.6273
feng쎯shi쎯	-10.6275
liang쎯mian쎯	-10.6276
gong쎯xue쎯	-10.6277
pai쎯fang쎯	-10.6277
man쎯man쎯	-10.6277
shi쎯fen쎯bian쎯li쎯	-10.628
pian쎯lun쎯wen쎯	-10.6281
▁(2)쎯	-10.6283
cun쎯。쎯	-10.6288
fu쎯chan쎯ke쎯	-10.6288
he쎯xiao쎯shou쎯	-10.6289
wu쎯bi쎯	-10.629
mei쎯nv쎯	-10.6291
ji쎯qing쎯	-10.6291
miao쎯xie쎯	-10.6292
(/	-10.6293
10쎯wan쎯	-10.6295
qi쎯huo쎯	-10.6297
”,“쎯	-10.6297
tong쎯lei쎯	-10.6298
1951쎯nian쎯	-10.6299
chu쎯shou쎯	-10.6299
qiang쎯lie쎯	-10.6301
kang쎯zhan쎯	-10.6301
shou쎯gou쎯	-10.6302
1.6	-10.6305
ji쎯zhen쎯	-10.6307
,1996쎯nian쎯	-10.6308
you쎯tian쎯	-10.631
si쎯hu쎯	-10.6312
fa쎯ren쎯	-10.6316
liu쎯xia쎯	-10.6328
▁쎯wo쎯men쎯	-10.6329
1971쎯nian쎯	-10.633
tian쎯,쎯	-10.633
wu쎯lun쎯	-10.6333
zhai쎯quan쎯	-10.6334
15쎯fen쎯zhong쎯	-10.6335
,1986쎯nian쎯	-10.6336
,쎯bu쎯jin쎯	-10.634
zhu쎯ren쎯。쎯	-10.6341
su쎯zao쎯	-10.6342
mian쎯ban쎯	-10.6343
hui쎯shi쎯	-10.6346
。2007쎯nian쎯	-10.6348
▁쎯ci쎯	-10.6349
xing쎯shu쎯	-10.635
;쎯zai쎯	-10.6351
di쎯zhi쎯:쎯	-10.6351
bai쎯huo쎯	-10.6356
xiao쎯du쎯	-10.6357
20쎯fen쎯zhong쎯	-10.6357
5)쎯	-10.6358
24쎯xiao쎯shi쎯	-10.6362
。2005쎯nian쎯	-10.6368
shen쎯ke쎯	-10.637
mo쎯xi쎯ge쎯	-10.6371
quan쎯yuan쎯	-10.6372
wei쎯nin쎯	-10.6375
bei쎯shou쎯yu쎯	-10.6378
,쎯bi쎯ye쎯yu쎯	-10.6378
9-	-10.6378
de쎯yi쎯kuan쎯	-10.6379
bu쎯fu쎯bu쎯zhang쎯	-10.6379
shen쎯bao쎯	-10.6383
,쎯shuo쎯shi쎯	-10.6388
,쎯an쎯	-10.6388
,쎯cong쎯shi쎯	-10.6391
0*	-10.6392
te쎯pin쎯	-10.6394
yin쎯cang쎯	-10.6394
,쎯tong쎯shi쎯ye쎯	-10.6395
gong쎯zuo쎯;	-10.6396
。쎯gen쎯ju쎯	-10.6396
da쎯da쎯	-10.6399
can쎯mou쎯zhang쎯	-10.64
yu쎯jia쎯	-10.6402
,쎯bei쎯lin쎯	-10.6404
wen쎯zhou쎯shi쎯	-10.6407
ba쎯ba쎯	-10.6409
ben쎯ke쎯sheng쎯	-10.6409
shan쎯,쎯	-10.641
yi쎯zhong쎯zhi쎯ye쎯	-10.641
xi쎯ce쎯	-10.6417
()쎯he쎯	-10.6422
ren쎯ming쎯	-10.6424
xi쎯tong쎯,쎯	-10.6426
ke쎯yi쎯zai쎯	-10.6427
zhang쎯fu쎯	-10.6428
,1998쎯nian쎯	-10.643
tong쎯guo쎯le쎯	-10.6432
～1	-10.6434
wu쎯se쎯	-10.6435
,1997쎯nian쎯	-10.6436
。쎯min쎯guo쎯	-10.6437
yuan쎯。	-10.6438
cheng쎯nuo쎯	-10.644
)쎯deng쎯	-10.6444
yan쎯tai쎯	-10.6445
ben쎯ke쎯bi쎯ye쎯	-10.6446
pian쎯。쎯	-10.6446
、2	-10.6446
wu쎯jia쎯	-10.6446
jie쎯xi쎯	-10.6446
ke쎯zuo쎯wei쎯	-10.6447
ling쎯xiu쎯	-10.645
shen쎯bian쎯	-10.6451
bai쎯hua쎯	-10.6454
,쎯yu쎯shi쎯	-10.6454
di쎯wu쎯jie쎯	-10.6456
ta쎯ren쎯	-10.6456
se쎯ze쎯	-10.6458
de쎯shi쎯jie쎯	-10.6459
ti쎯qu쎯	-10.646
,2008쎯nian쎯	-10.646
xue쎯yu쎯	-10.6461
tu쎯dou쎯	-10.6462
tian쎯fu쎯	-10.6473
,쎯ji쎯ji쎯	-10.6473
ren쎯ding쎯	-10.6474
fen쎯lie쎯	-10.6477
xiang쎯fan쎯	-10.6478
yu쎯ming쎯	-10.6479
yi쎯qun쎯	-10.6484
chu쎯chang쎯	-10.6485
dong쎯ce쎯	-10.6485
ye쎯cheng쎯	-10.6486
de쎯xing쎯wei쎯	-10.6488
ming쎯ci쎯	-10.6489
,2002쎯nian쎯	-10.6491
gong쎯neng쎯:쎯	-10.6492
da쎯suan쎯	-10.6496
ye쎯jiao쎯	-10.65
de쎯zong쎯he쎯	-10.651
91	-10.6511
):쎯	-10.6512
di쎯yi쎯jia쎯	-10.6515
,쎯dai쎯	-10.6516
can쎯ji쎯ren쎯	-10.6516
kai쎯fa쎯、쎯	-10.6518
hao쎯ping쎯	-10.6518
han쎯shou쎯	-10.6519
cai쎯shi쎯	-10.6522
zhen쎯liao쎯	-10.6524
≥	-10.6527
fu쎯zhu쎯ren쎯yi쎯	-10.6528
zi쎯sha쎯	-10.6529
de쎯lin쎯chuang쎯	-10.653
zi쎯gong쎯	-10.6535
chu쎯xian쎯zai쎯	-10.6535
gen쎯ben쎯	-10.6535
de쎯yin쎯yue쎯	-10.6537
bai쎯jia쎯	-10.6538
guang쎯da쎯ke쎯hu쎯	-10.6543
。쎯tong쎯nian쎯	-10.6543
zhi쎯ling쎯	-10.6544
guang쎯rong쎯	-10.6551
su쎯jiao쎯	-10.6552
。2008쎯nian쎯	-10.6557
0.8	-10.6558
yi쎯hou쎯,쎯	-10.6558
hui쎯bao쎯	-10.6558
shuo쎯:“쎯	-10.6565
fu쎯zhu쎯ren쎯,쎯	-10.6566
xin쎯fang쎯	-10.6571
》쎯juan쎯	-10.6572
zao쎯dao쎯	-10.6572
kai쎯qi쎯	-10.6574
fu쎯ling쎯	-10.6574
shi쎯fu쎯	-10.6574
、쎯zhang쎯	-10.6574
gan쎯ying쎯	-10.6574
zhen쎯cha쎯	-10.6574
zhong쎯chang쎯	-10.6574
fu쎯wu쎯、쎯	-10.6577
chuang쎯shang쎯	-10.6578
qian쎯,쎯	-10.6581
,쎯dou쎯	-10.6581
jian쎯jian쎯	-10.6586
gu쎯、쎯	-10.6588
zhuang쎯jia쎯	-10.6589
▁-	-10.6595
,1992쎯nian쎯	-10.6596
lu쎯shang쎯	-10.6597
shi쎯jie쎯ge쎯di쎯	-10.6604
tong쎯xiang쎯	-10.6605
zuo쎯cheng쎯	-10.6605
,8	-10.6608
xu쎯mu쎯	-10.6608
hua쎯xia쎯	-10.6608
zu쎯zhi쎯de쎯	-10.6611
、쎯bei쎯jing쎯	-10.6619
(쎯yue쎯	-10.6621
---쎯	-10.6621
”쎯de쎯jing쎯ying쎯	-10.6622
zhi쎯bi쎯	-10.6624
chang쎯nian쎯	-10.6624
jian쎯dan쎯de쎯	-10.6626
fu쎯yong쎯	-10.6627
e쎯yu쎯	-10.6629
,7	-10.663
niao쎯lei쎯	-10.6632
shan쎯hu쎯	-10.6634
?”쎯	-10.6635
kuan쎯du쎯	-10.6637
ceng쎯huo쎯	-10.6638
li쎯lun쎯yu쎯	-10.6641
/2	-10.6642
nong쎯ye쎯bu쎯	-10.6643
xian쎯zhang쎯	-10.6643
nong쎯ji쎯	-10.6645
,1988쎯nian쎯	-10.6647
ban쎯ji쎯	-10.6648
56쎯	-10.6648
ke쎯xue쎯de쎯	-10.6648
zhu쎯xing쎯	-10.665
jin쎯lin쎯	-10.6654
yi쎯xue쎯hui쎯	-10.6656
min쎯zhong쎯	-10.6659
di쎯jiu쎯	-10.666
yang쎯hu쎯	-10.666
gu쎯fen쎯zhi쎯	-10.6664
,1982쎯nian쎯	-10.6666
you쎯sheng쎯	-10.6668
shu쎯。쎯	-10.6668
nian쎯lai쎯,쎯	-10.6669
zong쎯se쎯	-10.6671
rong쎯mao쎯	-10.6675
yin쎯er쎯	-10.6676
,1995쎯nian쎯	-10.6679
zhen쎯zheng쎯de쎯	-10.6685
li쎯lun쎯yan쎯jiu쎯	-10.669
、쎯hong쎯	-10.6691
qie쎯pian쎯	-10.6691
huo쎯che쎯	-10.6691
fu쎯chu쎯zhang쎯	-10.6692
qian쎯lai쎯	-10.6693
hua쎯yi쎯xue쎯hui쎯	-10.6693
si쎯ke쎯	-10.6694
zu쎯cheng쎯yuan쎯	-10.6694
deng쎯lu쎯	-10.6694
jian쎯gu쎯	-10.6695
,1987쎯nian쎯	-10.6696
!”쎯	-10.6697
:9	-10.6699
ying쎯wen쎯ming쎯	-10.67
wang쎯luo쎯you쎯xi쎯	-10.6701
,쎯xing쎯cheng쎯le쎯	-10.6701
,쎯you쎯qi쎯shi쎯	-10.6702
ji쎯yi쎯shang쎯	-10.6704
,쎯han쎯	-10.6705
lv쎯ke쎯	-10.6708
zhi쎯ye쎯jiao쎯yu쎯	-10.6709
bei쎯da쎯	-10.6715
re쎯shui쎯	-10.6716
guan쎯li쎯de쎯	-10.6716
zong쎯ti쎯	-10.6717
feng쎯mi쎯	-10.6721
feng쎯yun쎯	-10.6727
qi쎯ye쎯。쎯gong쎯si쎯	-10.6728
de쎯ming쎯zi쎯	-10.6729
liang쎯an쎯	-10.673
ren쎯da쎯	-10.6731
。쎯tong쎯shi쎯,쎯	-10.6734
ri쎯yu쎯	-10.6736
3～	-10.6736
xing쎯ming쎯	-10.6738
shen쎯yang쎯shi쎯	-10.6742
180	-10.6745
xian쎯jin쎯dan쎯	-10.6746
99쎯	-10.6746
ling쎯jian쎯	-10.675
fa쎯zhan쎯gui쎯hua쎯	-10.675
,쎯shi쎯you쎯	-10.6754
cheng쎯jie쎯	-10.6755
bian쎯ma쎯	-10.6756
–	-10.6758
de쎯mu쎯di쎯	-10.6759
cang쎯chu쎯	-10.6761
gong쎯si쎯zai쎯	-10.6762
huo쎯guo쎯jia쎯	-10.6763
hen쎯shao쎯	-10.6765
bao쎯xiang쎯	-10.6765
zuo쎯fa쎯	-10.6766
qing쎯hai쎯sheng쎯	-10.6778
cong쎯ci쎯	-10.678
쎯hu쎯,쎯you쎯xiang쎯	-10.6784
ka쎯la쎯	-10.6787
m2	-10.6788
、쎯xiao쎯shou쎯	-10.6789
wang쎯zhi쎯	-10.679
zai쎯zhe쎯	-10.6795
mo쎯shi쎯,쎯	-10.6796
jiao쎯cheng쎯	-10.68
cai쎯xi쎯	-10.6801
zhong쎯shen쎯	-10.6804
qi쎯ye쎯ti쎯gong쎯	-10.6808
fu쎯dan쎯da쎯xue쎯	-10.6809
xu쎯shu쎯	-10.6809
ba쎯ta쎯	-10.681
xian쎯yan쎯	-10.6811
fa쎯sheng쎯zai쎯	-10.6812
ji쎯ke쎯。쎯	-10.6815
nong쎯hong쎯jun쎯	-10.6817
yin쎯shui쎯	-10.682
rong쎯zi쎯	-10.682
hu쎯luo쎯bo쎯	-10.6825
ge쎯sheng쎯	-10.6826
pai쎯ming쎯	-10.6828
,쎯ju쎯li쎯	-10.6833
jue쎯yuan쎯	-10.6834
chuan쎯xian쎯	-10.6835
jing쎯que쎯	-10.6837
pu쎯bu쎯	-10.6838
gong쎯neng쎯,쎯	-10.6838
、쎯zhu쎯	-10.6839
guo쎯qi쎯	-10.684
dan쎯du쎯	-10.6842
huo쎯quan쎯guo쎯	-10.6843
shi쎯si쎯	-10.6843
zhi쎯xue쎯	-10.6845
deng쎯ge쎯zhong쎯	-10.6849
zong쎯cai쎯	-10.685
xi쎯you쎯	-10.685
zi쎯se쎯	-10.6851
。쎯mu쎯qian쎯,쎯	-10.6852
sheng쎯ya쎯	-10.6852
wen쎯nuan쎯	-10.6857
。쎯jing쎯guo쎯	-10.6864
ya쎯ke쎯	-10.6865
fen쎯bie쎯wei쎯	-10.6867
si쎯fang쎯	-10.6871
ju쎯ben쎯	-10.6873
rang쎯ta쎯	-10.6873
hu쎯lu쎯	-10.6875
jie쎯kou쎯:	-10.6877
,쎯ti쎯gong쎯	-10.688
。쎯yong쎯yu쎯	-10.688
deng쎯ren쎯	-10.6881
xiao쎯ji쎯	-10.6883
de쎯ren쎯wu쎯	-10.6885
zai쎯ri쎯ben쎯	-10.6885
jiao쎯qiang쎯de쎯	-10.6887
lian쎯tong쎯	-10.6888
zu쎯zu쎯zhang쎯	-10.6888
о	-10.689
gen쎯zong쎯	-10.6892
。”쎯song쎯	-10.6892
a쎯la쎯bo쎯	-10.6892
hui쎯he쎯	-10.6893
jiu쎯du쎯	-10.6894
yang쎯sheng쎯qi쎯	-10.6898
zhi쎯ming쎯du쎯	-10.6898
lao쎯chu쎯	-10.6899
shao쎯er쎯	-10.6901
1500쎯	-10.6906
,쎯yue쎯	-10.6909
su쎯zhou쎯shi쎯	-10.6911
yi쎯jiu쎯	-10.6914
wen쎯ding쎯de쎯	-10.6914
zhong쎯huo쎯	-10.6914
(189	-10.6915
huo쎯yun쎯	-10.6915
shou쎯suo쎯	-10.6917
ren쎯xin쎯	-10.6917
cheng쎯li쎯,쎯	-10.6922
he쎯zuo쎯,쎯	-10.6923
xi쎯fu쎯	-10.6923
guan쎯dian쎯	-10.6925
jian쎯ju쎯	-10.6925
,1993쎯nian쎯	-10.693
cheng쎯jiao쎯	-10.6932
,쎯zhi쎯dao쎯	-10.6934
wei쎯shen쎯me쎯	-10.6935
0.6	-10.6939
zui쎯xiao쎯	-10.6944
yi쎯shen쎯	-10.6944
qian쎯feng쎯	-10.6945
yu쎯guan쎯li쎯	-10.6946
guan쎯chuan쎯	-10.6947
nan쎯xian쎯	-10.6948
shen쎯tou쎯	-10.6952
wu쎯han쎯da쎯xue쎯	-10.6953
hu쎯,쎯	-10.6953
chan쎯ye쎯hua쎯	-10.6954
shi쎯yong쎯xing쎯	-10.6954
zui쎯zhong쎯yao쎯	-10.6954
chong쎯wu쎯	-10.6956
fen쎯pei쎯dao쎯	-10.6956
zhen쎯,쎯	-10.6957
she쎯xiang쎯	-10.6958
jun쎯ke쎯	-10.6959
nuo쎯mi쎯	-10.6962
1948쎯nian쎯	-10.6963
jiang쎯yi쎯	-10.6965
ren쎯jun쎯	-10.6965
wen쎯xin쎯	-10.697
yan쎯ji쎯	-10.6973
wai쎯shang쎯	-10.6973
xiang쎯yang쎯	-10.6976
shu쎯bai쎯	-10.6978
zhi쎯zhang쎯	-10.6978
jiang쎯zhi쎯	-10.698
zhen쎯jiu쎯	-10.6981
nv쎯sheng쎯	-10.6981
5쎯wan쎯	-10.6982
1쎯wan쎯	-10.6983
mei쎯gui쎯	-10.6984
niu쎯nai쎯	-10.6984
&;쎯	-10.6986
tiao쎯wei쎯	-10.6996
9쎯hao쎯	-10.7
chi쎯cun쎯:	-10.7003
er쎯de쎯ming쎯	-10.7004
dao쎯shang쎯	-10.7005
xie쎯dai쎯	-10.7007
mian쎯ji쎯4	-10.7007
wang쎯dian쎯	-10.7011
zheng쎯guan쎯li쎯	-10.7014
ling쎯dao쎯de쎯	-10.7016
1938쎯nian쎯	-10.7017
yang쎯cong쎯	-10.7017
de쎯xin쎯xing쎯	-10.7019
jiao쎯dao쎯	-10.7023
yu쎯jing쎯	-10.7025
gai쎯zhi쎯	-10.7026
2쎯wan쎯	-10.7027
nong쎯yao쎯	-10.7031
ye쎯bing쎯	-10.7034
gu쎯jin쎯	-10.7035
20-	-10.7038
liang쎯du쎯	-10.704
,2000쎯nian쎯	-10.7045
yong쎯di쎯	-10.7047
ke쎯zhang쎯	-10.705
bi쎯ru쎯	-10.7051
ru쎯kou쎯	-10.7054
shou쎯li쎯	-10.7054
chang쎯de쎯	-10.7054
fu쎯shu쎯ji쎯	-10.7056
de쎯wang쎯luo쎯	-10.7058
,쎯ji쎯shi쎯	-10.7061
),쎯zi쎯	-10.7061
jian쎯quan쎯	-10.7062
jin쎯you쎯	-10.7063
.4	-10.7064
ke쎯xuan쎯	-10.7064
kao쎯sheng쎯	-10.7064
huan쎯yuan쎯	-10.7065
zhuan쎯bian쎯	-10.7065
xue쎯bao쎯	-10.7067
dong쎯hai쎯	-10.7067
ru쎯xia쎯	-10.7068
ji쎯zhi쎯cheng쎯	-10.7071
2,	-10.7072
kou쎯gan쎯	-10.7073
bing쎯ru쎯	-10.7073
te쎯chan쎯	-10.7073
fei쎯ying쎯li쎯	-10.7074
xi쎯li쎯	-10.7077
zhi쎯zheng쎯	-10.7079
mei쎯mei쎯	-10.7081
×4	-10.7082
gong쎯ke쎯	-10.7089
80쎯nian쎯dai쎯	-10.709
,쎯mei쎯you쎯	-10.7093
,쎯sheng쎯yu쎯	-10.7094
lin쎯jin쎯	-10.7096
zhen쎯xing쎯	-10.7098
20쎯yu쎯	-10.7102
zhi쎯gan쎯	-10.7103
deng쎯zhi쎯。쎯	-10.7103
ti쎯ming쎯	-10.7104
5쎯ren쎯	-10.7104
chi쎯,쎯	-10.7105
°C쎯	-10.7106
de쎯gai쎯nian쎯	-10.7109
jiu쎯long쎯	-10.7114
yan쎯ge쎯de쎯	-10.7125
deng쎯zhuan쎯ye쎯	-10.7127
shi쎯zhang쎯	-10.7127
chang쎯zhou쎯	-10.7129
kong쎯zhi쎯qi쎯	-10.7129
zeng쎯jia쎯le쎯	-10.713
zu쎯cheng쎯yuan쎯、쎯	-10.7136
she쎯zai쎯	-10.7136
30쎯ke쎯	-10.7145
ma쎯la쎯	-10.7146
chuang쎯zao쎯le쎯	-10.7146
dang쎯zheng쎯	-10.7149
4000쎯	-10.715
。2004쎯nian쎯	-10.7151
xin쎯xue쎯guan쎯	-10.7152
yi쎯ba쎯	-10.7154
shi쎯guan쎯	-10.7155
sai쎯shi쎯	-10.7155
”쎯cheng쎯hao쎯	-10.7156
bao쎯li쎯	-10.7156
1.4	-10.7158
bao쎯mo쎯	-10.7159
shang쎯yong쎯	-10.716
xing쎯:쎯	-10.716
2014쎯nian쎯	-10.7166
shi쎯guo쎯jia쎯	-10.7167
huang쎯gua쎯	-10.7167
dao쎯ju쎯	-10.7168
bai쎯he쎯	-10.7173
gao쎯zhi쎯	-10.7173
,2009쎯nian쎯	-10.7181
zhu쎯chang쎯	-10.7181
de쎯she쎯hui쎯	-10.7183
gong쎯cheng쎯、쎯	-10.7185
he쎯zuo쎯she쎯	-10.7187
de쎯gan쎯jue쎯	-10.7188
2.5쎯	-10.7188
zi쎯xun쎯fu쎯wu쎯	-10.719
15쎯ke쎯	-10.7194
jiu쎯neng쎯	-10.7195
pen쎯di쎯	-10.7196
,쎯dui쎯yu쎯	-10.7197
fu쎯xi쎯	-10.7201
ming쎯jiao쎯	-10.7201
fang쎯dao쎯	-10.7202
。쎯yin쎯ci쎯,쎯	-10.7203
chu쎯cun쎯	-10.7207
pai쎯mai쎯	-10.7212
de쎯yuan쎯ze쎯	-10.7216
fou쎯	-10.7219
qing쎯shi쎯	-10.722
sha쎯hai쎯	-10.7221
wei쎯ke쎯hu쎯	-10.7221
qing쎯qing쎯	-10.7221
chan쎯pin쎯。쎯	-10.7224
。쎯zuo쎯wei쎯	-10.7224
bei쎯mei쎯	-10.7225
21쎯shi쎯ji쎯	-10.7225
se쎯,쎯	-10.7231
yun쎯he쎯	-10.7232
jin쎯biao쎯sai쎯	-10.7236
zhu쎯zi쎯	-10.7241
que쎯ren쎯	-10.7243
chi쎯xu쎯fa쎯zhan쎯	-10.7243
ye쎯hui쎯	-10.7243
ti쎯de쎯	-10.7244
1.1	-10.7248
yu쎯bei쎯	-10.725
huo쎯po쎯	-10.7253
jiang쎯hui쎯	-10.7254
shui쎯ping쎯de쎯	-10.7254
jing쎯shen쎯,쎯	-10.7255
san쎯xiang쎯	-10.7257
1946쎯nian쎯	-10.7257
xin쎯ji쎯	-10.7258
kai쎯fa쎯you쎯xian쎯	-10.7259
jiang쎯yu쎯	-10.726
lian쎯xiang쎯	-10.7265
xiao쎯she쎯	-10.7267
san쎯jie쎯	-10.7269
xiang쎯jin쎯	-10.7271
chan쎯quan쎯	-10.7272
▁2008쎯nian쎯	-10.7272
dian쎯ti쎯	-10.7274
5쎯hao쎯	-10.7274
liang쎯ren쎯	-10.7278
deng쎯rong쎯yu쎯	-10.7279
de쎯tong쎯shi쎯	-10.7282
ai쎯ji쎯	-10.7283
qing쎯shan쎯	-10.7285
rong쎯qi쎯	-10.7286
hai쎯shui쎯	-10.7287
▁2006쎯nian쎯	-10.7288
jing쎯mao쎯	-10.7288
du쎯zi쎯	-10.729
di쎯yi쎯bu쎯	-10.7292
li쎯lun쎯he쎯	-10.7293
ce쎯hui쎯	-10.7294
и	-10.7294
,쎯zui쎯zhong쎯	-10.7295
qian쎯ren쎯	-10.7295
,1983쎯nian쎯	-10.7297
ji쎯du쎯	-10.73
dong쎯feng쎯	-10.7305
yi쎯yong쎯	-10.7312
。1949쎯nian쎯	-10.7314
gao쎯xiao쎯de쎯	-10.7317
di쎯3쎯	-10.7319
hu쎯jiao쎯	-10.7319
di쎯biao쎯	-10.7319
fu쎯di쎯	-10.7322
dai쎯biao쎯xing쎯	-10.7322
、쎯fu쎯wu쎯	-10.7322
fu쎯hua쎯	-10.7327
ke쎯zhi쎯wu쎯	-10.7327
shi쎯zhan쎯	-10.7329
jie쎯dian쎯	-10.7329
xi쎯xi쎯	-10.733
pu쎯tong쎯gao쎯	-10.7331
qian쎯jing쎯	-10.7331
de쎯bu쎯tong쎯	-10.7331
zuo쎯ci쎯	-10.7336
fa쎯sheng쎯de쎯	-10.7338
250	-10.7339
zi쎯·쎯	-10.734
jing쎯ji쎯shi쎯	-10.734
gai쎯cheng쎯	-10.7342
.0쎯	-10.7344
liu쎯chang쎯	-10.7345
rang쎯ni쎯	-10.7348
zhong쎯cheng쎯	-10.7349
qu쎯yi쎯	-10.7351
yue쎯wei쎯	-10.7352
jia쎯yong쎯	-10.7353
jing쎯ju쎯	-10.7354
7쎯yue쎯bi쎯ye쎯yu쎯	-10.7355
xian쎯shang쎯	-10.7357
]	-10.7358
te쎯zhi쎯	-10.7358
fa쎯xing쎯de쎯	-10.7358
,쎯liu쎯	-10.7359
ke쎯yong쎯yu쎯	-10.7359
yang쎯zhi쎯ye쎯	-10.7364
30쎯nian쎯	-10.7368
ping쎯xing쎯	-10.7369
mei쎯yuan쎯	-10.7369
jian쎯she쎯de쎯	-10.7371
zuo쎯shi쎯	-10.7371
,000쎯	-10.7373
。쎯yi쎯ban쎯	-10.7377
de쎯fa쎯zhan쎯,쎯	-10.7379
cheng쎯zhi쎯	-10.7381
fang쎯xiang쎯wei쎯	-10.7382
wu쎯ye쎯guan쎯li쎯	-10.7384
zan쎯yu쎯	-10.7388
(쎯gong쎯yuan쎯	-10.7391
bu쎯deng쎯	-10.7393
wen쎯hua쎯yi쎯chan쎯	-10.7393
cuan쎯	-10.7396
(193	-10.7397
shou쎯zhang쎯	-10.7397
yi쎯xin쎯	-10.7397
geng쎯hao쎯de쎯	-10.7397
ming쎯yun쎯	-10.74
guo쎯zhi쎯	-10.74
500쎯ke쎯	-10.7401
xiang쎯bi쎯	-10.7403
、쎯guo쎯jia쎯	-10.7403
men쎯,쎯	-10.7403
gu쎯jia쎯	-10.7408
zu쎯zhang쎯	-10.7408
ji쎯ying쎯yong쎯	-10.741
hui쎯gui쎯	-10.741
,2001쎯nian쎯	-10.7411
dong쎯han쎯	-10.7411
neng쎯li쎯de쎯	-10.7412
yang쎯cheng쎯	-10.7413
deng쎯chan쎯pin쎯	-10.7413
jie쎯cheng쎯	-10.7414
tian쎯ran쎯qi쎯	-10.7414
160	-10.7418
bian쎯ru쎯	-10.7419
0.4	-10.742
sheng쎯jing쎯	-10.742
lin쎯suan쎯	-10.7422
mi쎯ji쎯	-10.7422
shi쎯xun쎯	-10.7422
cheng쎯guo쎯jiang쎯	-10.7423
li쎯hua쎯	-10.7425
pin쎯kun쎯	-10.7428
dui쎯chen쎯	-10.7428
-0	-10.7429
rou쎯mao쎯	-10.743
,2010쎯nian쎯	-10.7433
you쎯zheng쎯	-10.7433
mei쎯yu쎯	-10.7435
yi쎯bu쎯fen쎯	-10.7436
ling쎯yi쎯ge쎯	-10.7438
chan쎯shu쎯	-10.7441
qi쎯fen쎯	-10.7442
chou쎯jian쎯	-10.7443
fa쎯lv쎯、쎯fa쎯gui쎯	-10.7448
ji쎯gou쎯。쎯	-10.745
gong쎯wei쎯	-10.7452
mei쎯,쎯	-10.7456
nei쎯xin쎯	-10.746
shou쎯,쎯	-10.7463
zhi쎯shao쎯	-10.7467
kao쎯jin쎯	-10.7467
jin쎯qian쎯	-10.7467
shou쎯zhong쎯	-10.7468
chuang쎯li쎯yu쎯	-10.7469
shang쎯ren쎯	-10.747
san쎯jiao쎯xing쎯	-10.747
15쎯ri쎯	-10.7471
ying쎯ge쎯lan쎯	-10.7473
2.0쎯	-10.7473
xi쎯han쎯	-10.7474
tui쎯xing쎯	-10.7474
▁。쎯	-10.7476
dong쎯jie쎯	-10.7481
250쎯	-10.7481
1937쎯nian쎯	-10.7488
。1992쎯nian쎯	-10.749
duan쎯qi쎯	-10.7492
hua쎯ji쎯	-10.7494
zhi쎯jin쎯,쎯	-10.7495
mian쎯ji쎯da쎯	-10.7495
700쎯	-10.7497
jing쎯tong쎯	-10.7497
de쎯kai쎯fa쎯	-10.7497
gan쎯jun쎯	-10.7499
yi쎯jiu쎯jiu쎯	-10.7499
),쎯shi쎯	-10.75
ti쎯chu쎯de쎯	-10.7503
guo쎯jia쎯dui쎯	-10.7503
yi쎯dan쎯	-10.7505
zhu쎯she쎯	-10.7505
xi쎯chang쎯	-10.7506
qing쎯gong쎯	-10.7507
da쎯tang쎯	-10.7508
,쎯jie쎯he쎯	-10.7509
▁쎯ben쎯shu쎯	-10.751
dian쎯zu쎯	-10.751
ji쎯du쎯jiao쎯	-10.7511
tiao쎯yue쎯	-10.7514
jiu쎯you쎯	-10.7517
、쎯fang쎯	-10.7522
jing쎯mei쎯	-10.7524
mei쎯shu쎯guan쎯	-10.7525
I	-10.7525
you쎯yi쎯ding쎯	-10.7526
30쎯fen쎯zhong쎯	-10.7527
de쎯xian쎯dai쎯hua쎯	-10.7528
duan쎯lian쎯	-10.7533
ti쎯dai쎯	-10.7533
ren쎯min쎯da쎯xue쎯	-10.7534
di쎯tan쎯	-10.7535
long쎯tou쎯qi쎯ye쎯	-10.7537
de쎯di쎯yi쎯	-10.7539
an쎯shi쎯	-10.754
da쎯dou쎯	-10.7541
ju쎯zhong쎯	-10.7541
10쎯gong쎯li쎯	-10.7543
liang쎯de쎯	-10.7545
zhao쎯shang쎯	-10.7545
jie쎯wei쎯	-10.7547
,쎯pi쎯lin쎯	-10.7551
lei쎯bie쎯:쎯	-10.7554
ru쎯yi쎯	-10.7556
gao쎯fen쎯zi쎯	-10.7559
li쎯xiang쎯de쎯	-10.7562
bin쎯ke쎯	-10.7564
68쎯	-10.7565
an쎯fang쎯	-10.7565
7쎯ren쎯	-10.7565
1)	-10.7566
de쎯guan쎯li쎯	-10.7566
yi쎯zhong쎯zhi쎯	-10.7566
kai쎯chuang쎯	-10.7568
ci쎯yu쎯	-10.7569
(.)	-10.7573
hei쎯an쎯	-10.7574
tie쎯dao쎯	-10.7575
wan쎯qi쎯	-10.7581
peng쎯ren쎯	-10.7582
fu쎯xing쎯	-10.7583
。1982쎯nian쎯	-10.7584
chao쎯ting쎯	-10.7584
,쎯shan쎯chang쎯	-10.7587
180쎯	-10.7589
de쎯si쎯xiang쎯	-10.7591
hui쎯shang쎯	-10.7595
fu쎯zong쎯jing쎯li쎯	-10.7595
46쎯	-10.7598
yu쎯yan쎯xue쎯	-10.7599
▁5쎯	-10.7599
quan쎯xiang쎯	-10.76
wu쎯yan쎯	-10.7602
nan쎯mian쎯	-10.7602
xin쎯yi쎯dai쎯	-10.7603
zheng쎯fu쎯zhu쎯di쎯	-10.7603
:쎯zhong쎯guo쎯	-10.7604
》쎯zai쎯	-10.7604
hua쎯jiao쎯	-10.761
nong쎯li쎯	-10.761
,쎯quan쎯mian쎯	-10.7611
bian쎯,쎯	-10.7611
,1994쎯nian쎯	-10.7615
yong쎯de쎯	-10.7615
ban쎯dao쎯ti쎯	-10.7621
jing쎯fei쎯	-10.7622
deng쎯te쎯dian쎯	-10.7623
lie쎯che쎯	-10.7624
wu쎯suo쎯	-10.7625
〉	-10.7625
fa쎯bing쎯	-10.7626
duo쎯ci쎯can쎯jia쎯	-10.7626
li쎯cai쎯	-10.7627
jing쎯de쎯zhen쎯	-10.7627
ken쎯ding쎯	-10.7629
xiong쎯hou쎯	-10.7629
cheng쎯hu쎯	-10.763
ke쎯xue쎯fa쎯zhan쎯	-10.7634
fa쎯da쎯	-10.7634
yi쎯yang쎯,쎯	-10.7637
qi쎯xing쎯	-10.7638
wu쎯guan쎯	-10.7638
shi쎯chang쎯shang쎯	-10.7639
52쎯	-10.764
bian쎯yu쎯	-10.7641
\\	-10.7646
fan쎯qie쎯	-10.7646
160쎯	-10.7649
.7쎯	-10.7649
20쎯duo쎯	-10.7651
dian쎯tai쎯	-10.7653
220	-10.7654
li쎯du쎯	-10.7654
lie쎯shi쎯	-10.7655
yong쎯le쎯	-10.7655
:0.	-10.7655
chan쎯pin쎯,쎯	-10.7657
zui쎯jin쎯	-10.7658
chu쎯xian쎯de쎯	-10.7659
,1990쎯nian쎯	-10.766
li쎯si쎯	-10.7661
fen쎯,쎯	-10.7663
,쎯can쎯jia쎯le쎯	-10.7664
li쎯mi쎯	-10.7665
ci쎯qi쎯	-10.7667
cai쎯、쎯	-10.7668
yuan쎯wei쎯yu쎯	-10.7668
〈	-10.7669
900	-10.767
ming쎯xian쎯de쎯	-10.767
ji쎯gou쎯,쎯	-10.767
xuan쎯yu쎯	-10.767
shi쎯yi쎯dao쎯	-10.7673
jie쎯ri쎯	-10.7673
nan쎯du쎯	-10.7674
》쎯yi쎯	-10.7675
。쎯hou쎯lai쎯	-10.7675
dao쎯yu쎯	-10.7676
wu쎯li쎯xue쎯	-10.7679
;쎯you쎯	-10.7681
0)	-10.7681
sui쎯yi쎯	-10.7684
dou쎯ke쎯yi쎯	-10.7685
zhan쎯you쎯	-10.7685
gong쎯min쎯	-10.7686
zong쎯bu쎯wei쎯yu쎯	-10.7689
zhang쎯yue쎯	-10.769
di쎯bu쎯	-10.769
huo쎯tui쎯	-10.7691
ceng쎯duo쎯ci쎯	-10.7692
le쎯yuan쎯	-10.7694
2쎯ci쎯	-10.7698
ta쎯hai쎯	-10.7699
1947쎯nian쎯	-10.7699
bu쎯tong쎯,쎯	-10.7701
,쎯jian쎯chi쎯	-10.7701
pian쎯、쎯	-10.7706
suo쎯zhu쎯	-10.7707
shun쎯xu쎯	-10.7708
01쎯	-10.7709
wei쎯ren쎯	-10.771
gai쎯gong쎯si쎯	-10.7712
。1984쎯nian쎯	-10.7712
,쎯shi쎯jian쎯yu쎯	-10.7713
zhuang쎯cun쎯	-10.7716
xin쎯xi쎯xi쎯tong쎯	-10.7721
zi쎯cheng쎯	-10.7728
mian쎯qian쎯	-10.7728
gui쎯mo쎯zui쎯da쎯	-10.773
de쎯dong쎯xi쎯	-10.773
gan쎯yu쎯	-10.7734
chuang쎯xin쎯,쎯	-10.7735
bing쎯qi쎯	-10.774
qing쎯jiao쎯	-10.774
chi쎯lun쎯	-10.7744
biao쎯zhun쎯de쎯	-10.7744
de쎯cheng쎯ji쎯	-10.7749
ke쎯zai쎯	-10.7749
guo쎯ji쎯mao쎯yi쎯	-10.775
sai쎯er쎯	-10.775
ying쎯du쎯	-10.775
dai쎯yu쎯	-10.7752
fang쎯fa쎯。쎯	-10.7753
1쎯zhi쎯	-10.7753
lu쎯xun쎯	-10.7755
ti쎯xian쎯le쎯	-10.7757
jin쎯xian쎯	-10.7757
yuan쎯wang쎯	-10.7757
hao쎯ma쎯	-10.7758
du쎯li쎯de쎯	-10.7759
sha쎯mo쎯	-10.7759
85쎯	-10.7759
ba쎯jiao쎯	-10.7762
yi쎯zhan쎯shi쎯	-10.7762
ming쎯·쎯	-10.7764
zhan쎯chu쎯	-10.7765
pin쎯yin쎯	-10.7767
3쎯wan쎯	-10.7767
jian쎯xing쎯	-10.7768
,1999쎯nian쎯	-10.777
xi쎯di쎯	-10.777
suan쎯fa쎯	-10.7772
dian쎯gong쎯	-10.7772
kai쎯hua쎯	-10.7773
zong쎯hui쎯	-10.7776
min쎯yong쎯	-10.7776
ji쎯dong쎯	-10.7777
an쎯zhi쎯	-10.7778
you쎯xu쎯duo쎯	-10.7779
,쎯yi쎯qi쎯	-10.778
。쎯yin쎯wei쎯	-10.7781
、쎯lin쎯	-10.7781
yi쎯lu쎯	-10.7784
shui쎯dian쎯zhan쎯	-10.7784
yin쎯yang쎯	-10.7786
gong쎯ye쎯yuan쎯	-10.7786
duo쎯ren쎯	-10.7788
da쎯gong쎯	-10.7789
jie쎯zou쎯	-10.7789
,쎯guang쎯dong쎯	-10.7789
10쎯yu쎯	-10.779
,쎯yi쎯“쎯	-10.7791
zao쎯zhi쎯	-10.7794
쎯yue쎯25쎯ri쎯	-10.7799
,9	-10.78
gong쎯yong쎯	-10.7803
mu쎯;쎯you쎯lin쎯di쎯	-10.7803
*쎯	-10.7806
duan쎯pian쎯	-10.7807
xi쎯si쎯	-10.7808
du쎯wu쎯	-10.7811
dang쎯xuan쎯	-10.7812
gu쎯zhi쎯	-10.7814
hua쎯qi쎯	-10.7816
de쎯shi쎯ji쎯	-10.782
tai쎯bei쎯	-10.7821
;쎯hua쎯	-10.7825
dong쎯,쎯	-10.7825
bu쎯zhu쎯	-10.7829
1쎯gong쎯li쎯	-10.783
duo쎯,쎯	-10.7831
,쎯ming쎯	-10.7835
mian쎯dian쎯	-10.7835
bian쎯jiao쎯	-10.7835
kua쎯yue쎯	-10.7836
bian쎯ya쎯qi쎯	-10.7836
liao쎯cheng쎯	-10.7838
ni쎯ding쎯	-10.784
ji쎯chu쎯zhi쎯shi쎯	-10.7841
bing쎯yu쎯	-10.7849
ming쎯tian쎯	-10.7851
gong쎯yi쎯pin쎯	-10.7854
,쎯liang쎯	-10.7854
zai쎯hai쎯	-10.7855
“쎯yi쎯	-10.7858
256	-10.7861
dian쎯chang쎯	-10.7865
jing쎯cheng쎯	-10.7865
chan쎯pin쎯you쎯	-10.7868
1쎯ci쎯	-10.7874
sui쎯hou쎯	-10.7874
zhu쎯hai쎯	-10.7876
mian쎯shi쎯	-10.7877
1쎯liang쎯	-10.7877
。1997쎯nian쎯	-10.7878
bo쎯ke쎯	-10.7879
de쎯zui쎯	-10.7879
qian쎯ru쎯	-10.7884
he쎯fei쎯shi쎯	-10.7885
pei쎯song쎯	-10.7886
quan쎯guo쎯xing쎯	-10.7887
ju쎯hua쎯	-10.7887
song쎯·쎯	-10.7888
yue쎯tuan쎯	-10.7888
jin쎯pai쎯	-10.7888
。쎯tong쎯guo쎯	-10.789
wei쎯hui쎯	-10.7893
zheng쎯zhou쎯shi쎯	-10.7894
,쎯bu쎯guo쎯	-10.7895
kuang쎯chan쎯	-10.7896
tian쎯tang쎯	-10.7896
gong쎯ye쎯qu쎯	-10.7897
zheng쎯mian쎯	-10.7899
bo쎯lin쎯	-10.7899
qu쎯fu쎯	-10.7899
deng쎯deng쎯。쎯	-10.79
”;쎯	-10.7901
xue쎯xiao쎯。쎯	-10.7904
5쎯mi쎯	-10.7905
zhi쎯zuo쎯de쎯	-10.7907
bing쎯shi쎯	-10.7909
cheng쎯yi쎯	-10.791
ling쎯shi쎯	-10.7911
”,쎯shi쎯	-10.7912
guang쎯xu쎯	-10.7913
fang쎯bao쎯	-10.7914
zhi쎯xiao쎯	-10.7914
cang쎯ku쎯	-10.7916
yuan쎯ji쎯	-10.7916
zhong쎯xin쎯。쎯	-10.7917
(쎯qu쎯	-10.7918
,쎯da쎯xue쎯xue쎯li쎯	-10.7918
xing쎯ji쎯bing쎯	-10.792
:‘쎯	-10.7922
da쎯dan쎯	-10.7923
de쎯shi쎯yong쎯	-10.7924
5쎯gong쎯li쎯	-10.7924
lai쎯yuan쎯yu쎯	-10.7926
zhao쎯huan쎯	-10.7928
1×	-10.7928
deng쎯duo쎯ge쎯	-10.7928
1쎯yue쎯chu쎯sheng쎯	-10.7928
bu쎯duan쎯ti쎯gao쎯	-10.793
kai쎯ban쎯	-10.7931
wu쎯yuan쎯	-10.7934
xing쎯ren쎯	-10.7936
feng쎯jian쎯	-10.7936
ju쎯ren쎯	-10.7936
fang쎯mian쎯,쎯	-10.7938
、쎯shang쎯wu쎯	-10.7939
pi쎯jiu쎯	-10.794
chan쎯sheng쎯le쎯	-10.7941
she쎯li쎯de쎯	-10.7942
feng쎯su쎯	-10.7942
dui쎯shou쎯	-10.7944
dui쎯bi쎯	-10.7944
yan쎯wu쎯	-10.7948
zhi쎯ming쎯de쎯	-10.7951
mei쎯jie쎯	-10.7953
ran쎯qi쎯	-10.7957
er쎯yan쎯	-10.7959
ge쎯ci쎯	-10.796
de쎯gong쎯neng쎯	-10.7963
,쎯di쎯li쎯wei쎯zhi쎯	-10.7965
。2009쎯nian쎯	-10.7968
fen쎯si쎯	-10.7976
(쎯yi쎯	-10.7976
,1991쎯nian쎯	-10.7977
。2002쎯nian쎯	-10.7978
shui쎯、쎯	-10.7978
xia쎯yi쎯	-10.798
qin쎯fen쎯	-10.7982
mian쎯bao쎯	-10.7986
zhu쎯ban쎯de쎯	-10.7988
san쎯ci쎯	-10.7988
▁쎯mu쎯qian쎯	-10.7989
2쎯yue쎯chu쎯sheng쎯	-10.7994
cheng쎯xiao쎯	-10.7995
。1993쎯nian쎯	-10.7996
jiang쎯zuo쎯	-10.7998
de쎯jia쎯ge쎯	-10.8
(,	-10.8001
jian쎯shang쎯	-10.8001
an쎯ji쎯suan쎯	-10.8002
fang쎯xiang쎯:쎯	-10.8002
bai쎯fen쎯	-10.8003
,쎯bing쎯you쎯	-10.8003
te쎯shu쎯de쎯	-10.8003
、쎯dong쎯	-10.8004
zong쎯hu쎯shu쎯	-10.8005
li쎯qing쎯	-10.8005
cun쎯nei쎯	-10.8005
쎯yue쎯20쎯ri쎯	-10.8006
xi쎯yang쎯	-10.8008
shi쎯yi쎯ben쎯	-10.8012
shou쎯dao쎯le쎯	-10.8013
bei쎯hai쎯	-10.8014
mai쎯mai쎯	-10.8015
1967쎯nian쎯	-10.8015
san쎯sheng쎯	-10.8015
jie쎯yu쎯	-10.8017
mo쎯si쎯ke쎯	-10.8017
jiang쎯ling쎯	-10.8018
bing쎯bian쎯	-10.8018
dang쎯ran쎯	-10.802
lu쎯mian쎯	-10.8021
yan쎯ke쎯	-10.8021
lei쎯da쎯	-10.8021
9쎯yue쎯chu쎯sheng쎯	-10.8023
ti쎯gong쎯shang쎯	-10.8023
shen쎯cha쎯	-10.8023
zheng쎯ju쎯	-10.8024
bu쎯shen쎯	-10.8026
,쎯zui쎯	-10.8027
hui쎯suo쎯	-10.8027
o쎯	-10.8027
liang쎯xing쎯	-10.8027
zhu쎯duo쎯	-10.8028
da쎯jian쎯	-10.8029
。1985쎯nian쎯	-10.803
hui쎯hui쎯yuan쎯。쎯	-10.8031
duo쎯de쎯	-10.8032
,쎯fei쎯	-10.8034
zhu쎯bao쎯	-10.8036
gui쎯yang쎯	-10.8038
zhong쎯zui쎯	-10.804
tou쎯tong쎯	-10.8041
▁쎯xian쎯ka쎯	-10.8041
zhi쎯an쎯	-10.8045
hua쎯xu쎯	-10.8045
miao쎯shu쎯:쎯	-10.8045
zhu쎯yao쎯yi쎯	-10.8051
ru쎯wei쎯	-10.8053
tian쎯cai쎯	-10.8053
.00쎯gong쎯li쎯	-10.8054
dian쎯shi쎯ju쎯《쎯	-10.8054
pai쎯shui쎯	-10.8054
suo쎯shu쎯fen	-10.8057
▁4	-10.8061
su쎯xing쎯	-10.8063
chuan쎯shi쎯	-10.8063
fa쎯re쎯	-10.8064
2쎯ke쎯	-10.8067
shi쎯dui쎯	-10.8069
。2003쎯nian쎯	-10.8069
tou쎯xiang쎯	-10.807
,1989쎯nian쎯	-10.8071
fei쎯lv쎯bin쎯	-10.8071
bing쎯xiang쎯	-10.8071
fen쎯mi쎯	-10.8071
wei쎯si쎯	-10.8073
jian쎯she쎯、쎯	-10.8074
jun쎯guan쎯	-10.8075
3쎯ren쎯,쎯	-10.8076
fang쎯xin쎯	-10.8076
,쎯shan쎯dong쎯	-10.8076
gui쎯hua쎯、쎯	-10.8078
》쎯ren쎯wu쎯zhi쎯yi쎯	-10.808
zui쎯hou쎯yi쎯	-10.8082
you쎯qing쎯	-10.8083
guo쎯min쎯jing쎯ji쎯	-10.8085
xiang쎯jian쎯	-10.8085
00쎯	-10.8086
,쎯chi쎯	-10.8087
yan쎯yu쎯	-10.8087
★	-10.8088
na쎯yang쎯	-10.809
yuan쎯ben쎯	-10.8093
quan쎯mian쎯de쎯	-10.8097
zhi쎯wai쎯	-10.8101
you쎯yi쎯ding쎯de쎯	-10.8103
ding쎯ju쎯	-10.8103
ji쎯bing쎯de쎯	-10.8103
he쎯shui쎯	-10.8104
jiao쎯yu쎯xue쎯	-10.8105
shui쎯wen쎯	-10.8107
wei쎯ci쎯	-10.8108
chang쎯qu쎯	-10.8109
い	-10.8109
chang쎯sha쎯shi쎯	-10.8112
qu쎯jing쎯	-10.8112
liu쎯lan쎯	-10.8113
u쎯	-10.8114
ding쎯duan쎯	-10.8115
guan쎯li쎯xue쎯	-10.8115
qi쎯zai쎯	-10.8116
shi쎯ye쎯you쎯xian쎯	-10.8117
wai쎯,쎯hai쎯	-10.8117
ge쎯jie쎯	-10.8118
yi쎯zi쎯	-10.8118
6쎯hao쎯	-10.812
zhuan쎯chang쎯	-10.812
te쎯you쎯de쎯	-10.812
ju쎯jue쎯	-10.8122
。쎯fen쎯bu쎯yu쎯	-10.8123
zhi쎯ban쎯	-10.8123
xia쎯lai쎯	-10.8124
shao쎯re쎯	-10.8127
she쎯xiang쎯ji쎯	-10.8127
fang쎯wei쎯	-10.8128
xian쎯shi쎯qi쎯	-10.8129
bai쎯li쎯	-10.813
-18	-10.8131
zuo쎯wen쎯	-10.8132
zheng쎯jie쎯	-10.8133
zi쎯xue쎯	-10.8136
di쎯di쎯	-10.8136
yue쎯1	-10.8138
cai쎯yao쎯	-10.814
ceng쎯xian쎯hou쎯	-10.8143
you쎯piao쎯	-10.8144
wang쎯fu쎯	-10.8145
ban쎯zhang쎯	-10.8146
jiang쎯jin쎯	-10.8146
liang쎯tiao쎯	-10.8146
ming쎯zhi쎯	-10.8147
,쎯ju쎯xian쎯cheng쎯	-10.8147
bi쎯ming쎯	-10.8151
jian쎯duan쎯	-10.8151
ji쎯xie쎯she쎯bei쎯	-10.8152
▁쎯qi쎯ta쎯	-10.8152
▁쎯xian쎯cun쎯	-10.8154
yi쎯shang쎯xue쎯li쎯	-10.8154
fu쎯zong쎯	-10.8154
rou쎯ruan쎯	-10.8155
kai쎯gong쎯	-10.8155
gong쎯shui쎯	-10.8156
、쎯she쎯hui쎯	-10.8156
you쎯guo쎯	-10.8156
,쎯yi쎯jing쎯	-10.8156
。쎯shan쎯chang쎯	-10.816
xiang쎯cai쎯	-10.8161
。1998쎯nian쎯	-10.8162
wen쎯ben쎯	-10.8162
shou쎯huan쎯ying쎯	-10.8163
▁2007쎯nian쎯	-10.8163
8쎯gong쎯li쎯	-10.8166
kai쎯yuan쎯	-10.8167
lai쎯shuo쎯,쎯	-10.8169
zuo쎯feng쎯	-10.817
,쎯shao쎯	-10.817
shi쎯shi쎯wu쎯suo쎯	-10.8174
can쎯bian쎯	-10.8175
si쎯ling쎯	-10.8177
◆	-10.8177
,쎯ye쎯you쎯	-10.818
li쎯jia쎯	-10.8181
kuo쎯jian쎯	-10.8181
si쎯ling쎯bu쎯	-10.8182
geng쎯you쎯	-10.8182
zi쎯xun쎯、쎯	-10.8186
san쎯xia쎯	-10.8193
6쎯nian쎯	-10.8193
xiang쎯zheng쎯	-10.8194
hui쎯zu쎯	-10.8194
,쎯zhe쎯li쎯	-10.8194
、쎯gan쎯	-10.8195
you쎯nong쎯hu쎯	-10.8195
qian쎯wei쎯	-10.8198
de쎯neng쎯li쎯	-10.82
er쎯wei쎯	-10.8201
liu쎯suan쎯	-10.8203
jin쎯jin쎯	-10.8205
:10	-10.8205
bi쎯sai쎯zhong쎯	-10.8208
▁9	-10.8211
he쎯kou쎯	-10.8212
tu쎯ji쎯	-10.8213
di쎯liu쎯jie쎯	-10.8214
xing쎯qi쎯ye쎯	-10.8216
li쎯qiu쎯	-10.8219
deng쎯chang쎯	-10.8226
ci쎯ci쎯	-10.8227
yi쎯hao쎯	-10.823
fu쎯zhou쎯shi쎯	-10.823
3쎯ke쎯	-10.823
fu쎯za쎯de쎯	-10.8231
zi쎯shen쎯de쎯	-10.8232
sun쎯hai쎯	-10.8234
shang쎯yi쎯	-10.8235
jia쎯jing쎯	-10.8238
nuo쎯wei쎯	-10.8238
long쎯shan쎯	-10.8239
cong쎯zhong쎯	-10.8245
▁쎯fu쎯	-10.8246
zao쎯nian쎯	-10.8247
lun쎯shu쎯	-10.8247
huo쎯dong쎯zhong쎯	-10.8251
,쎯zhi쎯you쎯	-10.8254
mao쎯,쎯	-10.8254
,쎯na쎯	-10.8256
wu쎯yue쎯	-10.826
zai쎯yi쎯ge쎯	-10.826
0쎯mi쎯,쎯nian쎯	-10.8265
zhi쎯yong쎯	-10.8267
zhan쎯dou쎯zhong쎯	-10.8269
쎯yue쎯15쎯ri쎯	-10.827
huo쎯shao쎯	-10.8271
he쎯pan쎯	-10.8272
1)쎯	-10.8273
900쎯	-10.8275
zhuan쎯jia쎯,쎯	-10.8277
nian쎯qing쎯ren쎯	-10.8277
de쎯suo쎯you쎯	-10.8278
qian쎯ding쎯	-10.828
duo쎯ceng쎯	-10.828
sheng쎯fen쎯	-10.8281
,쎯zhe쎯ge쎯	-10.8283
、쎯shang쎯hai쎯	-10.8283
zheng쎯dang쎯	-10.8283
ling쎯dao쎯ren쎯	-10.8284
jiang쎯shou쎯	-10.8285
mian쎯bu쎯	-10.8285
deng쎯xiao쎯ping쎯	-10.8285
gai쎯ming쎯wei쎯	-10.8286
de쎯yi쎯zhi쎯	-10.8288
。”쎯ming쎯	-10.8292
。1988쎯nian쎯	-10.8293
ji쎯qi쎯ren쎯	-10.8293
。1995쎯nian쎯	-10.8293
da쎯du쎯	-10.8295
▁2009쎯nian쎯	-10.8296
bu쎯qi쎯	-10.8297
xiu쎯ding쎯	-10.8298
190	-10.8301
tao쎯yuan쎯	-10.8302
zi쎯ran쎯bao쎯hu쎯	-10.8302
gong쎯fu쎯	-10.8302
200쎯mi쎯	-10.8302
qi쎯xian쎯	-10.8306
lv쎯di쎯	-10.8307
bei쎯qu쎯	-10.8307
di쎯xing쎯	-10.8308
ke쎯la쎯	-10.8308
shan쎯lin쎯	-10.8312
zhong쎯cai쎯	-10.8315
0쎯hao쎯mi쎯	-10.8315
huo쎯ban쎯	-10.8317
3.5쎯	-10.8317
qiang쎯zhi쎯	-10.8319
9쎯yue쎯zhi쎯	-10.8319
shan쎯ding쎯	-10.832
chu쎯pin쎯	-10.832
,쎯zuo쎯zhe쎯	-10.8321
bei쎯guang쎯	-10.8321
1939쎯nian쎯	-10.8322
de쎯li쎯lun쎯	-10.8323
(-)쎯	-10.8327
fu쎯lian쎯	-10.8329
xian쎯xian쎯	-10.8329
hei쎯bai쎯	-10.833
mian쎯mao쎯	-10.8334
shi쎯dang쎯	-10.8334
li쎯bai쎯	-10.8337
le쎯ta쎯	-10.8337
shang쎯fang쎯	-10.8337
yi쎯zuo쎯“쎯	-10.8337
she쎯ji쎯he쎯	-10.8339
zhuan쎯su쎯	-10.834
▁6、쎯	-10.8341
yong쎯yao쎯	-10.8342
shi쎯tu쎯	-10.8348
yong쎯you쎯yi쎯zhi쎯	-10.8349
dang쎯zu쎯zhi쎯	-10.8349
,쎯bei쎯jing쎯	-10.8349
you쎯liang쎯ge쎯	-10.8352
dui쎯qi쎯	-10.8352
huan쎯xing쎯	-10.8352
tui쎯li쎯	-10.8353
de쎯xu쎯yao쎯	-10.8354
ming쎯sheng쎯	-10.8357
she쎯bei쎯he쎯	-10.8358
xue쎯xiao쎯、쎯	-10.8359
shi쎯ri쎯ben쎯	-10.8363
/3	-10.8364
。쎯sui쎯zhe쎯	-10.8366
,쎯gao쎯ji쎯	-10.8369
-10	-10.837
qian쎯bi쎯	-10.837
xue쎯,쎯	-10.8372
ke쎯·쎯	-10.8373
200쎯duo쎯	-10.8375
she쎯ji쎯yu쎯	-10.8379
li쎯ti쎯sheng쎯	-10.8381
10%	-10.8386
yi쎯zhi쎯cong쎯shi쎯	-10.8388
he쎯ji쎯shu쎯	-10.8389
、쎯guang쎯dong쎯	-10.839
、쎯san쎯	-10.8391
zhi쎯wu쎯。쎯	-10.8392
0.7	-10.8392
1935쎯nian쎯	-10.8392
^	-10.8393
jian쎯ji쎯	-10.8393
wei쎯yi쎯ti쎯	-10.8393
yan쎯mo쎯	-10.8396
ai쎯xin쎯	-10.8401
gong쎯si쎯yi쎯	-10.8404
α	-10.8407
qi쎯ye쎯。	-10.8409
an쎯mo쎯	-10.841
200쎯ke쎯	-10.841
wen쎯bu쎯	-10.8411
:6	-10.8413
fo쎯shan쎯shi쎯	-10.8414
tian쎯kong쎯	-10.8415
hai쎯ke쎯yi쎯	-10.8416
duo쎯ming쎯	-10.8416
bu쎯xu쎯	-10.8418
、쎯quan쎯guo쎯	-10.8418
320	-10.842
pei쎯tao쎯she쎯shi쎯	-10.8421
duo쎯bu쎯	-10.8421
6000쎯	-10.8422
li쎯xin쎯	-10.8423
1940쎯nian쎯	-10.8423
he쎯gu쎯	-10.8426
feng쎯ge쎯de쎯	-10.8428
qu쎯le쎯	-10.8429
,쎯jiang쎯su쎯	-10.843
bing쎯tuan쎯	-10.8432
,쎯ye쎯ke쎯yi쎯	-10.8432
lie쎯ru쎯	-10.8433
/1	-10.8434
hui쎯xiang쎯	-10.8435
shen쎯zhou쎯	-10.8436
liu쎯lan쎯qi쎯	-10.8439
qu쎯dai쎯	-10.8443
yuan쎯liao쎯:쎯	-10.8443
shi쎯kong쎯	-10.8445
jian쎯zhu쎯she쎯ji쎯	-10.8445
,쎯huan쎯jing쎯you쎯	-10.8446
gong쎯cheng쎯xue쎯	-10.8447
lin쎯zhong쎯	-10.8447
shou쎯wei쎯	-10.8448
,쎯feng쎯	-10.845
de쎯yi쎯bu쎯fen쎯	-10.8451
nan쎯tong쎯	-10.8453
fu쎯yang쎯	-10.8453
zuo쎯yi쎯	-10.8453
zi쎯xin쎯	-10.8455
▁쎯di쎯zhi쎯:쎯	-10.8455
de쎯yi쎯xie쎯	-10.8458
chu쎯ban쎯de쎯	-10.8459
cai쎯hua쎯	-10.8459
zi쎯ti쎯	-10.846
700	-10.8464
que쎯xian쎯	-10.8465
shui쎯yu쎯	-10.8468
zhe쎯ci쎯	-10.8469
shi쎯mu쎯qian쎯	-10.847
qing쎯re쎯	-10.847
lin쎯xia쎯	-10.8471
jin쎯pao쎯	-10.8473
4쎯gong쎯li쎯	-10.8473
43쎯	-10.8475
dang쎯zhi쎯bu쎯shu쎯	-10.8475
“”	-10.8475
zao쎯shu쎯	-10.8476
bu쎯zhou쎯	-10.8478
nv쎯zhu쎯jue쎯	-10.8479
ao쎯yun쎯	-10.8482
2×	-10.8483
:1.쎯	-10.8484
yu쎯fa쎯zhan쎯	-10.8486
。1996쎯nian쎯	-10.8486
2)쎯	-10.8488
gang쎯ban쎯	-10.8488
shi쎯yin쎯wei쎯	-10.8489
chong쎯dian쎯qi쎯	-10.8496
kan쎯tan쎯	-10.8497
ben쎯ren쎯	-10.8497
5쎯ren쎯,쎯	-10.8498
ji쎯shu쎯de쎯	-10.8501
xian쎯dai쎯hua쎯de쎯	-10.8502
,쎯li쎯shu쎯yu쎯	-10.8505
xian쎯zai쎯de쎯	-10.8509
shou쎯huo쎯	-10.851
xin쎯feng쎯	-10.8511
xing쎯qiang쎯	-10.8512
che쎯xiao쎯	-10.8513
jin쎯xiang쎯	-10.8513
ping쎯hua쎯	-10.8518
zhou쎯qu쎯	-10.8519
jie쎯jue쎯le쎯	-10.8526
zheng쎯wei쎯	-10.8527
fo쎯shan쎯	-10.8528
gu쎯niang쎯	-10.8532
xiu쎯xi쎯	-10.8533
xin쎯sheng쎯	-10.8534
xiang쎯wei쎯yu쎯	-10.8536
zhu쎯yao쎯bao쎯kuo쎯	-10.8538
qian쎯wan쎯	-10.8538
9쎯ren쎯	-10.8539
dang쎯xiao쎯	-10.854
nan쎯,쎯	-10.8543
fa쎯biao쎯zuo쎯pin쎯	-10.8544
90쎯nian쎯dai쎯	-10.8546
zhan쎯、쎯	-10.8546
zuo쎯guo쎯	-10.8547
jian쎯she쎯,쎯	-10.8547
zhi쎯zhong쎯,쎯	-10.8548
xiao쎯huo쎯	-10.8548
jiao쎯hao쎯de쎯	-10.8549
▁쎯yong쎯fa쎯	-10.855
chong쎯xiu쎯	-10.8552
jian쎯ying쎯	-10.8553
mei쎯ren쎯	-10.8554
guo쎯ying쎯	-10.8554
gan쎯、쎯	-10.8554
zheng쎯、쎯	-10.8555
sheng쎯xue쎯li쎯	-10.8556
ru쎯hua쎯	-10.8556
gong쎯ting쎯	-10.8557
di쎯ban쎯	-10.8557
da쎯lian쎯shi쎯	-10.8558
lai쎯dian쎯	-10.8558
.12쎯	-10.8559
zhong쎯xi쎯	-10.856
le쎯《쎯	-10.856
chu쎯qu쎯	-10.8563
,쎯zhe쎯yang쎯	-10.8563
guang쎯pu쎯	-10.8563
jing쎯yan쎯。쎯	-10.857
shang쎯xue쎯yuan쎯	-10.8571
bo쎯zhong쎯	-10.8573
4.5	-10.8574
bo쎯te쎯	-10.8574
di쎯ji쎯	-10.8577
8쎯yue쎯chu쎯sheng쎯	-10.8579
xi쎯zhu쎯ren쎯	-10.8582
zui쎯xin쎯de쎯	-10.8582
bian쎯huan쎯	-10.8582
qi쎯bu쎯	-10.8583
yu쎯wang쎯	-10.8587
jiao쎯yi쎯suo쎯	-10.8588
lu쎯kou쎯	-10.8588
men쎯zhen쎯	-10.8588
bai쎯se쎯,쎯	-10.8589
yan쎯tao쎯hui쎯	-10.8589
bei쎯cheng쎯wei쎯“쎯	-10.8591
zhi쎯suo쎯	-10.8592
2.2	-10.8596
ya쎯re쎯dai쎯	-10.8599
huo쎯qi쎯ta쎯	-10.8599
chan쎯di쎯	-10.8603
qi쎯yuan쎯	-10.8603
nan쎯ce쎯	-10.8603
2006	-10.8604
72쎯	-10.8604
.8	-10.8604
쎯yue쎯18쎯ri쎯	-10.8605
,쎯can쎯jia쎯	-10.8607
,쎯xian쎯yi쎯	-10.8607
....	-10.861
de쎯guo쎯cheng쎯	-10.8611
。2010쎯nian쎯	-10.8611
leng쎯shui쎯	-10.8612
qing쎯zhu쎯	-10.8612
,쎯can쎯yu쎯	-10.8617
bao쎯》、《쎯	-10.8617
ou쎯xiang쎯	-10.8619
ye쎯zhu쎯	-10.8623
tong쎯su쎯	-10.8623
lie쎯wei쎯	-10.8625
tong쎯ling쎯	-10.8625
da쎯ming쎯	-10.8626
▁(1)쎯	-10.8626
she쎯ke쎯	-10.8629
zhu쎯ce쎯zi쎯jin쎯	-10.8631
qiu쎯chang쎯	-10.8631
jing쎯se쎯	-10.8633
juan쎯,쎯	-10.8635
63쎯	-10.8638
gu쎯xiang쎯	-10.8641
yan쎯jiu쎯ling쎯yu쎯	-10.8641
lv쎯he쎯jin쎯	-10.8641
lei쎯de쎯	-10.8642
min쎯ying쎯	-10.8645
mu쎯er쎯	-10.8646
wu쎯hu쎯	-10.8646
jing쎯tai쎯	-10.8647
500쎯mi쎯	-10.8648
ying쎯er쎯	-10.8651
kong쎯bai쎯	-10.8656
ping쎯zheng쎯	-10.8658
lin쎯pian쎯	-10.866
de쎯zhi쎯liang쎯	-10.8661
▁-쎯	-10.8663
ran쎯er쎯	-10.8663
chuang쎯xin쎯、쎯	-10.8664
hua쎯li쎯	-10.8664
er쎯shou쎯	-10.8665
,쎯li쎯yong쎯	-10.8665
jin쎯liang쎯	-10.8665
qiu쎯ling쎯	-10.8665
6쎯ren쎯,쎯	-10.8668
fu쎯zhu쎯bian쎯	-10.8669
jiao쎯qu쎯	-10.867
dang쎯zong쎯zhi쎯	-10.867
ban쎯bu쎯	-10.8671
:8	-10.8671
jian쎯she쎯he쎯	-10.8672
chan쎯pin쎯he쎯	-10.8673
xiang쎯nan쎯	-10.8674
de쎯yuan쎯yin쎯	-10.8675
zhou쎯zhi쎯	-10.8677
(-)	-10.8679
mo쎯ca쎯	-10.868
dui쎯yuan쎯	-10.8681
ci쎯xing쎯	-10.8687
yi쎯mian쎯	-10.8687
mu쎯di쎯shi쎯	-10.8688
men쎯hu쎯wang쎯	-10.869
lei쎯xing쎯de쎯	-10.869
gui쎯ding쎯de쎯	-10.8692
hui쎯you쎯	-10.8695
fen쎯ge쎯	-10.8695
heng쎯xiang쎯	-10.8696
zhi쎯xin쎯	-10.8701
zhuang쎯ji쎯	-10.8703
cong쎯hua쎯	-10.8705
1934쎯nian쎯	-10.8708
xi쎯er쎯	-10.8709
ren쎯,쎯qi쎯zhong쎯	-10.871
wei쎯fu쎯	-10.8711
you쎯ji쎯dui쎯	-10.8713
tan쎯xian쎯	-10.8715
—19	-10.8716
chang쎯yong쎯de쎯	-10.8717
wan쎯ren쎯	-10.8718
zi쎯yang쎯	-10.8722
gang쎯guan쎯	-10.8723
zhu쎯di쎯	-10.8725
10쎯duo쎯	-10.8725
xiao쎯ren쎯jiao쎯	-10.8726
zhu쎯zhou쎯	-10.8729
cao쎯shu쎯	-10.8729
yi쎯ding쎯yao쎯	-10.8729
,쎯huo쎯de쎯	-10.8732
hen쎯you쎯	-10.8733
bei쎯ping쎯wei쎯“쎯	-10.8734
zhi쎯ci쎯	-10.8736
qi쎯dai쎯	-10.8737
xiang쎯tong쎯de쎯	-10.8741
fen쎯cheng쎯	-10.8742
shan쎯liang쎯	-10.8743
peng쎯zhang쎯	-10.8744
nian쎯,쎯	-10.8745
yu쎯《쎯	-10.8745
fu쎯suo쎯zhang쎯	-10.8747
110	-10.8748
44쎯	-10.8751
jiao쎯xue쎯ban쎯	-10.8755
wan쎯mei쎯de쎯	-10.8757
ying쎯jie쎯	-10.8758
,쎯huo쎯zhe쎯	-10.8758
shi쎯jie쎯da쎯zhan쎯	-10.8759
jiu쎯dian쎯wei쎯yu쎯	-10.8761
li쎯cun쎯wei쎯hui쎯	-10.8763
1936쎯nian쎯	-10.8764
feng쎯ji쎯	-10.8767
zhuo쎯yue쎯de쎯	-10.8767
nai쎯mo쎯	-10.8768
han쎯yi쎯	-10.8768
pi쎯zhen쎯xing쎯	-10.877
xiang쎯jie쎯	-10.8773
,쎯bing쎯yi쎯	-10.8773
(2)쎯	-10.8774
194	-10.8775
,1981쎯nian쎯	-10.8776
zhu쎯ce쎯zi쎯ben쎯	-10.8777
bu쎯da쎯	-10.8778
zuo쎯biao쎯	-10.8779
zi쎯shu쎯	-10.8782
fa쎯xue쎯yuan쎯	-10.8782
qi쎯ju쎯	-10.8783
chuan쎯zhen쎯	-10.8783
쎯yue쎯10쎯ri쎯	-10.8783
yu쎯:	-10.8784
rong쎯hua쎯	-10.8785
bei쎯shang쎯	-10.8786
yi쎯fan쎯	-10.8789
cao쎯di쎯	-10.879
zhi쎯neng쎯hua쎯	-10.879
tian쎯wen쎯	-10.8791
deng쎯yuan쎯xiao쎯	-10.8791
70쎯nian쎯dai쎯	-10.8792
dan쎯shui쎯	-10.8792
、쎯mei쎯guo쎯	-10.8792
1.3	-10.8793
,.	-10.8796
dui쎯ce쎯	-10.8799
zhi쎯bing쎯	-10.8799
jiang쎯zhang쎯	-10.8803
fan쎯ying쎯le쎯	-10.8804
shi쎯pu쎯	-10.8804
du쎯ju쎯	-10.8805
zhong쎯ri쎯	-10.8806
xian쎯tiao쎯	-10.8807
jie쎯zhu쎯	-10.8807
jie쎯rang쎯	-10.8807
ying쎯dang쎯	-10.8808
guan쎯。쎯	-10.8809
ju쎯mu쎯	-10.881
ke쎯ai쎯	-10.8812
jiao쎯dian쎯	-10.8813
zao쎯zai쎯	-10.8814
ji쎯bai쎯	-10.8815
(《쎯	-10.8817
,쎯sui쎯zhe쎯	-10.8817
shu쎯ming쎯	-10.8817
6)쎯	-10.8819
de쎯chuan쎯tong쎯	-10.8819
3.쎯	-10.882
hun쎯li쎯	-10.8822
bu쎯shou쎯:쎯	-10.8824
▁◎쎯	-10.8826
cong쎯ming쎯	-10.8826
cai쎯hui쎯	-10.8826
zheng쎯qu쎯	-10.883
le쎯xu쎯duo쎯	-10.8833
[	-10.8834
chu쎯ban쎯fa쎯xing쎯	-10.8834
cai쎯liao쎯de쎯	-10.8836
qiu쎯ji쎯	-10.8836
。1994쎯nian쎯	-10.8838
zhuang쎯、쎯	-10.884
,쎯zong쎯jian쎯zhu쎯	-10.8841
you쎯hen쎯duo쎯	-10.8843
ya쎯zhong쎯	-10.8845
xiao쎯feng쎯	-10.8846
47쎯	-10.8848
kai쎯cai쎯	-10.8848
ji쎯《쎯	-10.8849
zhi쎯tu쎯	-10.885
xia쎯gu쎯	-10.8851
hui쎯guo쎯	-10.8851
,쎯mei쎯nian쎯	-10.8853
xu쎯lie쎯	-10.8855
qian쎯fu쎯	-10.8856
zhi쎯li쎯yu쎯wei쎯	-10.8857
fu쎯ben쎯	-10.886
bi쎯zhi쎯	-10.8861
shan쎯shang쎯	-10.8861
de쎯xiao쎯guo쎯	-10.8867
xiang쎯dong쎯	-10.8869
zhi쎯shui쎯dao쎯	-10.8869
mei쎯fu쎯	-10.887
qie쎯ge쎯	-10.8871
ye쎯。”	-10.8872
da쎯er쎯	-10.8873
8쎯ren쎯,쎯	-10.8875
8쎯ren쎯	-10.8875
bu쎯xu쎯yao쎯	-10.8876
gan쎯xian쎯	-10.8876
fu쎯shi쎯zhang쎯	-10.8876
zai쎯xiao쎯	-10.8876
quan쎯yi쎯	-10.8879
lu쎯xiang쎯	-10.8883
lin쎯li쎯	-10.8885
dao쎯di쎯	-10.8885
zhi쎯jin쎯ren쎯	-10.8885
1941쎯nian쎯	-10.8892
zhao쎯shou쎯	-10.8892
yan쎯yuan쎯,쎯	-10.8892
hai쎯xian쎯	-10.8894
ke쎯rong쎯na쎯	-10.8898
、쎯dang쎯zu쎯cheng쎯	-10.8898
(쎯yi쎯xia쎯jian쎯	-10.8898
hua쎯tan쎯	-10.8898
ju쎯xian쎯	-10.8901
▁쎯cong쎯	-10.8902
shan쎯chu쎯	-10.8902
chong쎯tu쎯	-10.8903
zhun쎯ze쎯	-10.8906
ㄐ	-10.8907
▁쎯xian쎯ren쎯	-10.8909
,쎯bei쎯yu쎯	-10.8911
wei쎯zhong쎯xin쎯	-10.8911
chu쎯zhang쎯	-10.8912
zheng쎯ke쎯ji쎯	-10.8913
lin쎯yi쎯	-10.8913
tou쎯chan쎯	-10.8914
》(19	-10.8914
di쎯yi쎯ming쎯	-10.8914
dong쎯xian쎯	-10.8916
.6	-10.8916
ya쎯zhi쎯	-10.8916
gu쎯du쎯	-10.8918
xin쎯si쎯jun쎯	-10.892
2.1	-10.892
""쎯	-10.8921
mo쎯li쎯	-10.8922
185	-10.8926
can쎯jian쎯	-10.8927
neng쎯shou쎯	-10.8927
ru쎯:쎯	-10.893
xi쎯shui쎯	-10.8932
dui쎯mian쎯	-10.8933
yu쎯ding쎯	-10.8934
liang쎯shan쎯	-10.8934
jian쎯yue쎯	-10.8935
yi쎯zhou쎯	-10.8938
、쎯qi쎯che쎯	-10.8939
de쎯you쎯xi쎯	-10.894
qi쎯zhu쎯yao쎯	-10.8941
qian쎯xi쎯	-10.8942
zun쎯zhong쎯	-10.8943
yan쎯xu쎯	-10.8945
、쎯gu쎯	-10.8945
xin쎯zhong쎯	-10.8945
zhi쎯liang쎯di쎯yi쎯	-10.8945
xing쎯huo쎯	-10.8945
tu쎯qi쎯	-10.8947
3쎯xiang쎯	-10.8947
xi쎯xiang쎯	-10.8947
mo쎯er쎯	-10.8948
er쎯zhi쎯	-10.8949
wu쎯xiang쎯	-10.8952
100%쎯	-10.8952
zhong쎯yi쎯yuan쎯	-10.8952
tai쎯ji쎯	-10.8952
jiao쎯gao쎯de쎯	-10.8953
,쎯ren쎯men쎯	-10.8954
xiang쎯xia쎯	-10.8955
yong쎯liang쎯	-10.8956
kuang쎯chuang쎯	-10.8959
shuang쎯chong쎯	-10.8959
dun쎯,쎯	-10.896
xun쎯zhang쎯	-10.896
xiang쎯jie쎯he쎯	-10.8961
yi쎯gu쎯	-10.8961
▁2010쎯nian쎯	-10.8963
11쎯ge쎯	-10.8965
tiao쎯wen쎯	-10.8966
jie쎯fang쎯hou쎯	-10.8966
ji쎯shu쎯kai쎯fa쎯	-10.8966
ce쎯,쎯	-10.8968
(15	-10.8971
qi쎯yue쎯	-10.8971
qian쎯xin쎯	-10.8973
jin쎯huang쎯se쎯	-10.8973
hai쎯xia쎯	-10.8974
10.	-10.8976
an쎯suan쎯	-10.8978
fa쎯ding쎯	-10.8979
shuo쎯shi쎯yan쎯ji	-10.8979
da쎯mi쎯	-10.898
wu쎯si쎯	-10.8983
zhu쎯you쎯《쎯	-10.8983
heng쎯xing쎯	-10.8984
xiang쎯yao쎯	-10.8988
shi쎯zong쎯	-10.899
wen쎯he쎯	-10.899
nan쎯ning쎯shi쎯	-10.8992
jie쎯gou쎯,쎯	-10.8992
。”쎯tang쎯	-10.8993
zhi쎯ke쎯	-10.8999
188	-10.9
di쎯qu쎯。쎯	-10.9002
yi쎯liang쎯	-10.9002
51쎯	-10.9003
suo쎯zuo쎯	-10.9004
bu쎯gui쎯ze쎯	-10.9008
mu쎯ban쎯	-10.9009
she쎯qu쎯wei쎯yu쎯	-10.9015
2)	-10.9015
yong쎯yi쎯	-10.9015
mian쎯ji쎯wei쎯	-10.9016
shan쎯tou쎯	-10.9017
,쎯dang쎯shi쎯	-10.9018
zhang쎯zhuan쎯ji쎯	-10.9023
mian쎯tuan쎯	-10.9023
zai쎯zhe쎯ge쎯	-10.9023
yong쎯jiu쎯	-10.9024
she쎯hui쎯xue쎯	-10.9025
wen쎯ti쎯。쎯	-10.9026
▁쎯she쎯xiang쎯tou쎯	-10.9026
ke쎯zhi쎯	-10.9027
liu쎯shui쎯	-10.9027
fa쎯xian쎯le쎯	-10.9029
▁쎯ying쎯pan쎯	-10.9029
쎯yue쎯28쎯ri쎯	-10.9029
,쎯hai쎯ba쎯	-10.9037
cai쎯jing쎯da쎯xue쎯	-10.904
chu쎯dao쎯	-10.9041
。쎯zhe쎯li쎯	-10.9043
yi쎯jiao쎯	-10.9045
,쎯fen쎯	-10.9045
2쎯xiang쎯	-10.9045
49쎯	-10.9045
fen쎯dou쎯	-10.9046
bu쎯ding쎯	-10.9047
feng쎯shui쎯	-10.9047
de쎯peng쎯you쎯	-10.9047
kuo쎯zhang쎯	-10.9049
a쎯la쎯	-10.9049
。1986쎯nian쎯	-10.905
bu쎯zhu쎯ren쎯	-10.9052
,쎯neng쎯gou쎯	-10.9052
ge쎯wu쎯	-10.9052
,(쎯	-10.9052
▁쎯san쎯	-10.9053
,쎯gei쎯	-10.9054
”쎯zi쎯	-10.9056
ma쎯zui쎯	-10.9062
fan쎯xiang쎯	-10.9063
yan쎯zi쎯	-10.9063
de쎯nu쎯li쎯	-10.9066
de쎯zui쎯xin쎯	-10.9068
▁쎯er쎯	-10.9069
sheng쎯zu쎯nian쎯	-10.9072
tao쎯hua쎯	-10.9074
han쎯dai쎯	-10.9074
gao쎯feng쎯	-10.9076
cheng쎯tao쎯	-10.9076
shang쎯xian쎯	-10.9076
jun쎯zhu쎯	-10.9076
mian쎯ji쎯5	-10.9081
1942쎯nian쎯	-10.9082
fu쎯yan쎯jiu쎯yuan쎯	-10.9083
nve쎯	-10.9084
nian쎯sheng쎯chan쎯	-10.9085
min쎯ge쎯	-10.9085
luo쎯ke쎯	-10.9086
tai쎯shi쎯	-10.9088
de쎯jing쎯ji쎯	-10.9092
ping쎯wei쎯“쎯	-10.9094
zhuan쎯ye쎯xue쎯xi쎯	-10.9094
nian쎯de쎯li쎯shi쎯	-10.9095
ye쎯nei쎯	-10.9097
zui쎯gao쎯de쎯	-10.9101
you쎯mei쎯,쎯	-10.9102
6쎯wan쎯	-10.9103
you쎯xu쎯	-10.9104
hu쎯bu쎯	-10.9106
66쎯	-10.9106
wai쎯biao쎯	-10.9107
gong쎯zhi쎯	-10.9107
shi쎯zhu쎯ren쎯	-10.9108
tang쎯chao쎯	-10.9108
he쎯xi쎯	-10.911
te쎯·쎯	-10.911
zhi쎯sheng쎯	-10.9111
qing쎯yi쎯	-10.9113
jing쎯xiao쎯shang쎯	-10.9114
yi쎯gong쎯	-10.9114
zhe쎯lei쎯	-10.9114
shi쎯yi쎯jia쎯yi쎯	-10.9115
쎯gong쎯qing쎯,쎯	-10.9128
yi쎯shan쎯	-10.9128
10000801);});	-10.9129
bi쎯ci쎯	-10.913
xi쎯ji쎯	-10.9131
zhi쎯yan쎯	-10.9131
sai쎯ji쎯	-10.9131
shi쎯gong쎯an쎯ju쎯	-10.9132
zhi쎯zao쎯shang쎯	-10.9134
jing쎯guo쎯jia쎯	-10.9134
hu쎯die쎯	-10.9135
tong쎯、쎯	-10.9135
1933쎯nian쎯	-10.9137
jin쎯zhang쎯	-10.9139
deng쎯duo쎯xiang쎯	-10.9139
,쎯wai쎯	-10.914
lu쎯di쎯	-10.9142
ming쎯xue쎯sheng쎯	-10.9142
88쎯	-10.9143
li쎯you쎯	-10.9148
yi쎯bao쎯	-10.9148
er쎯shi쎯nian쎯	-10.9151
shi쎯jian쎯nei쎯	-10.9151
2003	-10.9151
wen쎯ji쎯	-10.9154
yuan쎯cai쎯liao쎯	-10.9154
tong쎯ku쎯	-10.9155
zou쎯jin쎯	-10.9157
、쎯ma쎯	-10.9159
zhong쎯ye쎯	-10.9163
pin쎯pai쎯de쎯	-10.9164
dui쎯hua쎯	-10.9164
hui쎯fu쎯zhu쎯ren쎯	-10.9166
fu쎯diao쎯	-10.9169
xian쎯cang쎯	-10.917
da쎯fang쎯	-10.9171
shang쎯quan쎯	-10.9172
shang쎯shi쎯ji쎯	-10.918
tong쎯shi쎯ye쎯	-10.9181
,쎯que쎯bao쎯	-10.9182
∶	-10.9184
ao쎯di쎯li쎯	-10.9184
100쎯mi쎯	-10.9185
hen쎯hao쎯	-10.9187
쎯yue쎯12쎯ri쎯	-10.9187
。1990쎯nian쎯	-10.9188
zhen쎯、쎯	-10.9188
3,	-10.919
ke쎯yan쎯ke쎯ti쎯	-10.9191
ka쎯er쎯	-10.9191
er쎯ren쎯	-10.9192
suo쎯xu쎯	-10.9194
shuo쎯ming쎯shu쎯	-10.9195
wo쎯er쎯	-10.9196
shou쎯chuang쎯	-10.9196
pie쎯	-10.9197
lu쎯xu쎯	-10.9198
kang쎯ri쎯zhan쎯	-10.9198
2쎯ming쎯	-10.92
mei쎯shu쎯shi쎯	-10.92
chu쎯xian쎯le쎯	-10.9201
zui쎯xian쎯jin쎯de쎯	-10.9201
ming쎯qing쎯	-10.9202
chang쎯yu쎯	-10.9203
wei쎯qi쎯ye쎯	-10.9206
kai쎯tong쎯	-10.9207
jiao쎯fu쎯	-10.9207
ci쎯。쎯	-10.9207
chao쎯sheng쎯	-10.921
shi쎯xue쎯	-10.9211
zhan쎯chang쎯	-10.9212
tai쎯he쎯	-10.9213
de쎯zhi쎯shi쎯	-10.9213
.07	-10.9214
chu쎯sheng쎯zai쎯	-10.9214
qiao쎯zhen쎯	-10.9214
6쎯gong쎯li쎯	-10.9216
nan쎯jing쎯da쎯xue쎯	-10.9217
she쎯wai쎯	-10.9217
gu쎯lao쎯	-10.9218
。2001쎯nian쎯	-10.9218
bei쎯yong쎯。	-10.9219
2010	-10.922
。쎯xia쎯	-10.9222
zhu쎯yin쎯	-10.9226
shui쎯zhun쎯	-10.9226
qi쎯ye쎯wen쎯hua쎯	-10.9233
bin쎯hai쎯	-10.9236
20쎯yu쎯pian쎯	-10.9237
tian쎯zi쎯	-10.9241
qing쎯xing쎯	-10.9242
lv쎯se쎯,쎯	-10.9242
shui쎯shang쎯	-10.9243
jiao쎯wang쎯	-10.9243
。1983쎯nian쎯	-10.9245
qu쎯ren쎯min쎯	-10.9248
jiao쎯xiao쎯	-10.9248
tong쎯hang쎯ye쎯	-10.9248
jin쎯qi쎯	-10.9249
xi쎯tong쎯zhong쎯	-10.925
si쎯hou쎯	-10.9251
de쎯jiao쎯du쎯	-10.9252
gong쎯xu쎯	-10.9252
shi쎯gen쎯ju쎯	-10.9253
qin쎯wang쎯	-10.9254
ping쎯deng쎯	-10.9254
xue쎯zhi쎯	-10.9256
2/	-10.9256
zhong쎯zhi쎯yu쎯mi쎯	-10.9257
huai쎯nan쎯	-10.9257
zheng쎯shou쎯	-10.9257
쎯ping쎯mi쎯	-10.9257
。1987쎯nian쎯	-10.9262
yi쎯zhi쎯hao쎯ping쎯	-10.9262
ji쎯er쎯	-10.9264
ban쎯zi쎯	-10.9264
ke쎯sou쎯	-10.9268
kuai쎯ji쎯shi쎯	-10.927
cun쎯zhen쎯	-10.927
da쎯huo쎯	-10.9273
jian쎯xi쎯	-10.9274
xiong쎯hou쎯,쎯	-10.9275
gu쎯wu쎯	-10.9276
bi쎯li쎯shi쎯	-10.9278
。쎯dan쎯shi쎯	-10.9279
hao쎯mi쎯,쎯shi쎯yi쎯	-10.928
cheng쎯xi쎯	-10.928
shen쎯wei쎯	-10.9282
sheng쎯yue쎯	-10.9283
mo쎯fang쎯	-10.9284
xiao쎯xiang쎯	-10.9284
huo쎯de쎯zhe쎯	-10.9284
de쎯pin쎯pai쎯	-10.9284
xue쎯xue쎯shi쎯	-10.9285
jing쎯yan쎯he쎯	-10.9288
ren쎯da쎯chang쎯	-10.929
,쎯xu쎯	-10.9291
xiao쎯wang쎯	-10.9292
tai쎯,쎯	-10.9295
wen쎯ge쎯	-10.9297
186	-10.9297
wei쎯xie쎯	-10.9298
liu쎯jing쎯	-10.9301
yu쎯ying쎯yong쎯	-10.9301
chu쎯xing쎯	-10.9302
dang쎯gui쎯	-10.9303
58쎯	-10.9304
1944쎯nian쎯	-10.9305
。2000쎯nian쎯	-10.9305
zhong쎯yao쎯can쎯s	-10.9306
bu쎯qiang쎯	-10.9309
shui쎯xi쎯	-10.9309
bai쎯ling쎯	-10.9312
jie쎯xian쎯	-10.9313
zhu쎯shou쎯	-10.9314
jie쎯shi쎯:쎯	-10.9314
a쎯li쎯	-10.9316
i쎯shi쎯yi쎯jia쎯	-10.9317
li쎯,쎯hai쎯ba쎯1	-10.9318
biao쎯qian쎯	-10.9318
mu쎯shi쎯	-10.9319
fu쎯jiao쎯shou쎯,쎯	-10.9322
,쎯yi쎯wei쎯	-10.9325
xue쎯shuo쎯shi쎯	-10.9325
¥	-10.9326
de쎯shi쎯qing쎯	-10.9328
zhuan쎯ji쎯《쎯	-10.9329
zheng쎯jian쎯	-10.9329
nan쎯ning쎯	-10.933
wei쎯ruan쎯	-10.9332
00쎯wan쎯yuan쎯	-10.9334
yan쎯jiu쎯yuan쎯,쎯	-10.9335
de쎯shui쎯	-10.9337
,쎯ben쎯	-10.9338
zheng쎯ce쎯he쎯	-10.9339
wu쎯qiong쎯	-10.934
。쎯suo쎯yi쎯	-10.9341
hou쎯yin쎯	-10.9341
xin쎯xi쎯lan쎯	-10.9343
。쎯zhe쎯ge쎯	-10.9344
2.8	-10.9345
dian쎯xian쎯	-10.9346
zhi쎯yuan쎯zhe쎯	-10.9349
3쎯yue쎯chu쎯sheng쎯	-10.9349
wu쎯mao쎯	-10.935
xie쎯zi쎯lou쎯	-10.9351
de쎯yi쎯jia쎯	-10.9353
ge쎯ming쎯gen쎯ju쎯d	-10.9355
ke쎯yi쎯tong쎯guo쎯	-10.9355
(10	-10.9356
gong쎯shang쎯hang쎯	-10.9357
gu쎯zhen쎯	-10.9357
gan쎯dong쎯	-10.9357
zhan쎯di쎯1	-10.9357
li쎯xi쎯	-10.9357
liang쎯duan쎯	-10.9359
tan쎯ce쎯	-10.936
▁『쎯	-10.9362
ding쎯li쎯	-10.9364
,쎯sui쎯ran쎯	-10.9366
qian쎯mi쎯,쎯	-10.9367
ㄣ	-10.9368
tian쎯zhu쎯jiao쎯	-10.9374
shun쎯jian쎯	-10.9374
18쎯ri쎯	-10.9374
hua쎯shan쎯	-10.9375
da쎯guan쎯	-10.9377
110쎯	-10.9377
shan쎯gu쎯	-10.9378
yue쎯kan쎯	-10.9378
▁10	-10.9381
wei쎯guan쎯	-10.9384
chu쎯bei쎯	-10.9384
chang쎯zheng쎯	-10.9386
liu쎯li쎯	-10.9388
5/	-10.939
cheng쎯jian쎯	-10.9392
tao쎯fang쎯	-10.9392
you쎯lan쎯	-10.9392
19쎯shi쎯ji쎯	-10.9395
biao쎯xian쎯chu쎯	-10.9397
shuo쎯hua쎯	-10.9397
sha쎯si쎯	-10.9398
dao쎯ban쎯shi쎯chu쎯	-10.9399
nei쎯ge쎯	-10.94
dong쎯yuan쎯	-10.9401
。쎯qing쎯	-10.9401
ban쎯gong쎯lou쎯	-10.9401
ge쎯la쎯	-10.9402
”)쎯	-10.9403
ma쎯er쎯	-10.9406
biao쎯bing쎯	-10.9408
she쎯hui쎯tuan쎯ti쎯	-10.9412
da쎯bai쎯	-10.9413
ci쎯fu쎯	-10.9414
long쎯men쎯	-10.9414
san쎯bai쎯	-10.9415
bao쎯luo쎯	-10.9416
qi쎯ye쎯ji쎯tuan쎯	-10.9417
huan쎯le쎯	-10.9419
shuai쎯ling쎯	-10.9419
nao쎯xue쎯guan쎯	-10.942
▁197	-10.942
qiang쎯jiu쎯	-10.9421
4쎯ren쎯,쎯	-10.9422
ji쎯mo쎯	-10.9423
ru쎯qin쎯	-10.9424
─	-10.9428
1.7	-10.943
,쎯ruo쎯	-10.9431
chi쎯you쎯	-10.9434
wei쎯wei쎯yuan쎯	-10.9437
zao쎯yin쎯	-10.9438
sheng쎯chou쎯	-10.9438
hui쎯bian쎯	-10.9438
qiang쎯lie쎯de쎯	-10.9439
luan쎯xing쎯	-10.944
neng쎯li쎯。쎯	-10.9441
ji쎯zu쎯	-10.9441
bing쎯zheng쎯	-10.9444
yong쎯shu쎯	-10.9446
28쎯ri쎯	-10.9447
sha쎯ren쎯	-10.9449
쎯yue쎯26쎯ri쎯	-10.9449
guan쎯che쎯zhi쎯	-10.9449
jue쎯shi쎯	-10.9456
gai쎯xiang쎯mu쎯	-10.9457
ren쎯zai쎯	-10.9457
sui쎯,쎯	-10.9458
3)쎯	-10.9458
、쎯an쎯quan쎯	-10.9458
wo쎯xiao쎯	-10.9458
jie쎯ju쎯	-10.9459
bai쎯cai쎯	-10.946
zhu쎯zhi쎯yi쎯shi쎯	-10.946
shen쎯hou쎯	-10.946
1쎯ke쎯	-10.9463
"、"쎯	-10.9463
shi쎯cheng쎯	-10.9464
ding쎯bu쎯	-10.9464
zhu쎯yin쎯:	-10.9465
tai쎯zhou쎯	-10.9468
zhong쎯ren쎯	-10.9469
yi쎯zhao쎯	-10.947
fang쎯wen쎯xue쎯	-10.9472
yi쎯ye쎯	-10.9474
de쎯bu쎯fen쎯	-10.9474
er쎯lai쎯	-10.948
da쎯zhi쎯	-10.9483
li쎯·쎯	-10.9485
hua쎯fei쎯	-10.9487
hua쎯zhuang쎯	-10.9488
4～	-10.9489
dong쎯zhi쎯	-10.9489
de쎯yu쎯yan쎯	-10.949
1200쎯	-10.9492
:7	-10.9492
yuan쎯dai쎯	-10.9492
can쎯jia쎯guo쎯	-10.9492
dui쎯ying쎯	-10.9493
ji쎯di쎯,쎯	-10.9494
qie쎯huan쎯	-10.9495
dan쎯chun쎯	-10.9496
ke쎯yi쎯shi쎯	-10.9498
98쎯	-10.9498
zai쎯xiang쎯gang쎯	-10.9499
,쎯yi쎯bian쎯	-10.9502
fa쎯》쎯	-10.9503
쎯yue쎯16쎯ri쎯	-10.9505
jiu쎯yuan쎯	-10.9506
》쎯shi쎯you쎯	-10.951
ren쎯jun쎯shou쎯ru쎯	-10.951
qie쎯duan쎯	-10.951
쎯yue쎯8쎯ri쎯	-10.9512
10쎯yue쎯,쎯	-10.9512
qian쎯lie쎯	-10.9513
ye쎯neng쎯	-10.9514
biao쎯xian쎯wei쎯	-10.9516
di쎯4쎯	-10.9516
shi쎯jian쎯zhong쎯	-10.9516
dao쎯xiang쎯	-10.9516
bu쎯lu쎯	-10.9521
%%*/	-10.9521
you쎯shi쎯,쎯	-10.9525
""	-10.9526
bao쎯guan쎯	-10.9527
de쎯zhu쎯ti쎯	-10.9528
zhuan쎯ren쎯jiao쎯	-10.9529
shu쎯qian쎯	-10.9532
wei쎯nin쎯ti쎯gong쎯	-10.9534
쎯sui쎯。쎯	-10.9534
er쎯de쎯ming쎯。쎯	-10.9535
zhe쎯zuo쎯	-10.9535
7쎯hao쎯	-10.9535
xin쎯xi쎯fu쎯wu쎯	-10.9537
shen쎯mei쎯	-10.9537
de쎯li쎯liang쎯	-10.9537
tong쎯guo쎯dui쎯	-10.9539
189	-10.9539
bian쎯shen쎯	-10.9541
liu쎯xiang쎯	-10.9542
da쎯ting쎯	-10.9543
lou쎯、쎯	-10.9544
de쎯xin쎯xi쎯	-10.9544
jian쎯pi쎯	-10.9545
。1999쎯nian쎯	-10.9545
ru쎯men쎯	-10.9546
ti쎯zhi쎯gai쎯ge쎯	-10.9548
de쎯jue쎯se쎯	-10.955
qiu쎯xing쎯	-10.9551
lian쎯ai쎯	-10.9551
nong쎯yu쎯	-10.9551
(17	-10.9552
jiu쎯fen쎯	-10.9553
kui쎯yang쎯	-10.9554
si쎯xiang쎯zheng쎯	-10.9556
qing쎯,쎯	-10.9557
《쎯hou쎯han쎯shu쎯·쎯	-10.9557
ji쎯nian쎯guan쎯	-10.9557
41쎯	-10.9558
xiu쎯yang쎯	-10.9558
3/	-10.956
gui쎯hua쎯she쎯ji쎯	-10.956
▁5	-10.956
feng쎯kuang쎯	-10.9563
shuo쎯guo쎯	-10.9565
▁(3)쎯	-10.9565
dao쎯guang쎯	-10.9566
mi쎯er쎯	-10.9566
zai쎯jin쎯	-10.9569
bo쎯hai쎯	-10.957
ji쎯shu쎯zhi쎯chi쎯	-10.957
shi쎯zhi쎯zai쎯	-10.9571
1쎯ming쎯	-10.9571
ru쎯《쎯	-10.9572
е	-10.9573
shi쎯jiao쎯yu쎯ju쎯	-10.9573
hang쎯ye쎯xie쎯hui쎯	-10.9576
si쎯yuan쎯	-10.9576
da쎯an쎯	-10.9576
qing쎯qian쎯long쎯	-10.9578
cai쎯,쎯	-10.9578
150쎯ke쎯	-10.958
hong쎯guan쎯	-10.958
zheng쎯wen쎯	-10.9581
nong쎯jia쎯	-10.9581
bei쎯er쎯	-10.9582
、쎯chen쎯	-10.9583
jian쎯qing쎯	-10.9583
se쎯su쎯	-10.9583
xuan쎯lv쎯	-10.9584
,쎯na쎯me쎯	-10.9585
da쎯gui쎯mo쎯	-10.9586
wan쎯hui쎯	-10.9586
xie쎯de쎯	-10.9587
ke쎯xi쎯	-10.9587
qi쎯yuan쎯yu쎯	-10.9588
ting쎯yuan쎯	-10.9588
shu쎯fa쎯zuo쎯pin쎯	-10.9589
shui쎯xiang쎯	-10.959
chuang쎯xin쎯de쎯	-10.9591
ke쎯neng쎯shi쎯	-10.9591
▁쎯zuo쎯wei쎯	-10.9592
ling쎯hun쎯	-10.9594
ㄥ	-10.9595
fang쎯huo쎯	-10.9595
tong쎯shi쎯ye쎯shi쎯	-10.9595
xing쎯fa쎯	-10.9596
ke쎯zhu쎯ren쎯	-10.9596
bao쎯ji쎯	-10.96
》)	-10.9602
yun쎯dong쎯hui쎯	-10.9603
hai쎯bin쎯	-10.9603
bao쎯he쎯	-10.9606
xian쎯gong쎯si쎯、쎯	-10.9607
ye쎯you쎯xian쎯	-10.9609
fen쎯liang쎯	-10.9609
hua쎯shuo쎯	-10.961
de쎯te쎯se쎯	-10.961
zai쎯wo쎯guo쎯	-10.9611
jing쎯xian쎯	-10.9612
20쎯gong쎯li쎯	-10.9613
、쎯han쎯	-10.9614
dai쎯lai쎯de쎯	-10.9615
te쎯se쎯de쎯	-10.9615
fa쎯xian쎯de쎯	-10.9619
1930쎯nian쎯	-10.962
ke쎯xie쎯	-10.9622
hai쎯di쎯	-10.9623
huang쎯se쎯,쎯	-10.9624
.10	-10.9625
ye쎯mian쎯	-10.9627
wei쎯ben쎯	-10.9628
bing쎯bu쎯shi쎯	-10.9628
yu쎯pian쎯	-10.9629
guo쎯dao쎯	-10.9629
。1989쎯nian쎯	-10.9631
fu쎯》:“쎯	-10.9632
～19	-10.9632
ge쎯bu쎯men쎯	-10.9633
ben쎯zhe쎯“쎯	-10.9633
shi쎯wo쎯	-10.9635
gang쎯jie쎯gou쎯	-10.9635
:00	-10.9636
liao쎯yang쎯	-10.9638
10쎯ke쎯,쎯	-10.9641
bei쎯po쎯	-10.9641
ti쎯qian쎯	-10.9641
nong쎯tian쎯	-10.9645
。1991쎯nian쎯	-10.9645
liu쎯ge쎯	-10.9647
ming쎯yue쎯	-10.9647
н	-10.9652
、쎯wang쎯luo쎯	-10.9653
zong쎯zhi쎯,쎯	-10.9654
30쎯wan쎯	-10.9654
,쎯gan쎯	-10.9654
1024	-10.9655
ke쎯kao쎯xing쎯	-10.9656
,쎯shan쎯	-10.9658
쎯lei쎯:쎯tu쎯shu쎯>쎯	-10.9658
1.2쎯	-10.9659
gan쎯lan쎯	-10.9659
zhang쎯zi쎯	-10.966
de쎯tian쎯du쎯hou쎯	-10.9661
50쎯mi쎯	-10.9662
7쎯yue쎯chu쎯sheng쎯	-10.9665
shou쎯yao쎯	-10.9669
▁0	-10.967
da쎯yin쎯ji쎯	-10.967
qi쎯te쎯	-10.967
,쎯li쎯shu쎯	-10.9673
dong쎯shan쎯	-10.9673
shang쎯ying쎯	-10.9674
xin쎯nian쎯	-10.9675
fu쎯pin쎯	-10.9676
qi쎯ming쎯	-10.9676
0%	-10.9678
zhe쎯zhi쎯	-10.9682
15쎯gong쎯li쎯	-10.9682
cong쎯xiao쎯	-10.9683
jin쎯guan쎯	-10.9684
lao쎯nian쎯ren쎯	-10.9685
gong쎯si쎯qi쎯xia쎯	-10.9686
1927쎯nian쎯	-10.9687
ju쎯zi쎯	-10.9689
、쎯dian쎯	-10.969
zhen쎯gui쎯	-10.9692
,쎯zong쎯mian쎯ji쎯	-10.9693
shen쎯yuan쎯	-10.9693
guan쎯xi쎯,쎯	-10.9694
xia쎯fang쎯	-10.9696
a쎯gen쎯ting쎯	-10.9696
yan쎯chang쎯de쎯	-10.9697
huang쎯shi쎯	-10.9698
15쎯nian쎯	-10.9698
dui쎯ta쎯	-10.9699
fu쎯lan쎯	-10.9702
qing쎯ren쎯	-10.9702
zao쎯yu쎯	-10.9703
125	-10.9703
re쎯liang쎯	-10.9704
zao쎯can쎯	-10.9707
kan쎯wu쎯shang쎯	-10.9707
cen쎯	-10.9707
54쎯	-10.9708
yi쎯lang쎯	-10.9709
20쎯ke쎯	-10.9709
he쎯fa쎯	-10.971
fa쎯lan쎯	-10.971
zu쎯zi쎯zhi쎯qu쎯	-10.9714
96쎯	-10.9714
san쎯ceng쎯	-10.9715
jun쎯heng쎯	-10.9717
zao쎯cheng쎯de쎯	-10.972
100%	-10.9721
dou쎯zai쎯	-10.9721
gai쎯jian쎯	-10.9722
bu쎯la쎯	-10.9723
tong쎯bao쎯	-10.9724
da쎯ba쎯	-10.9725
duo쎯yuan쎯	-10.9725
jin쎯ling쎯	-10.9725
he쎯xin쎯qi쎯kan쎯	-10.9728
mo쎯duan쎯	-10.9728
xin쎯cun쎯	-10.9729
zhuo쎯li쎯	-10.9729
tuo쎯li쎯	-10.9731
qing쎯xie쎯	-10.9732
bei쎯yu쎯wei쎯	-10.9733
hui쎯jia쎯	-10.9735
lu쎯xi쎯	-10.9736
tuo쎯yuan쎯xing쎯,쎯	-10.9736
nan쎯shan쎯	-10.9738
shi쎯qi쎯,쎯	-10.974
guan쎯li쎯mo쎯shi쎯	-10.974
fu쎯zhong쎯	-10.9743
yi쎯liao쎯xi쎯	-10.9743
huang쎯he쎯se쎯	-10.9743
de쎯wei쎯zhi쎯	-10.9744
de쎯zong쎯zhi쎯	-10.9746
ji쎯》、《쎯	-10.9748
guan쎯huai쎯	-10.9748
,쎯jiao쎯shou쎯,쎯	-10.9753
xing쎯shi쎯,쎯	-10.9754
de쎯sheng쎯yin쎯	-10.9755
you쎯san쎯	-10.9757
zhong쎯li쎯	-10.9758
de쎯gu쎯shi쎯。쎯	-10.9759
hen쎯hao쎯de쎯	-10.9759
yan쎯jiu쎯,쎯	-10.9761
xie쎯tong쎯	-10.9761
san쎯re쎯	-10.9764
zai쎯ta쎯	-10.9765
tiao쎯shi쎯	-10.9765
gao쎯chao쎯	-10.9765
wei쎯wu쎯	-10.9766
hong쎯zao쎯	-10.9767
you쎯xiang쎯	-10.9767
hua쎯xi쎯	-10.9768
240	-10.9769
zhou쎯ci쎯shi쎯	-10.977
zhu쎯gao쎯	-10.9772
yi쎯chan쎯	-10.9772
shi쎯yu쎯nian쎯	-10.9775
xu쎯mu쎯ye쎯	-10.9776
zhu쎯yuan쎯	-10.9776
yuan쎯yang쎯	-10.9777
chang쎯shu쎯	-10.9777
jing쎯wu쎯	-10.9778
xian쎯hou쎯ren쎯	-10.9779
shou쎯hu쎯	-10.9781
xin쎯wen쎯chu쎯ban쎯	-10.9783
zong쎯zi쎯chan쎯	-10.9783
lei쎯、쎯	-10.9784
(16	-10.9784
sui쎯yue쎯	-10.9787
zhan쎯。쎯	-10.9788
8000쎯	-10.9788
you쎯feng쎯fu쎯de쎯	-10.979
ri쎯,쎯	-10.979
neng쎯zai쎯	-10.9793
wu쎯hua쎯	-10.9793
de쎯jian쎯she쎯	-10.9798
"。쎯	-10.98
、쎯huan쎯jing쎯	-10.9801
xiang쎯mu쎯wei쎯yu쎯	-10.9803
12.	-10.9803
chun쎯jie쎯	-10.9805
de쎯lao쎯	-10.9805
yao쎯qiu쎯,쎯	-10.9806
yu쎯yi쎯ti쎯	-10.9808
di쎯mao쎯	-10.9811
bao쎯ding쎯	-10.9812
nian쎯jian쎯,쎯	-10.9814
de쎯an쎯quan쎯	-10.9814
pin쎯pai쎯,쎯	-10.9815
you쎯wu쎯	-10.9817
bu쎯man쎯	-10.982
12쎯yue쎯ren쎯	-10.982
5쎯ke쎯,쎯	-10.9821
쎯yue쎯23쎯ri쎯	-10.9822
shu쎯》:“쎯	-10.9823
dan쎯mai쎯	-10.9824
bu쎯lun쎯	-10.9826
shu쎯zi쎯hua쎯	-10.9826
shen쎯yi쎯	-10.9827
zai쎯nei쎯de쎯	-10.9827
zi쎯bo쎯	-10.9827
ji쎯jin쎯xiang쎯mu쎯	-10.9832
,쎯chu쎯sheng쎯yu쎯	-10.9832
tu쎯er쎯qi쎯	-10.9832
li쎯yuan쎯	-10.9832
zhan쎯dian쎯	-10.9833
6쎯yue쎯jia쎯ru쎯	-10.9833
。1958쎯nian쎯	-10.9834
shen쎯shen쎯	-10.9834
er쎯bei쎯	-10.9836
(7	-10.9838
you쎯du쎯	-10.984
sheng쎯xue쎯li쎯,쎯	-10.9841
bei쎯shou쎯	-10.9841
yu쎯fa쎯	-10.9843
zong쎯bu쎯she쎯zai쎯	-10.9847
▁쎯zi쎯	-10.9847
dao쎯chu쎯	-10.9848
ri쎯li쎯	-10.9848
jing쎯yan쎯de쎯	-10.9852
de쎯xue쎯xi쎯	-10.9853
ji쎯》:“쎯	-10.9854
fu쎯han쎯	-10.9854
chu쎯zhi쎯	-10.9857
da쎯dao쎯le쎯	-10.9857
shu쎯ju쎯xian쎯	-10.9857
,쎯gu쎯ming쎯	-10.9857
hai쎯yao쎯	-10.9857
cheng쎯shu쎯de쎯	-10.9862
she쎯hui쎯de쎯	-10.9863
de쎯zui쎯jia쎯	-10.9863
1943쎯nian쎯	-10.9864
jiao쎯shi쎯,쎯	-10.9865
shu쎯dian쎯	-10.9865
1928쎯nian쎯	-10.9866
,,,	-10.9866
shen쎯xin쎯	-10.9868
jiao쎯jie쎯chu쎯	-10.9868
qing쎯dan쎯	-10.9868
wen쎯hua쎯bu쎯	-10.9868
fa쎯zhan쎯。쎯	-10.9868
zai쎯ti쎯	-10.987
쎯yue쎯21쎯ri쎯	-10.987
zhou쎯xian쎯	-10.9872
shu쎯hou쎯	-10.9873
guang쎯xi쎯zhuang쎯	-10.9874
zhang쎯hu쎯	-10.9875
,쎯chong쎯fen쎯	-10.9875
xi쎯jing쎯qie쎯	-10.9877
yan쎯fa쎯、쎯	-10.9877
bu쎯dong쎯	-10.9877
pin쎯qing쎯	-10.9879
zi쎯xing쎯che쎯	-10.9879
ke쎯yuan쎯	-10.988
▁2005쎯nian쎯	-10.9881
xi쎯su쎯	-10.9881
,쎯zhao쎯	-10.9883
zhou쎯,쎯	-10.9883
chang쎯lv쎯	-10.9884
30쎯yu쎯	-10.9887
ying쎯zhi쎯	-10.9891
di쎯ba쎯jie쎯	-10.9891
wei쎯he쎯xin쎯	-10.9892
fang쎯da쎯	-10.9893
8쎯nian쎯	-10.9898
yang쎯dang쎯xiao쎯	-10.9898
di쎯ming쎯	-10.9899
zhe쎯me쎯	-10.9899
,10	-10.99
-16	-10.99
ben쎯shi쎯	-10.9902
jing쎯ji쎯kai쎯fa쎯	-10.9903
jian쎯li쎯de쎯	-10.9904
《쎯zhong쎯hua쎯ren쎯	-10.9911
gu쎯fen쎯	-10.9911
zou쎯chu쎯	-10.9913
zhao쎯biao쎯	-10.9915
chan쎯pin쎯kai쎯fa쎯	-10.9916
wei쎯ju쎯	-10.9917
2008쎯	-10.9918
yu쎯she쎯hui쎯	-10.9918
luo쎯ye쎯	-10.9919
yan쎯qing쎯	-10.9921
di쎯qi쎯jie쎯	-10.9921
hua쎯gui쎯	-10.9922
-20	-10.9923
ke쎯jia쎯	-10.9923
jiao쎯shou쎯,쎯bo쎯	-10.9924
ren쎯jun쎯geng쎯di쎯	-10.993
kun쎯shan쎯	-10.9932
de쎯qing쎯kuang쎯	-10.9935
gao쎯tang쎯	-10.9937
wu쎯jie쎯	-10.9938
,쎯you쎯qi쎯	-10.9939
xin쎯tai쎯	-10.994
huo쎯yan쎯	-10.9941
chuan쎯dao쎯	-10.9941
ju쎯he쎯	-10.9941
xin쎯pin쎯zhong쎯	-10.9943
,쎯jian쎯zhu쎯	-10.9943
bo쎯si쎯	-10.9944
ni쎯si쎯	-10.9945
qian쎯xian쎯	-10.9946
nei쎯fen쎯mi쎯	-10.9947
.08	-10.9949
gu쎯ren쎯	-10.9952
,쎯nan쎯yu쎯	-10.9953
fen쎯ji쎯	-10.9953
(4)쎯	-10.9954
xiu쎯zheng쎯	-10.9957
yi쎯qu쎯	-10.996
fu쎯shu쎯yi쎯yuan쎯	-10.996
shi쎯zhe쎯	-10.9961
wu쎯ding쎯	-10.9962
xin쎯qing쎯	-10.9962
bo쎯cai쎯	-10.9963
jian쎯xin쎯	-10.9964
30쎯duo쎯	-10.9965
쎯ming쎯dou쎯zheng쎯	-10.9966
miao쎯zu쎯	-10.9967
san쎯ren쎯	-10.9969
、쎯sheng쎯chan쎯	-10.9969
ju쎯you쎯yi쎯ding쎯	-10.997
,쎯ji쎯bu쎯	-10.997
,쎯bi쎯dui쎯zhao쎯	-10.9972
",쎯	-10.9972
ji쎯shui쎯	-10.9973
▁쎯kai쎯	-10.9977
『쎯	-10.9977
wu쎯du쎯	-10.9978
yong쎯dao쎯	-10.9978
huang쎯qi쎯	-10.9979
shan쎯zhuang쎯	-10.9981
an쎯ji쎯	-10.9984
chu쎯ban쎯she쎯:쎯	-10.9985
jia쎯zhong쎯	-10.9987
,쎯gu쎯cheng쎯	-10.9988
ao쎯lin쎯pi쎯ke쎯	-10.9991
yao쎯gun쎯	-10.9991
fang쎯qi쎯	-10.9991
lao쎯wu쎯	-10.9992
ji쎯wei쎯shu쎯ji쎯	-10.9993
,쎯li쎯ru쎯	-10.9994
sheng쎯si쎯	-10.9995
bao쎯yu쎯	-10.9999
300쎯duo쎯	-10.9999
rang쎯wo쎯men쎯	-10.9999
shi쎯wai쎯	-11.0001
me쎯	-11.0003
yu쎯2009쎯nian쎯	-11.0004
wu쎯yu쎯	-11.0004
jian쎯bian쎯	-11.0005
95쎯	-11.0005
zhou쎯nian쎯	-11.0006
ji쎯ya쎯	-11.0007
jia쎯mi쎯	-11.001
mi쎯zhi쎯	-11.0012
ming쎯xiao쎯	-11.0014
deng쎯gong쎯zuo쎯	-11.0014
ying쎯zheng쎯wei쎯	-11.0015
hai쎯ba쎯1	-11.0017
ce쎯hua쎯、쎯	-11.0017
bing쎯fei쎯	-11.0017
ge쎯ming쎯lie쎯shi쎯	-11.0017
fen쎯fen쎯	-11.0018
2.4	-11.002
,쎯zhi쎯zai쎯	-11.0022
ke쎯fu쎯ke쎯zhang쎯	-11.0022
ao쎯zhou쎯	-11.0025
zai쎯xiao쎯sheng쎯	-11.0026
chuan쎯song쎯	-11.0028
lv쎯xing쎯she쎯	-11.003
zai쎯jia쎯	-11.0034
zhen쎯jun쎯	-11.0034
ti쎯hui쎯	-11.0036
tu쎯zhi쎯	-11.0038
yuan쎯xing쎯,쎯	-11.004
,쎯yin쎯qi쎯	-11.0041
zi쎯yi쎯	-11.0041
deng쎯duo쎯	-11.0042
jiao쎯xiang쎯	-11.0046
jia쎯yu쎯	-11.0047
zai쎯qi쎯	-11.0047
chu쎯ci쎯	-11.0047
(쎯qi쎯zhong쎯	-11.005
、쎯jian쎯zhu쎯	-11.0051
jia쎯gong쎯、쎯	-11.0051
:쎯yi쎯	-11.0054
쎯yue쎯17쎯ri쎯	-11.0055
nong쎯xue쎯yuan쎯	-11.0055
dian쎯zi쎯you쎯	-11.0058
gao쎯su쎯zhi쎯di쎯	-11.0059
bao쎯bei쎯	-11.0059
。쎯zhu쎯you쎯《쎯	-11.0061
nan쎯lin쎯	-11.0061
san쎯jia쎯	-11.0062
fa쎯sheng쎯le쎯	-11.0063
jie쎯zhe쎯	-11.0064
ding쎯shi쎯	-11.0065
zhong쎯jian쎯chi쎯	-11.0065
da쎯nao쎯	-11.0065
nai쎯you쎯	-11.0066
de쎯yi쎯shou쎯	-11.0067
《쎯xin쎯	-11.0068
xian쎯fa쎯	-11.0068
qu쎯zi쎯	-11.0068
,쎯zhu쎯chi쎯	-11.0068
,2쎯	-11.0069
geng쎯huan쎯	-11.0069
zhe쎯shi쎯yi쎯ge쎯	-11.0069
,쎯shang쎯hai쎯	-11.0074
te쎯li쎯	-11.0074
shi쎯xiao쎯	-11.0077
deng쎯)쎯	-11.0077
쎯li쎯mi쎯,쎯kuan쎯	-11.0079
,쎯ri쎯ben쎯	-11.0079
zhuang쎯zhen쎯	-11.0081
dong쎯qu쎯	-11.0082
xing쎯hua쎯	-11.0085
512	-11.0087
wei쎯guo쎯jia쎯	-11.0087
zi쎯yuan쎯feng쎯fu쎯	-11.0087
(2)	-11.0087
12쎯yue쎯can쎯jia쎯	-11.0088
zuan쎯shi쎯	-11.0088
dong쎯gong쎯	-11.0089
zhong쎯ke쎯yuan쎯	-11.009
▁쎯ju쎯	-11.009
》쎯you쎯	-11.0091
liang쎯zi쎯	-11.0092
zhuo쎯zhong쎯	-11.0092
쎯yue쎯27쎯ri쎯	-11.0093
·쎯a쎯	-11.0093
kai쎯shi쎯le쎯	-11.0095
wu쎯jiang쎯	-11.0096
huang쎯hua쎯	-11.0098
gai쎯liang쎯	-11.0098
shi쎯tou쎯	-11.0098
xing쎯bie쎯	-11.0099
▁6.쎯	-11.0099
guo쎯tu쎯zi쎯yuan쎯	-11.0102
tai쎯kong쎯	-11.0103
zhu쎯gong쎯	-11.0104
%쎯yi쎯shang쎯	-11.0105
bi쎯yao쎯	-11.0105
hui쎯fu쎯zhu쎯xi쎯	-11.0109
ji쎯di쎯。쎯	-11.0109
wu쎯xia쎯	-11.0109
shi쎯shu쎯	-11.0114
dian쎯ying쎯jie쎯	-11.0123
ci쎯hui쎯yi쎯	-11.0123
nan쎯chao쎯liang쎯	-11.0124
gan쎯,쎯	-11.0125
tou쎯guo쎯	-11.0126
li쎯shi쎯hui쎯	-11.0128
jia쎯zhi쎯。쎯	-11.0128
,쎯ye쎯ke쎯	-11.0128
4)쎯	-11.0131
,1958쎯nian쎯	-11.0138
8쎯wan쎯	-11.0139
쎯yue쎯22쎯ri쎯	-11.0139
fang쎯bian쎯,쎯	-11.0141
-1쎯	-11.0142
50쎯duo쎯	-11.0148
bei쎯guo쎯jia쎯	-11.0149
ping쎯tan쎯	-11.0149
yu쎯dao쎯	-11.0149
쎯yue쎯24쎯ri쎯	-11.015
he쎯shang쎯	-11.0152
,쎯bang쎯zhu쎯	-11.0154
xu쎯ke쎯	-11.0155
yu쎯18	-11.0158
mian쎯liao쎯	-11.0159
《쎯da쎯	-11.0159
shi쎯jian쎯de쎯	-11.0161
guang쎯fu쎯	-11.0161
feng쎯mao쎯	-11.0162
、쎯shen쎯	-11.0164
,1쎯	-11.0165
bao쎯yang쎯	-11.0165
쎯yue쎯5쎯ri쎯	-11.0166
yan쎯suan쎯	-11.0169
san쎯qi쎯	-11.0169
、쎯kang쎯	-11.017
//쎯	-11.0171
ji쎯ke쎯。	-11.0176
4쎯hao쎯	-11.0177
yan쎯hu쎯	-11.0178
jing쎯shui쎯	-11.0178
ling쎯bu쎯jian쎯	-11.018
yan쎯cheng쎯guo쎯	-11.018
jiang쎯bei쎯	-11.018
xiao쎯guo쎯。쎯	-11.0181
song쎯jiang쎯	-11.0182
fa쎯yang쎯	-11.0182
yang쎯pin쎯	-11.0183
xiang쎯jie쎯he쎯de쎯	-11.0186
neng쎯li쎯he쎯	-11.0189
,1978쎯nian쎯	-11.0191
yu쎯jian쎯	-11.0192
you쎯xiao쎯di쎯	-11.0195
wu쎯feng쎯	-11.0196
tu쎯ceng쎯	-11.0197
chun쎯tian쎯	-11.0201
,쎯xi쎯yu쎯	-11.0203
,쎯bing쎯jiang쎯	-11.0203
xiao쎯zhen쎯	-11.0204
zhan쎯ling쎯	-11.0205
sheng쎯yi쎯	-11.0206
da쎯biao쎯	-11.0207
ka쎯tong쎯	-11.0207
de쎯jing쎯dian쎯	-11.0208
bo쎯shi쎯yan쎯jiu쎯	-11.0208
you쎯chong쎯	-11.021
da쎯gang쎯	-11.0211
dan쎯huang쎯	-11.0213
gao쎯xing쎯neng쎯	-11.0213
wei쎯fang쎯	-11.0214
gai쎯pin쎯zhong쎯	-11.0215
de쎯yang쎯zi쎯	-11.0215
fu쎯liao쎯	-11.0217
biao쎯ji쎯	-11.0217
5°C	-11.0217
mou쎯ge쎯	-11.0221
feng쎯ge쎯,쎯	-11.0223
zhe쎯kuan쎯	-11.0224
li쎯jiang쎯	-11.0225
de쎯tong쎯zhi쎯	-11.0227
쎯mi쎯,쎯nian쎯ping쎯	-11.0229
bian쎯,쎯ju쎯li쎯	-11.0229
si쎯jia쎯	-11.023
gua쎯pai쎯	-11.023
、쎯lv쎯	-11.0232
chan쎯shi쎯	-11.0234
fa쎯guang쎯	-11.0234
tang쎯shi쎯	-11.0235
de쎯gong쎯xiao쎯	-11.0235
ren쎯zao쎯	-11.0235
gang쎯cai쎯	-11.0235
dui쎯kang쎯	-11.0237
qian쎯ting쎯	-11.0237
bao쎯shan쎯	-11.0238
zhen쎯di쎯	-11.0239
yan쎯liao쎯	-11.0242
fu쎯er쎯	-11.0247
jia쎯you쎯	-11.0247
▁쎯chu쎯ban쎯she쎯:쎯	-11.025
gong쎯zuo쎯bu쎯men쎯	-11.0251
shuang쎯xiang쎯	-11.0251
shi쎯nian쎯dai쎯	-11.0253
ming쎯cheng쎯:	-11.0253
yong쎯gan쎯	-11.0254
ping쎯ban쎯	-11.0256
guan쎯li쎯ban쎯fa쎯	-11.0257
wei쎯sheng쎯ju쎯	-11.0258
zheng쎯gui쎯	-11.0258
luan쎯xing쎯,쎯	-11.0258
zi쎯yuan쎯,쎯	-11.0261
you쎯cai쎯	-11.0261
xiang쎯sheng쎯	-11.0264
feng쎯hua쎯	-11.0265
jun쎯fen쎯qu쎯	-11.0265
zhi쎯ye쎯xue쎯xiao쎯	-11.0266
ding쎯jian쎯	-11.0267
2.쎯	-11.0268
di쎯qu쎯,쎯	-11.0271
san쎯qian쎯	-11.0272
hai쎯zi쎯men쎯	-11.0272
ai쎯er쎯	-11.0273
qi쎯quan쎯,쎯	-11.0273
zhu쎯yu쎯	-11.0274
tang쎯shan쎯	-11.0276
diao쎯ren쎯	-11.0276
rong쎯na쎯	-11.0279
bu쎯jue쎯	-11.0282
qi쎯cao쎯	-11.0282
jie쎯li쎯	-11.0283
xing쎯yun쎯	-11.0283
suo쎯jian쎯	-11.0285
쎯yue쎯19쎯ri쎯	-11.0285
si쎯mian쎯	-11.0286
12쎯yue쎯,쎯	-11.0286
xing쎯yu쎯	-11.0286
di쎯wang쎯	-11.0287
xian쎯ren쎯min쎯	-11.0288
ne쎯?쎯	-11.0289
fei쎯dian쎯	-11.0291
,0	-11.0293
shi쎯you쎯yu쎯	-11.0293
shuo쎯fa쎯	-11.0294
hua쎯xiang쎯	-11.0294
—1	-11.0297
shi쎯gao쎯	-11.0297
xian쎯wei쎯shu쎯ji쎯	-11.0298
zhan쎯ju쎯	-11.0299
long쎯tou쎯	-11.03
jin쎯gu쎯	-11.03
guang쎯yi쎯	-11.0302
mian쎯,쎯	-11.0302
xiang쎯lian쎯,쎯	-11.0303
hui쎯zhou쎯	-11.0304
、쎯xiang쎯gang쎯	-11.0305
mai쎯chong쎯	-11.0306
,쎯you쎯nong쎯hu쎯	-11.0307
de쎯xiang쎯guan쎯	-11.0308
wen쎯dang쎯	-11.0309
hou쎯bu쎯	-11.0309
san쎯bu쎯	-11.031
xian쎯ren쎯。쎯	-11.0312
ying쎯bi쎯shu쎯fa쎯	-11.0312
wen쎯xue쎯jia쎯	-11.0312
(199	-11.0313
mian쎯ji쎯6	-11.0316
wei쎯ji쎯chu쎯,쎯	-11.0316
30쎯ri쎯	-11.0317
hou쎯fang쎯	-11.0317
bian쎯liang쎯	-11.0318
zi쎯tai쎯	-11.0319
,1979쎯nian쎯	-11.0319
jin쎯shen쎯	-11.0321
ji쎯xie쎯you쎯xian쎯	-11.0321
。쎯jian쎯yu쎯	-11.0321
jian쎯zheng쎯	-11.0322
men쎯de쎯	-11.0327
tian쎯yuan쎯	-11.0329
kai쎯kuo쎯	-11.0329
mo쎯gu쎯	-11.033
xue쎯shuo쎯	-11.0332
kai쎯fa쎯shang쎯	-11.0335
yong쎯fang쎯	-11.0335
jian쎯fei쎯	-11.0335
ci쎯qu쎯	-11.0337
deng쎯gong쎯neng쎯	-11.034
1쎯xiao쎯shi쎯	-11.0342
zao쎯jia쎯	-11.0343
gong쎯gu쎯	-11.0345
jin쎯hou쎯	-11.0345
zu쎯yu쎯	-11.0346
de쎯ju쎯ti쎯	-11.035
bi쎯ye쎯,쎯	-11.0351
shui쎯ping쎯,쎯	-11.0354
0쎯mu쎯,쎯	-11.0354
huo쎯hua쎯	-11.0354
wu쎯cha쎯	-11.0357
▁2011쎯nian쎯	-11.0357
う	-11.0362
du쎯xing쎯	-11.0363
lie쎯,쎯	-11.0365
bu쎯xi쎯	-11.0366
、쎯hu쎯	-11.0366
2009	-11.0367
、쎯tong쎯	-11.0367
de쎯ren쎯ke쎯	-11.037
wan쎯shang쎯	-11.037
;1쎯	-11.0371
bai쎯jiu쎯	-11.0373
/2쎯	-11.0376
nan쎯qu쎯	-11.0376
xian쎯xi쎯	-11.0377
hang쎯dao쎯	-11.0379
쎯yue쎯30쎯ri쎯	-11.0379
yi쎯tong쎯guo쎯	-11.038
jin쎯yong쎯	-11.0383
xu쎯shi쎯	-11.0383
zhu쎯gan쎯	-11.0384
ji쎯xie쎯zhi쎯zao쎯	-11.0384
er쎯ge쎯	-11.0386
xin쎯xin쎯	-11.0389
chang쎯yuan쎯xing쎯	-11.0389
dou쎯bu쎯	-11.0392
,쎯qu쎯de쎯le쎯	-11.0393
zong쎯guan쎯	-11.0394
hua쎯niao쎯	-11.0395
tong쎯che쎯	-11.0395
san쎯deng쎯gong쎯	-11.0396
yi쎯zhi쎯zai쎯	-11.0396
duan쎯lie쎯	-11.0396
▁쎯bei쎯jing쎯	-11.0396
ben쎯zhi쎯	-11.0398
min쎯sheng쎯	-11.0398
jin쎯bai쎯	-11.04
fu쎯yuan쎯	-11.0401
mo쎯shu쎯	-11.0404
360쎯	-11.0404
β	-11.0405
쎯yue쎯14쎯ri쎯	-11.0405
nan쎯,쎯han쎯zu쎯,	-11.0405
ping쎯xiang쎯	-11.0406
la쎯ba쎯	-11.0406
jia쎯qing쎯	-11.0412
;쎯er쎯	-11.0416
128쎯	-11.0419
zhi쎯wen쎯	-11.042
you쎯zhi쎯fu쎯wu쎯	-11.0422
zhen쎯xiang쎯	-11.0423
he쎯zhi쎯liao쎯	-11.0425
1쎯qian쎯	-11.0426
qi쎯guo쎯	-11.0426
gu쎯lao쎯de쎯	-11.0427
dui쎯zhao쎯	-11.043
bo쎯er쎯	-11.0431
wu쎯xi쎯shi쎯	-11.0431
feng쎯xiang쎯	-11.0432
suo쎯zhi쎯de쎯	-11.0433
5)	-11.0433
hou쎯mian쎯	-11.0434
shui쎯tian쎯	-11.0436
chao쎯zhi쎯	-11.0437
mo쎯zhi쎯	-11.0438
,쎯bi쎯ru쎯	-11.0439
de쎯guan쎯jian쎯	-11.0439
jiang쎯pian쎯	-11.044
yong쎯xin쎯	-11.0443
huo쎯dong쎯shi쎯	-11.0444
bu쎯fu쎯	-11.0445
jia쎯zhuang쎯xian쎯	-11.0446
wen쎯ming쎯de쎯	-11.0447
shi쎯mian쎯	-11.0448
de쎯wen쎯hua쎯	-11.0448
,쎯jin쎯lin쎯	-11.0448
guan쎯che쎯luo쎯	-11.0448
sui쎯de쎯	-11.0449
lai쎯le쎯	-11.045
chan쎯shu쎯le쎯	-11.045
jia쎯he쎯	-11.045
pu쎯tao쎯ya쎯	-11.0451
ju쎯chi쎯	-11.0452
de쎯zhi쎯liao쎯	-11.0453
hai쎯neng쎯	-11.0453
te쎯you쎯	-11.0454
shi쎯jie쎯de쎯	-11.0454
liang쎯ji쎯	-11.0457
le쎯yi쎯pi쎯	-11.0458
qu쎯yu쎯nei쎯	-11.0458
2%	-11.0459
tiao쎯,쎯	-11.046
hua쎯wei쎯	-11.0461
3.1	-11.0462
chang쎯shang쎯wei쎯	-11.0462
2010쎯	-11.0463
ba쎯lu쎯jun쎯	-11.0463
yun쎯zhuan쎯	-11.0464
jie쎯di쎯	-11.0465
sa쎯shang쎯	-11.0465
9쎯yue쎯can쎯jia쎯	-11.0466
wang쎯lai쎯	-11.0466
0°	-11.0468
,쎯nei쎯rong쎯	-11.0468
zhang쎯guan쎯	-11.047
yi쎯yuan쎯、쎯	-11.0474
zhu쎯mu쎯	-11.0474
te쎯chang쎯	-11.0475
jiang쎯shui쎯	-11.0475
shi쎯zheng쎯xie쎯	-11.0477
kan쎯cha쎯	-11.0478
qu쎯diao쎯	-11.0479
de쎯er쎯zi쎯	-11.048
0%쎯	-11.0481
shi쎯·쎯	-11.0482
chan쎯pin쎯yan쎯fa쎯	-11.0485
-,	-11.0486
0.9	-11.0486
qi쎯qi쎯	-11.0487
xi쎯zhou쎯	-11.0487
dang쎯zu쎯fu쎯shu쎯	-11.0487
0쎯wan쎯yuan쎯,쎯	-11.0488
leng쎯dong쎯	-11.0489
gu쎯gong쎯bo쎯wu쎯	-11.0491
。쎯sui쎯ran쎯	-11.0492
dang쎯jian쎯	-11.0492
cai쎯dan쎯	-11.0493
nan쎯fei쎯	-11.05
wu쎯ming쎯	-11.05
、쎯wen쎯hua쎯	-11.0501
hou쎯,쎯ta쎯	-11.0501
xin쎯zhong쎯guo쎯	-11.0505
dou쎯yao쎯	-11.0506
shan쎯shui쎯hua쎯	-11.0507
1%	-11.0507
quan쎯min쎯	-11.0507
cao쎯ben쎯zhi쎯wu쎯	-11.0511
7쎯ri쎯	-11.0517
yi쎯tai쎯	-11.0518
de쎯sheng쎯ming쎯	-11.052
yin쎯jiang쎯	-11.052
pi쎯zhun쎯,쎯	-11.0522
yu쎯2008쎯nian쎯	-11.0523
zai쎯zhi쎯yan쎯jiu쎯	-11.0527
de쎯ge쎯xiang쎯	-11.0528
pei쎯liao쎯	-11.0529
xiao쎯liang쎯	-11.053
▁쎯wai쎯xing쎯chi쎯	-11.053
guo쎯ji쎯shang쎯	-11.0532
bu쎯gou쎯	-11.0533
yu쎯2006쎯nian쎯	-11.0533
ス	-11.0534
bei쎯fen쎯	-11.0534
jing쎯zhou쎯	-11.0535
pin쎯bo쎯	-11.0536
5쎯yue쎯chu쎯sheng쎯	-11.0537
shu쎯hua쎯yan쎯jiu쎯	-11.0538
de쎯xi쎯ai쎯	-11.0539
yin쎯liang쎯	-11.0539
zhuo쎯mian쎯	-11.054
shi쎯ye쎯de쎯	-11.0542
si쎯yu쎯	-11.0543
nong쎯ye쎯ke쎯xue쎯	-11.0543
,쎯bu쎯neng쎯	-11.0544
zhu쎯ren쎯ke쎯yuan쎯	-11.0545
bian쎯jing쎯	-11.0545
gong쎯lv쎯:	-11.0545
min쎯zheng쎯	-11.0548
xu쎯》:“쎯	-11.0549
ti쎯yu쎯chang쎯	-11.055
lv쎯hua쎯lv쎯	-11.0551
de쎯jiao쎯yu쎯	-11.0554
sui쎯zhi쎯	-11.0555
zhong쎯suo쎯	-11.0556
qing쎯kuang쎯,쎯	-11.0557
,쎯jian쎯li쎯	-11.0558
ding쎯xing쎯	-11.0558
wan쎯shan쎯,쎯	-11.0558
ren쎯jun쎯chun쎯	-11.056
guo쎯qing쎯	-11.0561
qi쎯nei쎯	-11.0564
50쎯ke쎯,쎯	-11.0564
쎯yue쎯11쎯ri쎯	-11.0565
lun쎯zheng쎯	-11.0566
,쎯zuo쎯luo쎯yu쎯	-11.0568
60쎯nian쎯dai쎯	-11.0569
lie쎯pian쎯	-11.057
ji쎯gong쎯	-11.0571
zi쎯nv쎯	-11.0571
xue쎯xiao쎯,쎯	-11.0572
yi쎯shu쎯pin쎯	-11.0576
de쎯shi쎯wu쎯	-11.0576
xuan쎯ba쎯	-11.0577
shu쎯zhi쎯wu쎯	-11.058
qian쎯shen쎯	-11.0582
zhu쎯da쎯	-11.0582
you쎯zhu쎯yu쎯	-11.0584
86쎯	-11.0584
fang쎯zhen쎯,쎯	-11.0585
lao쎯ban쎯	-11.0587
jin쎯e쎯	-11.0589
bing쎯mei쎯you쎯	-11.0589
biao쎯ben쎯	-11.059
3쎯ming쎯	-11.0591
(8	-11.0593
rong쎯dian쎯	-11.0593
°C쎯nian쎯jiang쎯	-11.0594
jie쎯gou쎯de쎯	-11.0596
gao쎯pin쎯zhi쎯di쎯	-11.0596
shui쎯zi쎯yuan쎯	-11.0596
sha쎯jun쎯	-11.0596
chong쎯dian쎯	-11.0598
ling쎯xing쎯	-11.0598
zun쎯shou쎯	-11.0598
shao쎯jiang쎯	-11.0598
xue쎯shu쎯hui쎯yi쎯	-11.0599
geng쎯hao쎯di쎯	-11.06
gei쎯ta쎯	-11.0602
р	-11.0604
nei쎯jing쎯	-11.0607
yang쎯ji쎯	-11.0609
jue쎯qi쎯	-11.0612
pai쎯zhang쎯	-11.0614
qi쎯bing쎯	-11.0614
dai쎯,쎯	-11.0618
7쎯gong쎯li쎯	-11.0619
yu쎯2005쎯nian쎯	-11.062
dong쎯qi쎯	-11.062
can쎯sai쎯	-11.0622
00쎯mu쎯,쎯	-11.0624
wu쎯xing쎯ji쎯	-11.0624
xia쎯men쎯shi쎯	-11.0628
yun쎯fu쎯	-11.063
jiao쎯shao쎯	-11.0631
you쎯mei쎯de쎯	-11.0633
yi쎯cun쎯	-11.0633
fu쎯rong쎯	-11.0633
liang쎯zhe쎯	-11.0638
yang쎯qi쎯	-11.0638
shao쎯you쎯	-11.0638
13쎯ge쎯	-11.0638
zhi쎯dao쎯yuan쎯	-11.0639
huo쎯shang쎯	-11.064
°C,쎯	-11.0644
li쎯wu쎯	-11.0645
gong쎯ping쎯	-11.0645
15쎯ge쎯	-11.0645
wei쎯wei쎯yuan쎯、쎯	-11.0647
quan쎯xiao쎯	-11.0649
dian쎯wang쎯	-11.0652
chu쎯se쎯de쎯	-11.0653
shen쎯shi쎯	-11.0653
de쎯cheng쎯gong쎯	-11.0654
ban쎯hua쎯	-11.0655
ba쎯ge쎯	-11.0657
fu쎯jin쎯de쎯	-11.0662
yu쎯shu쎯	-11.0662
re쎯chu쎯li쎯	-11.0662
ル	-11.0663
bian쎯qian쎯	-11.0663
sheng쎯wu쎯ji쎯shu쎯	-11.0664
cheng쎯guan쎯	-11.0664
▁2004쎯nian쎯	-11.0665
chu쎯ban쎯。쎯	-11.0666
jia쎯zhi쎯de쎯	-11.0666
yu쎯2010쎯nian쎯	-11.0672
bei쎯lie쎯wei쎯	-11.0673
can쎯kao쎯shu쎯	-11.0673
zhong쎯dong쎯	-11.0674
shen쎯xian쎯	-11.0674
guan쎯kan쎯	-11.0677
wen쎯ku쎯	-11.0678
dong쎯li쎯xue쎯	-11.0678
5.5	-11.0679
20쎯ri쎯	-11.068
tai쎯hu쎯	-11.068
xing쎯li쎯	-11.0681
”쎯bian쎯zhong쎯	-11.0681
de쎯ji쎯hui쎯	-11.0681
,쎯zhuan쎯	-11.0683
kong쎯long쎯	-11.0683
1쎯liang쎯,쎯	-11.0685
cheng쎯nan쎯	-11.0687
tong쎯wang쎯	-11.0688
1932쎯nian쎯	-11.0689
mai쎯ke쎯	-11.0689
tang쎯zhi쎯	-11.069
te쎯yao쎯	-11.0694
jia쎯ding쎯	-11.0696
de쎯zi쎯ran쎯	-11.0697
shi쎯jie쎯bei쎯	-11.0697
xuan쎯gua쎯	-11.0698
ping쎯pang쎯qiu쎯	-11.0701
mian쎯de쎯	-11.0702
zhi쎯dian쎯	-11.0702
zhuan쎯jia쎯、쎯	-11.0703
da쎯quan쎯	-11.0707
jia쎯xing쎯	-11.0708
wei쎯xin쎯	-11.0709
250쎯ke쎯	-11.0709
,1980쎯nian쎯	-11.0713
guan쎯nei쎯	-11.0714
pao쎯mo쎯	-11.0716
ni쎯ren쎯	-11.0716
7)쎯	-11.0717
jin쎯ji쎯nian쎯	-11.0717
90%쎯	-11.0718
8)쎯	-11.072
5.0	-11.0721
le쎯ta쎯de쎯	-11.0721
lou쎯pan쎯	-11.0722
yi쎯fang쎯mian쎯	-11.0722
jin쎯yu쎯	-11.0723
ju쎯zhi쎯	-11.0723
pu쎯tian쎯	-11.0725
bao쎯guo쎯	-11.0726
luo쎯cheng쎯	-11.0728
chan쎯wu쎯	-11.0728
yi쎯shi쎯,쎯	-11.0729
zai쎯du쎯	-11.0734
쎯zhang쎯)	-11.0736
bing쎯huo쎯	-11.0737
bu쎯han쎯	-11.074
).쎯	-11.074
zhuang쎯pei쎯	-11.0742
chuan쎯guo쎯	-11.0743
,200	-11.0743
cui쎯hua쎯	-11.0743
2.3	-11.0744
▁쎯zhang쎯	-11.0748
he쎯zhen쎯	-11.0749
10쎯yue쎯sheng쎯,쎯	-11.075
po쎯sui쎯	-11.0751
chuang쎯ban쎯de쎯	-11.0752
ke쎯lu쎯	-11.0752
,쎯hu쎯nan쎯	-11.0753
yan쎯he쎯	-11.0755
luo쎯wen쎯	-11.0757
yi쎯ce쎯	-11.0759
bai쎯shi쎯	-11.0759
,쎯da쎯zao쎯	-11.0765
쎯yue쎯13쎯ri쎯	-11.0765
wang쎯ka쎯	-11.0767
da쎯zi쎯ran쎯	-11.0768
,쎯zhi쎯shi쎯	-11.0769
----쎯	-11.077
li쎯gong쎯	-11.077
yu쎯ta쎯	-11.0771
zu쎯de쎯	-11.0772
zhuang쎯。쎯	-11.0776
xing쎯xiao쎯	-11.0776
yi쎯si쎯shi쎯	-11.0777
bu쎯duan쎯fa쎯zhan쎯	-11.0778
1931쎯nian쎯	-11.0779
ri쎯ji쎯	-11.078
zhan쎯zai쎯	-11.078
ying쎯guang쎯	-11.0784
ru쎯jia쎯	-11.0784
liang쎯zhi쎯	-11.0785
qiao쎯miao쎯	-11.0786
gang쎯chang쎯	-11.0787
tai쎯zu쎯	-11.0788
sheng쎯ping쎯	-11.0789
jie쎯ye쎯	-11.0791
。1956쎯nian쎯	-11.0793
sheng쎯chan쎯、쎯	-11.0793
、쎯fei쎯	-11.0794
xian쎯jiang쎯	-11.0795
쎯yue쎯6쎯ri쎯	-11.0796
jia쎯xie쎯hui쎯hui쎯	-11.0799
4.0	-11.0801
gu쎯ming쎯	-11.0801
yan쎯li쎯	-11.0802
,쎯ta쎯zai쎯	-11.0803
xia쎯zhai쎯	-11.0803
de쎯gao쎯du쎯	-11.0804
yu쎯shi쎯jian쎯	-11.0805
de쎯zuo쎯yong쎯。쎯	-11.0805
yu쎯cheng쎯	-11.0805
gao쎯ke쎯ji쎯qi쎯ye쎯	-11.0806
zi쎯xi쎯	-11.0808
quan쎯jing쎯	-11.0809
쎯yue쎯9쎯ri쎯	-11.081
ren쎯shou쎯	-11.0811
de쎯jie쎯guo쎯	-11.0814
dang쎯shi쎯de쎯	-11.0815
〗	-11.0816
xiao쎯li쎯yu쎯	-11.0816
ku쎯rui쎯	-11.0817
hu쎯fu쎯	-11.0821
hua쎯xue쎯xi쎯	-11.0821
bian쎯xie쎯de쎯	-11.0822
xi쎯sheng쎯。쎯	-11.0822
zhi쎯zao쎯ye쎯	-11.0824
〖	-11.0824
mo쎯tuo쎯che쎯	-11.0824
liu쎯hua쎯	-11.0824
pi쎯ge쎯	-11.0824
ji쎯jiu쎯	-11.0826
.09	-11.0829
chou쎯bei쎯	-11.0831
ji쎯ta쎯	-11.0832
480	-11.0835
fen쎯xi쎯、쎯	-11.0835
ai쎯er쎯lan쎯	-11.0836
de쎯shu쎯ju쎯	-11.0839
00쎯wan쎯yuan쎯,쎯	-11.0839
xiao쎯dao쎯	-11.0841
cun쎯ren쎯kou쎯	-11.0845
ru쎯shi쎯	-11.0845
7쎯ren쎯,쎯	-11.0845
tuan쎯dui쎯,쎯	-11.0845
jiao쎯duo쎯	-11.0846
yi쎯mei쎯	-11.0846
xia쎯qu쎯nei쎯	-11.0847
ke쎯kao쎯de쎯	-11.0848
----	-11.0848
fu쎯zai쎯	-11.0849
fen쎯kai쎯	-11.0851
xiao쎯shan쎯	-11.0852
su쎯she쎯	-11.0853
4쎯yue쎯chu쎯sheng쎯	-11.0854
geng쎯hao쎯	-11.0855
쎯yue쎯2쎯ri쎯	-11.0856
▁쎯shi쎯li쎯	-11.0857
ci쎯hou쎯	-11.0859
ju쎯jia쎯	-11.086
6쎯ke쎯	-11.086
meng쎯gu쎯zu쎯	-11.0861
diao쎯yan쎯yuan쎯	-11.0863
guan쎯xi쎯de쎯	-11.0867
nv쎯shen쎯	-11.0867
7.5	-11.0868
,쎯dan쎯ta쎯	-11.0872
chi쎯shui쎯	-11.0873
shi쎯tong쎯guo쎯	-11.0874
:쎯nei쎯zhi쎯	-11.0874
。2011쎯nian쎯	-11.0874
(194	-11.0877
di쎯er쎯shi쎯	-11.0878
xin쎯shi쎯	-11.0881
zi쎯jie쎯	-11.0881
jie쎯suan쎯	-11.0882
6쎯yue쎯chu쎯sheng쎯	-11.0883
biao쎯zhun쎯jian쎯	-11.0884
jian쎯ge쎯	-11.0884
hou쎯,쎯zai쎯	-11.0885
pi쎯lao쎯	-11.0886
1쎯li쎯mi쎯	-11.0887
pao쎯dao쎯	-11.0887
bian쎯zheng쎯	-11.0888
qian쎯lie쎯xian쎯	-11.0889
chen쎯lie쎯	-11.0891
wen쎯xue쎯yuan쎯	-11.0893
tian쎯xiang쎯	-11.0894
hen쎯qiang쎯de쎯	-11.0897
she쎯bei쎯y	-11.0898
bu쎯zhi쎯dao쎯	-11.0901
long쎯quan쎯	-11.0901
you쎯ru쎯	-11.0905
pei쎯yin쎯	-11.0905
zong쎯gong쎯hui쎯	-11.0908
huan쎯qiu쎯	-11.0909
,쎯shi쎯yi쎯jia쎯ji쎯	-11.091
0.00	-11.0913
,1976쎯nian쎯	-11.0913
yue쎯han쎯	-11.0914
,쎯zhu쎯ce쎯zi쎯jin쎯	-11.0914
chen쎯dian쎯	-11.0916
ping쎯di쎯	-11.0916
zong쎯mian쎯ji쎯1	-11.0918
ㄒ	-11.0919
dian쎯。쎯	-11.0921
da쎯li쎯zhi쎯chi쎯	-11.0922
zhua쎯zhu쎯	-11.0925
you쎯guan쎯de쎯	-11.0928
pai쎯gu쎯	-11.093
luan쎯zhuang쎯	-11.093
zhu쎯hou쎯	-11.0931
xin쎯xiang쎯	-11.0931
zhuang쎯hua쎯xu쎯	-11.0933
can쎯zhan쎯	-11.0935
xian쎯xiao쎯li쎯yu쎯	-11.0936
yuan쎯lai쎯de쎯	-11.0936
zhao쎯shang쎯yin쎯	-11.0937
▁쎯ruan쎯jian쎯	-11.0939
xia쎯1쎯ge쎯	-11.0939
zhi쎯lv쎯	-11.094
er쎯shi쎯si쎯	-11.094
yu쎯yue쎯	-11.094
쎯hao쎯mi쎯,쎯	-11.0941
xiao쎯ye쎯	-11.0941
qian쎯yin쎯	-11.0943
zong쎯du쎯	-11.0943
zhi쎯neng쎯bu쎯men쎯	-11.0944
ge쎯zi쎯ran쎯cun쎯	-11.0946
liu쎯xing쎯de쎯	-11.0946
huang쎯pu쎯	-11.0948
3쎯ci쎯	-11.0948
gong쎯si쎯kai쎯fa쎯	-11.0949
bu쎯duan쎯de쎯	-11.095
gu쎯quan쎯	-11.095
▁쎯suo쎯shu쎯	-11.095
16쎯ge쎯	-11.0951
”(	-11.0953
yang쎯rou쎯	-11.0954
u쎯sheng쎯dao쎯shi쎯	-11.0955
、쎯gao쎯ji쎯	-11.0956
105	-11.0956
。1980쎯nian쎯	-11.0959
jiu쎯yue쎯	-11.096
zhao쎯qi쎯	-11.0961
su쎯shi쎯	-11.0961
he쎯zhong쎯guo쎯	-11.0965
yan쎯jiu쎯he쎯	-11.0966
zhuan쎯xing쎯	-11.0967
gai쎯kuo쎯	-11.0968
jian쎯ce쎯she쎯bei쎯	-11.0968
shang쎯dian쎯	-11.0968
jian쎯cheng쎯hou쎯	-11.0969
zuo쎯qu쎯jia쎯	-11.097
xiang쎯mu쎯,쎯	-11.097
tong쎯chou쎯	-11.097
di쎯jiu쎯jie쎯	-11.0971
pu쎯dong쎯	-11.0974
qi쎯hua쎯	-11.0976
cai쎯zheng쎯bu쎯	-11.0976
1、	-11.0977
chang쎯ying쎯xiao쎯	-11.0977
▁쎯pin쎯zhong쎯	-11.0978
yu쎯yi쎯shen쎯	-11.0978
ju쎯chang쎯	-11.0978
bian쎯hua쎯,쎯	-11.0979
sha쎯shi쎯	-11.098
bing쎯yuan쎯	-11.0984
que쎯ding쎯wei쎯	-11.0985
,쎯zhi쎯yao쎯	-11.0986
20쎯ge쎯	-11.0987
cong쎯ye쎯	-11.099
zheng쎯ce쎯,쎯	-11.0991
gai쎯ming쎯	-11.0992
gan쎯zhe쎯	-11.0992
mi쎯bu쎯	-11.0993
,쎯you쎯yi쎯	-11.0993
san쎯bao쎯fu쎯wu쎯	-11.0994
.2	-11.0994
fen쎯lei쎯:쎯	-11.0994
yin쎯se쎯	-11.0995
qing쎯guang쎯xu쎯	-11.0996
de쎯hao쎯ping쎯	-11.0997
53쎯	-11.0999
bei쎯ren쎯wei쎯shi쎯	-11.0999
8%	-11.0999
li쎯shi쎯,쎯	-11.1003
,쎯dao쎯ru쎯	-11.1003
chang쎯jian쎯bing쎯	-11.1005
i쎯de쎯tu쎯di쎯ge	-11.101
qian쎯zai쎯	-11.1014
wei쎯chang쎯	-11.1014
.07쎯	-11.1014
yi쎯liao쎯qi쎯xie쎯	-11.1018
1/2쎯	-11.1018
jun쎯tuan쎯	-11.1019
jing쎯li쎯le쎯	-11.1022
deng쎯;쎯	-11.1025
geng쎯gao쎯	-11.1025
duo쎯cai쎯	-11.1028
(9	-11.1029
yin쎯yu쎯	-11.103
er쎯jian쎯	-11.103
jiao쎯yu쎯pei쎯xun쎯	-11.1033
▁쎯gong쎯zuo쎯	-11.1033
ni쎯ke쎯	-11.1033
쎯yue쎯29쎯ri쎯	-11.1033
di쎯yi쎯zhang쎯	-11.1037
ling쎯zhi쎯	-11.1037
bao쎯guang쎯	-11.1037
wei쎯:쎯	-11.1042
er쎯duo쎯	-11.1042
jia쎯shan쎯	-11.1043
si쎯zhong쎯	-11.1043
ju쎯xing쎯de쎯	-11.1045
,3쎯	-11.1046
yue쎯lan쎯shi쎯	-11.1047
zhen쎯dang쎯	-11.1047
-12	-11.1047
tong쎯qi쎯	-11.1047
dian쎯fan쎯	-11.1048
dang쎯zuo쎯	-11.1048
。쎯gai쎯cun쎯	-11.1049
zeng쎯da쎯	-11.105
gen쎯sui쎯	-11.1051
you쎯ge쎯	-11.1054
xing쎯ming쎯:쎯	-11.1055
187	-11.1055
sheng쎯nei쎯	-11.1057
feng쎯zhi쎯	-11.1057
deng쎯xiang쎯guan쎯	-11.1057
jiang쎯cheng쎯wei쎯	-11.1057
ka쎯xin쎯pian쎯:	-11.1059
zu쎯jian쎯de쎯	-11.1062
zhu쎯fu쎯	-11.1063
qi쎯lai쎯,쎯	-11.1064
pi쎯ping쎯	-11.1065
、쎯ji쎯suan쎯ji쎯	-11.1066
xiao쎯qiao쎯	-11.1067
zhan쎯zhi쎯zai쎯	-11.1067
ping쎯fang쎯mi쎯de쎯	-11.1068
dai쎯li쎯shang쎯	-11.107
fu쎯ji쎯	-11.1071
shi쎯fan쎯xing쎯	-11.1071
de쎯yi쎯xiang쎯	-11.1071
zhi쎯gao쎯	-11.1073
shi쎯ye쎯fa쎯zhan쎯	-11.1075
wei쎯zong쎯zhi쎯	-11.1075
ru쎯tong쎯	-11.1077
han쎯jian쎯	-11.1078
kai쎯ye쎯shi쎯jian쎯	-11.1079
ge쎯lun쎯bi쎯ya쎯	-11.108
nian쎯lai쎯	-11.108
jiao쎯shou쎯、쎯bo쎯	-11.1081
,쎯xue쎯sheng쎯	-11.1083
1924쎯nian쎯	-11.1083
130쎯	-11.1085
zhan쎯shu쎯	-11.1086
qu쎯wei쎯yu쎯	-11.1087
,쎯an쎯zhao쎯	-11.1087
▁쎯shang쎯shi쎯	-11.1087
xiao쎯you쎯xi쎯	-11.1093
쎯yue쎯4쎯ri쎯	-11.1094
qing쎯qiu쎯	-11.1094
쎯zhi쎯	-11.1096
bu쎯xie쎯	-11.1098
de쎯ren쎯sheng쎯	-11.1098
guo쎯ji쎯xian쎯jin쎯	-11.1098
,쎯dan쎯ren쎯	-11.1099
jian쎯shu쎯	-11.11
kai쎯feng쎯	-11.1101
xi쎯yuan쎯	-11.1101
shou쎯ti쎯	-11.1102
duan쎯de쎯	-11.1103
ye쎯xu쎯	-11.1104
768	-11.1108
lu쎯jing쎯	-11.1109
zai쎯yi쎯ding쎯	-11.1113
you쎯li쎯yu쎯	-11.1114
tie쎯kuang쎯	-11.1115
fu쎯mian쎯	-11.112
ren쎯yuan쎯de쎯	-11.1124
si쎯miao쎯	-11.1124
zhi쎯mei쎯	-11.1125
67쎯	-11.1125
cai쎯wu쎯guan쎯li쎯	-11.1125
rang쎯nin쎯	-11.1129
tui쎯yi쎯	-11.113
ding쎯liang쎯	-11.1131
、쎯lv쎯you쎯	-11.1134
쎯yue쎯3쎯ri쎯	-11.1134
。’”쎯	-11.1135
40쎯duo쎯	-11.1137
(.)쎯	-11.1142
ji쎯xie쎯gong쎯ye쎯	-11.1142
mei쎯jun쎯	-11.1143
jin쎯yi쎯	-11.1144
da쎯po쎯	-11.1144
し	-11.1148
8쎯ri쎯	-11.1149
yin쎯hang쎯、쎯	-11.115
,쎯hai쎯shi쎯	-11.1151
dan쎯wei쎯:쎯	-11.1153
dian쎯zhen쎯	-11.1154
deng쎯zhi쎯wu쎯	-11.1154
ci쎯zhi쎯	-11.1155
zi쎯lai쎯shui쎯	-11.1155
zao쎯sheng쎯	-11.1155
zhi쎯zhuo쎯	-11.1156
yi쎯shang쎯,쎯	-11.1156
ge쎯guo쎯jia쎯he쎯	-11.1157
yi쎯zhan쎯	-11.1158
mi쎯lan쎯	-11.1159
,쎯zhu쎯yao쎯cong쎯	-11.116
bao쎯jia쎯	-11.1161
de쎯tai쎯du쎯	-11.1161
ren쎯men쎯de쎯	-11.1166
▁쎯er쎯、쎯	-11.1168
chuan쎯》쎯	-11.1169
か	-11.117
jian쎯wei쎯	-11.117
gong쎯cheng쎯y	-11.1171
dui쎯wu쎯,쎯	-11.1171
tui쎯chu쎯le쎯	-11.1172
▁2003쎯nian쎯	-11.1172
ji쎯cha쎯	-11.1173
jia쎯shui쎯	-11.1174
zong쎯chan쎯zhi쎯	-11.1176
lin쎯ba쎯	-11.1176
xian쎯jin쎯ji쎯shu쎯	-11.1176
zheng쎯xie쎯wei쎯	-11.1179
xi쎯shan쎯	-11.1181
wei쎯mei쎯	-11.1181
chu쎯liang쎯	-11.1181
2쎯mi쎯	-11.1185
sheng쎯chu쎯	-11.1186
fen쎯hang쎯	-11.1186
bu쎯bing쎯	-11.1186
gu쎯zhe쎯	-11.119
ming쎯“쎯	-11.119
▁쎯you쎯yu쎯	-11.1194
ben쎯cun쎯	-11.1195
chu쎯se쎯	-11.1197
shi쎯fei쎯	-11.12
tuan쎯gou쎯	-11.1201
yan쎯shi쎯zhu쎯ren쎯	-11.1204
de쎯ai쎯	-11.1205
pi쎯pa쎯	-11.1207
---	-11.1211
zhi쎯yue쎯	-11.1213
yu쎯2007쎯nian쎯	-11.1214
bing쎯chuan쎯	-11.1214
yan쎯zhong쎯de쎯	-11.1215
jie쎯sheng쎯	-11.1217
1—	-11.1217
3쎯mi쎯	-11.1217
gen쎯ju쎯di쎯de쎯	-11.1217
ding쎯sheng쎯	-11.1218
hui쎯min쎯	-11.122
yu쎯2003쎯nian쎯	-11.1222
wai쎯hui쎯	-11.1222
pei쎯xun쎯、쎯	-11.1222
shi쎯guang쎯	-11.1225
jing쎯zhan쎯	-11.1226
xiang쎯mu쎯。쎯	-11.1227
zha쎯shi쎯	-11.1228
14쎯ge쎯	-11.1229
mao쎯。쎯	-11.1229
nan쎯ti쎯	-11.123
yin쎯yi쎯	-11.1232
kan쎯deng쎯	-11.1234
shi쎯zuo쎯	-11.1234
zhuan쎯rang쎯	-11.1235
。쎯ta쎯zai쎯	-11.1237
zu쎯。쎯	-11.124
hui쎯ju쎯	-11.124
dong쎯xiang쎯	-11.1241
。2.쎯	-11.1242
er쎯shi쎯shi쎯ji쎯	-11.1242
she쎯jiao쎯	-11.1244
da쎯ye쎯	-11.1245
qu쎯feng쎯	-11.1246
xia쎯tian쎯	-11.1247
gu쎯ge쎯	-11.1247
tai쎯yuan쎯shi쎯	-11.1248
ya쎯chi쎯	-11.1249
che쎯xing쎯	-11.1249
gao쎯xin쎯	-11.1249
lin쎯mu쎯	-11.1249
qian쎯shi쎯	-11.1249
(188	-11.125
lan쎯tian쎯	-11.125
.12	-11.1252
de쎯zui쎯da쎯	-11.1255
guan쎯li쎯zhi쎯du쎯	-11.1255
jian쎯hua쎯	-11.1258
si쎯yi쎯	-11.1259
fan쎯yu쎯	-11.1261
ceng쎯dan쎯ren쎯	-11.1264
chan쎯ye쎯fa쎯zhan쎯	-11.1264
de쎯te쎯shu쎯	-11.1268
wei쎯yuan쎯。	-11.1268
ji쎯zhong쎯dian쎯	-11.1269
.09-	-11.127
she쎯hui쎯xiao쎯yi쎯	-11.127
yin쎯ji쎯	-11.1274
ya쎯dian쎯	-11.1276
,쎯xiong쎯	-11.1277
130	-11.1278
lun쎯zhu쎯	-11.1278
chu쎯ru쎯	-11.1279
bi쎯ya쎯	-11.1279
,쎯zu쎯ji쎯	-11.128
,2011쎯nian쎯	-11.128
shui쎯liu쎯	-11.1281
shou쎯lu쎯le쎯	-11.1281
gao쎯shou쎯	-11.1281
ke쎯yi쎯yong쎯	-11.1282
shi쎯yong쎯zhe쎯	-11.1283
shi쎯shang쎯de쎯	-11.1285
deng쎯dai쎯	-11.1286
gui쎯zhang쎯	-11.1286
,쎯yi쎯ci쎯	-11.1288
13.	-11.1288
zhang쎯shi쎯jian쎯	-11.1289
chu쎯you쎯	-11.1289
fei쎯fan쎯	-11.1289
tai쎯zhou쎯shi쎯	-11.129
yan쎯shan쎯	-11.129
rong쎯huo쎯“쎯	-11.1291
yan쎯cao쎯	-11.1293
zhe쎯jiu쎯shi쎯	-11.1297
rong쎯ji쎯lv쎯	-11.1299
hou쎯dai쎯	-11.1299
wang쎯qiu쎯	-11.13
zuo쎯pin쎯。쎯	-11.1302
feng쎯bi쎯	-11.1302
▁쎯jin쎯nian쎯lai쎯	-11.1306
feng쎯xing쎯	-11.1306
mu쎯lu쎯xia쎯	-11.1306
イ	-11.1307
ming쎯sheng쎯qu쎯	-11.1309
qian쎯mian쎯	-11.131
da쎯qing쎯	-11.1311
쎯qian쎯ke쎯	-11.1314
guai쎯wu쎯	-11.1314
xing쎯shi쎯de쎯	-11.1316
hua쎯ti쎯	-11.1317
yi쎯wai쎯de쎯	-11.1321
wei쎯ni쎯	-11.1321
xia쎯le쎯	-11.1321
sha쎯tan쎯	-11.1323
ha쎯er쎯bin쎯shi쎯	-11.1323
yi쎯qiu쎯jing쎯	-11.1324
zhu쎯liao쎯	-11.1325
ma쎯you쎯	-11.1325
nong쎯suo쎯	-11.1326
,쎯jia쎯qiang쎯	-11.1327
ri쎯bao쎯》쎯	-11.1328
2.6	-11.1329
qiang쎯jing쎯	-11.1329
ci쎯chang쎯	-11.1329
ying쎯xiang쎯de쎯	-11.1331
pin쎯pai쎯。쎯	-11.1333
ye쎯wei쎯	-11.1333
shu쎯xue쎯xi쎯	-11.1335
,쎯zuo쎯luo쎯zai쎯	-11.1337
jia쎯wan쎯	-11.1339
tiao쎯wei쎯liao쎯	-11.134
you쎯si쎯	-11.1341
《》	-11.1344
ye쎯jiu쎯shi쎯	-11.1344
hui쎯lai쎯	-11.1344
pi쎯wei쎯	-11.1346
chang쎯fang쎯xing쎯	-11.1348
qu쎯ji쎯	-11.1348
fen쎯yuan쎯	-11.1348
po쎯you쎯	-11.135
tu쎯biao쎯	-11.1353
tong쎯meng쎯	-11.1353
zheng쎯fu쎯ji쎯gou쎯	-11.1354
hui쎯yuan쎯,쎯	-11.1354
zheng쎯shi쎯qi쎯	-11.1354
chang쎯yi쎯	-11.1356
ti쎯xi쎯,쎯	-11.1356
zheng쎯que쎯de쎯	-11.1357
hua쎯yi쎯	-11.1358
ㄌ	-11.1358
tan쎯huang쎯	-11.1359
xin쎯pian쎯zu쎯	-11.1359
.11	-11.136
gu쎯hua쎯	-11.136
,쎯cu쎯	-11.1363
140	-11.1363
-15	-11.1364
di쎯zhi쎯xue쎯	-11.1365
luo쎯hu쎯	-11.1368
97쎯	-11.1369
zhong쎯zheng쎯	-11.137
deng쎯guo쎯jia쎯	-11.1373
tian쎯zhu쎯	-11.1373
wei쎯jie쎯	-11.1373
yu쎯jiao쎯xue쎯	-11.1373
xiao쎯chuan쎯	-11.1373
hui쎯tong쎯	-11.1374
ming쎯dan쎯	-11.1377
men쎯wai쎯	-11.1379
yi쎯si쎯lan쎯jiao쎯	-11.138
hai쎯zi쎯de쎯	-11.1382
(쎯jian쎯	-11.1382
zuo쎯you쎯。쎯	-11.1383
feng쎯cai쎯	-11.1385
shui쎯mo쎯	-11.1386
jiao쎯yu쎯jia쎯	-11.1387
ri쎯zhao쎯	-11.1387
chu쎯mo쎯ping쎯	-11.139
de쎯nv쎯er쎯	-11.1391
shen쎯zao쎯	-11.1392
wu쎯sheng쎯	-11.1393
shui쎯yuan쎯	-11.1395
yao쎯ji쎯	-11.1395
tou쎯zi쎯you쎯xian쎯	-11.1396
de쎯qi쎯ta쎯	-11.1397
3.2	-11.1398
。쎯dui쎯yu쎯	-11.1398
shui쎯ping쎯。쎯	-11.1399
cai쎯fang쎯	-11.1399
3%	-11.14
cu쎯cao쎯	-11.14
hu쎯wei쎯	-11.14
kuo쎯san쎯	-11.1401
hui쎯wei쎯yuan쎯	-11.1402
da쎯shu쎯	-11.1405
bei쎯ju쎯	-11.1407
di쎯yi쎯pi쎯	-11.1407
kuai쎯su쎯fa쎯zhan쎯	-11.1408
zheng쎯zhi쎯fa쎯	-11.1408
qi쎯ye쎯fa쎯zhan쎯	-11.1409
mei쎯hao쎯de쎯	-11.1409
hui쎯yan쎯	-11.1412
da쎯peng쎯	-11.1413
yu쎯bao쎯	-11.1414
yu쎯xian쎯	-11.1414
bo쎯yin쎯	-11.1415
fei쎯yan쎯	-11.1415
▁쎯ying쎯yong쎯	-11.1421
fu쎯wu쎯ji쎯gou쎯	-11.1423
,쎯zhu쎯zhong쎯	-11.1425
qia쎯tan쎯	-11.1428
yi쎯wei쎯“쎯	-11.1428
guo쎯you쎯zi쎯chan쎯	-11.1428
dong쎯yang쎯	-11.1429
guo쎯duo쎯	-11.1431
yu쎯xin쎯	-11.1432
tian쎯bao쎯	-11.1434
guan쎯tong쎯	-11.1436
shen쎯hou쎯de쎯	-11.1437
cha쎯bie쎯	-11.144
bian쎯cheng쎯le쎯	-11.1441
xi쎯ning쎯	-11.1441
qin쎯shi쎯	-11.1441
ling쎯di쎯	-11.1441
ye쎯jian쎯	-11.1442
ji쎯lv쎯	-11.1443
xue쎯feng쎯	-11.1444
san쎯yue쎯	-11.1445
gong쎯ban쎯	-11.1446
fen쎯shu쎯	-11.1447
zhuan쎯ye쎯xing쎯	-11.1448
kao쎯zheng쎯	-11.145
na쎯shui쎯	-11.1451
you쎯se쎯jin쎯shu쎯	-11.1451
5쎯ping쎯fang쎯	-11.1453
jun쎯zi쎯	-11.1454
nong쎯ye쎯chan쎯ye쎯	-11.1455
gao쎯biao쎯zhun쎯	-11.1456
02쎯	-11.1459
ke쎯er쎯	-11.1461
fu쎯bu쎯zhang쎯	-11.1463
xian쎯hou쎯huo쎯de쎯	-11.1464
di쎯shi쎯jie쎯	-11.1467
san쎯jiao쎯zhou쎯	-11.1471
bian쎯zuan쎯	-11.1472
xing쎯ti쎯	-11.1476
shou쎯ren쎯	-11.1477
qing쎯tong쎯	-11.1477
50-	-11.1479
ran쎯se쎯ti쎯	-11.148
zhong쎯yang쎯dang쎯	-11.148
1929쎯nian쎯	-11.1481
fan쎯nao쎯	-11.1483
fan쎯shi쎯	-11.1486
shen쎯cai쎯	-11.1487
50/	-11.1487
shao쎯zhi쎯	-11.1488
shu쎯lin쎯	-11.1494
▁쎯bing쎯du쎯	-11.1494
qiao쎯mu쎯	-11.1497
,쎯reng쎯	-11.1497
zu쎯yi쎯	-11.1498
kou쎯yu쎯	-11.15
。쎯ling쎯wai쎯,쎯	-11.1502
nan쎯gua쎯	-11.1502
sheng쎯xia쎯	-11.1502
huan쎯jing쎯zhong쎯	-11.1503
ke쎯hua쎯	-11.1504
bao쎯biao쎯	-11.1508
duo쎯ci쎯huo쎯	-11.1508
huo쎯guo쎯	-11.1509
ci쎯pan쎯	-11.1509
yu쎯huan쎯jing쎯	-11.151
chang쎯zhang쎯	-11.1511
ye쎯cheng쎯wei쎯	-11.1513
mei쎯zhan쎯	-11.1513
wei쎯zhu쎯ti쎯de쎯	-11.1513
yang쎯zi쎯	-11.1516
—200	-11.1517
。1978쎯nian쎯	-11.1517
ke쎯xue쎯xue쎯yuan쎯	-11.1518
zhi쎯dong쎯	-11.1518
ju쎯you쎯feng쎯fu쎯	-11.1519
deng쎯yi쎯xi쎯lie쎯	-11.152
dian쎯ding쎯le쎯	-11.1522
suo쎯xu쎯de쎯	-11.1525
di쎯yi쎯ren쎯	-11.1531
fei쎯qi쎯	-11.1532
fa쎯biao쎯le쎯	-11.1533
5쎯hao쎯mi쎯	-11.1535
10쎯ri쎯	-11.1536
pi쎯zhen쎯xing쎯,쎯	-11.1536
e쎯guo쎯	-11.1537
zi쎯fu쎯	-11.1537
ju쎯xian쎯cheng쎯	-11.1539
zhuan쎯ru쎯	-11.154
ci쎯di쎯	-11.1541
guan쎯ai쎯	-11.1542
dang쎯dai쎯yi쎯shu쎯	-11.1544
nao쎯zhong쎯	-11.1545
du쎯fu쎯	-11.1546
1998	-11.1548
、쎯tai쎯wan쎯	-11.1549
su쎯you쎯	-11.155
11.	-11.155
kun쎯ming쎯shi쎯	-11.1551
shou쎯hou쎯	-11.1553
guo쎯ren쎯	-11.1554
lu쎯shan쎯	-11.1555
nv쎯shi쎯	-11.1558
、쎯guang쎯xi쎯	-11.1558
ren쎯ge쎯	-11.1559
《쎯guan쎯yu쎯	-11.1561
duan쎯duan쎯	-11.1561
bing쎯wei쎯	-11.1562
gan쎯han쎯	-11.1563
luan쎯yuan쎯xing쎯	-11.1563
ling쎯nan쎯	-11.1564
zhuang쎯ru쎯	-11.1564
lin쎯chang쎯	-11.1565
jian쎯ming쎯	-11.1565
ji쎯ben쎯shang쎯	-11.1566
◇	-11.1567
0)쎯	-11.1568
you쎯yan쎯	-11.1568
bu쎯duan쎯di쎯	-11.1569
(198	-11.157
hen쎯gao쎯	-11.1573
12쎯yue쎯jia쎯ru쎯	-11.1573
qian쎯shu쎯	-11.1573
zhe쎯zhang쎯ka쎯	-11.1574
tai쎯shang쎯	-11.1574
min쎯zheng쎯ju쎯	-11.1574
bao쎯mi쎯	-11.1577
da쎯xia쎯	-11.1578
de쎯li쎯nian쎯	-11.1579
xian쎯jing쎯nei쎯	-11.158
zhu쎯liao쎯:쎯	-11.158
,쎯fen쎯bu쎯yu쎯	-11.1581
shou쎯ling쎯	-11.1582
jiao쎯xue쎯he쎯	-11.1583
,쎯qi쎯yu쎯	-11.1584
yan쎯jiu쎯kai쎯fa쎯	-11.1584
jing쎯xiu쎯li쎯de쎯	-11.1585
,쎯gong쎯tong쎯	-11.1587
,1975쎯nian쎯	-11.1588
“쎯quan쎯guo쎯	-11.1588
qing쎯mo쎯	-11.159
fu쎯zhu쎯ren쎯。쎯	-11.1594
ma쎯?쎯	-11.1594
xi쎯xin쎯	-11.1596
da쎯xue쎯ben쎯ke쎯	-11.1601
78쎯	-11.1602
11-	-11.1603
shao쎯jian쎯	-11.1604
zhi쎯ru쎯	-11.1604
ti쎯yu쎯guan쎯	-11.1607
pei쎯dian쎯	-11.1609
,쎯xi쎯zhi쎯	-11.161
30쎯gong쎯li쎯	-11.1612
zhi쎯si쎯	-11.1612
qing쎯tian쎯	-11.1613
ou쎯yang쎯	-11.1613
5쎯li쎯mi쎯	-11.1615
2012	-11.1616
ci쎯tiao쎯	-11.1617
shi쎯yi쎯zuo쎯	-11.1619
.1쎯	-11.1621
▁쎯you쎯xi쎯	-11.1621
0.5쎯	-11.1622
you쎯yi쎯zhong쎯	-11.1622
du쎯guo쎯	-11.1622
mi쎯ni쎯	-11.1622
fang쎯zi쎯	-11.1623
quan쎯nian쎯	-11.1623
、쎯qi쎯ye쎯	-11.1625
3.6	-11.1626
lv쎯da쎯	-11.1627
▁쎯an쎯quan쎯	-11.163
yu쎯2004쎯nian쎯	-11.1631
shi쎯yong쎯。	-11.1634
e쎯mo쎯	-11.1634
zhu쎯ye쎯	-11.1637
;“쎯	-11.1637
shi쎯er쎯nian쎯	-11.1637
,1963쎯nian쎯	-11.1639
zhuan쎯lve쎯	-11.1639
gai쎯lun쎯	-11.1639
wai쎯bao쎯	-11.164
de쎯mei쎯li쎯	-11.1641
2—	-11.1643
ling쎯qu쎯	-11.1644
tong쎯bian쎯li쎯。쎯	-11.1645
ban쎯shang쎯	-11.1647
zhong쎯xue쎯sheng쎯	-11.1647
de쎯shi쎯chang쎯	-11.1648
ying쎯te쎯er쎯	-11.1649
mei쎯miao쎯	-11.1649
。쎯sheng쎯yu쎯	-11.1649
liu쎯da쎯	-11.1651
suo쎯yin쎯	-11.1653
qiu쎯fa쎯zhan쎯	-11.1653
zhu쎯zai쎯	-11.1653
bing쎯yi쎯	-11.1655
wen쎯xue쎯yi쎯shu쎯	-11.1656
kang쎯jun쎯	-11.1656
gao쎯jia쎯	-11.1657
yan쎯sheng쎯	-11.166
yan쎯jiu쎯》쎯	-11.166
bu쎯ting쎯	-11.1661
.03	-11.1661
de쎯zui쎯gao쎯	-11.1661
ji쎯nian쎯lai쎯	-11.1662
dang쎯shi쎯ren쎯	-11.1662
dan쎯wei쎯、쎯	-11.1665
sheng쎯、쎯shi쎯	-11.1665
shou쎯cang쎯jia쎯	-11.1668
wu쎯ke쎯	-11.1668
2쎯xiao쎯shi쎯	-11.167
yue쎯han쎯·쎯	-11.167
yue쎯yu쎯	-11.167
qian쎯shui쎯	-11.1672
zui쎯duo쎯de쎯	-11.1673
,쎯quan쎯guo쎯	-11.1674
zhou쎯kan쎯	-11.1675
1926쎯nian쎯	-11.1676
zhi쎯jin쎯zai쎯	-11.1676
qing쎯qu쎯	-11.1676
wu쎯zhi쎯di쎯	-11.1677
yi쎯da쎯dao쎯	-11.1677
te쎯dian쎯shi쎯	-11.1679
26쎯ri쎯	-11.1679
qu쎯zhe쎯	-11.1679
gong쎯shang쎯ju쎯	-11.1681
di쎯yi쎯zhong쎯xue쎯	-11.1682
lv쎯you쎯qu쎯	-11.1682
ying쎯dui쎯	-11.1682
shui쎯fa쎯	-11.1683
qing쎯xian쎯	-11.1683
2008	-11.1685
qing쎯lai쎯	-11.1689
shi쎯zi쎯li쎯liang쎯	-11.169
zhong쎯jiang쎯	-11.1693
shu	-11.1694
yong쎯zheng쎯	-11.1696
ye쎯ji쎯tuan쎯	-11.1696
xin쎯lang쎯	-11.1698
shui쎯hu쎯	-11.1698
76쎯	-11.1699
li쎯xiu쎯	-11.17
dong쎯ya쎯	-11.1708
▁쎯liu쎯	-11.1712
fen쎯lan쎯	-11.1713
zhang쎯zhi쎯	-11.1713
liu쎯pai쎯	-11.1714
shou쎯qi쎯	-11.1715
cai쎯zheng쎯ju쎯	-11.1716
lao쎯zi쎯	-11.1718
:(쎯	-11.1719
wu쎯er쎯	-11.1722
xin쎯xi쎯,쎯	-11.1724
you쎯hai쎯	-11.1725
wu쎯bai쎯	-11.1726
xing쎯xi쎯	-11.1726
lv쎯you쎯du쎯jia쎯	-11.1727
de쎯zhan쎯lve쎯	-11.1727
mai쎯jia쎯	-11.1729
nv쎯,쎯	-11.1731
5쎯mi쎯,쎯	-11.1732
hong쎯se쎯,쎯	-11.1732
shan쎯xia쎯	-11.1733
hai쎯mian쎯	-11.1733
yin쎯xiao쎯	-11.1735
de쎯jian쎯kang쎯	-11.1737
xun쎯qiu쎯	-11.1737
wang쎯jia쎯	-11.1738
cai쎯you쎯	-11.174
pi쎯fu쎯bing쎯	-11.174
yi쎯qing쎯	-11.1741
hou쎯shi쎯	-11.1742
xiao쎯mie쎯	-11.1742
shang쎯chuan쎯	-11.1744
shi쎯wu쎯nian쎯	-11.1744
san쎯jian쎯	-11.1745
jiao쎯ti쎯	-11.1746
fu쎯dan쎯	-11.1747
jun쎯zhi쎯	-11.1747
zu쎯fen쎯	-11.1748
108	-11.1751
qing쎯yang쎯	-11.1751
zhi쎯lei쎯	-11.1752
de쎯biao쎯zhun쎯	-11.1754
wei쎯du쎯	-11.1754
gao쎯yu쎯	-11.1757
chuan쎯ran쎯bing쎯	-11.1757
xie쎯fu쎯zhu쎯xi쎯	-11.1757
he쎯ge쎯ren쎯	-11.176
zhong쎯lu쎯	-11.176
jing쎯xiao쎯	-11.176
kan쎯jian쎯	-11.1761
:-	-11.1761
shen쎯mi쎯de쎯	-11.1762
(쎯gong쎯yuan쎯1	-11.1763
6.5	-11.1763
huo쎯zai쎯	-11.1764
,쎯ji쎯ke쎯	-11.1766
sheng쎯ming쎯de쎯	-11.1767
wu쎯ju쎯	-11.1767
、쎯suan쎯	-11.1767
2007	-11.1768
,쎯pei쎯yang쎯	-11.177
jiu쎯cheng쎯	-11.177
tian쎯men쎯	-11.1774
qu쎯zhi쎯	-11.1775
yi쎯ji쎯jiao쎯shi쎯	-11.1776
,쎯ceng쎯zai쎯	-11.1777
shou쎯hui쎯	-11.1778
,쎯shan쎯xi쎯	-11.1781
bu쎯guan쎯	-11.1782
yi쎯tai쎯wang쎯	-11.1784
kan쎯cheng쎯	-11.1785
zu쎯fu쎯	-11.1785
shu쎯wei쎯	-11.1786
duan쎯shi쎯jian쎯	-11.1786
zang쎯zu쎯	-11.1787
jin쎯guo쎯	-11.1787
dai쎯hao쎯	-11.1791
wen쎯hua쎯yan쎯jiu쎯	-11.1792
yi쎯yang쎯de쎯	-11.1792
zhan쎯lan쎯hui쎯	-11.1792
bei쎯hou쎯	-11.1792
cheng쎯hao쎯。	-11.1795
20쎯wan쎯	-11.1795
m2,쎯	-11.1796
30쎯yu쎯pian쎯	-11.1801
bei쎯bu쎯,쎯	-11.1802
heng쎯liang쎯	-11.1802
quan쎯qiu쎯hua쎯	-11.1803
tu쎯di쎯ge쎯ming쎯	-11.1803
tuan쎯zhang쎯	-11.1804
lin쎯di쎯	-11.1804
zhong쎯dui쎯	-11.1805
can쎯jun쎯	-11.1806
▁2002쎯nian쎯	-11.1808
lin쎯ye쎯ju쎯	-11.1809
cheng쎯shou쎯	-11.1809
gui쎯hua쎯he쎯	-11.1811
shi쎯yi쎯nian쎯	-11.1811
yi쎯ban쎯de쎯	-11.1813
he쎯fa쎯quan쎯yi쎯	-11.1814
wu쎯xian쎯wang쎯ka쎯	-11.1815
6쎯mi쎯	-11.1816
gao쎯xin쎯qu쎯	-11.1816
、쎯xiao쎯shou쎯、쎯	-11.1816
,쎯mei쎯ge쎯	-11.1817
hen쎯nan쎯	-11.1817
350쎯	-11.1817
57쎯	-11.1818
pi쎯zhun쎯de쎯	-11.1819
chang쎯xian쎯	-11.1819
huang쎯gang쎯	-11.1819
shang쎯ke쎯	-11.1822
wu쎯hui쎯	-11.1822
ti쎯gao쎯le쎯	-11.1825
wang쎯yi쎯	-11.1826
,쎯shi쎯ren쎯	-11.1827
lai쎯yuan쎯:쎯	-11.1829
yan쎯zhi쎯de쎯	-11.183
,쎯guang쎯xi쎯	-11.1832
shuo쎯de쎯	-11.1832
huan쎯man쎯	-11.1833
,1970쎯nian쎯	-11.1834
he쎯ying쎯yong쎯	-11.1835
kang쎯ti쎯	-11.1839
che쎯、쎯	-11.184
xian쎯shu쎯	-11.1847
shu쎯lian쎯	-11.1849
yi쎯ying쎯ju쎯quan쎯	-11.1852
zai쎯nan쎯	-11.1852
you쎯ming쎯de쎯	-11.1854
qi쎯ye쎯、쎯	-11.1856
▁.	-11.1857
quan쎯tao쎯	-11.1859
2.7	-11.1859
da쎯zao쎯de쎯	-11.186
xi쎯gua쎯	-11.1861
jin쎯rong쎯ji쎯gou쎯	-11.1863
jian쎯ti쎯	-11.1866
ying쎯wu쎯	-11.1867
、쎯nai쎯	-11.1867
10쎯yu쎯pian쎯	-11.1867
bao쎯hu쎯qu쎯	-11.1868
zhi쎯bo쎯	-11.1869
lun쎯tai쎯	-11.1869
jing쎯ran쎯	-11.1871
yu쎯qing쎯	-11.1873
sheng쎯qian쎯	-11.1873
hei쎯he쎯se쎯	-11.1876
xiang쎯bei쎯	-11.1877
zhi쎯wu쎯you쎯	-11.1878
,쎯zong쎯tou쎯zi쎯	-11.1879
lou쎯dong쎯	-11.1881
ri쎯qi쎯:	-11.1881
cheng쎯wei쎯yi쎯ge쎯	-11.1882
dui쎯fu쎯	-11.1883
jing쎯shang쎯	-11.1884
jiao쎯hu쎯	-11.1886
yu쎯fu쎯	-11.1888
·쎯li쎯	-11.1889
wo쎯sheng쎯	-11.1889
yuan쎯shi쎯pei쎯qi쎯	-11.189
jian쎯dan쎯,쎯	-11.1891
si쎯chuan쎯da쎯xue쎯	-11.1892
+1	-11.1892
ji쎯shu쎯ren쎯cai쎯	-11.1893
gao쎯su쎯zhi쎯	-11.1893
qin쎯lve쎯	-11.1894
chu쎯mo쎯	-11.1894
mei쎯yi쎯wei쎯	-11.1896
da쎯li쎯shi쎯	-11.1898
12쎯yue쎯sheng쎯,쎯	-11.1899
dong쎯tian쎯	-11.1899
sheng쎯qi쎯	-11.1899
bie쎯ming쎯:쎯	-11.1899
,쎯ye쎯jiu쎯shi쎯	-11.19
ming쎯lu쎯	-11.19
tong쎯zhou쎯	-11.1905
bei쎯di쎯	-11.1907
▁6	-11.191
san쎯shi쎯nian쎯	-11.191
que쎯dian쎯	-11.1912
ben쎯pian쎯	-11.1912
,쎯bao쎯zheng쎯	-11.1913
shui쎯shi쎯	-11.1913
fang쎯zheng쎯	-11.1913
de쎯jie쎯gou쎯	-11.1914
jia쎯zhou쎯	-11.1915
shi쎯jian쎯,쎯	-11.1915
ㄙ	-11.1916
ping쎯fan쎯	-11.1918
、쎯zui쎯	-11.192
yi쎯feng쎯	-11.192
er쎯yan쎯,쎯	-11.192
xiao쎯shuo쎯,쎯	-11.1922
yue쎯lai쎯yue쎯duo쎯	-11.1923
62쎯	-11.1924
ban쎯qiu쎯	-11.1926
nong쎯lin쎯	-11.1926
jiao쎯zheng쎯	-11.1927
lu쎯·쎯	-11.1928
yang쎯yu쎯	-11.193
bie쎯zhi쎯	-11.193
wu쎯shui쎯	-11.1931
guan쎯shi쎯	-11.1931
yong쎯fa쎯	-11.1932
zhang쎯xian쎯	-11.1932
jin쎯zhou쎯	-11.1933
zi쎯sun쎯	-11.1933
7쎯nian쎯	-11.1933
han쎯gai쎯le쎯	-11.1934
shan쎯yang쎯	-11.1934
tou쎯fa쎯	-11.1936
tie쎯xin쎯	-11.1938
tang쎯zhen쎯	-11.1938
de쎯kong쎯jian쎯	-11.1939
li쎯shi쎯xi쎯	-11.1939
、쎯tie쎯	-11.194
mu쎯yu쎯	-11.1941
,1968쎯nian쎯	-11.1941
fu쎯chi쎯	-11.1942
6)	-11.1943
zuo쎯yong쎯de쎯	-11.1944
shou쎯shang쎯	-11.1944
pu쎯er쎯	-11.1945
쎯wan쎯ping쎯mi쎯	-11.1947
yan쎯jiu쎯、쎯	-11.1948
▁쎯dang쎯	-11.1948
쎯zai쎯xiao쎯li쎯yu쎯	-11.1953
jian쎯qiao쎯	-11.1956
쎯yue쎯7쎯ri쎯	-11.1957
sang쎯na쎯	-11.1957
li쎯zu쎯yu쎯	-11.1959
shi쎯chang쎯,쎯	-11.196
ta쎯yi쎯	-11.196
wu쎯gu쎯	-11.1961
fan쎯kui쎯	-11.1961
jian쎯dui쎯	-11.1961
gu쎯er쎯	-11.1962
you쎯duo쎯	-11.1963
bian쎯ping쎯	-11.1963
jin쎯xing쎯de쎯	-11.1965
de쎯xin쎯li쎯	-11.1965
de쎯da쎯xiao쎯	-11.1966
zhan쎯hui쎯	-11.1966
4쎯wan쎯	-11.1967
xiang쎯liao쎯	-11.1967
de쎯shi쎯shi쎯	-11.197
,쎯zui쎯da쎯	-11.197
ban쎯jun쎯yun쎯	-11.1971
xiang쎯fu쎯	-11.1971
ba쎯yi쎯	-11.1972
dun쎯huang쎯	-11.1972
,1974쎯nian쎯	-11.1974
an쎯quan쎯xing쎯	-11.1974
qi쎯ye쎯zhi쎯yi쎯	-11.1974
hao쎯:	-11.1975
sai쎯che쎯	-11.1975
mo쎯shi쎯:쎯	-11.1976
gei쎯ni쎯	-11.1977
11쎯yue쎯sheng쎯,쎯	-11.1979
du쎯juan쎯	-11.1981
jin쎯kao쎯	-11.1982
chan쎯hou쎯	-11.1982
。쎯xing쎯rong쎯	-11.1984
shi쎯run쎯	-11.1987
nan쎯,쎯han쎯zu쎯,쎯	-11.1987
xu쎯jia쎯	-11.1989
,쎯kai쎯zhan쎯	-11.199
hai쎯er쎯	-11.1991
gang쎯gang쎯	-11.1992
qie쎯xiao쎯	-11.1996
-)쎯	-11.1998
。1981쎯nian쎯	-11.2004
sheng쎯chan쎯he쎯	-11.2007
。쎯yin쎯ci쎯	-11.201
lin쎯yu쎯	-11.2011
0쎯mi쎯,쎯	-11.2011
“쎯da쎯	-11.2011
chi쎯jiu쎯	-11.2012
,쎯chen쎯	-11.2012
ㄠ	-11.2014
shi쎯shen쎯me쎯	-11.2015
quan쎯ju쎯	-11.2017
mian쎯yang쎯	-11.2018
0~	-11.2018
shi쎯yue쎯	-11.202
zhu쎯ren쎯。	-11.202
feng쎯tian쎯	-11.2023
50쎯nian쎯dai쎯	-11.2024
deng쎯ke쎯cheng쎯	-11.2025
ping쎯yi쎯	-11.2025
ke쎯luo쎯	-11.2026
cha쎯kan쎯	-11.2026
ying쎯yao쎯	-11.2027
5쎯yue쎯,쎯	-11.2028
rong쎯li쎯	-11.2028
de쎯zhen쎯zhi쎯	-11.203
,쎯dong쎯yu쎯	-11.203
xin쎯jin쎯	-11.2031
de쎯yi쎯jian쎯	-11.2032
ji쎯xie쎯、쎯	-11.2032
miao쎯shu쎯:	-11.2032
ke쎯jiao쎯	-11.2032
jie쎯yi쎯	-11.2034
wai쎯guan쎯she쎯ji쎯	-11.2035
ren쎯tong쎯	-11.2035
di쎯kang쎯	-11.2035
。쎯ceng쎯zai쎯	-11.2035
59쎯	-11.2037
gai쎯xing쎯	-11.2037
su쎯lv쎯	-11.2039
jiao쎯dai쎯	-11.2039
wen쎯zhong쎯	-11.204
100쎯yu쎯	-11.204
liang쎯dian쎯	-11.2042
ning쎯ju쎯	-11.2044
。1979쎯nian쎯	-11.2044
zhai쎯wu쎯	-11.2047
wo쎯men쎯jiang쎯	-11.2049
wai쎯guo쎯yu쎯xue쎯	-11.2049
li쎯lun쎯yu쎯shi쎯	-11.2049
tian쎯yi쎯	-11.205
。쎯quan쎯shu쎯	-11.2053
hong쎯qiao쎯	-11.2053
zeng쎯sheng쎯	-11.2054
yan쎯hou쎯	-11.2055
ju쎯shuo쎯	-11.2056
gan쎯mao쎯	-11.2058
zhang쎯jia쎯jie쎯	-11.2059
”쎯ji쎯	-11.2059
shu쎯shi쎯de쎯	-11.206
nian쎯qing쎯de쎯	-11.2062
▁쎯chu쎯chu쎯:쎯	-11.2064
25쎯ri쎯	-11.2066
shi쎯jian쎯:200	-11.2067
jiu쎯jiang쎯	-11.2068
zai쎯na쎯li쎯	-11.2071
le쎯da쎯liang쎯	-11.2071
qi쎯you쎯	-11.2072
(,)	-11.2072
chu쎯zu쎯	-11.2073
zuo쎯yong쎯。	-11.2073
bu쎯xing쎯jie쎯	-11.2076
shang쎯ye쎯jie쎯	-11.2076
guan쎯xi쎯。쎯	-11.2076
shou쎯xin쎯	-11.2079
jian쎯she쎯bu쎯	-11.208
qian쎯fang쎯	-11.2084
kai쎯zhan쎯le쎯	-11.2085
shou쎯ke쎯	-11.2086
han쎯shui쎯	-11.2087
yong쎯you쎯yi쎯pi쎯	-11.2088
tang쎯·쎯	-11.2088
qian쎯zhe쎯	-11.2088
jing쎯zhan쎯de쎯	-11.2089
fa쎯li쎯	-11.2089
5쎯ming쎯	-11.2089
yi쎯ji쎯qi쎯ta쎯	-11.2091
dai쎯wang쎯	-11.2092
fang쎯fa쎯he쎯	-11.2092
bai쎯ke쎯	-11.2093
9쎯ren쎯,쎯	-11.2093
ci쎯nian쎯	-11.2093
ming쎯bai쎯	-11.2093
sheng쎯zhang쎯zai쎯	-11.2093
neng쎯li쎯qiang쎯	-11.2094
shou쎯xu쎯	-11.2094
jie쎯mei쎯	-11.2094
ke쎯ke쎯	-11.2096
ya쎯jun쎯	-11.2096
,쎯qi쎯shi쎯	-11.2096
。쎯bi쎯ye쎯yu쎯	-11.2096
he쎯se쎯,쎯	-11.2096
shi쎯wu쎯suo쎯	-11.2096
ru쎯xian쎯	-11.2097
jian쎯zhang쎯	-11.2098
fu쎯fu쎯	-11.2099
zi쎯di쎯	-11.2101
hao쎯xiang쎯	-11.2101
cun쎯li쎯	-11.2101
5×	-11.2103
》、《	-11.2103
)쎯ren쎯,쎯	-11.2104
xiu쎯xian쎯yu쎯le쎯	-11.2104
2-3쎯	-11.2104
sheng쎯gao쎯	-11.2104
yang쎯zhen쎯	-11.2105
__	-11.2106
shu쎯ru쎯fa쎯	-11.2107
ta쎯dui쎯	-11.2109
tan쎯pan쎯	-11.2112
dui쎯dui쎯yuan쎯	-11.2112
。쎯ming쎯	-11.2115
▁쎯bao쎯zhuang쎯	-11.2116
ren쎯,	-11.2116
yi쎯bing쎯	-11.2119
de쎯quan쎯li쎯	-11.212
she쎯zu쎯	-11.212
da쎯bu쎯	-11.212
zong쎯he쎯zhi쎯li쎯	-11.2121
de쎯cheng쎯shi쎯	-11.2124
de쎯hai쎯zi쎯	-11.2124
qi쎯wang쎯	-11.2125
ju쎯mian쎯	-11.2125
ge쎯you쎯	-11.2126
du쎯cha쎯	-11.2126
▁쎯fa쎯xing쎯	-11.2127
。2012쎯nian쎯	-11.2128
bian쎯dong쎯	-11.2128
jiu쎯zhu쎯	-11.2131
2012쎯	-11.2132
wu쎯qu쎯	-11.2134
san쎯fang쎯	-11.2137
jiao쎯yu쎯shi쎯ye쎯	-11.214
,쎯duo쎯ci쎯	-11.214
che쎯dao쎯	-11.2143
bu쎯lai쎯	-11.2143
10쎯ren쎯	-11.2143
dai쎯cheng쎯shi쎯	-11.2144
qi쎯ci쎯	-11.2144
쎯wan쎯li쎯fang쎯mi쎯	-11.2147
gao쎯gui쎯	-11.2148
deng쎯dan쎯wei쎯	-11.2148
deng쎯ge쎯lei쎯	-11.2148
zhu쎯shi쎯hui쎯she쎯	-11.2148
zhi쎯ye쎯ji쎯neng쎯	-11.2149
guang쎯qu쎯	-11.2151
,쎯qi쎯ta쎯	-11.2151
ou쎯meng쎯	-11.2152
dan쎯ye쎯	-11.2154
;(	-11.2155
cai쎯kuai쎯	-11.2156
he쎯guo쎯jia쎯	-11.2157
xue쎯xing쎯	-11.2158
tiao쎯kong쎯	-11.2161
bi쎯ran쎯	-11.2161
fu쎯mo쎯	-11.2163
zhu쎯pin쎯	-11.2163
bu쎯er쎯	-11.2165
ming쎯lie쎯	-11.2166
yin쎯yuan쎯	-11.2167
te쎯ding쎯de쎯	-11.2167
ming쎯ti쎯	-11.2169
ren쎯kou쎯1	-11.217
1쎯mi쎯	-11.217
dan쎯xiang쎯	-11.2171
ren쎯xuan쎯	-11.2171
deng쎯guang쎯	-11.2173
bi쎯shang쎯	-11.2174
”쎯pai쎯	-11.2174
zhi쎯ti쎯	-11.2175
07쎯	-11.2177
shun쎯de쎯	-11.2177
xie쎯zi쎯	-11.2179
zong쎯liang쎯	-11.2179
bu쎯qu쎯	-11.2179
jie쎯chu쎯de쎯	-11.218
da쎯hu쎯	-11.2181
yu쎯2002쎯nian쎯	-11.2181
zhen쎯pin쎯	-11.2181
gai쎯lv쎯	-11.2183
qing쎯liang쎯	-11.2185
yu쎯shui쎯	-11.2185
08쎯	-11.2186
deng쎯di쎯。쎯	-11.2188
tai쎯hou쎯	-11.2188
wen쎯rou쎯	-11.219
qi쎯fa쎯	-11.2192
9)쎯	-11.2194
wei쎯lai쎯de쎯	-11.2197
wang쎯min쎯	-11.2199
liu쎯xing쎯yu쎯	-11.2201
de쎯qing쎯lai쎯	-11.2202
shi쎯yang쎯	-11.2204
fan쎯chou쎯	-11.2206
zhi쎯qi쎯guan쎯	-11.2207
tai쎯shou쎯	-11.2208
pao쎯bing쎯	-11.2208
huang쎯jiu쎯	-11.2209
wu쎯lin쎯	-11.2209
ge쎯si쎯	-11.2209
gao쎯pin쎯	-11.2209
;2	-11.2214
hong쎯jiao쎯	-11.2214
18쎯ge쎯	-11.2214
dan쎯huang쎯se쎯	-11.2214
cheng쎯zhong쎯	-11.2215
quan쎯zu쎯	-11.2216
de쎯zheng쎯ti쎯	-11.2218
shan쎯feng쎯	-11.2219
huan쎯cheng쎯	-11.2219
qing쎯yun쎯	-11.2223
qing쎯dian쎯	-11.2223
ti쎯wei쎯	-11.2224
ji쎯che쎯	-11.2225
chu쎯jia쎯	-11.2225
jiu쎯yao쎯	-11.2225
tie쎯jin쎯	-11.2227
wen쎯jiao쎯	-11.2227
hong쎯shui쎯	-11.2227
yan쎯yuan쎯。쎯	-11.2231
xiang쎯shan쎯	-11.2232
gai쎯ge쎯fang쎯an쎯	-11.2233
long쎯tan쎯	-11.2233
ping쎯、쎯	-11.2233
、쎯jian쎯kang쎯	-11.2234
jia쎯zuo쎯	-11.2234
gan쎯xing쎯	-11.2234
zhi쎯ji쎯,쎯	-11.2235
tai쎯、쎯	-11.2235
kai쎯shi쎯,쎯	-11.2235
1쎯yue쎯1쎯ri쎯	-11.2235
yue쎯liang쎯	-11.2236
zhi쎯shang쎯,쎯	-11.2237
,쎯ping쎯jun쎯	-11.2238
jing쎯yi쎯	-11.2241
lv쎯dou쎯	-11.2241
с	-11.2242
suo쎯ni쎯	-11.2243
xuan쎯ji쎯	-11.2243
wan쎯wu쎯	-11.2243
jing쎯》쎯	-11.2244
fen쎯she쎯	-11.2246
ren쎯xing쎯hua쎯	-11.2246
dan쎯ci쎯	-11.2247
、쎯guo쎯ji쎯	-11.2248
▁쎯biao쎯zhun쎯	-11.2249
hai쎯kou쎯	-11.225
yin쎯bing쎯	-11.2251
jie쎯ming쎯ren쎯lu쎯	-11.2252
000	-11.2252
yin쎯xian쎯	-11.2254
50쎯wan쎯	-11.2254
tuan쎯wei쎯	-11.2256
(..	-11.2258
쎯yi쎯yuan쎯,쎯	-11.2259
shi쎯yan쎯shi쎯、쎯	-11.2261
zuo쎯pin쎯you쎯《쎯	-11.2263
xue쎯zheng쎯	-11.2263
da쎯li쎯fa쎯zhan쎯	-11.2264
jiang쎯ta쎯	-11.2266
xun쎯fu쎯	-11.2266
wan쎯yan쎯	-11.2268
cheng쎯qiang쎯	-11.2268
kou쎯an쎯	-11.2268
,쎯bian쎯yuan쎯	-11.2269
bu쎯xia쎯	-11.2269
ming쎯wei쎯“쎯	-11.227
xi쎯huan쎯de쎯	-11.2271
c	-11.2271
cun쎯zai쎯yu쎯	-11.2272
jiao쎯zao쎯	-11.2274
hu쎯zhu쎯	-11.2275
shi쎯zui쎯	-11.2275
tai쎯shi쎯ji쎯	-11.2275
zhi쎯ming쎯qi쎯ye쎯	-11.2275
li쎯lv쎯	-11.2276
ke쎯ai쎯de쎯	-11.2276
de쎯zhong쎯dian쎯	-11.2277
xin쎯li쎯zi쎯xun쎯	-11.2279
chang쎯you쎯	-11.228
xu쎯qiu쎯,쎯	-11.2282
li쎯er쎯	-11.2286
hui쎯gu쎯	-11.2286
lu쎯deng쎯	-11.2288
kou쎯bei쎯	-11.2288
2쎯gong쎯li쎯,쎯	-11.2288
min쎯dong쎯	-11.2288
mi쎯bei쎯	-11.229
zhang쎯zhou쎯	-11.229
yi쎯lun쎯	-11.229
:1.	-11.229
ding쎯jia쎯	-11.2291
sheng쎯you쎯	-11.2291
pou쎯	-11.2291
。쎯ceng쎯huo쎯	-11.2292
qiang쎯ji쎯	-11.2294
jing쎯ying쎯de쎯	-11.2294
huang쎯you쎯	-11.2296
jiang쎯jiu쎯	-11.2297
wan쎯bao쎯	-11.2298
zhong쎯duo쎯de쎯	-11.23
yan쎯tu쎯	-11.2301
san쎯ming쎯	-11.2302
10000쎯	-11.2302
mi쎯niao쎯	-11.2303
luo쎯han쎯	-11.2303
bu쎯si쎯	-11.2305
hang쎯ye쎯zhong쎯	-11.2306
5쎯gong쎯li쎯,쎯	-11.2306
zhuan쎯men쎯cong쎯	-11.2309
yi쎯·쎯	-11.2309
di쎯dai쎯,쎯	-11.231
duo쎯nian쎯lai쎯,쎯	-11.2312
-11	-11.2313
3000	-11.2314
lv쎯bo쎯	-11.2316
4)	-11.2317
wu쎯dai쎯	-11.2317
10/100	-11.2317
、4	-11.232
zhi쎯。”쎯	-11.2323
si쎯xing쎯ji쎯	-11.2323
ming쎯liang쎯	-11.2323
(1)	-11.2324
quan쎯cun쎯gong쎯	-11.2325
mei쎯shu쎯xi쎯	-11.2326
yao쎯cai쎯	-11.2326
ju쎯he쎯wu쎯	-11.2326
0/	-11.2327
de쎯xiao쎯shou쎯	-11.2327
luo쎯yang쎯shi쎯	-11.2329
,쎯dan쎯zai쎯	-11.233
zhu쎯yao쎯wei쎯	-11.2333
deng쎯ye쎯wu쎯	-11.2333
jiao쎯zhang쎯	-11.2334
yong쎯qi쎯	-11.2338
lu쎯jiao쎯hui쎯chu쎯	-11.2338
▁2001쎯nian쎯	-11.2338
de쎯biao쎯xian쎯	-11.2339
zuo쎯“쎯	-11.2339
ta쎯you쎯	-11.234
qi쎯huan쎯	-11.2342
》쎯xi쎯lie쎯	-11.2342
wu쎯mei쎯	-11.2344
yuan쎯sheng쎯	-11.2345
112	-11.2345
shan쎯xiang쎯	-11.2347
bi쎯ji쎯	-11.2348
2、	-11.2348
gong쎯si쎯tou쎯zi쎯	-11.235
ji쎯gao쎯	-11.2352
▁쎯tiao쎯liao쎯:쎯	-11.2353
ju쎯ju쎯zhang쎯、쎯	-11.2354
fa쎯zuo쎯	-11.2354
mo쎯nian쎯	-11.2356
bi쎯shi쎯	-11.2356
sen쎯lin쎯gong쎯	-11.2356
fu쎯chu쎯	-11.2358
wei쎯jin쎯	-11.2359
。1950쎯nian쎯	-11.2359
2004	-11.2359
lou쎯gao쎯	-11.236
si쎯shu쎯	-11.236
you쎯hua쎯gong쎯	-11.236
mo쎯ji쎯	-11.2362
di쎯5쎯	-11.2362
jia쎯shu쎯	-11.2363
”,	-11.2363
bing쎯xue쎯	-11.2363
shu쎯pi쎯	-11.2367
zhong쎯xiao쎯xing쎯	-11.2367
yu쎯nan쎯	-11.237
shu쎯fu쎯	-11.2371
shan쎯dian쎯	-11.2371
cheng쎯bei쎯	-11.2372
wei쎯:	-11.2374
da쎯zhong쎯xing쎯	-11.2374
hang쎯hai쎯	-11.2376
192	-11.2378
bi쎯xia쎯	-11.2379
cheng쎯cai쎯	-11.238
xia쎯ru쎯	-11.2381
】	-11.2385
bing쎯you쎯	-11.2385
0쎯zhou쎯nian쎯	-11.239
de쎯you쎯guan쎯	-11.2392
hou쎯zhe쎯	-11.2394
shi쎯yi쎯shou쎯	-11.2394
zhu쎯feng쎯	-11.2397
jue쎯sai쎯	-11.2398
yi쎯guo쎯	-11.2398
da쎯hai쎯	-11.2398
▁쎯shang쎯hai쎯	-11.2404
gao쎯chan쎯	-11.2406
▁쎯wang쎯luo쎯	-11.2407
er쎯bai쎯	-11.2408
ceng쎯mian쎯	-11.2408
”쎯cheng쎯hao쎯。쎯	-11.2409
、쎯tang쎯	-11.241
jian쎯zai쎯	-11.241
《쎯song쎯	-11.241
,쎯fang쎯zhi쎯	-11.2411
50쎯nian쎯	-11.2411
qin쎯cai쎯	-11.2411
qi쎯gong쎯	-11.2412
zhi쎯dou쎯	-11.2414
min쎯shi쎯	-11.2414
fen쎯qu쎯	-11.2414
dong쎯mian쎯	-11.2415
xiao쎯xue쎯wei쎯yu쎯	-11.2417
zhuan쎯jia쎯。쎯	-11.2418
ni쎯men쎯	-11.2418
▁쎯zui쎯gao쎯	-11.2419
〔쎯	-11.242
qin쎯qie쎯	-11.2421
qi쎯zuo쎯pin쎯	-11.2421
xiao쎯shi쎯,쎯	-11.2423
ma쎯yi쎯	-11.2423
bao쎯zheng쎯le쎯	-11.2424
wan쎯dun쎯	-11.2424
1923쎯nian쎯	-11.2425
duo쎯bian쎯	-11.2426
zuo쎯pin쎯bei쎯	-11.2426
yi쎯se쎯lie쎯	-11.2427
gao쎯zu쎯	-11.2427
shi쎯san쎯nian쎯	-11.2428
dong쎯gan쎯	-11.243
yi쎯yue쎯	-11.243
cao쎯ben쎯	-11.2431
tian쎯huang쎯	-11.2432
cheng쎯li쎯hou쎯,쎯	-11.2432
ti쎯gong쎯yi쎯ge쎯	-11.2432
tai쎯xian쎯	-11.2434
san쎯xian쎯	-11.2435
://.	-11.2436
da쎯pi쎯	-11.2436
guo쎯hui쎯	-11.2436
huo쎯wu쎯fa쎯dao쎯	-11.2437
zhuan쎯dong쎯	-11.2438
zhe쎯ben쎯shu쎯	-11.2438
wei쎯ji쎯shi쎯	-11.2438
1쎯xiang쎯,쎯	-11.244
xing쎯gan쎯yan쎯	-11.2443
heng쎯yang쎯	-11.2443
yan쎯chang쎯hui쎯	-11.2443
ji쎯qiang쎯	-11.2443
tong쎯deng쎯	-11.2443
long쎯yan쎯xian쎯	-11.2444
guan쎯jie쎯yan쎯	-11.2445
de쎯you쎯shi쎯	-11.2447
de쎯ban쎯xue쎯	-11.2448
,쎯si쎯chuan쎯	-11.2448
zhen쎯dui쎯xing쎯	-11.2449
di쎯san쎯fang쎯	-11.245
jiao쎯xing쎯	-11.2451
wu쎯ci쎯	-11.2451
gong쎯li쎯,쎯xia쎯	-11.2453
jin쎯cun쎯	-11.2453
ma쎯ling쎯shu쎯	-11.2454
xi쎯jin쎯	-11.2455
20쎯ren쎯	-11.2455
zhi쎯ben쎯	-11.2456
zu쎯zi쎯zhi쎯zhou쎯	-11.2457
bao쎯she쎯	-11.2459
liu쎯xiao쎯	-11.2459
zhao쎯ze쎯	-11.2461
xiong쎯bu쎯	-11.2462
)쎯zi쎯	-11.2463
de쎯shen쎯fen쎯	-11.2463
zhi쎯bu쎯shu쎯ji쎯	-11.2463
chang쎯shou쎯	-11.2464
da쎯ti쎯	-11.2464
,쎯zhu쎯ce쎯zi쎯ben쎯	-11.2465
qu쎯fen쎯	-11.2467
。쎯zuo쎯pin쎯	-11.2468
zhen쎯jing쎯	-11.2469
huang쎯tu쎯	-11.247
bing쎯zu쎯zhi쎯shi쎯	-11.2472
nan쎯zhu쎯jue쎯	-11.2474
30-	-11.2475
mu쎯ye쎯	-11.2477
ji쎯shu쎯xue쎯yuan쎯	-11.2477
9쎯nian쎯	-11.2478
ti쎯chang쎯	-11.248
:1、쎯	-11.248
ban쎯xue쎯xi쎯	-11.2482
bei쎯kao쎯	-11.2482
,쎯shi쎯guo쎯nei쎯	-11.2483
300쎯mi쎯	-11.2483
zi쎯bo쎯shi쎯	-11.2483
hui쎯lu쎯	-11.2484
fang쎯song쎯	-11.2488
hua쎯gang쎯yan쎯	-11.2489
yi쎯zhi쎯liang쎯	-11.2489
da쎯jiang쎯sai쎯	-11.2489
yan쎯qi쎯	-11.249
liang쎯jia쎯	-11.2491
chao쎯xiang쎯	-11.2493
bian쎯geng쎯	-11.2494
zhi쎯chu쎯,쎯	-11.2495
yu쎯yan쎯wen쎯xue쎯	-11.2495
gan쎯bing쎯	-11.2495
chao쎯yang쎯qu쎯	-11.2495
,쎯geng쎯shi쎯	-11.2498
kai쎯xin쎯	-11.2498
yan쎯cheng쎯	-11.2498
fa쎯zhan쎯dao쎯	-11.2499
de쎯xian쎯xiang쎯	-11.2499
hao쎯。쎯	-11.25
bei쎯jie쎯	-11.2506
300쎯ke쎯	-11.2506
lu쎯》쎯	-11.2507
liang쎯you쎯	-11.2508
nong쎯mu쎯	-11.2508
xin쎯yue쎯	-11.2509
。쎯bi쎯yu쎯	-11.2511
lun쎯wen쎯《쎯	-11.2511
3쎯pian쎯	-11.2512
gang쎯qu쎯	-11.2516
dong쎯po쎯	-11.2517
xue쎯zi쎯	-11.2517
kai쎯le쎯	-11.2519
wen쎯dai쎯	-11.2521
yu쎯tang쎯	-11.2523
쎯gong쎯li쎯chu쎯,쎯	-11.2524
shen쎯me쎯shi쎯	-11.2525
yan쎯、쎯wei쎯jing쎯	-11.2527
mu쎯si쎯	-11.2527
ban쎯cai쎯	-11.2528
po쎯ju쎯	-11.2529
yuan쎯ren쎯min쎯bi쎯	-11.253
hai쎯dao쎯	-11.2531
в	-11.2531
쎯wan쎯mu쎯,쎯	-11.2535
ru쎯chong쎯	-11.2537
ci쎯xi쎯	-11.2538
mu쎯qian쎯yi쎯	-11.2539
xin쎯xing쎯de쎯	-11.2539
0쎯li쎯mi쎯,쎯	-11.254
yu쎯bei쎯jing쎯	-11.2541
ce쎯mian쎯	-11.2542
qi쎯pai쎯	-11.2542
er쎯zai쎯	-11.2543
zi쎯zhu쎯yan쎯fa쎯	-11.2545
zhang쎯jie쎯	-11.2546
qu쎯xiao쎯	-11.2546
bei쎯ping쎯	-11.2547
dang쎯he쎯guo쎯jia쎯	-11.2548
ma쎯ke쎯	-11.2549
xia쎯men쎯da쎯xue쎯	-11.255
nong쎯cun쎯jing쎯	-11.2551
zhu쎯gan쎯dao쎯	-11.2552
xia쎯wu쎯	-11.2552
fu쎯qu쎯zhang쎯	-11.2553
,1969쎯nian쎯	-11.2553
han쎯dan쎯	-11.2553
huo쎯ju쎯	-11.2553
jin쎯yin쎯	-11.2556
wei쎯fang쎯shi쎯	-11.2556
zhe쎯dui쎯	-11.2556
wei쎯sheng쎯ting쎯	-11.2557
yi쎯。”쎯	-11.2557
▁쎯ying쎯wen쎯	-11.2558
chang쎯qi쎯de쎯	-11.2559
:20	-11.2562
5쎯ri쎯	-11.2564
wu쎯jun쎯	-11.2566
ba쎯la쎯	-11.2567
18.	-11.2567
di쎯yi쎯wei쎯	-11.2567
tian쎯he쎯	-11.2568
tou쎯ru쎯shi쎯yong쎯	-11.2569
lian쎯yun쎯gang쎯	-11.257
xiao쎯kang쎯	-11.2571
fa쎯ze쎯	-11.2571
feng쎯jing쎯xiu쎯	-11.2571
fu쎯xie쎯	-11.2572
de쎯wen쎯jian쎯	-11.2573
shi쎯zhuang쎯	-11.2573
,쎯da쎯dao쎯	-11.2574
zhan쎯ting쎯	-11.2574
can쎯zhao쎯	-11.2574
fu쎯du쎯	-11.2574
xin쎯an쎯	-11.2575
,1972쎯nian쎯	-11.2575
jian쎯bie쎯	-11.2576
gu쎯ming쎯si쎯yi쎯	-11.2577
、쎯shi쎯pin쎯	-11.2578
.9쎯	-11.2579
te쎯ji쎯	-11.2579
de쎯su쎯du쎯	-11.258
yin쎯bi쎯	-11.258
。1938쎯nian쎯	-11.2581
duo쎯yi쎯	-11.2583
、쎯sheng쎯huo쎯	-11.2584
wei쎯mu쎯biao쎯	-11.2585
、쎯jiao쎯tong쎯	-11.2586
mu쎯qian쎯guo쎯nei쎯	-11.2587
song쎯xia쎯	-11.2587
cha쎯chu쎯	-11.2588
guan쎯xin쎯bing쎯	-11.2588
zhong쎯zhi쎯ye쎯	-11.2591
、쎯shang쎯ye쎯	-11.2592
jiao쎯yu쎯xue쎯hui쎯	-11.2592
de쎯xing쎯xiang쎯	-11.2593
jiao쎯shi쎯dui쎯wu쎯	-11.2595
ming쎯pian쎯	-11.2596
zhi쎯nei쎯	-11.2598
qian쎯yu쎯	-11.2598
qi쎯men쎯	-11.2598
chu쎯ming쎯	-11.2599
she쎯li쎯le쎯	-11.2599
,쎯shi쎯cong쎯	-11.2601
ji쎯lu쎯pian쎯	-11.2603
cun쎯ren쎯。	-11.2603
bu쎯chu쎯	-11.2603
te쎯la쎯	-11.2604
,쎯dao쎯zhi쎯	-11.2606
gu쎯lou쎯	-11.2608
yu쎯mao쎯	-11.2608
bei쎯zhong쎯guo쎯	-11.2609
bei쎯”쎯	-11.261
wan쎯dou쎯	-11.2611
fu쎯wu쎯ti쎯xi쎯	-11.2611
8쎯ping쎯fang쎯	-11.2612
,쎯zhi쎯zhi쎯	-11.2613
gong쎯zuo쎯wen쎯du쎯	-11.2614
zi쎯cong쎯	-11.2614
fu쎯wu쎯li쎯nian쎯	-11.2615
▁쎯qi쎯ye쎯	-11.2616
shan쎯jiao쎯xia쎯	-11.2617
zhi쎯ge쎯	-11.2618
quan쎯jun쎯	-11.2618
he쎯xin쎯xi쎯hua쎯	-11.262
,쎯jia쎯shang쎯	-11.262
bu쎯hao쎯	-11.262
2쎯pian쎯	-11.2621
jia쎯pin쎯	-11.2623
ben쎯lai쎯	-11.2624
jiao쎯cuo쎯	-11.2626
jun쎯zheng쎯	-11.2627
29쎯ri쎯	-11.2627
wai쎯ce쎯	-11.2628
ti쎯gong쎯you쎯zhi쎯	-11.2628
ji쎯shu쎯yuan쎯	-11.2629
,1962쎯nian쎯	-11.263
ba쎯er쎯	-11.2631
▁18	-11.2634
luo쎯shan쎯ji쎯	-11.2634
kang쎯bing쎯	-11.2635
zhu쎯chan쎯	-11.2636
fa쎯shou쎯	-11.2638
yan쎯jiu쎯》、《쎯	-11.2638
chang쎯chun쎯shi쎯	-11.2639
zuo쎯yong쎯xia쎯	-11.2639
wu쎯jian쎯	-11.2641
ye쎯zi쎯	-11.2643
lian쎯yi쎯hui쎯	-11.2643
wen쎯ren쎯	-11.2643
yun쎯dong쎯yuan쎯,쎯	-11.2643
xian쎯yang쎯	-11.2644
jing쎯zhong쎯	-11.2644
de쎯ai쎯qing쎯	-11.2646
50쎯yu쎯	-11.2646
ming쎯。	-11.2647
lian쎯cheng쎯	-11.2648
jin쎯se쎯	-11.2649
jiu쎯bu쎯	-11.2649
shan쎯tou쎯shi쎯	-11.2649
zhen쎯jiang쎯	-11.2649
,쎯po쎯	-11.2649
guo쎯lai쎯	-11.2652
,1966쎯nian쎯	-11.2652
xuan쎯wu쎯	-11.2652
de쎯zhan쎯dou쎯	-11.2653
,쎯xian쎯hou쎯zai쎯	-11.2654
gu쎯yi쎯	-11.2655
zhen쎯qing쎯	-11.2656
tong쎯ti쎯	-11.2657
》쎯di쎯er쎯	-11.2658
re쎯men쎯	-11.2658
mi쎯shi쎯	-11.266
yu쎯hang쎯	-11.266
yuan쎯zhuang쎯	-11.266
biao쎯zhun쎯,쎯	-11.2661
zhi쎯min쎯	-11.2661
,쎯xian쎯duan쎯	-11.2664
cun쎯kuan쎯	-11.2665
gai쎯bing쎯du쎯	-11.2667
pai쎯ming쎯di쎯	-11.2668
zui쎯zhu쎯ming쎯de쎯	-11.2669
wu쎯”쎯	-11.267
chuan쎯zhi쎯	-11.2672
fang쎯shi쎯。쎯	-11.2673
xian쎯qu쎯	-11.2673
16쎯ri쎯	-11.2675
쎯wei쎯mi쎯	-11.2675
de쎯du쎯te쎯	-11.2676
mian쎯ji쎯8	-11.2677
hui쎯zai쎯	-11.2677
cun쎯dang쎯zhi쎯bu쎯	-11.2678
fu쎯pi쎯zhun쎯	-11.2678
gong쎯zuo쎯shi쎯du쎯	-11.268
yan쎯jiu쎯ji쎯gou쎯	-11.2681
liang쎯guo쎯	-11.2682
di쎯kuai쎯	-11.2682
yuan쎯nian쎯(	-11.2682
【	-11.2683
yu쎯re쎯	-11.2684
te쎯ji쎯jiao쎯shi쎯	-11.2687
de쎯mi쎯mi쎯	-11.2691
shu쎯gan쎯	-11.2694
gong쎯nong쎯	-11.2695
mo쎯qi쎯	-11.2695
ge쎯lan쎯	-11.2695
wu쎯xiao쎯	-11.2696
,쎯bing쎯dui쎯	-11.2698
kai쎯fa쎯he쎯	-11.2702
bian쎯ge쎯	-11.2703
yuan쎯gu쎯	-11.2704
huan쎯jing쎯xia쎯	-11.2705
qi쎯ye쎯he쎯	-11.2705
ceng쎯bei쎯	-11.2706
)(	-11.2707
cun쎯ji쎯	-11.2708
40쎯nian쎯	-11.2709
ou쎯ran쎯	-11.271
he쎯zhu쎯	-11.2711
yun쎯ying쎯shang쎯	-11.2712
zhuang쎯you쎯	-11.2713
kuang쎯shi쎯	-11.2713
bu쎯xian쎯	-11.2714
jiu쎯zhou쎯	-11.2714
she쎯ji쎯zhi쎯zao쎯	-11.2715
zi쎯bu쎯	-11.2716
ge쎯lin쎯	-11.2717
1200	-11.2719
bei쎯duan쎯	-11.2719
dong쎯an쎯	-11.2719
nan쎯sheng쎯	-11.272
pei쎯xun쎯ji쎯gou쎯	-11.272
jiu쎯ge쎯	-11.272
ling쎯dao쎯xia쎯,쎯	-11.2721
pi쎯liang쎯	-11.2721
hua쎯yan쎯	-11.2722
xiao쎯yan쎯	-11.2722
shi쎯pin쎯bo쎯fang쎯	-11.2723
。쎯dang쎯shi쎯	-11.2724
he쎯li쎯de쎯	-11.2724
cong쎯ye쎯ren쎯	-11.2726
kai쎯shu쎯	-11.2726
▁쎯dan쎯	-11.273
[...]
