[UNK]	0
[PAD]	0
[CLS]	0
[SEP]	0
[MASK]	0
,	-3.63992
de	-3.90968
。	-4.01151
、	-4.05768
▁	-4.47687
shi	-4.59349
he	-4.73179
ji	-4.97688
yu	-4.99623
wei	-5.12644
you	-5.29711
yi	-5.31594
zai	-5.32341
zhi	-5.47128
zhong	-5.49417
qi	-5.67756
ren	-5.74801
:	-5.76505
deng	-5.77278
(	-5.79571
xian	-5.8321
;	-5.89767
di	-5.96415
xing	-5.96884
xiang	-5.9834
jiang	-5.99807
yuan	-6.00776
da	-6.01631
huo	-6.03325
)	-6.04027
dao	-6.04397
xi	-6.05137
ke	-6.05217
bei	-6.05773
shang	-6.0671
fu	-6.06966
li	-6.08293
er	-6.08917
bu	-6.09125
qu	-6.12755
jia	-6.12976
jin	-6.1571
wu	-6.16383
zi	-6.17144
《	-6.17411
ye	-6.17977
jian	-6.20263
le	-6.23098
ju	-6.23197
zhe	-6.24044
si	-6.25212
cheng	-6.25817
chu	-6.26512
sheng	-6.26899
hua	-6.26964
shu	-6.2818
xin	-6.29093
“	-6.29341
jing	-6.29773
xiao	-6.31429
zhang	-6.31806
zhu	-6.32466
jie	-6.33052
bing	-6.34104
dui	-6.36279
ge	-6.38734
lu	-6.39662
hui	-6.40206
yan	-6.40272
”	-6.41207
wang	-6.42944
jiao	-6.46968
gong	-6.4738
ban	-6.49096
hou	-6.499
qian	-6.49977
zhen	-6.51073
liang	-6.53817
yin	-6.54208
jiu	-6.55419
guo	-6.55741
yong	-6.56588
shou	-6.56764
gu	-6.57447
dong	-6.57951
mu	-6.58474
xia	-6.6063
feng	-6.60863
ba	-6.61233
zheng	-6.62265
fang	-6.6239
bi	-6.63368
chang	-6.63578
bao	-6.6362
tong	-6.6392
mei	-6.64516
zhongguo	-6.64681
wen	-6.64882
qing	-6.65096
shen	-6.65155
yao	-6.65802
shan	-6.6599
zuo	-6.66176
ying	-6.66216
gao	-6.66728
liu	-6.66884
ming	-6.67564
ta	-6.68314
an	-6.68323
hu	-6.69118
guan	-6.69166
zhan	-6.6918
yue	-6.71029
suo	-6.71736
fa	-6.72239
jun	-6.73333
wan	-6.73972
ci	-6.73979
tian	-6.74499
dian	-6.74836
yang	-6.76212
du	-6.76504
quan	-6.79773
shui	-6.7998
fen	-6.80627
san	-6.80644
xue	-6.81549
》	-6.81581
hai	-6.81746
ru	-6.81994
fei	-6.82199
zhou	-6.824
tai	-6.82435
nan	-6.82575
lian	-6.82896
hao	-6.83198
dan	-6.8326
dai	-6.83462
gongsi	-6.83785
2	-6.84515
duo	-6.85708
bian	-6.86017
ling	-6.8617
mo	-6.88628
3	-6.90112
tu	-6.91581
ya	-6.91779
tang	-6.91828
cong	-6.91953
bai	-6.92087
-	-6.97513
han	-6.97575
1	-6.97721
cun	-6.98419
dou	-6.98999
gongzuo	-6.99212
zu	-6.99538
lv	-7.01051
hong	-7.01242
lin	-7.01357
fan	-7.01679
chi	-7.01941
gan	-7.02116
.	-7.02289
cai	-7.02321
lai	-7.02373
lei	-7.03697
ti	-7.04062
·	-7.04832
su	-7.05921
mi	-7.06055
xie	-7.06059
bo	-7.07077
qiye	-7.07745
,shi	-7.08576
ma	-7.09783
ping	-7.0985
nei	-7.10164
yun	-7.11031
jishu	-7.11639
ni	-7.12643
chuan	-7.12667
tou	-7.13135
gui	-7.13682
long	-7.13936
guang	-7.14238
she	-7.14559
gai	-7.15835
xu	-7.1587
/	-7.1609
mian	-7.16291
4	-7.17937
chanpin	-7.18531
luo	-7.18813
chen	-7.18856
youxiangongsi	-7.19386
men	-7.19829
chao	-7.20196
ding	-7.2044
ben	-7.21053
gang	-7.22081
sui	-7.22109
5	-7.2224
zhuanye	-7.23122
huang	-7.23632
,zai	-7.24758
zong	-7.24796
zhuang	-7.25008
jinxing	-7.25847
zhao	-7.26094
guanli	-7.26984
qiu	-7.27418
xuan	-7.27916
nian	-7.28653
ting	-7.29093
tan	-7.29164
xitong	-7.29658
yiji	-7.31068
pai	-7.31266
fuwu	-7.31985
sha	-7.32309
cha	-7.32691
pu	-7.32708
pian	-7.32934
dang	-7.3397
jiaoyu	-7.34245
kai	-7.34608
ceng	-7.34771
shiyong	-7.3581
pi	-7.36106
song	-7.36549
zui	-7.36602
guojia	-7.37444
lan	-7.37781
duan	-7.38077
sheji	-7.38578
daxue	-7.38963
guoji	-7.39276
qin	-7.40057
yige	-7.40291
,yi	-7.40747
gongcheng	-7.40798
()	-7.40983
mao	-7.4115
xuexiao	-7.41496
huan	-7.41727
qiang	-7.42058
ai	-7.4312
qiao	-7.43255
"	-7.43338
fazhan	-7.43522
yanjiu	-7.43599
》、《	-7.43789
zhuan	-7.44066
6	-7.45146
lao	-7.45987
kong	-7.46366
zhongxin	-7.46745
wo	-7.4706
neng	-7.47253
weiyu	-7.49359
,you	-7.49775
lun	-7.50015
shengchan	-7.50262
kou	-7.50466
shao	-7.51977
8	-7.51993
wenhua	-7.54045
tao	-7.54473
chun	-7.54503
na	-7.54612
。”	-7.55641
juyou	-7.56394
xueyuan	-7.56569
7	-7.56865
10	-7.56882
tiao	-7.57558
wai	-7.57733
chong	-7.58216
xiu	-7.59434
ri	-7.59535
e	-7.59714
yizhi	-7.59961
zuzhi	-7.6074
meng	-7.615
zao	-7.61563
quanguo	-7.61866
che	-7.61915
beijing	-7.62341
jingji	-7.62759
cao	-7.63349
diao	-7.64292
tigong	-7.64825
,bing	-7.65305
shuang	-7.65389
rong	-7.6567
shijian	-7.66328
ku	-7.66466
pin	-7.6708
pan	-7.67497
ze	-7.67828
man	-7.68465
chengwei	-7.68542
),	-7.69032
xun	-7.6938
shijie	-7.69531
9	-7.70289
geng	-7.71208
”。	-7.7319
shichang	-7.73201
shanghai	-7.73244
la	-7.73469
re	-7.73635
mai	-7.7371
yishu	-7.75152
kan	-7.75153
keji	-7.75191
tongguo	-7.75456
jianshe	-7.75947
shiji	-7.76649
diqu	-7.7812
gou	-7.78296
po	-7.7862
xiangmu	-7.78931
jue	-7.79892
liao	-7.8016
tuo	-7.80595
juan	-7.80904
,wei	-7.82051
zhuyao	-7.82455
min	-7.82538
se	-7.82581
chengshi	-7.8267
biao	-7.8272
chuang	-7.82727
keyi	-7.83114
ren,	-7.84013
te	-7.84995
xuexi	-7.85037
wangluo	-7.85338
shuo	-7.86697
meiguo	-7.87023
lou	-7.871
kang	-7.87507
chan	-7.881
tie	-7.88803
ka	-7.90076
nong	-7.90363
yiyuan	-7.90883
jituan	-7.91064
miao	-7.91304
ce	-7.91402
shebei	-7.91706
12	-7.91722
nv	-7.92591
suan	-7.92852
lie	-7.92992
!	-7.93072
shenghuo	-7.93845
gen	-7.94527
tuan	-7.95995
zhidao	-7.9622
xuesheng	-7.9628
xinxi	-7.96807
lang	-7.97092
xiong	-7.97159
cang	-7.97331
jiaoxue	-7.9775
yongyou	-7.98075
rou	-7.98189
lishi	-7.99068
can	-7.9912
gezhong	-7.99371
dun	-8.00498
ao	-8.00581
——	-8.00637
qie	-8.00655
huanjing	-8.00669
jianzhu	-8.00736
kuan	-8.00905
ren。	-8.0095
gongneng	-8.01171
shehui	-8.01646
pei	-8.01726
touzi	-8.02529
pinpai	-8.02862
zuowei	-8.02876
bang	-8.05003
shiyan	-8.05161
caiyong	-8.05906
ning	-8.06212
,ta	-8.06948
hangye	-8.07102
zhichi	-8.07102
heng	-8.07474
jingying	-8.07775
jiaoshi	-8.07951
kongzhi	-8.08271
huodong	-8.08319
zhongde	-8.08861
biaozhun	-8.09018
pao	-8.09284
20	-8.09394
kaifa	-8.09911
kuai	-8.09964
zha	-8.10119
zhai	-8.10473
zhishi	-8.11074
a	-8.11112
que	-8.11287
yiqi	-8.11489
deng。	-8.11584
yinyue	-8.11604
》:“	-8.11781
jiushi	-8.12005
”,	-8.12581
diyi	-8.12622
danwei	-8.12773
gongye	-8.129
congshi	-8.13408
kaishi	-8.13608
riben	-8.13774
niu	-8.13977
tui	-8.14104
youxi	-8.14327
sai	-8.14433
weiyuanhui	-8.14462
”de	-8.15404
xilie	-8.15423
canjia	-8.15551
zhengfu	-8.16222
shipin	-8.16657
hou,	-8.17461
”、“	-8.18023
15	-8.18281
。zai	-8.19151
hei	-8.19266
zou	-8.19572
jiegou	-8.19613
zhiliang	-8.19867
30	-8.20032
hen	-8.20043
shequ	-8.20078
shishi	-8.20478
ziji	-8.20501
kao	-8.21491
yewu	-8.22144
shiyi	-8.22168
cailiao	-8.22204
dadao	-8.22391
zhiwu	-8.22456
yishi	-8.22512
11	-8.22643
nai	-8.22775
kuang	-8.22968
)。	-8.23414
zuopin	-8.23701
qizhong	-8.23821
ruanjian	-8.24015
shiyou	-8.24696
,dan	-8.25297
youxiu	-8.25397
wa	-8.2545
dianzi	-8.25738
bufen	-8.25991
peng	-8.2607
anquan	-8.26122
zhiyi	-8.26404
xiandai	-8.2704
chou	-8.2722
yingyong	-8.27449
baohu	-8.27642
guonei	-8.27837
zhiliao	-8.27993
ran	-8.28582
sun	-8.28729
fenxi	-8.29318
women	-8.29695
zhongxue	-8.29778
renwu	-8.29941
zhongyang	-8.29981
hun	-8.3113
shiwu	-8.31327
huai	-8.31481
zhuanjia	-8.31682
kexue	-8.3215
renyuan	-8.32267
zhong,	-8.32324
shizhi	-8.33074
shi,	-8.33291
jianli	-8.33428
50	-8.33498
hezuo	-8.33555
xiaoshou	-8.33811
,qi	-8.33829
qun	-8.34058
xiehui	-8.34138
gei	-8.34423
zhizuo	-8.34508
yijing	-8.34912
ziyuan	-8.34912
lilun	-8.35011
18	-8.35091
shengyu	-8.35336
chuli	-8.35411
yizhong	-8.35413
ruo	-8.35435
gua	-8.35648
lvyou	-8.35666
16	-8.36038
zonghe	-8.36161
qita	-8.3617
rui	-8.3636
huode	-8.36602
baokuo	-8.3688
40	-8.3691
fuze	-8.36921
zhuo	-8.3726
butong	-8.37814
tigao	-8.38251
rang	-8.3834
yingxiang	-8.38404
nongye	-8.389
xianshi	-8.3917
jishi	-8.39249
zhengshi	-8.4007
daxing	-8.40895
guihua	-8.41047
zhongdian	-8.41285
shixian	-8.41557
fangfa	-8.41621
yiban	-8.41661
ou	-8.4171
yonghu	-8.41717
qiche	-8.42613
19	-8.42645
wancheng	-8.42778
cui	-8.43054
shiqi	-8.43074
jiqi	-8.43247
tongshi	-8.43566
。ta	-8.44337
meiyou	-8.44568
jigou	-8.44771
jihua	-8.44777
shiye	-8.4518
tamen	-8.4544
xuyao	-8.45607
ziran	-8.45691
xingshi	-8.46237
neirong	-8.46361
fangshi	-8.46927
peixun	-8.47024
gongyi	-8.47345
xianwei	-8.47547
+	-8.47598
renshi	-8.47774
yundong	-8.4834
25	-8.48342
jiagong	-8.4873
liyong	-8.49084
youguan	-8.49177
dier	-8.49632
bin	-8.49751
100	-8.49805
wenti	-8.49826
shandong	-8.50092
zhineng	-8.50159
shanxi	-8.50223
zhuming	-8.50239
zhiyi。	-8.50362
zhiye	-8.50564
cu	-8.5063
?	-8.50893
wangzhan	-8.50947
～	-8.51292
nengli	-8.51383
xianjin	-8.51444
fangzhi	-8.51474
jiudian	-8.51554
jixie	-8.51641
gelei	-8.51959
shengji	-8.51998
kehu	-8.52094
60	-8.5258
xianggang	-8.52775
rencai	-8.52788
chuangxin	-8.53092
chanye	-8.53568
leng	-8.53812
—	-8.5382
renmin	-8.54084
niao	-8.54232
zeng	-8.54447
,er	-8.54774
jiankang	-8.5483
gaoxiao	-8.55163
yixue	-8.55729
shuju	-8.55835
weisheng	-8.5646
jiaoshou	-8.56731
shangye	-8.57032
zhixing	-8.57385
chengliyu	-8.5752
zidong	-8.57619
xiaoxue	-8.57669
zhongyao	-8.57679
zhengzhi	-8.57776
luan	-8.57866
jichu	-8.5792
chuantong	-8.58031
......	-8.58273
13	-8.58442
geren	-8.58539
wenxue	-8.58553
yaoqiu	-8.58618
,yu	-8.58626
zhege	-8.58724
hang	-8.5909
yici	-8.59716
zhonghua	-8.59933
jiehe	-8.60049
0	-8.60215
14	-8.60248
17	-8.6055
die	-8.60643
jiben	-8.60681
xingcheng	-8.60911
biyeyu	-8.61436
genju	-8.61585
danren	-8.61626
jinru	-8.61903
dianying	-8.62229
moshi	-8.62382
xianren	-8.62757
shandongsheng	-8.62821
nao	-8.62883
jiance	-8.63055
fasheng	-8.63713
caozuo	-8.63798
lingyu	-8.63832
zhizao	-8.64144
kui	-8.6429
taiwan	-8.64547
zijide	-8.6465
shun	-8.64923
jiaotong	-8.65032
gongyuan	-8.65195
yongyu	-8.65235
zhui	-8.65502
mou	-8.65586
chengli	-8.65654
kecheng	-8.65655
wenjian	-8.65748
sa	-8.65844
youshi	-8.65884
tade	-8.66068
xuehui	-8.66268
faxian	-8.66618
shuyu	-8.66727
chenggong	-8.66741
:“	-8.66999
minzu	-8.67049
feichang	-8.67066
yuyan	-8.67565
gonglu	-8.67567
youyi	-8.67801
fanying	-8.68005
chengdu	-8.68018
--	-8.68129
shengwu	-8.68226
anzhuang	-8.68285
chuban	-8.684
jisuanji	-8.68586
zixun	-8.68613
shouji	-8.68685
kaizhan	-8.68706
shishang	-8.68714
gongzuo。	-8.6876
zhejiang	-8.68787
yixie	-8.6886
renkou	-8.68884
zhuyi	-8.69204
xingneng	-8.69294
gushi	-8.69622
xiangguan	-8.69678
guangxi	-8.69914
tongyi	-8.69926
bie	-8.69939
24	-8.70061
xibao	-8.70116
shangwu	-8.70209
buduan	-8.70275
huiyi	-8.70297
gaoji	-8.70366
jidi	-8.70638
zhongzhi	-8.70651
qingnian	-8.70697
daibiao	-8.70727
piao	-8.71026
)、	-8.71131
shiyige	-8.71375
pingtai	-8.71467
huaxue	-8.71566
suoyou	-8.716
chuangzuo	-8.7179
xiaoshuo	-8.71797
dizhi	-8.71991
,qizhong	-8.72095
zhijian	-8.72132
lianjie	-8.72251
jiaoliu	-8.72321
xuanze	-8.72357
deguo	-8.72409
qijian	-8.72913
deyizhong	-8.72939
jinshu	-8.73128
80	-8.73172
yanjiusuo	-8.73307
duli	-8.73355
youyu	-8.73615
dongwu	-8.73706
dianshi	-8.73919
kongjian	-8.73972
bijiao	-8.74214
guangdong	-8.74215
liangge	-8.74417
tese	-8.74454
woguo	-8.74532
32	-8.7489
jingshen	-8.75092
200	-8.75197
sixiang	-8.75565
yingyu	-8.75746
renzheng	-8.75857
lve	-8.76062
guangdongsheng	-8.76091
,nan,	-8.76289
zhijie	-8.76369
zheyi	-8.7656
zhanshi	-8.76782
xinwen	-8.76816
jiaru	-8.7713
quanmian	-8.77213
buneng	-8.77275
yiwei	-8.77305
quyu	-8.77401
canyu	-8.77411
ziliao	-8.77677
jiguan	-8.78053
fuhe	-8.78387
chuanbo	-8.78521
jingguo	-8.78581
muqian	-8.78587
peiyang	-8.78822
juli	-8.7888
22	-8.78888
difang	-8.79111
zuoyong	-8.79578
xingzheng	-8.7983
zhongyi	-8.79874
xiansheng	-8.80108
35	-8.80177
sichuan	-8.80794
ziyou	-8.80803
lunwen	-8.80856
lianhe	-8.80979
youzhi	-8.81263
shangde	-8.81367
shanxisheng	-8.81512
jiazhi	-8.81541
jiating	-8.81568
shidai	-8.81684
zhexie	-8.81795
renminzhengfu	-8.81924
shiyizhong	-8.81947
jiancha	-8.81952
,dui	-8.81985
tuiguang	-8.82048
guangzhou	-8.82112
jiangsu	-8.82303
chui	-8.82343
tongzhi	-8.82441
teng	-8.82493
jiangsusheng	-8.82498
de“	-8.82607
henan	-8.8264
70	-8.82855
▁gongsi	-8.82969
fangmian	-8.83119
leixing	-8.83279
jiekou	-8.8348
shili	-8.83481
anhui	-8.83486
~	-8.83642
fangxiang	-8.83679
zhicheng	-8.8415
,ru	-8.84226
nongcun	-8.84598
28	-8.84678
fujian	-8.84738
xuanchuan	-8.8485
nanjing	-8.84865
benshu	-8.84958
》,	-8.84989
tiyu	-8.8508
ruan	-8.85347
nuo	-8.85584
quanqiu	-8.85798
diannao	-8.85948
》deng	-8.86016
chuxian	-8.86191
chengyuan	-8.86206
faxing	-8.86315
cunweihui	-8.86321
cuo	-8.86498
jiyu	-8.86817
fenwei	-8.86961
》(	-8.8701
falv	-8.87318
huanbao	-8.87328
23	-8.87363
hunan	-8.87424
yishang	-8.87448
guanggao	-8.87492
qishi	-8.87655
yingguo	-8.87711
pen	-8.87839
tielu	-8.87865
nenggou	-8.87881
zuozhe	-8.87914
lingdao	-8.88008
jinrong	-8.88318
zhishu	-8.8841
zhejiangsheng	-8.88767
sheshi	-8.88944
beipingwei	-8.89698
disan	-8.89876
zhili	-8.8991
zhezhong	-8.89982
jieshou	-8.9004
zhiding	-8.90473
linchuang	-8.90531
doushi	-8.90543
jiancheng	-8.90551
chansheng	-8.90592
xianyou	-8.90783
za	-8.91041
wenming	-8.91073
mianji	-8.91416
quanbu	-8.91427
yixia	-8.91485
yunxing	-8.91886
wuli	-8.91901
shuiping	-8.92184
putong	-8.92347
zhuchi	-8.92382
21	-8.92756
zhuangshi	-8.92796
xiaoguo	-8.92797
shufa	-8.92844
gongtong	-8.93105
jingyan	-8.93149
ganbu	-8.93265
26	-8.9344
faguo	-8.93621
yinhang	-8.93784
jingdian	-8.93794
qude	-8.93885
shigong	-8.94004
dedao	-8.94188
xinan	-8.94475
zhidu	-8.94589
weiyi	-8.95
sheng,	-8.95103
,weiyu	-8.95212
keyan	-8.95228
yuangong	-8.95359
guanyu	-8.95533
zhonggong	-8.95617
,jiang	-8.95647
bangongshi	-8.95696
en	-8.95748
guocheng	-8.95811
zuida	-8.95914
pa	-8.96035
mang	-8.96352
▁《	-8.96465
90	-8.96636
yeshi	-8.96641
shushi	-8.96705
deyige	-8.96842
shoudao	-8.96978
,cong	-8.97012
dianji	-8.97031
shuai	-8.97148
tuandui	-8.97164
zhengce	-8.97279
▁2.	-8.97375
dengji	-8.97758
zijin	-8.97779
xingwei	-8.97786
xueshu	-8.97794
ertong	-8.98101
duozhong	-8.9814
weizhi	-8.98299
quanshi	-8.98629
tun	-8.98648
lianxi	-8.98677
yingxiao	-8.98679
shengtai	-8.98701
kun	-8.98924
lianxu	-8.98936
fabiao	-8.99027
chaoguo	-8.99029
chengxu	-8.99175
45	-8.99206
guojiaji	-8.99273
cujin	-8.994
bianji	-8.99706
dianli	-8.99839
bushi	-8.9984
wendu	-8.9992
xiaoqu	-8.99975
dongbei	-9.00008
erji	-9.00147
biaomian	-9.00199
gaosu	-9.00332
gongzuo,	-9.0034
ha	-9.00449
hubei	-9.00651
jiaju	-9.00745
xiaoshi	-9.00747
jieshao	-9.00872
tianjin	-9.00966
jueding	-9.0109
lvse	-9.01115
zhiyi,	-9.01139
bingdu	-9.01143
fenbu	-9.01259
jingli	-9.01438
zhihui	-9.01478
guanxi	-9.01757
xianhou	-9.01841
zun	-9.01897
xueke	-9.0196
shezhi	-9.01987
huiyuan	-9.02113
fangbian	-9.02133
zucheng	-9.02322
yunnan	-9.02365
fanwei	-9.02529
。《	-9.02851
tiaojian	-9.02938
weizhu	-9.02943
jiechu	-9.03035
jiage	-9.0305
wanquan	-9.03094
kuaisu	-9.03141
pinzhong	-9.03216
27	-9.0336
xuduo	-9.03399
yidong	-9.03402
huozhe	-9.03445
zhuti	-9.03559
hexin	-9.03592
daili	-9.03606
chubanshe	-9.03642
boli	-9.03672
pang	-9.03749
jieshi	-9.03774
huagong	-9.03845
shixing	-9.03874
hebei	-9.03893
meishu	-9.03919
shouru	-9.03922
yinian	-9.04362
xiaoyuan	-9.0439
,bei	-9.04441
tongxin	-9.04569
yilai	-9.04655
fushi	-9.04784
shiren	-9.04955
jiaocai	-9.04988
fengxian	-9.05005
ouzhou	-9.05127
sang	-9.05175
shizhong	-9.05264
shifan	-9.05278
guoneiwai	-9.05418
tixi	-9.05702
chule	-9.05714
defazhan	-9.05825
shiyanshi	-9.05828
,ke	-9.05963
bumen	-9.05975
zuidade	-9.06006
disi	-9.0607
tongji	-9.0612
sichuansheng	-9.06297
shifandaxue	-9.06411
nongmin	-9.06706
henansheng	-9.06899
shangpin	-9.0693
500	-9.07053
sen	-9.07115
guangda	-9.07126
》shi	-9.07195
hanguo	-9.07201
changqi	-9.0721
jizhong	-9.07306
bangzhu	-9.07337
chuangjian	-9.07413
zengjia	-9.07417
zhuangzhi	-9.07417
300	-9.07458
qunzhong	-9.0774
zang	-9.07775
renwei	-9.07826
shanghaishi	-9.07936
shuxue	-9.07991
gongji	-9.08003
baozhuang	-9.08019
。gai	-9.08035
gaibian	-9.08117
sheyou	-9.08158
rende	-9.08372
geming	-9.08428
wushi	-9.0846
youhua	-9.08486
,huo	-9.08547
wuliu	-9.08562
wuxian	-9.08766
ershi	-9.0916
yuanshi	-9.09309
,zhongguo	-9.09328
peitao	-9.09443
minjian	-9.09497
jiaoyi	-9.09671
gongju	-9.09709
xingde	-9.09741
shuzi	-9.0977
xunlian	-9.09876
zhanlve	-9.09994
laodong	-9.1002
zhiyou	-9.10027
tudi	-9.1009
haishi	-9.10126
yunshu	-9.10227
dashi	-9.1029
xibei	-9.10306
zuigao	-9.10493
wuzhi	-9.10646
dangyuan	-9.10682
sudu	-9.10685
yiliao	-9.10733
li,	-9.1078
shenzhen	-9.10957
jiji	-9.10957
jicheng	-9.11083
dezhongyao	-9.1127
waike	-9.11581
dianqi	-9.11601
run	-9.11797
bixu	-9.11858
zan	-9.11959
guifan	-9.12016
zhigong	-9.12054
zhuce	-9.12239
pinzhi	-9.1226
yali	-9.12385
>	-9.12491
chushengyu	-9.12557
jiejue	-9.12567
maoyi	-9.12964
gongli	-9.13054
ceshi	-9.13178
》。	-9.1322
biaoshi	-9.13332
daxiao	-9.13461
celiang	-9.13538
*	-9.13596
junshi	-9.13644
fenbie	-9.13725
gaige	-9.13748
yiju	-9.13753
beijingshi	-9.13863
zizhu	-9.1393
chongqing	-9.13934
beng	-9.14024
,tongshi	-9.14207
jibing	-9.1421
yanfa	-9.14327
renmen	-9.14419
=	-9.14507
yinwei	-9.14615
jiedao	-9.14688
zishen	-9.14711
jineng	-9.1472
nin	-9.1482
36	-9.14835
zazhi	-9.14896
yisheng	-9.14918
nuli	-9.14936
zuoyou	-9.14997
jijin	-9.15092
keti	-9.15122
manzu	-9.15148
,ye	-9.15165
yunyong	-9.15179
yule	-9.15214
chengguo	-9.15238
youxiao	-9.15433
liaojie	-9.15504
anhuisheng	-9.1565
shige	-9.15661
zhoushi	-9.15691
zhijin	-9.15904
xinxing	-9.15932
weile	-9.1603
jiangxi	-9.16167
zuojia	-9.16201
2000	-9.16714
dichu	-9.17029
jumin	-9.17033
jianchi	-9.17132
baise	-9.17158
jisuan	-9.17287
guangchang	-9.1736
jizhi	-9.17471
29	-9.17651
guimo	-9.17658
xinde	-9.17786
10yue	-9.1783
zhongda	-9.17854
qingkuang	-9.18046
zhengge	-9.18121
laizi	-9.18131
tebie	-9.18284
kaoshi	-9.1831
youji	-9.18361
,gai	-9.184
wuhan	-9.18426
linian	-9.18445
dazao	-9.18626
fangru	-9.1866
meiti	-9.18683
jiandu	-9.18748
anzhao	-9.18765
xinjiang	-9.18842
,suoyi	-9.18877
xinli	-9.18906
gun	-9.18925
xingxiang	-9.18996
mubiao	-9.19039
hubeisheng	-9.19367
mingcheng	-9.19432
quanxian	-9.19567
,yiji	-9.19635
xianzhi	-9.19661
yanjiuyuan	-9.19764
shifen	-9.19891
renlei	-9.19995
,chengwei	-9.20099
38	-9.20201
budui	-9.20298
sange	-9.20557
guangfan	-9.20921
6yue	-9.20923
,yong	-9.2102
renhe	-9.21176
weihu	-9.21364
hangzhou	-9.21375
jianzhi	-9.21456
shang,	-9.2149
》《	-9.21551
zhuren	-9.21568
jiezhi	-9.21668
chuangzao	-9.22113
ronghuo	-9.22182
diaocha	-9.22356
xihuan	-9.22733
ruhe	-9.2274
zuhe	-9.22743
zhiyu	-9.22796
wending	-9.22814
1000	-9.22822
zhiming	-9.22826
yanzhi	-9.22863
yinqi	-9.22886
guai	-9.22894
48	-9.23055
rao	-9.23153
dongfang	-9.23381
bianzhi	-9.23424
bisai	-9.23531
chengdan	-9.23722
zhuli	-9.2373
,ju	-9.23771
baozheng	-9.23819
jianyi	-9.23822
2006nian	-9.23834
75	-9.23854
neibu	-9.23872
biaoxian	-9.23976
chukou	-9.24142
shuhua	-9.24201
qiong	-9.24322
yijian	-9.24392
sheying	-9.24461
xiuxian	-9.24476
huayuan	-9.24656
shengzhang	-9.24658
fengge	-9.24709
weilai	-9.24737
baoxian	-9.2475
1ge	-9.24793
peizhi	-9.24879
jianding	-9.24924
hunansheng	-9.24971
yanchu	-9.2509
zhihou	-9.25096
xiancheng	-9.25123
jilu	-9.25189
shanqu	-9.25264
baochi	-9.25292
gengjia	-9.25296
12yue	-9.25298
bangong	-9.25329
zhengti	-9.25334
9yue	-9.2535
tuchu	-9.25537
tiaojie	-9.25684
wenyi	-9.25798
400	-9.258
shizai	-9.25876
tichu	-9.25909
boshi	-9.25978
600	-9.26001
2008nian	-9.26049
zaici	-9.26323
nvxing	-9.26328
baozhang	-9.26541
bianhua	-9.26657
jiangshi	-9.26765
dingwei	-9.26767
butongde	-9.2679
ming,	-9.26808
ming。	-9.27131
jiwei	-9.27168
xing,	-9.27182
dianhua	-9.27207
zhiliyu	-9.27245
lianghaode	-9.27246
'	-9.27268
▁zai	-9.27456
▁1.	-9.27653
。gongsi	-9.27741
▁2	-9.27768
1.	-9.27771
zhongshi	-9.27928
,yeshi	-9.27999
dexin	-9.2802
reng	-9.28022
fujiansheng	-9.28039
xiezuo	-9.28057
xianzai	-9.28198
yingyang	-9.28229
daliang	-9.28255
shuoshi	-9.28316
mianfei	-9.28556
shenjing	-9.28567
zhongduo	-9.28604
yiyang	-9.28622
yidai	-9.28651
yanjiusheng	-9.28774
fengfu	-9.28776
fangan	-9.28791
yidali	-9.28928
37	-9.28996
<	-9.29043
yijia	-9.29054
);	-9.29058
huanzhe	-9.29127
pingjia	-9.29151
zizhi	-9.29258
jiaqiang	-9.29396
gaozhong	-9.29466
,hou	-9.29475
11yue	-9.29477
yingshi	-9.29529
fuzhuang	-9.29715
buke	-9.29827
duzhe	-9.29991
▁2、	-9.3
dianyuan	-9.30003
shiwei	-9.30007
lizi	-9.30038
tianran	-9.30087
dixia	-9.30093
2005nian	-9.30212
yichang	-9.30268
qingxi	-9.30385
keneng	-9.30525
zhuanji	-9.30577
jianyan	-9.30643
buyi	-9.31205
1996nian	-9.31341
duonian	-9.31345
1997nian	-9.31435
shengming	-9.31499
zhujian	-9.31501
baogao	-9.31672
33	-9.3168
gudai	-9.31701
baojian	-9.31749
jian,	-9.31759
tisheng	-9.31885
xianjinde	-9.32003
duiyu	-9.32029
hulianwang	-9.32071
chengzhang	-9.32123
jianyu	-9.32176
800	-9.32179
xinhao	-9.32305
tiaozheng	-9.32339
chuangye	-9.32454
bujin	-9.3248
2007nian	-9.32508
zaixian	-9.32519
fabu	-9.32547
yazhou	-9.32586
pifu	-9.32605
jike	-9.32701
yunying	-9.32795
jichang	-9.32822
zhenghe	-9.32902
jinian	-9.32934
tedian	-9.32938
daolu	-9.33055
1998nian	-9.33108
secai	-9.33118
yuanli	-9.33156
hebeisheng	-9.33195
chengqu	-9.33199
haiyou	-9.33263
,juyou	-9.33376
kua	-9.33416
guwen	-9.33527
zhipin	-9.33545
guiding	-9.33652
zhengchang	-9.33714
youeryuan	-9.33725
jinxingle	-9.33729
biye	-9.33908
..	-9.33989
yiming	-9.34031
xiaofeizhe	-9.34043
2000nian	-9.34077
tezheng	-9.3408
...	-9.34453
’	-9.34474
55	-9.3459
,bu	-9.34862
▁3.	-9.34985
dianya	-9.35058
yibu	-9.35094
dongli	-9.35105
64	-9.35105
chai	-9.35137
bowuguan	-9.35181
chengji	-9.35464
,gu	-9.35565
2010nian	-9.3558
paishe	-9.35594
quancun	-9.35635
lide	-9.35712
zhifu	-9.35797
gonggong	-9.35848
beibu	-9.36011
nie	-9.36022
youzhe	-9.36082
gongchengshi	-9.36196
1995nian	-9.36206
▁1	-9.36215
jixing	-9.36218
:1	-9.3641
zuijia	-9.36446
3yue	-9.36534
zhuangbei	-9.36604
yuanxiao	-9.36639
8yue	-9.36664
nu	-9.36816
34	-9.3684
dizhen	-9.36842
zhuanyong	-9.36935
daoyan	-9.36978
henduo	-9.36997
、zhongguo	-9.37011
5yue	-9.37376
yinjin	-9.37438
guige	-9.37612
zhiyao	-9.37677
1993nian	-9.37788
mu,	-9.378
tongchang	-9.37825
qingdao	-9.37844
dezhuyao	-9.37857
gequ	-9.37934
yuan,	-9.37938
teshu	-9.38001
shuru	-9.38014
juxing	-9.38041
qidong	-9.38061
65	-9.38169
dangdi	-9.38253
shizi	-9.38299
huifu	-9.38299
biaoyan	-9.38344
,yin	-9.3835
canshu	-9.38379
yiwu	-9.38414
wudao	-9.38427
dangshi	-9.3858
jiemu	-9.38582
yizuo	-9.38582
,yinci	-9.38682
42	-9.38707
xiju	-9.38714
xibu	-9.38813
chengxin	-9.38936
jiuye	-9.38969
pingwei	-9.39074
yiyi	-9.39167
weixiu	-9.39254
1999nian	-9.39272
renzhi	-9.39278
jianjie	-9.39393
yanchang	-9.39494
zhumingde	-9.39498
zhubian	-9.39522
cehua	-9.39534
shiying	-9.39697
yanyuan	-9.39759
haiyang	-9.39796
kuaiji	-9.39832
zhuangtai	-9.3984
kuo	-9.39874
donghua	-9.39879
yumi	-9.39913
sheli	-9.39919
dili	-9.3996
tigongle	-9.40104
xietiao	-9.40235
,zi	-9.4027
pingjun	-9.40365
canjiagongzuo,	-9.40422
,jing	-9.40424
gaishan	-9.40439
chengben	-9.40455
zhuzuo	-9.40499
yaowu	-9.40511
zhuiqiu	-9.40584
yuanliao	-9.40692
jiangxisheng	-9.40786
zhijing	-9.40909
yiyao	-9.40926
tongxun	-9.40961
shuji	-9.40966
shenru	-9.41005
jingpin	-9.41085
,erqie	-9.41089
shida	-9.41123
zaizhongguo	-9.41179
jixu	-9.41188
sanshi	-9.41219
yixiang	-9.41286
chuyu	-9.41582
tushu	-9.41685
rensheng	-9.41696
jiti	-9.41703
gongyou	-9.41743
shoucang	-9.41776
」	-9.41905
jinyibu	-9.41966
shengli	-9.42075
suzhou	-9.42109
weixian	-9.42123
chengxian	-9.4217
2004nian	-9.42244
wanjia	-9.42375
jingguan	-9.42452
laoshi	-9.42487
xunsu	-9.42516
,baokuo	-9.42625
keshi	-9.42697
liyi	-9.42951
xiaofei	-9.42966
98	-9.43083
yinshua	-9.43088
renmingongheguo	-9.43206
touru	-9.43232
guochengzhong	-9.43494
xiwang	-9.43513
2009nian	-9.43529
,zhuyao	-9.43539
zhengquan	-9.43585
dongnan	-9.43606
tianxia	-9.43728
fuwu。	-9.43771
fenzi	-9.43814
xiangdui	-9.43825
ganran	-9.43857
dongtai	-9.43863
1yue	-9.4394
jingnei	-9.44149
jiyi	-9.44163
1994nian	-9.44173
sannian	-9.4434
yilai,	-9.44358
buzhi	-9.44397
,keyi	-9.4442
chicun	-9.44485
yinxiang	-9.44512
hangkong	-9.44554
xiandaihua	-9.44611
xishou	-9.44749
shuchu	-9.44759
zhongliu	-9.4479
「	-9.44865
tushuguan	-9.44892
youcheng	-9.44899
heise	-9.44911
daole	-9.44922
wanshan	-9.44964
zhuxi	-9.44985
jinshi	-9.45016
。xianren	-9.45207
fuzhu	-9.45239
cunzai	-9.4529
shiliang	-9.45329
yuedu	-9.45418
geshi	-9.45446
《zhongguo	-9.45482
1992nian	-9.45592
guding	-9.45638
yiqie	-9.45655
weiyuan	-9.45683
rongyu	-9.45775
youliang	-9.45785
jinkou	-9.45875
shijianyu	-9.45888
150	-9.459
hexie	-9.45977
。qi	-9.45984
shiyongyu	-9.45991
39	-9.46001
liren	-9.46112
shenzhenshi	-9.4632
buwei	-9.46329
2yue	-9.46374
youming	-9.46388
xiangshou	-9.46397
shoushu	-9.46471
,yongyou	-9.46539
4yue	-9.46607
zhang,	-9.46627
zhanzheng	-9.4669
quansheng	-9.46711
tuichu	-9.46727
shangyou	-9.47129
duoge	-9.47168
suliao	-9.47254
yanshi	-9.47262
guanzhu	-9.47344
ruguo	-9.47383
leixing:	-9.47388
jiandan	-9.47413
shenti	-9.47454
shijia	-9.47507
xia,	-9.47747
dutede	-9.47826
zhun	-9.47845
xingtai	-9.47851
zhouwei	-9.47998
2003nian	-9.48002
wenwu	-9.48012
,tongguo	-9.48031
meili	-9.48176
chongqingshi	-9.4823
fenlei	-9.48316
gongying	-9.48378
suzhi	-9.48409
zhongwen	-9.48439
31	-9.48457
120	-9.48574
wei“	-9.48582
juzhu	-9.48712
43	-9.48759
youxiangongsishi	-9.48781
44	-9.48811
yindu	-9.48834
zhuguan	-9.48865
zhijiande	-9.48892
hanliang	-9.48999
zaoxing	-9.49043
zhidi	-9.49112
nanbu	-9.49123
shuliang	-9.49151
,rang	-9.49156
dongxi	-9.49189
dianzishangwu	-9.49321
hongse	-9.49329
chengshu	-9.49342
eluosi	-9.49415
,tamen	-9.4967
gaosugonglu	-9.49674
jishurenyuan	-9.49678
fuyou	-9.49726
sou	-9.49773
shenqing	-9.49884
duoci	-9.49891
dajia	-9.49892
46	-9.49939
shuili	-9.49973
jieguo	-9.5001
luntan	-9.50025
gaodu	-9.50044
hecheng	-9.50144
juban	-9.5033
biancheng	-9.50343
jieduan	-9.50427
manhua	-9.50492
(jin	-9.50541
deren	-9.50609
banxue	-9.50635
zhuanyede	-9.5088
miaoshu	-9.51175
xianxiang	-9.51251
shizhongguo	-9.51267
,nan,hanzu,	-9.51355
dangdai	-9.51361
zhengzai	-9.51398
1.5	-9.51501
tansuo	-9.5155
fugai	-9.5156
zhuangxiu	-9.51721
ㄧ	-9.51845
shiqu	-9.51921
zujian	-9.51934
zhe,	-9.5202
2002nian	-9.52032
wenzhang	-9.52052
zuochu	-9.5211
pengyou	-9.52148
dalu	-9.52154
▁3、	-9.52209
tiyan	-9.52259
pizhun	-9.52301
guogongchandang	-9.52373
gongjin	-9.5238
yinsu	-9.52405
caiwu	-9.52412
dengdi	-9.52462
gongchang	-9.52496
zhuban	-9.52504
2011nian	-9.5265
shangshu	-9.52704
wenzi	-9.52762
renti	-9.52822
jianshao	-9.52869
douyou	-9.52908
mingxian	-9.52998
meige	-9.5301
fangdichan	-9.53073
yitiao	-9.5311
fanyi	-9.5313
wuqi	-9.5314
2ge	-9.53212
cunmin	-9.53291
dasai	-9.53298
huashi	-9.53349
zuixin	-9.53412
tuijin	-9.53417
duiwu	-9.53472
▁1、	-9.53532
duixiang	-9.5359
yi“	-9.53604
jiaowei	-9.53641
zhengshu	-9.53663
chusheng	-9.53803
zidonghua	-9.53812
mudi	-9.53865
1990nian	-9.54057
zhexue	-9.54081
,women	-9.54154
▁3	-9.54173
fushe	-9.54173
zhangwo	-9.54193
meinian	-9.54325
liangzhong	-9.54333
weiqi	-9.54359
haizi	-9.54494
peihe	-9.54573
shiyu	-9.54648
yanse	-9.54685
xuqiu	-9.54705
xianchang	-9.54778
,ze	-9.5479
caizheng	-9.5481
47	-9.54828
yiliu	-9.54898
wufa	-9.54985
shuzhi	-9.55258
taoci	-9.55305
,sui	-9.55385
neimenggu	-9.55439
shucai	-9.55465
shier	-9.55543
shangshi	-9.55611
heli	-9.5564
kongqi	-9.55653
yuansu	-9.55685
yeyou	-9.55745
mie	-9.55763
2.0	-9.55817
chuangban	-9.56179
diwei	-9.56224
zhongbu	-9.56327
mi,	-9.56361
liuxing	-9.56423
benke	-9.56477
lijie	-9.5653
queding	-9.56617
lianmeng	-9.5664
,jin	-9.5681
bianxie	-9.5683
zhenduan	-9.56848
dali	-9.56891
jinghua	-9.57025
kaifang	-9.57126
xingzhengcun	-9.57185
yanjiuzhongxin	-9.57196
liaoningsheng	-9.57209
xieyi	-9.57296
guizhou	-9.57355
deyanjiu	-9.57424
youqi	-9.57424
yiding	-9.57523
,jiu	-9.57625
weizhu,	-9.57669
zhendui	-9.57727
yuren	-9.57728
nvzi	-9.57775
yangzhi	-9.57807
‘	-9.57832
,bingqie	-9.57848
zheyang	-9.57853
jincheng	-9.57912
tuidong	-9.57995
,conger	-9.58002
shizhengfu	-9.58075
(),	-9.58087
nan,	-9.58092
qiyi	-9.58376
baodao	-9.58422
huangdi	-9.58568
pinlv	-9.5865
hunhe	-9.5866
chengjiu	-9.58701
yingwen	-9.58702
biaozhi	-9.5872
jianyou	-9.58734
buxiugang	-9.58744
youxian	-9.58756
xingzhuang	-9.58769
moni	-9.58778
xianzerengongsi	-9.58804
chanpinde	-9.58911
zuihou	-9.5893
buju	-9.58949
dianshitai	-9.58952
1991nian	-9.59013
chongxin	-9.59118
yiren	-9.59188
qihou	-9.59195
yiqian	-9.59199
ke、	-9.59296
fo	-9.59308
xingzhi	-9.59406
52	-9.59412
moxing	-9.59426
fuzhi	-9.59436
gongzuode	-9.59485
shouyu	-9.59572
fujin	-9.59634
xinghao	-9.59638
jingzhi	-9.59725
xiangjiao	-9.59739
》zhong	-9.59761
zhongyaode	-9.59793
lishu	-9.59806
fenzhong	-9.59825
shenji	-9.59826
goucheng	-9.59836
xiangdang	-9.59842
zhoucheng	-9.59845
keli	-9.59854
56	-9.5987
1989nian	-9.59871
yinci	-9.60165
gaoya	-9.60234
chu,	-9.60372
gege	-9.60385
66	-9.60414
zhuanmen	-9.6043
jiaoyubu	-9.60484
yinshi	-9.60764
×	-9.60785
shiyijia	-9.6097
zhua	-9.61063
jieneng	-9.61075
meirong	-9.61123
yangshi	-9.61207
binguan	-9.61309
zaoqi	-9.61327
tuanti	-9.61366
7yue	-9.61435
fengfude	-9.61447
shenzhi	-9.61454
liaoning	-9.61457
yushi	-9.61506
yuan。	-9.61516
zhunbei	-9.61579
geshou	-9.61602
gaizao	-9.61627
sao	-9.6167
wushu	-9.61724
xiangxi	-9.61747
nen	-9.6181
haode	-9.61874
nengyuan	-9.61906
,qie	-9.61925
fenli	-9.62059
guke	-9.62067
58	-9.62358
chengzhen	-9.62431
zheli	-9.62569
anjian	-9.62777
pinggu	-9.62858
chuangjianyu	-9.62861
houde	-9.62861
qilai	-9.62927
1988nian	-9.63023
pingheng	-9.63093
zuan	-9.63138
fahui	-9.63179
1984nian	-9.63277
”deng	-9.63321
shaonian	-9.63359
chanpinzhiliang	-9.63504
siwei	-9.63554
zhuanke	-9.63592
huanying	-9.63645
fenzhi	-9.63651
jianshi	-9.63691
wanshande	-9.63705
bofang	-9.63808
,shu	-9.6384
minzhu	-9.63923
daxuesheng	-9.63964
juti	-9.64007
jidian	-9.6404
zichan	-9.6411
diyu	-9.64115
zhuanli	-9.6413
kefang	-9.64148
wenxian	-9.64248
,wu	-9.64252
nide	-9.64467
3ge	-9.64559
dangan	-9.64571
tuanjie	-9.64618
sanda	-9.64621
canyin	-9.6476
yanzhong	-9.64768
1985nian	-9.64853
49	-9.64982
dianchi	-9.65
zuoluoyu	-9.65031
zhichu	-9.65044
zhiyuan	-9.65049
yunnansheng	-9.65076
hetong	-9.65172
goujian	-9.65206
,ranhou	-9.65231
dushi	-9.65266
jingchang	-9.65382
gexiang	-9.65578
senlin	-9.65589
2001nian	-9.6561
shinei	-9.65611
yongpin	-9.65655
shangji	-9.65727
keng	-9.66044
zongzhi	-9.66074
shenyang	-9.66075
2.5	-9.6609
guowai	-9.66192
buhui	-9.66277
yifu	-9.66364
huajia	-9.6639
yanjing	-9.6641
banfa	-9.66474
zhibiao	-9.66603
zhuanzhu	-9.66621
yuanqu	-9.66733
&	-9.66759
gouwu	-9.66759
jianada	-9.66796
shouci	-9.668
zengzhang	-9.66823
2013nian	-9.66893
dongzuo	-9.66969
huli	-9.67074
junqu	-9.67088
duomeiti	-9.67143
texing	-9.672
yihou	-9.67218
tianjinshi	-9.67226
xianzhu	-9.67234
0.5	-9.67236
zuoluozai	-9.67241
。youyu	-9.67351
lvxing	-9.67358
weiji	-9.67451
mingcheng:	-9.67461
zhongliang	-9.67468
shinian	-9.67469
guanzhong	-9.67495
yingxiong	-9.67611
gainian	-9.67634
yange	-9.67652
jianlile	-9.67683
huangse	-9.67684
xianghu	-9.67715
hainan	-9.67809
shifou	-9.67833
dengfangmian	-9.67835
chengxiang	-9.67864
1986nian	-9.67995
ken	-9.68002
yiliude	-9.68036
diwu	-9.68045
。zhuyao	-9.68111
zhuzhong	-9.68162
fangmiande	-9.68191
chenghao	-9.68201
yuanming	-9.68281
fayu	-9.68292
tamende	-9.68295
54	-9.68357
ye。”	-9.68385
changwei	-9.68433
kexuejishu	-9.68444
neizhi	-9.68444
julebu	-9.68456
yuanlin	-9.68466
xueli	-9.68506
mingren	-9.68509
xuezhe	-9.68565
yan、	-9.68699
weiyitide	-9.68731
4ge	-9.6875
,danshi	-9.6879
tuijian	-9.68796
jianren	-9.68946
zaocheng	-9.68956
jiangjun	-9.68969
-1	-9.6903
siwang	-9.69084
qingjie	-9.69236
1987nian	-9.69245
gexing	-9.69256
baocun	-9.69273
dasha	-9.69283
lvhua	-9.69323
zhongjian	-9.69361
fojiao	-9.69475
,gong	-9.69557
dexiao	-9.69676
banben	-9.69687
shiti	-9.69697
85	-9.69911
gongren	-9.69921
guanli、	-9.7002
zongjiao	-9.70034
huihua	-9.70039
liliang	-9.70212
funv	-9.70216
,xianren	-9.70344
gongdangyuan,	-9.70402
banli	-9.70415
shoufa	-9.70465
1980nian	-9.70493
taiyang	-9.70629
gedi	-9.70754
jubei	-9.70764
88	-9.70805
guangbo	-9.7084
chuangyi	-9.70918
keda	-9.70959
mianxiang	-9.70962
chixu	-9.70999
jiliang	-9.71034
renwen	-9.711
yindao	-9.71202
heilongjiang	-9.7128
ziwo	-9.71327
lizhi	-9.71454
chengren	-9.71461
qushi	-9.71465
dongbu	-9.71524
gongxian	-9.71527
ˋ	-9.7159
zengqiang	-9.71599
youyige	-9.71638
zuohao	-9.71642
yuanyin	-9.71686
erqie	-9.71907
zeren	-9.7192
yuan、	-9.71947
zuizhong	-9.71962
liangshi	-9.71989
,mei	-9.7203
suizhe	-9.72109
68	-9.72118
dushu	-9.7213
aiqing	-9.72141
kuoda	-9.72246
,nv,	-9.72353
zhuji	-9.72369
chongfen	-9.7245
pohuai	-9.72454
yifa	-9.72516
gupiao	-9.7252
zhongzi	-9.72526
renliziyuan	-9.72537
-2	-9.72543
chuzhong	-9.72562
hanshu	-9.72588
99	-9.72605
dezhuanye	-9.72658
xunhuan	-9.72672
xiezhu	-9.72684
yuanzi	-9.72695
quanli	-9.72791
xiqu	-9.72815
duoxiang	-9.72832
huangjin	-9.72835
fuzhuren	-9.72844
gansu	-9.72882
deshihou	-9.72883
jinan	-9.72926
cankao	-9.72948
qingdai	-9.73031
shuiku	-9.7305
weishi	-9.7315
erbu	-9.73176
2012nian	-9.73282
yingcun	-9.73348
zhanlan	-9.73351
yangguang	-9.73477
,gongsi	-9.73493
zuozhan	-9.73511
zhoubian	-9.73709
huochezhan	-9.73716
suoshu	-9.73796
jinjiang	-9.73812
dejiben	-9.73842
zheshi	-9.73874
changjiang	-9.73893
dechanpin	-9.73895
zuizao	-9.73917
danbai	-9.73946
jiejuefangan	-9.74048
guowuyuan	-9.74079
caineng	-9.74137
xiangying	-9.74159
kuaile	-9.74163
》shi:“	-9.74235
dimian	-9.74302
,xi	-9.74313
chuzi	-9.74512
jingmi	-9.74604
zhiwei	-9.74673
chuanshuo	-9.7473
nuan	-9.74786
zhengqi	-9.74819
qiangdu	-9.74918
zhenshi	-9.75076
hudong	-9.75119
jingzheng	-9.75181
minguo	-9.75183
jiande	-9.7528
zhongduan	-9.75285
dalian	-9.75293
cengren	-9.75323
yanghua	-9.75333
dahui	-9.75508
yixueyuan	-9.75552
jiangdi	-9.75558
ㄨ	-9.75602
57	-9.7567
xiaozhang	-9.75687
xingdong	-9.75713
zhandou	-9.75785
weixing	-9.75801
cheliang	-9.75813
jinnianlai	-9.75917
xitongde	-9.75983
,ceng	-9.76075
cengjing	-9.76125
womende	-9.76173
zhixian	-9.76229
bingqie	-9.76259
wenshi	-9.76268
----------------	-9.764
jiare	-9.76467
youren	-9.76479
shengshi	-9.76523
lixiang	-9.76548
yingpian	-9.76587
geda	-9.76593
seng	-9.76707
shouduan	-9.76723
》deng。	-9.76729
guanjun	-9.7673
shaoxu	-9.76813
xiguan	-9.76874
yiyuan,	-9.7692
53	-9.77165
sishi	-9.77193
shouxian	-9.7731
shoujie	-9.77422
jituangongsi	-9.77458
hanzu	-9.7749
96	-9.77509
wangshang	-9.77521
xianlu	-9.77594
tuxiang	-9.77597
weng	-9.77657
qingshaonian	-9.77735
xiangyou	-9.77864
jiguang	-9.77889
nang	-9.7791
72	-9.77922
mishu	-9.77984
zhuzhai	-9.7804
ibaiduditu	-9.78046
yibei	-9.78055
qiecheng	-9.78063
wuyi	-9.78069
jiancai	-9.78076
tashi	-9.78087
shujuweizhun。	-9.78113
benshujula	-9.78116
iyuanyubaiduditu	-9.78117
,zuizhongjieguoy	-9.78119
xiaqu	-9.78155
nanbei	-9.78159
fengongsi	-9.78172
chushi	-9.78178
.("/////	-9.78214
.",(){(	-9.78214
midu	-9.78244
10000801);});	-9.78246
qixiang	-9.78254
buzu	-9.78292
lingxian	-9.78297
dabufen	-9.78298
jiqiao	-9.78307
tupo	-9.78341
leisi	-9.78342
shai	-9.78421
cunweiyu	-9.78458
juece	-9.78483
haohua	-9.78515
yixian	-9.78637
zhendong	-9.7864
cunchu	-9.78813
fuqin	-9.78882
zhuanxiang	-9.78918
yeyouxiangongsi	-9.78924
jingqu	-9.78951
yufang	-9.78977
fuyu	-9.79065
xijing	-9.79119
weijing	-9.7915
2-	-9.79207
chuanshu	-9.79276
guancha	-9.79321
shenme	-9.79329
kexueyuan	-9.79363
qiti	-9.79386
jiangli	-9.79474
zhongyou	-9.79484
shoulu	-9.7957
chongman	-9.79635
diqiu	-9.79678
shuma	-9.79724
suoyi	-9.79799
▁4.	-9.79834
yiyu	-9.79844
xingfu	-9.79866
jizai	-9.8004
fazhande	-9.80077
shouyi	-9.80085
4-	-9.80119
。xuexiao	-9.80128
zizhiqu	-9.8022
tupian	-9.80224
rengong	-9.80298
sige	-9.80362
shengzhi	-9.8037
turang	-9.80452
95	-9.80479
junyun	-9.80504
xifang	-9.80512
changshi	-9.80521
guoshi	-9.80549
,ba	-9.80588
guangzhoushi	-9.80604
qingsong	-9.80686
cuoshi	-9.80698
hua、	-9.8073
bianxing	-9.80824
ruxuan	-9.80915
lvshi	-9.80919
shuoming	-9.80951
siji	-9.81026
haiba	-9.81261
zhixiang	-9.81275
juese	-9.81281
pian,	-9.81292
huamian	-9.81311
zhengming	-9.81359
bili	-9.81366
jiefang	-9.81397
feiji	-9.81416
yidengjiang	-9.81526
shigu	-9.8158
gongzuo;	-9.81691
fuza	-9.81699
lixue	-9.81702
41	-9.81719
yuzhong	-9.81745
chengfen	-9.81763
bianwei	-9.81825
xiaoxing	-9.81832
anpai	-9.81862
shuini	-9.81865
daikuan	-9.81869
gucheng	-9.8187
guilv	-9.81886
xianxing	-9.81975
zaipei	-9.81997
yangxian	-9.8203
gaokeji	-9.8203
,neng	-9.82261
changshang	-9.82261
qiangdade	-9.82307
jiaruzhong	-9.82358
zhifa	-9.82382
liangce	-9.82423
lianhehui	-9.8248
daozhi	-9.82585
baohan	-9.82623
suishi	-9.82683
gaoduan	-9.82702
zhongxing	-9.82712
jinbu	-9.82721
suiran	-9.82776
yuedui	-9.82804
changdao	-9.82831
muju	-9.82861
kaituo	-9.82936
anli	-9.82938
jingjixue	-9.83007
wutai	-9.83054
yiyou	-9.83101
shanshui	-9.83111
jilinsheng	-9.83118
huadong	-9.83157
gongshang	-9.83161
dailai	-9.8318
62	-9.83258
yuqi	-9.83297
shirenminzhengfu	-9.83323
sheji、	-9.83326
dadui	-9.83362
xing。	-9.83439
gengxin	-9.8344
fuzeren	-9.83448
shehuizhuyi	-9.83484
1958nian	-9.83525
fazhi	-9.83526
3nian	-9.83574
shouhoufuwu	-9.83636
xiang,	-9.8364
fujiaoshou	-9.8368
fanzhi	-9.83689
guogongchandang,	-9.83689
shangxia	-9.83718
zhubu	-9.83758
duonianlai	-9.83775
yikedaxue	-9.83792
qiye。	-9.83992
jiuhui	-9.8406
daode	-9.84116
gongxiao	-9.84138
01	-9.84169
shua	-9.84183
peijian	-9.84186
bingcheng	-9.84221
wunian	-9.84284
zige	-9.84287
xiongdi	-9.84375
gufen	-9.84399
86	-9.84402
junwei	-9.84447
sinian	-9.84564
zixing	-9.84634
erdengjiang	-9.84665
ˊ	-9.84677
renjiao	-9.84685
gongkai	-9.84781
chuan》:“	-9.84807
kuozhan	-9.84828
feiyong	-9.84944
jundui	-9.84959
caiqu	-9.85014
shanshi	-9.85015
yituo	-9.85023
3000	-9.85051
59	-9.85059
duojia	-9.85063
douzheng	-9.85136
gaojigongcheng	-9.85154
jifu	-9.85202
1.2	-9.85265
huoli	-9.85311
▁4、	-9.85413
1970nian	-9.85417
changyong	-9.85459
chuqi	-9.8549
deshenghuo	-9.8552
dianfen	-9.85544
zhiqian	-9.85555
kaiguan	-9.85562
fangzai	-9.85606
haiwai	-9.85706
wujin	-9.85754
haijun	-9.85827
shoudu	-9.85845
xiaofang	-9.85872
dishi	-9.85891
sida	-9.85919
78	-9.85934
zuchengde	-9.86012
jinzhi	-9.86123
qizhi	-9.86138
xinlixue	-9.86152
dianlu	-9.86161
shangbiao	-9.86186
,hai	-9.86193
jinxiu	-9.86373
chusheng,	-9.86377
qixia	-9.8642
youli	-9.86448
xing、	-9.86463
niang	-9.86512
ye。	-9.86515
geju	-9.86519
huanjie	-9.86562
▁:	-9.86571
zhihou,	-9.86615
zuqiu	-9.86619
gongside	-9.86621
buxiang	-9.86792
gecunminxiaozu	-9.86869
celve	-9.86884
bingbu	-9.86923
linye	-9.86979
gongzuozhe	-9.8703
yingpan	-9.87031
jiazu	-9.87043
suozai	-9.87074
gansusheng	-9.87096
kongtiao	-9.87155
shuli	-9.87161
shusong	-9.87185
51	-9.8727
wuran	-9.87279
yizu	-9.87327
1976nian	-9.87422
wuji	-9.87458
wuzhong	-9.87465
fengjing	-9.87533
danyuan	-9.87609
mifeng	-9.87679
ciji	-9.87823
liuliang	-9.87825
jili	-9.87843
jingjifazhan	-9.87925
ganzao	-9.87928
zhuanxie	-9.87978
juji	-9.88026
guomindang	-9.88032
5-	-9.88038
zuqiuyundongyuan	-9.88081
xinpian	-9.88085
zhuanti	-9.88109
&;	-9.88125
houlai	-9.88151
shanchang	-9.88172
。muqian	-9.8818
shoupi	-9.88183
beifang	-9.88209
yanyi	-9.8824
tongdao	-9.88285
pindao	-9.88301
canjiale	-9.88355
zhuangkuang	-9.88387
daoru	-9.88472
diliu	-9.88473
bu、	-9.88497
chaoxian	-9.88555
weihai	-9.88579
dajie	-9.88609
shuzhong	-9.88657
guli	-9.88682
jizhe	-9.88817
kunnan	-9.88901
fangzhen	-9.88977
:2	-9.89011
1978nian	-9.89118
mu。	-9.89124
changjian	-9.89157
xiangji	-9.89172
wangyou	-9.89194
guzhang	-9.89207
guandao	-9.89283
quancheng	-9.89285
、wu	-9.89288
buji	-9.89317
fashe	-9.89344
fudao	-9.89344
kandao	-9.89388
dongjing	-9.89392
fuzhou	-9.89409
yishujia	-9.89423
renshu	-9.89424
shijing	-9.8943
duiwai	-9.89431
miandui	-9.89477
yipian	-9.895
jiaozhigong	-9.89511
guizhousheng	-9.8953
nanfang	-9.89543
67	-9.89557
lianghao	-9.89566
meilide	-9.89611
chaoshi	-9.89635
shiba	-9.89714
hege	-9.89852
yike	-9.89879
ziben	-9.90006
lishuyu	-9.90008
yunzuo	-9.90101
wuzi	-9.90117
zhuang,	-9.90121
fangwu	-9.90128
zhishang	-9.90168
tongyong	-9.90172
fumu	-9.90178
renshen	-9.90223
delishi	-9.90229
gaiwei	-9.90247
zhengzhou	-9.90264
,hao	-9.9027
yingli	-9.90325
63	-9.90355
jiankong	-9.90373
fangwen	-9.9041
chanliang	-9.90474
。cong	-9.90484
xiaohua	-9.90486
bao》	-9.90517
gongshi	-9.9054
liushi	-9.90587
180	-9.90597
ronghe	-9.90618
76	-9.90684
biaoda	-9.90699
xiamen	-9.90723
shizheng	-9.90738
huxi	-9.90769
zonghexing	-9.90773
nianjian	-9.9078
pingjie	-9.90789
renjunchunshouru	-9.90928
zhixu	-9.90983
neicun	-9.91002
”wei	-9.91019
nianqing	-9.91023
wanmei	-9.91055
yinpin	-9.9109
banshichu	-9.91153
1982nian	-9.91286
xinyu	-9.91287
gonglv	-9.91334
bainian	-9.9136
yitao	-9.91375
1975nian	-9.91413
,muqian	-9.91463
shengchanxian	-9.91556
1-	-9.91557
chaye	-9.9158
ranhou	-9.91635
boshishengdaoshi	-9.91666
xiazai	-9.91728
jiaxiehuihuiyuan	-9.91812
chuangli	-9.91835
zhiji	-9.91843
xianji	-9.9186
shijian:	-9.91873
gouzao	-9.92011
xibanya	-9.92065
aodaliya	-9.92097
qingchu	-9.92123
yaopin	-9.92124
3.5	-9.92125
zhaoming	-9.92133
nengliang	-9.92179
jiyin	-9.92204
dute	-9.92229
dianliu	-9.92245
shengcun	-9.92248
fadongji	-9.92285
doufu	-9.92299
pinwei	-9.92329
liucheng	-9.92368
goumai	-9.92377
quwei	-9.92448
fenbuyu	-9.92486
shuidao	-9.92527
zhengli	-9.92537
xinjiapo	-9.92607
gengduo	-9.92635
zongmianji	-9.92637
zhenzheng	-9.92665
yuanze	-9.92699
tixing	-9.92708
xiaolv	-9.92733
xiancun	-9.92751
,geng	-9.92825
bianyuan	-9.92844
jiceng	-9.92845
yixing	-9.92848
yan,	-9.92882
1968nian	-9.92892
1957nian	-9.92936
zhuanyecongshi	-9.9294
cunlishuyu	-9.9297
1983nian	-9.92978
ji》	-9.93025
69	-9.93056
defuwu	-9.93093
shujuku	-9.93101
zhuyaocongshi	-9.93102
cheng“	-9.93107
shenhua	-9.9314
xiaoying	-9.9319
shu,	-9.93281
zhaopian	-9.93305
jilin	-9.93335
yuanxing	-9.93357
benpin	-9.93409
qixi	-9.93444
dazhong	-9.93511
82	-9.93516
kaishe	-9.93563
zongjingli	-9.93615
hefei	-9.93626
jingxin	-9.93695
,yinwei	-9.93714
kaocha	-9.93735
yejin	-9.93742
zhengxie	-9.93745
youer	-9.93841
jiangnan	-9.93957
qianli	-9.93967
gengmingwei	-9.93993
ruci	-9.94016
,xiang	-9.9405
shiyong。	-9.94053
gongxiang	-9.94063
-3	-9.94116
97	-9.94144
changdu	-9.94176
xue、	-9.94202
,youyu	-9.94206
shiyongde	-9.94259
qingchun	-9.94282
lingren	-9.94283
naxie	-9.94292
hanyu	-9.94293
rongyi	-9.94327
jushi	-9.94365
houqi	-9.94424
bendi	-9.94436
jige	-9.94456
qianhou	-9.94477
niandu	-9.9454
faming	-9.94549
yonglai	-9.94559
liansuo	-9.94642
caozuoxitong	-9.94825
mingdai	-9.94837
shouquan	-9.94842
quanwei	-9.94876
daqiao	-9.94886
guji	-9.94909
lingyude	-9.95016
shengcheng	-9.95145
sandengjiang	-9.95241
sanwen	-9.95265
,xia	-9.95307
qudao	-9.95309
faxue	-9.95348
。qizhong	-9.95362
zaiquanguo	-9.9552
zhengzhuang	-9.95565
guangdian	-9.95612
huodele	-9.95621
zuoye	-9.95628
)shi	-9.95633
chuanqi	-9.95671
kejian	-9.95715
pilin	-9.95732
zhandimianji	-9.95812
5000	-9.95827
chuliqi	-9.95873
de《	-9.95946
huanghe	-9.95955
goutong	-9.95983
mouxie	-9.96028
yiduan	-9.96043
huodong,	-9.96086
3-	-9.96103
1979nian	-9.96115
kaoru	-9.96116
jieshaole	-9.96131
°C	-9.96161
250	-9.96162
xinghe	-9.96201
liji	-9.96216
tongyang	-9.96275
zuoyong。	-9.96285
jifa	-9.96289
xizang	-9.96299
pingmian	-9.96336
〕	-9.9635
shi“	-9.96359
fuli	-9.96459
guoli	-9.96463
changsha	-9.96478
jiejing	-9.96518
,zhu	-9.96524
changsuo	-9.96552
77	-9.96653
pingyuan	-9.96675
zuole	-9.9675
pingfangmi	-9.96752
caise	-9.96762
renzhen	-9.96767
hejin	-9.96893
zhongshan	-9.96898
yeti	-9.96943
jiju	-9.96986
shiyedanwei	-9.97014
niandai	-9.97079
qijian,	-9.97138
xiaoyi	-9.97183
lujun	-9.97184
changjia	-9.97194
tuozhan	-9.97255
weishengsu	-9.97276
nanhai	-9.9729
shanxian	-9.97346
weituo	-9.97411
0.0	-9.97471
bujian	-9.97471
bieshu	-9.97503
shiyikuan	-9.97506
shike	-9.97535
′	-9.97559
jieshu	-9.97572
dengduozhong	-9.9758
1960nian	-9.97599
gongdian	-9.97701
jingxi	-9.97768
ga	-9.97782
gangtie	-9.97794
gaowen	-9.97882
,xianhou	-9.97956
”he“	-9.97999
chongji	-9.98008
waixing	-9.98009
cengci	-9.98034
licheng	-9.98057
zhizhu	-9.98082
zongjie	-9.98263
jidan	-9.98268
mingshi	-9.9832
。cengren	-9.98321
biande	-9.98345
qianghua	-9.9835
liti	-9.98372
jungong	-9.98381
1969nian	-9.98427
xiangsi	-9.98457
▁4	-9.98506
,bingzai	-9.98528
neike	-9.98609
fenguan	-9.98628
shengchande	-9.98641
0.1	-9.98651
,“	-9.98671
dedaole	-9.9871
manxing	-9.98732
duankou	-9.98773
jiaoda	-9.98813
bihua	-9.98819
hangyede	-9.9882
bianjie	-9.98837
zhuyaoyou	-9.98856
xueye	-9.98883
jiemian	-9.99013
suowei	-9.99024
gaodeng	-9.99038
luyin	-9.9905
tiandi	-9.99144
dayin	-9.99178
qiyede	-9.9918
luoshi	-9.99215
rendachangweihui	-9.99216
xinjian	-9.9923
zhengyi	-9.99243
yili	-9.99304
zhunque	-9.99333
xingqu	-9.99333
05	-9.99357
1966nian	-9.9936
zhuzhi	-9.99361
guanjian	-9.9944
kangfu	-9.99511
waiguo	-9.9957
zhuanhuan	-9.99614
guangfanyingyong	-9.99651
jinnian	-9.99694
jianzao	-9.99701
mokuai	-9.99777
laonian	-9.99804
zhangda	-9.99836
fuwuqi	-9.99844
xinyong	-9.9986
bali	-9.99879
,yiban	-9.99888
,que	-9.99914
shibie	-9.99998
hanyou	-9.99999
chezhan	-10.0002
xishu	-10.0014
shangmao	-10.0018
ditu	-10.002
1nian	-10.0025
jujuzhang	-10.0025
5ge	-10.0026
deshijian	-10.0027
daoshi	-10.0029
1954nian	-10.0033
1981nian	-10.0034
zhiliu	-10.0035
dejichushang	-10.004
leyige	-10.0044
73	-10.0045
bangongshizhuren	-10.0048
gaoda	-10.0049
fadian	-10.0054
02	-10.0058
1956nian	-10.006
zaibeijing	-10.0063
canting	-10.0065
6-	-10.0066
yeya	-10.0068
diaosu	-10.0069
160	-10.0076
buzai	-10.0078
xizhi	-10.008
。ci	-10.008
ang	-10.0082
1972nian	-10.0084
kaifaqu	-10.0085
gengduode	-10.0094
chengwei“	-10.0098
shiliu	-10.0099
qikan	-10.0101
xianjindanwei	-10.0101
youdian	-10.0106
dangnian	-10.0118
gengdi	-10.0118
yinggai	-10.0119
qunti	-10.012
,wo	-10.0141
xianyi	-10.0145
fenpei	-10.0148
fengwei	-10.0152
jiaoban	-10.0155
laiyuan	-10.0158
shijue	-10.0162
shihua	-10.0163
wuwei	-10.0171
bolan	-10.0171
”shi	-10.0173
jingdu	-10.0175
liangda	-10.018
dongman	-10.018
dongshizhang	-10.0181
zuiwei	-10.0187
00	-10.0188
mingwei	-10.0191
chuanmei	-10.0191
shejishi	-10.0196
,ci	-10.0198
biyehou	-10.0201
)、《	-10.0209
zhang。	-10.0211
,tigao	-10.0212
zhizhi	-10.0217
zhuru	-10.0219
wanzheng	-10.0221
yanjin	-10.0229
gongbu	-10.0232
tiji	-10.0245
jingsai	-10.0246
shicong	-10.0252
heqita	-10.0252
yongtu	-10.026
jiaji	-10.0264
diyige	-10.0271
kangri	-10.0272
jixiang	-10.0273
yida	-10.0274
zhuyou	-10.0275
heping	-10.0278
shuoshiyanjiu	-10.0279
、xiao	-10.028
muqin	-10.0284
jingtou	-10.0284
yaoqing	-10.029
lingyi	-10.0293
zhizai	-10.0294
anxian	-10.0295
gudian	-10.0295
700	-10.0302
chuantongde	-10.0302
gonghui	-10.0307
jirou	-10.0315
mingxing	-10.0316
zhandi	-10.0317
le。	-10.0317
ganshi	-10.0319
tuxing	-10.0322
chengban	-10.033
caigou	-10.0333
xianzhengfu	-10.0335
79	-10.0336
wangshi	-10.0341
woshi	-10.0341
liyu	-10.0344
qingshui	-10.0344
dianlan	-10.0347
gaodang	-10.0352
fanweinei	-10.0358
tiaozhan	-10.036
haerbin	-10.0363
zaizhi	-10.0363
jiangyou	-10.037
jiaodu	-10.0384
dadi	-10.0388
diqude	-10.0389
aihaozhe	-10.0394
sifa	-10.04
guomin	-10.04
gaijin	-10.0402
1963nian	-10.0402
zuiju	-10.0404
daoda	-10.0416
shisan	-10.0417
yixi	-10.0419
pailie	-10.0424
changpian	-10.0425
fushu	-10.0431
buyao	-10.0441
xiliechanpin	-10.0442
jiashi	-10.0443
06	-10.0447
ming:	-10.0447
qicai	-10.0447
tongbu	-10.045
xiaoer	-10.0453
1964nian	-10.0454
tantao	-10.0454
bingren	-10.0455
renminjiefangjun	-10.0456
ernian	-10.0459
junyou	-10.0461
biaozhunhua	-10.0465
guodao	-10.0465
▁“	-10.0467
guize	-10.0471
qudong	-10.0472
waiguan	-10.0476
youxiujiaoshi	-10.0483
gaishu	-10.0486
duogongneng	-10.0486
wanyuan	-10.0486
erzi	-10.0487
chaoji	-10.0496
zhonglei	-10.0497
,dang	-10.05
87	-10.0501
renke	-10.0503
gongyu	-10.0514
gongan	-10.0515
yuanjian	-10.0522
jianshen	-10.0523
1974nian	-10.0524
diren	-10.0532
famen	-10.0537
degongzuo	-10.0538
shangwang	-10.0538
defangfa	-10.054
youxie	-10.0549
6ge	-10.055
cun,	-10.0551
weizhude	-10.0551
xunzhao	-10.0556
zongtong	-10.0556
youle	-10.0558
zhaodao	-10.0565
1977nian	-10.0566
。dan	-10.0578
diyici	-10.0588
shidi	-10.0591
mianyi	-10.0593
dakai	-10.0595
shengdong	-10.0596
xiangmudi	-10.0599
youci	-10.0605
,cujin	-10.061
xiashu	-10.062
yanjiuhui	-10.0621
ceding	-10.0623
wandun	-10.0625
94	-10.0625
,zheshi	-10.0626
jiayi	-10.0631
5nian	-10.0638
bimian	-10.0642
guangbodianshi	-10.0648
7-	-10.065
xiangzhen	-10.0651
chuangkou	-10.0652
qudele	-10.066
yicheng	-10.0661
site	-10.0663
lishishang	-10.0664
kewei	-10.0664
shendu	-10.0666
xingrong	-10.067
74	-10.0674
touming	-10.0675
zhuyaoshi	-10.0676
jiedai	-10.0677
,qing	-10.0677
neiwai	-10.0686
qifu	-10.0688
zhuyan	-10.069
chude	-10.0696
guoqu	-10.0697
tongnian	-10.0699
dailing	-10.0708
xiangsu	-10.0712
』	-10.0714
84	-10.0717
hao,	-10.0719
61	-10.0719
89	-10.0724
hu,	-10.0728
yeji	-10.0729
quanxin	-10.073
gangqin	-10.0735
huoxing	-10.0737
03	-10.0739
yuce	-10.074
caizhi	-10.0744
fuwu,	-10.0747
zhiliangguanli	-10.0748
yuzhou	-10.075
2010	-10.0751
zhifang	-10.0763
chuizhi	-10.0763
2008	-10.0767
nianling	-10.0769
xingchengle	-10.0771
zhuanyi	-10.0775
zhijiao	-10.0777
meishi	-10.0777
guan、	-10.0778
jiqita	-10.078
zhize	-10.0785
dedifang	-10.0786
zhankai	-10.0786
gaixiao	-10.0786
jiaozuo	-10.0789
shisheng	-10.0791
zaiguonei	-10.0801
qiaoliang	-10.0806
zouxiang	-10.0806
xijie	-10.0807
tixian	-10.0808
canjiagongzuo	-10.0809
》huo	-10.0813
guanzhi	-10.0815
feizhou	-10.0815
huojiang	-10.0821
fenbianlv	-10.0824
shenshou	-10.0825
chuanganqi	-10.0831
》de	-10.0831
huowu	-10.0832
zei	-10.0834
meizhou	-10.0841
zaizheli	-10.0844
2nian	-10.0846
xinxihua	-10.0846
qinghua	-10.0848
duowei	-10.0855
dongnanya	-10.0856
you“	-10.0861
sheng。	-10.0867
hunningtu	-10.0867
weizhu。	-10.087
ningbo	-10.0872
liuxue	-10.0876
weibo	-10.0877
zili	-10.0889
peibei	-10.0893
1973nian	-10.0895
cengzai	-10.09
pubian	-10.0906
yidian	-10.0907
zhujiang	-10.0909
、fu	-10.0911
linghuo	-10.0913
zhengfa	-10.0915
xianjingeren	-10.0917
shangcheng	-10.0918
danbaizhi	-10.092
quchu	-10.0923
defangshi	-10.0923
tizhi	-10.0923
zhongwai	-10.0928
shita	-10.0931
zi,	-10.0936
zongshu	-10.0938
cishu	-10.0939
yepian	-10.0944
dangwei	-10.0944
xiangshi	-10.0946
daqi	-10.0948
tujing	-10.0949
bianli	-10.0957
benshen	-10.0962
mingque	-10.0966
aer	-10.0969
yidao	-10.0973
xueshi	-10.0974
zonggongsi	-10.0975
gongzhu	-10.0976
fandian	-10.0977
lingwai	-10.0979
yichuan	-10.098
tianjia	-10.0983
,xianyou	-10.0984
1949nian	-10.0984
you《	-10.0989
xianjingongzuoz	-10.099
zhibu	-10.0991
,zong	-10.0998
zhongyu	-10.0998
yizhang	-10.0998
limian	-10.0999
pingmu	-10.1009
yuancheng	-10.1009
jianpan	-10.1015
guanjie	-10.1018
jiazhang	-10.1019
93	-10.102
paichu	-10.1023
chongzu	-10.103
guanliju	-10.1038
1965nian	-10.104
mingming	-10.1041
shiwen	-10.1045
puji	-10.1053
liru	-10.1056
geti	-10.1057
hanjie	-10.1057
dianxin	-10.1058
。“	-10.1064
qia	-10.1069
±	-10.1081
jiaoyan	-10.1091
1955nian	-10.1092
huade	-10.1094
menggu	-10.1095
shici	-10.1099
yanshen	-10.1101
liudong	-10.1102
deyingxiang	-10.1103
zai《	-10.1106
yiti	-10.1113
budao	-10.112
quanqu	-10.1131
qizi	-10.1131
gongshe	-10.1131
fanghu	-10.1134
5%	-10.1135
gangwei	-10.1136
→	-10.1139
liutong	-10.1141
kaohe	-10.1148
jiukeyi	-10.1148
dezuoyong	-10.115
110	-10.1153
suozaidi	-10.1153
youxiude	-10.1156
shengjiang	-10.1157
xiufu	-10.1164
1962nian	-10.1164
shuimian	-10.1166
fayuan	-10.1167
luoma	-10.1169
zhangai	-10.1173
gongdangyuan	-10.1175
xiangxin	-10.1175
yangsheng	-10.1178
1)	-10.1179
gengshi	-10.118
canjiageming	-10.118
dujia	-10.1182
geji	-10.1188
jiyou	-10.1189
shengchanjidi	-10.119
jinji	-10.1192
jianguan	-10.1195
lizu	-10.1196
gongzi	-10.1197
dedaxing	-10.1202
yuwen	-10.121
zhouqi	-10.1211
dianshiju	-10.1212
liangci	-10.1213
、xin	-10.1216
gaoxinjishu	-10.1219
chengxing	-10.1221
peiyu	-10.1234
mofa	-10.1237
meiyige	-10.1239
huodong。	-10.1242
jiuzhi	-10.1244
baiyu	-10.1246
meitian	-10.1247
leiji	-10.1247
guolv	-10.1252
beijingdaxue	-10.1254
jiejin	-10.1254
tiaoli	-10.1256
---	-10.1259
jinqu	-10.1259
:3	-10.1261
shetuan	-10.1263
yichengwei	-10.1263
zhibei	-10.1263
zhanyi	-10.1267
chengle	-10.1268
ilongjiangsheng	-10.1272
manyi	-10.1276
2011	-10.1285
chengbao	-10.1287
youjiao	-10.129
▁zhuyao	-10.1292
congshu	-10.1295
liangnian	-10.1296
danshi	-10.1303
juedui	-10.1303
shifanxueyuan	-10.1305
putao	-10.1313
92	-10.1314
yipi	-10.1316
limi,	-10.1325
83	-10.1326
dierjie	-10.1332
luoji	-10.1335
muzhi	-10.1338
gudingzichan	-10.134
diqi	-10.1342
yanzheng	-10.1347
jianxiao	-10.1348
jinhua	-10.1348
feixing	-10.1349
qiguan	-10.1359
guangxian	-10.136
1961nian	-10.1362
tesede	-10.1363
chang、	-10.1366
bushao	-10.1367
yiran	-10.1367
xiyin	-10.1375
renyi	-10.1385
gongli,	-10.1385
fangdichankaifa	-10.1386
kuaijie	-10.1391
”(	-10.1393
ganjue	-10.1398
wode	-10.1405
()shi	-10.1412
ligongdaxue	-10.1417
baixing	-10.1422
wenzhou	-10.1423
reqing	-10.1425
gongyingshang	-10.1431
fenxiao	-10.1433
1952nian	-10.1434
helan	-10.144
guangxue	-10.1442
daiyou	-10.1443
jiaxiang	-10.1447
hebing	-10.1449
bude	-10.1451
dacheng	-10.1452
zhanxian	-10.1454
weikehutigong	-10.1456
1950nian	-10.1467
fangjian	-10.1468
conger	-10.147
xitong、	-10.1471
guogongchandang。	-10.1473
jintian	-10.1475
gongzuoshi	-10.1476
changfang	-10.1476
baojing	-10.1478
buru	-10.1481
quanshu	-10.1482
guofang	-10.1483
yuyin	-10.1485
jiaohuan	-10.1491
chengdushi	-10.1493
chunqiu	-10.1495
shumu	-10.1497
tuliao	-10.1499
jia,	-10.1503
3.	-10.1504
▁zhongguo	-10.1505
yanjiushengxueli	-10.1506
wuzhuang	-10.1509
lu、	-10.1511
xingqi	-10.1514
“san	-10.1516
shixiang	-10.1524
chejian	-10.1524
duoniande	-10.1529
youhao	-10.1534
yuyitide	-10.1535
xiashe	-10.1559
meitan	-10.1568
jiaotongbianli	-10.1569
dangqian	-10.1574
richang	-10.1576
zongshi	-10.1581
xinren	-10.1582
mima	-10.1583
shuiwu	-10.1588
dingzhi	-10.1589
shouzhi	-10.1592
ninde	-10.1593
lanse	-10.1595
taolun	-10.1596
dengnongzuowu。	-10.1601
dangde	-10.1607
hexian	-10.161
youke	-10.161
chuguo	-10.1616
shixi	-10.1619
furen	-10.1624
yijie	-10.1627
nanzi	-10.1632
chutu	-10.1637
saomiao	-10.1638
baozhi	-10.1643
faqi	-10.1643
yinan	-10.1645
yuanyi	-10.1646
lanmu	-10.1647
chulaide	-10.1652
fagui	-10.1653
jiaojie	-10.1654
shifang	-10.1668
zucheng,	-10.167
fuyi	-10.1674
wuxing	-10.1679
zhizhong	-10.168
,fangru	-10.1682
2007	-10.1682
matou	-10.1684
dangweishuji	-10.1686
yichu	-10.1699
cun、	-10.1699
zuqiujulebu	-10.17
xianglian	-10.1703
09	-10.1704
yibiao	-10.1712
zeshi	-10.1719
,jiaru	-10.1724
,bi	-10.1726
daima	-10.1726
chubanshechuban	-10.1728
1959nian	-10.1732
,dichu	-10.1733
900	-10.1733
guode	-10.1737
guanyuan	-10.1738
shiming	-10.1739
yingji	-10.174
07	-10.1742
fenxiang	-10.1746
1.0	-10.1747
xueguan	-10.1749
tangdai	-10.1752
,xingcheng	-10.1753
yisuo	-10.1756
1971nian	-10.1758
▁·	-10.1759
shuizhong	-10.1761
quanguogedi	-10.1761
xiaoxi	-10.1769
,tebieshi	-10.1772
zhuanyeshengchan	-10.1777
kongjun	-10.1777
sunshi	-10.1781
fanzui	-10.1782
meishuxueyuan	-10.1785
zucheng。	-10.1785
sulian	-10.1786
kunchong	-10.1789
zhuanzhi	-10.1795
leyi	-10.18
chengyu	-10.1801
diya	-10.1804
wenquan	-10.1811
ban,	-10.1813
shehuikexue	-10.1814
shuifen	-10.1816
henda	-10.1818
2.	-10.1819
shi:	-10.1824
》he《	-10.1831
baowei	-10.1836
、sheng	-10.1837
yuci	-10.1839
dongguan	-10.184
zuodao	-10.1844
luxian	-10.1846
mishuzhang	-10.1847
jiaohui	-10.1848
quanti	-10.1849
(-)	-10.185
zhudong	-10.1856
▁ben	-10.1857
taiguo	-10.1863
fangshui	-10.1865
fangyan	-10.1865
dayue	-10.1868
wanli	-10.1877
chaxun	-10.1878
shangjia	-10.188
ditie	-10.188
08	-10.1887
chayi	-10.1891
chongjian	-10.1893
huobi	-10.1896
8ge	-10.1896
banyun	-10.1903
zhucheng	-10.1904
xuanzhuan	-10.1921
zaimeiguo	-10.1922
ganqing	-10.1922
gaodengjiaoyu	-10.1928
pingguo	-10.1932
jihui	-10.1932
sousuo	-10.1934
xuejia	-10.1938
wuhanshi	-10.1939
huidao	-10.194
yuanchuang	-10.1943
huahui	-10.1944
liunian	-10.1947
jiangqi	-10.1947
deqiye	-10.1949
chuandi	-10.1954
desheji	-10.1955
jingxuan	-10.1958
1hao	-10.196
qianjin	-10.1964
▁chanpin	-10.1968
wanyuan,	-10.1969
):	-10.1971
laoren	-10.1976
,jingguo	-10.198
cunren。	-10.1985
jiaoshou,	-10.1986
diandong	-10.1987
fenghuang	-10.1992
quanfangwei	-10.1993
zhongxiaoqiye	-10.2001
xuewei	-10.2001
ruogan	-10.2001
shenfen	-10.2003
220	-10.2012
1953nian	-10.2014
wuxi	-10.2015
xingji	-10.2017
geli	-10.2021
▁●	-10.2021
youxiaode	-10.2021
,shixian	-10.2022
chenglide	-10.2028
qinghuadaxue	-10.2028
yidingde	-10.2028
duifang	-10.2029
。benshu	-10.2032
yiwai	-10.2036
fangfu	-10.204
2006	-10.2041
xiayou	-10.2046
shijiao	-10.205
▁5.	-10.205
hui:“	-10.2051
jianduguanli	-10.2057
jishen	-10.2061
jiedu	-10.2062
sanguo	-10.2063
2009	-10.2074
weirao	-10.2078
guanshang	-10.2079
jingshi	-10.2082
2003	-10.2085
dingyi	-10.2086
houzai	-10.2087
shoujia	-10.2087
beichengwei	-10.2091
jihu	-10.2095
nanxing	-10.2095
xini	-10.2101
peiyou	-10.2102
rangren	-10.2103
yuanyou	-10.211
jiameng	-10.2111
suiji	-10.2112
▁gai	-10.212
dexingshi	-10.2122
,shou	-10.2122
ganshou	-10.2123
biyu	-10.2124
buxing	-10.2127
shiyisuo	-10.2129
fabiaolunwen	-10.2131
yisi	-10.2134
xianfeng	-10.2134
,yan	-10.2136
tazai	-10.2141
quanzhen	-10.2146
xianglin	-10.2146
fangxing	-10.2147
wenwubaohudanwei	-10.215
shiyiming	-10.2153
1935nian	-10.2155
nanyi	-10.2157
shifanxuexiao	-10.2158
kunming	-10.2161
xiugai	-10.2162
jingjizongshouru	-10.2164
oumei	-10.2165
meihua	-10.217
0.2	-10.2172
shu·	-10.2174
diaoke	-10.2174
shuangfang	-10.2176
yaoshi	-10.2177
kaifade	-10.2187
0.3	-10.2188
pinglun	-10.2189
gongli。	-10.2202
wangwang	-10.2202
wuye	-10.2203
shizu	-10.2203
jindai	-10.2204
guanghua	-10.2207
chuji	-10.2209
zhurenyishi	-10.221
4000	-10.2212
ranliao	-10.2216
jingyan,	-10.2216
/2	-10.222
jiaoshou。	-10.2223
yingjian	-10.2226
shiyijiaji	-10.2229
siliao	-10.223
niya	-10.2232
fengqing	-10.2236
""	-10.2238
():	-10.2239
xishi	-10.2246
chenglile	-10.2247
guodu	-10.2248
128	-10.2249
kanwu	-10.2252
likai	-10.2252
zhebu	-10.2258
yilei	-10.226
guanligongzuo	-10.2263
sanwei	-10.2264
zhenzhi	-10.2264
degushi	-10.2266
gongjian	-10.2267
zhishichanquan	-10.2272
qianyan	-10.2273
xincheng	-10.2278
gaokao	-10.2278
fashi	-10.2281
meiyi	-10.2289
lingshou	-10.229
yundongyuan	-10.2291
detongshi,	-10.2291
▁5、	-10.2292
rongliang	-10.2293
degezhong	-10.2297
wanchengle	-10.2299
○	-10.2299
quebao	-10.2302
_	-10.2315
nianchan	-10.2324
fuwuzhongxin	-10.233
zhongxiaoxue	-10.2332
wogongsi	-10.2334
dichan	-10.2335
mingjia	-10.2342
fachu	-10.2343
dingji	-10.2346
baitang	-10.2347
quxian	-10.2352
2)	-10.2353
zongbu	-10.2355
tixirenzheng	-10.2357
fuke	-10.2359
xuni	-10.2365
xiujian	-10.237
bingli	-10.2373
sanji	-10.2376
yuenan	-10.238
xinying	-10.2382
shaonv	-10.2382
nongyedaxue	-10.2384
you:	-10.2385
xinxian	-10.2387
qianlong	-10.2391
mianfen	-10.2391
denglingyu	-10.2393
gengdimianji	-10.2394
shuishou	-10.2395
wupin	-10.2399
yuyi	-10.2401
silu	-10.2403
chanpin。	-10.2406
zhaosheng	-10.2407
niuyue	-10.2408
dian,	-10.2408
jiaoyujiaoxue	-10.2413
duoshu	-10.2415
qiyeguanli	-10.2417
guozhong	-10.2419
dongshi	-10.2424
jiaozhi	-10.2427
tonghua	-10.2431
jibu	-10.2432
1936nian	-10.2433
yinqide	-10.2434
chufang	-10.2437
kegong	-10.2444
qianshenwei	-10.2445
▁*	-10.2449
shuiguo	-10.245
qianwang	-10.2454
mengxiang	-10.2455
lengque	-10.2458
”;	-10.2459
\	-10.2461
xinxijishu	-10.2464
gongyuanqian	-10.2473
nongdu	-10.2475
qingbao	-10.2478
lajiao	-10.2479
fenhui	-10.248
wanzhengde	-10.2485
xiaozu	-10.2487
“zhongguo	-10.2489
yishou	-10.249
juzhang	-10.2491
yiwen	-10.2492
#	-10.2494
▁zhichi	-10.25
jufujuzhang	-10.25
huangshan	-10.2506
jubu	-10.2507
xiaomai	-10.2508
guannian	-10.2513
gongzuorenyuan	-10.2513
▁xuexiao	-10.2513
konggu	-10.252
xiangwei	-10.2522
houren	-10.2522
chuangbanyu	-10.2526
qiwei	-10.2527
taiping	-10.2529
|	-10.2544
shaoshuminzu	-10.2545
jiaolian	-10.2549
yuanzhang	-10.255
4.5	-10.2551
guanchezhixing	-10.2553
xiai	-10.2553
renwu。	-10.2557
weiyide	-10.2557
dengdeng	-10.2558
nami	-10.2559
shimin	-10.2559
81	-10.2562
renzhonggong	-10.2566
luoyang	-10.2568
tingzhi	-10.2568
tebieshi	-10.2577
lijing	-10.2579
linian,	-10.2591
yifen	-10.2593
zheyangde	-10.2593
zhang、	-10.26
kejichengguo	-10.2601
8-	-10.2602
jiangxiang	-10.2604
xiangcun	-10.2611
qianzhi	-10.2615
gufenyouxian	-10.2615
gaicun	-10.2619
dajiudian	-10.2621
tezhong	-10.2622
guowang	-10.2622
shuijing	-10.2623
yangzhou	-10.2626
jiangshu	-10.2631
mote	-10.2638
xingye	-10.2641
1939nian	-10.2642
zhongxin、	-10.2643
kafei	-10.2645
jiaocha	-10.2649
er·	-10.265
qiangdiao	-10.265
xuanyong	-10.2655
huxiang	-10.2657
、gao	-10.2657
xieshou	-10.2661
qiudui	-10.2661
,shizhi	-10.2663
mimi	-10.2672
biaozhang	-10.2673
、bai	-10.2676
xianhouzai	-10.2677
gangkou	-10.2678
bankuai	-10.2682
1500	-10.2685
shoufu	-10.2688
gefangmian	-10.2689
yishangde	-10.2696
lanzhou	-10.2696
gongzhong	-10.2698
-4	-10.2699
dazhan	-10.2703
changhe	-10.2706
yue:“	-10.2707
chuchuzhang	-10.2708
qinggan	-10.2712
”“	-10.2721
xiade	-10.2724
xinqu	-10.2727
jisheng	-10.2729
zhusu	-10.2733
fada	-10.2736
aiguo	-10.2737
neihan	-10.2741
,nai	-10.2741
jishu、	-10.2742
zhongyuan	-10.2744
douhui	-10.2746
1934nian	-10.2748
bande	-10.275
mingzhu	-10.2751
nvren	-10.2754
dayu	-10.2757
huabei	-10.2759
lishui	-10.2759
71	-10.2759
“”	-10.276
mali	-10.2761
yuanzhu	-10.2764
tishi	-10.2765
qubie	-10.2766
bieren	-10.2767
yingye	-10.2769
zuihaode	-10.277
jijian	-10.2771
baoshi	-10.2775
dajiang	-10.2778
yanan	-10.2779
shengyin	-10.2781
yinxing	-10.2781
zhuguanbumen	-10.2783
nanren	-10.2784
nongchanpin	-10.2785
(ru	-10.2785
xiangchuan	-10.2785
laidao	-10.2786
,xuexiao	-10.2794
:《	-10.2794
huasheng	-10.2795
youjian	-10.2796
songdai	-10.2798
zhijia	-10.2799
8nian	-10.2799
yongyuan	-10.28
jingjie	-10.2809
meikuang	-10.281
1.8	-10.281
xianjinjiti	-10.2816
(2)	-10.2821
liaojiu	-10.2822
xingge	-10.2829
shenhe	-10.2832
shuaixian	-10.2832
xiangtong	-10.2832
,haiyou	-10.2835
130	-10.2838
4nian	-10.284
zhengji	-10.2844
2005	-10.2846
。tamen	-10.2848
jingcha	-10.2849
taipingyang	-10.2849
guan,	-10.285
wanpingfangmi,	-10.2851
1940nian	-10.2856
dianci	-10.2857
jike。	-10.2859
diba	-10.286
,jiushi	-10.2862
beimian	-10.2863
yinghua	-10.2864
caifu	-10.2864
xingjian	-10.2867
xinchanpin	-10.2872
redai	-10.2872
buguo	-10.2873
jiangshule	-10.2874
sanzhong	-10.2875
1945nian	-10.2877
sanxing	-10.2881
//	-10.2882
duan,	-10.2888
zhishi,	-10.2896
delixiang	-10.2899
laodongli	-10.2899
huanjingbaohu	-10.2901
queshi	-10.2902
guance	-10.2904
yuzhi	-10.2909
xueshixuewei	-10.2911
yanye	-10.2914
baokan	-10.2916
nannv	-10.2916
yingzao	-10.2918
xinhua	-10.292
●	-10.292
。women	-10.2922
jianguo	-10.2923
zhushu	-10.2924
yingde	-10.2925
shuxie	-10.2927
youyong	-10.293
buchong	-10.2938
%,	-10.294
di2	-10.2942
beian	-10.2943
1938nian	-10.2944
yuanyu	-10.2948
anquanshengchan	-10.2952
lianhua	-10.2955
jiangjie	-10.2956
,ruguo	-10.296
jingjixiaoyi	-10.2964
gengwei	-10.2967
xiangguande	-10.297
yikao	-10.2973
kepu	-10.2977
guolu	-10.2979
dianxing	-10.2979
chufa	-10.298
fangyu	-10.2982
yuming	-10.2983
bandao	-10.2984
yuanlai	-10.2985
zhuzao	-10.2985
yekeyi	-10.2985
yinfa	-10.2987
renminbi	-10.299
ban、	-10.2994
gandao	-10.2996
ticai	-10.2997
limi	-10.2997
zongdui	-10.3001
hese	-10.3004
suoyoude	-10.3005
qingdaoshi	-10.3006
liuchuan	-10.3016
lipin	-10.3017
fanfu	-10.3023
zhizi	-10.3027
yuqita	-10.3028
tuixiu	-10.3028
fadong	-10.3029
zhenkong	-10.3032
yanzou	-10.3034
gongguan	-10.3035
nianpingjunqiwen	-10.304
jinchukou	-10.3044
:4	-10.3044
yebu	-10.3046
tongxue	-10.3049
,shizhongguo	-10.305
zuowu	-10.3051
zhiguan	-10.3053
,ershi	-10.3056
(.)	-10.3064
shouxi	-10.3065
buzhang	-10.3067
shijiu	-10.307
ningxia	-10.3075
yulei	-10.3076
,nian	-10.3078
neide	-10.308
zhongsheng	-10.3083
shiwomen	-10.3083
xiaoyu	-10.3086
yinyong	-10.3087
shenmi	-10.3087
wenxin	-10.3089
xisheng	-10.3089
xiangqi	-10.3089
wangye	-10.3091
gongyimeishu	-10.3092
shangbu	-10.3093
suzhijiaoyu	-10.3093
▁zuida	-10.3096
kouqiang	-10.3096
shidian	-10.3098
name	-10.3099
jijing	-10.3102
yuanxian	-10.3105
shengwuxue	-10.3105
1200	-10.3106
ong	-10.3112
buyu	-10.3114
dansheng	-10.3114
u	-10.3114
bushou	-10.3115
,bingyu	-10.3124
zhuanyejishu	-10.3125
fenjie	-10.3131
tinei	-10.3137
chulai	-10.3138
zhongji	-10.3138
shoushi	-10.3141
shangchang	-10.3141
banzhuren	-10.3145
quanxinde	-10.3146
jiayuan	-10.315
huazhong	-10.3153
yunxu	-10.3155
liaoxiao	-10.3159
yanshou	-10.3165
-6	-10.3172
ˇ	-10.3173
gongsichengliyu	-10.3185
shengchannengli	-10.3186
miqie	-10.3187
like	-10.3191
yixilie	-10.3192
turan	-10.3192
tichule	-10.3194
jingang	-10.3195
zhushi	-10.3195
yitong	-10.3195
()、	-10.3196
ercheng	-10.3201
zhe。	-10.3203
baoliu	-10.3207
taizi	-10.3207
sheding	-10.3207
feishui	-10.3208
yihui	-10.3209
xijun	-10.3214
xila	-10.3216
shouming	-10.3217
baofa	-10.3218
qingxiang	-10.3219
yanhai	-10.322
,000	-10.3221
fengjingqu	-10.3222
shoufei	-10.3226
luoxuan	-10.3231
jingong	-10.3237
,duo	-10.3241
,tade	-10.3241
sizhou	-10.3242
bushu	-10.3244
2014nian	-10.3245
ju《	-10.3252
。ben	-10.326
pingxian	-10.3262
tengtong	-10.3262
zongrenkou	-10.3263
tianshi	-10.3266
qingjing	-10.3268
xuanbu	-10.3276
,gao	-10.3277
°C,nianjiangshui	-10.3284
sheji,	-10.3285
zhuliu	-10.3286
gugan	-10.3289
bawo	-10.3291
tonghang	-10.3295
fujuzhang	-10.3303
zuoyou,	-10.3307
shuxing	-10.331
yinzi	-10.331
keyanxiangmu	-10.3312
zhilu	-10.3313
youya	-10.3314
taiyuan	-10.3316
zhaokai	-10.3317
mingyi	-10.3321
dehua	-10.3322
tongxing	-10.3323
zuihao	-10.3324
zengchan	-10.3325
lidai	-10.3329
fen,	-10.3329
huoshan	-10.3331
qingxin	-10.3332
chuanyue	-10.3333
caoyuan	-10.3334
diceng	-10.3335
bubian	-10.3337
houdu	-10.3341
hangai	-10.3342
▁ta	-10.3345
jilei	-10.3346
ー	-10.3346
niding	-10.3347
hezuohuoban	-10.3347
weier	-10.3347
mulu	-10.3348
juyuan	-10.3351
jiejian	-10.3355
shengdi	-10.3355
chengde	-10.336
falvfagui	-10.3366
pingtai,	-10.3366
,nan	-10.3368
qingchao	-10.337
dejingyinglinian	-10.3374
zenme	-10.3374
jinri	-10.338
guti	-10.3381
zhuying	-10.3383
erci	-10.3384
youguanbumen	-10.3385
jiazhuang	-10.3385
huiji	-10.3386
ting、	-10.3386
lirun	-10.339
zaiyu	-10.3392
zirankexuejijin	-10.3396
zirancunlishuyu	-10.3405
fuwuyu	-10.3406
bujiu	-10.3419
zhencheng	-10.3419
zhongyaocanshu	-10.3421
、xi	-10.3422
fubu	-10.3428
fensan	-10.3435
yimin	-10.3441
,buduan	-10.3445
zhuanzhuyu	-10.3447
!”	-10.3447
huxing	-10.3452
yousuo	-10.3452
jijie	-10.3454
yinyuexueyuan	-10.3456
baxi	-10.3461
si·	-10.3463
hefazhan	-10.3463
meiri	-10.3467
wanqu	-10.3469
、yan	-10.3474
zhan,	-10.3475
dezuopin	-10.3475
guanlihe	-10.3479
diguo	-10.3481
,shuyushanqu。	-10.3487
jiali	-10.3488
changcheng	-10.3493
1967nian	-10.3494
yifang	-10.3499
zhileng	-10.3501
guanli,	-10.3504
1951nian	-10.3507
shangmian	-10.3508
shengdao	-10.3517
didian	-10.3517
1941nian	-10.352
guanlirenyuan	-10.3521
pifa	-10.3522
guangfande	-10.3522
yikuai	-10.3525
gezi	-10.3526
1942nian	-10.3526
sanjiao	-10.3527
yougengdi	-10.3532
1.6	-10.3532
kuangwu	-10.3532
shejide	-10.3535
chuancheng	-10.3536
liangxiang	-10.3536
daidong	-10.3537
,bian	-10.354
xiangyu	-10.3542
10-	-10.3546
diwen	-10.3549
nonghu	-10.3551
changnian	-10.3559
jisu	-10.356
dangzuchengyuan	-10.3562
yeyu	-10.3562
yiyuan。	-10.3563
gaodengxuexiao	-10.3567
》、《zhongguo	-10.357
dalou	-10.3572
lixing	-10.3578
wuti	-10.3578
jiuzai	-10.3581
sikao	-10.3585
di1	-10.3585
liuxia	-10.359
yanjiu》	-10.3591
xiajiang	-10.3597
qingshi	-10.3601
kefu	-10.3602
reai	-10.3605
guojihua	-10.3606
boluo	-10.3607
xinling	-10.3609
nengli,	-10.3613
。zhezhong	-10.3614
pingshen	-10.3616
)ren。	-10.3616
qunei	-10.3618
zaiyiqi	-10.3618
mingan	-10.3619
zhiqi	-10.362
suozhi	-10.3621
laodongmofan	-10.3621
shenghuode	-10.3623
liya	-10.3625
tizhong	-10.3625
tang、	-10.3625
duizhang	-10.3631
xuezhuanye	-10.3646
hushi	-10.3648
nianlai,	-10.3652
dongguanshi	-10.3655
kehude	-10.3658
banfade	-10.3659
cunlishuyuyunnan	-10.3667
-5	-10.3668
,shenzhi	-10.3668
shukong	-10.3668
4)	-10.367
dongnanbu	-10.3671
aomen	-10.3671
jutuan	-10.3672
erke	-10.3673
deguanxi	-10.3674
rijun	-10.368
(191	-10.368
shanyu	-10.3684
shuo,	-10.3685
renqi	-10.3687
zhaopin	-10.3688
zhuyaoyongyu	-10.3688
zaoyi	-10.3689
dezonghexing	-10.3692
taishan	-10.3692
dingqi	-10.3693
deng)	-10.3697
liansai	-10.3703
haineiwai	-10.3703
xianshiping	-10.3707
jiasu	-10.3709
chuangshiren	-10.371
1948nian	-10.3718
pusa	-10.3718
fanrong	-10.372
,ni	-10.372
%	-10.3722
rujin	-10.3724
jiangxian	-10.3725
xinjishu	-10.3731
kaoyan	-10.3732
,zuihou	-10.3732
renqun	-10.3735
shoudong	-10.3736
naizhi	-10.3737
zhewei	-10.3743
gongchandangyuan	-10.3745
bianju	-10.3745
guoshu	-10.3747
zhibao	-10.3749
-8	-10.375
deneirong	-10.3754
1944nian	-10.3758
3.0	-10.376
qiushi	-10.376
shenpi	-10.3769
guanxia	-10.3769
denghangye	-10.377
fengshi	-10.3773
wugong	-10.3775
》juan	-10.3779
jianjian	-10.3781
gongchengxueyuan	-10.3782
yitian	-10.3783
shebei、	-10.3786
hunyin	-10.3787
kuangye	-10.3787
hangtian	-10.3794
jiaotongdaxue	-10.3801
jiangyu	-10.3802
xiangyingde	-10.3802
youmo	-10.3807
keyanchengguo	-10.3813
duoshao	-10.3822
▁-	-10.3826
xinyang	-10.3827
huishou	-10.3831
xianzhuang	-10.3834
04	-10.3836
kuangshan	-10.3838
qinzi	-10.3841
le“	-10.385
。tade	-10.3851
tanxing	-10.3851
2004	-10.3852
。tashi	-10.3854
changchun	-10.3855
sima	-10.386
fuyin	-10.3865
0.8	-10.3866
dejingshen	-10.3868
0-	-10.3868
wuchang	-10.3876
huwai	-10.3879
guohua	-10.3884
(190	-10.3885
(yuan	-10.3889
dengzhi。	-10.3892
pian。	-10.3893
keguan	-10.3896
chubu	-10.3896
diaoyan	-10.3896
guoyou	-10.3897
chanyu	-10.3902
haoyou	-10.3909
jiashang	-10.3914
fujia	-10.3918
shehuigejie	-10.3925
kexuejia	-10.3925
huise	-10.3929
xiaxia	-10.3929
hezuo,	-10.3932
gongheguo	-10.3934
chuandong	-10.3938
yanxi	-10.3941
zuijin	-10.3941
3)	-10.3942
shiyijiazhuanye	-10.3942
wangchao	-10.3946
hujiaofen	-10.3946
huaren	-10.3948
juqing	-10.3948
qidao	-10.395
siren	-10.3952
。ceng	-10.3953
(1)	-10.3954
jieru	-10.3955
shaoshu	-10.3957
maodun	-10.3957
chedi	-10.3961
wannian	-10.3963
weixiao	-10.3964
,caiyong	-10.3966
qiji	-10.3967
ci,	-10.3969
fuwude	-10.3971
qile	-10.3972
dejishu	-10.3973
yuelaiyue	-10.3974
nage	-10.3977
beisong	-10.3977
▁women	-10.3979
,tashi	-10.3983
changan	-10.3985
bengongsi	-10.3986
duoyuanhua	-10.3987
1946nian	-10.3987
yanbian	-10.3988
zhongguohua	-10.3988
dongmai	-10.399
fasong	-10.3991
chushen	-10.3991
》zhongde	-10.3994
minyingqiye	-10.3996
qishiyedanwei	-10.3997
hutong	-10.3998
gongqing	-10.4001
▁5	-10.4001
xiangqian	-10.4002
kaolv	-10.4002
cun。	-10.4003
▁(2)	-10.4005
biyesheng	-10.4006
wenti,	-10.4015
huaqiao	-10.4015
shuizhi	-10.4019
zhongdu	-10.4021
shunli	-10.4022
1937nian	-10.4029
shengchanshebei	-10.4031
kekezhang	-10.4032
kekao	-10.4033
sunshang	-10.4035
changdi	-10.4039
ranshao	-10.404
kangrizhanzheng	-10.4043
zhongyiyao	-10.4045
zuiduo	-10.4046
baowen	-10.4047
muma	-10.4049
1.1	-10.405
mi。	-10.4053
zhichengde	-10.4058
jiedaobanshichu	-10.4061
yasuo	-10.4063
yanjiang	-10.4065
shengri	-10.4067
zuoqu	-10.4069
zuidi	-10.4069
mofan	-10.4069
qiannian	-10.4071
wuren	-10.4075
nongchang	-10.4081
chaoliu	-10.4085
shaoliang	-10.4086
wai,	-10.4087
,shuyu	-10.4089
zhidui	-10.4092
shenbao	-10.4097
shiqing	-10.41
erqi	-10.4103
guanlitixi	-10.4104
rongji	-10.4113
dianzhan	-10.4121
taiyangneng	-10.4124
shihui	-10.4127
2.2	-10.4127
yusuan	-10.4128
disanjie	-10.4131
mingzi	-10.4131
tingchechang	-10.4132
ziwei	-10.4136
,genju	-10.4137
1.4	-10.4138
shebei,	-10.414
:zhichi	-10.4141
heshehui	-10.4143
shouyu“	-10.4144
hongjun	-10.4145
liaofa	-10.4145
,zhichi	-10.4147
2.4	-10.4151
xiaoliyu	-10.4153
.12	-10.4155
jianzhuwu	-10.416
deshengchan	-10.4161
jingcai	-10.4162
yueqi	-10.4162
fangshi:	-10.4164
yanjiuchengguo	-10.4165
houyi	-10.4166
weizhongguo	-10.4168
xinanbu	-10.4169
deshihou,	-10.4169
fa,	-10.4172
shenpan	-10.4173
×2	-10.4174
weili	-10.4176
、huang	-10.418
jiaoxueban	-10.4184
tongcheng	-10.4187
yongshui	-10.4189
chuxue	-10.4189
bianyi	-10.419
jiuduyu	-10.4193
pingtai。	-10.4198
shanghui	-10.42
guanyin	-10.4204
xuanshou	-10.4209
qundao	-10.4211
jiada	-10.4212
shengchanqiye	-10.4213
nanhanzu	-10.4214
wuge	-10.4214
zuoyong,	-10.4215
huazhuangpin	-10.4217
wangguo	-10.4217
shandi	-10.4219
fanhui	-10.4219
jiaoxuegongzuo	-10.4219
xiangxiang	-10.4219
yuannei	-10.4224
riqi	-10.4224
yingxiangli	-10.4224
dehexin	-10.4225
shenchu	-10.4226
suidao	-10.4227
deyaoqiu	-10.4227
wenhuayishu	-10.423
yitihua	-10.4231
yinling	-10.4231
shuyuan	-10.4239
100%	-10.4247
quanzhou	-10.4252
aide	-10.4252
xingxing	-10.426
zhongshu	-10.4263
rengran	-10.4267
320	-10.4268
mouyi	-10.4272
liangwei	-10.4273
pingshi	-10.4274
chuan》	-10.4278
xiamian	-10.4285
1.3	-10.4288
qidian	-10.4292
daliangde	-10.4293
zuichu	-10.4293
eryou	-10.4297
buli	-10.4297
jisi	-10.4298
7)	-10.43
hainansheng	-10.4303
shixianle	-10.4303
jingye	-10.4305
redian	-10.4308
changgui	-10.4309
》zazhi	-10.431
yibian	-10.4311
shenghua	-10.4311
sucheng	-10.4315
yiwan	-10.4316
zhenxi	-10.4317
dangran	-10.4321
nanlu	-10.4322
houwei	-10.4326
gexinghua	-10.4331
meiguan	-10.4332
diyijie	-10.4332
shuxi	-10.4332
baoan	-10.4333
yinzhi	-10.4337
jigou。	-10.434
0～	-10.4343
kouwei	-10.4344
diliweizhiyouyue	-10.4347
xiaochu	-10.4347
jishu,	-10.4349
jieyue	-10.435
banyan	-10.4353
shichangde	-10.4355
beilu	-10.4356
pingxuan	-10.4356
jiadian	-10.4357
gaizhi	-10.4358
huaban	-10.4358
140	-10.4361
zuguo	-10.4366
teding	-10.4369
gongfen	-10.4374
hongyang	-10.4374
youhui	-10.4374
,jiancheng	-10.4374
cenghuo	-10.4374
gaoqing	-10.4377
7ge	-10.438
yiben	-10.4383
cuowu	-10.4384
langman	-10.4385
qiren	-10.4385
1943nian	-10.4388
jiaoxuelou	-10.4388
dizi	-10.439
lianheguo	-10.4391
cishi	-10.4395
luzhi	-10.4395
chicun:	-10.4399
jiaogao	-10.44
cunzhuang	-10.4401
kexueyanjiu	-10.4406
biaoming	-10.4407
,chang	-10.4411
qingli	-10.4411
zenyang	-10.4413
nanjingshi	-10.4414
daibiaozuo	-10.4416
shangwei	-10.4418
》,《	-10.4418
guidao	-10.4428
zuqiujulebu。	-10.4428
chenghao。	-10.4428
liuti	-10.4432
shiliao	-10.4433
haian	-10.4434
sui。	-10.4438
jingxiang	-10.4439
1931nian	-10.4444
,nuli	-10.445
ji·	-10.4451
riyi	-10.4451
huoyue	-10.4451
jiaodade	-10.4452
xueshengde	-10.4453
?”	-10.4454
1932nian	-10.4454
youxiangongsi、	-10.4458
。liren	-10.446
195	-10.446
fuxiaozhang	-10.446
wendingxing	-10.4461
ganjing	-10.4462
zhenzhu	-10.4466
の	-10.4466
meici	-10.4467
datong	-10.4467
linjin	-10.4469
kejidaxue	-10.447
xinshang	-10.4472
laishuo	-10.4474
dian、	-10.4474
rangni	-10.4476
ningxian	-10.4476
fazhanzhanlve	-10.4477
4.	-10.4483
qiyejia	-10.4484
fengshan	-10.4485
fangshe	-10.4486
zaishanghai	-10.4488
seze	-10.4489
8)	-10.449
shuo:“	-10.4491
fajue	-10.4493
dexuesheng	-10.4494
shougong	-10.4494
lanya	-10.4496
jishuhe	-10.45
renxing	-10.45
niurou	-10.4501
》yishu	-10.4504
1947nian	-10.4504
。ciwai,	-10.4504
ruishi	-10.4508
jingjikaifaqu	-10.4508
zhang)	-10.4514
)he	-10.4514
ne	-10.4518
daduoshu	-10.4518
guanlixitong	-10.4521
jijinhui	-10.4522
taidu	-10.4526
yeke	-10.4527
xiaojie	-10.4528
demubiao	-10.4529
duoren	-10.4529
waiyu	-10.4532
yanjiufangxiang	-10.4536
xilu	-10.4537
yirenweiben	-10.4537
zhuanyehua	-10.4539
huoqu	-10.454
zaisheng	-10.4543
zu,	-10.4543
gaopinzhi	-10.4545
chengnuo	-10.4548
shubiao	-10.4551
huafen	-10.4555
jingjiguanli	-10.4559
sizhi	-10.4564
。”《	-10.4564
hangzhoushi	-10.4567
91	-10.4567
fa、	-10.4568
donglu	-10.4573
benzhe	-10.4576
tiaojianxia	-10.458
budan	-10.4581
kougan	-10.4583
laji	-10.4584
:1.	-10.4586
heliu	-10.4588
changchang	-10.4589
dingduan	-10.459
gongyeyuanqu	-10.459
,weile	-10.4593
renwu,	-10.4596
danbao	-10.4596
fangchan	-10.46
rongye	-10.4601
fengyu	-10.4603
fuhao	-10.4604
pingfang	-10.4604
wajue	-10.4606
wanju	-10.4609
gongsi。	-10.461
qianqi	-10.4611
xiangwang	-10.4612
240	-10.4614
baiyun	-10.4615
panduan	-10.4623
----	-10.4625
yongzuo	-10.4626
,zhezhong	-10.4628
waibu	-10.4636
dingdian	-10.4638
churen	-10.4639
qiyu	-10.4639
shimeiguo	-10.464
jinmi	-10.4641
bingzai	-10.4643
fang、	-10.4646
1ren,	-10.4646
yibai	-10.4648
dafu	-10.4649
baobao	-10.4656
jiefangjun	-10.4656
5fenzhong	-10.4659
jingshen,	-10.4661
jubande	-10.4668
lianluo	-10.4673
daizhe	-10.4681
baidu	-10.4681
anzhi	-10.4682
wuda	-10.4683
zajiao	-10.4683
quanxiang	-10.4684
zuzizhixian	-10.4686
guanfang	-10.4691
bianshi	-10.4692
1929nian	-10.4692
。tongshi,	-10.4694
mu,qizhong	-10.4695
changde	-10.4696
yuanwei	-10.4699
shicai	-10.4701
。xianyou	-10.4701
quzhengfu	-10.4704
mama	-10.471
,fuze	-10.471
shexiangtou	-10.4712
jibie	-10.4718
mucai	-10.4718
gudong	-10.4722
qiwu	-10.4723
zongli	-10.4726
changqicongshi	-10.473
dishang	-10.4731
bufa	-10.4731
quanzidong	-10.4732
×1	-10.4733
nvhai	-10.4736
shangsheng	-10.4737
youzhongguo	-10.4742
yulin	-10.4746
,youming	-10.4746
gongzheng	-10.4747
chuxi	-10.4748
zuozhe:	-10.4753
neiyou	-10.4753
yujia	-10.4754
2.1	-10.4755
baozi	-10.4759
chanshengde	-10.4759
zhongliang:	-10.476
chenggongde	-10.476
zhuoyue	-10.4764
debianhua	-10.4764
tongfeng	-10.4765
hulu	-10.4766
nanchang	-10.4769
shangle	-10.4772
gaoxinjishuqiye	-10.4772
meiwei	-10.4773
yiwang	-10.4787
jiaoyanshi	-10.4791
banshi	-10.4791
xiaoli	-10.4791
zhinan	-10.4792
zhongguogudai	-10.4797
xixian	-10.4798
kesi	-10.4799
ㄢ	-10.48
zuoyi	-10.4804
jiaonang	-10.4804
ren,zhong	-10.4804
douneng	-10.4807
liangan	-10.4814
zhuzhang	-10.4821
luosi	-10.4822
()。	-10.4824
xianka	-10.4827
xiuli	-10.4828
nei,	-10.4828
mide	-10.4828
jinzhan	-10.4829
zuji	-10.483
jiakuai	-10.4834
weishengwu	-10.4838
judade	-10.4839
youyuan	-10.4839
youmei	-10.484
yimian	-10.4841
7nian	-10.4842
xialai	-10.4842
zonghezheng	-10.4849
tangniaobing	-10.485
dangweifushuji	-10.4854
yue:‘	-10.4856
jiuba	-10.4857
jiucuo	-10.4858
mianji1	-10.4858
dejichushang,	-10.4859
caichan	-10.4859
ersi	-10.4861
zhishen	-10.4861
shengao	-10.4862
lundun	-10.4866
、shui	-10.4868
(,)	-10.487
wanzi	-10.4875
keren	-10.4876
buyong	-10.4877
junyi	-10.4878
。tongshi	-10.4879
weinin	-10.488
chaoyue	-10.4886
(baokuo	-10.4888
,cengren	-10.4894
“wu	-10.4895
rending	-10.4898
touzizhe	-10.4902
hezi	-10.491
zigongsi	-10.4911
wuliao	-10.4912
jihuashengyu	-10.4912
yuanhuiweiyuan	-10.4914
yejie	-10.4914
185	-10.4915
。weile	-10.4915
xiyu	-10.4918
gongzuozhong	-10.4919
diliweizhi	-10.492
zongju	-10.4922
dengdeng。	-10.4922
henkuai	-10.4925
360	-10.4927
dongji	-10.4928
,jishi	-10.4932
,yiner	-10.4936
350	-10.4937
guanlide	-10.4941
shende	-10.4941
zimu	-10.4942
daji	-10.4945
0.4	-10.4947
dangzhibu	-10.4947
renjian	-10.4952
gaigekaifang	-10.4953
jieti	-10.4953
nanyang	-10.496
jiaotang	-10.4962
fandui	-10.4962
,shen	-10.4963
tianjing	-10.4963
gaoshan	-10.4964
mouzhong	-10.4966
peifang	-10.4967
zhudi	-10.4969
,chengliyu	-10.4969
maozedong	-10.4971
damen	-10.4971
rongru	-10.4972
alabo	-10.4973
jishufuwu	-10.4974
yupian	-10.4976
xianxia	-10.4977
kangxi	-10.4978
zuizaode	-10.4979
wuxu	-10.4981
kongzhong	-10.4983
cangshu	-10.4984
jiuxiang	-10.4985
huangjia	-10.4986
xukezheng	-10.499
meixue	-10.4992
pingbi	-10.4993
dangxuanwei	-10.4996
gongneng,	-10.5002
bianbu	-10.5003
shanmai	-10.5007
shihou	-10.501
dengfangmiande	-10.5011
banian	-10.5012
koujing	-10.5013
μ	-10.5013
yinliao	-10.5018
20shiji	-10.5019
ruzhu	-10.502
changjing	-10.5021
sili	-10.5023
yuxi	-10.5029
luyu	-10.5031
-7	-10.5031
tongguole	-10.5031
zhuanwei	-10.5032
demingzi	-10.5032
lingxiande	-10.5032
kongbu	-10.5034
xingshu	-10.5038
xuehuilishi	-10.5039
huanjingyoumei	-10.5039
shexian	-10.5039
quefa	-10.504
"="	-10.5041
weizhuyao	-10.5041
zhuangyuan	-10.5042
diaoru	-10.5044
linshi	-10.5044
ca	-10.505
,xianzai	-10.5053
yousheng	-10.5053
keyong	-10.5055
waimao	-10.5058
tuichude	-10.5059
,jiji	-10.506
shouli	-10.5061
shibai	-10.5062
chengpin	-10.5069
yinru	-10.5073
buchang	-10.5077
yuanyuan	-10.5078
jiaoxuezhiliang	-10.5079
gongqingtuan	-10.5079
shebeide	-10.5081
zhuren,	-10.5084
,houlai	-10.5087
jiqing	-10.509
heguanli	-10.5093
hongwai	-10.5095
nv,	-10.5096
,zhiliyu	-10.5102
bugan	-10.5103
fulu	-10.5103
quanshijie	-10.5106
5～	-10.5106
,tongnian	-10.5111
koufu	-10.5113
10fenzhong	-10.5117
hongqi	-10.5119
jinguan	-10.512
genghaode	-10.5123
jieji	-10.5126
xiaohao	-10.5128
190	-10.513
houbei	-10.513
daban	-10.5132
zuiyou	-10.5133
buluo	-10.5134
bieming	-10.5136
anfang	-10.5138
miaoxie	-10.5141
0.6	-10.5141
baokuo:	-10.5143
jiansuo	-10.5144
xueshulunwen	-10.5147
huodongde	-10.5153
7.5	-10.5161
ruidian	-10.5161
jiuyi	-10.5166
daodan	-10.5171
xianming	-10.5174
xianren。	-10.5175
。muqian,	-10.5177
fangdao	-10.5181
wuyeguanli	-10.5184
。ruguo	-10.5185
chongfu	-10.5186
quanshen	-10.519
chang,	-10.5191
pingan	-10.5191
guanbi	-10.5193
jingfei	-10.5194
duanxin	-10.5194
moshi,	-10.5196
daohang	-10.5196
dangxiao	-10.5204
genzong	-10.5206
chenji	-10.5207
(jiancheng	-10.5207
〔	-10.5208
xianggu	-10.5211
gongwei	-10.5211
gongneng:	-10.5215
。zheshi	-10.5216
,zuowei	-10.5217
....	-10.5217
256	-10.522
II	-10.5225
dazhuan	-10.5227
weishengbu	-10.5228
jiaren	-10.5235
yiri	-10.5236
2012	-10.5238
shougou	-10.5241
juda	-10.5247
fenju	-10.5254
canguan	-10.5255
danyi	-10.5255
fenzhongchecheng	-10.526
(han	-10.526
bianzhu	-10.5262
▁er、	-10.5262
canjiren	-10.5264
kuangjia	-10.5264
gaoyuan	-10.5265
tizhang	-10.5267
zhiqing	-10.5267
zhishou	-10.5272
kaiye	-10.5277
hupo	-10.5277
lanqiu	-10.5279
chujizhongxue	-10.5279
▁(3)	-10.528
beilin	-10.528
,zhexie	-10.5286
shengbuji	-10.5288
zulin	-10.5291
maoxian	-10.5291
jifen	-10.5293
jingyingguanli	-10.5293
changjiande	-10.5297
weijichu	-10.5297
lifa	-10.5298
zhujiao	-10.5299
geguo	-10.5301
nongyerenkou	-10.5305
fuqi	-10.531
dapei	-10.5311
gongchengjishu	-10.5315
wudi	-10.5316
zongjian	-10.5317
houqin	-10.5319
youliangde	-10.5321
fuyuanzhang	-10.5325
huluobo	-10.5325
,yizhi	-10.5327
,youshi	-10.5328
xueming	-10.5334
paifang	-10.5336
fuzhuren、	-10.5338
、beijing	-10.534
guangpan	-10.5343
yidu	-10.5344
renda	-10.5345
qiangda	-10.5345
gongyedaxue	-10.5349
jichuang	-10.535
qinghai	-10.535
wentide	-10.535
6000	-10.5351
gang、	-10.5351
、shanghai	-10.5351
wen,	-10.5357
aixin	-10.5364
shenshang	-10.5364
shidu	-10.5368
meide	-10.5369
,jiaotong	-10.5372
suoxie	-10.5373
mingling	-10.5374
waijie	-10.5376
donglin	-10.5379
-9	-10.5381
tianqi	-10.5384
ン	-10.5385
guanxin	-10.5385
bianqu	-10.5386
bashi	-10.5386
shiqi,	-10.5387
zongtouzi	-10.5388
zhengque	-10.539
caijing	-10.539
daixie	-10.5393
chuchu	-10.5393
xingchengde	-10.5395
nanxian	-10.5397
yaosu	-10.5399
minban	-10.5401
deyishu	-10.5402
tongren	-10.5405
xuekedaitouren	-10.5407
xuetang	-10.5408
quanyuan	-10.5409
zhongjie	-10.5412
jiagou	-10.5413
(huo	-10.5413
guxiang	-10.5417
。dang	-10.5418
jichushang	-10.542
fazhanguihua	-10.542
diwujie	-10.5421
,shiyige	-10.5421
detedian	-10.5421
weichi	-10.5423
1933nian	-10.5431
dianying《	-10.5432
gaoceng	-10.5433
bentu	-10.5433
zhengxing	-10.5435
pingmi	-10.544
125	-10.5442
jietou	-10.5445
liangdu	-10.5445
fangfa,	-10.5447
guojijichang	-10.5447
hesuan	-10.5447
yier	-10.545
jiangyi	-10.545
6nian	-10.545
pinkun	-10.5452
shidaide	-10.5454
zhufang	-10.5457
huosheng	-10.5457
shenqi	-10.546
caiji	-10.5461
24xiaoshi	-10.5465
youxiujiang	-10.5465
mianshang	-10.5471
shanpo	-10.5472
qiquan	-10.5473
jixiao	-10.5475
lianbang	-10.5477
gaodi	-10.5481
kaogu	-10.5484
youtian	-10.5485
shiguan	-10.5492
huajiao	-10.5497
gesheng	-10.5498
jianzhugongcheng	-10.5499
、yang	-10.5503
qingyuan	-10.5504
yuzhongguo	-10.551
runhua	-10.5516
haiba1	-10.552
”,“	-10.552
1/2	-10.5528
juede	-10.5528
rongzi	-10.5539
yingdele	-10.5542
eryi	-10.5544
daiti	-10.5546
,shoudao	-10.5548
qingxu	-10.5553
miaohui	-10.5554
kongzhixitong	-10.5561
zengzhi	-10.5562
wuse	-10.5562
qinian	-10.5564
jingmai	-10.5566
bianhao	-10.5567
(1	-10.557
jianrong	-10.5576
10ge	-10.558
jijiang	-10.5586
cishan	-10.5587
guangyuan	-10.5592
chuyan	-10.5594
suzao	-10.56
huizhi	-10.5602
xuzhou	-10.5603
weiben	-10.5604
yanhua	-10.5604
hanzi	-10.5604
deyinyue	-10.5605
susong	-10.5607
xinshiji	-10.561
beice	-10.561
dangzhong	-10.5611
dejiaoxue	-10.5611
qiye,	-10.5615
xianjing	-10.5616
xiaodu	-10.5616
▁(1)	-10.5619
wei:	-10.5625
lasi	-10.5627
shizhongxin	-10.5628
yingyongyu	-10.5628
tianxian	-10.5629
jingti	-10.5629
jizhu	-10.5634
deyingyong	-10.5637
ruxue	-10.5644
fangshi,	-10.5647
yixiao	-10.5647
zhuanshu	-10.5647
shifu	-10.5651
jianghu	-10.5651
zhengxieweiyuan	-10.5651
daduo	-10.5655
kongzi	-10.5656
wubu	-10.5656
caiyongle	-10.5658
yanjiushi	-10.566
▁wo	-10.566
nianlai	-10.5661
yongle	-10.5661
youqishi	-10.5663
zhiyin	-10.5663
meishujiaxiehui	-10.5663
meihao	-10.5664
kuandai	-10.5665
《zhonghua	-10.5667
wulun	-10.5667
lidu	-10.5669
huizhang	-10.567
jingwei	-10.5672
suosuozhang	-10.5674
tian,	-10.5677
mianlin	-10.5682
6)	-10.5683
tanke	-10.5685
shuoshixuewei	-10.5687
gongwuyuan	-10.5687
waijiao	-10.5688
aoyunhui	-10.5689
rongjie	-10.5691
liqi	-10.5694
★	-10.5694
nver	-10.5697
xiangdangyu	-10.5697
chengjie	-10.5697
longtouqiye	-10.5703
buliao	-10.5705
480	-10.5708
jieke	-10.5712
zhongqi	-10.5715
shanlu	-10.5716
qianyi	-10.5717
fajiao	-10.5717
▁zhongwen	-10.572
186	-10.5722
huanjingyouya	-10.5726
haishang	-10.5729
guojiazhongdian	-10.5732
pingding	-10.5735
20nian	-10.5735
chanpin,	-10.5737
di3	-10.5738
jiekou:	-10.5738
huahewu	-10.5739
chuyi	-10.5743
xinzang	-10.5744
huishi	-10.5749
gongjiao	-10.5751
shanyao	-10.5753
zhitong	-10.5757
chuangzuode	-10.5758
shengjiaoyuting	-10.5758
dingxiang	-10.5759
shiyiwei	-10.576
2hao	-10.5765
9)	-10.5766
zhaoyang	-10.5767
shijieshang	-10.5768
,yuanming	-10.577
beiqi	-10.5773
boshixuewei	-10.5774
minzhong	-10.5774
zhuyaoshengchan	-10.5778
suide	-10.578
xianyu	-10.578
chanzhi	-10.5781
jixiangguan	-10.5781
cangchu	-10.5786
。zhexie	-10.5787
zuofa	-10.5789
benji	-10.579
huali	-10.5791
shufajiaxiehui	-10.5791
kefenwei	-10.5793
xiaoguo。	-10.5796
nongyebu	-10.5801
gongdu	-10.5804
jiujing	-10.5808
zhangyue	-10.5809
zhimingdu	-10.5811
fabing	-10.5813
,xianwei	-10.5813
5)	-10.5815
zaixiaoxuesheng	-10.5815
juan,	-10.5816
xiaoji	-10.5817
shiqide	-10.5818
zhaoshang	-10.582
yanghu	-10.582
1/	-10.583
,nanlin	-10.5831
1ren	-10.5832
daojiao	-10.5834
tiqu	-10.5838
jingque	-10.5839
yiguan	-10.585
shuichan	-10.585
didai	-10.5853
cidian	-10.5854
,bujin	-10.5855
:5	-10.5856
xiaji	-10.5857
bochu	-10.5858
jixian	-10.5864
zhuanbian	-10.5866
xiya	-10.5873
1600	-10.5875
xiehuilishi	-10.5878
putaojiu	-10.5883
jueyuan	-10.5884
jianzhumianji	-10.5884
fujiaoshou,	-10.5884
yuanzhi	-10.5885
yishuxueyuan	-10.5886
qianyue	-10.5888
。yinci,	-10.5888
xilin	-10.5893
nansong	-10.5894
guizu	-10.5894
shencha	-10.5895
huanrao	-10.5895
younonghu	-10.5895
30nian	-10.5896
fanshe	-10.5897
zhu:“	-10.5901
keyizai	-10.5904
,shenshou	-10.5904
shizhang	-10.5905
houyou	-10.5907
chuo	-10.5909
guanmu	-10.5913
youxiulunwen	-10.5914
“yi	-10.5917
yingdang	-10.5918
wenmingdanwei	-10.5919
baozha	-10.5919
zhujue	-10.5919
dangzhibushuji	-10.5923
chanyehua	-10.5923
faren	-10.5924
、dianzi	-10.5925
shenghuozai	-10.5928
jiaohao	-10.593
zhidingde	-10.593
yantai	-10.5933
fenmo	-10.5937
huiyishi	-10.5937
bingcheng“	-10.5939
minsu	-10.594
quanzhang	-10.5941
jiandao	-10.5944
cehui	-10.5945
zaiguoneiwai	-10.5946
,donglin	-10.5946
zuzhide	-10.5947
fuzi	-10.5947
jijia	-10.5951
shizhen	-10.5953
mingchao	-10.5953
、liu	-10.5953
xingzhengguanli	-10.5954
qiuzhi	-10.5955
dianxingde	-10.5956
guoyu	-10.5957
tuixing	-10.5961
wenhuade	-10.5962
cengwei	-10.5964
diyijia	-10.5969
5.5	-10.597
yihou,	-10.597
,shiyizhong	-10.5971
xiaozhi	-10.5973
zuzhishishi	-10.5974
zhijian,	-10.598
,shiyi	-10.5987
wenshu	-10.5991
xianzhang	-10.5991
bangongshi、	-10.5993
fengguang	-10.5994
xianyouyuangong	-10.5997
guilin	-10.5999
dachen	-10.6004
wanren	-10.6005
guanzhuang	-10.6008
gongsizai	-10.6011
zhongzhuan	-10.6016
qupi	-10.6018
nali	-10.6025
yikuan	-10.6025
zhurou	-10.6026
deyibu	-10.6028
mingyu	-10.6028
shubai	-10.6029
sihu	-10.6029
tuzhong	-10.603
zhichang	-10.6032
2.3	-10.6032
sheng、shi	-10.6034
rouzhi	-10.6036
▁chuchu	-10.6037
chengzhiwei	-10.6038
gongcheng、	-10.6039
mianhua	-10.6046
zhongdeng	-10.6051
%。	-10.6052
,yushi	-10.6058
fanhua	-10.6059
benkesheng	-10.6059
、san	-10.606
zhongxiyijiehe	-10.6067
weishenme	-10.6068
jingzhengli	-10.6069
beike	-10.607
jianchiyi	-10.6072
geminggenjudide	-10.6073
fa》	-10.6073
,xingchengle	-10.6075
50ke	-10.608
weiqiye	-10.608
wangzi	-10.6081
haiguan	-10.6083
zhenzhengde	-10.6084
cunren	-10.6086
aihao	-10.6087
jigou,	-10.6087
guaishou	-10.6088
0.7	-10.6089
fuyong	-10.6092
kongzhiqi	-10.6094
zixunfuwu	-10.6097
zhenliao	-10.6098
queren	-10.61
dezonghe	-10.6106
lidianchi	-10.6106
baijia	-10.611
187	-10.6111
shouce	-10.6111
guanche	-10.6112
danwei。	-10.6113
zuopin《	-10.6115
hetao	-10.6116
qianglie	-10.6116
fuyang	-10.6118
yidui	-10.6119
qianlai	-10.6121
debutong	-10.6123
▁6、	-10.6125
bingqi	-10.6127
wubi	-10.6129
zongti	-10.613
,zhandimianji	-10.6132
sheke	-10.6136
zhuren、	-10.6136
geer	-10.6137
nianji	-10.6137
wuxiandian	-10.6139
siyang	-10.614
renminyiyuan	-10.614
2002	-10.6141
108	-10.6142
10ke	-10.6143
yiceng	-10.6144
shenghui	-10.6146
yinshui	-10.6147
shanzhen	-10.615
wujia	-10.6151
、guojia	-10.6151
xiangfan	-10.6153
10nian	-10.6153
,liren	-10.6156
taren	-10.6156
lushang	-10.6159
huaxian	-10.6159
baihuo	-10.6161
nengli。	-10.6174
jianju	-10.6177
eyu	-10.6179
ban)	-10.6179
jida	-10.6182
shui,	-10.6182
yaogun	-10.6182
shancun	-10.6186
170	-10.6187
chushou	-10.6189
danqu	-10.6197
jianchi“	-10.6197
,xilin	-10.6201
gao,	-10.6203
zhideshi	-10.6204
buduantigao	-10.6205
yaodian	-10.6205
sujiao	-10.6207
。ru	-10.6207
denglu	-10.6207
shouzhong	-10.6209
mudan	-10.621
gaodengyuanxiao	-10.6212
dewenti	-10.6213
yanyu	-10.6214
fangxin	-10.6216
,shiyisuo	-10.6216
guanguang	-10.6216
.10	-10.6217
lingjian	-10.6218
manman	-10.6218
fanqie	-10.6222
haomi	-10.6224
zhida	-10.6225
pingfanggongli	-10.6226
shenbian	-10.6226
zhongqingnian	-10.6233
1927nian	-10.6233
kaiqi	-10.6236
siling	-10.6237
yizhu	-10.6237
xifu	-10.6238
bada	-10.6239
2.8	-10.624
qihuo	-10.6242
9-	-10.6248
,youcheng	-10.6252
shenke	-10.6253
cihui	-10.6253
shan、	-10.6253
rencaipeiyang	-10.6258
xinfang	-10.6259
gaozhi	-10.6259
/3	-10.6261
bubuzhang	-10.6262
shentou	-10.6263
jianghui	-10.6263
dangjin	-10.6268
xiangzheng	-10.6268
zhudao	-10.6269
xueshuoshi	-10.627
zhuchiren	-10.6274
zhongshen	-10.6274
xitong,	-10.6277
shisi	-10.6277
shengwei	-10.6278
linli	-10.6278
congci	-10.628
yinqing	-10.6281
yigeren	-10.6282
wujing	-10.6283
qiuyuan	-10.6283
gancao	-10.6286
0°	-10.6286
zuoshi	-10.6288
shiriben	-10.629
yichun	-10.6304
nanan	-10.6305
daifu	-10.6305
shuoshishengdao	-10.6306
huayu	-10.6306
ciwai	-10.6308
gejiaoxueban,	-10.6309
jiandande	-10.6312
2～	-10.6315
jiedian	-10.6319
baopian	-10.6319
shijiegedi	-10.6322
jiangu	-10.6326
shengchan、	-10.6327
jiunian	-10.6329
zaizhe	-10.6329
chuangzaole	-10.633
shiwoguo	-10.6333
xiabu	-10.6334
,zhidao	-10.6337
1930nian	-10.6339
biru	-10.6342
mianban	-10.6345
benshushi	-10.6348
xuebao	-10.6349
haiyu	-10.635
anshi	-10.6354
beishouyu	-10.6357
3.2	-10.6358
ganying	-10.6361
keyun	-10.6361
;fuze	-10.6363
qianke	-10.6364
zhuyaoyi	-10.6365
zhiling	-10.6371
』『	-10.6373
,shiyijia	-10.6375
tiaowei	-10.6377
liantong	-10.6378
zishu	-10.6381
,yige	-10.6386
ningboshi	-10.6391
chengjiao	-10.6395
erchengde	-10.6396
meiyu	-10.6396
105	-10.6399
bingyu	-10.64
gaoxueya	-10.6401
zhixia	-10.6402
jidu	-10.6402
jiexi	-10.6403
malaixiya	-10.6408
kekou	-10.641
weida	-10.6415
lingxiu	-10.6419
junke	-10.6428
jiehun	-10.6429
fenbiewei	-10.643
10%	-10.6432
xianren,	-10.6432
laide	-10.6433
detongshi	-10.6433
dianti	-10.6435
xijing,	-10.6435
kaosheng	-10.6435
qianshen	-10.6436
deyuanze	-10.6436
huawen	-10.6441
menhu	-10.6444
dajian	-10.6451
touying	-10.6452
dandu	-10.6461
,tongchang	-10.6466
shuichuli	-10.6469
。”qing	-10.6471
jingshenwenming	-10.6472
lu》	-10.6472
deshijie	-10.6473
jinsheng	-10.6474
jinsi	-10.6475
,youqishi	-10.6481
yingdu	-10.6481
biye,	-10.6484
gongchandang	-10.6484
xumu	-10.6488
chucun	-10.6489
zhuangjia	-10.649
wuyuan	-10.649
sixiangzhengzhi	-10.6491
duoming	-10.6491
xueyu	-10.6495
denggezhong	-10.6495
zhonghuayixuehui	-10.6498
bingzuzhishishi	-10.6498
fuhua	-10.65
huaxia	-10.6501
deyisuo	-10.6501
xinyi	-10.6502
kou,	-10.6503
tuoluo	-10.6507
xiyi	-10.6512
chengweile	-10.6513
gongli,juli	-10.6515
rongqi	-10.6516
,fenbie	-10.6517
shijiazhuang	-10.6519
woxiao	-10.6519
(xian	-10.6524
huanxiang	-10.6525
sanxiang	-10.6525
(1).	-10.6526
xiangshang	-10.653
beida	-10.6532
zuochule	-10.6532
yesheng	-10.6537
450	-10.6537
jinanshi	-10.654
▁(2).	-10.654
paimai	-10.6547
dudao	-10.6548
5ke	-10.655
bolanhui	-10.6553
zhenxing	-10.6555
jiuneng	-10.6557
dangzuchengyuan、	-10.6558
dada	-10.6559
3～	-10.657
shiyibu	-10.6572
zhaiquan	-10.6573
zengjiale	-10.6575
deyibufen	-10.6575
fengyun	-10.6576
ditan	-10.658
”zhi	-10.6581
▁6.	-10.6583
buzhu	-10.6583
。minguo	-10.6586
mianjiyue	-10.6587
1928nian	-10.6588
pingwei“	-10.6589
huibao	-10.659
dejianshe	-10.6591
dianzu	-10.6591
guochan	-10.6593
zuobiao	-10.6595
jiejie	-10.6599
chuanshi	-10.66
bijiben	-10.6602
dijiu	-10.6604
bianma	-10.6604
tongxiang	-10.6605
ganrao	-10.6605
xueboshi	-10.6613
shengya	-10.6614
yibufen	-10.6614
huanyuan	-10.6621
hao:	-10.6623
liuchang	-10.6623
zhangfu	-10.6624
huanan	-10.6626
bata	-10.6627
tou,	-10.6627
zhencha	-10.6628
≥	-10.6629
jiaoshou、	-10.6631
wendingde	-10.6632
huoche	-10.6635
youliyu	-10.6637
zhima	-10.6638
baba	-10.6639
zhuyaojingying	-10.664
shending	-10.6642
riyu	-10.6642
jiecheng	-10.6646
xili	-10.6648
、fuwu	-10.6652
zhurengong	-10.6653
baomo	-10.6654
jingling	-10.6658
sike	-10.6658
yehui	-10.6658
ne?	-10.6659
100duo	-10.6662
。genju	-10.6667
mingpai	-10.6668
lixian	-10.6669
paiming	-10.6671
diduan	-10.6673
lingdaode	-10.6673
shuixian	-10.6676
shengzhengfu	-10.6677
taishi	-10.6678
zhongxin,	-10.6679
lihe	-10.6682
yitidezonghexing	-10.6684
changwu	-10.6685
zuocheng	-10.6686
2001	-10.6687
baihua	-10.6689
yiyong	-10.669
0.00	-10.6691
fangfa。	-10.6693
dexinxing	-10.6693
dexingwei	-10.6693
yiner	-10.6694
kechixufazhan	-10.6694
nongyao	-10.6694
yangshengqi	-10.6699
deshehui	-10.67
tianfu	-10.6702
fuwu、	-10.6703
gongchengjianshe	-10.6707
,meiguo	-10.6707
disijie	-10.6708
。xianzai	-10.671
qing·	-10.6711
youzhidi	-10.6711
duoyuan	-10.6711
chuchang	-10.6712
mingqing	-10.6713
reshui	-10.6714
liuyu	-10.6718
baoli	-10.672
jiuyou	-10.672
shaoer	-10.6726
jingmao	-10.6731
zhengwu	-10.6732
xiaohuo	-10.6733
quanmiande	-10.6734
caishi	-10.6745
gongshui	-10.6745
–	-10.6746
dianchang	-10.675
chanpinleixing:	-10.6753
luobo	-10.6755
rendadaibiao	-10.6755
gongsiyongyou	-10.6758
yaoyong	-10.676
nongji	-10.676
zigong	-10.6764
yuecanjiagongzuo	-10.6766
leibie	-10.6768
henshao	-10.6769
ansuan	-10.6774
▁qita	-10.6777
huizhan	-10.6778
dulide	-10.6779
,congshi	-10.6785
kuai,	-10.6787
weixuanchuanbu	-10.6788
I	-10.6789
dongzhi	-10.679
zhongguorenmin	-10.6791
ci。	-10.6791
zhanyou	-10.6798
fangmian,	-10.6799
,jibu	-10.68
zhuzhou	-10.6804
canbian	-10.6807
moxige	-10.681
zhongguodangdai	-10.6812
jiewei	-10.6813
chuxianzai	-10.6815
wangdian	-10.6815
gebumen	-10.6815
zhuren。	-10.6817
peixunzhongxin	-10.6822
yiqun	-10.6825
makesizhuyi	-10.6831
zhejiangdaxue	-10.6833
zhishao	-10.6833
jizhen	-10.6837
rangta	-10.6837
gangguan	-10.6837
chupin	-10.6838
desixiang	-10.6839
benkexueli	-10.684
zongcai	-10.6847
beiwei	-10.6848
yujing	-10.6848
0°C	-10.6848
quanrizhi	-10.6849
huoyun	-10.6853
huojian	-10.6857
shouruzhuyaoyi	-10.6861
tidai	-10.6862
wangzhi	-10.6864
≤	-10.6865
teshude	-10.6865
jianquan	-10.6866
chengxiao	-10.6867
,duiyu	-10.6868
huanghou	-10.687
fenbuzai	-10.687
guandian	-10.6874
dasuan	-10.6874
shengweidangxiao	-10.6875
dongce	-10.6875
gongmin	-10.6876
canmouzhang	-10.6876
lilunyu	-10.6877
а	-10.6879
-)	-10.6883
toubu	-10.6883
xibeibu	-10.6884
chuxiande	-10.6886
1%	-10.6886
▁muqian	-10.6887
shoudaole	-10.6891
zuixiao	-10.6892
choujian	-10.6895
weiyuan、	-10.6897
、hong	-10.6897
xihu	-10.6899
hexiaoshou	-10.6901
6.5	-10.6906
xianshang	-10.6907
xianhouren	-10.6913
shousuo	-10.6918
neishe	-10.6919
tahai	-10.6927
guanchuan	-10.6927
anmo	-10.6928
linchuangjingyan	-10.6928
saishi	-10.6929
fuzhubian	-10.693
xinghuo	-10.693
196	-10.6931
bianyaqi	-10.6932
gaoxiaode	-10.6933
zunxun	-10.6937
15ri	-10.6939
ranqi	-10.6944
shexiang	-10.6946
guominjingji	-10.6946
shichangyingxiao	-10.6947
fenlie	-10.6948
kaichuang	-10.695
80%	-10.6951
2ren,	-10.6953
xice	-10.6956
chuangliyu	-10.6956
dadian	-10.6957
100ke	-10.6958
,zhandi	-10.6959
diangong	-10.6962
boshihou	-10.6965
mianji2	-10.6968
21shiji	-10.697
kuandu	-10.6971
doukeyi	-10.6972
zhibi	-10.6975
dadou	-10.6977
m2	-10.6979
jiangzhi	-10.698
sanjie	-10.6984
kala	-10.6984
wennuan	-10.6984
yangcheng	-10.6985
licai	-10.6985
shouge	-10.6986
ruxia	-10.6986
shuidian	-10.6988
zhushe	-10.6989
zhiyejiaoyu	-10.6995
xuegaojijiaoshi	-10.6997
deganjue	-10.6999
gujia	-10.6999
xinji	-10.7
zhugao	-10.7001
yanji	-10.7001
zisha	-10.7003
tiaoliao	-10.7003
zhenzhengfu	-10.7003
jianxing	-10.7005
chilun	-10.7009
qiang,	-10.7011
zhuanhua	-10.7011
beiyuwei	-10.7012
512	-10.7015
dangzuzhi	-10.7015
renxin	-10.7016
liangmian	-10.7016
qiyewenhua	-10.7016
rongyuchenghao。	-10.7017
jinjin	-10.7017
zhanguo	-10.7021
meinv	-10.7022
zhixue	-10.7023
xiangbi	-10.703
0pingfangmi,	-10.7037
ercheng。	-10.7037
,jianzhumianji	-10.7038
yuanfuyuanzhang	-10.7041
cangku	-10.7043
shenwei	-10.7049
hengao	-10.705
fangwei	-10.7053
lingyige	-10.7053
leyuan	-10.7054
qiuling	-10.7056
mingci	-10.7057
yonghude	-10.7059
fuchanke	-10.7059
ribao	-10.7059
『	-10.706
yidan	-10.7065
dezui	-10.7066
,jiehe	-10.7068
jichusheshi	-10.7069
shizhongjianchi	-10.7071
yezhu	-10.7072
jinpao	-10.7074
shufajia	-10.7076
jiangzuo	-10.7077
duanqi	-10.7084
timing	-10.7084
biyeyubeijing	-10.7085
shiweile	-10.7086
shezai	-10.7088
degainian	-10.7088
tuoyuanxing	-10.7092
youzheng	-10.7093
dengren	-10.7094
zhigan	-10.7095
,yi“	-10.7097
rukou	-10.7098
zhandimianji1	-10.7099
banji	-10.7103
zuizhongyaode	-10.7105
wuguan	-10.7107
duju	-10.7107
1.7	-10.7112
donghai	-10.7113
,meiyou	-10.7113
xuanju	-10.7116
techang	-10.7116
fushizhang	-10.712
zhuchang	-10.712
yiyang,	-10.7121
▁◆	-10.7122
yijiujiu	-10.7125
guojimaoyi	-10.7127
yiba	-10.7128
chengzhi	-10.7131
xiandaihuade	-10.7131
diyibu	-10.7133
lixiangde	-10.7136
zunzhong	-10.7141
shidang	-10.7141
daoju	-10.7143
duanlian	-10.7144
zhengqu	-10.7144
tichude	-10.7146
yuannian	-10.7147
menhuwangzhan	-10.7152
juben	-10.7153
gongqing,	-10.7154
,jianchi	-10.7154
fengmi	-10.7156
12ge	-10.7157
naimo	-10.716
yuetuan	-10.7161
sifang	-10.7164
huigui	-10.7164
gaigongsi	-10.7165
ji《	-10.7169
lihua	-10.7172
gongyeyuan	-10.7173
budeng	-10.7174
dongfeng	-10.7175
wumao	-10.7183
dadan	-10.7185
wanmu	-10.7186
kaiban	-10.7187
zhiwu。	-10.7189
gu、	-10.7189
:00	-10.7191
shiyongxing	-10.7194
zishende	-10.7194
fuzhuren,	-10.7196
xingming	-10.7199
。xianwei	-10.7201
zhongxinxiaoxue	-10.7203
fuxi	-10.7206
0)	-10.7206
jiaoyuxueyuan	-10.7208
yejiao	-10.7209
laishuo,	-10.7211
fazhan,	-10.7212
jiaotongyunshu	-10.7212
silingbu	-10.7214
dabiao	-10.7214
fou	-10.7215
lianxiang	-10.722
jinqian	-10.722
xinyidai	-10.7222
wenzhoushi	-10.7224
shuhuayishu	-10.7225
fuxing	-10.7229
(3)	-10.723
deguanli	-10.7232
,jiaotongbianli,	-10.7234
lougao	-10.7239
suanfa	-10.7239
chongwu	-10.7242
bandaoti	-10.7242
suzhoushi	-10.7243
yijiu	-10.7243
,zuizhong	-10.7244
qingqing	-10.7246
-01	-10.7246
8000	-10.7246
zhidaoxia	-10.7251
zhanchu	-10.7252
zhizheng	-10.7252
shangyong	-10.7254
ganjun	-10.7255
shengjing	-10.7262
weidao	-10.7267
lvke	-10.727
pingfanggongli。	-10.7271
gongzhi	-10.7271
tongming	-10.7276
shanhu	-10.7277
yilu	-10.7278
jingmei	-10.7279
huancun	-10.7281
1×	-10.7281
xueyanjiu	-10.7282
miaoshu:	-10.7285
deng;	-10.7286
biaozhunde	-10.7287
yecheng	-10.729
、chuangxin	-10.7293
meigui	-10.7293
jieshi:	-10.7297
suiyi	-10.7297
jianzhumianji1	-10.7301
1-2	-10.7302
jiayong	-10.7302
lieshi	-10.7303
guidingde	-10.7304
nvsheng	-10.7305
guochengzhong,	-10.731
jiejuele	-10.731
beimei	-10.7312
chengli,	-10.7314
jiudu	-10.7315
shichangshang	-10.7317
20duo	-10.7318
”)	-10.7321
zaihai	-10.7323
1gongli	-10.7323
zhongcheng	-10.7323
。guotumianji	-10.7323
zhubao	-10.7324
kaishui	-10.7325
yincang	-10.7325
xushu	-10.7325
zhenjiu	-10.7326
paishui	-10.7327
qianren	-10.7328
xiaochi	-10.7331
rongmao	-10.7331
aoyun	-10.7333
ganyu	-10.7333
0000	-10.7334
wangluoyouxi	-10.7336
shengdaoshi。	-10.7339
kejichuangxin	-10.7339
zuzhang	-10.7341
zixin	-10.7341
diban	-10.7344
shengren	-10.7345
▁er	-10.7347
pingfanggongli,	-10.7347
changyongde	-10.7348
wenbu	-10.735
bangongting	-10.7351
zixun、	-10.7352
lianzai	-10.7353
fuzhuren。	-10.7357
huihe	-10.7362
dezuijia	-10.7363
huopo	-10.7367
jibencanshu	-10.7368
cunzaide	-10.7369
techan	-10.7372
jingtong	-10.7373
pingxing	-10.7377
shouzhang	-10.7378
wenti。	-10.738
neimengguzizhiqu	-10.7381
benkebiye	-10.7382
zhongcai	-10.7383
duopian	-10.7384
pubu	-10.7384
、nan	-10.7384
linsuan	-10.7385
kexuan	-10.7386
youjidui	-10.7388
guan。	-10.7389
canmou	-10.739
3ke	-10.7391
〉	-10.7393
haoping	-10.7395
daiyu	-10.7395
jinlin	-10.7399
shangwuzhongxin	-10.74
zhengju	-10.7401
haomi,	-10.7401
、qing	-10.7406
(189	-10.7407
guganjiaoshi	-10.7409
niaolei	-10.741
degongneng	-10.7414
9ge	-10.7414
qinggong	-10.7416
fengji	-10.7417
jiulong	-10.7418
jinshengwei	-10.7419
bingru	-10.742
zhongguodalu	-10.7421
▁yi、	-10.7423
kaifa、	-10.7423
20yu	-10.7424
zicheng	-10.7428
mianqian	-10.7429
benren	-10.7429
miji	-10.7432
qiangzhi	-10.7433
zaozhi	-10.7435
hao。	-10.7435
yuanwang	-10.7436
jishude	-10.7437
qingshan	-10.7438
zhengfusuozaidi	-10.7439
changzhou	-10.744
lilunyanjiu	-10.744
,quebao	-10.7445
guangming	-10.7445
geyi	-10.7447
dejichu	-10.7447
tudou	-10.7447
gujin	-10.745
,yongyu	-10.745
baiwan	-10.7457
zheci	-10.7461
pendi	-10.7463
xueshuoshixuewei	-10.7464
guoqi	-10.7465
jingxiaoshang	-10.7467
fashengzai	-10.7467
,shiyou	-10.7469
baifen	-10.747
qifen	-10.7471
shaoxing	-10.7475
bianru	-10.7475
longyan	-10.7477
zonghui	-10.7478
dexuqiu	-10.7479
kuojian	-10.7479
yingwenming	-10.748
nandu	-10.748
tide	-10.7481
fendou	-10.7482
shixun	-10.7486
daoshang	-10.7487
3.1	-10.7488
zhinenghua	-10.7491
pijiu	-10.7494
zhuzi	-10.7495
niunai	-10.7497
fumishuzhang	-10.75
changxiao	-10.7501
juzhong	-10.7503
,xianyi	-10.7505
gongke	-10.751
datang	-10.7513
qinghaisheng	-10.7513
jinshan	-10.7518
,beilin	-10.7518
,shengyu	-10.752
nanmian	-10.7521
kanwushangfabiao	-10.7522
zhuhai	-10.7522
zuojiaxiehui	-10.7523
dedongxi	-10.7525
kezai	-10.7525
-20	-10.7532
xidi	-10.7535
、quanguo	-10.7535
yangede	-10.7536
gongnong	-10.7537
zongse	-10.7541
jingju	-10.7541
youshi,	-10.7542
beipingwei“	-10.7542
meijie	-10.7542
dibiao	-10.7544
huoban	-10.7546
dangzushuji	-10.7551
dediyi	-10.7552
bianzhong	-10.7553
zhijin,	-10.7555
50%	-10.7555
ma?	-10.7556
suihou	-10.7556
wai,hai	-10.7558
chengzuo	-10.756
yixin	-10.7562
xiaqunei	-10.7562
meimei	-10.7564
xuexueshixuewei	-10.7567
zongheng	-10.7568
xiangyang	-10.7571
haishui	-10.7573
zaijin	-10.7577
zhongxinzhuren	-10.7579
shenyangshi	-10.7581
zaodao	-10.7582
guangze	-10.7582
。houlai	-10.7583
〈	-10.7584
jingtai	-10.7584
derenwu	-10.7585
duibi	-10.7585
fangcheng	-10.7588
zuzuzhang	-10.759
cici	-10.7591
hujiao	-10.7593
2%	-10.7594
duoyang	-10.7597
gongyong	-10.7602
guihua、	-10.7603
chaoting	-10.7604
weiguangda	-10.7605
),zi	-10.7607
fenpeidao	-10.761
weiren	-10.7612
tezhi	-10.7613
fashengde	-10.7615
lumian	-10.7616
guangai	-10.7616
buqi	-10.7617
diliujie	-10.7619
shunxu	-10.7622
yuye	-10.7623
youqing	-10.7624
hanshou	-10.7625
liqing	-10.7626
yake	-10.7628
diantai	-10.7632
gongxian。	-10.7633
gaicheng	-10.7635
nongzuowu	-10.7637
zhizhang	-10.764
gongshangguanli	-10.764
zhuduo	-10.764
kejijinbu	-10.7643
jianjie:	-10.7645
tixi,	-10.7646
zhongnan	-10.7647
xiedai	-10.7647
shenghuozhong	-10.7651
liaocheng	-10.7651
ciqi	-10.7652
gangban	-10.7653
jiezou	-10.7655
jujue	-10.7657
leixingde	-10.7661
lieru	-10.7661
jianduan	-10.7661
о	-10.7662
zhengdang	-10.7662
jixieshebei	-10.7664
,zhiyou	-10.7666
,tigong	-10.767
yanjiuhe	-10.7671
(192	-10.7673
jinpai	-10.7674
pian、	-10.7676
gongfu	-10.7678
jing》	-10.7679
lixin	-10.768
xuexi,	-10.768
haoma	-10.7681
sitan	-10.7681
chengyi	-10.7687
mianshi	-10.7689
5gongli	-10.7689
fudi	-10.769
zaiti	-10.7691
genben	-10.7691
fangbao	-10.7694
dian。	-10.7696
yiqu	-10.7697
jiaoyou	-10.7698
gongchengshigong	-10.7698
jiyishang	-10.77
nayang	-10.7701
neixin	-10.7701
kongbai	-10.7703
weichang	-10.7705
qingjiao	-10.7705
quexian	-10.7706
xiyou	-10.7707
renming	-10.7707
gaojizhicheng	-10.7709
nongli	-10.771
jiang”	-10.771
xixi	-10.7711
shuhuayuan	-10.7716
chufuchuzhang	-10.7721
yubei	-10.7724
xinsheng	-10.7729
shouhuo	-10.773
。xianhou	-10.7733
shengchanjiagong	-10.7733
qiepian	-10.7734
(2	-10.7734
jishuyanjiu	-10.7736
liangren	-10.7737
dongbeibu	-10.7739
yenei	-10.7743
yongliang	-10.7747
-10	-10.7747
youzhidifuwu	-10.7749
yunhe	-10.775
geci	-10.775
pinyouxiangongsi	-10.7751
minge	-10.7751
peisong	-10.7752
beiyong	-10.7753
jinxian	-10.7753
fuling	-10.7754
guifanhua	-10.7755
gongnonghongjun	-10.7756
jinbiaosai	-10.7761
qixing	-10.7762
baoxiang	-10.7762
men,	-10.7763
gongsiyi	-10.7765
fengbi	-10.7767
dongjie	-10.7767
gongyequ	-10.7769
erwei	-10.7772
renjun	-10.7774
meiyuan	-10.7774
bianyu	-10.7776
zuyu	-10.7778
yijingchengwei	-10.7779
mala	-10.778
chengjian	-10.7781
lvdi	-10.7782
0.9	-10.7782
nuomi	-10.7783
chuqu	-10.7785
yue1	-10.7786
3.3	-10.7789
《xin	-10.7789
mingyun	-10.779
。yinwei	-10.7792
yuewei	-10.7792
xianyan	-10.7799
bianshen	-10.7799
liqiu	-10.7802
jidujiao	-10.7802
rongyuchenghao	-10.7809
liulan	-10.781
changqu	-10.7811
fengfu,	-10.7811
nan,hanzu,	-10.7812
18ri	-10.7814
cuan	-10.782
jizu	-10.782
yishen	-10.7821
、lvyou	-10.7823
yuancailiao	-10.7825
tiaoyue	-10.7825
ercheng,	-10.7825
huihuang	-10.7827
desuoyou	-10.7828
sunhai	-10.783
zongxian	-10.7831
shehuikexueyuan	-10.7832
yingjie	-10.7832
2-3	-10.7835
gongdangyuan。	-10.7836
maimai	-10.7839
danwei,	-10.7839
zise	-10.784
yinyang	-10.7841
jiezhu	-10.7842
×4	-10.7842
duichen	-10.7843
jinliang	-10.7847
yanke	-10.7849
]	-10.785
jiangjin	-10.7853
kaojin	-10.7859
huaji	-10.786
fangzhenzhengce	-10.7863
dangzheng	-10.7863
xinxixitong	-10.7866
、meiguo	-10.7867
(yue	-10.7868
wuyan	-10.7872
duiqi	-10.7873
chengxi	-10.7874
xinzhongguo	-10.7874
boke	-10.7874
huishang	-10.7874
xianjinshuiping	-10.788
jieri	-10.7881
zuoyou。	-10.7882
youxuduo	-10.7883
fuzhuxi	-10.7884
fanchao	-10.7889
lisi	-10.7892
fanwei:	-10.7893
dengchanpin	-10.7893
。suizhe	-10.7895
buzhou	-10.7896
shitu	-10.7896
,bingyou	-10.7897
huisuo	-10.7897
》)	-10.7899
yaoqiu,	-10.7901
zongbuweiyu	-10.7905
chacao	-10.7905
leida	-10.7908
xionghoude	-10.7909
28ri	-10.7912
zhengmian	-10.7913
bozhong	-10.7915
neidi	-10.7915
wuhu	-10.7917
ciyu	-10.7917
haikeyi	-10.7918
qizhongcongshid	-10.7918
jiaohaode	-10.7919
fuzhurenyishi	-10.7921
184	-10.7921
lingdaoren	-10.7921
jinqi	-10.7923
▁wu	-10.7924
zhuangcun	-10.7926
sanci	-10.7927
dizhi:	-10.7928
zuowen	-10.7928
zhengshichengli	-10.7928
:10	-10.793
zairiben	-10.793
liangxing	-10.7933
lieche	-10.7935
qiyuan	-10.7935
youjizhanzheng。	-10.7936
kexuede	-10.7937
weifu	-10.7937
xiangjin	-10.7937
guiyang	-10.7937
heian	-10.7939
zi·	-10.7941
tonglei	-10.7942
keyongyu	-10.7943
wenben	-10.7947
zhiban	-10.7948
chexiao	-10.795
dexiandaihua	-10.795
dagong	-10.7951
gangjiegou	-10.7952
anjisuan	-10.7952
sanxia	-10.7953
,gongyou	-10.7954
denengli	-10.7956
;zai	-10.7956
tudigemingdou	-10.7958
wenlian	-10.7959
gengyou	-10.7962
shuhuajia	-10.7963
▁san	-10.7963
,shijianyu	-10.7964
youyiding	-10.7965
buliang	-10.7966
nantong	-10.7968
liangtiao	-10.797
,fan	-10.7972
fuzade	-10.7972
bingxiang	-10.7973
4.0	-10.7974
jixiezhizao	-10.7976
bingshi	-10.7976
jiqiren	-10.798
chubei	-10.798
moca	-10.7981
wanqi	-10.7982
,buguo	-10.7983
teyoude	-10.7987
,zheli	-10.7988
gexingzhengcun,	-10.799
,pilin	-10.7992
boshi,	-10.7993
tuangou	-10.7996
yanmo	-10.7996
kezhuren	-10.7998
chuantongwenhua	-10.7999
shexiangji	-10.7999
duoceng	-10.8001
wangfu	-10.8002
gejie	-10.8003
se,	-10.8004
shouwei	-10.8004
ngjijishukaifaqu	-10.8005
chandi	-10.8005
baoxiu	-10.8006
fanghuo	-10.8006
jiaoyuan	-10.8015
baihe	-10.8016
3.6	-10.8016
jiqiang	-10.8018
congzhong	-10.8021
shuidianzhan	-10.8023
gongxueyuan	-10.8023
gongyipin	-10.8023
liewei	-10.8024
wanyuan,nongmin	-10.8025
liusuan	-10.8027
,quancun	-10.8027
le《	-10.8028
pingzheng	-10.8029
jinyou	-10.803
kaihua	-10.8031
jidi。	-10.8035
20%	-10.8037
xianzaide	-10.8038
mianmao	-10.8038
zhongwenxi	-10.8038
pinqing	-10.8039
suxing	-10.804
jiyingyong	-10.804
xiayi	-10.8041
juweihui	-10.8044
baili	-10.8046
binke	-10.8053
).	-10.8053
leta	-10.8053
juhua	-10.8054
yanwu	-10.8055
zhounian	-10.8056
cifu	-10.8056
shangren	-10.8058
zhuanchang	-10.8058
shejihe	-10.806
zhenweiyu	-10.8061
zhixiao	-10.8061
jushuo	-10.8062
,zheyang	-10.8063
youguo	-10.8065
xueshujiaoliu	-10.8067
wanmeide	-10.8068
xihan	-10.8071
dejiaodu	-10.8071
pengren	-10.8072
sanjiaoxing	-10.8073
hu,youxiangcun	-10.8073
wanpingfangmi	-10.8074
guangpu	-10.8075
い	-10.8076
shengtaihuanjing	-10.8078
kaiyuan	-10.808
hubu	-10.808
chanshengle	-10.808
shichangjingji	-10.8082
huiyou	-10.8082
fenmi	-10.8083
4ren	-10.8084
shamo	-10.8085
dixing	-10.8087
xingjibing	-10.8088
”chenghao。	-10.8089
donghan	-10.8091
shelide	-10.8092
zuihouyi	-10.8092
xingqiye	-10.8092
。yiban	-10.8097
▁6	-10.8101
butong,	-10.8104
laochu	-10.8105
zhunze	-10.8108
jiaotongfangbian	-10.811
youxu	-10.8111
zhisuo	-10.8112
diandingle	-10.8114
huoquanguo	-10.8114
guangrong	-10.8115
bingbian	-10.8116
90%	-10.8124
и	-10.8125
dibu	-10.8128
youxiangongsi(	-10.813
.11	-10.8131
mingmingwei	-10.8132
xiuxi	-10.8134
chanshu	-10.8135
zhongxi	-10.8135
putian	-10.8138
tiao,	-10.8138
zhengzhoushi	-10.8141
dehao	-10.8142
sui,	-10.8142
yantaohui	-10.8142
ala	-10.8142
touxiang	-10.8143
fengjian	-10.8144
senlingongyuan	-10.8144
tuji	-10.8146
。2006nian	-10.8147
jibai	-10.815
xiaoshe	-10.8151
demudi	-10.8152
meishuguan	-10.8155
bolin	-10.8156
diyiming	-10.8156
huanggua	-10.8156
shahai	-10.8157
saier	-10.816
kaifeng	-10.816
mianbu	-10.8162
zuixinde	-10.8163
yuyanxue	-10.8164
dongyuan	-10.8165
lijia	-10.8165
bao》、《	-10.8169
dezuoyong。	-10.817
kaitong	-10.8171
zhuyaobaokuo	-10.8172
yangcong	-10.8174
wusuo	-10.8175
laiyuanyu	-10.8175
suozhu	-10.8176
kejijinbujiang	-10.8177
dangxuan	-10.8181
、lin	-10.8182
3gongli	-10.8183
zaiyige	-10.8188
zhaoshou	-10.8189
zhonghuo	-10.819
duice	-10.8192
jibingde	-10.8194
xiaofeng	-10.8194
wanyuan。	-10.8197
,bingyi	-10.8198
xichang	-10.8203
,zhege	-10.8205
yishang,	-10.8208
menzhen	-10.8208
xiyang	-10.8209
zhizhong,	-10.8209
shidui	-10.821
lingshi	-10.821
shenhou	-10.821
lingdaoxia	-10.8211
weikehu	-10.8211
xiangzhengfu	-10.8214
xizhuren	-10.8215
▁suo	-10.8221
sansheng	-10.8221
2gongli	-10.8221
shijishang	-10.8221
qule	-10.8221
zhubande	-10.8223
gaojizhongxue	-10.8225
kehutigong	-10.8227
ningmeng	-10.8228
yuanben	-10.8228
tiedao	-10.8229
qingzhu	-10.8231
hefeishi	-10.8231
huodongzhong	-10.8232
8hao	-10.8232
shangying	-10.8232
guoying	-10.8233
《》	-10.8233
1926nian	-10.8233
zhisheng	-10.8236
raner	-10.8236
hejishu	-10.8237
buxuyao	-10.8237
buxu	-10.8238
dazhuanxueli	-10.8239
qiege	-10.8244
zhengzhibu	-10.8244
mingsheng	-10.8245
jichuzhishi	-10.8246
▁dizhi:	-10.8253
jieyu	-10.8254
hengxiang	-10.8255
lou、	-10.8258
jianshang	-10.826
tongling	-10.8266
shuizhun	-10.8267
chenghu	-10.8271
duzi	-10.8272
,yeyou	-10.8272
jishukaifa	-10.8275
fare	-10.8276
2ren	-10.8279
duwu	-10.8279
dahuo	-10.8279
qianfu	-10.828
nianqingren	-10.8283
zuoci	-10.8284
foshan	-10.8284
tiancai	-10.8286
beiyong。	-10.8287
shuiwen	-10.8288
qixian	-10.8288
weiyuan,	-10.8288
zhengwei	-10.8289
▁san、	-10.829
chuangshang	-10.8291
zirancun	-10.8292
2.6	-10.8293
jingdezhen	-10.8296
kantan	-10.83
shimuqian	-10.8302
750	-10.8303
qianlie	-10.8304
jianshe,	-10.8304
fengsu	-10.8305
bajiao	-10.8306
yongyouyizhi	-10.8307
tiantang	-10.8308
suoxu	-10.831
▁◎	-10.831
jiazhi。	-10.8311
zhiwai	-10.8317
xiuding	-10.8319
mingtian	-10.832
shiyinwei	-10.8321
jishuchuangxin	-10.8321
jishuzhichi	-10.8322
hunli	-10.8323
dadu	-10.8327
eryan	-10.8327
daodi	-10.8328
changshu	-10.8328
jiaocheng	-10.8329
yizi	-10.8329
duiyuan	-10.8334
cengduoci	-10.8336
zhongnian	-10.8336
mingzhi	-10.8337
kezhang	-10.8337
fudandaxue	-10.8337
deyuanyin	-10.8339
toutong	-10.8339
zoujin	-10.8341
jianqing	-10.8341
shizhan	-10.8342
20-	-10.8343
bushen	-10.8344
2.7	-10.8346
qudai	-10.8348
xiangjian	-10.8348
xiaoxuesheng	-10.8349
xuexiao。	-10.8349
weisi	-10.835
beihai	-10.8351
beiqu	-10.8352
jiangling	-10.8357
huaqi	-10.8357
qianwei	-10.8357
。zuowei	-10.8358
guozhi	-10.8359
duishou	-10.836
gongxu	-10.8363
lukou	-10.8364
weihui	-10.8364
meiren	-10.8365
chenlie	-10.8366
▁chubanshijian:	-10.8366
zhongguoshuhua	-10.8367
。tongguo	-10.8369
zhuanjia,	-10.8369
xiangjiehe	-10.8371
qibu	-10.8371
quanguoxing	-10.8373
fanxiang	-10.8376
shangfang	-10.8379
shiyizuo	-10.8381
zhuyaoyuanliao	-10.8381
zhizuode	-10.8382
jileilefengfude	-10.8386
80niandai	-10.8387
kezuowei	-10.8387
miandian	-10.8388
shanding	-10.839
tongshiye	-10.8392
cinian	-10.8394
jianying	-10.8394
jingshui	-10.8395
kejijinbuerdeng	-10.8396
zaozai	-10.8398
gaojijiaoshi	-10.84
dingju	-10.8401
pingdeng	-10.8401
geguojiahediqu	-10.8402
keyuan	-10.8403
3ren	-10.8403
gongneng。	-10.8405
jiegou,	-10.8406
kejifazhan	-10.8408
yazhi	-10.8408
cixing	-10.8409
zhongchang	-10.8409
3hao	-10.8412
qiju	-10.8415
bianhuan	-10.8423
、shehui	-10.8423
tuili	-10.8424
jiexian	-10.8426
luxiang	-10.8426
huotui	-10.8426
huixiang	-10.8427
shangxian	-10.8429
kekaoxing	-10.8432
,yekeyi	-10.8435
xinxifuwu	-10.8435
qicao	-10.8439
jiajing	-10.8439
deyixie	-10.8441
ruyi	-10.8441
jinxiang	-10.8442
jiaodian	-10.8444
qinfen	-10.8446
yinggelan	-10.8448
-18	-10.845
shuzihua	-10.845
zaizhege	-10.8452
qidai	-10.8453
kending	-10.8454
gaofeng	-10.8456
;1	-10.8457
dexuyao	-10.846
wulixue	-10.8461
ruwei	-10.8463
,chanpin	-10.8464
huoqita	-10.8464
suozhang	-10.8465
mosike	-10.8466
yidingyao	-10.8466
,huode	-10.847
duiying	-10.8471
,zhonggong	-10.8472
roumao	-10.8475
zhici	-10.8475
,huozhe	-10.8476
feilvbin	-10.8476
zhuankexuexiao	-10.8477
shuniu	-10.8478
shengchangongyi	-10.8481
xinlai	-10.8484
zhongzhiye	-10.8485
jianji	-10.8486
xiangtongde	-10.8486
deyisi	-10.8487
。jingguo	-10.849
(qizhong	-10.8491
rouruan	-10.8492
qufu	-10.8492
,shanchang	-10.8494
di4	-10.8494
guanhuai	-10.8495
yanjiu,	-10.8496
luxu	-10.85
xinfeng	-10.85
yangdianshitai	-10.8503
xinzhong	-10.8504
yuanji	-10.8505
bote	-10.8507
youwu	-10.851
shenzhou	-10.8511
yanjiulingyu	-10.8511
ziti	-10.8511
gandong	-10.8513
shui、	-10.8516
ruhua	-10.852
0mu,	-10.8521
genghuan	-10.8523
zhuoyuede	-10.8523
shiyidao	-10.8525
bangonglou	-10.8525
litisheng	-10.8525
zhimingpinpai	-10.8526
weinintigong	-10.8526
jiufen	-10.8529
tongbao	-10.8532
maikefeng	-10.8533
weiguan	-10.8534
zixue	-10.8535
lexuduo	-10.8536
jiangshou	-10.8537
kancha	-10.8537
erdeming。	-10.8539
dezongzhi	-10.8543
shikong	-10.8544
caihua	-10.855
chuanzhen	-10.8552
zhongzui	-10.8555
muban	-10.8556
fangzhen、zhengce	-10.8557
guojibiaozhun	-10.8558
(jituan)	-10.8558
qianbi	-10.8558
tiqian	-10.8559
qianfeng	-10.8559
lvhejin	-10.8563
kangzhan	-10.8563
qujing	-10.8566
▁benshu	-10.8567
zhongxin。	-10.8568
fayang	-10.8568
shangyi	-10.857
kezhiwu	-10.857
jiuyuan	-10.8573
▁ci	-10.8573
youyidingde	-10.8574
zhuanyewei	-10.8574
mianbao	-10.8576
tance	-10.8577
kerongna	-10.8577
、qiche	-10.8579
ziyang	-10.858
henyou	-10.8581
dabai	-10.8585
wenmingcheng:	-10.8585
tiankong	-10.8586
youpiao	-10.8586
houbu	-10.8586
hefa	-10.8587
quanmianfazhan	-10.8591
youyou	-10.8592
youhenduo	-10.8599
fensi	-10.8601
huafei	-10.8605
qingxing	-10.8605
aiji	-10.8608
zhuangji	-10.8608
yigu	-10.8611
kuozhang	-10.8613
500ke	-10.8616
()he	-10.8617
juxian	-10.8623
▁cong	-10.8623
3ren,	-10.8623
▁(er)	-10.8624
yongjiu	-10.8625
jiaoyanshizhuren	-10.8626
gaimingwei	-10.8626
,haiba	-10.8627
duihua	-10.8627
ziyuan,	-10.8629
nuowei	-10.8632
dating	-10.8633
zaonian	-10.8634
shangshigongsi	-10.8635
,meinian	-10.8637
caidan	-10.8638
fuzongjingli	-10.8641
buqiang	-10.8646
heshui	-10.8646
cai、	-10.8648
teyue	-10.8649
▁.	-10.8651
baicai	-10.8651
minyong	-10.8655
dailaide	-10.8657
yijiao	-10.8659
yangzhiye	-10.866
kela	-10.8661
15fenzhong	-10.8662
yinger	-10.8663
chongxiu	-10.8664
shanchu	-10.8668
ketang	-10.8668
yanyuan,	-10.867
shanshang	-10.8672
,liyong	-10.8673
yizhao	-10.8673
youru	-10.8674
。weiyu	-10.8675
20fenzhong	-10.8676
jinzhang	-10.8679
juren	-10.8679
suoyong	-10.8681
xulie	-10.8682
/1	-10.8685
guniang	-10.8686
wuyue	-10.8687
touchan	-10.8687
xiantiao	-10.8688
youzhifuwu	-10.869
leide	-10.869
jiaoqu	-10.8692
fulian	-10.8694
liyou	-10.8695
cunnei	-10.8698
192	-10.8698
jiaodi	-10.8698
jiaowang	-10.8705
,nenggou	-10.8713
huifuhuizhang	-10.8714
falv、fagui	-10.8715
°	-10.8716
pinpai。	-10.8716
yuding	-10.8719
liyuan	-10.872
zhuxing	-10.8721
kaicai	-10.8721
longshan	-10.8724
,name	-10.8725
youliangge	-10.8726
jiaogaode	-10.8726
8%	-10.873
zhushou	-10.8734
-16	-10.8734
wanhui	-10.8734
guwu	-10.8738
hekou	-10.8739
deyikuan	-10.8739
henhao	-10.874
fangqi	-10.874
,yiqi	-10.874
”,shi	-10.874
moli	-10.8748
chuxianle	-10.8749
diji	-10.8749
。suoyi	-10.8749
caihui	-10.875
:‘	-10.8752
guanlimoshi	-10.8756
huizu	-10.8756
yanxu	-10.8757
,renmen	-10.8759
gaosuzhidi	-10.8759
shuangchong	-10.876
ruanjiankaifa	-10.8762
30ke	-10.8765
1ci	-10.8766
zhuang。	-10.8767
duobu	-10.8769
changshashi	-10.8772
,canyu	-10.8772
buda	-10.8776
beichengwei“	-10.8777
α	-10.8779
"、"	-10.8781
baise,	-10.8784
zhan、	-10.8784
shengfen	-10.8784
shangke	-10.8785
di5	-10.8787
zhongguoguoji	-10.8788
duode	-10.8788
zugou	-10.8789
benshi	-10.8792
shuiyu	-10.8793
didi	-10.8793
lunshu	-10.8795
keyitongguo	-10.8797
jiesheng	-10.8797
liulanqi	-10.8801
shanliang	-10.8805
mingjiao	-10.8805
mushi	-10.8806
fupin	-10.8806
chaosheng	-10.8806
xuehuihuiyuan	-10.8807
shaojiang	-10.8811
dianshiju《	-10.8818
wangluoyingxiao	-10.8818
shouchuang	-10.8819
deyizhi	-10.882
zuoguo	-10.8823
shengyue	-10.8824
chongtu	-10.8825
shangshiji	-10.8825
wusi	-10.8827
zhizaoshang	-10.8828
shu》	-10.8831
xianshiqi	-10.8832
heibai	-10.8832
^	-10.8833
daxuewenhua	-10.8833
yanjiugongzuo	-10.8834
zhelei	-10.8836
faxingde	-10.8836
dezhuti	-10.8836
baoyang	-10.8838
jianyue	-10.884
zhiyong	-10.8844
15ke	-10.8845
shicheng	-10.8846
yihao	-10.8846
dadaole	-10.8846
dengnongzuowu	-10.8848
hezhongguo	-10.8848
foshanshi	-10.8849
yeneng	-10.885
huaxu	-10.885
siyuan	-10.8851
xishui	-10.8852
dami	-10.8853
nnongcunjianshe	-10.8855
zhengxiefuzhuxi	-10.886
huoshao	-10.8861
ali	-10.8863
pinbo	-10.8863
shiguonei	-10.8865
baoguan	-10.8872
dejingying	-10.8875
fencheng	-10.8879
yanjiu、	-10.8879
gan、	-10.8882
jianxin	-10.8884
pizhun,	-10.8885
zaoshu	-10.8885
shehuide	-10.8885
shouyao	-10.8892
huiguo	-10.8892
pinghua	-10.8892
yingyongchengxu	-10.8893
jinhou	-10.8894
geyue	-10.8895
,tongshiye	-10.8896
chiyou	-10.8897
guzhi	-10.8898
deanquan	-10.8898
lun》	-10.8898
linchuanggongzuo	-10.8898
。yongyu	-10.8898
juchang	-10.8905
。jinnianlai,	-10.8908
10gongli	-10.8908
caoben	-10.8909
jingse	-10.8911
liushui	-10.8913
xiangyao	-10.8914
gongjin,	-10.8915
shanlin	-10.8916
zhuanrenjiaoshi	-10.8917
zhixin	-10.8919
。tongnian	-10.892
liuli	-10.8921
▁liu	-10.8922
zheng、	-10.8925
,na	-10.8928
dechuantong	-10.8928
hezuoguanxi	-10.8929
tongku	-10.893
jidong	-10.8933
ribao》	-10.8935
biming	-10.8937
,dangshi	-10.8939
shuishang	-10.894
zhuyuan	-10.894
huoguojia	-10.8942
renminfayuan	-10.8943
faxianle	-10.8944
xinnian	-10.8945
shiwai	-10.8946
zuofeng	-10.8949
hengxing	-10.8954
jiazhong	-10.8954
fenge	-10.8955
dingli	-10.8956
fuzhoushi	-10.8956
zongzichan	-10.8956
caiyao	-10.8957
congming	-10.8958
zhuanji《	-10.8958
jiefanghou	-10.8959
wulunshi	-10.8962
qianxi	-10.8962
gaixiangmu	-10.8962
yifan	-10.8963
135	-10.8964
dewangluo	-10.8964
jiagong、	-10.8965
ri,	-10.8966
gongting	-10.8967
8.5	-10.8967
yanjiuhuilishi	-10.8967
gongchengsheji	-10.8969
zhongri	-10.8971
zhanchang	-10.8971
chuanxian	-10.8974
lingyou	-10.8974
ronghua	-10.8975
changwulishi	-10.8976
daming	-10.8976
,yibian	-10.8979
jianzhusheji	-10.8979
keyanketi	-10.898
shitou	-10.898
3%	-10.8981
jingxian	-10.8981
yuwang	-10.8982
linyi	-10.8982
2×	-10.8985
banzhang	-10.8986
kexi	-10.8986
hepan	-10.8987
biaobing	-10.8991
shixiao	-10.8992
。’”	-10.8992
jingjishi	-10.8994
jiaoxuechengguo	-10.8994
shijianzhong	-10.8995
1liang,	-10.8998
o	-10.8998
1999	-10.8999
1998	-10.9001
jinbai	-10.9003
、shangwu	-10.9003
fenggede	-10.9005
hefuwu	-10.9005
feier	-10.9007
youxiaodi	-10.9008
yujian	-10.901
lengshui	-10.9012
dekaifa	-10.9013
delinian	-10.9015
yongdi	-10.9015
dexiaoguo	-10.9017
,suizhe	-10.9023
julicunweihui	-10.9023
genghaodi	-10.9024
bulun	-10.9024
4.2	-10.9027
xiangjie	-10.9028
shewai	-10.9028
huazhuang	-10.903
daoyu	-10.9031
shenmei	-10.9031
weixie	-10.9033
yanyuan。	-10.9036
chuxing	-10.9037
yongyao	-10.9041
xingren	-10.9045
depengyou	-10.9045
henhaode	-10.9046
zonghushu	-10.9047
weici	-10.9048
daguimo	-10.9049
yimen	-10.9049
gewu	-10.905
yanjiuyuan,	-10.905
biaoqian	-10.9055
wuxiang	-10.9055
quanfangweide	-10.9056
dezuixin	-10.9056
jiaoshi、	-10.9057
shantou	-10.9057
taiji	-10.9058
banbu	-10.906
libai	-10.906
guojishang	-10.9061
zuigaode	-10.9063
youxizhong	-10.9064
xuezhi	-10.9069
shangxueyuan	-10.907
duimian	-10.907
jumu	-10.907
fujiaoshou。	-10.907
102	-10.9071
zheme	-10.9071
yangpin	-10.9074
laonianren	-10.9075
qingkuangxia	-10.9076
dianwang	-10.9081
beishang	-10.9081
junguan	-10.9082
zhouqu	-10.9083
dalianshi	-10.9084
qiyejituan	-10.9085
lingdaoxiaozu	-10.9089
deshiqing	-10.9091
mazui	-10.9095
yishang。	-10.9098
,gei	-10.91
shuqian	-10.91
yangdangxiao	-10.9101
bingbushi	-10.9102
guojiabiaozhun	-10.9103
tanxian	-10.9104
depinpai	-10.9104
deyijia	-10.9104
weiruan	-10.9104
zhuyaoneirong	-10.9106
guangxu	-10.9107
shuailing	-10.9108
youyue	-10.9109
xueyuanyuanzhang	-10.911
nenglide	-10.911
mu;youlindi	-10.9112
shiyiben	-10.9112
dayinji	-10.9113
qianshenshi	-10.9116
song·	-10.9116
jianshexiangmu	-10.9116
youxiang	-10.9118
zunshou	-10.9118
shiwo	-10.9119
kuayue	-10.912
guancheluoshi	-10.9121
fuxianzhang	-10.9124
▁beijing	-10.9124
sanbai	-10.9127
douzai	-10.913
shunjian	-10.9132
dexinxi	-10.9134
。song	-10.9134
erren	-10.9134
wenhuachuanbo	-10.9136
mao。	-10.9142
fuzhurenweiyuan	-10.9142
changyu	-10.9142
200mi	-10.9144
neirongbaokuo	-10.9145
30ri	-10.9148
fangda	-10.9148
1800	-10.9153
zhimingde	-10.9154
nance	-10.9154
bici	-10.9155
delilun	-10.9157
defazhan,	-10.9157
hegu	-10.9158
xiangxia	-10.9158
daxuexueli,	-10.9159
eding	-10.916
zaoyin	-10.9161
zaita	-10.9161
weiyuanhuizhuren	-10.9161
aier	-10.9163
zaineide	-10.9166
qiuji	-10.9169
gonggu	-10.917
zhenren	-10.9172
chuzhi	-10.9176
shengyi	-10.9176
fanyingle	-10.9177
11.	-10.9177
gonglichu,	-10.9178
qiangliede	-10.9179
tixianle	-10.9179
yemian	-10.9183
yousan	-10.9183
mingxiao	-10.9185
,dazao	-10.9185
gudu	-10.9185
xitongjicheng	-10.9185
weiyuan。	-10.9186
zhuang、	-10.9189
quyi	-10.919
zhibing	-10.9191
minying	-10.9191
bizhi	-10.9192
tongguodui	-10.9192
xinsijun	-10.9194
,lishuyu	-10.9196
haiyao	-10.9198
canjiazhongguo	-10.9198
,suiran	-10.92
tuqi	-10.9204
5°C	-10.9204
buding	-10.9205
xiagu	-10.9207
wangka	-10.921
guanxi,	-10.9213
qingyi	-10.9214
(-	-10.9214
qianding	-10.9216
gezirancun	-10.9217
yidengjiang。	-10.9221
20ri	-10.9222
0*	-10.9225
fudiao	-10.9225
kejijinbusandeng	-10.9228
)deng	-10.923
ouxiang	-10.923
yigong	-10.9231
lvse,	-10.9231
dengduoge	-10.9234
6ren,	-10.9234
zhuanyexuexi	-10.9236
hanyi	-10.9237
tianwen	-10.9237
shehuixue	-10.9239
,canjia	-10.924
weihexin	-10.9241
yuguanli	-10.9241
yangji	-10.9242
(18	-10.9242
jieju	-10.9242
。danshi	-10.9245
200duo	-10.9246
jiezhe	-10.9248
fenfen	-10.9249
xiaoxiang	-10.925
guojiayiji	-10.925
junheng	-10.9253
erzhi	-10.9254
wudu	-10.9257
bufu	-10.9258
▁jiudian	-10.9261
chengshude	-10.9263
deshui	-10.9264
huatan	-10.9265
xiangcai	-10.9266
188	-10.9266
shuixi	-10.9267
bilishi	-10.9268
yingpanrongliang	-10.9269
wenhe	-10.927
qiyue	-10.9271
huifulishizhang	-10.9273
zhezuo	-10.9278
pinpaide	-10.9278
5.2	-10.928
yuanyang	-10.9282
yizhou	-10.9283
yundonghui	-10.9283
500mi	-10.9286
dejingji	-10.9287
shixue	-10.929
qianjing	-10.929
qiuchang	-10.9293
dun,	-10.9294
ganxian	-10.9295
daxuezhongwenxi	-10.9295
jiandujiancha	-10.9296
tongsu	-10.9298
maichong	-10.9298
,juli	-10.9299
gaijian	-10.93
lishiyoujiu	-10.9302
yixuehui	-10.9303
lishi,	-10.9304
tongchou	-10.9305
daan	-10.9306
shehuituanti	-10.9306
1～	-10.9308
1995	-10.9308
10wan	-10.9309
falan	-10.9311
lishihui	-10.9312
gaoxingneng	-10.9313
duocicanjia	-10.9315
pinpai,	-10.9316
chanquan	-10.9317
。jiudian	-10.9318
[	-10.9319
shigenju	-10.9321
zaixiaosheng	-10.9322
rangwomen	-10.9322
yongyi	-10.9323
deshiji	-10.9324
renzai	-10.9325
daxuebiye	-10.9326
gailun	-10.9328
。quancun	-10.9329
2ci	-10.9329
。”song	-10.9329
5ren,	-10.9329
buduande	-10.9334
xiezilou	-10.9335
ruqin	-10.9337
xietong	-10.9338
jueshi	-10.9338
shuomingshu	-10.9339
、chen	-10.9341
shuan	-10.9343
dazhi	-10.9345
benzhe“	-10.9345
ruxia:	-10.9346
weiyiti	-10.9349
daer	-10.9349
fenji	-10.9355
(ji	-10.9356
kuangchan	-10.9357
zhengjian	-10.9357
neige	-10.9358
kexuefazhanguan	-10.9358
。zheli	-10.9358
laowu	-10.9359
muer	-10.9362
shiyijiayi	-10.9369
wuhua	-10.9369
。2008nian	-10.9371
5.0	-10.9377
gangcai	-10.9377
nvzhujue	-10.9378
qianmi	-10.938
xiuyang	-10.9381
1024	-10.9382
10yu	-10.9385
xinxin	-10.9386
、xiuxian	-10.9387
zhendi	-10.9387
fazhanchengwei	-10.9389
dengduoxiang	-10.9389
liangshan	-10.9389
tuanzhang	-10.9392
laba	-10.9392
qingre	-10.9393
。lingwai,	-10.9394
8ren	-10.9396
keai	-10.9397
danchun	-10.9397
qizai	-10.9399
qiangjiu	-10.94
dailishang	-10.9401
xintai	-10.9401
yishan	-10.9402
(qu	-10.9407
caodi	-10.9409
xuanlv	-10.9414
dierci	-10.9414
huanle	-10.9414
jiaoyugongzuo	-10.9416
xushi	-10.9418
dingshi	-10.942
dianxian	-10.942
dejiaoyu	-10.9421
sanceng	-10.9422
xinpinzhong	-10.9422
danshui	-10.9423
youlan	-10.9424
weifang	-10.9426
:8	-10.9426
kexie	-10.9428
longmen	-10.9428
lvxingshe	-10.9429
、xiaoshou	-10.9431
yufazhan	-10.9432
changshangweizhi	-10.9434
guangfu	-10.9436
4～	-10.9438
chuzhang	-10.9439
▁biaozhun	-10.944
guotuziyuan	-10.944
zhongli	-10.944
reliang	-10.9442
▁dierjie	-10.9444
yue15ri	-10.9444
jiya	-10.9444
haixian	-10.9445
luoke	-10.9446
dejuti	-10.9447
deyouxi	-10.945
canjian	-10.9453
。1949nian	-10.9454
fudan	-10.9455
xingqiang	-10.9455
,beiyu	-10.9455
yitai	-10.9456
binhai	-10.9456
106	-10.9457
nongjia	-10.9461
jianzheng	-10.9462
zaochengde	-10.9466
30%	-10.9468
─	-10.947
huainan	-10.947
kezhi	-10.9472
huohua	-10.9472
houzhe	-10.9475
tianranqi	-10.9475
nengzai	-10.9475
quanxiao	-10.9476
huangse,	-10.9476
zaixianggang	-10.9484
daochu	-10.9485
junzhu	-10.9485
weiguojia	-10.9494
gongping	-10.9494
taoyuan	-10.9495
gulao	-10.9495
lunzheng	-10.9495
yanzi	-10.9495
dejiage	-10.9495
taizhou	-10.9496
shuming	-10.9497
guangdakehu	-10.9499
deshiyong	-10.95
juzi	-10.9502
wucha	-10.9503
tuoli	-10.9503
30fenzhong	-10.9506
biaoxianchu	-10.9507
bohai	-10.9508
daguan	-10.9509
cunzhen	-10.9515
pingmuchicun:	-10.9519
zhonghuaminzu	-10.9519
xixiang	-10.952
5hao	-10.952
shipu	-10.9522
cailiaode	-10.9522
dewenhua	-10.9523
taohua	-10.9524
huibian	-10.9526
chunjie	-10.9527
xiangjiehede	-10.9527
buduanchuangxin	-10.9528
detongzhi	-10.953
beishou	-10.9534
jinianguan	-10.9538
115	-10.9538
weizongzhi	-10.9539
jishui	-10.954
mianliao	-10.954
bailing	-10.954
suiyue	-10.9543
zhangzi	-10.9544
handai	-10.9545
chuansong	-10.9546
zhanghu	-10.9548
5.	-10.9549
dexiangguan	-10.955
baoji	-10.955
2/	-10.9552
linghun	-10.9552
changwufu	-10.9554
ludi	-10.9556
dezhishi	-10.956
guanlizhidu	-10.956
huijia	-10.9563
yufa	-10.9563
degushi。	-10.9566
dengzhi	-10.9569
luxun	-10.9569
、jingji	-10.9571
liangduan	-10.9571
nve	-10.9573
chanpinkaifa	-10.9573
,bingjiang	-10.9574
deqingkuang	-10.9575
guotumianji	-10.9576
gaochao	-10.9577
tuceng	-10.9577
shijian,	-10.958
xinpianzu	-10.9582
genghao	-10.9584
hudie	-10.9587
daba	-10.9587
huangshi	-10.9588
beipo	-10.9588
kenengshi	-10.9588
fuben	-10.959
huashan	-10.9591
jiami	-10.9591
yizuo“	-10.9591
shuangxiang	-10.9593
diqijie	-10.9597
waibiao	-10.9599
qinwang	-10.9599
xuanba	-10.9602
shizhe	-10.9604
260	-10.9606
′′	-10.9606
xiuzheng	-10.9611
deshengyin	-10.9611
xinxilan	-10.9614
shasi	-10.9615
yuanliao:	-10.9617
112	-10.9619
shimian	-10.9619
fenliang	-10.9619
guanxi。	-10.962
minsheng	-10.9622
jier	-10.9623
gailiang	-10.9624
210	-10.9624
shengdaoshi,	-10.9625
768	-10.9625
shuohua	-10.9627
wuding	-10.9628
tingyuan	-10.963
lengdong	-10.963
chuandao	-10.963
woer	-10.9631
jimo	-10.9633
jingwu	-10.9635
zhuyaochanpinyou	-10.9637
conghua	-10.9638
kuiyang	-10.964
xiganjing	-10.964
chushengzai	-10.964
kezuo	-10.964
yichan	-10.9641
。2005nian	-10.9641
tiaowen	-10.9642
aodili	-10.9642
xiaoshou、	-10.9642
erdeming	-10.9643
yue25ri	-10.9644
qurenminzhengfu	-10.9644
hangyexiehui	-10.9646
gaozhiliang	-10.9649
i	-10.965
duita	-10.965
,jiaqiang	-10.965
∶	-10.9651
;《	-10.9652
miantuan	-10.9653
weiju	-10.9655
wendang	-10.9658
yongxin	-10.966
meifu	-10.9663
buguize	-10.9665
zhuansu	-10.9665
xiangtan	-10.9667
xinxiang	-10.9668
keyishi	-10.9669
manyide	-10.967
mao,	-10.9672
dongxian	-10.9673
xiangmu。	-10.9673
kaituochuangxin	-10.9675
biaoji	-10.9676
shufazuopin	-10.9677
zhanling	-10.9677
liujing	-10.9678
gaopinzhidi	-10.9679
fangwenxuezhe	-10.9679
kekaode	-10.9681
shangquan	-10.9681
dangjian	-10.9682
zhuazhu	-10.9683
jianshehe	-10.9684
changzheng	-10.9686
mofang	-10.9686
xuangua	-10.9687
xiangnan	-10.9687
zibo	-10.9687
taofang	-10.9688
zixi	-10.969
200ke	-10.969
gongban	-10.969
yanjiuhuihuiyuan	-10.9692
8ri	-10.9693
qiaozhen	-10.9694
qieduan	-10.9694
yiliang	-10.9695
zhuyou《	-10.9697
zuixianjinde	-10.9698
yanli	-10.9698
kuangchuang	-10.97
5ren	-10.97
mizhi	-10.9703
guanlixueyuan	-10.9705
yanfa、shengchan、	-10.9705
duxing	-10.9706
1925nian	-10.9706
1—	-10.9709
3/	-10.9711
linxia	-10.9714
cengxianhou	-10.9716
:6	-10.9716
zinv	-10.9717
jianceshebei	-10.9721
youdu	-10.9722
maer	-10.9722
30duo	-10.9723
peitaosheshi	-10.9724
shouxu	-10.9726
shishu	-10.9726
.5%	-10.9726
shaozhi	-10.9727
10000	-10.9728
zhengui	-10.9728
shijiaoyuju	-10.973
zitai	-10.973
sanya	-10.9732
yiliaoqixie	-10.9734
jianxi	-10.9734
xiangdong	-10.9735
zaiwoguo	-10.974
zhaoshangyinzi	-10.9743
qianru	-10.9744
,yeke	-10.9746
sihou	-10.9747
wenhuabu	-10.9749
zhanhui	-10.9749
xingshi,	-10.975
、gan	-10.975
shigonganju	-10.975
yuekan	-10.9754
liangji	-10.9754
zhenggui	-10.9754
.00gongli	-10.9756
budong	-10.9757
qite	-10.9759
kaer	-10.976
haixia	-10.976
xingfa	-10.9764
yanhu	-10.9764
jieli	-10.9766
daxuexueli	-10.9767
famingzhuanli	-10.9767
peixun、	-10.9772
shu:	-10.9772
yizhicongshi	-10.9774
liuxiang	-10.9775
wufeng	-10.9775
2500	-10.9775
:"	-10.9775
bingfei	-10.9776
zhanzai	-10.9778
qiehuan	-10.978
ji》、《	-10.978
douyao	-10.978
▁2008nian	-10.9781
guzhen	-10.9782
fuyanjiuyuan	-10.9782
weifushuji	-10.9783
hou,zai	-10.9783
jiaoxiao	-10.9786
。zhege	-10.9787
dingbu	-10.9787
nashui	-10.9788
buxi	-10.9788
.....	-10.9789
hangkonggongsi	-10.9789
(193	-10.9791
shenyuan	-10.9791
weijichu,	-10.9792
dengchang	-10.9792
shajun	-10.9792
erbei	-10.9793
linpian	-10.9794
qianshi	-10.9796
danwei:	-10.9796
longtou	-10.9796
bingzheng	-10.9798
huoyan	-10.9798
teshujintie	-10.98
buman	-10.98
zongzhi,	-10.9801
deshengming	-10.9801
te·	-10.9802
qingxie	-10.9802
xisu	-10.9803
kunshan	-10.9805
fengkuang	-10.9806
qiuxing	-10.9807
101	-10.9807
,riben	-10.9808
aozhou	-10.9808
chengweizhongguo	-10.9808
deweizhi	-10.9809
taibei	-10.981
xincun	-10.981
deshishi	-10.9812
canzhan	-10.9813
nanshan	-10.9814
suozuo	-10.9815
xier	-10.9815
,yiwei	-10.9816
3xiang	-10.9817
230	-10.9818
xiafang	-10.9818
anji	-10.9819
faxiande	-10.9821
choubei	-10.9823
,xianzaixiaoliyu	-10.9823
chuangkan	-10.9827
huizhou	-10.9828
nenglihe	-10.983
zhongguomeishu	-10.9831
qianwan	-10.9832
yewei	-10.9836
xuanyu	-10.9836
tianzi	-10.9844
gongsiweiyu	-10.9844
congxiao	-10.9844
xiaoshouweiyiti	-10.9845
liuge	-10.9847
jingjijianshe	-10.9849
fashengle	-10.9851
jinjinian	-10.9851
xianfa	-10.9851
。tang	-10.9853
()de	-10.9853
weishuji	-10.9854
,beijing	-10.9854
zhashi	-10.9856
zhijinren	-10.9861
zhuyin	-10.9861
katong	-10.9861
chudao	-10.9862
《da	-10.9862
168	-10.9863
tangchao	-10.9867
yiye	-10.9867
youxiuchengguo	-10.9867
,ruo	-10.9867
bingmeiyou	-10.9867
shaore	-10.987
tieluju	-10.9871
shenshi	-10.9872
、kang	-10.9872
xumuye	-10.9873
”zi	-10.9873
dexuexi	-10.9873
wuhandaxue	-10.9875
mingyue	-10.9875
tedian:	-10.9876
huagui	-10.9877
xianjiang	-10.9882
fenbianlv:	-10.9883
nanti	-10.9884
2013	-10.9888
yudao	-10.989
kuaisufazhan	-10.9891
debufen	-10.9893
yebing	-10.9895
yongfang	-10.9897
rushi	-10.9898
shengsi	-10.9899
wei1	-10.9899
shijiande	-10.99
fuhan	-10.99
haizimen	-10.9901
zhuangpei	-10.9902
dechengji	-10.9904
jiayou	-10.9904
shengnei	-10.9905
xiehuihuiyuan	-10.9906
kaishile	-10.9907
waishang	-10.9907
zhongxiao	-10.991
xitongzhong	-10.991
boshiyanjiusheng	-10.9912
rudang,	-10.9913
lei、	-10.9914
ce,	-10.9914
jiangbei	-10.9915
jiedi	-10.9915
fushuji	-10.9916
,zuozhe	-10.9916
zhezhi	-10.9916
dengzhuanye	-10.9918
yilang	-10.9919
yuandai	-10.9919
pengzhang	-10.9919
xiangsheng	-10.9921
wujie	-10.9921
1liang	-10.9923
shengwujishu	-10.9924
haibin	-10.9925
zhongye	-10.9927
▁jibencanshu	-10.9927
fuzhong	-10.9929
zhongyiyuan	-10.9933
quanyi	-10.9934
dechenggong	-10.9934
198	-10.9936
baomi	-10.9938
deyuyan	-10.9938
shuiziyuan	-10.9939
nian(gongyuan	-10.994
1/3	-10.9943
haoping。	-10.9944
biye。	-10.9944
jiaofu	-10.9945
xinqing	-10.9946
yingguang	-10.9949
zhongkeyuan	-10.995
yongtu:	-10.995
dejihui	-10.9951
zhengjie	-10.9953
zishi	-10.9955
beier	-10.9955
0haomi	-10.9956
haidi	-10.9956
yue20ri	-10.9957
hou,ta	-10.9959
baishi	-10.996
7gongli	-10.9961
zhandian	-10.9962
+1	-10.9962
baoding	-10.9963
gaobiaozhun	-10.9963
dibajie	-10.9964
doubu	-10.9967
jine	-10.9967
haineng	-10.9968
tihui	-10.997
tianzhujiao	-10.9972
zhuanjia。	-10.9973
huaxi	-10.998
touguo	-10.9983
▁zuowei	-10.9984
huanxing	-10.9988
4nian)	-10.9995
di6	-10.9995
baoguo	-10.9996
xiaoliang	-10.9997
laile	-10.9998
zhitu	-10.9999
zongbushezai	-11
nanqu	-11.0001
ke·	-11.0002
qianxian	-11.0003
chanyefazhan	-11.0004
delao	-11.0005
cihou	-11.0005
zaoyu	-11.0005
%%*/	-11.0006
shangu	-11.0006
chongdian	-11.0006
tianyuan	-11.0009
deshuju	-11.001
deliliang	-11.001
heshehuibaozhang	-11.001
dimao	-11.0012
shiyunian	-11.0013
>>	-11.0013
yanjiufangxiang:	-11.0013
,bangzhu	-11.0013
aolinpike	-11.0017
caixi	-11.0018
jianshegongcheng	-11.0021
bangongshifuzhu	-11.0021
jiaodao	-11.0021
danao	-11.0023
▁dianyuan	-11.0024
xiaoshoushouru	-11.0026
jiesuan	-11.0026
wanshang	-11.0026
▁diyijie	-11.0029
liuhua	-11.0031
yuyingyong	-11.0031
danmai	-11.0033
duanlie	-11.0034
bishi	-11.0039
)(	-11.0039
zhurenyishi,	-11.0042
189	-11.0042
zixingche	-11.0044
zhimei	-11.0045
duiwu,	-11.0045
zhanju	-11.0045
wosheng	-11.0046
wei、shizhengfu	-11.0047
fuyuan	-11.0047
,yijing	-11.0047
shiyouhuagong	-11.0048
duizhao	-11.0049
tuerqi	-11.0051
dingjia	-11.0052
yingwenmingcheng	-11.0053
▁shiyong	-11.0054
zhiyan	-11.0055
dejuese	-11.0056
qihua	-11.0056
5wan	-11.0056
;hua	-11.0057
huashuo	-11.0057
jichu。	-11.0059
benzhi	-11.0059
,zhizai	-11.006
duocibeipingwei	-11.0061
wujiang	-11.0061
fengshui	-11.0063
xiaoxiao	-11.0064
liaoyang	-11.0066
26ri	-11.0067
gongchengxi	-11.0068
zaidu	-11.0069
zaixiao	-11.0072
anquanxing	-11.0073
gonglv:	-11.0073
zhi。”	-11.0074
nisi	-11.0074
tuandui,	-11.0075
zuanshi	-11.0075
ming·	-11.0075
baobei	-11.0077
zhouxian	-11.0077
,biru	-11.0078
youcai	-11.0083
qingkuang,	-11.0083
guihuasheji	-11.0083
3.8	-11.0085
、wangluo	-11.0085
jueqi	-11.0086
zhongwenming	-11.0087
jianshede	-11.0089
zonggongchengshi	-11.009
jita	-11.0093
rumen	-11.0094
shiguojia	-11.0095
7nian)	-11.0099
qianyin	-11.0103
kesou	-11.0104
jianhua	-11.0105
ganlan	-11.0107
jinshen	-11.0108
1ming	-11.0108
houmian	-11.0111
guoqing	-11.0111
chachu	-11.0114
280	-11.0116
jiashui	-11.0118
dian)	-11.0119
zirankexue	-11.012
xuexueshi	-11.0123
rangnin	-11.0123
xuexing	-11.0128
▁youyu	-11.0128
▁7	-11.0131
guhua	-11.0131
jinyong	-11.0132
debiaozhun	-11.0134
denggongneng	-11.0134
shengchu	-11.0135
renzao	-11.0135
hezuoshe	-11.0137
100mi	-11.0137
taihe	-11.0137
zhoudao	-11.0138
bushou:	-11.0138
qilai,	-11.0139
xiaoshi,	-11.0142
tepin	-11.0144
fengmao	-11.0145
xing:	-11.0145
nongyu	-11.0145
gongchengxiangmu	-11.0147
tongqi	-11.0147
buhan	-11.0148
hangdao	-11.0149
lixi	-11.0149
diqu。	-11.0149
nongtian	-11.0151
yuyiti	-11.0151
sanjia	-11.0152
ziyi	-11.0153
xiaoqiao	-11.0153
baobiao	-11.0153
chanshi	-11.0154
xiji	-11.0155
yancao	-11.0156
qiyuanyu	-11.0158
wanglai	-11.0159
chuntian	-11.0159
neifenmi	-11.0159
dingjian	-11.016
shanzhuang	-11.0165
jiegoude	-11.0165
yangqi	-11.0165
rechuli	-11.0166
zaiqi	-11.0166
weiyonghutigong	-11.0169
、ma	-11.0171
jinling	-11.0172
2nian)	-11.0173
4gongli	-11.0175
shuyushanqu	-11.0177
9000	-11.0178
nongyechanyehua	-11.0178
19shiji	-11.018
cansai	-11.0181
ciqu	-11.0182
zhuanxing	-11.0182
fuchi	-11.0183
jingu	-11.0184
yinweita	-11.0184
wenhuajiaoliu	-11.0187
guangbodiantai	-11.0189
donggong	-11.0189
zhiyuanzhe	-11.019
6.0	-11.019
zuopin。	-11.0191
xiaoshuo《	-11.0192
geita	-11.0194
xianxian	-11.0194
saiji	-11.0195
”pai	-11.0203
buguan	-11.0203
erdengjiang。	-11.0205
danggui	-11.0208
hao)	-11.0212
minzheng	-11.0214
baijiu	-11.0215
1nian)	-11.0217
jiaoqiang	-11.0217
fengxing	-11.0218
yushehui	-11.0219
tuichule	-11.0219
12.	-11.0224
deguocheng	-11.0225
lianai	-11.0225
3.7	-11.0227
jianlide	-11.0228
renci	-11.0228
gongzuobumen	-11.023
xianxi	-11.0231
suizhi	-11.0232
richangshenghuo	-11.0232
gaipinzhong	-11.0233
diming	-11.0234
。2007nian	-11.0236
yingzhi	-11.0236
shizong	-11.0237
mende	-11.0237
zaosheng	-11.0241
xinshi	-11.0242
,zhiyao	-11.0244
canjiaguo	-11.0245
lishiwenhua	-11.0249
zhuanrang	-11.0249
bula	-11.025
xilie、	-11.025
genggao	-11.0252
pie	-11.0253
changsuo。	-11.0253
▁7、	-11.0253
shangwujiudian	-11.0254
,xiyu	-11.0254
huawei	-11.0254
dingxing	-11.0255
posui	-11.0256
zhaobiao	-11.0256
;you	-11.0257
dengguojia	-11.0258
detaidu	-11.0258
yanfashengchan	-11.0258
taikong	-11.0258
yizhanshi	-11.0261
shouhu	-11.0265
youzhuyu	-11.0267
chongfenfahui	-11.0268
beiguang	-11.027
8nian)	-11.0273
kejiyouxian	-11.0274
bosi	-11.0274
cen	-11.0276
yongdao	-11.0278
jingyiqiujing	-11.0281
deguanjian	-11.0282
yi。”	-11.0283
juhe	-11.0283
shiyefazhan	-11.0284
cehua、	-11.0284
dongshan	-11.0285
mi,kuan	-11.0285
diaoren	-11.0286
weiweiyuan	-11.0288
motuoche	-11.0289
,,,,	-11.0289
guangfanyongyu	-11.0291
qiye。gongsi	-11.0291
bulu	-11.0291
jianchayuan	-11.0292
sanbu	-11.0293
ru《	-11.0294
nongyeshengchan	-11.0295
zhekuan	-11.0295
ㄐ	-11.0295
caizhengbu	-11.0297
deaiqing	-11.0298
yishi,	-11.0298
▁chubanshe:	-11.0299
0mi,	-11.0301
caoshu	-11.0302
paomo	-11.0303
zu。	-11.0304
shiyanshi、	-11.0305
yansuan	-11.0305
00mu,	-11.0305
waibao	-11.0307
yue10ri	-11.0309
shuhou	-11.0311
renjunshouru	-11.0311
tanhuang	-11.0312
000pingfangmi,	-11.0312
xuefeng	-11.0313
fengxiang	-11.0315
zouchu	-11.0316
luowen	-11.0318
zhoucishi	-11.0319
yonggan	-11.0322
yanjiu。	-11.0323
104	-11.0323
123	-11.0323
,zhuyaocongshi	-11.0325
pige	-11.0326
е	-11.0328
yinjiang	-11.0328
nanningshi	-11.0329
“quanguo	-11.0329
fuzai	-11.033
zhangzhou	-11.033
qianting	-11.033
lingxing	-11.033
bocai	-11.0331
,liru	-11.0332
pinyin	-11.0332
xiangmu,	-11.0333
chongfenliyong	-11.0334
shiyongshouming	-11.0334
liangzi	-11.0335
▁7.	-11.0335
xiede	-11.0336
dongqu	-11.0337
biaoben	-11.0338
jinyi	-11.0338
shebei。	-11.034
zheshiyige	-11.034
zhuanyebiye,	-11.0342
tangshan	-11.0342
mouge	-11.0343
dangshide	-11.0343
shijianjingyan	-11.0345
5nian)	-11.0346
8ren,	-11.0346
quantiyuangong	-11.0347
moduan	-11.0348
kejia	-11.0349
tansuan	-11.0351
xingyun	-11.0352
fenghua	-11.0354
1992	-11.0354
gaosuzhi	-11.0355
guannei	-11.0356
bianliang	-11.0357
xianjinjishu	-11.0357
jicha	-11.0357
kaizhanle	-11.0358
beifen	-11.0359
3nian)	-11.0361
neicunrongliang	-11.0362
sharen	-11.0363
houfang	-11.0366
9hao	-11.0366
pilao	-11.0368
zhugong	-11.037
pingpangqiu	-11.037
letade	-11.0371
,shiyong	-11.0373
qiatan	-11.0373
zongguan	-11.0375
jianfei	-11.0376
,zhishi	-11.0377
buduandi	-11.0377
piping	-11.0383
550	-11.0383
guankan	-11.0384
haiba2	-11.0384
sanqi	-11.0384
:9	-11.0386
tiaoshi	-11.0386
6ren	-11.0387
laoban	-11.0389
cuihua	-11.0389
caijingdaxue	-11.039
shizhizai	-11.0393
huanghua	-11.0393
baozhengle	-11.0397
zhuzhiyishi	-11.0399
xianhouhuode	-11.04
,jike	-11.04
jiazhide	-11.0402
nianshengcaoben	-11.0402
shangyeyinhang	-11.0404
detese	-11.0405
shoushang	-11.0406
shangdian	-11.0408
duikang	-11.0409
yexu	-11.041
10.	-11.0411
5/	-11.0415
chuci	-11.0418
1996	-11.0419
meiyiwei	-11.042
weimi	-11.0422
womenjiang	-11.0424
yizhizai	-11.0424
shuofa	-11.0425
xinghua	-11.0425
sanqian	-11.0426
dejieguo	-11.0426
shengmingde	-11.0426
guren	-11.0429
baoyu	-11.0429
10ri	-11.043
(yixiajiancheng	-11.0431
limi,kuan	-11.0431
nanduan	-11.0433
。’	-11.0436
teyao	-11.044
xingbie	-11.0442
shengqi	-11.0442
shuiliang	-11.0444
,yinqi	-11.0445
shufenlei:tushu>	-11.0448
leibie:	-11.0449
sizhong	-11.0449
chengguan	-11.0451
xuexiaode	-11.0454
1xiang	-11.0455
zhongshandaxue	-11.0455
zhenxiang	-11.0456
xianweishuji	-11.0457
pizhenxing	-11.0457
bingyuan	-11.0458
luxi	-11.0459
dezhanlve	-11.046
9nian)	-11.0461
。2004nian	-11.0463
rudang	-11.0466
▁2006nian	-11.0467
yishupin	-11.0468
zhuozhong	-11.0469
yejing	-11.047
zhinengbumen	-11.0471
buzhidao	-11.0473
dejingdian	-11.0475
kaikuo	-11.0475
。suiran	-11.0475
,jiaotongbianli。	-11.0477
zhuoli	-11.0477
li·	-11.0478
shengchanchang	-11.0479
xiyuan	-11.0479
%yishang	-11.048
dangweiweiyuan	-11.0482
chendian	-11.0483
》;	-11.0485
deqingkuangxia	-11.0486
jidi,	-11.0486
zhike	-11.0487
beiliewei	-11.0487
qieshi	-11.0488
bisaizhong	-11.0488
qianzai	-11.049
fankui	-11.0492
176	-11.0493
teyou	-11.0494
、xianggang	-11.0494
suojian	-11.0495
yanliao	-11.0497
mudishi	-11.0498
tigaole	-11.05
-15	-11.0501
chanwu	-11.0501
baoguang	-11.0503
jinianlai	-11.0504
m	-11.0504
liangzhe	-11.0505
fenxi、	-11.0507
huaxiang	-11.0507
huodongshi	-11.0507
dingliang	-11.0508
qiming	-11.0508
1994	-11.0508
wuyu	-11.0509
2ming	-11.051
。fenbuyu	-11.051
sanren	-11.051
gaofenzi	-11.0512
《guanyu	-11.0512
denggongzuo	-11.0513
shuiyuan	-11.0513
chishui	-11.0513
:7	-11.0514
yizhan	-11.0516
shengchanjishu	-11.0519
lvshishiwusuo	-11.052
lujing	-11.0522
baojia	-11.0523
feiyinglixing	-11.0524
agenting	-11.0524
1.9	-11.0525
,baozheng	-11.0525
zhongdong	-11.0525
zhuomian	-11.0526
▁qiye	-11.0527
jingcheng	-11.0527
yuxian	-11.0527
loupan	-11.0528
н	-11.0532
yuyue	-11.0532
guanai	-11.0536
nanfei	-11.0538
mingxuesheng	-11.0538
gongxue	-11.0539
xueboshixuewei	-11.0539
zhangshijian	-11.0539
renmende	-11.054
xueshuhuiyi	-11.0541
peidian	-11.0541
,zhucezijin	-11.0543
25ri	-11.0544
weishehui	-11.0548
zhejiushi	-11.0549
,youqi	-11.0549
zhuanyerencai	-11.0551
huangqi	-11.0554
mingdan	-11.0554
fanshi	-11.0554
wuxishi	-11.0555
huiju	-11.0556
lilunhe	-11.0556
qingqiu	-11.0558
zhangguan	-11.0559
――	-11.0564
haomi,shiyizhong	-11.0565
gulaode	-11.0565
chusede	-11.0567
:30	-11.0568
4ren,	-11.0569
daziran	-11.0571
qiqi	-11.0572
lilunyushijian	-11.0573
zhidaoyuan	-11.0575
ren;	-11.0576
balujun	-11.0576
feidian	-11.0576
donglixue	-11.0581
kaile	-11.0583
keyangongzuo	-11.0585
zengda	-11.0589
youge	-11.0589
liwu	-11.059
nanning	-11.059
jingzhou	-11.0591
1997	-11.0593
yunfu	-11.0595
zhongjizhicheng	-11.0596
banhua	-11.0596
suoxude	-11.0597
yinji	-11.0599
pingtan	-11.06
、sichuan	-11.06
qiwen	-11.0601
tiyuchang	-11.0601
daoguang	-11.0601
,danta	-11.0603
jiaxing	-11.0603
quanguoyouxiu	-11.0603
taobao	-11.0605
5limi	-11.0605
yongheng	-11.0605
gexianggongzuo	-11.0609
haike	-11.061
jiweishuji	-11.0611
sijia	-11.0612
quanjing	-11.0612
luocheng	-11.0613
shiyede	-11.0614
juzhi	-11.0614
50mi	-11.0615
simiao	-11.0619
xiaozhen	-11.0619
renshou	-11.0621
▁(san)	-11.0622
xingxi	-11.0623
huwei	-11.0624
daqing	-11.0624
、qiye	-11.0626
0nian)	-11.0627
deyanfa	-11.0629
youchong	-11.0629
dongqi	-11.0631
guoyouzichan	-11.0631
chexing	-11.0635
rentong	-11.0636
guojiadui	-11.0637
jujia	-11.0638
4.8	-11.0639
deshichang	-11.064
jicheng。	-11.0644
yiyi。	-11.0647
zhenjun	-11.0649
yuanhuiweiyuan,	-11.0649
109	-11.0651
waihui	-11.0651
daoxiang	-11.0651
3.4	-11.0652
zongliang	-11.0654
luohu	-11.0655
zhengquede	-11.0655
qianliexian	-11.0656
bianqian	-11.0658
、anquan	-11.0661
gongshangju	-11.0662
sheshiqiquan	-11.0664
caifang	-11.0665
jianchenghou	-11.0665
zhidian	-11.0666
guanweihui	-11.0667
β	-11.0667
jiaohuichu	-11.0668
fazhan。	-11.0671
jiaojiechu	-11.0671
hexinqikan	-11.0674
zhanlanhui	-11.0674
zhugan	-11.0675
tangshi	-11.0676
,zui	-11.0676
jingzhan	-11.0676
erduo	-11.0677
,anzhao	-11.0679
gaoxin	-11.0679
huanqiu	-11.068
qiaomiao	-11.068
teli	-11.068
tongwang	-11.0682
weizuzhibu	-11.0682
,jianli	-11.0684
nvshi	-11.0684
pingjunmuchan	-11.0684
fuliao	-11.0686
,zhuzhong	-11.0688
moshu	-11.0689
shengchou	-11.0691
hongzao	-11.0694
luntai	-11.0694
、han	-11.0695
gaotang	-11.0695
000	-11.0695
zhuangzuzizhiqu	-11.0696
jingyinglinian,	-11.0696
fengcai	-11.0698
hufu	-11.0698
jiayu	-11.0698
jiazhuangxian	-11.0699
jilv	-11.0703
gongzuo;fuze	-11.0704
dashu	-11.0705
yuanlaide	-11.0705
zonggonghui	-11.0705
xizhou	-11.0705
??	-11.0707
zuizhang	-11.0707
xingshide	-11.0708
,tazai	-11.0711
zilaishui	-11.0711
95%	-11.0711
zhuanmencongshi	-11.0714
yingyangfengfu	-11.0715
wuqu	-11.0716
dapo	-11.0716
jiaoshiduiwu	-11.0717
ershisi	-11.0717
yingdui	-11.0718
biaoxianwei	-11.0719
linzhong	-11.0721
5mi	-11.0721
xianyouzhigong	-11.0728
,gucheng	-11.0728
zhongyixueyuan	-11.0728
dexiai	-11.0729
shenhoude	-11.073
liliangxionghou,	-11.0731
shouhou	-11.0733
dengdi。	-11.0733
fuwulinian	-11.0734
jiangchengwei	-11.0734
4.1	-11.0736
erbushi	-11.074
shifei	-11.0741
dengyixilie	-11.0744
30yu	-11.0746
danhuang	-11.0746
jianwei	-11.0746
qibing	-11.0747
cunli	-11.075
chufa,	-11.075
6hao	-11.075
naiyou	-11.0752
chubanshe:	-11.0753
5.1	-11.0754
ㄣ	-11.0754
wusheng	-11.0756
0ren,qizhong	-11.0756
maike	-11.076
junfenqu	-11.0762
ス	-11.0764
rujia	-11.0766
,zongmianji	-11.0768
kuosan	-11.0769
shaoyou	-11.0769
dezhiliang	-11.077
jiuzhu	-11.0772
xiehuihuiyuan,	-11.0773
6%	-11.0774
nongsuo	-11.0775
7ren	-11.0777
deguiding	-11.0779
zhandi1	-11.0779
▁9	-11.0779
gangchang	-11.078
baoshan	-11.078
jiaoshi,	-11.0781
youguande	-11.0781
shanshuihua	-11.0782
dianfan	-11.0782
qiangjing	-11.0783
wushui	-11.0783
zhufu	-11.0787
huozai	-11.0787
wanpingmi	-11.079
chuyou	-11.0791
biaozhunjian	-11.0791
boer	-11.0792
neijing	-11.0793
yanhe	-11.0795
,hanzu,	-11.08
tizhigaige	-11.0802
xingyu	-11.0802
erge	-11.0808
zhizhuo	-11.0809
yibao	-11.0809
shuixiang	-11.081
songjiang	-11.0811
xuqiu,	-11.0812
xianweifushuji	-11.0813
103	-11.0813
xiale	-11.0814
▁2009nian	-11.0821
miaozu	-11.0822
renjia	-11.0823
ronghuo“	-11.0824
:0.	-11.0826
derenke	-11.0826
10ke,	-11.0828
rutong	-11.083
、riben	-11.083
(188	-11.083
yanzhongde	-11.0831
jijinxiangmu	-11.0833
dangzuo	-11.0835
8gongli	-11.0835
dazhongxing	-11.0837
bianjing	-11.0837
1990	-11.0838
weimei	-11.0838
zujiande	-11.0839
jijiu	-11.084
》shiyou	-11.084
▁(yi)	-11.084
yousi	-11.0841
chengshou	-11.0843
》yi	-11.0844
yidadao	-11.0845
jiaoshao	-11.0846
。”ming	-11.0847
20gongli	-11.0853
fuer	-11.0857
zhuangzhen	-11.0857
wenku	-11.0858
yuqing	-11.0858
guquan	-11.0859
,buneng	-11.0859
shengping	-11.0859
shigao	-11.086
jinglile	-11.0861
zhuyin:	-11.0862
▁2007nian	-11.0862
liuxingde	-11.0863
mingxiande	-11.0865
1080	-11.0871
qingren	-11.0871
xinxi,	-11.0871
shizuo	-11.0877
jingxiao	-11.0878
150ke	-11.0878
720	-11.0879
huanghese	-11.0879
sushe	-11.088
-12	-11.088
fazhandao	-11.088
junxian	-11.0881
·a	-11.0882
300duo	-11.0883
qianxin	-11.0884
,2004nian	-11.0884
guanxide	-11.0885
diwang	-11.0892
hanjian	-11.0892
che、	-11.0894
diqu,	-11.09
fuwujigou	-11.09
chengnian	-11.09
shequjuweihui	-11.09
▁yongfa	-11.0901
nanlin	-11.0902
zhuda	-11.0905
fenshu	-11.0905
xijingqie	-11.0906
ル	-11.0909
qianmian	-11.0909
nongxueyuan	-11.091
jianshu	-11.0911
mier	-11.0911
bianzheng	-11.0913
shuishi	-11.0913
yicun	-11.0914
yuli	-11.0916
lijiang	-11.0918
jiuyue	-11.0919
xueshuo	-11.0919
bencun	-11.0922
kezuojiaoshou	-11.0922
yanjiushengbiye	-11.0925
。2009nian	-11.0925
deerzi	-11.0925
3—	-11.0926
fu》:“	-11.0928
bubing	-11.0928
pingxiang	-11.0928
jiaohu	-11.0929
dengdai	-11.0931
dangshiren	-11.0931
bufubuzhang	-11.0933
shiyongzhe	-11.0934
gaoyu	-11.0935
tianbao	-11.0939
shenxian	-11.0939
chuse	-11.0939
feiqi	-11.0939
tongdeng	-11.094
mogu	-11.0942
jieye	-11.0945
dangzufushuji	-11.0946
putaoya	-11.0946
25ke	-11.0947
cichang	-11.0947
yanjiukaifa	-11.0948
shitongguo	-11.0952
▁pingmu	-11.0953
chuanguo	-11.0953
zhanshu	-11.0954
degexiang	-11.0956
zhizaoye	-11.0958
guojizhiliang	-11.0959
yaredai	-11.0959
yiyuanrenminbi	-11.096
tiekuang	-11.0961
yonghutigong	-11.0963
buzhuren	-11.0964
duanduan	-11.0965
yice	-11.0966
laidian	-11.0966
wuqiong	-11.0969
jiaoyupeixun	-11.0971
tese,	-11.0972
chaozhi	-11.0973
gongchengzhuanye	-11.0975
yansheng	-11.0976
chengnan	-11.098
う	-11.098
,quanmian	-11.0983
deyangzi	-11.0984
mibu	-11.0986
ㄥ	-11.0986
yue18ri	-11.0988
jianshe、	-11.0988
dezuida	-11.099
xianglian,	-11.0993
degongxiao	-11.0994
wulumuqi	-11.0996
taihu	-11.0996
peiliao	-11.0997
zhiwen	-11.0998
duocai	-11.0998
、jianzhu	-11.0999
,haishi	-11.0999
1zhi	-11.0999
shishangde	-11.1
fengzhi	-11.1
:-	-11.1001
fenkai	-11.1003
jiading	-11.1003
deteshu	-11.1005
fujinde	-11.1008
quanqiuhua	-11.1009
feifan	-11.1011
xunqiu	-11.1012
fenhang	-11.1013
quantao	-11.1016
chuangbande	-11.1017
huilai	-11.1019
fenyuan	-11.1019
oumeng	-11.1024
zhuceziben	-11.1025
yinse	-11.103
70%	-11.1033
xueyuanjiaoshou	-11.1034
wenli	-11.1034
juxingde	-11.1037
,2006nian	-11.1038
shebeihe	-11.1039
,jinlin	-11.1041
dongxiang	-11.1042
wangzhanjianshe	-11.1046
zhuye	-11.1049
shelile	-11.105
jiudianweiyu	-11.105
qianshu	-11.1051
hennan	-11.1052
chengbei	-11.1055
weini	-11.1057
qudiao	-11.1058
6nian)	-11.1058
beiguojia	-11.1059
kandeng	-11.106
danji	-11.106
fanyu	-11.106
9.5	-11.106
shiguang	-11.1062
gaozhiliangde	-11.1063
jingyan。	-11.1063
chuliang	-11.1063
guge	-11.1065
yanqing	-11.1066
zifu	-11.1066
bei”	-11.1067
diyipi	-11.1067
qinshi	-11.107
caiwuguanli	-11.1071
ershou	-11.1071
yuyishen	-11.1071
liangzhi	-11.1071
◇	-11.1073
suozhide	-11.1074
eguo	-11.1075
furong	-11.1075
qinei	-11.1075
eryan,	-11.1075
lantian	-11.1076
shiyouyu	-11.1078
zhongxuesheng	-11.1079
,2005nian	-11.1079
fangshi。	-11.1079
gaikuo	-11.108
yitaiwang	-11.1081
chakan	-11.1083
xisheng。	-11.1085
nengshou	-11.1088
jiaozheng	-11.1089
dianyuanshipeiqi	-11.1093
zhongdeyingyong	-11.1098
zhangxian	-11.1102
yunzhuan	-11.1104
(4)	-11.1105
xiamenshi	-11.1105
beizhongguo	-11.1107
yuanyuanzhang	-11.1108
huati	-11.111
yaoji	-11.111
biangeng	-11.1111
keyiyong	-11.1111
delinchuang	-11.1112
jiashan	-11.1112
chumoping	-11.1113
xianshu	-11.1114
quzi	-11.1115
15gongli	-11.1115
shulin	-11.1116
quannian	-11.1116
175	-11.1116
dezuigao	-11.1118
youyan	-11.1119
zhuyu	-11.1121
ji“	-11.1121
dapeng	-11.1121
tequ	-11.1122
shushide	-11.1122
daquan	-11.1123
pizhunde	-11.1123
yufu	-11.1125
haizide	-11.1126
wanmu,	-11.1126
juan。	-11.1126
gensui	-11.1127
lingzhi	-11.1129
jianshebu	-11.113
huangpu	-11.1131
liuda	-11.1131
shiyang	-11.1133
riji	-11.1133
jingzhande	-11.1134
,kaizhan	-11.1134
。zhuyou《	-11.1138
,zuoluoyu	-11.1138
fengjingxiulide	-11.114
▁xianren	-11.114
zijie	-11.1141
shu》:“	-11.1141
zhouzhi	-11.1141
huiyuan,	-11.1145
renge	-11.1146
6～	-11.1146
shunzhi	-11.1146
hongguan	-11.1147
konglong	-11.1147
jiubu	-11.1148
guimozuidade	-11.115
congyerenyuan	-11.1151
dehaoping	-11.1152
xiaoshan	-11.1154
wuming	-11.1154
jiantizhongwen	-11.1156
zuchengyuan	-11.1156
shiwusuo	-11.1157
qingqu	-11.1158
shiyongfanwei	-11.1158
270	-11.1159
。duiyu	-11.1159
shengxia	-11.1161
dezhengti	-11.1161
zhijin。	-11.1161
zhengshou	-11.1165
tingji	-11.1165
tu》	-11.1165
huaniao	-11.1165
shuoguo	-11.1167
ligong	-11.117
shehuifazhan	-11.1175
quedian	-11.1176
renli	-11.1176
yisishi	-11.1178
zhongdui	-11.1178
zhengwen	-11.1178
zhiyejishuxue	-11.118
youyizhong	-11.118
shouke	-11.118
“da	-11.1181
jibenshang	-11.1182
woyuan	-11.1183
jiahe	-11.1183
juchi	-11.1184
650	-11.1185
nimen	-11.1186
renxinghua	-11.1186
taizu	-11.1187
し	-11.1189
133	-11.119
yu《	-11.119
ershinian	-11.1191
122	-11.1191
▁★	-11.1192
weifan	-11.1192
kanwufabiao	-11.1194
weifa	-11.1196
simian	-11.1196
13.	-11.1197
shouti	-11.1198
shengxue	-11.1199
nike	-11.1199
lunwen《	-11.1199
yousejinshu	-11.12
bage	-11.12
meijun	-11.1201
yuelanshi	-11.1202
diershi	-11.1202
emo	-11.1202
29ri	-11.1203
201	-11.1208
jiaqing	-11.1209
gaixing	-11.1211
xiaodao	-11.1212
xueshuweiyuanhui	-11.1212
qinglai	-11.1212
zainan	-11.1214
rongdian	-11.1218
jinyu	-11.1218
quanju	-11.1219
yushijian	-11.1223
guangyi	-11.1224
danxiang	-11.123
yuanweiyu	-11.123
menchuang	-11.1231
banxuexi	-11.1234
paizhang	-11.1235
maijia	-11.1235
kangjun	-11.1237
、guoji	-11.1238
。1993nian	-11.124
shijiede	-11.1242
kaishi,	-11.1246
liliangxionghou	-11.1247
yanjiuyuan。	-11.1247
mozhi	-11.1249
xiangmuweiyu	-11.125
jianbian	-11.1255
yachi	-11.1255
yue28ri	-11.1257
songxia	-11.1258
yucheng	-11.1258
xiazhai	-11.1259
191	-11.1261
jixiegongye	-11.1262
jishurencai	-11.1264
,shao	-11.1264
dejiegou	-11.1265
,zongtouzi	-11.1265
banzi	-11.1266
bianchengle	-11.1268
baozhuangqingdan	-11.1271
guoduo	-11.1272
xiatian	-11.1273
yiyuan、	-11.1274
shouqi	-11.1274
lingqu	-11.1275
jinrongjigou	-11.1276
qingdian	-11.1277
linmu	-11.1279
shenzao	-11.128
weixin	-11.128
qiguo	-11.1281
dengduo	-11.1282
cidi	-11.1283
。gaicun	-11.1283
jiaoduo	-11.1284
*2	-11.1286
shuwei	-11.1289
(10	-11.129
fenqu	-11.129
zongdu	-11.129
ningju	-11.129
naru	-11.1291
863	-11.1292
yue12ri	-11.1292
chengshiguihua	-11.1296
renminchubanshe	-11.1297
deai	-11.13
ji》:“	-11.13
zhiyue	-11.13
tiaokong	-11.1301
houshi	-11.1302
ducha	-11.1302
fenlei:	-11.1304
▁shanghai	-11.1305
▁waixingchicun	-11.1306
jiange	-11.1309
bingwei	-11.1309
feiyan	-11.1312
yue5ri	-11.1313
cizhi	-11.1314
▁(4)	-11.1314
huihuizhang	-11.1315
dijiujie	-11.1315
lizuyu	-11.1315
huanjingzhong	-11.1318
guanli。	-11.1318
yingyao	-11.1319
chanshule	-11.1319
yimeiyuan	-11.132
tiexin	-11.1321
danqing	-11.1322
。1992nian	-11.1323
tixi。	-11.1323
xuke	-11.1323
kangti	-11.1324
daye	-11.1326
yanshan	-11.1327
tuanwei	-11.1328
380	-11.1328
rizhao	-11.1331
limi。	-11.1331
zuoqujia	-11.1332
mubiao,	-11.1332
mianji3	-11.1333
duande	-11.1335
kaozheng	-11.1337
weizhutide	-11.1338
xingzhengzhifa	-11.1341
juntuan	-11.1344
tuiyi	-11.1345
shouhui	-11.1346
xuehuihuiyuan,	-11.1346
shaokai	-11.1346
wenji	-11.1347
dekongjian	-11.1349
10ren	-11.1349
chengre	-11.135
demeili	-11.1351
tubiao	-11.1354
nianjian,	-11.1354
nvshen	-11.1355
yinyu	-11.1357
zhandouzhong	-11.1357
zhidong	-11.1357
dezuofa	-11.1358
deshiwu	-11.136
huoguo	-11.1361
buting	-11.1365
aierlan	-11.1366
shangchuan	-11.1366
11ge	-11.1368
tiyuguan	-11.1368
jiaoti	-11.1368
shenyi	-11.1369
jianzhumianjiyue	-11.1371
yushu	-11.1371
cankaoshu	-11.1372
16ri	-11.1372
degaodu	-11.1373
leyipi	-11.1373
qiyetigong	-11.1373
zhongzheng	-11.1374
gaoxinqu	-11.1374
menwai	-11.1375
mingwei“	-11.1375
chabie	-11.1376
meimiao	-11.1377
dahu	-11.1379
fumian	-11.1381
shengqian	-11.1384
nengliqiang	-11.1386
shichang,	-11.1386
deqita	-11.1388
1wan	-11.1388
yejituan	-11.1389
canjiaquanguo	-11.1391
fangzi	-11.1392
huanjingyoumei,	-11.1393
00wanyuan,	-11.1396
biran	-11.1397
fuhuizhang	-11.1397
zhengzhiweiyuan	-11.1398
pingdi	-11.14
kegenju	-11.1402
zhenduixing	-11.1408
shejiao	-11.1409
zhuanru	-11.1411
nanchaoliang	-11.1412
xianqu	-11.1413
xuexiao、	-11.1415
congye	-11.1418
fuzequanxian	-11.142
fangfan	-11.1421
。2002nian	-11.1421
yangrou	-11.1422
baohe	-11.1425
dalishi	-11.1425
136	-11.1425
benming	-11.1426
feiliao	-11.1427
tianxiang	-11.1429
linchuangyixue	-11.1431
daibiaoxing	-11.1433
yue16ri	-11.1433
cunminweiyuanhui	-11.1433
4.3	-11.1434
。2003nian	-11.1434
nashi	-11.1435
▁disanjie	-11.1435
bianhua,	-11.1437
90niandai	-11.1438
199	-11.1439
20ke	-11.144
longquan	-11.1441
xialie	-11.1441
minglie	-11.1441
lvhualv	-11.1442
jixiegongcheng	-11.1443
kapian	-11.1444
wanzhong	-11.1445
houdai	-11.1445
,reng	-11.1446
xianrenzhonggong	-11.1448
dingsheng	-11.1448
5ke,	-11.1448
▁chuchu:	-11.1451
chijiu	-11.1452
yangzi	-11.1454
gaoshou	-11.1456
zhuyaowei	-11.1456
gangqu	-11.1456
1924nian	-11.1456
huimin	-11.1459
shizhuang	-11.1461
10yuesheng,	-11.1461
°C,	-11.1464
desudu	-11.1466
50duo	-11.1469
,yici	-11.1471
jingyingde	-11.1471
siyu	-11.1472
denggelei	-11.1473
dangweifushuji、	-11.1473
chengcai	-11.1476
tadui	-11.148
yejian	-11.148
dengxiangguan	-11.1481
helide	-11.1482
beirenweishi	-11.1483
chumo	-11.1488
6yuejiaruzhong	-11.149
lunzhu	-11.149
kexueyanjiuyuan	-11.1491
zhucezijin	-11.1491
qiwang	-11.1491
huaian	-11.1491
peixunban	-11.1492
hanshui	-11.1493
weijie	-11.1496
pingyi	-11.1499
か	-11.15
zhiliangdiyi	-11.1501
ershishiji	-11.1502
xianxiang。	-11.1503
,2003nian	-11.1504
xiehuifuhuizhang	-11.1506
chengzhong	-11.1508
xinwenchuban	-11.1509
zhuzai	-11.151
delianghao	-11.1511
▁genju	-11.1514
fengge,	-11.1514
tongzhou	-11.1515
dafang	-11.1517
yiwaide	-11.1519
yanjiude	-11.1522
dengdanwei	-11.1523
.,.	-11.1526
yuannian(	-11.1529
mianjida	-11.1529
,shiyijiaji	-11.1529
р	-11.153
zhedui	-11.1532
,nanyu	-11.1533
fannao	-11.1533
shouqu	-11.1534
weizhongxin,	-11.1534
binghuo	-11.1536
5.6	-11.1536
shatan	-11.1537
chanyelian	-11.1537
chuzu	-11.1538
shuiliu	-11.1539
mengguzu	-11.1539
40%	-11.154
peiyin	-11.1543
deyaoqiu,	-11.1543
yanqi	-11.1545
、lv	-11.1545
guoren	-11.1546
xinlang	-11.1546
zhuhou	-11.1547
;2	-11.155
dezhiliao	-11.1552
erjian	-11.1552
liangdian	-11.1553
,zhuchi	-11.1553
gaopin	-11.1553
niandelishi	-11.1554
zhuanyebiye	-11.1555
7.2	-11.156
shijiebei	-11.156
wubai	-11.1562
dengguang	-11.1562
。1997nian	-11.1562
chuanranbing	-11.1567
107	-11.1568
1989	-11.1569
dengtedian	-11.1569
chaozhou	-11.157
sushi	-11.1573
yuehan	-11.1573
duguo	-11.1573
。tazai	-11.1576
yinyi	-11.1576
shanxia	-11.1577
,chushengyu	-11.1577
xingti	-11.1578
qiyefazhan	-11.1579
beiju	-11.158
wangqiu	-11.158
jiujiang	-11.1581
minglu	-11.1581
onggongdangyuan。	-11.1581
yimei	-11.1583
biaozhun,	-11.1583
taishang	-11.1584
2wan	-11.1585
xinghao:	-11.1588
zhandimianji2	-11.1588
suoyin	-11.1588
wuer	-11.1589
disanfang	-11.159
pipa	-11.159
fengong	-11.1591
shuimo	-11.1592
zainali	-11.1593
huilu	-11.1593
kanjian	-11.1594
fazhanzhuangda	-11.1594
peiyangxuesheng	-11.1595
lie,	-11.1595
shoucangjia	-11.1595
shenmeshi	-11.1596
deyixiang	-11.1597
xishan	-11.1598
zufen	-11.1598
500qiang	-11.16
kelu	-11.1601
shiyue	-11.1603
。jianyu	-11.1605
),shi	-11.1606
yechengwei	-11.1609
ludeng	-11.161
イ	-11.161
、taiwan	-11.161
jinshi,	-11.1611
》renwuzhiyi。	-11.1616
banshang	-11.1618
derensheng	-11.1622
tianzhu	-11.1624
huiyan	-11.1624
zonge	-11.1628
zhupin	-11.1631
。1988nian	-11.1631
zhiliangbaozheng	-11.1632
zhigao	-11.1633
gailv	-11.1633
tichang	-11.1635
cucao	-11.1635
dapi	-11.1638
zuyi	-11.1639
yadian	-11.1643
laohua	-11.1643
fenxiyi	-11.1645
linchang	-11.1646
50ke,	-11.1646
changyi	-11.1648
bianzuan	-11.1649
shouren	-11.1649
zhiji,	-11.165
buxie	-11.1652
yicixing	-11.1652
wanlifangmi	-11.1653
yijiqita	-11.1657
shuiping。	-11.1659
deyoushi	-11.166
yishujie	-11.166
27ri	-11.166
zhibo	-11.1663
chengyuan。	-11.1664
zhongdianxiangmu	-11.1664
milan	-11.1664
jingyanfengfu	-11.1665
chongshi	-11.1667
zuiduode	-11.1668
qiya	-11.167
liangyou	-11.1671
koubei	-11.1673
jiuyao	-11.1676
fuwuye	-11.1677
buqu	-11.1679
yue8ri	-11.1679
guzhe	-11.1679
6.7	-11.168
bianxiede	-11.1681
yongyouyipi	-11.1683
yizhizhiliyu	-11.1683
dianzhen	-11.1686
xu》:“	-11.1688
,danren	-11.169
sashang	-11.1691
weilaide	-11.1692
biyeyuzhongguo	-11.1693
jingshang	-11.1694
lingnan	-11.1695
buxienuli	-11.1696
,yejiushi	-11.1698
debanxue	-11.1702
shequweiyu	-11.1703
dongtian	-11.1703
wangmin	-11.1704
qingmo	-11.1705
1xiaoshi	-11.1708
10duo	-11.1708
sanre	-11.1708
bingtuan	-11.1708
zhengkeji	-11.1708
tonghangye	-11.171
duanpian	-11.1711
yejiushi	-11.1711
(qijian:	-11.1711
cengmian	-11.1712
shengyou	-11.1713
sangna	-11.1713
xiaomie	-11.1714
tiejin	-11.1715
,qiyu	-11.1715
dalifazhan	-11.1715
yunyingshang	-11.1715
,youyi	-11.1716
zhongduode	-11.1717
jiaodai	-11.1719
nongyekexueyuan	-11.1721
jiaoyushiye	-11.1722
hengliang	-11.1722
40nian	-11.1724
qingtong	-11.1728
〗	-11.1729
xixin	-11.1732
yanzhide	-11.1734
zisun	-11.1734
、guangzhou	-11.1734
fali	-11.1735
。”tang	-11.1736
yancheng	-11.1737
laozi	-11.1738
〖	-11.174
dabu	-11.174
zhongsuo	-11.1741
3ci	-11.1741
xiezi	-11.1741
zhiru	-11.1741
xiankaxinpian:	-11.1745
tangzhi	-11.1746
fenlan	-11.1746
ganggang	-11.1746
xianli	-11.1747
lvda	-11.1748
xingming:	-11.1748
jiangpian	-11.175
bishang	-11.175
tanpan	-11.175
kehua	-11.175
bingyi	-11.1753
quxiao	-11.1755
liepian	-11.1757
changzhurenkou	-11.1757
,cu	-11.1758
,juxiancheng	-11.1758
deqinglai	-11.1758
xinzeng	-11.1759
、keyan	-11.176
2—	-11.1761
wenhuayichan	-11.1761
tuoyuanxing,	-11.1762
zhangzhi	-11.1766
▁2005nian	-11.1766
pingban	-11.1767
qici	-11.1769
cengdanren	-11.177
youzhidichanpin	-11.1771
zhichu,	-11.1773
junzi	-11.1775
dangheguojia	-11.1776
,gengshi	-11.1777
jiaoxing	-11.1779
chenggongdi	-11.178
qiyou	-11.178
▁2010nian	-11.178
wugu	-11.178
4%	-11.1781
haerbinshi	-11.1781
dedaxiao	-11.1784
gaojia	-11.1784
wushuichuli	-11.1786
qingqianlong	-11.1786
shenshen	-11.1787
lingdi	-11.1789
xinxide	-11.179
bancai	-11.1791
suoduan	-11.1791
shipinanquan	-11.1792
jiche	-11.1793
hangaile	-11.1793
yue23ri	-11.1794
kancheng	-11.1795
taizhoushi	-11.1798
ledaliang	-11.1798
dikang	-11.18
yaoqiu。	-11.1803
yongqi	-11.1803
jiaoyujia	-11.1804
gexiangzhen	-11.1804
dehuanjing	-11.1804
guaiwu	-11.1804
xiangweiyu	-11.1805
jiandujianyan	-11.1805
diaodu	-11.1806
youxiandianshi	-11.1806
shufu	-11.1807
、wenhua	-11.181
。1984nian	-11.1811
shudian	-11.1813
yiyangde	-11.1813
zhi》	-11.1813
yiyingjuquan	-11.1815
6gongli	-11.1817
mianyang	-11.1818
huanman	-11.1818
,shanghai	-11.1819
wuzhidi	-11.182
,meige	-11.182
zhongyiyaodaxue	-11.182
9001	-11.1821
kouyu	-11.1823
boyin	-11.1823
yingxiang。	-11.1824
lading	-11.183
renzhongguo	-11.1831
gongsichanpin	-11.1831
,zuoluozai	-11.1834
sanshinian	-11.1836
zhuangda	-11.1837
jieyi	-11.1838
yibande	-11.1838
fengtian	-11.1838
。1996nian	-11.1839
luqu	-11.1839
xue》	-11.184
zhuangru	-11.1841
gjingmingshengqu	-11.1843
zhongxiaoxing	-11.1843
mini	-11.1843
nonglin	-11.1844
yuansheng	-11.1844
jingzhun	-11.1845
canzhao	-11.1847
beihou	-11.1847
guer	-11.1848
muqianyi	-11.1849
xianhua	-11.1849
7hao	-11.185
zhuiqiuzhuoyue	-11.185
sulv	-11.185
yumeiguo	-11.185
tianyi	-11.1852
zhilv	-11.1852
saiche	-11.1854
lishi。	-11.1855
huigu	-11.1855
dongyang	-11.1855
yaoye	-11.1857
▁anquan	-11.186
121	-11.1864
hese,	-11.1864
1988	-11.1865
sanyue	-11.1866
waishi	-11.1868
qingyang	-11.1869
mingbai	-11.1869
shenxin	-11.1869
zongchengbao	-11.187
jinwei	-11.187
1、	-11.187
renyuande	-11.1872
wuju	-11.1872
chaju	-11.1873
shencai	-11.1876
yue26ri	-11.1877
renminqunzhong	-11.1877
.5limi	-11.1878
fuchu	-11.1878
xiangbi,	-11.1879
qinlve	-11.1879
7yuebiyeyu	-11.188
weidu	-11.1881
liuxiao	-11.1883
jingran	-11.1884
850	-11.1884
erjia	-11.1886
12ri	-11.1886
yongzheng	-11.1887
xitong。	-11.1887
zhuyaozhize	-11.1888
jiagu	-11.1889
dailaile	-11.1889
jixie、	-11.189
weita	-11.189
5—	-11.189
jiangshui	-11.1892
6.	-11.1893
kefukezhang	-11.1895
siyi	-11.1896
xujia	-11.1898
xining	-11.1898
tiwei	-11.1898
▁wangluo	-11.1899
zufu	-11.1899
。1998nian	-11.19
tayou	-11.19
0×	-11.1901
gongtongfazhan	-11.1901
gouwuzhongxin	-11.1903
,guming	-11.1903
shaojian	-11.1903
luanshi	-11.1904
yisilanjiao	-11.1905
jingyou	-11.1905
dati	-11.1905
dexingxiang	-11.1907
、zui	-11.1907
geini	-11.1907
piwei	-11.1908
-11	-11.1908
zhaohuan	-11.1909
gaogui	-11.191
wenzhong	-11.1912
quzhi	-11.1913
shuzhiwu	-11.1913
70niandai	-11.1915
shuifa	-11.1915
ranseti	-11.1916
jingyi	-11.1918
,2007nian	-11.1919
gaochan	-11.192
。1995nian	-11.192
zhongren	-11.1924
zizhuyanfa	-11.1924
kouan	-11.1925
(15	-11.1925
jincou	-11.1925
bingyou	-11.1926
gongshanghang	-11.1927
xinlizixun	-11.1929
wuxiao	-11.1931
▁kai	-11.1933
sanjian	-11.1936
lingsheng	-11.1937
guming	-11.1937
huayi	-11.1938
》zai	-11.1939
diaochayanjiu	-11.1941
xinnengyuan	-11.1942
ganhan	-11.1942
qinqie	-11.1946
yushui	-11.1948
yanjiu”	-11.1949
,wai	-11.1949
tourushiyong	-11.1951
xiaoye	-11.1953
qifa	-11.1954
xiaoyouxi	-11.1955
250ke	-11.1957
renxuan	-11.1957
gela	-11.1957
bingchuan	-11.1957
lushan	-11.1958
》()	-11.1958
wenmingde	-11.196
ouyang	-11.1961
;er	-11.1962
taiyuanshi	-11.1963
dengzhiwu	-11.1963
shenggao	-11.1967
lingyizhong	-11.1969
wugonghai	-11.197
moji	-11.1972
haimian	-11.1973
checheng	-11.1973
ruwu	-11.1974
youfengfude	-11.1979
qianshui	-11.1979
changfangxing	-11.1983
jianzhumianji2	-11.1983
biandong	-11.1984
guwen。	-11.1984
diyiren	-11.1987
jizhan	-11.1989
baoming	-11.1991
sesu	-11.1992
yezai	-11.1993
dianneng	-11.1993
xuanze。	-11.1993
yaocai	-11.1994
。1958nian	-11.1995
dongya	-11.1995
huanjingxia	-11.1995
zanyu	-11.1999
linyeju	-11.2002
daihao	-11.2003
10yuechusheng,	-11.2005
toufa	-11.2007
anquan、	-11.2007
jiangjiu	-11.2008
▁『	-11.2008
haikou	-11.201
shijiazhuangshi	-11.2011
haoxiang	-11.2014
pingfan	-11.2014
wujun	-11.2015
faguang	-11.2016
gaoshang	-11.2017
《shiji·	-11.2017
,biyeyu	-11.2018
hezhen	-11.2019
jianxiu	-11.2019
duanpianxiaoshuo	-11.2019
liangguo	-11.2022
haizai	-11.2022
denver	-11.2023
lingdaobanzi	-11.2023
jiucheng	-11.2023
heyingyong	-11.2024
qingtian	-11.2027
tanhua	-11.2028
yue21ri	-11.2029
zhongjiang	-11.203
“si	-11.203
lizheng	-11.2032
zhuandong	-11.2033
ganbing	-11.2037
hongshui	-11.2038
7.6	-11.2038
yixingcheng	-11.204
guangdayonghu	-11.204
ruxian	-11.204
guolai	-11.2041
guangkuode	-11.2041
jiangta	-11.2041
jianpi	-11.2042
biange	-11.2044
yure	-11.2044
chedao	-11.2044
,1997nian	-11.2045
gouzhu	-11.2051
。1985nian	-11.2051
deyijian	-11.2052
qianzhe	-11.2052
183	-11.2054
zhuyaofuze	-11.2057
yangeanzhao	-11.2057
jiemei	-11.2059
dediwei	-11.2061
xianhoudanren	-11.2063
fangsong	-11.2064
chenglihou,	-11.2066
delianxi	-11.2068
dufu	-11.2069
derenshi	-11.2069
shulian	-11.2071
meiqi	-11.2072
juhewu	-11.2073
dequanli	-11.2074
shoulule	-11.2077
mingliang	-11.2078
wuhui	-11.2079
jianqiao	-11.2079
shezu	-11.2081
daxuebenke	-11.2081
+2	-11.2082
poyou	-11.2082
yibing	-11.2082
zhanting	-11.2083
yazhong	-11.2084
huanggang	-11.2085
lixiu	-11.2085
:zhongguo	-11.2086
32.	-11.2087
jingqi	-11.2088
、shandong	-11.2088
zhiti	-11.2089
mayou	-11.2089
shiyebu	-11.2091
8～	-11.2091
yue24ri	-11.2092
xiangzhenqiye	-11.2092
ming“	-11.2092
dukaqi	-11.2093
poju	-11.2095
zhonglu	-11.2096
qianyu	-11.2099
,dongyu	-11.2099
。2010nian	-11.21
haoke	-11.21
zhimingqiye	-11.21
chanhou	-11.2104
fumo	-11.2105
donggan	-11.2105
jiashu	-11.2105
gongcheng”	-11.2108
paigu	-11.2108
shouling	-11.2108
diaoyanyuan	-11.211
zhongwenming:	-11.2113
。1994nian	-11.2116
fafang	-11.2117
duomeitijiaoshi	-11.2117
xiaokang	-11.2119
gongdi	-11.212
zhidingle	-11.212
zhiqiguan	-11.212
fenzhijigou	-11.2121
23ri	-11.2121
peixunjigou	-11.2122
xinxichanye	-11.2122
erbai	-11.2123
qingnianjiaoshi	-11.2123
gengdade	-11.2124
shenghuo。	-11.2124
yanjiujigou	-11.2124
yue17ri	-11.2125
mishi	-11.2125
loudong	-11.2126
muyu	-11.2126
gongshanglian	-11.2127
waidi	-11.2127
6.2	-11.2128
jiandui	-11.2129
shanyang	-11.213
165	-11.2131
,2002nian	-11.2132
lingbujian	-11.2132
zongbianji	-11.2136
sanming	-11.2136
9.0	-11.2136
dengyewu	-11.2137
zijue	-11.2137
wujian	-11.214
qiexiao	-11.2143
(3	-11.2144
quanzizigongsi	-11.2145
yue22ri	-11.2145
gaiyuan	-11.2146
jishuyuan	-11.2148
yuyiti,	-11.2148
dehaizi	-11.2148
wangjia	-11.2148
qingxian	-11.2149
buyuan	-11.2149
1986	-11.2149
134	-11.2152
qingyun	-11.2153
7%	-11.2153
zhiben	-11.2153
,1996nian	-11.2154
lianyihui	-11.2158
gongsizongjingli	-11.2158
deqingkuangxia,	-11.2161
jiaoche	-11.2162
hangyezhong	-11.2164
dianpu	-11.2167
dunhuang	-11.2168
shenmide	-11.2168
dexinli	-11.2168
jingyanhe	-11.217
ruguoni	-11.217
▁shexiangtou	-11.2172
qihuan	-11.2172
gaiming	-11.2174
jiaozao	-11.2174
hesheng	-11.2174
(17	-11.2174
biezhi	-11.2175
nanjingdaxue	-11.2177
banqian	-11.2179
2.9	-11.218
shejizhizao	-11.218
anding	-11.2181
tigongyige	-11.2181
liupai	-11.2181
jiangxue	-11.2182
rongjilv	-11.2182
yifeng	-11.2183
teji	-11.2184
7.0	-11.2186
beibu,	-11.2186
wenge	-11.2187
jianzhang	-11.2188
ganzhe	-11.2189
zhaoqi	-11.2189
kaixin	-11.219
bannian	-11.2193
¥	-11.2196
yuehan·	-11.2196
daichengshi	-11.2197
xianrenzhongguo	-11.2198
danci	-11.2199
duifu	-11.2199
shizui	-11.2199
ming,qizhong	-11.22
tigongzui	-11.2201
guicheng	-11.2202
xianjingnei	-11.2203
canjun	-11.2204
jidade	-11.2204
3ming	-11.2205
kuanshi	-11.2207
shoucang。	-11.2207
,jiashang	-11.2209
,tuidong	-11.2213
paimingdi	-11.2214
daxuebenkexueli	-11.2214
dishijie	-11.2215
jinzhou	-11.2215
,1998nian	-11.2215
,zhuceziben	-11.2216
tianjian	-11.2218
yifazhanchengwei	-11.2221
zaojiu	-11.2222
daiwang	-11.2223
sunhuai	-11.2224
youmingde	-11.2224
minjianchayuan	-11.2227
weiyuzhongguo	-11.2227
lou,	-11.2228
chujia	-11.2229
heguojia	-11.2234
dexuyao,	-11.2236
cunji	-11.2236
kunmingshi	-11.2237
1991	-11.2237
wenhuachanye	-11.2237
wuke	-11.2239
deyouguan	-11.224
yanjiurenyuan	-11.224
zidi	-11.2242
xinlaokehu	-11.2244
tumugongcheng	-11.2244
,quanguo	-11.2244
。dangshi	-11.2245
shiyanxuexiao	-11.2246
quji	-11.2246
chouyang	-11.2247
fufu	-11.2248
junzhi	-11.2248
zhaiwu	-11.2248
yue14ri	-11.2248
weimubiao,	-11.2248
,youzhengbianma	-11.225
,zuzhi	-11.225
weimubiao	-11.2251
mingti	-11.2252
9%	-11.2253
yue2	-11.2254
,zhejiang	-11.2255
60%	-11.2255
50°C	-11.2259
yubeijing	-11.2259
zhezhangka	-11.2261
“xiao	-11.2262
renmindaxue	-11.2262
kaifajianshe	-11.2263
《wo	-11.2263
xihua	-11.2265
dangweishuji、	-11.2265
jinkao	-11.2266
zhengce,	-11.2267
qufeng	-11.2267
wanshan,	-11.2268
yuanjing	-11.227
cailiao:	-11.2271
shi·	-11.2271
zhedie	-11.2272
shuibeng	-11.2273
rili	-11.2274
tianjiaji	-11.2275
buxia	-11.2275
0~	-11.2276
shirun	-11.2276
、tie	-11.2277
ziranbaohuqu	-11.2278
yue30ri	-11.2279
dezhongdian	-11.2279
fuwutixi	-11.228
xiuxianyule	-11.228
qixiade	-11.2282
deyewu	-11.2283
、guanli	-11.2285
xiangtong,	-11.2286
weizhongxin	-11.2287
ㄒ	-11.2288
peidai	-11.2288
keke	-11.2288
zhongguoshufa	-11.229
tingdao	-11.2291
shenjiagong	-11.2292
tese。	-11.2293
wenjiao	-11.2294
yehen	-11.2294
jiaoxiang	-11.2295
yanchanghui	-11.2295
buhao	-11.2296
19ri	-11.23
wanbao	-11.2302
linyu	-11.2302
chanpinhefuwu	-11.2305
yinglian	-11.2306
shangyejie	-11.2306
shenghuofangshi	-11.2306
haier	-11.2307
xigua	-11.2307
dedute	-11.2308
buxingjie	-11.2308
mingpaichanpin	-11.2308
lixiao	-11.231
yuhua	-11.231
wanwu	-11.2311
dizhixue	-11.2312
1400	-11.2312
qiufazhan	-11.2312
。yinci	-11.2321
7ren,	-11.2322
,xizhi	-11.2322
jianzhushi	-11.2322
banquan	-11.2323
zhongguoxiandai	-11.2323
bugou	-11.2323
pianlunwen	-11.2325
,fangzhi	-11.2325
diyiwei	-11.2328
▁youxi	-11.2329
1mi	-11.2329
pifubing	-11.233
guojishichang	-11.2332
zhangshi	-11.2333
xingxiao	-11.2333
dewenjian	-11.2334
keer	-11.2335
shengchanhe	-11.2335
qipai	-11.2336
zicong	-11.234
danye	-11.2341
chanpinleixing	-11.2342
citiao	-11.2343
chuangzaoxing	-11.2343
dianjie	-11.2343
chubande	-11.2344
yue6ri	-11.2347
shuihu	-11.2348
caiyou	-11.2348
zhiqian,	-11.2349
,zhizhi	-11.2351
,bingdui	-11.2355
cengbei	-11.2355
paobing	-11.2356
zangzu	-11.2358
dedaolu	-11.2358
jiashe	-11.236
chengtao	-11.236
dechengshi	-11.2362
xiaowang	-11.2364
lilv	-11.2366
zaiquanqiu	-11.2367
zhidu,	-11.2367
zhangcheng	-11.2367
hangkonghangtian	-11.2367
yiyue	-11.2367
21ri	-11.2368
defangxiang	-11.237
mingpian	-11.2374
jielun	-11.2378
▁si、	-11.2378
xinyongka	-11.2383
14.	-11.2383
yanjiu》、《	-11.2384
3wan	-11.2385
qizuopin	-11.2385
huzhu	-11.2386
2ke	-11.2386
zhiliyuwei	-11.2386
hongqiao	-11.2388
mindaibiaodahuic	-11.2388
7000	-11.2389
geile	-11.239
huizong	-11.2391
yushijujin	-11.2391
paiqian	-11.2392
youjing	-11.2393
cilei	-11.2393
jingzhong	-11.2394
yue27ri	-11.2395
xue》、《	-11.2396
yiwei“	-11.2396
guangkuo	-11.2397
nianqingde	-11.2398
yilun	-11.2398
chengqiang	-11.2401
wanyan	-11.2403
songdao	-11.2404
tedingde	-11.2404
118	-11.2406
,sichuansheng	-11.2406
zhisi	-11.2406
zaitade	-11.2406
quzhe	-11.2407
jiaoyugongzuozhe	-11.2408
tuzhi	-11.241
baike	-11.2411
zhumu	-11.2414
weizhi,	-11.2414
xuexi。	-11.2414
cankao。	-11.2415
yuangu	-11.2415
kehuan	-11.2415
daoli	-11.2415
310	-11.2415
zhanzhizai	-11.2415
fudu	-11.2416
1/4	-11.2416
(/)	-11.2418
shijianwei	-11.2419
hengyang	-11.242
kehufuwu	-11.2421
fanchou	-11.2421
paoguang	-11.2422
qigong	-11.2423
22ri	-11.2423
gongsishiyijia	-11.2423
fanli	-11.2424
suyou	-11.2425
shouchi	-11.2427
pinxue	-11.2428
yanxing	-11.2428
zongmianji1	-11.2428
,danzai	-11.2428
zongzhandimianji	-11.2428
1ge,	-11.2429
zhuliao	-11.243
churu	-11.243
budebu	-11.2431
guizhang	-11.2432
yuandi	-11.2432
fangzheng	-11.2432
yinxiao	-11.2433
。2.	-11.2434
gongsishengchan	-11.2435
zhenpin	-11.2435
anxi	-11.2435
gufenzhi	-11.2436
▁10	-11.2437
zunyi	-11.2437
biyeyushanghai	-11.2437
yiselie	-11.2438
moer	-11.2438
yueyu	-11.244
hangwuweiyuanhui	-11.244
jingyanfengfude	-11.244
dazhuanwenhua	-11.2441
kefangzongshu	-11.2441
minshi	-11.2443
,bixu	-11.2443
zhushihuishe	-11.2444
ganju	-11.2444
liuxiaorenjiao	-11.2445
。1989nian	-11.2446
qiquan,	-11.2446
anniu	-11.2447
suqu	-11.2447
,dadao	-11.2447
lezijide	-11.2447
tongguo9001	-11.2448
ping、	-11.2449
kuangchanziyuan	-11.245
denuli	-11.2451
kucun	-11.2451
fenshe	-11.2451
nangua	-11.2452
guanlixue	-11.2452
guanzhang	-11.2453
yue11ri	-11.2453
guanlizixun	-11.2454
shangfabiao	-11.2456
4hao	-11.2457
xiangliao	-11.246
xingganyan	-11.2461
fensui	-11.2461
,2008nian	-11.2464
15ge	-11.2465
shinin	-11.2466
bixia	-11.2466
yinbi	-11.2466
lvgao	-11.2466
wangluokeji	-11.2467
chanpinsheji	-11.2468
quxiang	-11.2468
,qita	-11.2468
deshenfen	-11.2469
xiangmuguanli	-11.2469
kangbing	-11.2469
daxingqiye	-11.2469
degongxian。	-11.2472
zhongguoren	-11.2474
niren	-11.2474
wangyi	-11.2474
tiaoweiliao	-11.2475
jinjun	-11.2475
daxuejiaoshou	-11.2477
duobian	-11.2479
waiguansheji	-11.2479
sishu	-11.2479
5.8	-11.248
gaichanpin	-11.2481
yue7ri	-11.2481
30wan	-11.2485
tianmen	-11.2485
xianhouronghuo	-11.2488
*1	-11.2489
145	-11.249
weichuang	-11.2491
ganmao	-11.2491
1ke	-11.2493
5pingfangmi	-11.2494
178	-11.2495
,daoru	-11.2497
8—	-11.2498
yue19ri	-11.2498
zhinei	-11.2499
yanfazhongxin	-11.2499
nanchao	-11.2499
yangyu	-11.25
dengfuwu	-11.25
chuanzhe	-11.2501
caikuai	-11.2502
benlai	-11.2502
taijiquan	-11.2502
zhuanghuang	-11.2504
shishijieshang	-11.2506
jiaozhang	-11.2508
jianglai	-11.2508
guolvqi	-11.2509
luanyuanxing	-11.2512
dezhengque	-11.2512
zhengfadaxue	-11.2513
cixi	-11.2513
yue3ri	-11.2514
qili	-11.2514
gaojingdu	-11.2514
keyou	-11.2514
shiqiye	-11.2516
xiaoyan	-11.2516
zhijinzai	-11.2517
9ren	-11.2518
1300	-11.2518
liangjia	-11.2518
yuta	-11.2519
yidi	-11.2519
sanfang	-11.252
gesi	-11.2521
zuoweiyige	-11.2521
longtan	-11.2521
shilixionghou	-11.2522
1985	-11.2522
ernian(	-11.2526
zhangzhuanji	-11.2527
kaigong	-11.2529
。1990nian	-11.2529
yue2ri	-11.2531
fazuo	-11.2532
(《	-11.2533
:12	-11.2533
xingshi。	-11.2533
jiapin	-11.2533
、guangdong	-11.2536
yingwu	-11.2537
jingliang	-11.2539
kuangshi	-11.2539
jianzai	-11.254
yue4ri	-11.2541
12yuesheng,	-11.2542
。1982nian	-11.2542
1987	-11.2545
chaiqian	-11.2545
jincun	-11.2547
(194	-11.255
make	-11.255
,zuida	-11.255
jiaoxuegaige	-11.2551
huayan	-11.2554
weishengting	-11.2554
jianbie	-11.2555
dahai	-11.2555
yiqing	-11.256
mingli	-11.256
zhuahao	-11.2562
jizhuangxiang	-11.2562
4.7	-11.2563
youguanguiding	-11.2563
miniao	-11.2563
cujinhui	-11.2567
5ri	-11.2568
zhihuibu	-11.2572
xinjin	-11.2572
caipan	-11.2573
yongfa	-11.2574
4mi	-11.2576
youxiurencai	-11.2577
zhangjiajie	-11.2578
gongli,ju	-11.258
hanghai	-11.2581
fengming	-11.2581
wangong	-11.2581
shuangying	-11.2582
zizi	-11.2582
shejiyu	-11.2582
shisu	-11.2583
mohu	-11.2585
shanxiang	-11.2587
faze	-11.2588
5.4	-11.2588
tangzhen	-11.2588
feili	-11.2588
dejingyan	-11.2589
4.4	-11.259
chulai,	-11.259
beiping	-11.259
hanglie	-11.2591
shunde	-11.2592
fuxie	-11.2594
youxiangongsich	-11.2595
cemian	-11.2596
jindu	-11.2596
xunfu	-11.2596
8pingfangmi	-11.2597
benpian	-11.2597
qiyong	-11.2598
dajiangsai	-11.2599
cihuiyi	-11.2599
guanliweiyuanhui	-11.26
jinyin	-11.26
wenxueyishu	-11.2602
dongmian	-11.2603
kaifahe	-11.2603
meishushi	-11.2604
huancheng	-11.2604
zhangli	-11.2609
yingyun	-11.2609
taihou	-11.261
zhuangde	-11.2613
(16	-11.2613
11yuesheng,	-11.2613
biyaode	-11.2614
yangzhen	-11.2615
moqi	-11.2616
guwen,	-11.2616
chanpinyanfa	-11.2617
juesai	-11.2618
jiejuefangan。	-11.2619
changshou	-11.2619
lvyouqu	-11.262
baoshe	-11.2621
zhenqing	-11.2623
shiyijian	-11.2624
fenxihe	-11.2624
bianhao:	-11.2626
chuanzhi	-11.2627
xuezheng	-11.2627
anqing	-11.2627
kaipi	-11.2627
shuixing	-11.2628
qingliang	-11.263
yongdian	-11.2631
yanhou	-11.2635
huangjiu	-11.2635
jingguojia	-11.2636
jingyande	-11.2636
wulin	-11.2637
gaozu	-11.2638
yueliang	-11.2639
shejilinian	-11.2639
wenrou	-11.2639
miaomu	-11.2641
lishi、	-11.2641
jichujiaoyu	-11.2642
,1993nian	-11.2643
chanpinhe	-11.2643
ledaliangde	-11.2643
dianrong	-11.2644
yuhuanjing	-11.2646
erfu	-11.2646
liancheng	-11.2646
lingmindu	-11.2648
4.6	-11.265
jiankangde	-11.2651
zhuanqu	-11.2651
jiazuo	-11.2651
-2-	-11.2652
rexin	-11.2652
erzhong	-11.2654
zhiwuyou	-11.2654
zhuyaochanpin	-11.2655
wenren	-11.2657
shuilu	-11.2657
zuxian	-11.2659
cunzaiyu	-11.2659
huzhou	-11.2661
fangdian	-11.2661
wenxueyuan	-11.2662
▁bengongsi	-11.2663
shandian	-11.2665
dezhenshi	-11.2665
jisuanjiwangluo	-11.2665
huichangwulishi	-11.2666
chunhua	-11.2667
2xiang	-11.2667
weinan	-11.2669
paodao	-11.267
sousuoyinqing	-11.2671
naiyong	-11.2672
luohan	-11.2672
xianweichangwei、	-11.2673
yaogan	-11.2673
°Cnianjiangshui	-11.2675
00yuren,	-11.2675
busi	-11.2678
tela	-11.2679
dejiankang	-11.268
300mi	-11.2681
“jin	-11.2681
wangzhan。	-11.2682
》(19	-11.2683
bubi	-11.2683
muye	-11.2688
yue13ri	-11.2689
shaixuan	-11.2689
fayan	-11.2689
-45	-11.269
buduo	-11.269
qufen	-11.2691
wangji	-11.2692
yishangxueli	-11.2695
16.	-11.2697
。shanchang	-11.2698
sandengjiang。	-11.2698
renleide	-11.27
hongse,	-11.2701
fenziliang	-11.2701
shengchanli	-11.2702
chongdianqi	-11.2704
dujuan	-11.2705
jiaohuo	-11.2706
fating	-11.2706
,zhijin	-11.2708
304	-11.2709
yue9ri	-11.2709
feifa	-11.271
juexin	-11.2711
yaoqiude	-11.2713
gongsiyu	-11.2714
jiayan	-11.2715
yinni	-11.2715
kejiao	-11.2716
9ri	-11.2716
,qizhongyou	-11.2718
。2000nian	-11.2718
qianti	-11.272
,youxiao	-11.2721
zaochuan	-11.2721
yanfa、shengchan	-11.2721
peichang	-11.2721
buchaoguo	-11.2724
gelan	-11.2724
zuoyongxia	-11.2725
guanlian	-11.2725
shuode	-11.2726
tiantian	-11.2727
qianrushi	-11.2728
queyou	-11.2729
,wulun	-11.2731
haowu	-11.2732
huagangyan	-11.2736
guoxue	-11.2737
remen	-11.2737
ㄌ	-11.2738
shangyequ	-11.2738
zhili,	-11.2739
dexiaoshou	-11.2741
dianzichanpin	-11.2743
7ri	-11.2743
zhufeng	-11.2743
jianzhucailiao	-11.2744
yejiu	-11.2745
hukou	-11.2747
gecunminzu	-11.2747
zazhi》	-11.2748
pingjing	-11.2748
guanxian	-11.2749
xincailiao	-11.2749
chaoshengbo	-11.275
shengxiao	-11.2753
shiting	-11.2753
shuiping,	-11.2753
guanliruanjian	-11.2756
changyuan	-11.2756
yajun	-11.2758
shanhua	-11.276
taishou	-11.276
mubiaoshi	-11.2767
0haomi,shiyi	-11.2768
nansheng	-11.2768
,1995nian	-11.2768
guanxinbing	-11.2769
jierang	-11.277
duoda	-11.277
yunan	-11.2775
lunli	-11.2776
yanjiushengyuan	-11.2779
m2,	-11.2779
lvye	-11.278
、shuang	-11.2781
gehangye	-11.2781
bufenzucheng	-11.2781
hengwen	-11.2782
,shixing	-11.2784
fangyi	-11.2785
xuanji	-11.2785
shangyezhongxin	-11.2785
wudai	-11.2786
jiequanguo	-11.2789
luoye	-11.2789
chengliyilai,	-11.279
6ri	-11.279
quanjun	-11.2791
,congci	-11.2791
zhuangyou	-11.2791
beidi	-11.2794
dezhuiqiu	-11.2794
handan	-11.2794
ke()	-11.2797
xiangshan	-11.2798
yuanhuiweiyuan。	-11.28
nongkeyuan	-11.28
deqianshenshi	-11.2801
dingdan	-11.2802
,daozhi	-11.2805
juyuwang	-11.2806
bianping	-11.2807
zhangjie	-11.2807
。1991nian	-11.2807
lianyungang	-11.2808
suofusuozhang	-11.2809
jinguo	-11.2814
yishuo	-11.2814
mayi	-11.2814
erzai	-11.2815
jinse	-11.2815
zhuanjia、	-11.2816
keaide	-11.2817
xiaopin	-11.2817
guyi	-11.2818
bianpai	-11.2819
た	-11.2819
biji	-11.282
ketangjiaoxue	-11.2821
jiuzhou	-11.2822
youkeneng	-11.2825
tejijiaoshi	-11.2827
fuding	-11.2827
shanfeng	-11.2829
ziboshi	-11.283
shichangxuqiu	-11.283
yejingxianshi	-11.2831
zheyeshi	-11.2831
zhuliao:	-11.2831
ganshoudao	-11.2831
cengyu	-11.2833
pingjunqiwen1	-11.2835
fangkong	-11.2838
xiawu	-11.2838
fading	-11.284
hanshi	-11.2841
な	-11.2842
fuwei	-11.2842
zhenjiang	-11.2842
jiarule	-11.2843
1gecunminxiaozu,	-11.2843
cunkuan	-11.2844
jianzhen	-11.2844
》you	-11.2845
yuanhuiweiyuan、	-11.2846
zhenjing	-11.2848
shengwukeji	-11.2849
yiguo	-11.2851
yishusheji	-11.2852
duchuang	-11.2853
jiaoda,	-11.2854
jianku	-11.2854
qiyezhiyi	-11.2854
177	-11.2855
chushengdi	-11.2855
bulai	-11.2855
guiding,	-11.2857
huizai	-11.2861
dixiashui	-11.2861
weifangshi	-11.2862
junzheng	-11.2864
yuanze,	-11.2866
lunwen20yupian	-11.2866
deyishou	-11.2866
jilupian	-11.2868
,zuji	-11.2869
guotu	-11.2871
1984	-11.2872
degongxian	-11.2873
gebie	-11.2874
zhenshide	-11.2875
xijin	-11.2876
yongshou	-11.2878
tianhuang	-11.2883
xianru	-11.2883
chuanda	-11.2884
souji	-11.2884
、nai	-11.2885
peibeile	-11.2885
jianliqi	-11.2887
chengweiyige	-11.2888
luoshanji	-11.2888
。1999nian	-11.2889
dikuai	-11.289
haidao	-11.2891
30gongli	-11.2892
yinhua	-11.2892
weishengyuan	-11.2893
weishu	-11.2893
shenchang	-11.2893
bianjiao	-11.2895
。quanshu	-11.2899
gulou	-11.29
niangjiu	-11.2901
,gongtong	-11.2902
,2000nian	-11.2903
1923nian	-11.2906
7～	-11.2906
,cengzai	-11.2907
qushi,	-11.2908
zhucun	-11.2908
。2001nian	-11.2908
shanghuo	-11.2909
jianzhufengge	-11.2913
huangtu	-11.2913
xianqi	-11.2914
gonggao	-11.2914
zuopinbei	-11.2915
zhugandao	-11.2916
liushuixian	-11.2917
zhizhong。	-11.2918
lingyifangmian	-11.2918
zheye	-11.2919
shi,ta	-11.292
charu	-11.2921
dongpo	-11.2922
lingdaoganbu	-11.2922
daxia	-11.2923
demimi	-11.2924
zihao	-11.2926
rouhe	-11.2926
cengshi	-11.2928
buer	-11.2929
qianduan	-11.2931
weimudi	-11.2932
kaishu	-11.2933
▁shu:	-11.2933
113	-11.2934
xixing	-11.2935
duotai	-11.2935
bianjibu	-11.2935
,shixianle	-11.2939
onggongdangyuan,	-11.2942
wuqian	-11.2943
junren	-11.2944
tijiao	-11.2945
minju	-11.2945
youcheng“	-11.2945
dianzijishu	-11.2947
luofu	-11.2947
。buguo	-11.2947
youyide	-11.2948
jiechude	-11.2948
。qizhong,	-11.2949
tongjing	-11.295
mu,jianzhumianji	-11.2951
yinhe	-11.2952
beikao	-11.2953
shurufa	-11.2954
24ri	-11.2954
me	-11.2954
wailai	-11.2955
kexueyugongcheng	-11.2955
yuhang	-11.2956
fangji	-11.2957
13ge	-11.2958
zhebenshu	-11.2959
qixue	-11.2959
juyoufengfude	-11.296
deyingxiang,	-11.296
boligang	-11.2961
chaoyangqu	-11.2961
gongjiaoche	-11.2961
fusi	-11.2962
6.3	-11.2964
yaoxue	-11.2964
ouran	-11.2965
banqiu	-11.2965
muben	-11.2967
diyizhongxue	-11.2967
hezhun	-11.2967
】	-11.2968
benpinwei	-11.2968
yatai	-11.2968
lida	-11.2969
xunzhang	-11.297
2003.0	-11.2971
dongting	-11.2972
yiweizhe	-11.2973
quanguocheng	-11.2974
,canjiale	-11.2974
buzhuo	-11.2975
pou	-11.2975
__	-11.2976
debiaoxian	-11.2978
yinxian	-11.2978
riqi:	-11.2981
sanxian	-11.2981
dasi	-11.2983
lingxianshuiping	-11.2984
guojiazhuanli	-11.2984
lvdou	-11.2985
zukang	-11.2988
keshang	-11.2991
,qudele	-11.2992
/.	-11.2993
deyouxiu	-11.2994
、jisuanji	-11.2994
guohui	-11.2995
wuxianwangka	-11.2995
heihese	-11.2996
->	-11.2997
yinliang	-11.2997
jiagongchang	-11.2999
jianzhuzhuangshi	-11.2999
fangfahe	-11.3001
,1984nian	-11.3003
shitang	-11.3004
suoni	-11.3004
pinzhong。	-11.3006
quanzu	-11.3006
jifang	-11.3007
zhiqu	-11.3007
zhanshile	-11.3008
yewu。	-11.3008
foxiang	-11.3009
gechang	-11.301
chujing	-11.301
!!	-11.3012
beisheng	-11.3012
shenzang	-11.3012
biya	-11.3012
liangli	-11.3013
с	-11.3013
shiyishou	-11.3014
buduanfazhan	-11.3015
sunzhongshan	-11.3016
xiancunrongliang	-11.3017
shizhuren	-11.3019
huiguan	-11.302
,jiangsu	-11.3024
jiajiang	-11.3025
jizhi,	-11.3025
sanyuan	-11.3026
shanjiaoxia	-11.3026
dangweiweiyuan、	-11.3026
pianyi	-11.3027
、tiyu	-11.3028
jiangmo	-11.3029
malingshu	-11.303
hangyun	-11.3031
beixuanwei	-11.3031
guiji	-11.3031
▁weile	-11.3032
,1988nian	-11.3033
yifangmian	-11.3033
sheyuan	-11.304
wenhuaguan	-11.3041
youhai	-11.3042
huodezhe	-11.3042
lvyouju	-11.3043
doujiang	-11.3044
baohuqu	-11.3046
yongshu	-11.3047
gushu	-11.3047
,shandong	-11.3049
xiongbu	-11.3049
,1992nian	-11.305
▁(si)	-11.3052
xuexiaoxianyou	-11.3052
defengge	-11.3053
baoluo	-11.3053
momo	-11.3055
zongtiguihua	-11.3055
:(	-11.3056
toushen	-11.3056
yuanxing,	-11.3056
lujiaohuichu	-11.3057
▁2004nian	-11.3057
rizhi	-11.3057
shifanxing	-11.3058
qisuo	-11.3058
xianyang	-11.306
mingwen	-11.3061
asi	-11.3061
jianhu	-11.3063
liansuojiudian	-11.3064
fangshexing	-11.3064
diandu	-11.3064
xuanwei	-11.3066
zhimin	-11.3068
baoman	-11.307
,qishi	-11.307
chuming	-11.3071
5yue,	-11.3071
feiwu	-11.3072
jiankangfazhan	-11.3073
suanxing	-11.3074
waichu	-11.3075
lu·	-11.3076
xieshi	-11.3077
shouduan,	-11.3077
shuangyu	-11.3078
denggongzuo。	-11.3078
jiabin	-11.308
3-5	-11.3082
heike	-11.3084
wanren,	-11.3085
、keji	-11.3085
7—	-11.3087
shiernian	-11.3087
erwu	-11.3087
guihuahe	-11.3088
zengduo	-11.3089
kewang	-11.309
linqu	-11.309
yizhen	-11.3091
shangshishijian:	-11.3092
zhongshanshi	-11.3093
、shenghuo	-11.3094
,youde	-11.3094
1993	-11.3095
xuqiu。	-11.3095
xuehuifuhuizhang	-11.3096
huizhanzhongxin	-11.3097
taizong	-11.3099
shiwunian	-11.31
200yu	-11.31
budai	-11.3102
jinshucailiao	-11.3103
xiangjiehe,	-11.3104
bilu	-11.3106
liliang,	-11.3106
3-4	-11.3107
weiyiyijia	-11.3108
zhenggong	-11.3108
weizhuti	-11.311
,suihou	-11.3112
jiangong	-11.3112
mianjiwei	-11.3113
zhizuoren	-11.3113
-40	-11.3115
zhaogu	-11.3119
xieli	-11.3119
。1956nian	-11.312
jieda	-11.312
weiwoguo	-11.3121
shangpu	-11.3122
canyule	-11.3123
yidengjiang,	-11.3127
40duo	-11.3127
shouzu	-11.3128
miao,	-11.313
1qian	-11.313
fuwupingtai	-11.3131
xuanqu	-11.3131
tang·	-11.3132
jiannan	-11.3132
caochang	-11.3133
xianjie	-11.3134
qiangji	-11.3134
heshehuifazhan	-11.3135
xinzhi	-11.3137
dengbumen	-11.3138
erjie	-11.3138
yiliaojigou	-11.3139
jiangxuejin	-11.3141
yueding	-11.3142
lishizhang	-11.3142
shugan	-11.3143
danhuangse	-11.3144
lilai	-11.3144
10yue,	-11.3146
xizhen	-11.3147
jiangzai	-11.3147
daibiaodahui	-11.3149
fubuzhang	-11.315
pengzhuang	-11.315
juyoulianghaode	-11.3151
qixie	-11.3151
jigezhong	-11.3151
,nv,hanzu,	-11.3152
deshouxuan	-11.3153
10/100	-11.3153
baofu	-11.3154
chengxin、	-11.3155
。1987nian	-11.3156
duijiao	-11.3159
quancungongyou	-11.316
chunji	-11.3165
,jianyu	-11.3165
0wanyuan,	-11.3165
。1986nian	-11.3168
、shangye	-11.317
zhunian	-11.3171
canlan	-11.3171
siqu	-11.3172
yunsuan	-11.3172
shuangshou	-11.3172
xianju	-11.3173
xinyuan	-11.3174
fabiaoyu	-11.3174
beijie	-11.3175
,2001nian	-11.3177
xitonggongcheng	-11.3177
zhishang,	-11.3177
“xin	-11.3178
ceshiyi	-11.3184
zhidao,	-11.3185
bukeneng	-11.3185
gangao	-11.3186
liuxingyu	-11.3187
6.8	-11.3188
gelin	-11.3192
50nian	-11.3192
》xilie	-11.3192
"。	-11.3192
gongshu	-11.3193
50-	-11.3193
rongna	-11.3194
ranse	-11.3194
huashengdun	-11.3194
15nian	-11.3195
《song	-11.3195
(4	-11.3196
gongmao	-11.3197
jiaoxueyanjiu	-11.3198
yuetan	-11.3199
bizhen	-11.3199
shiwomende	-11.32
di7	-11.32
chezai	-11.3201
muyang	-11.3201
yanzhe	-11.3202
xinzangbing	-11.3202
132	-11.3202
kemu	-11.3202
pentu	-11.3205
tongti	-11.3205
5.3	-11.3205
beiduan	-11.3206
chenghao,	-11.3206
jijikaizhan	-11.3208
renzhonggongdang	-11.3209
maijin	-11.321
jichulilun	-11.321
jingzi	-11.3211
keyanjigou	-11.3211
5mi,	-11.3211
gaoliang	-11.3212
junzai	-11.3212
weiyan	-11.3212
nazhong	-11.3213
taixian	-11.3214
taoli	-11.3214
zhidou	-11.3215
haihui	-11.3217
tongshihai	-11.3219
dagang	-11.322
wenhuadiyun	-11.3222
shengjiyishang	-11.3223
zhexiang	-11.3224
minnan	-11.3225
yetai	-11.3225
,zaocheng	-11.3226
=1	-11.3227
,tichu	-11.3227
qudefan“weijiao”	-11.3227
changyou	-11.3228
Ω	-11.3228
00duowanyuan	-11.3232
nianchanzhi	-11.3232
xiangchang	-11.3232
dianping	-11.3234
、caiwu	-11.3234
chanpinyi	-11.3235
,zhongyu	-11.3235
diandongji	-11.3236
▁suizhe	-11.3236
156	-11.3237
juxiancheng	-11.3237
,bianyuan	-11.324
shuxiang	-11.324
waice	-11.3241
,1985nian	-11.3241
)ren,	-11.3242
:wu	-11.3243
bujinshi	-11.3243
jixujiaoyu	-11.3244
wangu	-11.3245
zhufei	-11.3245
8.0	-11.3245
zuo“	-11.3245
:20	-11.3245
138	-11.3246
fenhua	-11.3247
8.1	-11.3247
luanxing	-11.3249
qipao	-11.325
faguan	-11.3251
gonghao	-11.3252
aili	-11.3252
shangqian	-11.3253
kehuduan	-11.3254
sucai	-11.3256
xiaru	-11.3258
duofang	-11.3258
chuangxinxing	-11.3259
jingyingfanwei	-11.326
sangshi	-11.3261
bujing	-11.3262
baituo	-11.3263
zhengguanliju	-11.3264
guanghui	-11.3264
chanpinyuanxiao	-11.3269
peiyi	-11.3269
tianti	-11.327
kelisi	-11.327
duopianlunwen	-11.3271
buming	-11.3272
xiancang	-11.3272
jiajiao	-11.3274
chengshijianshe	-11.3275
weiguo	-11.3275
tangchi	-11.3275
:neizhi	-11.3275
fabiaole	-11.3276
/4	-11.3276
gouqi	-11.3276
huangyou	-11.3278
jiaoguan	-11.3278
taoqi	-11.3279
jishuyu	-11.3279
shangbai	-11.3281
【	-11.3281
baojianpin	-11.3283
xianghuzuoyong	-11.3284
yishi。	-11.3285
bilv	-11.3286
yijiuba	-11.3288
yumin	-11.3289
3ri	-11.3291
、guangxi	-11.3293
yuanchengjiaoyu	-11.3293
ernian(1	-11.3293
wenxuan	-11.3295
•	-11.3296
shuiguan	-11.3297
,liqiu	-11.3297
xingzou	-11.3298
7.1	-11.3298
quanshui	-11.3302
guangchang、	-11.3302
▁waiguan	-11.3303
ㄙ	-11.3303
▁8	-11.3304
ren。zh	-11.3304
luanxing,	-11.3305
dangci	-11.3306
zuizhumingde	-11.3306
bodong	-11.3307
wukelan	-11.3308
bala	-11.3308
waimian	-11.3308
youse	-11.3309
hangyenei	-11.3309
xunhui	-11.3309
tianzhen	-11.331
xiaohai	-11.331
shantoushi	-11.3311
weimin	-11.3311
jianfu	-11.3312
fugui	-11.3312
hualang	-11.3313
leyixie	-11.3313
fabiaoxueshu	-11.3313
hewanshan	-11.3313
tiaoxuan	-11.3316
jiaobanjunyun	-11.3316
keche	-11.3317
tongguan	-11.3317
lishiyoujiu,	-11.3318
jileile	-11.3319
yinhang、	-11.332
zhiwai,	-11.332
yundongde	-11.3323
dengzhongduo	-11.3323
333	-11.3326
renxian	-11.3326
jueyi	-11.3327
。zuopin	-11.3327
xixiao	-11.3327
xiaoshouwangluo	-11.3327
jiaoji	-11.3328
}	-11.3329
ん	-11.3329
detedian,	-11.3329
wenhuachengdu	-11.3329
shayan	-11.333
youxianzeren	-11.3331
cunluo	-11.3332
100yu	-11.3333
ganxie	-11.3333
jiefangzhanzheng	-11.3334
xuanwu	-11.3335
。gongsiyongyou	-11.3335
jiangzhang	-11.3336
yebei	-11.3339
douke	-11.3339
haozhao	-11.334
shupi	-11.3343
nanzhujue	-11.3344
zhaoze	-11.3345
jinsha	-11.3346
guju	-11.3347
fengqi	-11.3349
,chule	-11.3349
changtu	-11.3349
jiqun	-11.3351
jinzhu	-11.3351
yushan	-11.3351
,fouze	-11.3351
6pingfangmi	-11.3351
kelong	-11.3352
20ge	-11.3352
qinhuangdao	-11.3352
jingyinglinian	-11.3352
,zengqiang	-11.3354
wenhuayanjiu	-11.3357
111	-11.3359
zhanhou	-11.3361
shuihe	-11.3362
weineng	-11.3363
,tongshiyeshi	-11.3363
、shipin	-11.3364
yasuoji	-11.3366
zouguo	-11.3367
gumingsiyi	-11.3367
shengxing	-11.3368
dengguo	-11.3368
tiansheng	-11.3369
ningjing	-11.3369
nongminshouru	-11.337
basi	-11.3371
shejiyuan	-11.3371
faner	-11.3371
zongxiang	-11.3371
в	-11.3371
,lishu	-11.3372
xiangguanzhuanye	-11.3372
4—	-11.3372
～1	-11.3373
,sucheng	-11.3375
tongjiang	-11.3375
jiao“	-11.3376
huodeguojia	-11.3378
hezhu	-11.3379
6.1	-11.3381
jianghua	-11.3384
meiyue	-11.3384
renkou1	-11.3385
anjing	-11.3386
renjungengdi0.	-11.3388
chuju	-11.3389
bingxue	-11.3391
,xianhouzai	-11.3392
;tongshi	-11.3392
shandongdaxue	-11.3393
huaguan	-11.3393
yanxian	-11.3393
30-	-11.3394
youzi	-11.3394
pucha	-11.3395
114	-11.3395
taian	-11.3397
putaotang	-11.3398
,1999nian	-11.3398
neirongfengfu	-11.34
”huo“	-11.34
xuepai	-11.3401
kexueyanjiusuo	-11.3402
ㄠ	-11.3403
tongche	-11.3403
qiaokeli	-11.3403
wosi	-11.3404
zuopinji	-11.3409
tedian,	-11.3409
baer	-11.341
shushu	-11.341
kongxin	-11.341
jiaoxuekeyan	-11.3413
xuexihe	-11.3415
tuxian	-11.3416
zibu	-11.3416
linjie	-11.3417
▁2003nian	-11.3417
jiudianyongyou	-11.3417
,fabiao	-11.3419
shili,	-11.3419
decunzai	-11.342
▁shili	-11.3421
kongxi	-11.3421
yindunixiya	-11.3424
,bianyu	-11.3425
chuangshi	-11.3426
sidun	-11.3427
yemeiyou	-11.3427
yingwenming:	-11.3428
nikeyi	-11.343
11ri	-11.3432
biaozhun。	-11.3434
fangyuan	-11.3434
1yue1ri	-11.3435
dengzhuduo	-11.3436
shangdi	-11.3436
texiao	-11.3439
gongyixing	-11.344
neiyi	-11.3442
,shicong	-11.3445
chuanshang	-11.3445
mibei	-11.3446
,peiyang	-11.3446
yangqu	-11.3447
juzhen	-11.3447
wenxuezuopin	-11.3447
luoyangshi	-11.3448
-30	-11.3448
1980	-11.3448
zhongdeyizhong	-11.3448
cangpin	-11.3449
zhisuoyi	-11.345
zhongguowenhua	-11.345
fengmian	-11.345
yingyin	-11.3451
mubiaodi	-11.3451
yanhui	-11.3453
chengli。	-11.3454
huqu	-11.3454
waiguoyuxueyuan	-11.3454
dongan	-11.3455
defuqin	-11.3456
deshidai	-11.3457
,1987nian	-11.3457
weiyuhenansheng	-11.3458
hongjiao	-11.3459
lijin	-11.3462
1922nian	-11.3462
aini	-11.3462
jiazhiguan	-11.3463
deshengli	-11.3463
xueya	-11.3463
lishide	-11.3463
zhuanzhan	-11.3463
laobaixing	-11.3464
rencheng	-11.3465
muzang	-11.3468
liujia	-11.347
,jingchang	-11.347
chengxinweiben	-11.347
fashou	-11.3471
nankaidaxue	-11.3472
weijishi	-11.3474
yueyang	-11.3474
@	-11.3475
zhongcaoyao	-11.3475
zhongbiao	-11.3475
weiliangyuansu	-11.3475
yumao	-11.3476
wendai	-11.3476
liming	-11.3477
yiyide	-11.3477
chengyin	-11.3478
kusi	-11.3479
renjungengdi1.	-11.3479
zhuchan	-11.3479
foxue	-11.3481
nvwang	-11.3481
xianjindanwei”	-11.3482
depinzhi	-11.3482
huamei	-11.3483
shiduonian	-11.3483
gezhuanye	-11.3483
tamenzai	-11.3484
―	-11.3485
tianshui	-11.3489
yue29ri	-11.3489
gaoxinjishuqiye。	-11.349
xiaxiang	-11.349
jinghu	-11.3491
shuji。	-11.3493
dizuo	-11.3495
chengnei	-11.3497
fulan	-11.3498
kaifachu	-11.3499
fengbao	-11.35
sugelan	-11.3501
▁:9787	-11.3501
qiyexingxiang	-11.3502
,1994nian	-11.3504
zuzhuang	-11.3508
yueju	-11.3508
chongmanle	-11.351
shijieshangzui	-11.3511
wandou	-11.3512
piaoliang	-11.3515
,keshi	-11.3516
yewufanwei	-11.3516
jiacun	-11.3516
huicui	-11.3519
toushi	-11.3519
bieming:	-11.352
zhongqing	-11.3521
zidongkongzhi	-11.3521
huiyuandanwei	-11.3522
{	-11.3523
、jiancha	-11.3523
nanping	-11.3524
zhuxian	-11.3525
ticao	-11.3526
qincai	-11.3527
zuoren	-11.3527
0mi,nian	-11.3527
—)	-11.3527
zhilian	-11.3529
zongji	-11.353
jiaoyu、	-11.353
gugongbowuyuan	-11.353
gongchi	-11.3531
linggan	-11.3531
taiduo	-11.3531
fenqi	-11.3533
gongnengde	-11.3533
162	-11.3534
keshiyong	-11.3537
gushi。	-11.3538
qiyehe	-11.3538
zhishi。	-11.3539
weixuesheng	-11.354
wanhao	-11.3541
minhang	-11.3542
,2009nian	-11.3542
16ge	-11.3543
yubao	-11.3544
yuguonei	-11.3545
,yishi	-11.3545
,zongrenkou	-11.3547
5.7	-11.3549
meihaode	-11.3549
yiqishebei	-11.3552
hupan	-11.3552
dizhu	-11.3553
yundongchang	-11.3554
”()	-11.3554
yongci	-11.3554
,quanzhang	-11.3554
laiziyu	-11.3554
liuzhi	-11.3556
gongju,	-11.3556
dezhandou	-11.3557
fanghuoqiang	-11.3558
kouzhen	-11.3558
jintie	-11.3559
fute	-11.356
wuliang	-11.3562
shangjiang	-11.3562
。xingrong	-11.3562
tiaojian。	-11.3562
yezi	-11.3562
shourou	-11.3563
14ge	-11.3563
gaojijingjishi	-11.3564
420	-11.3567
danweide	-11.3568
cengcanjia	-11.3568
0000pingfangmi	-11.3568
jiezhong	-11.357
puxian	-11.357
shichuangyu	-11.3573
tingli	-11.3575
hebingercheng	-11.3576
outu	-11.3576
dishiyijie	-11.3579
huace	-11.358
yulan	-11.358
,xiong	-11.3582
suozuode	-11.3582
shitade	-11.3583
zuoyongde	-11.3584
zhuyaochengfen	-11.3586
yiqiyibiao	-11.3586
jianshou	-11.3586
chaoxiang	-11.3586
tusi	-11.3587
jiaohuanji	-11.3587
wanren。	-11.3589
changchunshi	-11.3589
jianqiang	-11.3589
▁tiaoliao:	-11.3595
gengda	-11.3595
dianzikeji	-11.3596
daxiyang	-11.3596
wulong	-11.3599
xuefu	-11.3599
232	-11.36
bianjiede	-11.3601
kuaguo	-11.3602
lichang	-11.3605
jiaowu	-11.3606
quanguozhongdian	-11.3607
fushan	-11.3607
weiya	-11.3608
jingwai	-11.3612
fazhanzhong	-11.3612
gongchengjixie	-11.3613
dengjiang1xiang	-11.3613
jiaoyuxue	-11.3614
nuobeier	-11.3614
yibanwei	-11.3616
shenli	-11.3616
huating	-11.3617
junshu	-11.3617
chengming	-11.3617
dexianxiang	-11.3617
zhongzhen	-11.3618
dezhengzhi	-11.3618
yuanshu	-11.3621
shangban	-11.3621
duyoude	-11.3621
guojiashuiwuju	-11.3622
buyiyang	-11.3622
chunjing	-11.3624
1912nian	-11.3625
zhuanyezhishi	-11.3625
xiangqin	-11.3626
jiaruzhongguo	-11.3627
。cengzai	-11.3628
pianji	-11.3628
zhongyaozuoyong	-11.3628
chaiyou	-11.3629
honghua	-11.3629
changmian	-11.3629
127	-11.3629
。1983nian	-11.363
huichuxian	-11.363
erte	-11.3633
yeshengdongwu	-11.3634
zhiyexueyuan	-11.3634
jinyuan	-11.3635
menghuan	-11.3636
gaoerfu	-11.3636
shehuibaozhang	-11.3637
baodong	-11.3637
3.9	-11.3637
malu	-11.3637
anquanguanli	-11.3639
mubiao。	-11.3639
1920nian	-11.3639
yutang	-11.364
yigen	-11.3642
shishenme	-11.3645
shengmingkexue	-11.3648
sheyingshi	-11.3648
gongda	-11.3651
fenbiehuo	-11.3652
、nanjing	-11.3654
qiandao	-11.3654
damianji	-11.3655
diaoyong	-11.3658
zhizuo,	-11.3659
dishier	-11.3659
cuxiao	-11.3659
yueshu	-11.366
putongde	-11.366
ganzhi	-11.366
yongzhi	-11.366
fangzhen,	-11.3661
anqi	-11.3663
,chongfen	-11.3663
dengduojia	-11.3666
shuye	-11.3667
woxian	-11.3668
guanlichu	-11.367
boxue	-11.367
luodi	-11.3671
youliangzhong	-11.3672
qingting	-11.3673
huanjing。	-11.3673
guanligongzuo。	-11.3673
changzhoushi	-11.3673
duoyu	-11.3674
hetade	-11.3675
ruyu	-11.3675
peixunxuexiao	-11.3676
zhiyide	-11.3676
jidongche	-11.3676
:16	-11.3677
yumaoqiu	-11.3678
6.6	-11.368
17ri	-11.3682
xielou	-11.3682
,manzu	-11.3682
zuogong	-11.3682
kaifaliyong	-11.3682
zhoushan	-11.3683
tiaoli》	-11.3686
》ruxuan	-11.3689
lingdaohe	-11.3689
zuli	-11.3689
cipan	-11.3689
mingyou	-11.369
lindi	-11.3691
zhengshu。	-11.3693
changchangzhang	-11.3696
paide	-11.3697
xinxizhongxin	-11.3697
daihuang	-11.3698
pizhunchenglide	-11.3698
zheduan	-11.3699
demudi。	-11.3699
(beijing)	-11.3699
。ruo	-11.37
zhangqi	-11.3701
lvbu	-11.3702
xiangxicanshu	-11.3702
pianxiaoshuo	-11.3703
biaozhizhe	-11.3705
,shiwoguo	-11.3706
xiangfu	-11.3708
biaoqing	-11.3708
zhuanhuawei	-11.3709
dianliang	-11.3709
fukuan	-11.371
,zhejiushi	-11.371
15.	-11.3711
xingfen	-11.3712
shuqi	-11.3713
huaju	-11.3714
dedianying	-11.3719
wenhuazhongxin	-11.372
gongkuang	-11.3721
renwei,	-11.3722
kaluo	-11.3722
honggan	-11.3723
zeyou	-11.3724
yibi	-11.3725
dizhonghai	-11.3725
zhicheng。	-11.3725
longqi	-11.3725
liliang。	-11.3729
yinyuan	-11.373
enshi	-11.3732
qiangli	-11.3733
binzhou	-11.3733
zanshi	-11.3733
biandao	-11.3733
nonghou	-11.3735
wuling	-11.3735
shiyizhi	-11.3738
zhuhu	-11.3738
shouhuanying	-11.374
peixunjidi	-11.3741
dazaode	-11.3741
yejishuxueyuan	-11.3742
santiao	-11.3744
zhengfubumen	-11.3744
kangxing	-11.3746
kaifashang	-11.3746
butongyu	-11.3747
biaozhixing	-11.3747
tedianshi	-11.3747
xiulian	-11.3748
gengming	-11.3749
xuehuilishi,	-11.3749
jiaotongbu	-11.3749
gongyeqiye	-11.375
jiaozhiyuangong	-11.3751
shuilishuidian	-11.3753
zuchengbufen	-11.3753
jiawan	-11.3754
fazhanqushi	-11.3756
shuishen	-11.3757
gongyinglian	-11.3757
と	-11.3757
,1986nian	-11.3757
youtuchugongxian	-11.3758
quyunei	-11.3759
zhongdeyige	-11.3761
zhengzhijia	-11.3761
hanzuchuantong	-11.3764
3500	-11.3766
liuxuesheng	-11.3771
xiyan	-11.3771
jiaohua	-11.3772
guapai	-11.3773
qiechu	-11.3773
quanmin	-11.3773
mingmingwei“	-11.3773
maanshan	-11.3773
4xiang	-11.3773
tili	-11.3774
shebeiqiquan	-11.3776
,pingjun	-11.3779
zhijinyiyou	-11.3779
mianji4	-11.378
shuoshixuewei。	-11.3781
qiangshi	-11.3783
400mi	-11.3785
xingchengleyi	-11.3788
,beikao	-11.3788
shuqing	-11.3789
qingfeng	-11.379
suibi	-11.379
qingche	-11.3793
benxian	-11.3795
。cenghuo	-11.3795
(5zhang)	-11.3796
huanchong	-11.3797
damo	-11.3798
9gongli	-11.3798
kaifale	-11.3799
shifenbianli。	-11.3799
chengdong	-11.3801
henqiang	-11.3803
aizheng	-11.3804
gongqi	-11.3805
xiangdao	-11.3805
zhenzhen	-11.3805
changle	-11.3806
shengzhangzai	-11.3808
5haomi	-11.381
queli	-11.3811
meisu	-11.3812
pinchang	-11.3812
jigoubianzhi	-11.3814
(shi)	-11.3814
yu2005nian	-11.3815
guancang	-11.3815
duiyingde	-11.3816
dedifang。	-11.3818
si()	-11.3818
。1980nian	-11.3819
liangbufen	-11.3821
banxuelinian	-11.3822
fazhanfangxiang	-11.3824
daishu	-11.3825
yiliaobaoxian	-11.3825
▁8.	-11.3827
(jinshu	-11.383
yidapi	-11.383
shijiqingkuang	-11.3831
shashou	-11.3834
ト	-11.3834
futong	-11.3834
chanchu	-11.3835
baolu	-11.3835
shenyan	-11.3838
deyouxiao	-11.3838
g	-11.3839
xitu	-11.384
·li	-11.384
bokuan	-11.3841
xiangduiyu	-11.3843
jiuge	-11.3843
(yi)	-11.3843
qingrejiedu	-11.3844
dengguojiahediqu	-11.3846
zongcheng	-11.3847
▁yingyongpingtai	-11.3848
144	-11.3849
jilie	-11.3849
benzuo	-11.3849
daigei	-11.3849
chunzheng	-11.385
yingcai	-11.385
tangsong	-11.3851
jiaqiao	-11.3851
ganbuzhigong	-11.3852
benci	-11.3854
yanqian	-11.3854
ya·	-11.3854
ziyuande	-11.3855
▁dang	-11.3856
hali	-11.3857
huoju	-11.3857
gongyue	-11.3857
feicui	-11.3858
deguoji	-11.386
juanzhi	-11.3863
zhuangtai,	-11.3864
yantaishi	-11.3865
kaikou	-11.3866
zhentan	-11.3867
xingzhidi	-11.3868
chubanfaxing	-11.3868
xinxiguanli	-11.387
dishisi	-11.3872
fukeji	-11.3872
chongshang	-11.3872
detezheng	-11.3874
heise,	-11.3876
kelai	-11.3876
longgang	-11.3877
henrongyi	-11.3878
zhiriqi	-11.3878
bulang	-11.3878
tiaozhi	-11.388
shuji,	-11.3881
gezirancun,	-11.3882
▁chanpinchicun	-11.3883
cuihuaji	-11.3885
tongban	-11.3888
gaiban	-11.3889
biaopei	-11.389
shebeixianjin	-11.389
liangbian	-11.3891
menkou	-11.3892
zungui	-11.3893
guanlijingyan	-11.3893
zuzhikaizhan	-11.3898
wenxuechuangzuo	-11.3902
kuaidi	-11.3903
qunian	-11.3903
155	-11.3904
luohou	-11.3904
tiwai	-11.3904
henxiao	-11.3905
zhuangzai	-11.3905
caozong	-11.3905
xitongdi	-11.3909
changduan	-11.3909
shisannian	-11.3909
lunwenji	-11.3909
jiner	-11.391
duojian	-11.391
pianqu	-11.3911
deyoudian	-11.3915
5×	-11.3916
▁8、	-11.3918
zaoshou	-11.3918
5°	-11.3919
)-	-11.3919
fada,	-11.3919
yuguoneiwai	-11.392
300ke	-11.392
chuzai	-11.3921
pangdade	-11.3923
pinfan	-11.3924
jingsui	-11.3925
qinglong	-11.3926
guangzhao	-11.3928
pinpaixingxiang	-11.3928
yanjiushizhuren	-11.3928
6wan	-11.3929
dijieshaole	-11.393
guihuajianshe	-11.393
tuoye	-11.3931
guizhi	-11.3931
changge	-11.3933
nianhua	-11.3933
haishen	-11.3935
yukehu	-11.3937
yuxiandai	-11.3938
gaibianle	-11.3939
116	-11.3939
congrong	-11.394
youxiuzuopin	-11.394
bagua	-11.3943
leyixilie	-11.3944
164	-11.3945
hegeren	-11.3946
guanlizhongxin	-11.3949
guanlizhuanye	-11.395
zaocan	-11.395
chongzhen	-11.3951
gouchengde	-11.3952
jiekou,	-11.3953
tuichong	-11.3955
fuchuji	-11.3955
12yuejiaruzhong	-11.3956
kanfa	-11.3957
gaizhuang	-11.3957
bianhuade	-11.3961
daoxian	-11.3962
8.2	-11.3962
12ren	-11.3963
richanggongzuo	-11.3964
,1991nian	-11.3964
fuwushang	-11.3965
nanchangshi	-11.3966
goutu	-11.3967
zaojia	-11.3967
shuiwei	-11.397
donggua	-11.3973
jinjinianlai	-11.3974
qinglian	-11.3975
muxiang	-11.3975
kouhao	-11.3975
suoweide	-11.3976
qinggongye	-11.3976
14ri	-11.3977
paihangbang	-11.3978
neice	-11.3978
taier	-11.3979
xianhoubei	-11.3979
daibiaotuan	-11.3979
quanneng	-11.3981
18ge	-11.3982
shuxia	-11.3982
hanyang	-11.3983
taijie	-11.3985
quanzhoushi	-11.3985
weizhuti,	-11.3986
ranyou	-11.3986
yaokong	-11.3987
shanbei	-11.3988
·ma	-11.3988
wenxuejia	-11.3989
(199	-11.3989
yingzi	-11.3989
tonggao	-11.399
wawa	-11.399
zhengxingmeirong	-11.3992
tasuo	-11.3993
yanjiuyu	-11.3993
gexin	-11.3995
zhige	-11.3995
jigougaigefangan	-11.3995
dezhizuo	-11.3995
zhucechengli	-11.3998
pipei	-11.3998
к	-11.3999
dezhenzhi	-11.3999
anning	-11.3999
jinianbei	-11.4
duizhongguo	-11.4002
gonghuizhuxi	-11.4003
shaoyang	-11.4004
wenchang	-11.4006
,1989nian	-11.4007
%;	-11.4007
men、	-11.4007
tushushi	-11.4008
[...]
